#version: 0.2
な い</w>
ま す</w>
で す</w>
す る</w>
い る</w>
こ と</w>
か ら</w>
こ の</w>
あ る</w>
ま し</w>
な た</w>
あ なた</w>
そ の</w>
さ い</w>
そ れ</w>
し い</w>
よ う</w>
か っ</w>
ま せ</w>
た い</w>
く だ
彼 女</w>
た ち</w>
くだ さい</w>
さ ん</w>
こ れ</w>
な っ</w>
れ る</w>
あ り</w>
な ら</w>
ん な</w>
で き</w>
て も</w>
ま で</w>
っ と</w>
と ても</w>
い い</w>
ど う</w>
そ う</w>
い つ</w>
っ て</w>
な く</w>
今 日</w>
た ら</w>
な る</w>
し ょ
た め</w>
仕 事</w>
え る</w>
しょ う</w>
も う</w>
な り</w>
な かっ</w>
も の</w>
つ い</w>
だ け</w>
し く</w>
け る</w>
か り</w>
て る</w>
ー ル</w>
い う</w>
日 本</w>
行 き</w>
行 っ</w>
き る</w>
ら れ</w>
だ っ</w>
ろ う</w>
時 間</w>
ま っ</w>
け れ</w>
ち ゃ
自 分</w>
好 き</w>
で きる</w>
く れ</w>
よ り</w>
こ こ</w>
行 く</w>
あ の</w>
な けれ</w>
ま だ</w>
我 々</w>
少 し</w>
い た
ま た</w>
こ ろ</w>
あ っ</w>
じ ゃ</w>
下 さい</w>
な ん</w>
言 っ</w>
よ く</w>
で し</w>
せ る</w>
め る</w>
思 い</w>
ち ょ
で しょう</w>
必 要</w>
や っ</w>
と ころ</w>
そ こ</w>
だ ろう</w>
も ら
な さい</w>
本 当</w>
食 べ</w>
た り</w>
け ど</w>
つ け</w>
考 え</w>
ー ト</w>
英 語</w>
問 題</w>
と う</w>
明 日</w>
べ き</w>
ッ ト</w>
ど こ</w>
あ り
ま り</w>
持 っ</w>
子 供</w>
思 っ</w>
一 緒</w>
願 い</w>
ざ い</w>
ご ざい</w>
多 く</w>
か け</w>
す ぐ</w>
出 し</w>
よ い</w>
あり が
会 社</w>
楽 し
そ んな</w>
お り</w>
大 き
教 え</w>
思 う</w>
学 校</w>
ありが とう</w>
た く
も し</w>
予 定</w>
ら い</w>
こ んな</w>
ちょ っと</w>
早 く</w>
先 生</w>
言 う</w>
取 り
連 絡</w>
確 認</w>
し まっ</w>
お 前</w>
来 る</w>
ス ト</w>
たく さん</w>
ま しょう</w>
あ れ</w>
ッ ク</w>
タ ー</w>
ど の</w>
い け</w>
持 ち</w>
勉 強</w>
こ う</w>
上 げ</w>
ほ ど</w>
中 国</w>
終 わ
知 ら</w>
な ん
ョ ン</w>
ちゃ ん</w>
良 い</w>
メ ール</w>
ン ト</w>
ー ム</w>
ち ら</w>
じ ゃ
入 れ</w>
引 き
部 屋</w>
ン ド</w>
ン グ</w>
既 に</w>
聞 い</w>
が ら</w>
が っ</w>
商 品</w>
起 こ
友 達</w>
げ る</w>
か し</w>
入 っ</w>
ど んな</w>
休 み</w>
言 葉</w>
生 活</w>
申 し
っ かり</w>
新 しい</w>
写 真</w>
た く</w>
いた だ
よ っ</w>
と っ</w>
し ま
も り</w>
っ ぱ
た し</w>
お い</w>
め て</w>
1 0</w>
話 し</w>
昨 日</w>
ー ド</w>
0 0</w>
同 じ</w>
や る</w>
ず っと</w>
き り</w>
電 話</w>
や り</w>
し て</w>
受 け</w>
し れ</w>
く らい</w>
料 理</w>
ら れる</w>
気 持ち</w>
会 い</w>
なん て</w>
な がら</w>
あ まり</w>
ス タ
知 っ</w>
受 け
違 い</w>
対 し</w>
頑 張
思 い
べ る</w>
映 画</w>
も っと</w>
す べ
毎 日</w>
すべ て</w>
可 能</w>
悪 い</w>
つ もり</w>
合 わ
イ ン</w>
ま ま</w>
フ ァ
ら し</w>
た い
ー ス</w>
し ゃ
先 輩</w>
ら しい</w>
し よう</w>
し かっ</w>
ス ト
見 る</w>
一 番</w>
全 く</w>
会 議</w>
な ど</w>
楽し み</w>
旅 行</w>
世 界</w>
し か</w>
大き な</w>
作 っ</w>
労 働</w>
か る</w>
心 配</w>
わ け</w>
い く</w>
方 法</w>
以 上</w>
へ ん</w>
待 っ</w>
出 来</w>
参 加</w>
じゃ あ</w>
ク ラ
たい へん</w>
帰 っ</w>
ー ン</w>
と き</w>
出 す</w>
始 め</w>
大 学</w>
シ ョン</w>
テ ィ
立 て</w>
ン ス</w>
製 品</w>
ば かり</w>
理 解</w>
は い</w>
説 明</w>
場 合</w>
関 係</w>
言 わ</w>
高 い</w>
最 近</w>
取 っ</w>
言 い</w>
元 気</w>
忘 れ</w>
よ ろ
生 産</w>
一 人</w>
コ ン
家 族</w>
感 じ</w>
t ;</w>
す ご
q u
場 所</w>
変 わ
ん と</w>
く り</w>
qu o
quo t;</w>
& quot;</w>
送 っ</w>
合わ せ</w>
情 報</w>
く ん</w>
う ち</w>
状 況</w>
いた し</w>
く れる</w>
幸 せ</w>
た だ</w>
工 場</w>
ー ジ</w>
過 ご
つ ける</w>
人 々</w>
キ ャ
丈 夫</w>
ラ イ
ね ー</w>
す ぎ</w>
取 り</w>
今 年</w>
い や</w>
計 画</w>
嬉 しい</w>
う ま
通 り</w>
や か</w>
疲 れ</w>
病 気</w>
ひ ど
大 変</w>
結 果</w>
意 見</w>
ッ プ</w>
め ん</w>
買 っ</w>
く る</w>
込 ん</w>
合 っ</w>
初 めて</w>
意 味</w>
っ きり</w>
ご めん</w>
カ ー</w>
す れ</w>
イ ン
み んな</w>
ら く</w>
結 婚</w>
社 会</w>
質 問</w>
欲 しい</w>
取 る</w>
な ぜ</w>
見 え</w>
大 丈夫</w>
っ くり</w>
授 業</w>
作 る</w>
合 い</w>
ど れ</w>
人 民</w>
人 間</w>
ま る</w>
送 り</w>
お か
落 ち
研 究</w>
じ る</w>
し ば
名 前</w>
使 っ</w>
使 い</w>
長 い</w>
付 け</w>
つ き</w>
内 容</w>
ジ ェ
& a
今 回</w>
わ たし</w>
と も</w>
す い</w>
必 ず</w>
ね ぇ</w>
み たい</w>
多 い</w>
いただ き</w>
経 験</w>
い っ</w>
バ イ
o s
間 違
文 章</w>
主 義</w>
テ ー
わ から</w>
ちょ う
外 国</w>
p os
pos ;</w>
&a pos;</w>
利 用</w>
非 常</w>
や つ</w>
準 備</w>
山 田</w>
注 文</w>
プ ロ
太 郎</w>
企 業</w>
いた だけ</w>
難 しい</w>
っ ち</w>
支 払
帰 り</w>
す み</w>
バ ー</w>
しま い</w>
だ ろ</w>
が る</w>
解 決</w>
合 う</w>
良 く</w>
入 り</w>
ぎ る</w>
住 ん</w>
か く</w>
終わ っ</w>
生 ま
起 き</w>
チ ャ
女 性</w>
十 分</w>
重 要</w>
資 料</w>
技 術</w>
買 い
東 京</w>
手 紙</w>
会 っ</w>
ちょう ど</w>
伝 え</w>
食 事</w>
もら っ</w>
ぶ り</w>
待 ち</w>
あ と</w>
立 ち
大 切</w>
テ ル</w>
打 ち
夏 休み</w>
サ イ
申し 訳</w>
仗 助</w>
書 い</w>
き っと</w>
価 格</w>
し かし</w>
最 も</w>
食 べる</w>
使 用</w>
サ ー
楽 しい</w>
っぱ い</w>
上 手</w>
こ そ</w>
か い</w>
よ る</w>
ど う
決 め</w>
変 更</w>
か わ
絶 対</w>
買 い</w>
ニ ュ
現 在</w>
立 っ</w>
学 生</w>
フ ィ
や ら</w>
は っきり</w>
な し</w>
試 合</w>
強 い</w>
ね え</w>
ど ちら</w>
うま く</w>
そ して</w>
週 間</w>
覚 え</w>
練 習</w>
テ レ
返 事</w>
ジ ャ
注 意</w>
近 く</w>
行 か</w>
興 味</w>
2 0</w>
最 後</w>
美 味
続 き</w>
相 手</w>
感 謝</w>
い っぱい</w>
返 し</w>
込 み</w>
い ろ
ちゃ っ</w>
続 け</w>
互 い</w>
の 子</w>
ラ ン
こ ちら</w>
リ カ</w>
コ ー
と ん
来 週</w>
わ が</w>
よ かっ</w>
い か
今 度</w>
責 任</w>
レ ー
タ イ
ジ ョン</w>
報 告</w>
ち ゃ</w>
話 す</w>
テレ ビ</w>
リ ー</w>
スタ ンド</w>
お れ</w>
音 楽</w>
美 しい</w>
バ ス</w>
し っかり</w>
革 命</w>
よろ しく</w>
しま う</w>
ホ テル</w>
す っかり</w>
高 校</w>
は ず</w>
過ご し</w>
荷 物</w>
ブ ル</w>
もら え</w>
書 類</w>
努 力</w>
あ いつ</w>
試 験</w>
ス テ
ゅ う</w>
か ける</w>
聞 き</w>
飛 行</w>
掛 け</w>
さ え</w>
友 人</w>
北 京</w>
い っ
あ あ</w>
嫌 い</w>
言 え</w>
致 し</w>
知 り</w>
作 業</w>
ケ ット</w>
シ ャ
あ げ</w>
わ り</w>
指 導</w>
以 前</w>
助 け</w>
違 う</w>
理 由</w>
働 い</w>
ー プ</w>
入 れる</w>
メ ー
ひど く</w>
な に</w>
パ ー
い に</w>
生 き</w>
活 動</w>
ご 飯</w>
二 人</w>
遊 び</w>
全 て</w>
ア メ
ちゃ んと</w>
す ぎる</w>
ラ ン</w>
っぱ り</w>
遅 く</w>
販 売</w>
契 約</w>
ま ず</w>
し ょ</w>
会 え</w>
ま え</w>
た っ</w>
予 約</w>
クラ ス</w>
ら す</w>
時 代</w>
プ レ
も ん</w>
飲 み</w>
成 功</w>
小 さい</w>
ー タ</w>
シ ョ
ッ ク
も っ</w>
運 動</w>
しば らく</w>
終わ り</w>
担 当</w>
使 う</w>
チ ーム</w>
わ っ</w>
じ め</w>
思 わ</w>
海 外</w>
対 する</w>
すご く</w>
ら か</w>
読 ん</w>
花 子</w>
行 な
作 り</w>
アメ リカ</w>
出 る</w>
ケ ー
う ん</w>
経 済</w>
対 応</w>
深 い</w>
教 育</w>
手 伝
ラ ー</w>
や っと</w>
調 査</w>
どう ぞ</w>
正 しい</w>
忙 しい</w>
天 気</w>
ほ しい</w>
頑張 っ</w>
白 い</w>
か ん</w>
あ ん
自 動</w>
デ ィ
お い
発 生</w>
有 名</w>
大 衆</w>
書 き</w>
引 っ
ほ とん
ほとん ど</w>
な か</w>
い え</w>
上 げる</w>
リ ン
もら い</w>
受 ける</w>
ト ル</w>
能 力</w>
い ろ</w>
過 ぎ</w>
見 える</w>
生 徒</w>
将 来</w>
会 う</w>
さ っ
確 か</w>
な く
追 い
づ い</w>
古 い</w>
上 がっ</w>
ク リ
他 人</w>
もら う</w>
そ ろ
限 り</w>
簡 単</w>
分 から</w>
午 後</w>
つ く</w>
が り</w>
答 え</w>
文 化</w>
市 場</w>
健 康</w>
今 後</w>
コ ン</w>
わ かっ</w>
管 理</w>
歴 史</w>
分 かっ</w>
や すい</w>
立 てる</w>
オ ー
止 め</w>
書 く</w>
持 ち
な あ</w>
連 れ</w>
息 子</w>
落 ち</w>
若 い</w>
機 械</w>
全 部</w>
遅 れ</w>
素 敵</w>
持 つ</w>
信 じ</w>
ー ク</w>
大 会</w>
ま ら</w>
いろ いろ</w>
買 う</w>
行 動</w>
立 つ</w>
生ま れ</w>
大き い</w>
あ たし</w>
イ ル</w>
次 第</w>
小 さ
サ ン
分 かり</w>
見 せ</w>
考 える</w>
歩 い</w>
年 間</w>
レ ス</w>
切 っ</w>
リ ア</w>
れ い</w>
た かっ</w>
原 因</w>
離 れ</w>
検 討</w>
困 難</w>
ぼ く</w>
か かっ</w>
死 ん</w>
処 理</w>
こ いつ</w>
影 響</w>
取 引</w>
デ ータ</w>
ゆ っくり</w>
き れ</w>
言 い
決 して</w>
戻 っ</w>
帰 る</w>
ビ ス</w>
カ ード</w>
ア イ
き れい</w>
見 つけ</w>
最 初</w>
入 る</w>
ま る
と り</w>
飲 ん</w>
細 胞</w>
相 談</w>
環 境</w>
支払 い</w>
レ ッ
公 園</w>
だ し</w>
行 こう</w>
希 望</w>
人 生</w>
乗 っ</w>
グ ラ
し み</w>
ほ う</w>
ド ア</w>
テ スト</w>
サー ビス</w>
残 念</w>
協 力</w>
や め</w>
気 分</w>
康 一</w>
ま さ
大き く</w>
間 違い</w>
期 待</w>
出 かけ</w>
作 品</w>
ほ か</w>
い き</w>
落 と
ス ケ
で しょ</w>
電 車</w>
降 り</w>
発 展</w>
政 府</w>
変 化</w>
到 着</w>
3 0</w>
込 む</w>
貴 方</w>
落ち 着
土 地</w>
今 週</w>
与 え</w>
ボ ール</w>
見 つ
探 し</w>
ま と
0 00</w>
都 合</w>
向 かっ</w>
事 故</w>
ー ズ</w>
ポ ート</w>
読 む</w>
病 院</w>
決 定</w>
暑 い</w>
態 度</w>
休 暇</w>
ッ カー</w>
越 し</w>
ジ ュ
状 態</w>
機 会</w>
わ かり</w>
す ば
食 べ
科 学</w>
動 物</w>
修 正</w>
迎 え</w>
大 好き</w>
か す</w>
検 査</w>
自 転</w>
不 足</w>
キャ ン
な れ</w>
な か
だ め</w>
ぞ れ</w>
高 く</w>
ッ ド</w>
ゲ ーム</w>
う れ
頂 き</w>
深 く</w>
事 業</w>
素 晴
政 治</w>
ま っ
ま あ</w>
た る</w>
開 け</w>
聞 く</w>
切 り</w>
出 来る</w>
下 記</w>
せ い</w>
行 け</w>
自 由</w>
事 件</w>
ー ター</w>
や っぱり</w>
し ろ</w>
あ んな</w>
遠 く</w>
上 手
ト ラ
突 然</w>
ナ ー</w>
か かり</w>
花 火</w>
利 益</w>
関 する</w>
目 的</w>
提 案</w>
回 答</w>
鈴 木</w>
チ ェ
申し 上げ</w>
特 別</w>
出 発</w>
ッ チ</w>
行な う</w>
知 識</w>
期 間</w>
向 け</w>
フ ォ
か かる</w>
振 り
まる で</w>
ぶ ん</w>
頑張 り</w>
自 然</w>
医 者</w>
切 れ</w>
おか げ</w>
宿 題</w>
実 際</w>
営 業</w>
先 週</w>
以 外</w>
紹 介</w>
女 の子</w>
お う</w>
5 0</w>
買い 物</w>
真 っ
さ っ</w>
く ら</w>
起こ し</w>
成 長</w>
以 下</w>
世 話</w>
バ カ</w>
て ん</w>
起こ す</w>
調 べ</w>
一 部</w>
要 求</w>
美味 しい</w>
小 説</w>
効 果</w>
切 り
降 っ</w>
開 発</w>
無 理</w>
条 件</w>
提 出</w>
危 険</w>
と っ
購 入</w>
誕 生</w>
種 類</w>
制 度</w>
工 事</w>
売 り
間違 っ</w>
ー ツ</w>
ダ ー</w>
サ ッカー</w>
野 崎</w>
ロ ー
お き</w>
1 00</w>
空 気</w>
直 し</w>
掃 除</w>
め ー</w>
つ か</w>
迷 惑</w>
精 神</w>
求 め</w>
楽し ん</w>
み る</w>
部 分</w>
許 さ</w>
痛 い</w>
あん た</w>
話 し
タ ー
ま い</w>
運 転</w>
負 け</w>
機 関</w>
勝 手</w>
っ しゃ
さっ き</w>
読 み</w>
良 かっ</w>
委 員</w>
ア ル
ど も</w>
通 し</w>
添 付</w>
変わ っ</w>
合 わ</w>
一 生</w>
なか なか</w>
行 う</w>
攻 撃</w>
弊 社</w>
存 在</w>
出 さ</w>
そ れ
すば らしい</w>
ご ろ</w>
過 去</w>
繰 り
組 織</w>
無 い</w>
強 く</w>
可 愛
じ ゅう</w>
流 れ</w>
悪 く</w>
プ ル</w>
っ ち
送 る</w>
様 子</w>
時 計</w>
失 敗</w>
全 国</w>
レ ン
っ ぽ
お く</w>
置 い</w>
笑 顔</w>
渡 し</w>
個 人</w>
修 理</w>
安 心</w>
部 品</w>
特 に</w>
楽し かっ</w>
卒 業</w>
付 き
事 実</w>
ス ター</w>
それ ぞれ</w>
顧 客</w>
銀 行</w>
両 親</w>
と り
暮 らし</w>
人 物</w>
さ ま</w>
飛 び
約 束</w>
笑 っ</w>
戦 争</w>
働 く</w>
ウ ェ
苦 手</w>
尽 く
小さ な</w>
大 事</w>
ダ メ</w>
や り
か なり</w>
飲 む</w>
選 手</w>
用 い</w>
日 曜</w>
手 続き</w>
ブ ラ
お け</w>
野 球</w>
差 し
い か</w>
聞 こ
最 高</w>
提 供</w>
作 成</w>
タ ン</w>
趣 味</w>
普 通</w>
すご い</w>
安 全</w>
依 頼</w>
ック ス</w>
滞 在</w>
案 内</w>
沢 山</w>
得 意</w>
さ ら
風 邪</w>
開 い</w>
新 聞</w>
家 庭</w>
上 海</w>
れ ど</w>
っ こ</w>
ぜ ひ</w>
い ら
押 し
守 る</w>
久 し</w>
け れど</w>
演 奏</w>
治 療</w>
本 日</w>
パ ー</w>
バ ー
ア ン
な ぁ</w>
請 求</w>
素晴 らしい</w>
性 格</w>
ジェ ーン</w>
わ れ</w>
ま しい</w>
っ た</w>
じ い</w>
綺 麗</w>
由 希</w>
抜 け</w>
国 家</w>
しゃ べ
面 白い</w>
発 送</w>
発 表</w>
満 足</w>
愛 し</w>
学 習</w>
代 表</w>
シ ステ
ご と</w>
ぐ らい</w>
自 身</w>
母 親</w>
得 る</w>
実 験</w>
変 え</w>
ド ル</w>
建 設</w>
少 年</w>
分 け</w>
マ ー
ネ ット</w>
飲 み
直 接</w>
感 動</w>
優 しい</w>
システ ム</w>
も と</w>
か 月</w>
用 意</w>
早 い</w>
リ ー
ティ ング</w>
なん か</w>
ず れ</w>
間違 え</w>
恥 ず
ひ と
は り</w>
経 営</w>
会 話</w>
上手 く</w>
静 か</w>
足 り</w>
完 成</w>
人 気</w>
ペ ージ</w>
血 球</w>
成 績</w>
交 換</w>
し きり</w>
き ら
途 中</w>
思 想</w>
喜 ん</w>
任 務</w>
仲 間</w>
明 る
入 り
働 き</w>
パ ン</w>
ス ン</w>
す か</w>
じゃ ん</w>
返 信</w>
貸 し</w>
日 間</w>
改 善</w>
在 庫</w>
兵 士</w>
乗 り
ひ と</w>
願 っ</w>
計 算</w>
聞 か</w>
祭 り</w>
目 標</w>
番 号</w>
夕 食</w>
ヶ 月</w>
メ ン
テー ブル</w>
わ し</w>
反 対</w>
出 張</w>
全 員</w>
ド ラ
セ ン
グ ル
ほ ら</w>
いか が</w>
実 施</w>
出 荷</w>
わ かる</w>
か しい</w>
評 価</w>
出 席</w>
全 然</w>
優 れ</w>
ひど い</w>
通 っ</w>
詳 細</w>
捨 て</w>
レ スト
ベ ル</w>
キ ー</w>
や れ</w>
慣 れ</w>
太 陽</w>
大 阪</w>
使 わ</w>
レスト ラン</w>
メー トル</w>
ス ポ
ク ト</w>
と おり</w>
い くら</w>
逃 げ</w>
調 子</w>
夾 君</w>
大 いに</w>
レッ スン</w>
残 っ</w>
替 え</w>
リ ン</w>
ケー キ</w>
ちゃ う</w>
選 ん</w>
投 資</w>
大 人</w>
ミ ス</w>
道 路</w>
進 ん</w>
品 質</w>
ア ド
ら ん</w>
食べ 物</w>
少 ない</w>
ダ イ
や はり</w>
き ゃ</w>
1 2</w>
観 光</w>
携 帯</w>
地 域</w>
分 析</w>
事 務</w>
ニュ ース</w>
こ っち</w>
ファ イル</w>
ど おり</w>
1 5</w>
当 社</w>
パ ソ
シ ー</w>
近 い</w>
知 る</w>
無 事</w>
パソ コン</w>
ク レ
わ る</w>
立 ち</w>
国 際</w>
呼 ん</w>
今 朝</w>
与 える</w>
フ ラ
デ ザ
た ば
あ たり</w>
来 年</w>
思い 出</w>
午 前</w>
マ ン
ティ ー</w>
め で
面 倒</w>
手 術</w>
座 っ</w>
完 全</w>
可愛 い</w>
ジュ ール</w>
長 く</w>
後 ろ</w>
建 物</w>
専 門</w>
リ スト</w>
ュ ー</w>
プレ ゼ
で に</w>
おい しい</w>
頂 け</w>
関 し</w>
部 隊</w>
進 め</w>
行 為</w>
土 曜</w>
ラ ス</w>
いただ い</w>
教 室</w>
幹 部</w>
回 っ</w>
受け 取っ</w>
わ ざ
よ ー</w>
づ け</w>
す でに</w>
さ せ</w>
お まえ</w>
電 気</w>
決 まっ</w>
時 期</w>
指 示</w>
借 り</w>
パ ン
な きゃ</w>
遊 ん</w>
スケ ジュール</w>
距 離</w>
話 せ</w>
行 い</w>
業 務</w>
代 わり</w>
メ ント</w>
ス ク</w>
よろ しい</w>
の み</w>
送 付</w>
訪 問</w>
続 い</w>
楽 しく</w>
一 言</w>
ヒ ー</w>
デ ル</w>
あ ろう</w>
1 9
苦 労</w>
参 考</w>
ジ ョ
ギ ー</w>
まさ か</w>
韓 国</w>
比 較</w>
歩 く</w>
急 い</w>
当 て</w>
寄 り</w>
別 れ</w>
中 学</w>
パ ス
ハ ン
ス ピ
コー ヒー</w>
風 呂</w>
野 菜</w>
農 民</w>
続 ける</w>
一 人
す ます</w>
許 し</w>
終わ る</w>
空 港</w>
感 情</w>
合 格</w>
一 面</w>
一 般</w>
ス イ
エ ン
ま すます</w>
ね る</w>
つ いに</w>
お 腹</w>
調 整</w>
認 め</w>
聞こ え</w>
機 能</w>
極 めて</w>
困 っ</w>
全 体</w>
不 安</w>
若 者</w>
書 き
明 らか</w>
怒 っ</w>
向 き</w>
モ デル</w>
ば し</w>
と こ</w>
ざ ま</w>
都 市</w>
走 っ</w>
話 せる</w>
訪 れ</w>
立 た</w>
登 録</w>
正 確</w>
学 ぶ</w>
価 値</w>
グル ープ</w>
い ずれ</w>
あ げる</w>
あ い
開 始</w>
職 場</w>
文 字</w>
採 用</w>
取 れ</w>
参 り</w>
作 ら</w>
ピ ア
つ な
生 き
引 き</w>
出 来
り ゃ</w>
あ そこ</w>
行 わ</w>
意 識</w>
引 い</w>
幾 ら</w>
品 物</w>
原 稿</w>
ら せ</w>
ば あ</w>
と る</w>
あ ふ
求 める</w>
料 金</w>
感 じる</w>
尋 ね</w>
上 司</w>
っ たり</w>
そ ば</w>
部 活</w>
終 え</w>
男 性</w>
材 料</w>
期 限</w>
朝 食</w>
忙 しく</w>
地 名</w>
具 合</w>
ト イ
証 明</w>
工 業</w>
実 現</w>
厳 しい</w>
ベ ッド</w>
そ ろ</w>
あ ら
記 録</w>
祖 国</w>
半 分</w>
勇 気</w>
値 段</w>
会 える</w>
ま ず
ぶ つ
そろ そろ</w>
起こ っ</w>
解 放</w>
格 好</w>
打 ち</w>
怖 い</w>
失 礼</w>
ボ タン</w>
バイ ト</w>
めで とう</w>
開 催</w>
警 察</w>
聞 き
恐 れ</w>
従 業</w>
図 書</w>
去 年</w>
加 減</w>
ら っ</w>
た ま
さ あ</w>
青 年</w>
見 積
是 非</w>
寒 い</w>
呼 ば</w>
保 険</w>
付 い</w>
チェ ック</w>
み な</w>
だ ら
頂 い</w>
費 用</w>
毎 年</w>
故 郷</w>
押 し</w>
患 者</w>
実 行</w>
兄 弟</w>
交 通</w>
そ ちら</w>
部 門</w>
表 情</w>
死 ぬ</w>
散 歩</w>
批 判</w>
張 っ</w>
巻 き
始 める</w>
亡 く
レ ー</w>
ニ ス</w>
デザ イン</w>
セ ル</w>
カ メ
み ず
うま い</w>
禁 止</w>
消 費</w>
仕 方</w>
ッ シ
ク ロ
っしゃ い</w>
間 に
異 なる</w>
回 し</w>
周 り</w>
で る</w>
あ すか</w>
落と し</w>
残 し</w>
に く
達 成</w>
製 造</w>
留 学</w>
応 援</w>
当 たり</w>
完 了</w>
ネ ス</w>
ど ん</w>
おか しい</w>
遣 い</w>
政 策</w>
女 子</w>
会 計</w>
ル ギー</w>
トイ レ</w>
露 伴</w>
次 回</w>
本 田</w>
後 悔</w>
問 い
動 き</w>
出 せ</w>
込 ま</w>
記 憶</w>
老 人</w>
祈 り</w>
殺 し</w>
株 式</w>
昨 年</w>
学 ん</w>
売 り</w>
事 柄</w>
ユ ー
チ ョ
ス カ
き ち
貴 社</w>
設 定</w>
海 崎</w>
晴 れ</w>
判 断</w>
再 び</w>
入 力</w>
一 方</w>
ボ ン</w>
ビ ル</w>
ビ ジ
バ ッ
ニ ング</w>
よ そ</w>
か し
あ え
選 択</w>
笑 い</w>
秘 密</w>
物 事</w>
少 なく</w>
受け 取り</w>
今 月</w>
ビ ール</w>
男 の子</w>
待 ち
広 い</w>
変わ り</w>
乗 り</w>
上 がる</w>
ギ リ
まと め</w>
に て</w>
さ ま
さ さ
重 い</w>
遅 い</w>
結 局</w>
宇 宙</w>
向 上</w>
勝 利</w>
乗 る</w>
スポ ーツ</w>
イン ター
ろ ん</w>
た った</w>
景 色</w>
承 太郎</w>
上 がり</w>
テ ニス</w>
よ し</w>
きち んと</w>
か ら
適 切</w>
終 了</w>
空 い</w>
手伝 い</w>
嬉 しかっ</w>
一 日</w>
ワ ー</w>
な ー</w>
たば こ</w>
野 郎</w>
菓 子</w>
結 構</w>
社 員</w>
現 場</w>
父 親</w>
描 い</w>
始 まっ</w>
低 い</w>
ピア ノ</w>
テ ィ</w>
シ ン
カメ ラ</w>
オ ン</w>
す ら</w>
し か
遠 慮</w>
我 慢</w>
信 用</w>
仲 良く</w>
サン プル</w>
も ち
つ か
う る
緊 張</w>
更 に</w>
支 援</w>
払 い</w>
手 数</w>
地 面</w>
地 下</w>
ヤ ツ</w>
ベ ント</w>
ビジ ネス</w>
ス ペ
グラ ム</w>
ま じめ</w>
っ け</w>
だ い
週 末</w>
記 念</w>
表 現</w>
理 論</w>
文 書</w>
コ スト</w>
翻 訳</w>
程 度</w>
文 学</w>
子 ども</w>
基 準</w>
喜 び</w>
呼 び
単 語</w>
イ ベント</w>
た び</w>
難 い</w>
自 己</w>
知 り
泣 い</w>
寂 しい</w>
フ ェ
スタ ッ
食 糧</w>
起こ る</w>
詳 しく</w>
裁 判</w>
自 信</w>
組 み
手伝 っ</w>
寝 る</w>
取り 組
加 え</w>
予 想</w>
一 切</w>
ピ ー</w>
スタッ フ</w>
駆 け
許 可</w>
立 派</w>
知 らせ</w>
想 像</w>
住 所</w>
伸 び</w>
チャ ンス</w>
ソ フ
ゆ る</w>
だ ら</w>
いっ たい</w>
1 1</w>
走 る</w>
苦 しい</w>
発 行</w>
方 向</w>
手 配</w>
少 女</w>
勤 務</w>
切 る</w>
先 日</w>
位 置</w>
パ ート</w>
ザ ー</w>
た た
か つ
お も
郵 便</w>
追 加</w>
資 金</w>
突 き
着 い</w>
地 方</w>
地 区</w>
今 夜</w>
わ ず
ず つ</w>
うれ しい</w>
い いえ</w>
議 論</w>
芸 術</w>
育 て</w>
積 極</w>
示 し</w>
民 族</w>
来 月</w>
当 たっ</w>
休 日</w>
ロ ー</w>
ミ ュ
ッ ト
び っくり</w>
かわ いい</w>
あ ー</w>
農 業</w>
行 き
発 見</w>
消 え</w>
法 律</w>
書 か</w>
教 師</w>
手 段</w>
怒 り</w>
従 っ</w>
交 渉</w>
ス ー
サイ ト</w>
わず か</w>
もち ろん</w>
ず い
集 中</w>
装 置</w>
撮 っ</w>
吹 き
カ ー
も た
みず から</w>
ずい ぶん</w>
か かわ
親 切</w>
人 材</w>
メ ージ</w>
サイ ズ</w>
ギ ター</w>
っち ゅう</w>
しょ っちゅう</w>
過ご す</w>
焼 き</w>
植 物</w>
懸 命</w>
含 ま</w>
休 ん</w>
ラ オ
マ ン</w>
プロ ジェ
や し</w>
ほ ん
ば か</w>
なく なっ</w>
つ ぶ
し た</w>
かつ て</w>
2 0
驚 い</w>
闘 争</w>
狩 生</w>
未 来</w>
増 え</w>
保 証</w>
か っこ</w>
遠 い</w>
過 ち</w>
移 動</w>
歩 き</w>
歓 迎</w>
彼 氏</w>
学 び</w>
存 じ</w>
大 量</w>
取 ら</w>
初 め</w>
会 場</w>
ア ー</w>
にく い</w>
日 程</w>
引 く</w>
帽 子</w>
変 える</w>
京 都</w>
まっ すぐ</w>
まず い</w>
とっ く</w>
あ い</w>
集 め</w>
返 す</w>
軍 隊</w>
赤 ちゃん</w>
最 終</w>
昼 食</w>
幸 い</w>
届 け</w>
外 出</w>
変わ ら</w>
去 っ</w>
保 護</w>
下 ろ
ル ス</w>
メン バー</w>
ペ ン</w>
プロジェ クト</w>
チ ケット</w>
キャン セル</w>
っ つ
豊 か</w>
成 果</w>
壊 れ</w>
回 り</w>
命 令</w>
主 人</w>
ク ール</w>
り る</w>
し ば</w>
金 曜</w>
祝 い</w>
異 常</w>
渡 す</w>
泣 き</w>
最 大</w>
意 気</w>
広 く</w>
始 まる</w>
信 頼</w>
デ ート</w>
サ イン</w>
ど ん
しば しば</w>
か き
い れ</w>
開 く</w>
漫 画</w>
戦 略</w>
土 産</w>
再 度</w>
入り 口</w>
下 げ</w>
ー チ</w>
わ ら</w>
や ろう</w>
か さ</w>
込 め</w>
辛 い</w>
記 入</w>
耐 え</w>
正 しく</w>
普 段</w>
怒 ら</w>
季 節</w>
人 口</w>
リ ング</w>
ド イ
お めー</w>
階 級</w>
金 額</w>
踏 み
赤 い</w>
給 料</w>
激 しい</w>
残 り</w>
失 っ</w>
列 車</w>
任 せ</w>
プ ラ
ッシ ュ</w>
インター ネット</w>
て めー</w>
設 備</w>
続 く</w>
焼 け</w>
活 躍</w>
永 遠</w>
月 曜</w>
思い 出し</w>
張 り</w>
建 て</w>
大 声</w>
募 集</w>
一 時</w>
プ ール</w>
パー ティー</w>
テ ン</w>
ぐ れ</w>
が い</w>
集 まっ</w>
退 職</w>
規 則</w>
研 修</w>
水 曜</w>
段 階</w>
機 嫌</w>
日 代</w>
安 い</w>
レ ベル</w>
た ら
さら に</w>
逃 げ
言 語</w>
至 る</w>
立 場</w>
援 助</w>
応 じ</w>
始 まり</w>
問い 合わせ</w>
受け 取る</w>
レ ート</w>
頼 ん</w>
降 る</w>
邪 魔</w>
速 く</w>
設 計</w>
複 雑</w>
落ち着 い</w>
気 づ
整 理</w>
当 然</w>
マ イ
ブ ル
タイ プ</w>
キ ロ</w>
わ さ</w>
や がっ</w>
た ぶん</w>
た と
いっ そう</w>
隠 し</w>
認 識</w>
発 言</w>
無 駄</w>
戻 り</w>
悲 しい</w>
就 職</w>
対 象</w>
安 定</w>
基 本</w>
プレゼ ント</w>
セン ター</w>
カ ッ
わ す</w>
め よう</w>
な る
進 歩</w>
速 い</w>
証 拠</w>
規 模</w>
珍 しい</w>
物 質</w>
死 に</w>
正 直</w>
描 く</w>
打 っ</w>
才 能</w>
戦 い</w>
弱 い</w>
増 加</w>
地 震</w>
回 る</w>
同 時</w>
化 学</w>
ハ ー
ガ ラス</w>
や す</w>
いら っしゃい</w>
通 じ</w>
置 く</w>
祖 母</w>
浮 か
尽く し</w>
同 意</w>
分 子</w>
優 しく</w>
メー カー</w>
セ ット</w>
も っ
せ っ
い じめ</w>
雑 誌</w>
諦 め</w>
課 題</w>
眠 れ</w>
眠 っ</w>
用 事</w>
正 月</w>
歌 う</w>
操 作</w>
打ち 合わせ</w>
待 つ</w>
引っ 越し</w>
向 か
住 む</w>
以 内</w>
一 致</w>
一 体</w>
つ まり</w>
5 00</w>
魅 力</w>
財 産</w>
数 学</w>
扱 い</w>
定 期</w>
売 っ</w>
印 刷</w>
使 え</w>
リン ゴ</w>
イ タ
ア ップ</w>
よ う
こ り</w>
え っと</w>
臭 い</w>
繰り 返し</w>
痛 み</w>
現 実</w>
洗 濯</w>
打 つ</w>
戻 る</w>
我 が</w>
当 時</w>
帰 国</w>
回 復</w>
印 象</w>
前 進</w>
出来 事</w>
入 ら</w>
作 り
下 手</w>
フラ ンス</w>
ん ば
と ど
飛 ん</w>
集 団</w>
重 大</w>
詰 め</w>
穏 やか</w>
積 み
現 象</w>
混 乱</w>
望 ん</w>
望 み</w>
待 た</w>
年 齢</w>
大 き</w>
と う
ち ま
お ら</w>
習 慣</w>
発 音</w>
楽 し</w>
承 認</w>
戻 し</w>
対 策</w>
守 っ</w>
地 位</w>
双 方</w>
余 り</w>
ダ ンス</w>
り 物</w>
や っ
まっ たく</w>
な す</w>
こ の
農 村</w>
見 学</w>
苦 しみ</w>
改 めて</w>
年 寄り</w>
地 球</w>
全 身</w>
中 心</w>
パ リ</w>
ク シー</w>
ギリ ス</w>
ら え</w>
に おい</w>
な お</w>
と く</w>
た め
い で</w>
障 害</w>
遅 刻</w>
述 べ</w>
負 担</w>
目 指
申 請</w>
犯 人</w>
熱 い</w>
消 し</w>
気 づい</w>
有 効</w>
振 り</w>
後 日</w>
広 告</w>
導 入</w>
寄 せ</w>
大 した</w>
勧 め</w>
出 会っ</w>
入 院</w>
優 勝</w>
作 物</w>
ン ド
キ ュ
ぶ ら
と に
だら け</w>
あえ ず</w>
豊 富</w>
訓 練</w>
背 中</w>
甘 い</w>
物 語</w>
新 しく</w>
展 示</w>
届 い</w>
吹 い</w>
出 かける</w>
共 同</w>
予 算</w>
マ ジ</w>
ホ ーム</w>
ピ ン</w>
ドラ マ</w>
ト ロ
イ ギリス</w>
ふ る
とに かく</w>
た って</w>
い ら</w>
隠 れ</w>
論 文</w>
考 慮</w>
破 壊</w>
暑 く</w>
明る い</w>
指 定</w>
安 く</w>
事 態</w>
ラ ラ
ピ ュ
タ バ
サ ポート</w>
イ ト</w>
や く</w>
ぶ っ</w>
つ き
関 心</w>
読 み
行 なっ</w>
英 雄</w>
範 囲</w>
神 経</w>
災 害</w>
気 候</w>
撮 影</w>
招 待</w>
切 手</w>
休 憩</w>
不 良</w>
不 明</w>
ル ト</w>
ピ ック</w>
ジ ア</w>
ア ル</w>
わ たっ</w>
とり あえず</w>
そ っ</w>
かし ら</w>
え っ</w>
配 達</w>
避 け</w>
起 きる</w>
短 い</w>
構 造</w>
栄 養</w>
昨 夜</w>
新 た</w>
怪 我</w>
張 る</w>
向 い</w>
受け 入れ</w>
取り 除
入 学</w>
ロ グ</w>
フィ ス</w>
ト ン</w>
も と
む だ</w>
ぴ ったり</w>
ば ん</w>
つ まら</w>
い き
食 品</w>
観 察</w>
終わ ら</w>
登 っ</w>
無 料</w>
放 送</w>
届 き</w>
夫 婦</w>
反 動</w>
医 師</w>
上 昇</w>
タ イ</w>
シ ア</w>
コ ピー</w>
ら ら
め ぇ</w>
に ぎ
つ ま
か れ</w>
あふ れ</w>
貴 重</w>
発 揮</w>
牛 乳</w>
決 める</w>
挙 げ</w>
挑 戦</w>
寒 く</w>
勝 っ</w>
加 える</w>
冗 談</w>
優 秀</w>
事 前</w>
中 央</w>
マ ネ
プロ グラム</w>
ズ ボン</w>
ガ ス</w>
イ ンド</w>
ア ク
そ り</w>
釣 り</w>
遭 っ</w>
運 命</w>
進 める</w>
贈 り物</w>
激 しく</w>
殺 す</w>
払 っ</w>
思 議</w>
吉 良</w>
厳 しく</w>
冷 たい</w>
伝 統</w>
世 代</w>
ラ ジ
クラ ブ</w>
もら える</w>
び り</w>
っぽ い</w>
だ れ</w>
き ら</w>
飼 っ</w>
長 期</w>
通 常</w>
記 載</w>
色 々</w>
社 長</w>
改 革</w>
換 え</w>
払 う</w>
回 転</w>
動 く</w>
光 栄</w>
事 項</w>
両 方</w>
不 思議</w>
プ ライ
ク ター</w>
オ フィス</w>
め ろ</w>
ぶ っ
しゃべ り</w>
し ん</w>
か しく</w>
いただ ける</w>
鹿 島</w>
馬 鹿</w>
順 調</w>
違 っ</w>
運 ん</w>
辞 書</w>
賛 成</w>
証 券</w>
確 定</w>
番 組</w>
毎 朝</w>
支 え</w>
持 た</w>
基 づい</w>
効 率</w>
分 かる</w>
や す
で きれ</w>
さま ざま</w>
が け</w>
驚 き</w>
部 長</w>
調 べる</w>
見積 もり</w>
見 つける</w>
犯 罪</w>
父 母</w>
歌 っ</w>
提 示</w>
捜 し</w>
合わ せる</w>
以 来</w>
ラ イン</w>
メ ン</w>
ホ ント</w>
バ ンド</w>
ノ ート</w>
ドイ ツ</w>
セ ント</w>
ス ープ</w>
ス マ
アド レス</w>
わざ と</w>
ひ っ
の ん
ど っち</w>
くだ さ
あら ゆる</w>
あ れ
黒 い</w>
面 目</w>
酸 素</w>
適 当</w>
達 し</w>
表 示</w>
祈 っ</w>
直 す</w>
汽 車</w>
実 家</w>
借 金</w>
伝 える</w>
主 張</w>
ファ ン</w>
バイ ク</w>
ジ ン</w>
ん やり</w>
も う
ま れ</w>
ば ら</w>
せ よう</w>
ご み</w>
お お
あ ら</w>
選 ぶ</w>
連 続</w>
越 え</w>
緊 急</w>
眠 り</w>
現 金</w>
止 まっ</w>
明 確</w>
強 化</w>
常 木</w>
基 礎</w>
勝 つ</w>
プ リ
ど ころ</w>
さ つ</w>
こ ん
こ め</w>
こ い</w>
が んば
訪 れる</w>
興 奮</w>
知 れ</w>
着 る</w>
温 泉</w>
洗 い</w>
果 た
売 上</w>
売 る</w>
具 体</w>
保 管</w>
何 時</w>
事 情</w>
パ イ
ナ イ
ウ ン
ウ ム</w>
ろ い</w>
も の
のん びり</w>
どん どん</w>
きら きら</w>
電 子</w>
雰 囲
雰囲 気</w>
関 連</w>
遊 ぶ</w>
試 し</w>
笑 う</w>
祖 父</w>
正 式</w>
抜 い</w>
情 勢</w>
帰 宅</w>
合 せ</w>
反 応</w>
出 勤</w>
備 え</w>
今 晩</w>
下 がっ</w>
ン ク</w>
タバ コ</w>
ジ ー</w>
イ ント</w>
よ ォ</w>
ま ぁ</w>
け よう</w>
いろ んな</w>
6 0</w>
飲み 物</w>
誤 り</w>
着 き</w>
獲 得</w>
測 定</w>
済 み</w>
泳 ぎ</w>
教 える</w>
戦 闘</w>
守 り</w>
味 方</w>
各 種</w>
切 符</w>
出 身</w>
倒 れ</w>
亡く なっ</w>
リン ピック</w>
カ ン
エ ネ
アイ デ
ほん の</w>
な さ</w>
さ す
こ ぼ
1 000</w>
面 白
防 止</w>
触 れ</w>
納 得</w>
着 く</w>
歌 手</w>
施 設</w>
恐 ろ
引き 起こす</w>
収 入</w>
付き 合っ</w>
ー ション</w>
マ ー</w>
ニュ ー
コン ピュ
ガ ン</w>
もと もと</w>
み よう</w>
規 定</w>
見 舞
芝 居</w>
職 業</w>
競 技</w>
盛 り
痛 く</w>
柔 ら
拡 大</w>
張 り
尽く す</w>
偶 然</w>
ー ル
ー ブ</w>
ル ール</w>
ミ ング</w>
ビ デ
ハ イ
ニ ー</w>
セ ージ</w>
シ ュ
オ リンピック</w>
アイデ ア</w>
わ ざ</w>
は る
だ り</w>
ざ る</w>
いただ く</w>
4 0</w>
風 景</w>
防 ぐ</w>
道 理</w>
運 ぶ</w>
速 度</w>
通 り
輸 送</w>
財 布</w>
読 書</w>
誇 り</w>
討 論</w>
病 人</w>
温 度</w>
比 べ</w>
植 え</w>
来 い</w>
抱 き
平 和</w>
寿 司</w>
変わ る</w>
嘉 味
嘉味 田</w>
口 座</w>
付 ける</w>
上 記</w>
ブラ ンド</w>
バ ラ
っ す</w>
ぐ る
近 所</w>
貿 易</w>
貨 物</w>
美味 しかっ</w>
眺 め</w>
発 注</w>
男 子</w>
現 われ</w>
指 摘</w>
心 臓</w>
宜 しく</w>
台 湾</w>
割 引</w>
保 存</w>
ライ ト</w>
ヤ ー</w>
ト レー
シャ ツ</w>
サ ー</w>
コン サ
キ ング</w>
ウ イ
ら しく</w>
ぶ る</w>
たと え</w>
黙 っ</w>
騒 ぎ</w>
開 ける</w>
進 む</w>
親 戚</w>
見 れ</w>
職 務</w>
考 え
納 期</w>
確 実</w>
知り 合い</w>
田 舎</w>
流 し</w>
明る く</w>
数 字</w>
抱 え</w>
小 麦</w>
小 学</w>
宣 伝</w>
太 っ</w>
夕 方</w>
内 部</w>
傾 向</w>
作 家</w>
ケ ース</w>
わ が
ふ り</w>
ふ さ
は や</w>
く っ</w>
が ん</w>
送 信</w>
資 本</w>
詳 しい</w>
被 害</w>
衣 服</w>
舞 台</w>
聴 い</w>
矛 盾</w>
決 まり</w>
歌 声</w>
権 利</w>
楽し む</w>
教 科</w>
所 属</w>
恨 み</w>
役 割</w>
偉 大</w>
ポ イント</w>
ペ ット</w>
ケ ン
エネ ルギー</w>
ば す</w>
す ん</w>
じ っと</w>
し り</w>
ざ し</w>
く ど
2 00</w>
雇 用</w>
階 段</w>
近 づい</w>
輸 入</w>
誤 解</w>
訂 正</w>
航 空</w>
泳 い</w>
最 低</w>
更 新</w>
早 め</w>
折 り
投 げ
心 中</w>
幸 福</w>
尊 敬</w>
制 限</w>
全 力</w>
佐 倉</w>
以 降</w>
今 日
リ スク</w>
マー ケ
ファ ー</w>
イタ リア</w>
イ メージ</w>
ふ ざ
とう とう</w>
く せ</w>
か め</w>
項 目</w>
面 接</w>
過 ぎる</w>
行な わ</w>
生ま れ
狭 い</w>
焼 き
派 遣</w>
水 準</w>
本 気</w>
応 募</w>
待 て</w>
当 たる</w>
建 築</w>
平 均</w>
宮 前</w>
墓 参り</w>
国 内</w>
図 面</w>
受 験</w>
区 別</w>
割 り
何 事</w>
今日 子</w>
上 着</w>
ー ティング</w>
レ ポート</w>
ラジ オ</w>
タイ ム</w>
ジ ット</w>
サ ギ</w>
イ ド</w>
ア ジア</w>
べ く</w>
た り
しか も</w>
駄 目</w>
顔 色</w>
重 ね</w>
迷 っ</w>
身 体</w>
誤 っ</w>
褒 め</w>
習 っ</w>
維 持</w>
止 める</w>
果 物</w>
忙 しかっ</w>
台 風</w>
前 回</w>
便 利</w>
何 処</w>
ロ ン</w>
リ ラ</w>
タ クシー</w>
コ ミュ
ア ニ
よ ぉ</w>
も はや</w>
つ つ</w>
ち まっ</w>
せっ かく</w>
く れ
く り
お は
非 難</w>
道 具</w>
訪 ね</w>
表 面</w>
落ち る</w>
若 く</w>
細 菌</w>
生 物</w>
日 常</w>
措 置</w>
急 ぎ</w>
徹 底</w>
危 機</w>
動 作</w>
優 先</w>
作 用</w>
人 形</w>
中 止</w>
バイ ス</w>
ネ ル</w>
ド ウ</w>
テー プ</w>
テー ション</w>
チ ュ
ソ ン</w>
コミュ ニ
ケー ション</w>
アル バイト</w>
ア ウ
わ い</w>
も し
ま さ</w>
たま に</w>
し め</w>
1 3</w>
顔 つき</w>
逮 捕</w>
述 べる</w>
洪 水</w>
構 成</w>
最 新</w>
性 質</w>
引き 受け</w>
届 く</w>
家 具</w>
収 穫</w>
勢 い</w>
出 版</w>
冷 蔵</w>
共 産</w>
供 給</w>
両 国</w>
ル フ</w>
メ ッ
マーケ ティング</w>
ニュ ー</w>
トラ ブル</w>
スー パー</w>
クレ ジット</w>
はる か</w>
な れる</w>
ど っ</w>
と い</w>
おは よう</w>
い や
あれ これ</w>
飲 ま</w>
送 ら</w>
診 断</w>
職 員</w>
継 続</w>
生 命</w>
深 刻</w>
支 配</w>
挨 拶</w>
指 揮</w>
必 死</w>
後 れ</w>
布 団</w>
寄 っ</w>
嬉 しく</w>
大 勢</w>
外 れ</w>
地 元</w>
呼 び</w>
入 れ
先 月</w>
一 定</w>
ミ ーティング</w>
ウ ィ
ぶつ かっ</w>
の 毛</w>
さ と</w>
か つ</w>
お と
お か</w>
高 級</w>
食 堂</w>
限 ら</w>
長 年</w>
記 事</w>
若 干</w>
習 い</w>
美 術</w>
生き 生き</w>
特 定</w>
演 技</w>
汚 れ</w>
株 価</w>
支払 う</w>
支 持</w>
意 義</w>
恥ず かしい</w>
思 え</w>
対 処</w>
地 主</w>
原 則</w>
処 分</w>
全 面</w>
伺 い</w>
人 事</w>
ンド ン</w>
ワ ード</w>
ビデ オ</w>
ズ ム</w>
ジャ ー</w>
コ ース</w>
キ ス</w>
ガ ソ
わ き
よう やく</w>
まさ に</w>
ご ま
か ご</w>
1 8</w>
適 用</w>
資 格</w>
聴 き</w>
結 論</w>
注 目</w>
殺 さ</w>
構 い</w>
暗 い</w>
摩 君</w>
意 外</w>
当 たり
引き 続き</w>
年 度</w>
大 雨</w>
商 売</w>
吹 く</w>
取 得</w>
動 い</w>
停 止</w>
世 間</w>
下 り</w>
一 家</w>
マ マ</w>
パー セント</w>
パス ポート</w>
わざ わざ</w>
や み</w>
ひ そ
で たら
でたら め</w>
さす が</w>
か な
１ ０</w>
部 署</w>
返 っ</w>
聴 く</w>
立 て
真 剣</w>
申 し</w>
生 涯</w>
特 徴</w>
故 障</w>
慎 重</w>
従 う</w>
宿 泊</w>
実 践</w>
失 う</w>
外 し</w>
固 定</w>
吸 っ</w>
半 年</w>
勤 め</w>
勝 負</w>
余 計</w>
余 裕</w>
仕 様</w>
両 手</w>
下ろ し</w>
ワ イン</w>
ラ ー
プ ロ</w>
バ ック</w>
チ ン</w>
ス メ
ほ う
そ いつ</w>
さっ さと</w>
え よう</w>
う そ</w>
香 り</w>
近 代</w>
近 づ
説 得</w>
見 かけ</w>
要 望</w>
睡 眠</w>
毎 週</w>
毎 月</w>
明 け</w>
教 授</w>
捕 まえ</w>
悪 事</w>
完 璧</w>
学 問</w>
向 こう</w>
勝 ち
何 故</w>
住 宅</w>
事 物</w>
ワ イ
ライ ブ</w>
メッ セージ</w>
ピ ング</w>
ト リ
ッ ション</w>
ん ざ
よ び</w>
ぼ んやり</w>
す り
くだ さっ</w>
が れ</w>
髪 の毛</w>
集 める</w>
鉄 道</w>
郵 送</w>
転 ん</w>
踊 り</w>
資 産</w>
資 源</w>
買 え</w>
言 える</w>
腕 前</w>
締 め
示 す</w>
無 視</w>
気 味</w>
権 力</w>
根 拠</w>
木 曜</w>
期 日</w>
暖 かい</w>
抑 え</w>
悩 ん</w>
恋 人</w>
封 建</w>
増 し</w>
告 白</w>
公 開</w>
侵 入</w>
代 金</w>
仕 方
ト ラン
コン クール</w>
コ ール</w>
アド バイス</w>
ア レ
は ん</w>
つ る
た ん</w>
お よび</w>
え ー</w>
いき なり</w>
い す</w>
飛 ばし</w>
選 び</w>
辞 め</w>
負 っ</w>
統 一</w>
節 約</w>
真っ 赤</w>
犯 し</w>
爆 弾</w>
死 者</w>
暗 く</w>
文 句</w>
慌 て</w>
意 志</w>
基 づ
同 志</w>
医 療</w>
化 粧</w>
加 工</w>
共 通</w>
倒 し</w>
体 調</w>
企 画</w>
上 達</w>
丁 寧</w>
レン ジ</w>
バ ル</w>
スピ ード</w>
クラ スメ
ガ キ</w>
ウ サギ</w>
さ り</w>
う な
香 港</w>
違 反</w>
返 答</w>
負 う</w>
講 義</w>
見つ かっ</w>
血 管</w>
締 め</w>
素 直</w>
皮 膚</w>
用 いる</w>
生 きる</w>
流 行</w>
水 泳</w>
承 知</w>
広 げ</w>
地 図</w>
卓 球</w>
分 野</w>
入 手</w>
俳 優</w>
不 満</w>
ル ク</w>
テ ン
ダ ル</w>
スト レス</w>
ゴ ム</w>
ゴ ミ</w>
ク ソ</w>
ら さ</w>
やす く</w>
もっ とも</w>
び る</w>
ひ ょ
に ち
だ ん
ご はん</w>
こん にち
こ もっ</w>
こ だ
く ら
え え</w>
あ ち
閉 め</w>
通 知</w>
軽 い</w>
賃 金</w>
貧 乏</w>
講 演</w>
美 しく</w>
絶 え</w>
競 争</w>
突 っ
社 内</w>
盛 ん</w>
発 売</w>
理 想</w>
殺 人</w>
欠 席</w>
構 わ</w>
撮 る</w>
恐 らく</w>
小さ く</w>
審 査</w>
多 分</w>
周 囲</w>
借 りる</w>
主 要</w>
並 ん</w>
ワ イ</w>
トラ ック</w>
スイ カ</w>
ス パ
キ ラー</w>
ひと しきり</w>
ば い</w>
っ ぽ</w>
さ っぱり</w>
ご らん</w>
うる さい</w>
いか なる</w>
あい さつ</w>
2 5</w>
2 4</w>
頑張 る</w>
鉛 筆</w>
配 送</w>
貢 献</w>
設 置</w>
設 け</w>
見つ め</w>
置 き</w>
真 面目</w>
症 状</w>
漏 れ</w>
流 れる</w>
正 一</w>
暑 かっ</w>
早 人</w>
方 面</w>
弁 当</w>
家 事</w>
学 期</w>
婦 人</w>
助 かり</w>
低 く</w>
世 紀</w>
ル ーム</w>
ミ ン</w>
ス キ
ク イ
ひ げ</w>
て めぇ</w>
つ れ</w>
そろ っ</w>
せ よ</w>
す り</w>
し ま</w>
お ば</w>
あ きら
8 0</w>
高 める</w>
選 ば</w>
送 金</w>
至 急</w>
知 恵</w>
目指 し</w>
洗 っ</w>
泣 く</w>
歌 い</w>
東 方</w>
意 地</w>
悪 人</w>
悪 かっ</w>
引き 起こし</w>
延 期</w>
大 神</w>
大 体</w>
団 体</w>
友 好</w>
協 議</w>
勢 力</w>
勘 違い</w>
侵 略</w>
付 き</w>
ン プ</w>
リー ダー</w>
バ ン</w>
ソフ ト
コン ビ
クリ ーム</w>
ウェ ア</w>
アイ ス</w>
わ しい</w>
じ み</w>
こんにち は</w>
かかわ ら</w>
か ん
あ ぁ</w>
開 か</w>
金 持ち</w>
血 液</w>
自 宅</w>
編 集</w>
相 場</w>
申し 込み</w>
生 地</w>
熱 心</w>
為 替</w>
添 え</w>
海 道</w>
気 温</w>
損 失</w>
抱 い</w>
手 順</w>
怖 く</w>
広 場</w>
壊 し</w>
北 海道</w>
前 後</w>
刺 激</w>
共 有</w>
休 む</w>
人 類</w>
人 数</w>
ロ ック</w>
マー ケット</w>
ブ ドウ</w>
コ ート</w>
ク ション</w>
や る
ゃ あ</w>
ほ ぼ</w>
た だ
す っ</w>
おと な
お っ</w>
お じ</w>
電 源</w>
送 り
軽 く</w>
身 分</w>
走 り</w>
赤 く</w>
看 護</w>
監 督</w>
爆 発</w>
減 っ</w>
模 様</w>
多 数</w>
友 情</w>
倉 庫</w>
不 幸</w>
上 級</w>
一 杯</w>
モ ンド</w>
ポ ーズ</w>
ビ ュー</w>
ゴ ルフ</w>
カ ル
オ レ</w>
ウイ ルス</w>
ん 坊</w>
も て
ま こと</w>
とっ ても</w>
鮮 やか</w>
飛 ぶ</w>
通 行</w>
返 品</w>
詰 まっ</w>
詫 び</w>
診 察</w>
要 素</w>
置 か</w>
組 み</w>
紅 葉</w>
箇 所</w>
産 業</w>
王 子</w>
物 資</w>
残 業</w>
残 さ</w>
干 し</w>
定 め</w>
向か う</w>
入 金</w>
入 場</w>
充 実</w>
傷 つけ</w>
一 筋</w>
ワ ン</w>
ロ ンドン</w>
メ ニュー</w>
バッ グ</w>
ド レス</w>
セ ス</w>
スタ イル</w>
スカ ート</w>
ショ ック</w>
コンサ ート</w>
ギ ャ
カ ナ
イ ス</w>
ア フ
ば ら
どう せ</w>
っ た
た え</w>
こ っ
7 0</w>
1 4</w>
難 う</w>
間に 合わ</w>
金 融</w>
見 込み</w>
脱 い</w>
終 える</w>
現 れ</w>
物 価</w>
済 ま</w>
投 げ</w>
平 気</w>
帰 ら</w>
呼 ぶ</w>
否 定</w>
原 価</w>
勘 定</w>
動 か</w>
了 承</w>
メ モ</w>
ウ ォ
やる 気</w>
や む</w>
つ らい</w>
つ け
ご く</w>
この 世</w>
く っ
あ く
々 しい</w>
開 き</w>
追 っ</w>
迅 速</w>
覚 め</w>
行 ない</w>
落と す</w>
瞬 間</w>
生 え</w>
渡 っ</w>
正 常</w>
本 人</w>
服 装</w>
振 っ</w>
悲 しみ</w>
恥ず かしく</w>
忘 れる</w>
形 式</w>
弾 く</w>
好 み</w>
困 ら</w>
同 様</w>
合 宿</w>
勇 敢</w>
助 ける</w>
公 演</w>
ニ ア</w>
ト マ
ツ アー</w>
ダイ ヤ
シ ェ
コンピュ ーター</w>
アニ メ</w>
っ か</w>
だ ん</w>
こ と
こ し</w>
鳴 っ</w>
通 信</w>
軍 事</w>
起こ さ</w>
群 れ</w>
美 容</w>
石 油</w>
発 電</w>
気 付い</w>
欠 点</w>
明 かり</w>
抜 く</w>
所 有</w>
役 所</w>
形 成</w>
広 げる</w>
広 がっ</w>
幼 い</w>
夕 飯</w>
喫 煙</w>
吸 収</w>
同 士</w>
同 僚</w>
動 かし</w>
先 進</w>
依 然</w>
人 柄</w>
中 隊</w>
下 し</w>
ー ム
ロ ッ
プ ラン</w>
フ ル
タ ル</w>
アウ ト</w>
と れ</w>
つ いで</w>
っ ぷ
た がっ</w>
じ っ</w>
ご 覧</w>
こ ち</w>
頼 み</w>
頂 く</w>
配 置</w>
超 え</w>
見 積</w>
育 てる</w>
組 合</w>
米 国</w>
着 物</w>
火 曜</w>
減 少</w>
泳 ぐ</w>
時 々</w>
早 速</w>
抜 け
抜 き</w>
戻 す</w>
恐ろ しい</w>
後 輩</w>
当たり 前</w>
差 別</w>
小 屋</w>
天 下</w>
喧 嘩</w>
叫 ん</w>
割 れ</w>
代 理</w>
一 種</w>
レ ット</w>
フ ェ</w>
バ イ</w>
ト ップ</w>
ッ キー</w>
スイ ッチ</w>
カ ン</w>
や める</w>
む しろ</w>
ま な
ぶ ら</w>
な め</w>
な べ</w>
き か</w>
離 婚</w>
重 視</w>
遭 う</w>
迫 っ</w>
講 習</w>
衛 生</w>
行 ける</w>
疑 い</w>
生 じ</w>
気 軽</w>
民 主</w>
校 長</w>
果 て
杞 紗</w>
揺 れ</w>
拍 手</w>
地 帯</w>
吸 う</w>
古 代</w>
参 照</w>
勝 ち</w>
削 減</w>
出 産</w>
使 える</w>
作 文</w>
ロ ープ</w>
ラオ ラオ
ユー ザー</w>
ボ ー
ベ スト</w>
セ ミ
サ ラ
カナ ダ</w>
る い</w>
や めろ</w>
ま しく</w>
ふ た</w>
避 ける</w>
逃 げる</w>
輸 出</w>
話し 合い</w>
見つ から</w>
砂 糖</w>
真 ん
現 地</w>
決 心</w>
汚 染</w>
果て し</w>
果 て</w>
来 れ</w>
昨 晩</w>
描 き</w>
捜 し
恐 怖</w>
当 日</w>
希 美</w>
夢 中</w>
多 田</w>
回 す</w>
商 店</w>
受 付</w>
伝 わっ</w>
ペ ン
ビ ー</w>
ダ ム</w>
カ タ
わ かん</w>
っ かけ</w>
た まら</w>
そ そ
す き
こ っ</w>
ぐ る</w>
き 出し</w>
が かり</w>
1 6</w>
頼 む</w>
難 しく</w>
金 銭</w>
運 営</w>
誠 実</w>
製 作</w>
著 作</w>
組み 立て</w>
細 かい</w>
素 材</w>
相 当</w>
沖 縄</w>
本 来</w>
有 難う</w>
新 鮮</w>
新 規</w>
推 測</w>
探 す</w>
招 い</w>
把 握</w>
手 元</w>
恋 愛</w>
巻 い</w>
困 る</w>
単 位</w>
冷 静</w>
余 地</w>
交 流</w>
二 十</w>
予 防</w>
マン ガ</w>
マ ーク</w>
パ ワー</w>
トマ ト</w>
ゾ ー</w>
スト ラ
ス キー</w>
ガ ー</w>
カ バー</w>
り ん</w>
なる べく</w>
っ ス</w>
しゃべ っ</w>
し む</w>
こ ん</w>
か ね</w>
い とこ</w>
あち こち</w>
配 慮</w>
買 収</w>
読 め</w>
見 解</w>
蒸 し
背 景</w>
筋 肉</w>
犠 牲</w>
流 れ
沿 っ</w>
汚 い</w>
様 々</w>
楽 器</w>
有 り</w>
明 後日</w>
捨 てる</w>
承 諾</w>
恐 縮</w>
強 制</w>
幸 運</w>
展 開</w>
堪 え</w>
団 結</w>
回 収</w>
四 方</w>
問 合せ</w>
合 意</w>
各 地</w>
単 純</w>
出 会い</w>
促 進</w>
リ ッ
パス ワード</w>
ハ ワイ</w>
ス コ
コ メント</w>
ク ロ</w>
ク ル</w>
れ よう</w>
ら う</w>
ま だ
まだ まだ</w>
で き
た だい
す っ
す が
さ せる</w>
げ よう</w>
け ん</w>
き っ</w>
か せ</w>
お そ
あん まり</w>
あきら め</w>
長 江</w>
重 く</w>
通 勤</w>
観 点</w>
美 子</w>
納 品</w>
礼 儀</w>
眼 鏡</w>
疑 問</w>
田 中</w>
生ま れる</w>
涼 しい</w>
洗 う</w>
決 断</w>
残 る</w>
武 器</w>
機 構</w>
栽 培</w>
本 物</w>
方 針</w>
新 太</w>
支 出</w>
推 し
性 能</w>
幼 稚</w>
差 し</w>
家 畜</w>
大 地</w>
図 る</w>
削 除</w>
児 童</w>
克 服</w>
傷 口</w>
体 験</w>
似 合っ</w>
フ ト</w>
トレー ニング</w>
ティ ブ</w>
コ ード</w>
コ ラ</w>
ケン ゾー</w>
カ ル</w>
エ ア
め い</w>
と も
す す
こ ら</w>
く ちゃ</w>
き つい</w>
か ばん</w>
お なか</w>
う わさ</w>
う っ
頻 繁</w>
集 合</w>
鋭 い</w>
選 挙</w>
過 程</w>
遂 げ</w>
車 両</w>
話 題</w>
解 け</w>
薄 い</w>
細 い</w>
画 面</w>
独 立</w>
点 検</w>
漢 字</w>
満 ち</w>
早 急</w>
日 々</w>
掲 載</w>
扱 っ</w>
怒 る</w>
御 子</w>
後 ろ
左 右</w>
夜 中</w>
変 動</w>
国 民</w>
国 境</w>
作 戦</w>
伸 ばし</w>
中 間</w>
マ ラ
ポ ケット</w>
フィ ル
バラ ンス</w>
トロ ール</w>
セ ンス</w>
ショ ー</w>
シ ート</w>
コミュニ ケーション</w>
ん か</w>
や ん</w>
ど り</w>
っつ ー</w>
っ しり</w>
だん だん</w>
ただい ま</w>
じゃ ま</w>
お 陰</w>
頼 り</w>
重 ん
義 務</w>
笑 わ</w>
笑 い
石 炭</w>
真 理</w>
片 づけ</w>
泊 まっ</w>
治 し</w>
横 浜</w>
標 準</w>
根 本</w>
望 む</w>
替 える</w>
数 量</w>
撮 り</w>
掛 ける</w>
押 す</w>
慊 人</w>
感 覚</w>
感 染</w>
愛 情</w>
役 人</w>
延 長</w>
喜 ぶ</w>
呼 吸</w>
合 計</w>
功 績</w>
出 会え</w>
公 共</w>
候 補</w>
信 号</w>
体 育</w>
ト ウ
ダイヤ モンド</w>
ソフト ウェア</w>
セミ ナー</w>
カ レー</w>
アレ ルギー</w>
ア ー
ア ム</w>
り 合っ</w>
ゆ ら
や せ</w>
もう け</w>
ま り
の り</w>
じ く</w>
ぐ っ</w>
おそ らく</w>
高 齢</w>
青 い</w>
電 波</w>
連 れ
路 線</w>
話し かけ</w>
親 友</w>
落ち着 か</w>
経 過</w>
確 かめ</w>
眠 く</w>
真 実</w>
画 像</w>
物 理</w>
洋 服</w>
正 面</w>
椅 子</w>
時 点</w>
敵 軍</w>
放 し</w>
戦 う</w>
家 屋</w>
反 省</w>
去 る</w>
ー ん</w>
ロ コ
ラオ ケ</w>
ポ ジ
ニ ック</w>
チャ ー</w>
コンビ ニ</w>
カ ラオケ</w>
ぼ ろ</w>
なく し</w>
ち に</w>
そ りゃ</w>
しゃ べる</w>
お ろ
え ば</w>
う っかり</w>
あ る
魯 迅</w>
預 金</w>
閉 じ
退 屈</w>
賢 い</w>
話 さ</w>
行 方</w>
継 ぎ</w>
組 ん</w>
確 保</w>
焼 く</w>
火 事</w>
濃 い</w>
泊 まり</w>
残 す</w>
業 績</w>
日 記</w>
方 式</w>
教 員</w>
推 薦</w>
抑 える</w>
役 立つ</w>
広 々</w>
山 東</w>
容 赦</w>
堂 々</w>
取り除 く</w>
厚 い</w>
制 御</w>
人 員</w>
予 報</w>
ン ズ</w>
ロ ット</w>
レー ション</w>
パ パ</w>
バ ン
ト ナ
テー マ</w>
ツ バ
スキ ル</w>
ショ ップ</w>
ケ ン</w>
グラ ス</w>
エ レ
エ リ</w>
まな ざし</w>
ひ き
は た
の の
に く</w>
なる ほど</w>
く ね
が り
おも ちゃ</w>
う ら
いた ず
い は</w>
々 しく</w>
飲 め</w>
進 捗</w>
速 やか</w>
輝 い</w>
身 長</w>
負 傷</w>
調 達</w>
衣 装</w>
腐 っ</w>
県 名</w>
盛 り</w>
異 動</w>
用 心</w>
現 状</w>
気づ か</w>
模 範</w>
柔ら かい</w>
果た す</w>
改 良</w>
差し 上げ</w>
奇 妙</w>
塗 っ</w>
基づ き</w>
器 用</w>
吸 い
名 声</w>
収 益</w>
初 期</w>
切 ら</w>
分 ける</w>
凶 悪</w>
信 じる</w>
住 み</w>
似 合う</w>
仕方 ない</w>
人 工</w>
乾 燥</w>
並 み</w>
上手 い</w>
ー ジ
マ スター</w>
タイ ミング</w>
ソフ ト</w>
スマ ス</w>
スペ イン</w>
クリ スマス</w>
ウ ント</w>
わ ん</w>
や じ</w>
て っ</w>
そ び
ささ か</w>
くださ る</w>
く そ</w>
い ささか</w>
飾 り</w>
電 報</w>
避 難</w>
過ご せ</w>
誘 っ</w>
評 判</w>
規 制</w>
見 渡す</w>
見 せる</w>
荒 れ</w>
育 成</w>
結 び
経 ち</w>
穀 物</w>
破 っ</w>
留 守</w>
災 い</w>
減 らす</w>
涼 しく</w>
派 手</w>
気 付
機 器</w>
書 物</w>
曲 がっ</w>
控 え</w>
振 る
抱 く</w>
意 図</w>
奇 跡</w>
夏 期</w>
動 かす</w>
割 っ</w>
分 類</w>
入 荷</w>
免 疫</w>
付き 合い</w>
主 に</w>
ー マ
ラー メン</w>
ネ ズ
ニュー ヨ
ナ ル</w>
デ パート</w>
ット ボール</w>
ッ ピング</w>
ア ン</w>
わ たる</w>
り つけ</w>
み ろ</w>
ほ こり</w>
ひ とり</w>
にぎ やか</w>
っぷ り</w>
ず ば
が っかり</w>
お よそ</w>
い ち
ある いは</w>
離 れる</w>
遊 園</w>
載 っ</w>
財 務</w>
要 因</w>
被 災</w>
育 っ</w>
美 人</w>
署 名</w>
直 ちに</w>
温 かい</w>
渋 滞</w>
泣 き
武 装</w>
榊 原</w>
果 たし</w>
未 だ</w>
数 え</w>
支 払</w>
揚 げ</w>
捜 査</w>
恥ず かし</w>
思い 出す</w>
当 て
年 金</w>
巧 み</w>
小 僧</w>
寄 付</w>
外 交</w>
召 し
叔 父</w>
値 引き</w>
二 言</w>
並 べ</w>
ロコ シ</w>
ラン チ</w>
ユ ニ
モ ン</w>
モ ロコシ</w>
メ ー</w>
ミ コ</w>
ファ イ
ニューヨ ーク</w>
トウ モロコシ</w>
デ マ</w>
チ ック</w>
シャ ワー</w>
オー バー</w>
アフ リカ</w>
ア パート</w>
わが まま</w>
ゆら ゆ
ゆらゆ ら</w>
ふざ け</w>
は じめ</w>
ちゃ あ</w>
そ っち</w>
さ て</w>
さ し</w>
ご とく</w>
か え
ありが たい</w>
3 00</w>
食 い
順 番</w>
酔 い</w>
買 わ</w>
設 立</w>
見舞 い</w>
続 け
答 える</w>
称 賛</w>
科 目</w>
現 代</w>
熱 中</w>
活 用</w>
民 間</w>
案 件</w>
本 体</w>
服 用</w>
有 利</w>
最 中</w>
暖 かく</w>
昼 ご飯</w>
抵 抗</w>
手 当</w>
感 想</w>
悩 み</w>
当 店</w>
弁 護</w>
屋 根</w>
居 る</w>
守 ら</w>
姿 勢</w>
姉 妹</w>
天 候</w>
大 通り</w>
売り 上げ</w>
唯 一</w>
告 げ</w>
及 ば</w>
分 かん</w>
体 制</w>
代 わっ</w>
不 正</w>
ロ ード</w>
ロ ボ
ポ スト</w>
ハン バー
ト ン
ト ラ</w>
タ オ
スピ ーチ</w>
シ ー
クレ イ
クイ ーン</w>
キ ュー</w>
カー テン</w>
ア ッ
んざ り</w>
や たら</w>
もら おう</w>
ひ い</w>
と け</w>
ちゃ くちゃ</w>
す き</w>
し ゃ</w>
く じ</w>
お お</w>
う んざり</w>
い ま</w>
i n
驚 く</w>
飽 き</w>
遅 れる</w>
見 せ
複 数</w>
聞こ える</w>
続け ざま</w>
給 与</w>
登 場</w>
男 女</w>
満 た
最 適</w>
最 悪</w>
方 々</w>
改 め</w>
接 続</w>
掘 り
悪 口</w>
快 適</w>
師 匠</w>
巻 き</w>
大 空</w>
外 部</w>
囲 ま</w>
収 集</w>
収 め</w>
予 測</w>
久 美子</w>
一 瞬</w>
ム カ
ボ ード</w>
ホ ール</w>
ナ ン
ディ ー</w>
タイ ヤ</w>
ジャ ン
シ ン</w>
ク ー
キ ロ
ガ イ
カ ラー</w>
カ バン</w>
エア コン</w>
ア カ
ま とも</w>
ぶ つけ</w>
と ら</w>
でき よう</w>
て ろ</w>
っしゃ る</w>
さ ら</w>
く し</w>
き っかけ</w>
う か
いたず ら</w>
い まだ</w>
2 000</w>
願 う</w>
限 定</w>
進 行</w>
通 過</w>
越 える</w>
貸 し
警 戒</w>
読 ま</w>
該 当</w>
規 律</w>
覆 っ</w>
表 わし</w>
落ち 込ん</w>
破 る</w>
直 ぐ</w>
率 直</w>
無 し</w>
烈 士</w>
気 まま</w>
正 体</w>
欠 け</w>
検 証</w>
株 主</w>
暮 れ</w>
支 給</w>
損 害</w>
扱 う</w>
憧 れ</w>
愛 する</w>
店 舗</w>
干 渉</w>
小 切手</w>
売 れ</w>
増 やす</w>
合 理</w>
取り 出し</w>
制 服</w>
出 演</w>
入 社</w>
優 し</w>
中 華</w>
不 可
一 貫</w>
ー ジャー</w>
ベ ン
バ レ</w>
ト ー
チ リ</w>
シャ ル</w>
ゴ ール</w>
クレイ ジー</w>
ウ ス</w>
わ れ
り ん
やっ ぱ</w>
や や</w>
め った</w>
ま して</w>
ぼ う</w>
ぶら ぶら</w>
ばら ばら</w>
ぬ れ</w>
た ま</w>
た がる</w>
せ い
す げ
す く
さ ぁ</w>
こ ま
か 所</w>
い つ
高 め</w>
食 っ</w>
預 け</w>
青 春</w>
需 要</w>
陣 地</w>
辞 典</w>
輝 く</w>
豊 作</w>
謙 虚</w>
読 者</w>
言 葉
行 政</w>
血 圧</w>
肥 料</w>
確 信</w>
真っ 白</w>
発 明</w>
痩 せ</w>
死 亡</w>
書 記</w>
昼 寝</w>
教 会</w>
愛 さ</w>
恐 れ
心 理</w>
年 代</w>
岸 辺</w>
展 覧</w>
大 胆</w>
売 買</w>
含 め</w>
名 誉</w>
刺 さ</w>
出 場</w>
典 型</w>
値 打ち</w>
中 身</w>
世 の
世の 中</w>
ヨ ー
ミ ルク</w>
マ ミコ</w>
プレ ー</w>
プ ン</w>
ブ レー
フ ル</w>
バ リ
ナイ フ</w>
ッ パー</w>
クラスメ ート</w>
ク ス</w>
カ フェ</w>
オ リ
わ せ</w>
ほ んと</w>
は ず
っ ぱ</w>
た て</w>
た っぷり</w>
すす め</w>
ぐ ず</w>
お やじ</w>
1 9</w>
０ ０</w>
面白 く</w>
電 力</w>
部 下</w>
道 徳</w>
通 す</w>
返 金</w>
近 年</w>
迎 える</w>
超 える</w>
赤 ん坊</w>
茶 わん</w>
羨 ましい</w>
神 社</w>
相 互</w>
火 災</w>
済 む</w>
注 射</w>
法 則</w>
植 える</w>
書 け</w>
描 か</w>
手 本</w>
愉 快</w>
悲 しく</w>
帰 れ</w>
巻 く</w>
就 い</w>
寂 しく</w>
四 川</w>
品 種</w>
取り組 ん</w>
免 許</w>
予 備</w>
主 な</w>
下 げる</w>
一人 一人</w>
一 応</w>
ワ ーク</w>
レ ース</w>
メ ダル</w>
ム ー</w>
セ ール</w>
シ カ</w>
ケ ート</w>
グ ル</w>
キャン プ</w>
キャ リア</w>
エン ジン</w>
イ ク</w>
ア ラ
われ われ</w>
もた らす</w>
ぼ れ</w>
ふる まい</w>
ひ た
ど き</w>
ち ょ</w>
ごま かし</w>
こ そ
ぐ ず
がんば っ</w>
か ま
うれ しく</w>
あく まで</w>
鳴 い</w>
頼 っ</w>
震 え</w>
逃 れ</w>
返 済</w>
近 ごろ</w>
身 なり</w>
起こ り</w>
貧 しい</w>
訴 え</w>
解 除</w>
解 消</w>
見 直し</w>
見 ろ</w>
融 通</w>
美 し</w>
立ち 上がっ</w>
眠 い</w>
真ん 中</w>
真 相</w>
直 り</w>
登 り</w>
渡 る</w>
消 す</w>
治 っ</w>
永 久</w>
権 勢</w>
救 済</w>
戦 っ</w>
成 り
悪 化</w>
応 え</w>
幹 雄</w>
履 い</w>
尋 ねる</w>
囲 ん</w>
右 手</w>
受け 入れる</w>
休 息</w>
伏 せ</w>
人 前</w>
乱 れ</w>
一 昨</w>
ー カー</w>
ロー マ</w>
マ ッ
ペ ーン</w>
フィ リ
ビ ング</w>
パ ス</w>
バ ス
ネズ ミ</w>
タオ ル</w>
ソ ー
スト ーブ</w>
ジュ ース</w>
コー ズ</w>
キャン ペーン</w>
エ コーズ</w>
りん ご</w>
ゆ い</w>
ま あ
まあ まあ</w>
ひ も</w>
た び
さ く</w>
ご ろ
かわ い
うる せ
いか に</w>
あ ちら</w>
鳴 らす</w>
飲 食</w>
風 格</w>
頑張 れ</w>
進 み</w>
追い かけ</w>
辛 抱</w>
転 送</w>
転 職</w>
貰 っ</w>
触 れる</w>
覚 える</w>
要 ら</w>
真 心</w>
登 山</w>
特 許</w>
焼 い</w>
無 数</w>
民 衆</w>
正 義</w>
止 まら</w>
救 急</w>
掘 る</w>
心 地
循 環</w>
座 席</w>
座 り</w>
工 作</w>
尊 重</w>
容 易</w>
執 行</w>
合 え</w>
古 く</w>
危 ない</w>
前 線</w>
別 途</w>
分 配</w>
先 ほど</w>
住 民</w>
一 群</w>
ヘ ル
ディ ア</w>
ダ メージ</w>
ジ ム</w>
サ ボ
コ ップ</w>
ガソ リン</w>
ア ナ
ま ー</w>
ば さ</w>
は じ
ど ら</w>
て い</w>
つぶ し</w>
つ ー</w>
つ る</w>
つ や</w>
ちゃ い</w>
だ す</w>
ぐ っ
が し</w>
お や</w>
黄 色</w>
青 々</w>
隠 す</w>
長 所</w>
郊 外</w>
遺 伝</w>
達 する</w>
通 訳</w>
追 わ</w>
返 却</w>
転 換</w>
豆 腐</w>
落ち着 き</w>
経 費</w>
笑 み</w>
砂 漠</w>
目 下</w>
留 め</w>
田 畑</w>
理 屈</w>
特 殊</w>
片 付け</w>
照 らし</w>
演 じ</w>
満 ち
欲 しかっ</w>
昼 間</w>
断 固</w>
文 芸</w>
改 造</w>
招 く</w>
手 法</w>
忠 告</w>
従 事</w>
弾 き</w>
帳 簿</w>
工 程</w>
宴 会</w>
売 れ
報 酬</w>
器 具</w>
吹 き</w>
取り組 み</w>
原 料</w>
協 定</w>
前 途</w>
会 員</w>
主 任</w>
ワ ー
ラン プ</w>
マ ニュ
フィリ ピン</w>
ファ ッション</w>
ソ ファー</w>
スパ イ</w>
ス ーツ</w>
ス ラ
シ ーン</w>
エ ラー</w>
ウ ン</w>
アン ケート</w>
わ れる</w>
り 込ん</w>
ら し
み れ</w>
み こ</w>
ぴ か</w>
ひそ か</w>
な じみ</w>
さ ぼ
ぐず ぐず</w>
うれ しかっ</w>
あい にく</w>
あ ッ</w>
9 0</w>
黄 河</w>
高 価</w>
駐 車</w>
食 い</w>
風 紀</w>
頼 ま</w>
集 まる</w>
隊 長</w>
陥 る</w>
関 わる</w>
鉄 塔</w>
重 点</w>
都 会</w>
赤 字</w>
警 官</w>
表 わす</w>
表 し</w>
苦 しん</w>
舞 い
聞 け</w>
着 替え</w>
着 け</w>
皇 帝</w>
生 じる</w>
渡 り</w>
浪 費</w>
法 人</w>
水 着</w>
比 べる</w>
権 限</w>
本 社</w>
政 権</w>
掛 け
指 輪</w>
打 撃</w>
手 形</w>
忙 し</w>
引 用</w>
年 末</w>
届 か</w>
寄 り
寄 せる</w>
失 わ</w>
吐 い</w>
原 子</w>
判 決</w>
処 罰</w>
処 方</w>
再 会</w>
光 っ</w>
働 か</w>
作 者</w>
作 れ</w>
交 差</w>
乗 れ</w>
リ ティ</w>
マネ ージャー</w>
ボ ケ</w>
ブ サイト</w>
ビ ザ</w>
ビ ア</w>
デ ー</w>
スタ ート</w>
シ ップ</w>
ゲ リラ</w>
カッ コ</w>
オー プン</w>
エ ット</w>
ウェ ブサイト</w>
ま き</w>
ほ っ
ぶ れ</w>
ぴ か
ば っ</w>
のの し
ね じ</w>
な お
ど っと</w>
っ 子</w>
ず り</w>
す ま</w>
く る
き たり</w>
が ち</w>
から かっ</w>
か すか</w>
おも し
おい しかっ</w>
え ッ</w>
いら いら</w>
い じ
あふ れる</w>
1 7</w>
黒 く</w>
鳴 く</w>
革 新</w>
開 店</w>
鑑 賞</w>
酸 化</w>
連 合</w>
追 跡</w>
賢 く</w>
貴 女</w>
調 節</w>
調 理</w>
見積 り</w>
荒 木</w>
自 覚</w>
自 慢</w>
腫 れ</w>
突 く</w>
空 間</w>
空 中</w>
秩 序</w>
白 く</w>
登 る</w>
発 射</w>
熟 練</w>
浮 き
泥 棒</w>
泣 か</w>
水 道</w>
水 分</w>
構 築</w>
最 善</w>
新 入</w>
放 っ</w>
改 める</w>
支払 っ</w>
握 っ</w>
拾 っ</w>
情 熱</w>
思い 出せ</w>
待ち 合わせ</w>
巨 大</w>
左 側</w>
山 頂</w>
実 力</w>
大 嫌い</w>
境 界</w>
塗 る</w>
埋 め</w>
問 わ</w>
同 情</w>
取り 付け</w>
及 び</w>
博 物</w>
勝 て</w>
加 入</w>
切 れる</w>
公 平</w>
保 つ</w>
例 えば</w>
不 要</w>
不 法</w>
一 掃</w>
マラ ソン</w>
マニュ アル</w>
ポ ン</w>
ベ トナ
ベトナ ム</w>
フィル ム</w>
フ ロ
チ ベ
タ ーン</w>
ショ ッピング</w>
クロ ス</w>
ウ リ</w>
よ い
ぴか ぴか</w>
ば っかり</w>
づ ける</w>
つ め</w>
そ ー</w>
そ っくり</w>
ぜ ー</w>
し も</w>
こっ そり</w>
け んか</w>
くれ ぐれ</w>
き ょ
か た</w>
か き</w>
おとな しく</w>
お ご
お こう</w>
え ー
え ろ</w>
う え</w>
あ っ
あ た
頭 痛</w>
関 わら</w>
載 せ</w>
責 め</w>
豚 肉</w>
誠 意</w>
覚 まし</w>
視 線</w>
締め 切り</w>
総 合</w>
結 ん</w>
経 っ</w>
細 かく</w>
紅 茶</w>
税 関</w>
秋 田</w>
禁 煙</w>
磨 き</w>
燃 料</w>
漏 らし</w>
浮 かん</w>
流 す</w>
河 南</w>
沈 ん</w>
楽し ま</w>
条 約</w>
本 質</w>
暴 力</w>
早 起き</w>
早 朝</w>
指 数</w>
手 助け</w>
愚 か</w>
意 思</w>
思 える</w>
強 盗</w>
座 る</w>
帰 省</w>
対 立</w>
始 末</w>
多 少</w>
増 える</w>
名 簿</w>
合 併</w>
口 調</w>
勤 勉</w>
励 まし</w>
分 間</w>
出 し
写 っ</w>
公 務</w>
体 温</w>
低 下</w>
休 ま</w>
付 近</w>
レン ズ</w>
マ ナー</w>
ボ ク</w>
プ ション</w>
フ ライト</w>
バ レー</w>
バ ラ</w>
バ スケ
バスケ ットボール</w>
ハ ッ
ノ ル
チ ーズ</w>
ソ ース</w>
ケ ガ</w>
エレ ベ
ゅ う
や か
も そ
ぶ つ</w>
つな がる</w>
っぽ っち</w>
っつ っ</w>
だ まし</w>
だ まさ</w>
た ど
ず る</w>
すき 間</w>
しゃ く</w>
し わ</w>
し けれ</w>
ご ま</w>
ぎ り</w>
20 0
鳴 る</w>
鳴 らし</w>
髪 型</w>
食 わ</w>
頼 る</w>
降 り
闘 い</w>
関 西</w>
運 用</w>
連 中</w>
辺 り</w>
語 っ</w>
話し 合う</w>
記 者</w>
言 おう</w>
親 しく</w>
見 通し</w>
見 物</w>
衛 星</w>
花 粉</w>
経 理</w>
漬 け</w>
混 ぜ
泊 まる</w>
決 済</w>
次 々</w>
業 界</w>
日 時</w>
新 人</w>
文 法</w>
拠 点</w>
成 立</w>
懐 かしい</w>
恐れ 入り</w>
復 帰</w>
弱 点</w>
広 東</w>
履 歴</w>
実 績</w>
学 者</w>
奴 隷</w>
奮 い
国 外</w>
咲 い</w>
吹 奏</w>
含 ん</w>
向 かい</w>
同 級</w>
右 側</w>
医 学</w>
包 囲</w>
再 生</w>
兵 力</w>
兄 貴</w>
働 き
信 念</w>
保 育</w>
伝 わる</w>
井 戸</w>
了 解</w>
上 品</w>
上 がら</w>
ロッ パ</w>
リ ース</w>
リ フ</w>
リ ズム</w>
ヨー ロッパ</w>
ポ ンプ</w>
ベ ルト</w>
ネ ジ</w>
ト ー</w>
テ キ
チャ ン
セ ーター</w>
セ ー
ス ミス</w>
ケー ブル</w>
ガ ル</w>
カッ プル</w>
オ フ</w>
や れる</w>
や ばい</w>
もそ も</w>
まと める</w>
ま く</w>
ぼ け</w>
ほ お</w>
ひょ っと</w>
ぱ っ</w>
で っち
て ん
っぽ く</w>
っ ぴ
そ もそも</w>
さ し
け が</w>
く わ
から か
か なっ</w>
い わ
い り</w>
あ っち</w>
B C</w>
6 5</w>
5 000</w>
魔 法</w>
高 速</w>
頑張 ろう</w>
電 灯</w>
道 のり</w>
転 勤</w>
議 事</w>
警 備</w>
言葉 遣い</w>
触 っ</w>
覚 悟</w>
視 野</w>
見 事</w>
行き 来</w>
自 殺</w>
肝 心</w>
統 領</w>
破 損</w>
短 く</w>
真 っ</w>
発 し</w>
清 潔</w>
決 算</w>
木 の
明 細</w>
日 焼け</w>
揺 れ
拒 絶</w>
抜 ける</w>
折 れ</w>
投 稿</w>
払 い
恒 一</w>
引っ 張っ</w>
幹 線</w>
平 ら</w>
屋 敷</w>
太 鼓</w>
大 統領</w>
大 幅</w>
場 面</w>
台 所</w>
取 れる</w>
千 和</w>
創 造</w>
前 方</w>
処 置</w>
公 式</w>
会 わ</w>
争 う</w>
ー い</w>
ララ ララ
メ ガ
ボ ラン
ボ ス</w>
ブ ック</w>
フォ ーマ
ピ ンク</w>
パ ラ
ナ ンス</w>
デ モ</w>
ティ ア</w>
タ マ</w>
ス リ
ゲ ン</w>
キャ ラ</w>
キ ン</w>
カタ ログ</w>
カ ウン
イ ラ
アル バ
ろ く
よ せ</w>
もた らし</w>
ぼ ろ
ほ ど
ほ っと</w>
とん で
とんで も</w>
とり どり</w>
て ら
ちま ち</w>
た まっ</w>
た たく</w>
じ ょ</w>
か ぶっ</w>
え れ</w>
う わ
う どん</w>
あ げよう</w>
頂 ける</w>
靴 下</w>
隊 列</w>
間に 合う</w>
過 ぎ
遂 げる</w>
透 明</w>
返 る</w>
身 の
踊 る</w>
起 き
警 告</w>
語 学</w>
訴 訟</w>
観 る</w>
補 助</w>
裏 切り</w>
被 験</w>
行 事</w>
落と さ</w>
花 島</w>
自 治</w>
盗 ま</w>
燃 え</w>
温 め</w>
流 さ</w>
気 象</w>
毎 回</w>
殴 っ</w>
死 体</w>
根 性</w>
救 う</w>
搾 取</w>
掛 かり</w>
捜 す</w>
捕 らえ</w>
慰 め</w>
悲 惨</w>
思い 切っ</w>
従 い</w>
当 てる</w>
強 力</w>
帝 国</w>
容 貌</w>
存 分</w>
嫌 わ</w>
夜 間</w>
地 上</w>
半 身</w>
務 め</w>
冷 や
兵 器</w>
何 卒</w>
人 種</w>
交 替</w>
争 い</w>
乗 せ</w>
一 気</w>
一 斉</w>
ロ ケット</w>
レ イ</w>
ラ ンド</w>
モ ーター</w>
モ テ</w>
ボ ート</w>
ホ ーム
ベ ース</w>
プレゼ ン
ブレー キ</w>
フ ード</w>
ハ イ</w>
トラ クター</w>
ト ナー</w>
テ ム</w>
チ ャ</w>
ス ライ
ク ッキー</w>
ギ ング</w>
キャ ラ
カ ップ</w>
エ ル</w>
アルバ ム</w>
アカ ウント</w>
や が
も や</w>
み ぞれ</w>
まる まる</w>
ひた すら</w>
なく なる</w>
つき あい</w>
たい てい</w>
そ っと</w>
せ ん
す っきり</w>
し きたり</w>
ぐっ すり</w>
が め</w>
か け
か から</w>
おか ず</w>
2 1</w>
驚 か</w>
食 物</w>
飛び 出し</w>
飛 ばす</w>
集 まり</w>
閉 じ</w>
鍛 え</w>
過 剰</w>
送 料</w>
返 さ</w>
足 取り</w>
見 逃
草 原</w>
肉 体</w>
突 破</w>
税 金</w>
監 査</w>
狭 く</w>
狂 っ</w>
無 かっ</w>
災 厄</w>
毎 晩</w>
欠 陥</w>
構 え</w>
木の 葉</w>
月 末</w>
暮 らす</w>
散 ら
放 射</w>
換 える</w>
控 え
抜 き
悪 党</w>
思い やり</w>
復 習</w>
年 上</w>
小 鳥</w>
小 川</w>
寝 坊</w>
室 内</w>
大 型</w>
外 見</w>
報 道</w>
堤 防</w>
堕 落</w>
困 り</w>
受け 付け</w>
取り組 む</w>
取り 戻し</w>
匂 い</w>
助 言</w>
創 作</w>
党 員</w>
債 務</w>
作 動</w>
仕 上げ</w>
人 手</w>
乾 い</w>
不 在</w>
不 便</w>
ヴ ェ
モ ー
ミ サイ
ミサイ ル</w>
マン トー</w>
ボラン ティア</w>
プレゼン テーション</w>
フ レ
パイ プ</w>
バ ナ
ニ ーズ</w>
ド ライ
ド キ
テ ント</w>
チョ コ
セ リフ</w>
ゲ ー
グ ロー
アル コール</w>
ろ く</w>
れ よ</w>
ま ね</w>
べ た</w>
ひっ くり
なく す</w>
っち り</w>
ち ら
だい たい</w>
た たい</w>
し み
げ さ</w>
く ぎ</w>
が き</w>
か ち
か か
うれ し</w>
う る</w>
いっ しょ</w>
い こう</w>
A BC</w>
３ ０</w>
飾 っ</w>
頂 戴</w>
面 積</w>
阻 止</w>
防 衛</w>
金 色</w>
遺 産</w>
適 し</w>
遅 延</w>
進 展</w>
通 う</w>
謝 罪</w>
言い 訳</w>
表 彰</w>
茂 っ</w>
自 ら</w>
結 ぶ</w>
突 い</w>
眠 る</w>
真っ 黒</w>
真 似</w>
病 状</w>
甘 え</w>
無 効</w>
点 数</w>
浴 び</w>
浮か べ</w>
活 気</w>
水 面</w>
検 索</w>
森 林</w>
染 め</w>
木 材</w>
景 気</w>
映 像</w>
早 期</w>
日 光</w>
整 っ</w>
放 課</w>
承 り</w>
悔 しい</w>
恐 れる</w>
急 速</w>
心 地</w>
後 ほど</w>
引 か</w>
幽 霊</w>
平 等</w>
少 数</w>
専 ら</w>
富 士</w>
学 ば</w>
嬉 し</w>
奮 闘</w>
太 く</w>
周 年</w>
向か い
厳 重</w>
厳 格</w>
化 け</w>
前 向き</w>
修 学</w>
保 障</w>
使 い
些 細</w>
中 傷</w>
マ スク</w>
ベ ル
フォ ン</w>
バナ ナ</w>
ネ タ</w>
ナ ス</w>
ド キ</w>
ッ と</w>
チョコ レート</w>
セ ン</w>
ジョ ー
イン タ
アイ テム</w>
ま ぶ
ほ の
ほ え
は ー</w>
な み</w>
つ り
つ や
だ い</w>
そ よ
ぜ い</w>
せい ぜい</w>
せ ろ</w>
さ わ
く さい</w>
が た</w>
か み
お び
えー と</w>
う つ
い ける</w>
領 収</w>
面白 かっ</w>
限 界</w>
降 ら</w>
銃 声</w>
退 院</w>
迷 子</w>
貼 っ</w>
財 政</w>
請 け
認 める</w>
試 作</w>
親 しみ</w>
衝 撃</w>
葬 式</w>
苦 難</w>
自 社</w>
臨 時</w>
肺 炎</w>
置 き
積 ん</w>
痛 む</w>
疲 労</w>
疲 れる</w>
生 理</w>
狩 り</w>
無 く
炭 素</w>
瀬 尾</w>
演 劇</w>
清 掃</w>
浴 衣</w>
段 取り</w>
正 解</w>
有 益</w>
日 増し</w>
断 り</w>
排 水</w>
打 た</w>
感 激</w>
恵 まれ</w>
忠 実</w>
廊 下</w>
店 員</w>
帰 ろう</w>
小 包</w>
定 義</w>
孤 独</w>
嫉 妬</w>
天 津</w>
夜 明</w>
多 忙</w>
夏 季</w>
増 産</w>
土 壌</w>
喫 茶</w>
喜 ば</w>
名 古
名古 屋</w>
同 じく</w>
反 撃</w>
厚 く</w>
助 かっ</w>
凄 い</w>
冬 海</w>
先 祖</w>
両 替</w>
下ろ す</w>
下 す</w>
上 映</w>
ー っと</w>
レ ン</w>
リン ク</w>
ペ ー
ペ ッパー</w>
ヘ ア</w>
プ リン
フォ ーム</w>
パン ツ</w>
ノ ック</w>
チョ コ</w>
ダ ン
タ ン
スペ ース</w>
シ ング</w>
サラ ダ</w>
イ フ</w>
り ゃあ</w>
や ま</w>
もっ たい</w>
む い</w>
まと まっ</w>
ほ っ</w>
ぶ ちま
ひ ら</w>
と き
っ たら</w>
っ たく</w>
だい ぶ</w>
ず っ</w>
じ っくり</w>
し き</w>
こ つ</w>
く つ
いわ ゆる</w>
2 2</w>
飼 い
食 欲</w>
食 う</w>
響 き</w>
限 り
防 御</w>
開 拓</w>
閉 鎖</w>
金 属</w>
酷 い</w>
輝 かしい</w>
身 内</w>
見 山</w>
見 よう</w>
苦 しく</w>
総 会</w>
経 歴</w>
精 巧</w>
祝 う</w>
示 さ</w>
看 板</w>
癒 さ</w>
独 特</w>
爆 破</w>
燃 え
災 難</w>
溶 け</w>
浮 気</w>
流 通</w>
洗 い
水 中</w>
気づ き</w>
気 風</w>
残 酷</w>
死 刑</w>
機 密</w>
概 念</w>
曇 り</w>
普 及</w>
昇 進</w>
新 年</w>
教 訓</w>
控え め</w>
押 さえ</w>
折り 返し</w>
折 っ</w>
手伝 う</w>
成 分</w>
悲 し</w>
当 初</w>
弾 い</w>
引 越し</w>
常 識</w>
少 々</w>
小 遣い</w>
専 攻</w>
妥 当</w>
妊 娠</w>
女 優</w>
多 かっ</w>
境 遇</w>
地 点</w>
回 数</w>
哲 学</w>
受 信</w>
及 ぼ
動 産</w>
出 掛け</w>
冷 たく</w>
共 和</w>
公 衆</w>
公 正</w>
先 頭</w>
傾 い</w>
傷 つける</w>
伴 う</w>
会 長</w>
任 命</w>
中 毒</w>
中 断</w>
下 落</w>
下 着</w>
ー ッ</w>
ワ ク
ロ シア</w>
レン タ
リ アル</w>
ヤ バ
ペン キ</w>
ヘ ブ
パン ダ</w>
バ レ
ニ ン
ナ ッ
デ ン</w>
テ ク
チ ン
セ メント</w>
ジョ ギング</w>
サイ クル</w>
キ リ</w>
エレベ ーター</w>
エ リア</w>
エ ビ</w>
ウ ル</w>
ら しかっ</w>
よ り
もの すごく</w>
もし く
もしく は</w>
ま わり</w>
ふ ん</w>
の ど</w>
の ぞ
にぎ り</w>
な に
つ かん</w>
た ちまち</w>
そ で</w>
ぜ ん</w>
ぐ ら</w>
き つく</w>
か ぶ
お にぎり</w>
う そ
い と
い ざ</w>
２ ０
麗 奈</w>
鳴 り</w>
鳴 り
騒 い</w>
駆け つけ</w>
随 分</w>
開 会</w>
適 応</w>
過 度</w>
運 び</w>
通 る</w>
辺 境</w>
踊 っ</w>
負 ける</w>
豪 華</w>
謹 ん</w>
論 争</w>
訴 える</w>
計 上</w>
解 釈</w>
西 洋</w>
褒 め
装 備</w>
被 っ</w>
衝 突</w>
美味 し</w>
縫 い
絶 え
絵 画</w>
統 計</w>
細 く</w>
素 早く</w>
粗 末</w>
短 期</w>
直 面</w>
目指 す</w>
申 告</w>
生まれ つき</w>
生 い
玲 奈</w>
特 性</w>
照 明</w>
照 り</w>
流 暢</w>
注 い</w>
死 な</w>
格 別</w>
栄 誉</w>
柔ら かく</w>
枯 れ</w>
本 番</w>
時 刻</w>
文 献</w>
描 写</w>
折 り</w>
手 足</w>
所 得</w>
怖 かっ</w>
後 半</w>
彫 刻</w>
川 尻</w>
山 村</w>
届 ける</w>
客 観</w>
奪 い
大 臣</w>
大 使</w>
外 す</w>
売れ 行き</w>
執 り
商 業</w>
命 じ</w>
含 む</w>
名 刺</w>
受 講</w>
占 め</w>
動 揺</w>
力 強い</w>
割 り</w>
写 し</w>
内 緒</w>
八 方</w>
仲 裁</w>
付き 添
他 社</w>
交 際</w>
争 っ</w>
不 尽</w>
上 る</w>
ール ド</w>
リ ラ
ラン ダ</w>
マ ル
マ ス</w>
ヘブ ンズ</w>
パー トナー</w>
ノ ー</w>
デ ス</w>
ッ ジ</w>
ゼ ロ</w>
ストラ リア</w>
ス ティ
ス クリ
ジョー スター</w>
シ ル
サ ージ</w>
ガ イド</w>
オー ストラリア</w>
オ ン
インタ ビュー</w>
ん が</w>
わ き</w>
れ んが</w>
り つい</w>
ぽ かん</w>
ぼ っち</w>
び く</w>
ひと まず</w>
ね ェ</w>
な ろう</w>
つな がっ</w>
つ ら
つ ない</w>
ち らっ</w>
ち っ
だ ち</w>
たま たま</w>
そろ え</w>
す ら
じ り</w>
さわ やか</w>
け ち</w>
き 声</w>
き く</w>
か り
う ろ
いや いや</w>
馴 染</w>
餃 子</w>
飾 り
食べ よう</w>
電 池</w>
陸 上</w>
陰 謀</w>
銘 柄</w>
酔 っ
返 送</w>
輝 き</w>
謝 る</w>
課 長</w>
誘 い</w>
詩 人</w>
解 約</w>
角 度</w>
視 点</w>
見 張り</w>
英 国</w>
花 瓶</w>
舞 う</w>
腐 敗</w>
積 み</w>
福 岡</w>
祝 日</w>
甘 や
甘 く</w>
玄 関</w>
犯 す</w>
無 知</w>
無 敵</w>
演 じる</w>
漂 っ</w>
湖 面</w>
済 ん</w>
混 ぜ</w>
油 断</w>
決 め
気 配</w>
気 性</w>
正 規</w>
楽し め</w>
果 樹</w>
本 部</w>
明 ける</w>
数 値</w>
支払 わ</w>
支 える</w>
接 触</w>
捕 ま
振り 込み</w>
挙 げる</w>
持 参</w>
持 て</w>
招 き</w>
担 任</w>
投 げる</w>
批 評</w>
意 欲</w>
想 い</w>
思い がけ</w>
往 復</w>
引き 継
引き 受ける</w>
幼 馴染</w>
平 素</w>
市 民</w>
局 面</w>
就 く</w>
導 く</w>
射 撃</w>
富 ん</w>
学 年</w>
好 意</w>
大 げさ</w>
増 やし</w>
同 封</w>
取り 扱い</w>
取り 入れ</w>
参 観</w>
剣 道</w>
分 かれ</w>
出 現</w>
光 景</w>
優 良</w>
体 重</w>
体 操</w>
丸 く</w>
不 利</w>
下 級</w>
一 連</w>
ル ート</w>
ユー モ
ヤバ い</w>
メン テ
メガ ネ</w>
メ ディア</w>
ムカ つく</w>
マッ サージ</w>
プロ セス</w>
プレ ッ
ブル ー</w>
ブ ログ</w>
ビ ニ
ヒ ル</w>
パー ティ</w>
バー ベ
バイ オ
ノ ー
ドキ ドキ</w>
ド アー</w>
ト ム</w>
デ ィ</w>
テ メー</w>
ダ ン</w>
セ ックス</w>
スマ ート</w>
ス ギ</w>
ジ ル</w>
サ ン</w>
グ リ
カ リ
イン スト
イン ク</w>
イ エ
やっ つけ</w>
もし もし</w>
も ち</w>
ぽ ち</w>
ほの か</w>
ぶ ち
ひ ら
な う</w>
ど ー</w>
ど なた</w>
つま ん</w>
そ か</w>
ずば 抜け</w>
じ ろ
ぐる ぐる</w>
くっ つい</w>
が す</w>
かかわ る</w>
おい し</w>
お ー</w>
え よ</w>
え さ</w>
う お</w>
いっ たん</w>
２ ０</w>
骨 折</w>
難 しかっ</w>
雄 大</w>
閉じ 込め</w>
郁 夫</w>
連 隊</w>
通 い</w>
追 求</w>
近づ く</w>
農 作</w>
軍 人</w>
起こ ら</w>
貸 す</w>
買い 上げ</w>
議 題</w>
誘 惑</w>
話し 合っ</w>
観 測</w>
見舞 わ</w>
自 体</w>
絶え 間</w>
絶 滅</w>
結 末</w>
結 び</w>
細 工</w>
移 転</w>
発 する</w>
痛 め</w>
疑 っ</w>
略 奪</w>
球 菌</w>
牛 肉</w>
無 実</w>
無 償</w>
消 化</w>
気付 か</w>
正 当</w>
曇 っ</w>
昇 る</w>
日 の
整 備</w>
損 傷</w>
振 込</w>
持ち 上げ</w>
押 さ
手 作り</w>
憲 法</w>
惜 しま</w>
御 飯</w>
待ち 遠
役 者</w>
当 たら</w>
引き 出し</w>
廃 棄</w>
尽 き</w>
封 筒</w>
宣 言</w>
官 僚</w>
好 む</w>
大 隊</w>
夕 焼け</w>
売り 切れ</w>
売 ら</w>
商 人</w>
味 わい</w>
各 国</w>
口 実</w>
取り 替え</w>
叔 母</w>
去 り</w>
南 京</w>
協 会</w>
包 装</w>
包 み</w>
助 け
前 世</w>
刺 し</w>
判 明</w>
初 心</w>
分 裂</w>
分 割</w>
出 血</w>
内 心</w>
免 税</w>
傲 慢</w>
備 える</w>
個 性</w>
個 別</w>
依 存</w>
作り 上げ</w>
体 力</w>
体 つき</w>
伺 っ</w>
仲 直り</w>
代 替</w>
付 属</w>
仕 組み</w>
下 品</w>
上 空</w>
一人 前</w>
リラ ックス</w>
リ ク
ライ ラ</w>
メンテ ナンス</w>
メ リ
ミュ ージ
プリ ント</w>
フ リー</w>
フ ォ</w>
ビ ーチ</w>
バーベ キュー</w>
ディ ング</w>
ッ グ</w>
チョ ウ</w>
ダイ エット</w>
タ ンク</w>
ズ ン</w>
スト ン</w>
スト ア</w>
ス クール</w>
ジェ ロ</w>
カ ット</w>
エ スト</w>
イ ライラ</w>
よ けれ</w>
よ け</w>
よ お</w>
ゅ っ</w>
や ましい</w>
め ちゃくちゃ</w>
ま た
ほ ほえ
ぶつ ぶつ</w>
ぴ ん</w>
て き
て ぇ</w>
つ ぼ</w>
だら だら</w>
た しか</w>
せ ん</w>
す べ</w>
す さま
しま え</w>
し の
し から</w>
し あ
ささ げる</w>
さ ば
ぎ っ</w>
き い</w>
か じめ</w>
え つけ</w>
いただ けれ</w>
あら かじめ</w>
o n</w>
高 等</w>
騙 さ</w>
食 ら
難 し</w>
重ん じる</w>
酔 っ</w>
造 り</w>
通り 過ぎ</w>
踏 ん</w>
走 り
走 ら</w>
貧 困</w>
負 え</w>
試 着</w>
観 客</w>
薬 品</w>
薄 く</w>
舞 い</w>
耕 作</w>
習 う</w>
繁 栄</w>
縮 小</w>
続 々</w>
空 き
療 法</w>
独 り
物 体</w>
爆 竹</w>
潜 在</w>
演 説</w>
測 量</w>
海 岸</w>
活 性</w>
津 波</w>
治 安</w>
治 る</w>
決 意</w>
欠 ける</w>
植 民</w>
書 籍</w>
晩 年</w>
日 照り</w>
文 明</w>
数 十</w>
改 正</w>
握 手</w>
掘 っ</w>
指 標</w>
指 名</w>
指 し</w>
持ち 帰り</w>
抱き しめ</w>
慣 れる</w>
待ち 伏せ</w>
形 態</w>
強 調</w>
廃 止</w>
巡 っ</w>
寛 大</w>
寄 ら</w>
宝 物</w>
定 員</w>
天 井</w>
夢 野</w>
夜 更
外 科</w>
塗 り</w>
地 べた</w>
国 語</w>
喋 れ</w>
呼び かけ</w>
味 わ
呪 い</w>
吐 き
司 令</w>
叫 ぶ</w>
叫 び</w>
受 領</w>
反 射</w>
単 に</w>
单 位</w>
努 め</w>
刺 す</w>
利 口</w>
出 会う</w>
凶 暴</w>
充 分</w>
修 繕</w>
例 外</w>
以 後</w>
仕 掛け</w>
仕 入れ</w>
事 例</w>
不可 欠</w>
不 快</w>
上 下</w>
ー ド
ン ジ</w>
ロボ ット</w>
レー ボール</w>
レ イ
リ ュ
モ テ
マン ション</w>
ポ ール</w>
ポ リ
ホ ル
ペ テン</w>
ベ テ
ベテ ラン</w>
バ レーボール</w>
バ ル
ド リ
トン ネル</w>
ツバ メ</w>
ダ ウン</w>
ダ ウン
スケ ート</w>
シー ズン</w>
シャ ー</w>
コン トロール</w>
コ ミ
クラ イ
キ シ
カウン ター</w>
カ リ</w>
カ メ</w>
カ チ</w>
ウ ソ</w>
ア ヒル</w>
ら む</w>
ゆ く</w>
む だ
み つけ</w>
ぺ ん</w>
び く
な から</w>
とど め</w>
とき どき</w>
ただ しい</w>
すご し</w>
ささ げ</w>
さ も</w>
さ び</w>
ごろ つき</w>
こ らえ</w>
こ う
け よ</w>
くど い</w>
が う</w>
かわ り</w>
かえ って</w>
お めぇ</w>
う んと</w>
い わ</w>
C T</w>
4 00</w>
2 3</w>
駆 け</w>
飼 う</w>
飛 ばさ</w>
顧 問</w>
頑張 ら</w>
頑 固</w>
響 く</w>
陰 険</w>
陥 っ</w>
陝 西</w>
閲 覧</w>
金 利</w>
選 抜</w>
運 賃</w>
運 行</w>
進 化</w>
返 り</w>
農 家</w>
謝 り</w>
試 練</w>
観 戦</w>
見 習い</w>
習 得</w>
翌 日</w>
美味 しく</w>
築 く</w>
窓 口</w>
稼 ぐ</w>
石 けん</w>
眺 める</w>
盛 大</w>
生 息</w>
猛 烈</w>
独 裁</w>
灰 色</w>
灌 漑</w>
激 励</w>
満 開</w>
湿 気</w>
清 算</w>
淋 しい</w>
気 楽</w>
死 ね</w>
歌 詞</w>
樹 木</w>
梱 包</w>
束 縛</w>
晴 れる</w>
旦 那</w>
施 し</w>
散 っ</w>
支 店</w>
搭 乗</w>
推 進</w>
排 除</w>
排 出</w>
持ち 出し</w>
投 票</w>
打 合せ</w>
手 間</w>
手 入れ</w>
手 先</w>
懸 念</w>
悪 巧み</w>
待 遇</w>
広 がる</w>
平 穏</w>
巻き 込ま</w>
崩 れ</w>
少 なから</w>
専 用</w>
寄 る</w>
実 習</w>
宝 くじ</w>
宇 治</w>
学 術</w>
女 房</w>
奪 っ</w>
天 才</w>
夕 日</w>
売り 場</w>
堅 く</w>
地 形</w>
圧 力</w>
固 く</w>
告 げる</w>
各 自</w>
召し 上がり</w>
取り 囲ん</w>
動 画</w>
劣 っ</w>
劇 場</w>
出 入り</w>
再 送</w>
優 雅</w>
偵 察</w>
何 十</w>
伸 ばす</w>
休 業</w>
付 く</w>
介 護</w>
亡く なり</w>
主 催</w>
両 側</w>
不 能</w>
不 意</w>
ヴェ スト</w>
ロ ール</w>
レ ード</w>
ユー フォ</w>
ム シ</w>
マネ ジ
プレ イ</w>
フォーマ ンス</w>
パ フォーマンス</w>
ハー ヴェスト</w>
ヌ キ</w>
ト ル
テキ スト</w>
ティ スト</w>
ダウン ロード</w>
タ クト</w>
ス ズ
シ ャ</w>
ゴ ロ
コー チ</w>
グ アム</w>
キャラ クター</w>
オ ペ
オ プション</w>
ウ ンド</w>
インスト ール</w>
イン テ
イ ヤ
アン ジェロ</w>
ア リング</w>
ん ぼ</w>
よ ー
やか ましい</w>
もて なし</w>
む さぼ
ま ん</w>
ま ばら</w>
ま け</w>
ふ う</w>
は ね</w>
の まま</w>
とり わけ</w>
て く</w>
つや つや</w>
ち そう</w>
ため 息</w>
そ こ
すさま じい</w>
さ み</w>
ご とき</w>
け ろ</w>
ぐ い</w>
くれ れ</w>
くだ ら</w>
おもし ろい</w>
あり のまま</w>
あっ さり</w>
あい まい</w>
あ ん</w>
C D</w>
20 12</w>
19 9
高 値</w>
駅 前</w>
食 器</w>
領 域</w>
領 土</w>
間に 合い</w>
鍛 える</w>
違 法</w>
運 送</w>
遊 び
遅 かっ</w>
進 学</w>
通 ら</w>
辛 く</w>
転 校</w>
足 首</w>
足 元</w>
超 過</w>
赴 任</w>
購 買</w>
許 す</w>
解 雇</w>
親 子</w>
視 察</w>
見 送り</w>
見 本</w>
落ち着 く</w>
英 文</w>
良 心</w>
背 後</w>
肥 え</w>
老 い</w>
締 める</w>
綿 花</w>
結 合</w>
純 粋</w>
系 統</w>
簡 潔</w>
立ち 去っ</w>
積 む</w>
移 っ</w>
祈 る</w>
確 立</w>
真っ 暗</w>
目 つき</w>
監 視</w>
白 色</w>
画 家</w>
球 技</w>
独 自</w>
澄 ん</w>
温 暖</w>
深 夜</w>
液 体</w>
浅 い</w>
法 廷</w>
治 す</w>
残 高</w>
歩 道</w>
止 まり</w>
来 店</w>
本 屋</w>
曲 げ</w>
暴 露</w>
暮 らし
暮らし 向き</w>
日の 出</w>
日 中</w>
旅 客</w>
新 宿</w>
整 え</w>
教 え
接 近</w>
打ち 上げ</w>
我 が
悪 辣</w>
徐 々</w>
待ち遠 しい</w>
強 大</w>
引 退</w>
工 夫</w>
屈 服</w>
居 住</w>
尽 力</w>
小 売</w>
尋 問</w>
実 感</w>
定 める</w>
婚 約</w>
奈 良</w>
大 雪</w>
夜 明け</w>
変 身</w>
壊 す</w>
回 避</w>
回 り
咲 き</w>
呼び 出し</w>
向 ける</w>
吐 く</w>
吉 田</w>
口 論</w>
反 映</w>
反 抗</w>
友 だち</w>
勝ち 取る</w>
動 向</w>
創 設</w>
初 め
分 解</w>
出 社</w>
再 開</w>
兼 ね</w>
公 表</w>
催 促</w>
偉 い</w>
信 仰</w>
何 曜</w>
会 合</w>
休 め</w>
人 力</w>
乗 客</w>
中 古</w>
下 がる</w>
一 目</w>
一 声</w>
レー シア</w>
ル ド</w>
モ ン
ミ サ</w>
マ レーシア</w>
マ クロ
ブ レ
ヒ ー
パス タ</w>
ネ ク
ニ ラ</w>
ナ シ</w>
ド ライブ</w>
タ コ</w>
セン チ</w>
ステ ージ</w>
ス プ
ス テー
シ ウム</w>
キャ ッシュ</w>
ガソ ガル</w>
カ スタ
ア ホ</w>
ア ス
よい よ</w>
よ なら</w>
め ど</w>
ぶ し</w>
ふ ら</w>
は める</w>
の け</w>
ね っ</w>
に ち</w>
な まり</w>
と ら
と なり</w>
てら っしゃい</w>
つぶ す</w>
だ んな</w>
たび たび</w>
ぜ ん
せ き
ず い</w>
すが すが
し り
し っぽ</w>
さ よなら</w>
ご い</w>
こま ごま</w>
こ ろ
く ろ</w>
く ね</w>
がんば り</w>
かな わ</w>
か ゆい</w>
おか しく</w>
う つ</w>
い よいよ</w>
あえ て</w>
a n
3 000</w>
黒 板</w>
魔 女</w>
高 らか</w>
首 都</w>
飼 い</w>
飲み 会</w>
食 料</w>
顧 み</w>
面 白</w>
青 く</w>
電 線</w>
隠 さ</w>
険 しい</w>
降 りる</w>
間 抜け</w>
録 音</w>
酒 屋</w>
遠 隔</w>
逃 亡</w>
送 れ</w>
退 社</w>
追 及</w>
迫 る</w>
踏 む</w>
足 ら</w>
足 し</w>
越 す</w>
走 れ</w>
質 素</w>
講 師</w>
誘 わ</w>
詰 める</w>
評 定</w>
詐 欺</w>
証 書</w>
規 格</w>
要 件</w>
補 充</w>
補 う</w>
裕 福</w>
薬 剤</w>
蒸 気</w>
至 っ</w>
腰 掛け</w>
職 人</w>
総 括</w>
終 始</w>
立ち こめ</w>
秘 書</w>
福 建</w>
祖 父母</w>
着 ける</w>
異 なっ</w>
留 める</w>
生い 茂っ</w>
生 み
現 われる</w>
独 占</w>
焦 っ</w>
無 理
灯 火</w>
火 山</w>
測 る</w>
混 ん</w>
消 防</w>
海 水</w>
活 発</w>
活 かし</w>
法 的</w>
殴 る</w>
殴 り
殴 ら</w>
殆 ど</w>
横 た
晴 らし</w>
晩 御飯</w>
晩 は</w>
日 にち</w>
整 頓</w>
数 百</w>
教 材</w>
提 げ</w>
推し 進める</w>
接 待</w>
折 れる</w>
所 定</w>
我が 家</w>
想 定</w>
情 景</w>
怜 子</w>
忘 れ
心 遣い</w>
徴 収</w>
強 烈</w>
弟 子</w>
度 量</w>
山 道</w>
小 道</w>
射 程</w>
宗 教</w>
安 門</w>
安 徽</w>
安 らか</w>
学 会</w>
妨 げ</w>
妥 協</w>
失 業</w>
天 然</w>
天 安門</w>
大 陸</w>
壊 さ</w>
基 地</w>
垂 れ
咲 く</w>
命 中</w>
周 辺</w>
吸 い</w>
取 ろう</w>
収 容</w>
占 領</w>
博 士</w>
動 け</w>
創 業</w>
到 達</w>
利 潤</w>
初め まして</w>
冷 え</w>
内 外</w>
入 国</w>
光 る</w>
余 分</w>
体 格</w>
体 内</w>
今 頃</w>
今 晩は</w>
人 心</w>
乗り 換え</w>
乏 しい</w>
一 段</w>
ー っ</w>
リ リース</w>
リ オ</w>
メリ ット</w>
マネジ メント</w>
マクロ ファ
マクロファ ージ</w>
マ イ</w>
ホ ン</w>
ヘ ッド</w>
プレゼ ン</w>
プ ト</w>
ブル ジョ
ブラ ック</w>
フォ ル
フ ラン
ビニ ール</w>
パイ ロット</w>
パ ネル</w>
バッ テ
ネ コ</w>
テ ナ</w>
ダ ー
タイ トル</w>
タ ヌキ</w>
スライ ド</w>
スタ ント</w>
スクリ ーン</w>
サー バー</w>
サ ル</w>
ゴ ミ
コン タクト</w>
カ ラ
アー ティスト</w>
ん こ</w>
れ れ</w>
る く</w>
め く</w>
む ち</w>
ま ば
ぼ う
べ つ</w>
ぱ き</w>
の う</w>
な ぞ</w>
ど け</w>
ど く</w>
と れる</w>
てき ぱき</w>
つか む</w>
っぴ り</w>
ちょ っ</w>
たく ましい</w>
じ き</w>
し と
さ る</w>
こ ま</w>
こ た
こ じ
こ く</w>
くね くね</w>
ぎ ゅっ</w>
き 目</w>
か ち</w>
おとな しい</w>
い らし</w>
あ ず
あ か
t e
o n
a r
A CT</w>
3 65</w>
魚 谷</w>
飼 育</w>
飛び 込ん</w>
頂 けれ</w>
静 脈</w>
集 会</w>
降 ろ
開 放</w>
長 城</w>
長 らく</w>
釣 り
重ん じ</w>
重 なる</w>
配 属</w>
遊 覧</w>
遂 行</w>
進 ま</w>
軽 やか</w>
起 床</w>
論 理</w>
詰 め
解 析</w>
親 方</w>
要 請</w>
表 す</w>
行 進</w>
蒸し 暑い</w>
落 花</w>
罰 金</w>
緩 和</w>
編 成</w>
経 つ</w>
空 き</w>
祖 先</w>
破 れ</w>
着 せ</w>
申 込</w>
生き 物</w>
生 態</w>
珍 しく</w>
滑 らか</w>
消 滅</w>
浙 江</w>
沿 い</w>
比 率</w>
欲 し</w>
様 式</w>
栄 え</w>
杭 州</w>
曲 がる</w>
昼 夜</w>
明 け
斜 面</w>
放 題</w>
改 修</w>
揺 り
提 唱</w>
接 する</w>
掛 かっ</w>
投 降</w>
払 わ</w>
手 当て</w>
手 がかり</w>
戸 籍</w>
戦 士</w>
戦 場</w>
懸 け</w>
急 激</w>
急 が</w>
心 がけ</w>
従 来</w>
強 情</w>
張 ら</w>
弱 く</w>
引き つけ</w>
広 大</w>
広 報</w>
巻き 添え</w>
左 手</w>
巡 り
属 する</w>
宝 石</w>
定 年</w>
孤 立</w>
子 孫</w>
妨 害</w>
好 奇</w>
好 か</w>
大 根</w>
多 大</w>
報 い</w>
啓 発</w>
吹 っ
取り 急ぎ</w>
取り 付ける</w>
収 支</w>
収 める</w>
反 乱</w>
及ぼ す</w>
及 ぶ</w>
単 なる</w>
包 丁</w>
別 荘</w>
出 費</w>
出 く
全 額</w>
偽 り</w>
停 電</w>
保 健</w>
作 ろう</w>
仕 事
今 ごろ</w>
乾 杯</w>
万 事</w>
一人 暮らし</w>
リク エスト</w>
ラオラオ ラオラオ
マ ッチ</w>
ポ ー
ポ スター</w>
プロ ポーズ</w>
プライ ド</w>
プラ ス
プラス チック</w>
フル エン
フルエン ザ</w>
フ ラ</w>
ビ ビ
ヒ ュ
ハン カチ</w>
トラン プ</w>
チ ラ
タ ミン</w>
セ ミ</w>
ジャ ージ</w>
ゴ ロ</w>
ゲ ット</w>
グ ー</w>
クリ ック</w>
クラスメ イト</w>
ク ロー
キ リスト</w>
カ ワイ
カ エル</w>
オ レンジ</w>
エ ス
イン フルエンザ</w>
わが 家</w>
わ な</w>
よろ しけれ</w>
や い</w>
も る</w>
む ら</w>
む か
ま し
ぶ き</w>
び しょ
ば っか</w>
はた らい</w>
の ぼ
な ま
つ くる</w>
っぱ なし</w>
っ ちゃ</w>
ちょ っぴり</w>
すら すら</w>
じ ん</w>
ざ っ</w>
こ なす</w>
く ど</w>
く す
かわい そう</w>
おい おい</w>
い と</w>
い ち</w>
麻 酔</w>
高 度</w>
騒 ぎ
飢 え</w>
風 習</w>
順 序</w>
頂 上</w>
雑 草</w>
除 去</w>
関 税</w>
間 田</w>
開 設</w>
野 生</w>
醤 油</w>
配 り</w>
過 失</w>
運 び
連 結</w>
連 休</w>
載 せる</w>
軽 減</w>
跳 び</w>
赤 沢</w>
買 おう</w>
議 長</w>
課 税</w>
誘 導</w>
誓 い</w>
見つ かり</w>
見 識</w>
見 知り</w>
蓄 え</w>
腫 瘍</w>
脂 肪</w>
肉 親</w>
聞き 取れ</w>
繰り 返す</w>
織 物</w>
編 ん</w>
総 務</w>
等 級</w>
突っ 込ん</w>
知 能</w>
目 覚め</w>
発 達</w>
産 ん</w>
理 科</w>
狙 っ</w>
熱 く</w>
炒 め</w>
濡 れ</w>
溶 接</w>
満た す</w>
湿 っ</w>
消 息</w>
浮か ぶ</w>
浮 い</w>
毛 皮</w>
歩 む</w>
武 術</w>
本 棚</w>
期 末</w>
有 害</w>
月 刊</w>
書き 上げ</w>
曲 がり
暴 風</w>
晴 れ
日 付</w>
斜 め</w>
敬 意</w>
支 障</w>
支 部</w>
擦 り
操 縦</w>
揃 っ</w>
接 し</w>
採 る</w>
捕 虜</w>
振り 返っ</w>
担 い</w>
抗 日</w>
戻 れ</w>
戻 ら</w>
愛 想</w>
惚 れ</w>
急 ぐ</w>
引っ 張る</w>
引き 立て</w>
広 瀬</w>
年 月</w>
岩 瀬</w>
山 水</w>
山 々</w>
小 野</w>
小 型</w>
寿 命</w>
家 賃</w>
学 業</w>
学 園</w>
妄 想</w>
奉 仕</w>
大 手</w>
大 口</w>
夏 川</w>
売 却</w>
塗 り
地 獄</w>
困 惑</w>
喋 り</w>
含 み</w>
向 き
同 一</w>
合 法</w>
双 子</w>
占 める</w>
刺 身</w>
制 作</w>
冷 却</w>
再 来</w>
再 三</w>
先 端</w>
償 却</w>
傾 け</w>
保 守</w>
何 者</w>
会 談</w>
代 々</w>
付き 合う</w>
乗 車</w>
中 途</w>
下 がり</w>
上 流</w>
上 っ</w>
一 帯</w>
一 口</w>
レッ ド</w>
レ ジ</w>
ル ー
ャ ン</w>
ボー イ</w>
ボ トル</w>
ホ ット</w>
ベル リン</w>
フィ ン</w>
ピ ール</w>
ピ ザ</w>
ヒー ロー</w>
バッテ リー</w>
ハンバー グ</w>
ハンバー ガー</w>
ハ ート</w>
ハ エ</w>
ネ ーム</w>
ネ ック
ネック レス</w>
ニ ン</w>
ド ー
テン ション</w>
ッ チ
チ ク
ダ スト</w>
スー パー
ジャ ズ</w>
ジ ー
シン ガ
シンガ ポール</w>
ショ ウ</w>
シェ ア</w>
シ リ
コン テスト</w>
カ キ</w>
イ スラ
アク セス</w>
ん じ</w>
わき まえ</w>
わ ー</w>
ろ ー</w>
やり 遂げ</w>
ぼろ ぼろ</w>
ほ しかっ</w>
ふさ わしい</w>
ふ と</w>
びく びく</w>
び れ</w>
ひ け
ひけ ら
に わ
と こと
とこと ん</w>
でっち 上げ</w>
て き</w>
ちま う</w>
た ろ</w>
た だし</w>
ず るい</w>
すがすが しい</w>
しゃ れ</w>
し な
し つ
こ りゃ</w>
こ ぶし</w>
け して</w>
ぐ さ</w>
くど くど</w>
く ず</w>
き み</w>
が かっ</w>
か す
うな ずい</w>
う うん</w>
いっ そ</w>
あ らし</w>
3 1</w>
１ １</w>
鳴 き声</w>
飲み 込ん</w>
飲 酒</w>
食 材</w>
風 潮</w>
関 わっ</w>
閉 める</w>
鋭 く</w>
重 荷</w>
配 布</w>
配 る</w>
選 べ</w>
迷 い</w>
赴 く</w>
買 える</w>
譲 歩</w>
読み 書き</w>
言い つけ</w>
言 及</w>
見 なす</w>
要 領</w>
要 点</w>
襲 わ</w>
装 飾</w>
表 記</w>
蒸 し</w>
草 案</w>
若 松</w>
色 彩</w>
背 負っ</w>
罪 悪</w>
繊 維</w>
締 結</w>
綿 入れ</w>
給 付</w>
納 入</w>
移 り
知り 合っ</w>
着 実</w>
目 玉</w>
盛り 上がっ</w>
盗 ん</w>
申し 出</w>
由 花</w>
生 計</w>
生 ん</w>
片 づける</w>
燃 える</w>
照 らす</w>
無理 やり</w>
炎 症</w>
満 たし</w>
湖 南</w>
浸 し</w>
沸 き
没 収</w>
水 路</w>
気 力</w>
歩 か</w>
武 力</w>
校 正</w>
東 北</w>
本 格</w>
書 面</w>
書 道</w>
時 差</w>
映 っ</w>
日 ごろ</w>
敵 対</w>
整 形</w>
数 多く</w>
教 養</w>
救 っ</w>
攻 め
拒 否</w>
成 人</w>
感 心</w>
悔 し</w>
徹 夜</w>
復 活</w>
後 方</w>
往 々</w>
工 芸</w>
山 西</w>
寂 し</w>
学 び
委 託</w>
好 き
奏 者</w>
多 様</w>
壮 大</w>
回 路</w>
四 半</w>
同 盟</w>
合 流</w>
合 唱</w>
司 会</w>
可愛 く</w>
取り 消し</w>
取 締</w>
取 扱</w>
反 し</w>
千 代</w>
勤 労</w>
効 き目</w>
割り 当て</w>
利 か</w>
別 々</w>
刈 り
切 断</w>
分 散</w>
分 別</w>
出 せる</w>
凄 く</w>
内 側</w>
入り 交
充 電</w>
傍 ら</w>
作 れる</w>
何 時
何 に</w>
人 情</w>
乗り 越え</w>
乗 ら</w>
世 論</w>
万 一</w>
一 心</w>
ロー ガン</w>
レー ター</w>
リ ウ
ライ バル</w>
ライ センス</w>
メ イン</w>
ミ カン</w>
マ ジ
ポジ ション</w>
ポ ル
ボ イス</w>
ホ スト</w>
ペー パー</w>
ブルジョ ア</w>
ファ ックス</w>
フ ライ
バス ケ</w>
バイ ツ</w>
バ ター</w>
ハ ンド</w>
ノル マ</w>
ネク タイ</w>
ドイ ッチ</w>
トラン ク</w>
テ イ
ダイ ビング</w>
タ スク</w>
ス ローガン</w>
シャ ン
サン ドイッチ</w>
サ ム</w>
ゴロ ゴロ</w>
グロー バル</w>
グリ ーン</w>
ギ ュ
キロ メートル</w>
エ ッチ</w>
エ ク
ウェ イ</w>
イ イ</w>
ア ピール</w>
よ れ</w>
よ こし</w>
ゆ る
ゆ え</w>
や み
や さ
や けど</w>
や がる</w>
も め
ふ れ</w>
ひっ そり</w>
ば り</w>
な き</w>
て ー</w>
つま み</w>
つな がり</w>
つき あっ</w>
つ り</w>
っ から</w>
ちょ いと</w>
ち なみ</w>
だ て</w>
た ん
た き</w>
す てき</w>
し たがっ</w>
し い
け り</w>
け ない</w>
け っ
ぐ り</w>
かな う</w>
お し
う っ</w>
いつ 頃</w>
い よう</w>
あ たっ</w>
あ ざ
in g</w>
２ 人</w>
１ 日</w>
高 かっ</w>
騒 が
駆 除</w>
預 かり</w>
預 かっ</w>
響 い</w>
音 声</w>
露 出</w>
離 し</w>
障 り</w>
防 水</w>
閉 店</w>
金 賞</w>
野 外</w>
道 中</w>
運 ば</w>
通 じる</w>
農 場</w>
辞 める</w>
費 やし</w>
貯 金</w>
貨 幣</w>
譲 る</w>
講 座</w>
諸 国</w>
請 う</w>
誇 張</w>
設 ける</w>
計 略</w>
観 衆</w>
観 念</w>
見つ かる</w>
見 直す</w>
見 当</w>
見 分け</w>
見 なし</w>
補 償</w>
被 告</w>
表 門</w>
行 使</w>
蜂 起</w>
著 者</w>
落ち ぶれ</w>
落 下</w>
航 路</w>
脅 迫</w>
耐 える</w>
繰り 広げ</w>
繋 がっ</w>
繁 殖</w>
線 香</w>
緑 色</w>
級 友</w>
精 通</w>
精 力</w>
立ち 入り</w>
移 植</w>
禁 じ</w>
神 戸</w>
磨 い</w>
短 縮</w>
相 続</w>
百 貨</w>
現 役</w>
現 れる</w>
独 身</w>
炊 事</w>
満た さ</w>
渡 さ</w>
渋 谷</w>
消 える</w>
洗 わ</w>
河 北</w>
決 まる</w>
求 人</w>
水 力</w>
歳 月</w>
歩 け</w>
欲 しく</w>
横 断</w>
校 舎</w>
果た して</w>
来 日</w>
本 音</w>
曲がり くね
曲がりくね っ</w>
日 頃</w>
施 す</w>
敷 い</w>
散 らす</w>
放 せ</w>
握 り
接 客</w>
捨 て
振 る</w>
挑 発</w>
指 図</w>
拾 い</w>
拝 見</w>
披 露</w>
投 じ</w>
手 洗い</w>
憂 い</w>
感 慨</w>
悪 意</w>
患 っ</w>
怪 しい</w>
心地 よい</w>
従 わ</w>
役 員</w>
形 容</w>
形 勢</w>
引っ 張り</w>
弁 解</w>
建 てる</w>
延 ばし</w>
広 州</w>
幻 想</w>
履 行</w>
居 眠り</w>
就 任</w>
将 軍</w>
将 棋</w>
寸 法</w>
富 む</w>
宿 舎</w>
好 評</w>
奪 う</w>
太 い</w>
大 急ぎ</w>
大 工</w>
外 貨</w>
夏 紀</w>
堅 い</w>
圧 倒</w>
国 籍</w>
商 標</w>
呼 べ</w>
味 わっ</w>
吹 か</w>
叫 び
叫び 声</w>
受け 継
南 方</w>
包 ま</w>
刺 繡</w>
制 定</w>
刑 務</w>
刈 り</w>
分 布</w>
出 世</w>
出 そう</w>
再 発</w>
公 社</w>
全 般</w>
元 手</w>
偽 物</w>
側 面</w>
修 行</w>
便 り</w>
作り 出す</w>
作 曲</w>
何 百</w>
体 裁</w>
仮 説</w>
京 劇</w>
予 感</w>
主 力</w>
中 継</w>
並 び</w>
上 演</w>
三 神</w>
一人 ぼっち</w>
一 旦</w>
レッ テル</w>
リン パ</w>
ラ ル</w>
ボ ルト</w>
ペ ース</w>
ヘ ン</w>
ファ ミ
ピ ン
ビ タミン</w>
パ トロール</w>
ナン バー</w>
トリ ック</w>
ト リー</w>
チェ ーン</w>
ズ ル</w>
ス テーション</w>
ジャ ケット</w>
ジャ ガイ
ジャガイ モ</w>
シル バー</w>
シュ ート</w>
サン タ</w>
コンピュ ータ</w>
コ ロ
ゲ ー</w>
ク モ</w>
キ ツ
オー ダー</w>
エ イ
アク ション</w>
わ たり</w>
ら える</w>
や めよう</w>
や さ</w>
や け</w>
め き</w>
み せる</w>
ほっ たら
ほう っ</w>
ほ しい
ほしい まま</w>
ぶちま け</w>
ふ ら
ふ さい</w>
び ん</w>
ひ ざ</w>
は さみ</w>
の ろ
の め
なく っ</w>
で なし</w>
て れ</w>
つる つる</w>
っしゃ っ</w>
っ こり</w>
ち がい</w>
た ー</w>
た まり</w>
せ れ</w>
じゃ っ</w>
こぼ し</w>
こ し
く さ</w>
き っちり</w>
かん しゃく</w>
おろ そか</w>
あ や
あ お
あ う</w>
o l
2 8</w>
高 額</w>
難 関</w>
集 計</w>
際 し</w>
除 い</w>
長 生き</w>
重 量</w>
重 な
酔っ 払っ</w>
遵 守</w>
通 貨</w>
通 用</w>
通 学</w>
通 報</w>
送 別</w>
追い 詰め</w>
迫 力</w>
軌 道</w>
買い 手</w>
買い 付け</w>
象 徴</w>
警 報</w>
謝 ら</w>
語 句</w>
試 み</w>
解 散</w>
解 く</w>
親 密</w>
規 約</w>
薦 め</w>
色 んな</w>
航 行</w>
育 児</w>
繰り 広げる</w>
総 理</w>
絶 望</w>
結 ば</w>
紳 士</w>
素晴 らしかっ</w>
紛 争</w>
紅 軍</w>
答 案</w>
突 撃</w>
空 白</w>
空 け</w>
積 もっ</w>
移 民</w>
祝 賀</w>
磨 く</w>
盆 休み</w>
発 想</w>
異 なり</w>
由 来</w>
甚 だ</w>
物 音</w>
爆 撃</w>
熱 烈</w>
熱 帯</w>
照 れ</w>
煙 草</w>
満 喫</w>
混 雑</w>
消 火</w>
消 え
派 閥</w>
洗 面</w>
法 令</w>
沙 汰</w>
汽 船</w>
江 蘇</w>
水 利</w>
死 後</w>
横 暴</w>
権 威</w>
構 想</w>
極 力</w>
有 機</w>
旅 館</w>
敵 機</w>
整 える</w>
数 える</w>
敗 北</w>
救 い</w>
撃 っ</w>
損 なう</w>
掲 げ</w>
捕ま える</w>
捕 まっ</w>
振 動</w>
拷 問</w>
抽 出</w>
抗 議</w>
抗 原</w>
扱 わ</w>
成 し
情 け</w>
悲 しん</w>
悪 習</w>
徒 歩</w>
後ろ 盾</w>
当 面</w>
弾 丸</w>
強 度</w>
強 固</w>
弱 っ</w>
平 日</w>
帰 り
差し 迫っ</w>
山 間</w>
山 脈</w>
山 河</w>
小 便</w>
対 戦</w>
対 外</w>
寒 かっ</w>
寄 生</w>
寄 せ
実 情</w>
字 句</w>
好 ま</w>
奪 わ</w>
天 国</w>
天 びん</w>
大 気</w>
外 食</w>
国 防</w>
回 さ</w>
器 量</w>
味 噌</w>
吸 わ</w>
吐き 気</w>
名 詞</w>
名 所</w>
叶 え</w>
口 出し</w>
口 先</w>
受 賞</w>
取り 戻す</w>
反 駁</w>
厄 介</w>
半 ば</w>
包 ん</w>
動 員</w>
功 労</w>
利 息</w>
刊 行</w>
分 け
出 力</w>
冷 凍</w>
入 試</w>
免 れ</w>
優 劣</w>
個 々</w>
体 系</w>
住 まい</w>
伸 び
伝 達</w>
伝 説</w>
伝 言</w>
伝 染</w>
人 影</w>
中 庭</w>
並 べる</w>
両 足</w>
不 備</w>
一 刻</w>
レ シ
リッ トル</w>
リ ア
ヤ ン
メ ロ
ミ ックス</w>
ボ ックス</w>
ベ ー
プレッ シャー</w>
プ リ</w>
ブ リ
フォ ロー</w>
ピ ク
バー ジョン</w>
バイオ リン</w>
ナ ツ
ット ワーク</w>
ッ ケ
チャ レンジ</w>
セ クシー</w>
スト ー
スト ック</w>
サー クル</w>
サ リー</w>
ゴ ール
グ マ</w>
キャ ッチ</w>
ガ ン
カワイ イ</w>
カル シウム</w>
オ オ
エン ジ
イ ブ</w>
イ ナ
イ カ</w>
り 合う</w>
よ しあ
よしあ し</w>
やり 直し</w>
やが や</w>
もら わ</w>
もめ ごと</w>
む やみ</w>
み そ</w>
へ え</w>
ぶ る
ふる い</w>
ふ い</w>
び き</w>
ひ び</w>
はじ めて</w>
は まっ</w>
は っ</w>
ぬ か
とっ と
とっと と</w>
つけ ろ</w>
つ けよう</w>
だ ろー</w>
ため らっ</w>
たた える</w>
しゃべ れ</w>
し つけ</w>
ご う</w>
この ごろ</w>
こ なし</w>
ぐる み</w>
く み
く ぼ
き ゅう
が やがや</w>
が い
かわ い</w>
からか う</w>
かま ど</w>
か ー</w>
か ね
か っと</w>
か せる</w>
おい ら</w>
お っしゃる</w>
お さ
い さ
h i
3 5</w>
2 7</w>
黄 色
麻 痺</w>
高 まる</w>
騒 音</w>
馳 走</w>
養 分</w>
願 い
頻 度</w>
震 える</w>
離 れ
雇 っ</w>
降 下</w>
閉 まっ</w>
配 当</w>
運 搬</w>
車 輪</w>
身 近</w>
足 音</w>
贅 沢</w>
賞 味</w>
貸し 出し</w>
谷 間</w>
谷 川</w>
譲 っ</w>
話 そう</w>
詰 まる</w>
討 議</w>
解 い</w>
親 類</w>
視 力</w>
見 守っ</w>
襲 っ</w>
補 給</w>
補 修</w>
衰 え</w>
表 明</w>
薬 物</w>
著 名</w>
落 胆</w>
至 る
至る ところ</w>
能 率</w>
育 ち</w>
聞き 入れ</w>
組み 合わせ</w>
素 質</w>
納 め</w>
精 密</w>
空 想</w>
積み 上げ</w>
移 す</w>
硬 い</w>
破 棄</w>
相 違</w>
直 さ</w>
異 郷</w>
田 んぼ</w>
用 途</w>
用 件</w>
片 方</w>
無 限</w>
濃 く</w>
澄 み</w>
滑 り</w>
湿 度</w>
湖 北</w>
減 らし</w>
消 さ</w>
海 辺</w>
流 動</w>
活 力</w>
治 り</w>
汚 し</w>
気付 く</w>
気 遣い</w>
気 概</w>
止 まる</w>
概 要</w>
染 み</w>
果 実</w>
本 能</w>
本 心</w>
本 件</w>
有 無</w>
有 力</w>
暫 く</w>
暗 やみ</w>
時 機</w>
昇 っ</w>
施 工</w>
敷 く</w>
救 わ</w>
敏 感</w>
故 意</w>
政 党</w>
放 す</w>
撃 つ</w>
握 る</w>
揃 え</w>
掘 り</w>
担 っ</w>
手 袋</w>
手 前</w>
戦 術</w>
愚 痴</w>
悔 い</w>
思い っきり</w>
応 用</w>
微 笑
微 妙</w>
征 服</w>
役 目</w>
当 選</w>
当 事</w>
強 み</w>
引き ずっ</w>
広 範</w>
帯 び</w>
居 酒屋</w>
局 長</w>
小 銭</w>
小 舟</w>
対 面</w>
審 判</w>
察 し</w>
守 備</w>
存 知</w>
娯 楽</w>
威 風</w>
太 平</w>
天 地</w>
大 金</w>
大 目</w>
夜更 かし</w>
地 理</w>
固 め</w>
品 性</w>
取 材</w>
厳 粛</w>
単 身</w>
南 北</w>
半 日</w>
区 域</w>
勧 める</w>
動 機</w>
加 わっ</w>
副 業</w>
利 害</w>
別 れる</w>
初 日</w>
分 隊</w>
出 願</w>
出 口</w>
冷 やし</w>
再 現</w>
先 物</w>
優 遇</w>
優 美</w>
債 権</w>
停 車</w>
値 下げ</w>
倒 産</w>
修 復</w>
何時 頃</w>
伸 びる</w>
任 せる</w>
仲 た
仲た がい</w>
他 国</w>
亡く し</w>
乱 暴</w>
主 観</w>
主 役</w>
世 辞</w>
不 平</w>
下 痢</w>
上 等</w>
万 が
万が 一</w>
一 環</w>
一 団</w>
一 員</w>
ー フ</w>
ロ ーン</w>
ロ バ</w>
ラ ベル</w>
ラ ブ</w>
マ スコ
ポ テ
ボ ストン</w>
ホーム ステ
ホームステ イ</w>
ベ ット</w>
プロ ーチ</w>
プ ー</w>
プ リン</w>
プ ラス</w>
フラ イ</w>
ピ ース</w>
ヒ ロ
パ ニー</w>
バレ エ</w>
ネ ットワーク</w>
ニ スト</w>
ナッ ツ</w>
ツ リー</w>
ッ キ</w>
チャ ット</w>
チ キン</w>
タ カ</w>
セー ルス</w>
スト ライ
スト ラ</w>
スタ ジ
ス キャ
サ イ</w>
ゴ ー
コー ダー</w>
コ ック</w>
グ レート</w>
カー ブ</w>
カン パニー</w>
カ 月</w>
カ ス</w>
カ イ</w>
オー ト
オ イル</w>
イラ スト</w>
アク セ
ア プローチ</w>
ア シ
り 出し</w>
よー し</w>
ま ん
ふ ん
ぴ どく</w>
は まる</w>
ののし っ</w>
に ゃ</w>
と ん</w>
で ん</w>
つか め</w>
っ しょ
たば た</w>
たた き
たく らん</w>
た た</w>
ぞ っと</w>
そろ い</w>
そび え
そ りゃあ</w>
すげ ー</w>
す れ
す く</w>
し ん
ざ こ
ざこ ざ</w>
ご た
こぼ れ</w>
こっ ぴどく</w>
こだ わり</w>
こだ わら</w>
こ み</w>
こ たえ</w>
げ ん</w>
ぐ ら
くわ え</w>
くら くら</w>
き り
き び</w>
き さま</w>
か み</w>
か けよう</w>
おび ただしい</w>
うら やましい</w>
いつ ごろ</w>
いき さつ</w>
い ざこざ</w>
n g
19 8
黒 々</w>
鹿 児
鹿児 島</w>
骨 髄</w>
養 成</w>
飲 料</w>
顔 立ち</w>
預 ける</w>
青 空</w>
青 少年</w>
電 球</w>
電 流</w>
電 圧</w>
闘 う</w>
関 節</w>
鉄 砲</w>
重 ねる</w>
遠 方</w>
運 勢</w>
通 路</w>
逃 れる</w>
追い つか</w>
追 う</w>
込 める</w>
軟 ら
跳 び
赤 点</w>
贈 る</w>
貴 様</w>
調 停</w>
誘 う</w>
詰 まり</w>
訪 ねる</w>
討 ち</w>
言 論</w>
解 答</w>
覆 わ</w>
要 約</w>
落ち着 け</w>
苦 い</w>
花 束</w>
芝 生</w>
良 好</w>
舞 っ</w>
自 立</w>
背 丈</w>
肥 満</w>
肝 臓</w>
美 しかっ</w>
終 日</w>
素 早い</w>
紛 失</w>
紙 幣</w>
粘 り
筋 道</w>
競 合</w>
窃 盗</w>
空 条</w>
稼 い</w>
種 々</w>
福 祉</w>
知り 合え</w>
瞬 く</w>
着 陸</w>
目 方</w>
白 菜</w>
癒 し</w>
痛 かっ</w>
疾 患</w>
用 語</w>
生 む</w>
特 集</w>
物 品</w>
熱 意</w>
滅 ぼ
溢 れ</w>
満ち あふれ</w>
清 らか</w>
海 上</w>
洗 剤</w>
注 ぐ</w>
気 立て</w>
気 球</w>
残 忍</w>
歩 み</w>
標 識</w>
極 端</w>
柔 軟</w>
材 質</w>
本 文</w>
未 熟</w>
書 店</w>
日 差し</w>
放 置</w>
撮 ら</w>
撤 退</w>
損 益</w>
掲 示</w>
接 種</w>
探 り</w>
指 す</w>
戦 線</w>
成 す</w>
悲 しむ</w>
応 じる</w>
心 根</w>
心 待ち</w>
往 来</w>
弱 み</w>
引き 継ぎ</w>
引き 止め</w>
幼 児</w>
年 老い</w>
幅 広い</w>
師 団</w>
差 額</w>
工 学</w>
届 け
学 位</w>
子 猫</w>
失 い</w>
天 使</w>
大き かっ</w>
大 騒ぎ</w>
大 笑い</w>
大 砲</w>
大 抵</w>
夜 勤</w>
外 観</w>
外 側</w>
声 明</w>
壊 滅</w>
増 殖</w>
地 味</w>
国 慶</w>
国 土</w>
団 子</w>
回 ら</w>
善 人</w>
周 到</w>
向かい 合っ</w>
名 義</w>
合 図</w>
取り 扱っ</w>
取り 寄せ</w>
厳 密</w>
原 始</w>
印 鑑</w>
占 い</w>
化 石</w>
包 み
勘 弁</w>
助 かる</w>
創 立</w>
割 る</w>
前 半</w>
刑 事</w>
切 れ
内 情</w>
入り交 じっ</w>
入 札</w>
光 線</w>
先 程</w>
偏 見</w>
借 り
保 持</w>
保 安</w>
侵 害</w>
例 え</w>
余 る</w>
何 千</w>
住 居</w>
伯 父</w>
会 得</w>
人 目</w>
乱 れる</w>
九 州</w>
乙 女</w>
乗り 越える</w>
久 しく</w>
主 婦</w>
並 ぶ</w>
両 者</w>
両 岸</w>
一 歩</w>
一 族</w>
一 手</w>
一 息</w>
ー ニング</w>
ワク チン</w>
レン タル</w>
リ ャン</w>
リ ボン</w>
リ アン</w>
ライ オン</w>
ラ ク
ョ ー
ユーモ ア</w>
モ チベ
モチベ ーション</w>
メー ター</w>
ベ ート</w>
プ ター</w>
ブ ー
フロ ント</w>
フレ ンド</w>
フィ ード
ファ ンド</w>
ピ ー
ピ ッ
ビ ン</w>
ヒロ イン</w>
パン ク</w>
バ テ</w>
ハ ス</w>
ネ シア</w>
ドライ バー</w>
ドラ ム</w>
デ ー
デ ジ
ッ ター</w>
チャ イ
チェ ンジ</w>
チ ナ</w>
チ ップ</w>
チ カ</w>
ダ ブル</w>
ター ゲット</w>
セ ラ
セ フ</w>
ステー キ</w>
スズ メ</w>
ス ク
ジョ セフ</w>
ジャ ン</w>
シ ール</w>
シ ック</w>
コー リャン</w>
コ レ
ガ ー
オ ロ
イン ド
イ チ
アッ プ
アイ ロン</w>
ア ント</w>
わ しく</w>
らら らら
らららら ら
ららららら ら</w>
ら っぱ</w>
よう なら</w>
ゆ ー</w>
ゆ とり</w>
ゆ ったり</w>
やり 手</w>
む け</w>
ま とっ</w>
べ っか</w>
ぷ ん</w>
ふ くろ</w>
ひと となり</w>
の っ</w>
ぬ れ
なか ろう</w>
な らし</w>
な で</w>
とも かく</w>
と めど</w>
っ つ</w>
だら し
ぞ ー</w>
ず ーっと</w>
し ぼ
し で
さ ようなら</w>
ごま かす</w>
ごた ご
ごたご た</w>
くつ ろ
か も</w>
か ま</w>
か さ
お べっか</w>
お ふくろ</w>
お っと</w>
う ず
いら っしゃる</w>
あり ふれ</w>
あふ れ
e r
e n
8 00</w>
１ ２</w>
高 まっ</w>
飾 る</w>
食べ れ</w>
飛 び</w>
離 せ</w>
隠 し
関 与</w>
間 接</w>
野 良
重 なっ</w>
邪 気</w>
遮 る</w>
遭 わ</w>
連 日</w>
途 切れ</w>
途 上</w>
逆 らう</w>
迫 害</w>
辞 退</w>
軽 率</w>
足 跡</w>
賭 け</w>
賠 償</w>
負 債</w>
語 彙</w>
認 知</w>
許 容</w>
計 測</w>
規 範</w>
要 する</w>
荷 馬</w>
苦 痛</w>
苦 情</w>
良 けれ</w>
腎 臓</w>
脅 威</w>
老 い
義 理</w>
絞 っ</w>
組 む</w>
素 朴</w>
築 い</w>
筆 跡</w>
称 号</w>
秘 め</w>
祝 っ</w>
磁 器</w>
盲 目</w>
目 立つ</w>
白 髪</w>
療 養</w>
申し 分</w>
用 紙</w>
生 死</w>
甘や かし</w>
率 い</w>
漢 方</w>
滑 っ</w>
滅 亡</w>
温 かく</w>
消 耗</w>
消 極</w>
流 出</w>
泳 げ</w>
決 勝</w>
水 位</w>
気づ く</w>
殺 害</w>
歯 科</w>
欠 く</w>
本 題</w>
木 陰</w>
朝 鮮</w>
服 従</w>
有 給</w>
有 する</w>
更 生</w>
晴 らす</w>
新 興</w>
新 婚</w>
断 っ</w>
整 然</w>
敬 慕</w>
救 援</w>
放 さ</w>
改 訂</w>
支 度</w>
操 業</w>
押さ える</w>
押 さ</w>
抜 かし</w>
手 直し</w>
手 帳</w>
所 在</w>
憎 しみ</w>
悪 者</w>
恐ろ しく</w>
恐 竜</w>
恋 しい</w>
怯 え</w>
思 考</w>
応 急</w>
必 然</w>
式 典</w>
年 下</w>
平 坦</w>
平 凡</w>
帳 面</w>
巡 回</w>
崩 壊</w>
崩 し</w>
屋 台</w>
屋 上</w>
就 き</w>
対 照</w>
寝 室</w>
寝 れ</w>
家 計</w>
実 質</w>
実 用</w>
実 物</w>
守 れ</w>
学 歴</w>
好 調</w>
好 ん</w>
奥 深い</w>
夫 人</w>
太 り</w>
大 豆</w>
大 戦</w>
大 分</w>
夜 ご飯</w>
外 務</w>
外 れる</w>
夏 祭り</w>
変 態</w>
売り 手</w>
塗 装</w>
圧 迫</w>
喝 采</w>
喜 ば
呼 応</w>
君 主</w>
向 く</w>
司 法</w>
可 哀
古 典</w>
受 注</w>
取り 上げ</w>
参 入</w>
去 ら</w>
加 算</w>
制 約</w>
判 定</w>
分 離</w>
凍 え</w>
冒 険</w>
公 民</w>
入れ よう</w>
入 会</w>
先 人</w>
健 全</w>
倒 す</w>
保 有</w>
保 全</w>
保 っ</w>
住 み
伝 票</w>
仙 台</w>
今 更</w>
交 わし</w>
予 習</w>
乱 す</w>
乗り 物</w>
主 題</w>
中 旬</w>
中 年</w>
上 がれ</w>
万 里</w>
一 流</w>
ワ ワ</w>
レ タ
レ コーダー</w>
ル ー</w>
ラ ッキー</w>
ラ イ</w>
ユ ダ
ユダ ヤ</w>
ミ ン
ミ リ</w>
ミ ツバ
ミツバ チ</w>
マル クス</w>
ポテ ト</w>
ボ イ
ブラ シ</w>
ファミ リー</w>
ファ ー
ファ ン
ファ イト</w>
ピク ニック</w>
ビ リ</w>
ヒ スタ
ヒスタ ミン</w>
パン ケーキ</w>
パ ール</w>
パ ターン</w>
ハ ウス</w>
ネ イ
ニ ク</w>
ナツ メ</w>
デ リ
デ ビュー</w>
ック リ</w>
ッ キリ</w>
チャン ピ
チャ ン</w>
チベ ット</w>
チ ワワ</w>
セ レ
セ キュ
ス モ
ス コ</w>
シン グル</w>
シリ ーズ</w>
ゴ ー</w>
コー ナー</w>
コン クリ
コンクリ ート</w>
コ レ</w>
コ イ
ゲー セン</w>
グラ ンド</w>
キュ ー
オン ドル</w>
アクセ サリー</w>
ア リ</w>
ア イ</w>
ん た</w>
れ ん</w>
らら ら</w>
ら み</w>
や せ
や あ</w>
め き
む つま
む しゃ
み な
み す
まさ しく</w>
ま め</w>
ほったら かし</w>
ほ しく</w>
ひら ひら</w>
ひ く</w>
はず し</w>
は め</w>
ぬか る
な ら
つ ま</w>
っぽ け</w>
った け</w>
っ たい</w>
ち っぽけ</w>
ち っ</w>
たた き</w>
たた え</w>
そろ ばん</w>
せん 滅</w>
せっ かち</w>
せ めて</w>
す ぐれ</w>
じ じい</w>
さ い
こそ こそ</w>
こ け</w>
けっ こう</w>
ぐる っ</w>
くださ れ</w>
くださ り</w>
き っぱり</w>
おい しく</w>
お っしゃっ</w>
うわ べ</w>
うっ とり</w>
うか がっ</w>
ありが たく</w>
あり ゃ</w>
あた かも</w>
あ け</w>
t i
１ ００</w>
麗 しい</w>
高 熱</w>
高 々</w>
香 織</w>
飛 躍</w>
類 似</w>
題 材</w>
頑 丈</w>
面 会</w>
離 陸</w>
除 く</w>
録 画</w>
重な り合っ</w>
重 複</w>
酔 っぱ
遠 大</w>
遠 回し</w>
達 者</w>
過ぎ 去っ</w>
連 邦</w>
途 端</w>
迷 う</w>
返 せ</w>
近 づけ</w>
転 載</w>
貰 い</w>
負 荷</w>
負 かす</w>
負 い</w>
調 味</w>
課 程</w>
読み 物</w>
説 教</w>
誤 差</w>
認 証</w>
記 述</w>
言 えよ</w>
見 覚え</w>
見 聞</w>
覆 い
装 い</w>
表 紙</w>
行き 届い</w>
虐 待</w>
荒 い</w>
草 花</w>
花 見</w>
花 嫁</w>
良 し</w>
航 海</w>
自 白</w>
臆 病</w>
聴 覚</w>
缶 詰</w>
縁 談</w>
緩 める</w>
総 額</w>
給 食</w>
経 路</w>
細 心</w>
粉 々</w>
算 出</w>
等 しい</w>
窮 屈</w>
稼 ぎ</w>
硬 く</w>
石 灰</w>
短 所</w>
真っ 青</w>
疑 う</w>
畜 生</w>
理 事</w>
独 断</w>
独 創</w>
牧 場</w>
無 邪気</w>
無 用</w>
無 く</w>
滑 り
混 合</w>
消 毒</w>
浸 透</w>
海 面</w>
決 議</w>
水 素</w>
水 害</w>
段 落</w>
段 々</w>
残 ら</w>
歩 き
横 領</w>
柔 らか</w>
染 まっ</w>
朝 ごはん</w>
望 ましい</w>
有 能</w>
最 小</w>
書 留</w>
暗 黒</w>
暗 記</w>
景 観</w>
昼 休み</w>
昼 ごはん</w>
明け 方</w>
敷 地</w>
散 り</w>
散 らし</w>
揺れ 動く</w>
揺れ 動い</w>
推 定</w>
探 査</w>
振 ら</w>
挟 ん</w>
挟 む</w>
持ち 込み</w>
持ち 出す</w>
持ち 主</w>
持 てる</w>
拡 張</w>
手 柄</w>
手 口</w>
戸 惑
戦 車</w>
成り 行き</w>
成 田</w>
悔 しかっ</w>
恵 み</w>
恥 じ</w>
思い 出さ</w>
微笑 ん</w>
当 番</w>
引っ 越す</w>
引き 裂
引き 分け</w>
度 胸</w>
平 行</w>
屋 外</w>
就 業</w>
小 隊</w>
封 鎖</w>
寒 風</w>
密 接</w>
容 量</w>
嫌 悪</w>
好 酸</w>
好 感</w>
大 小</w>
多 額</w>
夏 バテ</w>
喋 っ</w>
善 良</w>
哀 悼</w>
哀 れ</w>
告 発</w>
同 期</w>
合 成</w>
合 コン</w>
各 級</w>
叶 える</w>
取り 締
厳 か</w>
原 発</w>
原 本</w>
割 合</w>
刺 さっ</w>
出し 物</w>
出 任せ</w>
凝 っ</w>
冷 酷</w>
再 編</w>
公 然</w>
全 う</w>
光 り</w>
光 り
働 け</w>
保 留</w>
使 命</w>
似 合い</w>
伴 い</w>
会 見</w>
任 意</w>
代 行</w>
付き添 っ</w>
交 配</w>
交 え</w>
久 々</w>
下 心</w>
下 ら</w>
下 さっ</w>
上 回っ</w>
三 角</w>
一 括</w>
ワ ン
レー ザー</w>
レンタ イン</w>
レ ラ</w>
リー フ</w>
リ ハ
ラン ニング</w>
ライ ス</w>
ラ ム</w>
メ イド</w>
ミュージ カル</w>
ミ ツ
ボ ン
ベ ビー</w>
ヘ リ
プロ フィ
ブル クロス</w>
ブラ ジル</w>
ブ ーム</w>
ブ ラン
ブ チ</w>
フル ーツ</w>
フラ ッシュ</w>
フィード バック</w>
バ レンタイン</w>
トー チカ</w>
デジ タル</w>
デ レラ</w>
テー ブルクロス</w>
ツ ール</w>
ツ ケース</w>
ゾ ウ</w>
ソ ウル</w>
スー ツケース</w>
スコ ア</w>
ジェ ット</w>
ジ ュ</w>
シン デレラ</w>
シ ルク</w>
サボ っ</w>
コンサ ル
ケ メン</w>
クレ ーム</w>
ク ラ</w>
キ ッ
カスタ マー</w>
カ ニ</w>
オリ ジ
オ ル
イナ ゴ</w>
イスラ ム</w>
イ ケメン</w>
ア リ
ん ぷん</w>
ろく でなし</w>
ろ うそ
ろうそ く</w>
やり とり</w>
や がれ</w>
め い
ま くり</w>
ぽ つ
ふ く</w>
び んた</w>
ひそ ひ
ひそひ そ</w>
ひき だし</w>
ひ んやり</w>
ひ ざ
ば たばた</w>
は し
の こ
のこ ぎり</w>
ぬれ ぎ
ぬれぎ ぬ</w>
に こ
と が
つな ぐ</w>
つな ぎ
った れ</w>
っ とり</w>
っ ちゃん</w>
たく らむ</w>
そよ 風</w>
そ う
し める</w>
さら なる</w>
こそ 泥</w>
け っ</w>
く たば
き ょ</w>
かわ ら</w>
かし こ
か たち</w>
お ど
え つける</w>
う ぬ
いじ める</w>
ありが と</w>
あり ったけ</w>
あた ふた</w>
あ わせ</w>
あ ぶ
あ そ
々 々</w>
p ;</w>
m p;</w>
i g
I O</w>
D IO</w>
1 50</w>
&a mp;</w>
高 尚</w>
骨 董</w>
騒 が</w>
馬 車</w>
風 見</w>
風 俗</w>
顕 微</w>
頼 み
雷 雨</w>
難 題</w>
陽 気</w>
間 柄</w>
開 墾</w>
長 野</w>
鈴 美</w>
針 金</w>
野 心</w>
釈 放</w>
配 信</w>
選 び
遭 遇</w>
遠 ざ
運 輸</w>
遊 ば</w>
進 路</w>
進 出</w>
連 携</w>
逃げ 出し</w>
追 放</w>
近づ か</w>
近 況</w>
込 み
軽 べつ</w>
軽 々しく</w>
起 動</w>
贈 っ</w>
賛 同</w>
資 材</w>
貴 恵</w>
貯 水</w>
識 別</w>
講 じ</w>
諦 める</w>
誓 っ</w>
記 号</w>
計 り
触 る</w>
触 ら</w>
見逃 し</w>
覆 う</w>
褒 める</w>
補 習</w>
蘇 州</w>
落と し
落 伍</w>
華 僑</w>
荒 れ
自 主</w>
膨 れ
腹 痛</w>
脱 穀</w>
老い ぼれ</w>
繰り 上げ</w>
繊 細</w>
緩 ん</w>
統 治</w>
素 人</w>
立ち 寄っ</w>
突き 進む</w>
空 腹</w>
種 子</w>
種 まき</w>
移 し</w>
福 利</w>
破 裂</w>
知 的</w>
眼 前</w>
相 対</w>
直 前</w>
目 覚まし</w>
皮 肉</w>
百 姓</w>
登 校</w>
発 症</w>
異 性</w>
由 貴恵</w>
生 存</w>
生 かし</w>
独 り</w>
狂 う</w>
物 静か</w>
物 件</w>
熱 狂</w>
焼 酎</w>
焼 肉</w>
無 人</w>
潜 ん</w>
潔 白</w>
滑 る</w>
湖 水</w>
消 し
浴 びる</w>
浮か べる</w>
流 浪</w>
洒 落</w>
治 ら</w>
河 原</w>
水 稲</w>
気 迫</w>
歩 行</w>
歩 み
正 午</w>
欠 かせ</w>
機 種</w>
模 型</w>
標 本</w>
構 っ</w>
楽し める</w>
業 者</w>
柔 道</w>
来 賓</w>
来 客</w>
来 場</w>
札 幌</w>
末 期</w>
未 満</w>
明 白</w>
旺 盛</w>
既 存</w>
旅 費</w>
断 ち
散 る</w>
放 棄</w>
操 る</w>
揺 れる</w>
推し 進め</w>
推 奨</w>
授 与</w>
振る 舞い</w>
振り 回し</w>
振り 向い</w>
持 続</w>
担 ぐ</w>
抱 か</w>
抑 圧</w>
技 師</w>
払い 戻し</w>
打ち 立て</w>
打 破</w>
懲 役</w>
懐 かしく</w>
感 服</w>
愛 国</w>
惜 しい</w>
急 行</w>
復 興</w>
復 旧</w>
弁 償</w>
延 べ</w>
延 ばす</w>
幼 なじみ</w>
平 生</w>
平 方</w>
差し 支え</w>
巡 り</w>
山 登り</w>
履 き</w>
展 望</w>
屋 根
小 売り</w>
導 い</w>
専 念</w>
寝 よう</w>
容 器</w>
家 電</w>
学 識</w>
婚 姻</w>
好 転</w>
好 中</w>
奮い 立た</w>
大 海</w>
大 木</w>
大 国</w>
大 半</w>
大 して</w>
夜 景</w>
士 気</w>
境 地</w>
堪 能</w>
埋 める</w>
埋 め
垂 れ</w>
均 等</w>
固 める</w>
喋 れる</w>
唱 える</w>
咲 き
味わ う</w>
周 波</w>
吐 き出し</w>
同 窓</w>
同 い
同い 年</w>
合 える</w>
台 無し</w>
口 ぶり</w>
受け 止め</w>
受 取</w>
取り 合い</w>
原 文</w>
半 端</w>
千 里</w>
効 く</w>
劣 化</w>
前 提</w>
前 倒し</w>
制 裁</w>
切 除</w>
切 に</w>
出 国</w>
冷や やか</w>
共 感</w>
公 金</w>
免 除</w>
先 方</w>
信 託</w>
余 っ</w>
伐 採</w>
仰 ぐ</w>
今 期</w>
予 告</w>
乱 し</w>
乗 じ</w>
上 部</w>
上 位</w>
一人 々々</w>
一 同</w>
ワ イト</w>
ロ イド</w>
レ モン</w>
レ ター</w>
リー グ</w>
リ ハー
リハー サル</w>
ヤ バイ</w>
モ ード</w>
モ ノ
ミ ネ
マ リ
マ グ
ホ ワイト</w>
ベ ランダ</w>
フィ ギュ
フ レット</w>
ヒ ント</w>
パン チ</w>
バッ カ</w>
ヌ ー</w>
ニン ニク</w>
ド ン</w>
ディ ー
ック アウト</w>
ッ ド
チラ シ</w>
チャ ー
チ ーム
ダン サー</w>
タ リー</w>
ソ ロ</w>
スペ ル</w>
ス メ</w>
ジャン ケン</w>
ジ ジ
サン グラス</w>
サイ クリ
サイクリ ング</w>
コミ マ</w>
コ イン</w>
コ ア</w>
ゲ ート</w>
グラ フ</w>
クリ ーニング</w>
クライ アント</w>
ギリ シャ</w>
キュ ウリ</w>
キ ラ</w>
カ ブ
カ ビ</w>
イン ボイス</w>
イ ル
わ り
れ 落ち</w>
より どころ</w>
よ さ</w>
やり 遂げる</w>
やり がい</w>
や き
もた れ</w>
も つ</w>
めい めい</w>
め まい</w>
め ちゃ</w>
め え</w>
み なさ</w>
ま みれ</w>
ま つ
ま いり</w>
ぷ んぷん</w>
ぶつ かる</w>
ぶ た</w>
ふら ふら</w>
ふ っ
び ら</w>
ひけら かす</w>
ひ ね
ひ っきり</w>
ぱ く</w>
ば れ</w>
ね じ
ぬ い
ぬい ぐるみ</w>
にく く</w>
な さっ</w>
ど る</w>
とら われ</w>
ち ん</w>
だらし ない</w>
だ る</w>
だ まし
たど り
た ない</w>
た さ</w>
た こ</w>
た か</w>
すげ ぇ</w>
じ り
しょ う
しな やか</w>
さば く</w>
こぼ こ</w>
こ ね</w>
こ な
く ば
き せる</w>
からか わ</w>
か た
か かれ</w>
か い
おろ し</w>
お る</w>
お しゃれ</w>
お こし</w>
え と</w>
うるせ ー</w>
いち いち</w>
あ がっ</w>
I T</w>
3 7</w>
麻 薬</w>
骨 身</w>
騒 動</w>
飾 ら</w>
食 らっ</w>
飛び 込み</w>
頭 髪</w>
革 靴</w>
静 まり
雑 貨</w>
隣 人</w>
際 立っ</w>
間に 合っ</w>
間 隔</w>
開 封</w>
長 男</w>
鉱 山</w>
鈍 い</w>
金 魚</w>
野 蛮</w>
配 分</w>
選 出</w>
遮 断</w>
遣 う</w>
通 関</w>
追い 出し</w>
追い つけ</w>
農 薬</w>
辞 儀</w>
辛 かっ</w>
身の 回り</w>
踏み 入れ</w>
責 める</w>
負 わ</w>
読 める</w>
詩 歌</w>
計り 知れ</w>
言い 触
親 族</w>
親 しい</w>
見せ かけ</w>
見 落とし</w>
裕 也</w>
被 る</w>
薬 局</w>
蓄 積</w>
華 やか</w>
苦 しめ</w>
自 発</w>
脅 し</w>
聡 明</w>
耕 地</w>
縫 い</w>
縁 起</w>
編 入</w>
継 ぎ
絞 る</w>
経 由</w>
組み 立てる</w>
終 生</w>
細 長い</w>
笑い 声</w>
端 末</w>
立 案</w>
窒 息</w>
移 行</w>
私 心</w>
神 秘</w>
破 片</w>
砲 弾</w>
矯 正</w>
着 用</w>
真 珠</w>
相 性</w>
目 立た</w>
盛 る</w>
盗 賊</w>
発 車</w>
発 掘</w>
発 作</w>
異 議</w>
異 国</w>
町 内</w>
用 水</w>
生 成</w>
狡 猾</w>
特 色</w>
特 技</w>
焼 ける</w>
無く なっ</w>
無 口</w>
火 花</w>
漏 らす</w>
温 厚</w>
減 価</w>
清 朝</w>
清 廉</w>
混 み</w>
海 原</w>
泊 り</w>
油 田</w>
沸 かし</w>
決 着</w>
汚 く</w>
水 浸し</w>
水 平</w>
気 の
気の 毒</w>
気 がかり</w>
民 兵</w>
氏 名</w>
比 べ
歴 代</w>
歯 車</w>
正 す</w>
欠 い</w>
横た わっ</w>
楽 観</w>
東 西</w>
朝 焼け</w>
書 画</w>
更 なる</w>
暗 号</w>
昆 虫</w>
旱 魃</w>
日 用</w>
日 数</w>
施 行</w>
新 車</w>
文 物</w>
放 つ</w>
揺 る
排 斥</w>
捧 げ</w>
振り 返る</w>
挫 折</w>
持ち こたえ</w>
拾 う</w>
拘 留</w>
担 う</w>
押し 寄せ</w>
抜 か</w>
投げ 出し</w>
抑 制</w>
抑 えつけ</w>
打ち 立てる</w>
打ち 勝っ</w>
手 渡し</w>
手 ご
戻 さ</w>
戦 友</w>
憤 り</w>
憂 うつ</w>
慣 例</w>
慌 て
慌て ふ
慌てふ ため
感 傷</w>
愛 顧</w>
惜 しみ</w>
恭 しく</w>
応 答</w>
応 対</w>
応 える</w>
志 望</w>
忍 び</w>
後 退</w>
後 任</w>
待ち 望ん</w>
当 局</w>
強 かっ</w>
引き 出す</w>
引き 上げ</w>
引き つける</w>
庭 園</w>
店 頭</w>
広 める</w>
広 まっ</w>
年 々</w>
帰り 道</w>
布 地</w>
尽 きる</w>
小 板</w>
対 抗</w>
密 輸</w>
寂 しかっ</w>
安 楽</w>
学 費</w>
子 弟</w>
嫌 っ</w>
嫌 う</w>
如 何</w>
好 物</w>
大 水</w>
大 家</w>
売り 出す</w>
売 れる</w>
墓 地</w>
基づ く</w>
基 金</w>
執り 行なう</w>
執 筆</w>
固 まっ</w>
四 季</w>
君 子</w>
同 等</w>
同 性</w>
各 人</w>
召し 上がっ</w>
口 元</w>
取り除 い</w>
取り 扱う</w>
取り 出す</w>
厳 し</w>
厚 生</w>
危 う
勇 猛</w>
効 か</w>
励 む</w>
力 学</w>
前 日</w>
削 り
削 っ</w>
到 底</w>
利 く</w>
初 回</w>
分 泌</w>
出 資</w>
出 れ</w>
処 刑</w>
冷 め</w>
冬 休み</w>
兆 し</w>
優 子</w>
催 し</w>
保 養</w>
保 た</w>
促 す</w>
侮 辱</w>
供 する</w>
作 法</w>
会 おう</w>
仲 介</w>
付 着</w>
付 か</w>
仕 上げる</w>
人 格</w>
人 家</w>
人 体</w>
交 歓</w>
予 め</w>
乗り 換える</w>
両 面</w>
世 帯</w>
下 っ</w>
下 さ</w>
上 層</w>
上 り</w>
一 身</w>
一 覧</w>
ワ タ
ロ ス</w>
ロ ジ
レー ニン</w>
レシ ピ</w>
レ ール</w>
リハ ビリ</w>
リ ート</w>
ラン ク</w>
ョー ザ</w>
ユニ ット</w>
ミ ニ
ミ ック</w>
マイ ナス</w>
マ シ</w>
マ クロ</w>
ボ ク
ベン チ</w>
ヘ ッジ</w>
プロフィ ール</w>
プロ レタ
プリ ケーション</w>
プラ チナ</w>
プ レー
ブ ン</w>
ブ ロック</w>
フィギュ ア</w>
フ ロー</w>
バス ケット</w>
バ リ</w>
バ ック
ハ ン</w>
ハ ナ
ニ ズム</w>
ナ ル
ド ロ
ト レ
デー タ
データ ベース</w>
ディ スカ
チャンピ オン</w>
タ ッチ</w>
タ ック</w>
セキュ リティ</w>
セ ラー</w>
ストー リー</w>
ス マン</w>
ス ゴ
ス ゲー</w>
ジャ マ</w>
ジジ イ</w>
ショ ート</w>
ショ ナル</w>
シュ ーズ</w>
シ フト</w>
シ ナ
サー フィン</w>
ゴール デン</w>
コ ツ</w>
ケン カ</w>
グ ッ
ギ ョーザ</w>
ガ ム</w>
カ ミ</w>
カ ヌー</w>
カ ク
オオ カミ</w>
オ ラ</w>
エス テ</w>
ウォ ー
イン フ
ア プリケーション</w>
ん で</w>
わ あ</w>
ろ っ</w>
よ ら</w>
よ こ
ゆ ま</w>
やり 口</w>
や かん</w>
もて あそ
もう ろう</w>
め ん
むさぼ る</w>
む ね</w>
み つ</w>
み が
まと い</w>
また もや</w>
ほ お
へ り</w>
ぶ ん
び っしょ
びっしょ り</w>
ひ か</w>
は ば
は ずれ</w>
の 世</w>
ぬ き</w>
に らん</w>
に っこり</w>
に こ</w>
なん ざ</w>
な り
な める</w>
な だ
と め</w>
で こぼこ</w>
づ め</w>
つ ば</w>
つ っ</w>
つ っ
っ 面</w>
だ ー</w>
たく な</w>
た ゆま</w>
た つ</w>
た け</w>
そそ り
ぜん ぜん</w>
すっ ごい</w>
しゃべ ら</w>
し びれ</w>
し な</w>
ざ ら</w>
ざ す</w>
さら け
け 者</w>
け りゃ</w>
く たび
きゅう す</w>
が ら
が っしり</w>
かね て</w>
かけ ら</w>
か ぶる</w>
か たくな</w>
おお むね</w>
お ん
お ぼ
え ぇ</w>
うるせ ぇ</w>
うる さく</w>
うぬ ぼれ</w>
いや ー</w>
いと わ</w>
い ちゃ
あ こ
あ あー</w>
t e</w>
r n
i c
20 10</w>
黄 金色</w>
鶏 肉</w>
魅 了</w>
高 温</w>
高 地</w>
騒ぎ 立てる</w>
首 脳</w>
風 雨</w>
風 船</w>
風 呂
面 談</w>
雇 い</w>
隔 離</w>
隔 て</w>
限り ない</w>
降ろ し</w>
闘 っ</w>
鋼 鉄</w>
銃 剣</w>
釣 っ</w>
金 型</w>
金 品</w>
量 っ</w>
醜 い</w>
郷 里</w>
遺 跡</w>
遣 っ</w>
違 え</w>
道 端</w>
過 大</w>
造 詣</w>
通 話</w>
逆 らっ</w>
逃 走</w>
逃 し</w>
逃 がす</w>
退 治</w>
追い つい</w>
辺 ぴ</w>
蹴 っ</w>
踏 まえ</w>
起 伏</w>
赤 色</w>
赤 み</w>
賑 やか</w>
貸 借</w>
貸 付</w>
買い 入れ</w>
貯 蔵</w>
議 会</w>
謝 っ</w>
謀 反</w>
諸 君</w>
語 る</w>
認 定</w>
話し かける</w>
証 人</w>
診 療</w>
解 明</w>
親 父</w>
覚 める</w>
見 送っ</w>
見 知ら</w>
見 回し</w>
見 え
複 製</w>
装 っ</w>
血 の
融 資</w>
虫 歯</w>
薄 暗い</w>
蓄 える</w>
葉 月</w>
舐 め</w>
脱 落</w>
脱 出</w>
胸 元</w>
背 負う</w>
背 く</w>
職 権</w>
聴 衆</w>
繰 り</w>
緻 密</w>
緩 やか</w>
結び つけ</w>
紡 績</w>
納 豆</w>
紀 律</w>
粗 悪</w>
競 走</w>
立ち 止まっ</w>
空 っぽ</w>
私 立</w>
神 聖</w>
礼 拝</w>
確 か
砕 け</w>
砂 浜</w>
眼 中</w>
直 せ</w>
盗 む</w>
盗 み
的 確</w>
白 状</w>
発 信</w>
痛 め
疑 わ</w>
申し 込む</w>
申し 上げる</w>
申し あげ</w>
田 植え</w>
生 長</w>
生 気</w>
甚 だ
甘 んじ</w>
特 産</w>
熟 し</w>
煮 る</w>
照 らさ</w>
点 灯</w>
点 火</w>
火 力</w>
濃 厚</w>
潜 水</w>
演 出</w>
漂 う</w>
溺 れ</w>
測 っ</w>
添 削</w>
混ぜ る</w>
深 める</w>
深 め</w>
消 沈</w>
海 洋</w>
泰 山</w>
没 頭</w>
沈 む</w>
江 西</w>
気 圧</w>
毛 糸</w>
比 例</w>
死 傷</w>
歯 磨き</w>
歩 調</w>
欲 求</w>
欠 損</w>
構 う</w>
植 木</w>
梅 雨</w>
松 永</w>
本 性</w>
末 端</w>
望 月</w>
朗 読</w>
有 り
最 良</w>
書き 直し</w>
暴 く</w>
暖 か</w>
普 遍</w>
春 風</w>
早 々</w>
新 華</w>
新 婦</w>
斬 新</w>
散 髪</w>
散 々</w>
教 示</w>
教 わっ</w>
改 札</w>
換 気</w>
提 携</w>
探 る</w>
捜し 当て</w>
招 聘</w>
担 保</w>
抜 かり</w>
抗 体</w>
手 当たり</w>
手 厚い</w>
扇 子</w>
我 先</w>
憂 鬱</w>
意 向</w>
惜 しく</w>
情 けない</w>
悲 劇</w>
悪 徳</w>
悩 む</w>
悩 まさ</w>
忘れ 物</w>
必 須</w>
心 身</w>
得 点</w>
後ろ 姿</w>
当 直</w>
弱 々しい</w>
引き ずり</w>
建 造</w>
広 島</w>
幾 分</w>
平 原</w>
左 目</w>
巡 査</w>
崇 拝</w>
小 声</w>
実 証</w>
宜 しい</w>
宛 て</w>
官 職</w>
子 犬</w>
始 めよう</w>
失 望</w>
太 極</w>
多 年</w>
変 革</w>
埋 葬</w>
均 衡</w>
在 職</w>
固 執</w>
図 っ</w>
喜ば しい</w>
商 い</w>
呪 わ</w>
名 称</w>
同 行</w>
合 同</w>
受け 取れ</w>
取り除 か</w>
収 縮</w>
厳 禁</w>
原 野</w>
卸 し</w>
博 し</w>
単 独</w>
北 方</w>
力 強く</w>
刻 ん</w>
分 担</w>
出 生</w>
出 展</w>
出 よう</w>
冤 罪</w>
兵 隊</w>
全 校</w>
入 隊</w>
傷 つい</w>
倒 れる</w>
促 し</w>
便 所</w>
例 年</w>
伺 う</w>
伴 っ</w>
仲 良し</w>
今 し
亭 主</w>
主 権</w>
主 席</w>
主 導</w>
不 当</w>
下 劣</w>
下 る</w>
上 場</w>
一 挙</w>
一 層</w>
ワ ク</w>
ロー ラー</w>
ロ ング</w>
ロ マン
ロ ウ</w>
レー ダー</w>
レ ル
リ モ
リ ス
モテ る</w>
メ モ
ミン トン</w>
ミ ー</w>
ポジ ティブ</w>
プロ ード</w>
プレー ヤー</w>
プライ ベート</w>
プ ス</w>
ブ リン</w>
ファ シ
ビ ックリ</w>
ヒ ヨ
パー ツ</w>
パン フレット</w>
バー カ</w>
バ ース</w>
ハン ドル</w>
ハイ ウェイ</w>
ハ ハ
ノ ール</w>
ネイ ティブ</w>
ネ パール</w>
ナイ ーブ</w>
ド ッキリ</w>
ト ムシ</w>
ツ マ</w>
チュ ー
タ ール</w>
ゼ リー</w>
セ イ</w>
スポ ット</w>
スト ロ
ステ ップ</w>
スゴ イ</w>
ス スメ</w>
ジャ ック</w>
シ ス</w>
シ カ
ザ ー
サイ コ
サイコ ロ</w>
サ ツマ</w>
コイ ツ</w>
コ ネ</w>
コ ッチ</w>
ゲ ル</w>
グ ー
キュー バ</w>
キャ ット</w>
キ ノ
ガ ード</w>
ガ ラ
カブ トムシ</w>
カ ロ
カ レン
カ ラス</w>
カ モ</w>
カ サ
オート バイ</w>
オリジ ナル</w>
オ ム
オ ス</w>
エンジ ニア</w>
エ ジ
エ キ
ウォ ーター</w>
イ モ</w>
アン テナ</w>
アラ ビア</w>
アメ リ
アッ プロード</w>
アシ スタント</w>
ア ンス</w>
ア マ
ア タック</w>
ん じる</w>
ん ざい</w>
わ ん
わ ら
り 込む</w>
り 声</w>
り 上げ</w>
よ じ
やさ しい</w>
やが て</w>
や すみ</w>
もて なす</w>
め ちゃ
めちゃ めちゃ</w>
む ちゃ</w>
む き出し</w>
む き</w>
み っ</w>
み かん</w>
まぶ た</w>
ま き
ま う</w>
ぼう っと</w>
べ から</w>
ぶる ぶる</w>
ぶっ 殺す</w>
ふざ ける</w>
びしょ ぬれ</w>
ひ な</w>
ひ き</w>
ひ いき</w>
ば る</w>
ば つ</w>
ば か
は やく</w>
は がき</w>
ね らい</w>
ぬ け</w>
にこ にこ</w>
な さら</w>
どん より</w>
と ぞ</w>
と げ</w>
つる し
ちょう ちん</w>
だ ます</w>
た がら</w>
そよ そ
そこ そこ</w>
じ ゅう
しり ごみ</w>
し ら</w>
し っ</w>
ざ お</w>
さら さ</w>
さ ー</w>
こと ごとく</w>
こ わ
こ やつ</w>
こ める</w>
こ ぶ</w>
こ すっ</w>
げ んか</w>
け ち
く そ
く しゃ
く さく</w>
き め
かん かん</w>
かき 氷</w>
か ァ</w>
か ねる</w>
おか しな</w>
お まけ</w>
お の</w>
お こ
い びき</w>
い で
あか 抜け</w>
あ て</w>
あ て
あ だ
あ げ
z h
ig h
a l
U R
4 6</w>
4 5</w>
５ ０</w>
１ ９
１ ５</w>
鼻 水</w>
黒 字</w>
高 まり</w>
騒 ぐ</w>
養 子</w>
養 う</w>
飲 める</w>
飛び 降り</w>
顕 著</w>
面 し</w>
静 寂</w>
露 店</w>
雨 水</w>
難 癖</w>
離れ 離れ</w>
隆 盛</w>
陥 れる</w>
間違 える</w>
鍛 練</w>
野 原</w>
酔っぱ らっ</w>
郷 土</w>
部 室</w>
邪 悪</w>
適 正</w>
適 度</w>
連 想</w>
造 っ</w>
逃げ 出す</w>
逃げ ろ</w>
送 迎</w>
退 場</w>
近 道</w>
農 具</w>
軽 はず
軽はず み</w>
転 がっ</w>
身 動き</w>
踏 み</w>
路 地</w>
路 上</w>
足 腰</w>
赴 い</w>
走 行</w>
購 読</w>
賢 明</w>
貧 農</w>
貧 しく</w>
課 外</w>
語 り
評 論</w>
訳 す</w>
訳 し</w>
託 児</w>
計 器</w>
言い 伝え</w>
解 り</w>
視 聴</w>
規 程</w>
要 る</w>
裏 面</w>
行き 届き</w>
行 儀</w>
融 合</w>
藍 色</w>
茫 々</w>
苦 心</w>
苗 木</w>
致 命</w>
自 給</w>
自 国</w>
臨 床</w>
育 て
育 つ</w>
肯 定</w>
耕 し</w>
老 け</w>
置き 場</w>
編 む</w>
綿 密</w>
絵 本</w>
統 合</w>
結 核</w>
細 部</w>
細 やか</w>
細 か</w>
糖 尿</w>
精 進</w>
精 算</w>
粗 捜し</w>
箱 根</w>
立て 続け</w>
立ち 寄り</w>
立ち 上がる</w>
積み 重ね</w>
稼 働</w>
税 務</w>
移 る</w>
移 り</w>
移 さ</w>
確か める</w>
知 事</w>
着 手</w>
相 応</w>
目 がけ</w>
登 記</w>
発 酵</w>
痛 み
甲 板</w>
理 津
理津 子</w>
玄 人</w>
特 有</w>
物 寂しい</w>
焼 け
焦 ら</w>
無 駄
無 線</w>
火 傷</w>
濃 度</w>
濁 っ</w>
滴 り
滅 多</w>
溶 解</w>
渇 い</w>
混 じっ</w>
海 底</w>
浴 び
流 行っ</w>
洞 窟</w>
洗 浄</w>
泳 げる</w>
沿 海</w>
江 戸</w>
汚 職</w>
汚 水</w>
水 田</w>
気 質</w>
気 勢</w>
気 前</w>
歌 え</w>
横 目</w>
模 倣</w>
根 源</w>
枝 葉</w>
本 意</w>
木 製</w>
木 々</w>
最 短</w>
暫 定</w>
暗 唱</w>
暖 房</w>
映 え</w>
明 治</w>
旧 暦</w>
旅 人</w>
方 言</w>
文 房</w>
文 人</w>
敷 き</w>
数 千</w>
散ら かっ</w>
敗 れ</w>
放 浪</w>
摂 取</w>
揚 げる</w>
探 検</w>
採 掘</w>
採 っ</w>
掛け 声</w>
挟 ま</w>
抱 き</w>
折 る</w>
投 機</w>
投 書</w>
投 与</w>
打ち 明ける</w>
手ご わい</w>
手 間
扇 風</w>
所 持</w>
慌 てる</w>
慈 悲</w>
慈 善</w>
感 銘</w>
情 緒</w>
悪 質</w>
恥 辱</w>
恥 じ
性 的</w>
急 落</w>
急 所</w>
思い 込ん</w>
思い 切り</w>
心地 よく</w>
役 職</w>
当 方</w>
弾 け</w>
引っ 張ら</w>
引き 起こさ</w>
引き 渡し</w>
庶 民</w>
座 談</w>
年 じゅう</w>
平 静</w>
干 す</w>
帰 れる</w>
市 長</w>
巻き 上げ</w>
差 す</w>
山 形</w>
属 し</w>
尊 厳</w>
寝 台</w>
家 財</w>
家 柄</w>
安 値</w>
孔 子</w>
妨 げる</w>
奨 学</w>
失 くし</w>
大 河</w>
大 人
多 彩</w>
外 来</w>
売 春</w>
塗 料</w>
地 雷</w>
器 官</w>
喋 る</w>
唱 え</w>
哀 れ
味 見</w>
叶 う</w>
受け 取ら</w>
受 給</w>
取り 調べ</w>
取り 立て</w>
取り 入れる</w>
反 響</w>
反 逆</w>
友 誼</w>
厳 守</w>
即 座</w>
占 拠</w>
卑 劣</w>
千 葉</w>
包 む</w>
効 力</w>
励 ます</w>
割 い</w>
前 野</w>
前 兆</w>
列 挙</w>
出 港</w>
出 動</w>
出 かけよう</w>
再 婚</w>
内 定</w>
兵 役</w>
入 ろう</w>
元 どおり</w>
優 待</w>
倹 約</w>
係 員</w>
便 宜</w>
余 儀</w>
伺 え</w>
伝 わり</w>
仕 え</w>
享 受</w>
乗 馬</w>
不 審</w>
下 部</w>
下 流</w>
上 げ
三 十</w>
一 撃</w>
一 塊</w>
一 味</w>
一 とおり</w>
ー マン</w>
ヵ 月</w>
ヴ ィ
ヴ ァ
ワタ シ</w>
ワ ールド</w>
ロボ ロ</w>
リー ダー
リーダー シップ</w>
リ ティー</w>
ユニ ーク</w>
ヤン キー</w>
ヤ ロー</w>
メ キシ
メキシ コ</w>
メ イク</w>
ム ーズ</w>
ミツ ケ
ミツケ タ
ミツケタ ゾ</w>
ミ リ
マー シャル</w>
マイ ク</w>
マ フ
マフ ラー</w>
マ ニ
ポル ノ</w>
ポジ ウム</w>
ポ ット</w>
ボ ロボロ</w>
ボ ブ</w>
ベ タ</w>
プロ ダ
ブ ー</w>
ブ ロー
ブ リ</w>
フ レー
フ リ</w>
フ リ
ピン ポン</w>
ヒ ット</w>
パン パン</w>
パ ニック</w>
パ ック</w>
バリ ュー</w>
バ チ</w>
ハ レル
ハ ラ</w>
ハ ム</w>
ノ ブ</w>
ナ ー
ドライ ヤー</w>
デザ ート</w>
ディ ナー</w>
テ ロ</w>
チ ュー</w>
タ ク</w>
ズ レ</w>
スーパー マーケット</w>
スト レート</w>
スト ル</w>
スト ップ</w>
スタ ンプ</w>
ス ムーズ</w>
ス カ</w>
ジェ ル</w>
シン ポジウム</w>
ショ ット</w>
シャン プー</w>
シャ トル</w>
サン キュー</w>
コン セ
ク ル
ギ リ</w>
キツ ネ</w>
キッ チン</w>
キ レイ</w>
カク テル</w>
カ ツ
オ ランダ</w>
インド ネシア</w>
インテ リア</w>
イ イ
アン ズ</w>
アナ リスト</w>
アップ デート</w>
アウ ト
ア ワ</w>
ア パ
ア トラ
わ めい</w>
わ び</w>
り つける</w>
よ だれ</w>
よ しみ</w>
よ き</w>
や む
や から</w>
も れ</w>
も く
みす み
みすみ す</w>
み 出</w>
み だり</w>
まり ない</w>
まば ゆい</w>
まず まず</w>
ま つ</w>
ま ぐれ</w>
ぽ か
ほん っと</w>
ぷ ら</w>
ぶら 下がっ</w>
ふざ けん</w>
ふ もと</w>
ひ し
は は</w>
は っと</w>
は ち
は しゃ
は あ</w>
ね ん</w>
な め
ど い</w>
とも ない</w>
とっ さ</w>
て っ
てっ ぺん</w>
て こ
づ る</w>
づ らい</w>
つるし 上げ</w>
つ ら</w>
つ まずい</w>
ち がう</w>
だ つ</w>
だ だ</w>
た わ
た まえ</w>
た こ
そ い</w>
せ き</w>
ず ん</w>
す そ</w>
す こ
ざ ら
さ らす</w>
さ え
こだ わる</w>
こだ わっ</w>
こた える</w>
こ び
き ん</w>
が さ</w>
か む</w>
か しかっ</w>
か か</w>
おお よそ</w>
お でん</w>
うな り声</w>
うな ぎ</w>
う わ</w>
い 上げ</w>
あ くどい</w>
o o
f igh
X X
UR L</w>
I D</w>
F A
6 00</w>
２０ ０
黄色 い</w>
高 騰</w>
騙 し</w>
駐 在</w>
飼い 犬</w>
食 用</w>
食 え</w>
風 采</w>
音 色</w>
青 白い</w>
雑 菌</w>
隠 れ
障 壁</w>
隔 たり</w>
陣 営</w>
限り なく</w>
開 示</w>
閉 じる</w>
鎮 圧</w>
鉱 石</w>
鉱 物</w>
釣 る</w>
量 る</w>
遺 言</w>
遺 憾</w>
遺 体</w>
遮 っ</w>
遭 い</w>
適 任</w>
過 酷</w>
通 さ</w>
逆 転</w>
逆 さま</w>
逃 す</w>
追い つく</w>
追 い</w>
近づ き</w>
辱 め</w>
輸 血</w>
転 び</w>
転 げ
軍 備</w>
跳 ね
路 面</w>
足 手</w>
足 す</w>
起 源</w>
賞 金</w>
賜 り</w>
譲 ら</w>
論 点</w>
調 和</w>
調 印</w>
誹 謗</w>
語 り</w>
誘 い
言い 分</w>
言い 争っ</w>
言 動</w>
覚 ます</w>
見 捨て</w>
見 当たら</w>
見 かける</w>
覆 い</w>
要 員</w>
襲 撃</w>
補 佐</w>
街 灯</w>
行 軍</w>
荷 車</w>
茫 然</w>
苦 しむ</w>
苦 し</w>
花 園</w>
船 積み</w>
腐 り</w>
脳 裏</w>
脱 ぐ</w>
耳 元</w>
考え れ</w>
緩 め</w>
結 晶</w>
素 子</w>
純 真</w>
粒 子</w>
節 操</w>
管 轄</w>
筆 記</w>
競 馬</w>
竣 工</w>
立ち 去る</w>
立 体</w>
空 論</w>
空 手</w>
積 載</w>
稼 動</w>
神 話</w>
社 債</w>
社 交</w>
破 産</w>
破 ら</w>
真っ 先</w>
相 撲</w>
直 線</w>
目 安</w>
目 先</w>
目 上</w>
盗 み</w>
発 散</w>
病 室</w>
異 物</w>
産 まれ</w>
現 物</w>
現 像</w>
物 産</w>
片 手</w>
熟 睡</w>
煮 え</w>
焼き そば</w>
無 くし</w>
瀕 し</w>
漫 才</w>
演 習</w>
演 壇</w>
滞 貨</w>
満 面</w>
満 席</w>
渡 せ</w>
減 り</w>
浸 っ</w>
浮か び
浮 つい</w>
法 定</w>
沈 黙</w>
水 源</w>
水 族</w>
気 管</w>
気 体</w>
気 さく</w>
民 謡</w>
正 し</w>
欲 望</w>
次 元</w>
欠 乏</w>
横 丁</w>
極 度</w>
極 め</w>
検 出</w>
格 差</w>
校 門</w>
染 色</w>
東 南</w>
有 用</w>
有 料</w>
最 寄り</w>
易 しい</w>
早 かっ</w>
日 夜</w>
旋 回</w>
施 策</w>
新 型</w>
新 卒</w>
断 定</w>
断 わる</w>
断 わり</w>
敷 設</w>
敷 か</w>
敬 服</w>
散 文</w>
散 り
散り 散り</w>
放 牧</w>
攻 略</w>
摩 擦</w>
握 り</w>
推 移</w>
探 っ</w>
据 え</w>
挽 回</w>
振 込み</w>
指 紋</w>
招 き
拍 子</w>
抵 当</w>
手 放し</w>
戦 火</w>
戦 わ</w>
成 熟</w>
憤 慨</w>
慌 ただ
感 性</w>
愛 し
惹 か</w>
悲 しま</w>
悪 魔</w>
悪 名</w>
恩 恵</w>
怠 け者</w>
思い つか</w>
思い つい</w>
忠 誠</w>
応 変</w>
心 血</w>
心 得</w>
心 当たり</w>
復 讐</w>
御 座
御座 い</w>
役 立た</w>
彫 っ</w>
形 状</w>
強 風</w>
強 要</w>
強 引</w>
張り 上げ</w>
弱 音</w>
引っ かかっ</w>
引き継 ぐ</w>
引き 換え</w>
引 け</w>
弁 証</w>
常 用</w>
常 務</w>
差 異</w>
崇 高</w>
山 奥</w>
屋 内</w>
尾 行</w>
小 石</w>
小 さ</w>
寄り 添
害 虫</w>
宮 殿</w>
宛 先</w>
完 遂</w>
安 価</w>
学 部</w>
孝 行</w>
字 幕</w>
子 豚</w>
媒 体</w>
威 厳</w>
威 力</w>
妊 婦</w>
奇 怪</w>
大 股</w>
大 波</w>
大 橋</w>
大 局</w>
夜 空</w>
変 数</w>
売 店</w>
増 大</w>
増 す</w>
報 わ</w>
報 いる</w>
坊 主</w>
在 住</w>
嘔 吐</w>
唆 し</w>
吹き 出し</w>
向 か</w>
吉 報</w>
合わ す</w>
合 致</w>
受 診</w>
取り 入る</w>
取 っ
及 ん</w>
原 理</w>
却 下</w>
十 字</w>
化 合</w>
勧 告</w>
勝ち 取っ</w>
務 める</w>
動 脈</w>
動 力</w>
動 かさ</w>
勅 使
勅使 河原</w>
劇 団</w>
前 払い</w>
別 人</w>
初 恋</w>
切り 開く</w>
切 ない</w>
分 か
出来 れ</w>
出 迎え</w>
処 女</w>
処 する</w>
凝 固</w>
凍 結</w>
公 定</w>
全 滅</w>
入れ 替え</w>
入り 込ん</w>
入 浴</w>
光り 輝く</w>
先 導</w>
先 々</w>
優 位</w>
傾 ける</w>
傷 跡</w>
傀 儡</w>
健 やか</w>
停 滞</w>
値 上げ</w>
何 人</w>
伝 えよう</w>
付 加</w>
仕 返し</w>
仕 切り</w>
仕 入</w>
仏 像</w>
今し 方</w>
人 道</w>
交 互</w>
交 わす</w>
二 の
予 言</w>
乾 かす</w>
乾 かし</w>
乗 用</w>
丸 い</w>
中 腹</w>
中 核</w>
中 性</w>
並 べ
両 目</w>
下 層</w>
上 回る</w>
上 り
上 げよう</w>
万 能</w>
万 全</w>
一 途</w>
一 々</w>
ワク ワク</w>
ロ ビー</w>
ロ ッカー</w>
レンタ カー</w>
レ コード</w>
リー マン</w>
リ ード</w>
リ ビング</w>
ラク ダ</w>
ラ ップ</w>
ラ スト</w>
ラ ケット</w>
ヤ ジ</w>
ヤ ギ</w>
モ ーション</w>
モ ノ</w>
モ ニ
メー ション</w>
メロ ディー</w>
マイ クロ</w>
ホル モン</w>
ホ ン
ホ ラー</w>
ホ ウ
ペ ラ</w>
ペ ア</w>
ベ アリング</w>
プライ ス</w>
ブ ス</w>
フェ ア</w>
ファー スト</w>
ファ ルト</w>
フ ン</w>
ピッ チャー</w>
ピ ストル</w>
ヒヨ コ</w>
パ ジャマ</w>
パ イ</w>
バ ット</w>
バ グ</w>
ハン マー</w>
ナン パ</w>
ナ ット</w>
ド リー</w>
ド ブック</w>
ト ーク</w>
ト ボード</w>
ト ウ</w>
ツ ー</w>
ツ イン</w>
ツ イ
チャン ネル</w>
チェ ックアウト</w>
ソー セージ</w>
ゼ ーション</w>
ゼ ット</w>
スリ ップ</w>
スプ レ</w>
スイ ミング</w>
シン プル</w>
シャ レ</w>
サ ラ</w>
サ マー</w>
ゴ ン</w>
コン ベ
コ スプレ</w>
コ ウ
ケ ツ</w>
ケ ア</w>
グラ ウンド</w>
クレ ーン</w>
ギリ ギリ</w>
キノ コ</w>
キ ー
キ ズ</w>
ガ ール
カ ネ</w>
オー バー
オ ール</w>
オ イ</w>
エ ーション</w>
エ ンド</w>
エ スカ
ウェ ー</w>
ウィ ーク</w>
イヤ リング</w>
アトラ クション</w>
アス ファルト</w>
アイ ツ</w>
ア レ</w>
んざ ん</w>
わ だ
わだ か
れ 込ん</w>
る ま</w>
ら かし</w>
ゆ かり</w>
やり 取り</w>
や や
や つれ</w>
もの すごい</w>
も ん
も み
みな ぎっ</w>
み や
み なし</w>
み っ
みっ ともない</w>
み ち</w>
み せ</w>
まと まり</w>
ま ねる</w>
ま くる</w>
ぽか ぽ
ぽかぽ か</w>
ぼ り</w>
ほほえ み</w>
ほう だい</w>
ふる まう</w>
ふさ ぐ</w>
ひね くれ</w>
ひっくり 返し</w>
はし ご</w>
は め
の ける</w>
ぬかる み</w>
にわ か
にわか 雨</w>
に ら
に じ
なお し</w>
な すり
とど める</w>
とど まる</w>
と ろ
と ぼけ</w>
でっち 上げる</w>
で やか</w>
で かい</w>
て りゃ</w>
て っきり</w>
て け</w>
て おき</w>
つな ぎ</w>
つか み</w>
つか さ
つ たない</w>
っぱ く</w>
っつ う</w>
っ こい</w>
っ くば
っくば らん</w>
っ き</w>
ちら ちら</w>
ちょう だい</w>
ち ん
だ るく</w>
だ るい</w>
たと えば</w>
たこ 焼き</w>
た ろう</w>
ぞ んざい</w>
そ ば
すこ ぶる</w>
す っぽ
す こし</w>
す ぐ
すぐ さま</w>
しと やか</w>
しで かし</w>
しか りつけ</w>
しか た</w>
し く
ざ っくばらん</w>
さら ば</w>
ささ やか</w>
さ んざん</w>
ごろ ごろ</w>
ご っこ</w>
げ ん
け なく</w>
ぐ ったり</w>
く わ</w>
く しゃ</w>
く くっ</w>
ぎ れ</w>
ぎ っしり</w>
きり っ</w>
き び
が た
かぶ せ</w>
かき 集め</w>
か っか</w>
か すん</w>
か じ
か く
おご り</w>
お やつ</w>
うっ とう
いっ ぺん</w>
い われ</w>
あだ 名</w>
あ わ</w>
あ でやか</w>
s t
r e
r a
o w
e b</w>
T O
N o</w>
19 80</w>
19 5
1 500</w>
1 0
0 0
１ 人</w>
鼓 動</w>
鮮 明</w>
魚 釣り</w>
高 圧</w>
駆 動</w>
首 相</w>
飾 りつけ</w>
飼 料</w>
風 刺</w>
顔 面</w>
頭 上</w>
順 位</w>
頂 点</w>
非 行</w>
露 天</w>
需 給</w>
雲 南</w>
難 民</w>
離 す</w>
離 さ</w>
陶 器</w>
開 幕</w>
長 持ち</w>
錠 前</w>
鉄 鋼</w>
釣 合</w>
金 庫</w>
量 産</w>
酸 っぱく</w>
都 度</w>
部 員</w>
選 別</w>
遮 ら</w>
遣 わ</w>
道 筋</w>
過ご せる</w>
過ご さ</w>
過 労</w>
過 分</w>
遊 べ</w>
逸 し</w>
進 攻</w>
造 る</w>
送り 状</w>
退 学</w>
迷 信</w>
迫 ら</w>
近 日</w>
迎 合</w>
農 産</w>
辞 職</w>
辛 苦</w>
軽 快</w>
転 倒</w>
軟ら かく</w>
身の 程</w>
踏 襲</w>
跡 形</w>
赤 旗</w>
贈 り</w>
賄 賂</w>
貰 え</w>
貫 い</w>
象 牙</w>
譲 り</w>
議 員</w>
講 堂</w>
請け 負う</w>
談 笑</w>
調 合</w>
認 可</w>
詰 まら</w>
詩 文</w>
計 る</w>
言い 逃れ</w>
解 き</w>
親 指</w>
親 し</w>
見 送る</w>
見 習う</w>
見 抜く</w>
見 抜い</w>
要 り</w>
衰 える</w>
行 程</w>
血の 気</w>
蒸 発</w>
芸 人</w>
至 ら</w>
臭 く</w>
自 衛</w>
自 家</w>
臨 機</w>
膨 らん</w>
腹 筋</w>
腰 痛</w>
脱 水</w>
脱 ぎ</w>
肥 沃</w>
肝 っ
肝っ 玉</w>
肖 像</w>
職 種</w>
聴 か</w>
聞き 取り</w>
羨 ましく</w>
罪 状</w>
罪 名</w>
繁 盛</w>
縫 っ</w>
線 路</w>
綱 領</w>
結 成</w>
精 鋭</w>
精 製</w>
粘 膜</w>
簡 素</w>
立ち 向かう</w>
立 方</w>
突 き</w>
空 軍</w>
種 目</w>
移り 変わり</w>
移 住</w>
秋 風</w>
祝 福</w>
磁 石</w>
磁 気</w>
砲 火</w>
石 鹸</w>
短 編</w>
着 席</w>
着 せる</w>
真 摯</w>
真 夏</w>
看 病</w>
直 通</w>
直 感</w>
目 前</w>
監 獄</w>
盛り 上がり</w>
発 熱</w>
痕 跡</w>
疎 通</w>
申し 付け</w>
生まれ 育っ</w>
生 前</w>
現 わし</w>
猟 師</w>
狙 い</w>
特 典</w>
燃 焼</w>
熱 情</w>
煙 突</w>
焦 点</w>
焦 る</w>
焦 げ</w>
無 能</w>
漁 師</w>
滔 々</w>
滑 ら</w>
満 載</w>
温 める</w>
淡 水</w>
淡 い</w>
海 軍</w>
流 入</w>
洋 楽</w>
没 落</w>
水 漏れ</w>
水 滴</w>
水 たまり</w>
気 違い</w>
気 絶</w>
気 兼ね</w>
気 まぐれ</w>
毒 性</w>
歩 ける</w>
武 漢</w>
止 ん</w>
歓 声</w>
歓 呼</w>
欠 勤</w>
機 材</w>
橋 本</w>
樹 脂</w>
樹 立</w>
様 相</w>
極 める</w>
根 気</w>
校 庭</w>
果 てる</w>
来 訪</w>
来 れる</w>
条 項</w>
本 家</w>
朝 廷</w>
書 棚</w>
更 け</w>
曲 芸</w>
曲 線</w>
暴 れ</w>
日 取り</w>
新 旧</w>
新 作</w>
断 る</w>
文 語</w>
救 助</w>
改 築</w>
携 わっ</w>
提 起</w>
描 ける</w>
控 除</w>
接 着</w>
採 択</w>
捜 索</w>
挿 入</w>
振る う</w>
持ち 合わせ</w>
持ち 上げる</w>
押し 開け</w>
抱 える</w>
抜 擢</w>
打ち 解け</w>
打ち 勝つ</w>
打 て</w>
手 続</w>
手 抜かり</w>
手 動</w>
戒 め</w>
成し 遂げ</w>
成 し</w>
慰 める</w>
感 じ
愛 好</w>
惨 め</w>
惜 しむ</w>
悔 やみ</w>
悔 い
息 吹</w>
恨 ん</w>
念 頭</w>
快 く</w>
従 属</w>
従 兄弟</w>
役 立ち</w>
強 豪</w>
引き継 い</w>
引き 取っ</w>
引き 上げる</w>
弄 する</w>
建 て
延 び</w>
座 れ</w>
広 め</w>
常 軌</w>
常 々</w>
師 範</w>
巻き 込ん</w>
巨 額</w>
岡 山</w>
山 梨</w>
山 並み</w>
屈 辱</w>
小 娘</w>
密 度</w>
容 疑</w>
実 況</w>
実 態</w>
実 務</w>
孤 児</w>
始 終</w>
始 業</w>
好き 嫌い</w>
奨 め</w>
失 恋</w>
大 便</w>
夢 見</w>
夜 食</w>
売り さばく</w>
売 国</w>
壮 観</w>
増 資</w>
堅 固</w>
城 壁</w>
埋 蔵</w>
地 質</w>
圧 縮</w>
国 会</w>
囲 い</w>
因 子</w>
噴 上</w>
喜 び
喜び 勇
和 ら
命 懸け</w>
周 知</w>
含 める</w>
名 目</w>
名 人</w>
同 郷</w>
同 居</w>
可愛 かっ</w>
召 集</w>
古 本</w>
古 今</w>
口 頭</w>
口 紅</w>
取り 返し</w>
取り 消す</w>
収 録</w>
卸 売</w>
危う く</w>
危 惧</w>
危 害</w>
南 部</w>
半 生</w>
匪 賊</w>
北 風</w>
北 側</w>
動 乱</w>
努 める</w>
助 手</w>
劣 ら</w>
加 熱</w>
制 止</w>
切り 盛り</w>
切り 替える</w>
切り 替え</w>
切り 抜け</w>
切 実</w>
出く わし</w>
出 品</w>
写 す</w>
内 戦</w>
内 在</w>
公 安</w>
八 つ
入 口</w>
先 駆</w>
元 来</w>
儀 式</w>
働 ける</w>
倫 理</w>
修 業</w>
保 ち</w>
便 器</w>
余 暇</w>
余 す</w>
体 面</w>
住 人</w>
会 食</w>
休 養</w>
件 数</w>
仮 面</w>
仮 定</w>
仏 教</w>
予 期</w>
中 級</w>
不 純</w>
不 断</w>
不 乱</w>
丁 度</w>
一 見</w>
ワ ッ
レイ アウト</w>
レ バー</w>
レ セ
レ シート</w>
リッ ジ</w>
リ サイクル</w>
ラ リー</w>
ヨ ン</w>
ヤ ード</w>
モ ヤ
メ ス</w>
マスコ ット</w>
マイ クロ
マ シン</w>
ポ ンド</w>
ポ スト
ボ ウル</w>
ホ ー
ヘル パー</w>
ヘ ッド
プロレタ リア</w>
プ テン</w>
フレー ズ</w>
フェ イス</w>
フィル ター</w>
フィ ブリン</w>
フィ クション</w>
ビビ っ</w>
ビ ー
ビ ュ
パ ク</w>
バ ーン</w>
バ ド
ハー ド
ハン サム</w>
ハレル ヤ</w>
ハナ コ</w>
ハイ キング</w>
ハ マ
ハ ト</w>
ニ ョ
ニ ャ
ナイ ス</w>
ナ ショナル</w>
ドラ イン</w>
ド キュ
トレー ラー</w>
ト コ</w>
ト ゥ
デザ イ
デザイ ナー</w>
ディ スク</w>
デ ュ
ティ ー
ティ ッシュ</w>
ッ ツ
ッ グ
チャ ージ</w>
チ ア
ダイ ナ
ダ チ</w>
タン パク</w>
ソ ー</w>
セン サー</w>
スピ ーカー</w>
ストライ キ</w>
ス プレー</w>
ス ノー
ジー ンズ</w>
ジョ ーク</w>
ジャ ー
ジャ ム</w>
シャ イ</w>
シ ーツ</w>
シ ワ</w>
シ ド
シ ア
サイ ド</w>
サ マ</w>
サ カキ</w>
ゴミ 箱</w>
ゴ メン</w>
ゴ マ</w>
ゴ キ
コンセ プト</w>
コ ーン</w>
コ マーシャル</w>
グッ ズ</w>
クー ポン</w>
クリ ア</w>
ク ソ
ギャ ー</w>
ギ フト</w>
キロ グラム</w>
キャ プテン</w>
ガール フレンド</w>
ガイ ドライン</w>
カレン ダー</w>
オー ナー</w>
オ ヤジ</w>
オ ファー</w>
オ シャレ</w>
エジ プト</w>
エ ンス</w>
ウェ ブ</w>
ウ マ</w>
イチ ゴ</w>
イ ヤー</w>
アイ ドル</w>
アイ ディア</w>
わ めき
わ くわ
わくわ く</w>
ろ しき</w>
よ く
ゆ がん</w>
やっ つける</w>
もてあそ ぶ</w>
もう ける</w>
も め</w>
も ど
も た</w>
め れ</w>
みず みず
み 合っ</w>
まっ し
まっし ぐら</w>
ま ね
ほん とう</w>
ほ ろ
へ し
ぶつ かり</w>
ふ わ</w>
ふ る</w>
ふ たり</w>
び っしり</w>
ば ったり</w>
は ら
は つら
はつら つ</w>
は し</w>
は ぎ</w>
は いり</w>
の ろ</w>
の ひら</w>
ね がい</w>
なま ぐ
なまぐ さい</w>
なく なり</w>
な で
な だめ</w>
とが める</w>
と ば
と かく</w>
づ ち</w>
つま 先</w>
つかさ どる</w>
つ む
つ くり</w>
つ くっ</w>
つ え</w>
っぱ ら</w>
ちっ ちゃい</w>
ち わ</w>
たど る</w>
たい まつ</w>
たい した</w>
た てる</w>
ぞ ろい</w>
そそ っ
そ ん</w>
ずば り</w>
じゅう たん</w>
じ ょ
じ け</w>
じ か</w>
しと し
しとし と</w>
しつ こく</w>
し ぐさ</w>
し かる</w>
ざら ざら</w>
さ ほど</w>
ご ちゃ
こ ー</w>
こ りゃあ</w>
こ ず
こ き
ぐ り
くど く</w>
く い
き まり</w>
き き</w>
が たい</w>
が え</w>
かしこ まり</w>
お の
うっとう しい</w>
いか だ</w>
いか が
い 事</w>
あり さま</w>
あち ら
あく び</w>
あ の世</w>
あ し
あ ご</w>
c m</w>
V D</w>
P a
FA X</w>
F R
D VD</w>
A A</w>
3 2</w>
19 60</w>
1 8
鼓 舞</w>
黙 れ</w>
黒 ずん</w>
黄 金</w>
魔 王</w>
高 官</w>
高 原</w>
高 利</w>
香 水</w>
養 殖</w>
飾り 気</w>
頼 り
頼 ら</w>
頼 も
頭 部</w>
頑 強</w>
順 応</w>
音 響</w>
静まり 返っ</w>
青 海</w>
雑 用</w>
雑 然</w>
集 約</w>
集 い</w>
随 時</w>
隅 々</w>
陶 芸</w>
陳 列</w>
陥 れ</w>
除 け</w>
限 度</w>
限 っ</w>
闘 志</w>
関 わり</w>
間 近</w>
長 靴</w>
長 編</w>
野良 仕事</w>
野 獣</w>
重 症</w>
重 傷</w>
酸 性</w>
配 線</w>
配 っ</w>
適 合</w>
遠 足</w>
遠 出</w>
違 和</w>
進 呈</w>
連 なっ</w>
逢 い</w>
造 ら</w>
通り 過ぎる</w>
通り 抜け</w>
逆 巻く</w>
逃げ よう</w>
送 れる</w>
追 試</w>
追 撃</w>
近づ ける</w>
迎 え
辛 子</w>
転 移</w>
転 がり
身 元</w>
躊 躇</w>
踏み 外し</w>
踏み つけ</w>
足 労</w>
足 りる</w>
趣 旨</w>
貴 殿</w>
護 送</w>
譲 渡</w>
誤 字</w>
語 ら</w>
誇 る</w>
見 苦しい</w>
見 合わせ</w>
見 分ける</w>
見 なさ</w>
西 部</w>
褒め そ
褒 美</w>
補 強</w>
裏 庭</w>
表 われ</w>
衣 類</w>
蛇 口</w>
虚 偽</w>
薄 切り</w>
蒸 留</w>
落 札</w>
草 木</w>
自 在</w>
自 任</w>
膨 張</w>
腹 黒い</w>
腹 ばい</w>
胸 中</w>
背 広</w>
肺 胞</w>
考 察</w>
習 性</w>
罪 人</w>
繕 っ</w>
織 り</w>
繋 ぎ</w>
編 み</w>
絶 縁</w>
終わ れ</w>
紛 ら
納 税</w>
系 列</w>
粉 砕</w>
簡 略</w>
簡 易</w>
節 句</w>
管 制</w>
立ち 昇る</w>
立ち 上げ</w>
立ち こめる</w>
窮 地</w>
突き 破っ</w>
突 入</w>
空 調</w>
空 席</w>
積み 上げる</w>
秋 篠</w>
私 服</w>
私 情</w>
確 率</w>
硬 化</w>
破 滅</w>
知 覚</w>
眼 科</w>
眠 気</w>
眠 り込ん</w>
真っ 直ぐ</w>
目 線</w>
目 撃</w>
痛め つけ</w>
申し 込ん</w>
甲 斐</w>
産 地</w>
産 出</w>
産 む</w>
生 殖</w>
生 やし</w>
生 け
現 行</w>
玉 美</w>
率 先</w>
献 血</w>
狂 い</w>
父 方</w>
照 射</w>
照 りつけ</w>
潮 流</w>
漏 洩</w>
漁 業</w>
滞 り</w>
滑 走</w>
溢 れる</w>
湯 飲み</w>
温 和</w>
浮 き</w>
浜 辺</w>
浅 く</w>
流 失</w>
洞 穴</w>
泣 け</w>
治 水</w>
治 め</w>
治 まっ</w>
河 川</w>
汽 笛</w>
水 野</w>
水 増し</w>
気 晴らし</w>
母 国</w>
殺 し
歩き 回っ</w>
正 統</w>
止 めろ</w>
歌 わ</w>
欧 米</w>
模 索</w>
極 悪</w>
検 品</w>
梅 干し</w>
桂 林</w>
来 社</w>
条 例</w>
村 落</w>
村 人</w>
本 名</w>
未 払い</w>
朝 日</w>
朝 っぱら</w>
朗 らか</w>
有 し</w>
書き 換え</w>
書 簡</w>
書 ける</w>
曜 日</w>
暮 れる</w>
暗 闇</w>
晴れ 晴れ</w>
是 正</w>
春 秋</w>
易 い</w>
明 示</w>
明 瞭</w>
旧 友</w>
日 報</w>
旋 盤</w>
新 品</w>
敵 兵</w>
敬 虔</w>
救 命</w>
救 い
放 火</w>
改 定</w>
支 柱</w>
攪 乱</w>
摩 家</w>
摘 出</w>
揺 さ
援 護</w>
握 ら</w>
控 える</w>
接 合</w>
探 し
採 点</w>
捺 印</w>
捧 げる</w>
捕 らえる</w>
捉 え</w>
持ち 場</w>
拭 い</w>
押し 寄せる</w>
押し 付け</w>
抜け 出す</w>
抜け 出し</w>
投 合</w>
払 え</w>
手 品</w>
手 だて</w>
所 存</w>
成 年</w>
憶 え</w>
慰 問</w>
慣 習</w>
慌ただ しく</w>
愚 弄</w>
惹 き
惑 わす</w>
悲 しかっ</w>
悠 々</w>
恨 み
性 別</w>
怠 っ</w>
怠 け</w>
思い きり</w>
思 案</w>
忍 耐</w>
微 笑</w>
後 ず
往 事</w>
弾 ける</w>
強 奪</w>
引っ かかる</w>
延 安</w>
度 重なる</w>
幸 せ
幸せ 者</w>
年 始</w>
布 告</w>
工 具</w>
岩 石</w>
山 岸</w>
就 か</w>
少 なかっ</w>
小 指</w>
小 児</w>
尊 大</w>
寝 返り</w>
富 山</w>
容 姿</w>
宣 告</w>
定 食</w>
定 規</w>
学 院</w>
学 べ</w>
字 典</w>
子 羊</w>
奥 ゆ
大 志</w>
多 量</w>
多 め</w>
外 界</w>
外 人</w>
外 さ</w>
夕 べ</w>
塗 ら</w>
塑 像</w>
堅 持</w>
地 勢</w>
在 籍</w>
土 匪</w>
国 交</w>
因 果</w>
四 角</w>
噛 ま</w>
善 意</w>
善 い</w>
問 いただ
唐 辛子</w>
品 行</w>
和 やか</w>
告 知</w>
向 こう
吐 き</w>
名 残
同 胞</w>
同 社</w>
合 金</w>
叱 責</w>
可哀 想</w>
受け 持っ</w>
受 理</w>
取り除 き</w>
反 発</w>
原 作</w>
厚 意</w>
占 っ</w>
単 一</w>
卑 しい</w>
半 額</w>
北 米</w>
包 帯</w>
募 金</w>
募 る</w>
勝 る</w>
動 詞</w>
加 盟</w>
力 仕事</w>
前 例</w>
刻 苦</w>
刻 ま</w>
利 き</w>
利 い</w>
初 歩</w>
刈 る</w>
切り 開い</w>
分 化</w>
出来 上がっ</w>
出 土</w>
処 せ</w>
凍 っ</w>
公 募</w>
光 学</w>
兆 候</w>
優 しかっ</w>
債 券</w>
備 品</w>
傑 作</w>
偽 善</w>
値 上がり</w>
借 入</w>
信 者</w>
信 服</w>
供 述</w>
作り 出し</w>
作 詞</w>
作 男</w>
休 学</w>
伏 し</w>
仲 むつま
代 わる</w>
他 郷</w>
仕方 なく</w>
今 時</w>
人 選</w>
人 質</w>
人 的</w>
人 命</w>
中 立</w>
不 可</w>
下 等</w>
下 座</w>
一 足</w>
一 大</w>
ロマン チック</w>
レ ント</w>
レ ス
ル ゲン</w>
リウ ッド</w>
リ レー</w>
リ ゾ
リ ス</w>
ラ マン</w>
ラ オ</w>
ヨ ガ</w>
ユ ウ
モン ゴ
モンゴ ル</w>
ミ シ
ミ クロ</w>
マ イル</w>
ポスト カード</w>
ボ ーン</w>
ボ リュ
ボ ディー</w>
ホ イ
ベ ラ
ベ ツ</w>
プロダ クト</w>
プリン ター</w>
プラ ント</w>
プ チ
ブ リッジ</w>
フル ート</w>
フォル ダ</w>
フォ ー
ファ ス
ピア ス</w>
ビ ス
ヒ ール</w>
パ フェ</w>
パ ッケ
パッケ ージ</w>
パ チ</w>
バル ブ</w>
バ ジル</w>
バ ケツ</w>
バ カ
ハン ド
ハ リウッド</w>
ノ ン</w>
ノ ズル</w>
ニン ジン</w>
ドラ ララララ
ドラ イ</w>
トリ ウム</w>
トイ レット</w>
ト ーン</w>
ト ロ</w>
ディ アン</w>
テン ポ</w>
テン ツ</w>
テク ニック</w>
テ リア</w>
ッシ ュ
ッ キング</w>
チャー ハン</w>
チャ ート</w>
チ ビ</w>
チ ッ</w>
ダ ック</w>
タイ ル</w>
タ ント</w>
ソフト ボール</w>
スパ ゲ
スノー ボード</w>
スタジ オ</w>
スケ ッチ</w>
スキャ ン</w>
ス ロー</w>
ス リー</w>
ス ミン</w>
ジャン ル</w>
ジャ ンプ</w>
ジャ スミン</w>
ジェ ン
ジ ング</w>
シャ ン</w>
シナ リオ</w>
シド ニー</w>
シ ュ</w>
サラ リーマン</w>
サ ウ
ゴキ ブリ</w>
コンサル タント</w>
コン ペ</w>
コン テンツ</w>
コン テナ</w>
コ マ
グ レード</w>
クー ラー</w>
クロー ゼット</w>
ギャ ップ</w>
キャ ベツ</w>
キ ラ
キ ビ</w>
カロ リー</w>
カメ ラマン</w>
オー ケ
エ ロ
エ ア</w>
ウォー キング</w>
ウィ ン</w>
ウ ール</w>
インテ リ</w>
イ ヤ</w>
イ デ
イ オン</w>
アレ ルゲン</w>
アフ ター</w>
ア ーチ</w>
ア ンド</w>
ア プリ</w>
ア キ</w>
わだか まり</w>
わ ふわ</w>
る ん</w>
り 立て</w>
ら せる</w>
よ っ
よ そ
ゆ で</w>
ゆ がめ</w>
やや こ
やき も
やきも き</w>
や おや</w>
もく ろ
め よ</w>
め っちゃ</w>
め かしい</w>
む ち
む ず
まず く</w>
ま とう</w>
ま くり
ま くら</w>
ほ れ</w>
ほ め</w>
ほ とり</w>
へ ぇ</w>
ふ わふわ</w>
び やか</w>
ひと 時</w>
ぱ ら
ばか げ</w>
はた らく</w>
は だし</w>
は ぁ</w>
のぼ せ</w>
ののし る</w>
のぞ い</w>
の ー</w>
ぬ らし</w>
にわ か</w>
なん ぞ</w>
な い
ど の
と し</w>
と こし
とこし え</w>
と く
づ え</w>
つぶ れ</w>
つぶ さ
つぶさ に</w>
つか み
っぴ ら</w>
ちっ とも</w>
ち り
たく らみ</w>
たく た</w>
た れ</w>
た の
た どっ</w>
た ず
そそり 立っ</w>
ず る
すっぽ り</w>
すっ ごく</w>
すく すく</w>
すき 焼き</w>
す りゃ</w>
じ ろ</w>
しま わ</w>
し よっ</w>
し ぶ
し し</w>
ざ め</w>
さら っ</w>
ごちゃ ご
ごちゃご ちゃ</w>
ご とし</w>
この 頃</w>
こ む</w>
こ ども</w>
げん こつ</w>
け 目</w>
くぼ ん</w>
くだ り</w>
く む</w>
く たくた</w>
く そっ</w>
が み
が ね</w>
かかわ り</w>
かえ り</w>
か 国</w>
か まい</w>
か ぶり</w>
か げん</w>
か がめ</w>
か えっ</w>
か ぁ</w>
おし っこ</w>
おご っ</w>
おお っぴら</w>
お 袋</w>
お 洒落</w>
お ーい</w>
お む
お っしゃい</w>
お ち</w>
え 付け</w>
うるせ え</w>
う ま</w>
う ちわ</w>
いち ばん</w>
いか ける</w>
い こ</w>
あん ま</w>
あふれ 出る</w>
あちら こちら</w>
あず ま</w>
あこ がれ</w>
あ め</w>
あ せ</w>
r i
d i
a n</w>
W eb</w>
E E
A AA</w>
4 8</w>
20 13</w>
2 50</w>
６ ０</w>
１ ３</w>
０ ００</w>
鼻 血</w>
黒 雲</w>
鳴り 響い</w>
高 坂</w>
高 ぶっ</w>
騒が しく</w>
騒 々しい</w>
館 内</w>
養 育</w>
養 生</w>
飽 き
飢 饉</w>
食ら わす</w>
食ら わし</w>
食 後</w>
飛び 上がっ</w>
風 情</w>
風 土</w>
風 味</w>
願 望</w>
願 え</w>
額 面</w>
頑張 れよ</w>
頂 天</w>
音 頭</w>
音 痴</w>
青 色</w>
電 柱</w>
電 化</w>
電 動</w>
離 職</w>
雇 わ</w>
隠 蔽</w>
陰 気</w>
降ろ す</w>
阻 む</w>
開 業</w>
閉じ こもっ</w>
閉 館</w>
重 病</w>
重 慶</w>
酵 素</w>
連 盟</w>
途 絶え</w>
追い 払っ</w>
追い つめ</w>
追 いかける</w>
返 還</w>
轢 か</w>
軽 視</w>
転がり 落ち</w>
転 覆</w>
転 ぶ</w>
踏 ま</w>
跳 ん</w>
起き 上がっ</w>
起 立</w>
走り 回っ</w>
赤 ら
賞 賛</w>
賃 貸</w>
財 団</w>
豪 雨</w>
論 述</w>
論 断</w>
論 戦</w>
論 じる</w>
請 負</w>
誇 っ</w>
試 用</w>
証 言</w>
許 せ</w>
記 し</w>
託 し</w>
言い触 らし</w>
言い 争い</w>
言 行</w>
解 ける</w>
視 覚</w>
見せ ろ</w>
見 合っ</w>
見 上げ</w>
要 し</w>
西 湖</w>
西 側</w>
装 着</w>
行 く
血 栓</w>
蛍 光</w>
虐 殺</w>
薬 草</w>
薄 情</w>
著 しい</w>
荷 造り</w>
荒 く</w>
草 稿</w>
草 むら</w>
茶 道</w>
英 明</w>
苦 悩</w>
若 手</w>
芳 しい</w>
色 白</w>
色 合い</w>
艱 難</w>
良 さ</w>
舞い 上がっ</w>
致 死</w>
至 り</w>
自 習</w>
自 力</w>
腕 力</w>
联 合</w>
耳 障り</w>
耐 久</w>
繕 う</w>
繋 がる</w>
繋 がり</w>
縮 める</w>
縫 う</w>
編 纂</w>
編 み
締 切</w>
緑 化</w>
継 承</w>
経 緯</w>
細 め</w>
紙 くず</w>
精 度</w>
粗 野</w>
節 電</w>
符 号</w>
竹 ざお</w>
立ち 直
窮 まりない</w>
空き 地</w>
空 欄</w>
空 前</w>
私 用</w>
秀 麗</w>
祭 日</w>
磨 か</w>
確 固</w>
破 り</w>
石 ころ</w>
短 気</w>
知 名</w>
着 飾っ</w>
着 弾</w>
着 か</w>
眼 帯</w>
眼 差し</w>
真 新しい</w>
眉 毛</w>
直 立</w>
直 後</w>
盛り 上がる</w>
痛み 止め</w>
症 候</w>
疑 わしい</w>
田 舎
産 み</w>
生み 出す</w>
生 み</w>
甚だ しい</w>
猶 予</w>
猥 褻</w>
牽 引</w>
特 売</w>
物 腰</w>
物 流</w>
牧 畜</w>
燃え 盛る</w>
煮 込み</w>
照 合</w>
焼 却</w>
無 論</w>
無 茶</w>
無 職</w>
無 味</w>
無 名</w>
無 力</w>
瀬 戸
瀬戸 際</w>
激 烈</w>
溶 ける</w>
溶 かし</w>
溜 まっ</w>
満 々</w>
温 室</w>
温 まる</w>
温 か</w>
渦 巻き</w>
渡 航</w>
渡 り
減 速</w>
清 聴</w>
清 新</w>
添 える</w>
淹 れ</w>
涼 し</w>
浮か ば</w>
洋 々</w>
注 釈</w>
波 止
波止 場</w>
治 癒</w>
治 せ</w>
水 門</w>
水 彩</w>
気 付き</w>
毅 然</w>
殺 せ</w>
歪 曲</w>
歩 哨</w>
歩 ん</w>
欧 州</w>
欠 員</w>
横 切っ</w>
棚 卸</w>
格 闘</w>
根 元</w>
松 本</w>
来 期</w>
李 白</w>
未 練</w>
未 定</w>
木 綿</w>
望 遠</w>
有 頂天</w>
有 る</w>
書 こう</w>
暴 動</w>
暗 証</w>
景 品</w>
時 速</w>
時 価</w>
明 々</w>
昇 格</w>
昆 布</w>
日 系</w>
旅 程</w>
方 角</w>
新 郎</w>
新 疆</w>
新 兵</w>
新 任</w>
文 才</w>
文 壇</w>
敵 陣</w>
数 々</w>
敬 語</w>
散 策</w>
故 宮</w>
放 映</w>
攻め 落とし</w>
支 社</w>
撮 れ</w>
撃 た</w>
摘 発</w>
搭 載</w>
損 ない</w>
揺り 動かし</w>
換 金</w>
換 算</w>
描 け</w>
揃 い</w>
掲 げる</w>
探 せ</w>
排 気</w>
捕 ら
振り 回す</w>
指 令</w>
抽 選</w>
抽 象</w>
技 能</w>
承 っ</w>
打ち 破る</w>
手 すり</w>
扇 動</w>
戦 乱</w>
懐 中</w>
懐 かし</w>
憎 む</w>
慶 び</w>
慢 性</w>
態 勢</w>
思 春</w>
念 入り</w>
志 願</w>
心 行く</w>
心 情</w>
後ず さり</w>
後 継</w>
後 回し</w>
当て はまる</w>
弾 薬</w>
強 硬</w>
強 気</w>
引き 取る</w>
弊 害</w>
建 っ</w>
座 ら</w>
店 内</w>
床 板</w>
幼 年</w>
年 長</w>
平 野</w>
帰 郷</w>
市 内</w>
左 派</w>
峡 谷</w>
山 本</w>
履 く</w>
屋根 裏</w>
居 心地</w>
尽く せ</w>
少 量</w>
少 な</w>
小 林</w>
導 か</w>
対 比</w>
寺 院</w>
寸 前</w>
審 理</w>
富 貴</w>
寄せ 集め</w>
家 出</w>
家 内</w>
害 毒</w>
実 直</w>
実 権</w>
定 着</w>
学 級</w>
学 科</w>
学 力</w>
嫌 が
嫌が らせ</w>
嫁 入り</w>
婦 女</w>
威 信</w>
委 任</w>
如 才</w>
好 み
好み 焼き</w>
天 文</w>
大 喜び</w>
多 角</w>
外 資</w>
変 えよう</w>
声 楽</w>
増 水</w>
堆 積</w>
埋め 合わせ</w>
土 砂</w>
土 木</w>
土 台</w>
図 形</w>
困 窮</w>
団 地</w>
団 らん</w>
回 線</w>
四 肢</w>
噛 ん</w>
喜び勇 ん</w>
問い 詰め</w>
商 談</w>
商 法</w>
吹き つけ</w>
吐 か</w>
名 利</w>
名 づけ</w>
同 類</w>
同 然</w>
合 おう</w>
叶 わ</w>
叙 述</w>
受け 渡し</w>
受け 止める</w>
受け とっ</w>
取り 外し</w>
取り 上げる</w>
反 する</w>
厳 正</w>
博 多</w>
単 調</w>
単 球</w>
南 向き</w>
協 同</w>
卑 怯</w>
半 月</w>
匹 敵</w>
化 膿</w>
勲 章</w>
勝 てる</w>
効 い</w>
励 み</w>
助 成</w>
助 力</w>
加 わる</w>
前 触れ</w>
利 点</w>
利 己</w>
利 子</w>
分か れる</w>
出 掛ける</w>
冷 たかっ</w>
冷 える</w>
冷 え
再 建</w>
円 高</w>
内 政</w>
公 用</w>
全 局</w>
入り 込む</w>
党 派</w>
免 れる</w>
元 素</w>
優 勢</w>
催 す</w>
傑 出</w>
偽 造</w>
偽 っ</w>
修 練</w>
作 風</w>
作 柄</w>
余 剰</w>
何 色</w>
伝 わら</w>
企 ん</w>
企 て</w>
任 用</w>
付き添 い</w>
付 けろ</w>
人 為</w>
人 参</w>
交 代</w>
交 わり</w>
予 選</w>
亀 裂</w>
乳 製</w>
乗り 場</w>
乗り 切っ</w>
乗 務</w>
乗 せる</w>
主 管</w>
中 等</w>
中 世</w>
並 行</w>
並 々</w>
両 立</w>
不 滅</w>
不 屈</w>
下 さり</w>
下 がら</w>
上 陸</w>
万 引き</w>
一 律</w>
ワイ シャツ</w>
ロー レ
ローレ ライ</w>
レ ンス</w>
レ ツ</w>
リー ブ</w>
リッ パ</w>
リ セット</w>
ユーモ ラス</w>
ユ ー</w>
モ ール</w>
メ ル</w>
メ ル
ムカ つい</w>
ミ ッション</w>
ミ ステ
ミ シン</w>
マジ ック</w>
マ スト</w>
マ ガ
マ ウス</w>
ポー ト
ポ ーター</w>
ポ ン
ポ ッ
ボイ ラー</w>
ボ ジア</w>
ボ エ</w>
ホウ レン</w>
ヘリ コ
ヘリコ プター</w>
ヘ イ</w>
ヘ アー</w>
プロ ン</w>
プレ ート</w>
プライ バ
プライバ シー</w>
ブラン コ</w>
フロ ア</w>
フラン チャイ
フィ ン
ファイ ア</w>
ファ ベット</w>
フ ットボール</w>
ビデ オ
ビデオ テープ</w>
ビス ケット</w>
ビ リ
ヒ ト</w>
パ レード</w>
バド ミントン</w>
バイ オ</w>
ハッ ピー</w>
ハ ズ</w>
ニ ート</w>
ナ トリウム</w>
ド ント</w>
トー スト</w>
トン ボ</w>
チョ ーク</w>
チュ ア</w>
ダイ ジェ
ダ ブ
タ ワー</w>
ソー シャル</w>
ソフ ァ</w>
ソ ク</w>
ゼ ル</w>
セ ル
スポ ー
スカ イ</w>
ス リッパ</w>
ス ケー
ス ウェ
シャ ッター</w>
シ ロ
サー バ</w>
サラ サラ</w>
コン セント</w>
コミュニ ケ</w>
コ ペ
コ ノ
ゲ ージ</w>
クラ シック</w>
ク マ</w>
キュ ア</w>
ガイ ドブック</w>
ガ ラ</w>
ガ タ</w>
カン ボジア</w>
カッ ター</w>
カ トリック</w>
カ ギ</w>
オー ボエ</w>
オー クション</w>
オル ガン</w>
オペ ラ</w>
エ リート</w>
エ プロン</w>
エ ピ
エ ニ</w>
インフ レ</w>
イン パ
イル カ</w>
イタ チ</w>
イ ノ
アル ファベット</w>
アメリ カン</w>
アク セル</w>
ア ート</w>
んば ん
んばん は</w>
ん ぐり</w>
わめき 立てる</w>
わ く</w>
ろ きょ
ろきょ ろ</w>
ろ う
よろ よ
よろよ ろ</w>
よっ しゃ</w>
ゆ で
やむ なく</w>
やか ましく</w>
や ん
や ま
や ぼ
や ぶ</w>
や った</w>
もの のけ</w>
も て</w>
め かし</w>
む っと</w>
む か</w>
みずみず しい</w>
み だら</w>
まば たき</w>
まね く</w>
ほほえ ん</w>
ほっ そり</w>
ほ ー</w>
ほ し</w>
ほ ころ
ほ える</w>
ぷ り</w>
ぶちま ける</w>
ぶち のめ
ぶ どう</w>
ふ り
ふ けっ</w>
ふ か</w>
び っ</w>
ひっくり 返っ</w>
ぱら ぱ
ぱらぱ ら</w>
ぱ ん</w>
は ら</w>
は び
は ね
は ため
ね ね</w>
ぬ ぐい</w>
ぬ ぐ
に ゃあ</w>
に ゃ
なに なに</w>
なに とぞ</w>
なだ らか</w>
な ぞ
どの みち</w>
と たん</w>
と がめ</w>
て めえ</w>
て のひら</w>
づ か</w>
つら かっ</w>
つ じ
つじ つま</w>
つ かっ</w>
っ 張り</w>
ちゃ く</w>
ち どころ</w>
だ るま</w>
だ って</w>
だ し
だ さ</w>
たま れ</w>
たと える</w>
たく ましく</w>
た らし</w>
た ちどころ</w>
た ぐい</w>
そびえ 立っ</w>
そ で
せい ろう</w>
ず んぐり</w>
ず み</w>
ず っしり</w>
ず く</w>
ず お
ずお ず</w>
すれ すれ</w>
すば らしく</w>
すば し
すっ く
すっく と</w>
すご かっ</w>
す てん</w>
す すり
じろ じろ</w>
しょう ゆ</w>
し みる</w>
さし 込ん</w>
さ らし</w>
さ ざ
こと わざ</w>
こず え</w>
こう む
こ んばんは</w>
こ もり</w>
こ つ
こ ち
くつ ろい</w>
くそ ったれ</w>
く ち</w>
きら めく</w>
きょ ろきょろ</w>
きび きび</w>
き け</w>
が れる</w>
が な</w>
かわい かっ</w>
かし こ</w>
かか せる</w>
か こ
か ぎり</w>
か あ</w>
おん ぶ</w>
おも い</w>
お 好み焼き</w>
お ぼろ</w>
お ずおず</w>
お し</w>
え らい</w>
え えと</w>
うか がう</w>
う け</w>
いかが わしい</w>
い ま
あ まねく</w>
あ だ</w>
te r</w>
t ing</w>
t h</w>
rn ing</w>
l e
e n</w>
c h
Z E</w>
P D
P C</w>
O J
OJ O</w>
J OJO</w>
FR EE
FREE ZE</w>
3 3</w>
2 9</w>
Ｃ Ｄ</w>
麻 雀</w>
高 所</w>
驚 かさ</w>
騒が しい</w>
駐 屯</w>
駆け つける</w>
駆け ずり</w>
首 尾</w>
飽き 飽き</w>
飲み 食い</w>
食い しば
食 感</w>
頑張 れる</w>
靴 ひも</w>
霧 雨</w>
震 災</w>
電 信</w>
雪 かき</w>
雨 量</w>
雨 天</w>
雑 多</w>
雇 う</w>
雄 弁</w>
隠 滅</w>
隠 れる</w>
隠 そう</w>
陸 揚げ</w>
陰 干し</w>
陥 り</w>
降 雨</w>
防 犯</w>
防 災</w>
防 ぎ</w>
防 が</w>
開 閉</w>
開 通</w>
開 花</w>
長 征</w>
長 じ</w>
銀 色</w>
銀 座</w>
鉄 棒</w>
鉄 板</w>
釣 り合っ</w>
金 髪</w>
重 力</w>
酷 く</w>
酔 う</w>
酒 席</w>
選び 出し</w>
適 宜</w>
遊 撃</w>
遊 ぼう</w>
遅 かれ</w>
連 鎖</w>
連 係</w>
連 なる</w>
途 方</w>
退 却</w>
退 く</w>
追い 込ま</w>
追い 求める</w>
迷 わ</w>
近 頃</w>
近 隣</w>
近 郊</w>
近 視</w>
農 地</w>
辞 めよう</w>
辛 辣</w>
軽 食</w>
軍 服</w>
車 内</w>
身 寄り</w>
蹴 り</w>
踏み に
踊 り
跳び はね</w>
足 並み</w>
越 さ</w>
起 隆</w>
起 訴</w>
賞 品</w>
賜 わり</w>
貼 り
買い 入れる</w>
負 かし</w>
識 字</w>
講 じる</w>
論 じ</w>
誤 ら</w>
誓 う</w>
試 算</w>
評 語</w>
討 伐</w>
言い 表
言い 聞
言い 争う</w>
観 賞</w>
視 界</w>
規 準</w>
見積 もる</w>
見 開い</w>
見 れる</w>
見 やる</w>
覆 す</w>
要 害</w>
襲 う</w>
裏 切っ</w>
装 う</w>
裁 定</w>
衰 弱</w>
表 する</w>
落ち 込む</w>
茂 る</w>
苦 境</w>
芸 能</w>
花 びら</w>
色 鮮やか</w>
良 き</w>
興 す</w>
腕 白</w>
脱 獄</w>
脚 本</w>
背 か</w>
胃 腸</w>
肩 こり</w>
肥 やし</w>
肝 炎</w>
聖 書</w>
耕 す</w>
考 案</w>
羽 目</w>
美味 い</w>
置 け</w>
縛 ら</w>
緑 豆</w>
緊 迫</w>
継 い</w>
絵 の
絵の 具</w>
統 制</w>
給 油</w>
結 託</w>
経 る</w>
純 潔</w>
納 める</w>
粉 末</w>
節 回し</w>
算 数</w>
端 数</w>
竜 江</w>
立て 替え</w>
立ち 回る</w>
立ち 上がり</w>
立 証</w>
突 飛</w>
積 ま</w>
移 管</w>
私 有</w>
私 利</w>
禁 物</w>
神 奈
神奈 川</w>
確 証</w>
砲 撃</w>
石 碑</w>
知 力</w>
知 った
知った か</w>
着 払い</w>
眠 ら</w>
眠 かっ</w>
相 棒</w>
直 径</w>
直 射</w>
目 隠し</w>
目 立ち</w>
盆 地</w>
皿 洗い</w>
白 衣</w>
白 血</w>
白 人</w>
発 砲</w>
発 つ</w>
痛 ましい</w>
病 床</w>
疾 駆</w>
疑 念</w>
異 変</w>
画 鋲</w>
甲 状</w>
甲 子</w>
産 物</w>
生まれ 変わっ</w>
生 える</w>
甘や かさ</w>
甘 肅</w>
理 知</w>
理 念</w>
現 わす</w>
王 朝</w>
独り 言</w>
独 学</w>
犯 さ</w>
特 大</w>
物 語っ</w>
片 思い</w>
爽 やか</w>
熱 気</w>
熱 愛</w>
照 会</w>
焼き 肉</w>
焼 か</w>
無 言</w>
無 断</w>
点 々</w>
炒 め
炊 く</w>
灰 皿</w>
潰 れ</w>
潤 い</w>
潑 春</w>
漠 然</w>
演 芸</w>
漁 船</w>
溶 液</w>
溶 け
満 員</w>
渡 ら</w>
清 い</w>
深 遠</w>
涼 風</w>
海 賊</w>
浅 薄</w>
浅 草</w>
浄 化</w>
流 し
洗 練</w>
注 ぎ
油 絵</w>
沈 着</w>
沈 み</w>
決 めよう</w>
池 袋</w>
氾 濫</w>
気 流</w>
民 法</w>
毛 布</w>
殴 り</w>
残 存</w>
正 門</w>
欺 く</w>
機 内</w>
標 的</w>
楽し もう</w>
楽 譜</w>
棚 卸し</w>
格 付け</w>
校 則</w>
査 定</w>
架 け
架け 橋</w>
果た さ</w>
来 ん</w>
杉 本</w>
末 路</w>
朝 ご飯</w>
望 ま</w>
有 限</w>
有 罪</w>
有 望</w>
月 日</w>
書き 込む</w>
曲 折</w>
曲 がり</w>
暴 か</w>
暗 示</w>
明 記</w>
明 日
早 退</w>
早 かれ</w>
日 陰</w>
日 東</w>
日 当たり</w>
新 築</w>
新 潟</w>
新 橋</w>
新 山</w>
敷 き
敵 わ</w>
敢 然</w>
教 学</w>
教 わり</w>
敏 捷</w>
放 出</w>
放 任</w>
攻 め</w>
撤 回</w>
搾 り
握り 締め</w>
掴 ん</w>
推 理</w>
探 究</w>
採 集</w>
掘り 出し</w>
捜し 求め</w>
振り 向か</w>
振 替</w>
挟 まっ</w>
挙 動</w>
挑 む</w>
拳 銃</w>
招 集</w>
招 か</w>
押し 合い</w>
抹 茶</w>
抜け 目</w>
投げ かけ</w>
扶 養</w>
打ち 負かす</w>
打 開</w>
才 気</w>
手伝 わ</w>
手 出し</w>
手 はず</w>
手 の
戸惑 っ</w>
成し 遂げる</w>
成 約</w>
懇 親</w>
憎 ん</w>
愛 しい</w>
愚 昧</w>
惜 しん</w>
惜 し</w>
悲 鳴</w>
悩 ま</w>
悟 っ</w>
息 切れ</w>
恥ず かしかっ</w>
恥 ず</w>
恐 る</w>
急 遽</w>
急 用</w>
急 げ</w>
思い 込み</w>
怒 鳴り
徴 兵</w>
得 失</w>
役 立っ</w>
当 分</w>
張り 切っ</w>
引き裂 い</w>
引き 連れ</w>
弁 舌</w>
建 国</w>
延 々</w>
店 主</w>
平 面</w>
平 衡</w>
平 然</w>
平 易</w>
常 連</w>
帰 還</w>
帰 し</w>
市 街</w>
市 名</w>
差し 伸
左 足</w>
巡 る</w>
巡 らす</w>
巡 らし</w>
峰 々</w>
山 林</w>
山 地</w>
山 中</w>
屈 し</w>
導 き
専 業</w>
対 話</w>
対 岸</w>
寝 ぼけ</w>
寄り添 っ</w>
寄 宿</w>
宴 席</w>
害 する</w>
客 室</w>
客 先</w>
実 地</w>
完 備</w>
安 静</w>
守 ろう</w>
学 説</w>
存 亡</w>
子 育て</w>
子 女</w>
媒 介</w>
妖 怪</w>
奇 数</w>
太 刀
大 脳</w>
大 理</w>
大 火</w>
多 用</w>
夕 暮れ</w>
夕 ご飯</w>
変わ り
変 換</w>
声 優</w>
壊 れる</w>
壁 紙</w>
墜 落</w>
報 復</w>
垂 直</w>
均 一</w>
地 中</w>
国 連</w>
国 立</w>
国 営</w>
国 務</w>
国 債</w>
囚 人</w>
啓 蒙</w>
商 社</w>
品 番</w>
品 格</w>
哀れ み</w>
和 食</w>
呼び 出さ</w>
呪 文</w>
告 げ
告げ 口</w>
吹き 込ん</w>
吹 かす</w>
吸 引</w>
吸 おう</w>
否 認</w>
名 高い</w>
名 付け</w>
吉 日</w>
各 界</w>
叱 ら</w>
台 なし</w>
叩 き
口 語</w>
口 汚く</w>
受け 持つ</w>
受 話</w>
取り締 まる</w>
取り 揃え</w>
取り 仕
収 納</w>
収 まっ</w>
友 田</w>
参 謀</w>
去 勢</w>
原 油</w>
即 死</w>
危 難</w>
危 急</w>
危 なかっ</w>
半 島</w>
区 分</w>
化 し</w>
包 括</w>
動 悸</w>
勉 学</w>
労 力</w>
助け 合い</w>
創 始</w>
割り 当てる</w>
前 髪</w>
刺 繍</w>
初 頭</w>
初 日の出</w>
分け 前</w>
分 かち
出 逢
出 没</w>
出 店</w>
出 向い</w>
凝 らし</w>
冷 淡</w>
冥 福</w>
内 輪</w>
八つ 当たり</w>
入り 組ん</w>
入 部</w>
入 党</w>
党 内</w>
免 じ</w>
先 鋒</w>
先 入</w>
先 住</w>
元 々</w>
傷 つき</w>
停 留</w>
借 用</w>
供 し</w>
使い 道</w>
低 迷</w>
低 俗</w>
低 かっ</w>
伝 来</w>
伝 導</w>
仰 る</w>
代 える</w>
付 与</w>
仕事 場</w>
今 さら</w>
交 番</w>
亡 命</w>
事 跡</w>
乾 く</w>
乗り 込ん</w>
乗 れる</w>
中 枢</w>
中 山</w>
両 腕</w>
不 全</w>
下 降</w>
下 り
上 限</w>
万 歳</w>
一 眠り</w>
一 服</w>
一 休み</w>
ー す</w>
ワー ワー</w>
ワー ク
ワイ ヤー</w>
ロ ジー</w>
レン ガ</w>
レ る</w>
ル ーズ</w>
ル ン
リモ コン</w>
リゾ ート</w>
リス ニング</w>
ラ バ</w>
ラ ッシュ</w>
モー ター
モ ル
モ チ</w>
メ ロン</w>
メ ット</w>
メ ジャー</w>
メ カ
ム リ</w>
ミュージ ック</w>
ミ ニ</w>
ポ ロ</w>
ボリュ ーム</w>
ボ ル</w>
ボ ル
ベー コン</w>
ヘル メット</w>
プロ モーション</w>
プリン セス</w>
プ ラン
プ ラ</w>
ブラ ック
ブ リーフ</w>
ブ ッ</w>
ブ チ
フライ パン</w>
フェ リー</w>
ファス ナー</w>
ファシ スト</w>
ファイ バー</w>
フ フ</w>
ピー ナッツ</w>
ピア ニスト</w>
ピ ーク</w>
ビ ッグ</w>
ヒ ステ
パー マ</w>
パイ ナッ
パイナッ プル</w>
パ ッ</w>
パ チ
バー ス
バー ゲン</w>
バル コ
バルコ ニー</w>
バイ ト
バ ンク</w>
バ ッ</w>
ハマ っ</w>
ハッ キリ</w>
ハ ロー</w>
ハ ロ
ノ リ</w>
ネ ギ</w>
ネ ガ
ネガ ティブ</w>
ヌ ー
ヌ ケ</w>
ニ ヤ
ニ エンス</w>
ド ーム</w>
ド リンク</w>
トラ ンド</w>
ディスカ ウント</w>
デ ッキ</w>
テ ラス</w>
テ ス</w>
ツ ル</w>
ッ ティ</w>
チク ショウ</w>
ダイジェ スト</w>
ダイ ア
ター ビン</w>
セ クション</w>
セ ク
ステ キ</w>
スタジ アム</w>
スイ ス</w>
ス パイ
ス ニ
ス チーム</w>
ス チャー</w>
ス キャン
ジュ アル</w>
ジェ スチャー</w>
ジ ラ</w>
ジ カ</w>
シェ フ</w>
シ ミュ
シ ッ
サー カス</w>
サン ダル</w>
サ ブ</w>
サ ックス</w>
サ ス</w>
サ サイズ</w>
サ ケ</w>
ゴ ク
コー ポ
コー ディ
コンビ ニエンス</w>
コロ ン
コ マ</w>
コ ツ
コ オロ
コオロ ギ</w>
コ ウ</w>
ゲ スト</w>
ケ ル</w>
グー グー</w>
クラ ゲ</w>
クイ ズ</w>
ク レー
ク ッション</w>
ク ジラ</w>
キャ ップ</w>
キャ ッ
キ レ</w>
ガ タン</w>
カ 国</w>
カ ート</w>
カ ズ</w>
カ イ
オー ディ
オロ ギー</w>
オリ エン
オ メー</w>
エン ジェル</w>
エク ササイズ</w>
エ ロ</w>
エ ッ
ェ ル</w>
ウン サー</w>
イン チ</w>
イデ オロギー</w>
イ ー</w>
ィ ィ
アナ タ</w>
アナ ウンサー</w>
ア ロ
ア マ</w>
ア ハ
ア シ</w>
わ りつい</w>
わ ち</w>
り り
ら しめ</w>
よこ しま</w>
よい しょ</w>
よ も
よも やま
よもやま 話</w>
よ ど
よ から</w>
ゆで 卵</w>
やり 直す</w>
やせ こけ</w>
やす かっ</w>
や かく</w>
もと より</w>
も つれ</w>
も い</w>
め っき</w>
め し</w>
め くっ</w>
むず む
むずむ ず</w>
みや げ</w>
み つける</w>
み じん</w>
ま じ</w>
ま か</w>
ぼ ら</w>
ほう り出し</w>
ほ じ
ほ え</w>
へ つ
へつ らう</w>
ぶつ から</w>
ぶ り
ぶ ち</w>
ふ っ</w>
び 割れ</w>
ひざ まずい</w>
ひ まわり</w>
ひ び割れ</w>
ひ っぱ
ぱ ち
ば せ</w>
は ーい</w>
は ねる</w>
は に
のろ のろ</w>
ね ぎ</w>
に ん
なら ず
ならず 者</w>
なお す</w>
なお さら</w>
な わち</w>
ど しゃ
とど まっ</w>
と やかく</w>
と ばり</w>
と がっ</w>
で ーす</w>
つる し</w>
つな が</w>
つき あう</w>
つか ま</w>
つ んざ
つ ながら</w>
つ づ
つ う</w>
っ さり</w>
ちょ ろい</w>
ちゃ おう</w>
ち び</w>
ち く
ち ぎっ</w>
たん ぱく</w>
た け
そびえ 立つ</w>
そび える</w>
そび え</w>
そそ る</w>
そ く</w>
せ り
す なわち</w>
す くっ</w>
じょ う
じゃ がい
じゃがい も</w>
じゃ う</w>
じ て</w>
しま おう</w>
し ぶき</w>
さ み
さ び
さ ながら</w>
さ ておき</w>
さ さ</w>
さ げ</w>
さ ぎ</w>
こわ ばら</w>
こ み
こ ねる</w>
けち ん坊</w>
け し
ぐ し</w>
くる っ</w>
くる くる</w>
くつろ ぎ</w>
くたび れ</w>
くたば っ</w>
くしゃ み</w>
く ーん</w>
く も</w>
く た</w>
ぎ り
きら びやか</w>
きょ う</w>
き れる</w>
き まり
き まっ</w>
が ける</w>
かん ぬき</w>
かわ いく</w>
から から</w>
かす め
かこ つけ</w>
かい つまん</w>
か ろう</w>
か なた</w>
か じ</w>
おむ つ</w>
おの おの</w>
おお せ</w>
お 下げ</w>
え ん</w>
え こ</w>
うら や
う ーん</w>
う つつ</w>
う さぎ</w>
う がい</w>
う かつ</w>
いで たち</w>
いた たまれ</w>
い ん</w>
い える</w>
あり ゃあ</w>
あ わ
あ ける</w>
あ がる</w>
あ がり</w>
b u
a s
O K</w>
N K</w>
C C</w>
4 000</w>
3 8</w>
200 7</w>
2 6</w>
1 20</w>
1 200</w>
1 2
00 2</w>
４ ０</w>
鼻 息</w>
黙 認</w>
黒 竜江</w>
麻 美子</w>
麻 子</w>
麦 畑</w>
鳴 ら</w>
鳥 獣</w>
魚 介</w>
高 遠</w>
高 林</w>
高 低</w>
馬 力</w>
香 料</w>
食いしば っ</w>
食 卓</w>
飛び 越え</w>
風 向き</w>
風 力</w>
願い 事</w>
願 わ</w>
顔 向け</w>
題 名</w>
頼も しい</w>
頑 迷</w>
音 量</w>
音 符</w>
鞭 撻</w>
面 影</w>
青 筋</w>
青 森</w>
震 わせ</w>
離 脱</w>
離 散</w>
雄 鶏</w>
雄 々しく</w>
際 立た</w>
随 行</w>
随 意</w>
隊 員</w>
険 しく</w>
陳 情</w>
陰 口</w>
降 伏</w>
防 護</w>
閉 会</w>
長 続き</w>
長 引い</w>
長 崎</w>
長 かっ</w>
鉢 植え</w>
鉄 条</w>
野 良</w>
重 み</w>
酸 っぱい</w>
配 給</w>
配 管</w>
郷 鎮</w>
選 考</w>
違 わ</w>
過ぎ れ</w>
過 多</w>
運 河</w>
進 級</w>
連れ 合い</w>
連 載</w>
連 発</w>
連 動</w>
通 帳</w>
透 き
逃 さ</w>
送 ろう</w>
退 部</w>
退 勤</w>
退 い</w>
追い 越し</w>
追い 払う</w>
追 記</w>
追 究</w>
追 悼</w>
返 ら</w>
辛 酸</w>
軽 度</w>
軽 んじる</w>
転 じ</w>
軍 閥</w>
軍 民</w>
躍 進</w>
跡 継ぎ</w>
超 越</w>
貼 る</w>
費 やす</w>
買い 求め</w>
貶 す</w>
貰 う</w>
貯 める</w>
責 務</w>
貧 血</w>
貧 民</w>
譲 り
謙 遜</w>
諸 表</w>
諸 葛</w>
論 評</w>
説 く</w>
誤 る</w>
語 気</w>
誘 拐</w>
試 供</w>
言い 掛かり</w>
言い 張っ</w>
言 づけ</w>
解 読</w>
解 説</w>
解 剖</w>
解 ら</w>
解 か</w>
観 覧</w>
親 愛</w>
親 善</w>
見逃 す</w>
見逃 さ</w>
見つ める</w>
見 込ま</w>
見 破る</w>
見 失っ</w>
見 失う</w>
見 向き</w>
見 出し</w>
覇 権</w>
覆い 隠し</w>
要 衝</w>
要 職</w>
要 綱</w>
褒め たたえる</w>
複 合</w>
裏 返し</w>
裏 切ら</w>
裂 け目</w>
表 皮</w>
表 決</w>
衝 動</w>
行く 手</w>
行き 先</w>
血 糖</w>
薄 暗く</w>
薄 ら
葬 儀</w>
著 しく</w>
落ち 度</w>
落 書き</w>
華 麗</w>
華 北</w>
荒れ 狂う</w>
茶 色</w>
苦 しかっ</w>
芽 生え</w>
花 輪</w>
船 員</w>
舞 踊</w>
自 演</w>
臨 む</w>
膨れ 上がっ</w>
膨 大</w>
膨 ら
腹 立
脱 走</w>
脱 し</w>
能 動</w>
背 き</w>
肉 まん</w>
聞き 取る</w>
聞 こう</w>
耐 性</w>
考え 込ん</w>
老 後</w>
習 字</w>
翌 月</w>
羽 毛</w>
美 女</w>
羊 飼い</w>
羊 毛</w>
置き 去り</w>
繰り 返さ</w>
繋 い</w>
繁 雑</w>
繁 華</w>
縮 ん</w>
縮 め</w>
縮 こ
縦 横</w>
縛 る</w>
縛 っ</w>
練 る</w>
総 称</w>
絶 大</w>
絶 つ</w>
絞 り</w>
結び 目</w>
組 立</w>
紫 外</w>
索 引</w>
素晴 らしく</w>
素晴 しい</w>
粘 土</w>
節 介</w>
策 定</w>
筋 金</w>
筆 箱</w>
笑 える</w>
競 う</w>
立 法</w>
突き 合わせ</w>
突 進</w>
突 発</w>
空 洞</w>
空 ける</w>
究 明</w>
積 荷</w>
稽 古</w>
稲 妻</w>
秘 訣</w>
福 島</w>
禍 根</w>
社 屋</w>
社 外</w>
硝 煙</w>
砲 声</w>
砕 く</w>
砕 い</w>
研 ぐ</w>
知 人</w>
知 らさ</w>
眼 球</w>
真 偽</w>
省 略</w>
直 属</w>
直 っ</w>
目 障り</w>
目 録</w>
目 盛り</w>
目 ざし</w>
盛り 上げる</w>
盗 品</w>
白 黒</w>
白 雲</w>
発 育</w>
発 揚</w>
発 ち</w>
痩 せる</w>
痛 感</w>
痛 める</w>
病 後</w>
病 ん</w>
病 み
疫 病</w>
疎 遠</w>
疎 い</w>
畳 ん</w>
畳 む</w>
留 年</w>
申し 立て</w>
生 臭い</w>
生 育</w>
特 製</w>
特 権</w>
煩 わしい</w>
煙 霧</w>
焼け つく</w>
無駄 遣い</w>
無 鉄砲</w>
無 私</w>
点 滴</w>
炭 鉱</w>
炭 酸</w>
潰 し</w>
潜 り込ん</w>
潜 っ</w>
満 了</w>
渉 外</w>
渇 望</w>
混 ざ
消 去</w>
消 えろ</w>
海 関</w>
浴 室</w>
浮き 浮き</w>
流れ 星</w>
流 量</w>
活 かす</w>
注 ぎ</w>
波 紋</w>
法 規</w>
治 せる</w>
沸 かす</w>
沸 い</w>
決め つけ</w>
江 南</w>
永 く</w>
水 産</w>
水 槽</w>
水 上</w>
水 かさ</w>
気 高い</w>
気 遣っ</w>
母 方</w>
殴り 合い</w>
歯 切れ</w>
歯 ぎ
歯ぎ しり</w>
正 銘</w>
正 真</w>
正 しかっ</w>
止 む</w>
次 男</w>
次 い</w>
欠 かさ</w>
機 転</w>
橋 渡し</w>
横 柄</w>
概 算</w>
楽 団</w>
業 種</w>
検 診</w>
植 樹</w>
森 下</w>
栄 転</w>
栄 光</w>
査 収</w>
染 まる</w>
枯 れ
来 よう</w>
材 木</w>
本 位</w>
未 知</w>
朗 々</w>
最 寄</w>
替 わり</w>
替 わっ</w>
書 生</w>
暴 走</w>
晩 餐</w>
時 事</w>
時 おり</w>
春 雨</w>
春 休み</w>
映 る</w>
星 雲</w>
昔 話</w>
明日 香</w>
昇 給</w>
日 経</w>
日 和
日和 見</w>
施 さ</w>
方 形</w>
断 言</w>
断 片</w>
断 わっ</w>
斬 首</w>
散ら ばっ</w>
政 界</w>
改 装</w>
支払 え</w>
擬 人</w>
擦り むい</w>
擁 護</w>
撲 滅</w>
撃 ち
携 わる</w>
携 え</w>
搬 送</w>
損 なっ</w>
描 こう</w>
描 き出し</w>
採 り</w>
授 ける</w>
捕 る</w>
捕 っ</w>
捉 える</w>
振る っ</w>
振り 回さ</w>
振 興</w>
持ち 込む</w>
持ち 物</w>
持ち 歩い</w>
持ち 帰っ</w>
持ち 出さ</w>
持 病</w>
拾 い上げ</w>
拡 散</w>
拘 禁</w>
拇 印</w>
押し つけ</w>
抱き 合っ</w>
抱 え
折り 紙</w>
折 衷</w>
投 下</w>
抑 えつける</w>
打ち 鳴らす</w>
打ち 明け</w>
打 倒</w>
打 てる</w>
手間 取っ</w>
手 首</w>
手 遅れ</w>
手 堅い</w>
手 上げ</w>
手 づる</w>
扁 桃</w>
戦 死</w>
成り 立た</w>
憧 れる</w>
憑 き</w>
憂 慮</w>
慎 み</w>
慌 ただしい</w>
感 化</w>
愚 鈍</w>
想 っ</w>
惑 星</w>
悲 観</w>
悲 痛</w>
悪 行</w>
悪 用</w>
悟 る</w>
悔 やん</w>
恨み 言</w>
恨 ま</w>
恐 る
恋 しく</w>
怪 物</w>
性 欲</w>
性 分</w>
性 交</w>
急 増</w>
急 場</w>
思い 起こす</w>
思 慮</w>
怒 鳴っ</w>
怒 濤</w>
応 接</w>
忍 び
心 ゆく</w>
後 世</w>
当て こ
当 期</w>
当 惑</w>
弾 力</w>
引っ 込め</w>
引っ 込み</w>
引き 込ま</w>
引き 締め</w>
弁 明</w>
廃 品</w>
庇 護</w>
広 西</w>
年 季</w>
年 収</w>
年 がら</w>
平 手</w>
干 し
差し 込む</w>
差し 引い</w>
属 性</w>
屈 折</w>
居 間</w>
封 印</w>
寝 込ん</w>
寛 容</w>
寄り 道</w>
容 態</w>
実 り</w>
実 っ</w>
定 時</w>
定 まら</w>
安 売り</w>
安 否</w>
安 ら
学 食</w>
学 長</w>
威 張っ</w>
好 ましく</w>
女 装</w>
奪い 取る</w>
奪 取</w>
奪 い</w>
奇 襲</w>
奇 抜</w>
失 神</w>
太刀 打ち</w>
天 真</w>
天 体</w>
天 ぷら</w>
大人 しく</w>
大 風</w>
大 軍</w>
大 腸</w>
大 物</w>
夜更 け</w>
夜 道</w>
多 けれ</w>
外 敵</w>
変 形</w>
売り 渡す</w>
壮 麗</w>
増 減</w>
増 やさ</w>
塹 壕</w>
堅 実</w>
執 っ</w>
埠 頭</w>
垂 らし</w>
坊 や</w>
坂 上</w>
在 宅</w>
国 歌</w>
国 有</w>
国 旗</w>
国 々</w>
固 い</w>
図 案</w>
図 ら</w>
囲 碁</w>
囲 む</w>
囲 み</w>
回り 道</w>
四 十</w>
噛 み
嗅 覚</w>
営 ん</w>
喪 失</w>
問いただ す</w>
唯 物</w>
和 解</w>
和 平</w>
吹っ 飛ん</w>
向き 合う</w>
名 残</w>
名 士</w>
同 調</w>
各 位</w>
右 翼</w>
台 詞</w>
台 数</w>
只 今</w>
叩 い</w>
古 着</w>
古 書</w>
古 文</w>
口 当たり</w>
受け継 い</w>
収 拾</w>
参 っ</w>
即 売</w>
単 価</w>
南 側</w>
千 鶴</w>
医 薬</w>
医 科</w>
区 画</w>
化 け
勾 配</w>
勝ち 負け</w>
勝 た</w>
動 植物</w>
効 き</w>
労 災</w>
励 まさ</w>
助け 合う</w>
加 藤</w>
前 期</w>
削 る</w>
刻 み</w>
別 紙</w>
別 名</w>
別 れ
初 級</w>
初 旬</w>
刑 罰</w>
刑 法</w>
切 らし</w>
刃 物</w>
出来 上がる</w>
出く わす</w>
出 題</w>
出 向</w>
出 会える</w>
出 ろ</w>
凡 庸</w>
冷 水</w>
冊 子</w>
円 盤</w>
円 形</w>
内 科</w>
典 故</w>
共 生</w>
公 文</w>
公 布</w>
入 団</w>
免 職</w>
充 満</w>
働き 者</w>
働き かけ</w>
偶 数</w>
健 勝</w>
偏 屈</w>
偏 っ</w>
倒 せ</w>
個 数</w>
個 体</w>
修 士</w>
修 了</w>
保 母</w>
使 節</w>
使 おう</w>
併 用</w>
何 語</w>
体 型</w>
佐 藤</w>
伺 えれ</w>
伊 東</w>
任 期</w>
任 さ</w>
仰 い</w>
代 謝</w>
代 物</w>
代 わ
代わ る
代わる 代わる</w>
仕 上がり</w>
介 さ</w>
人 相</w>
人 混み</w>
人 権</w>
交 付</w>
亡く なら</w>
二 人
事 績</w>
了 見</w>
乳 首</w>
乞 食</w>
久 しい</w>
主 演</w>
中 編</w>
中 期</w>
中 日</w>
中 川</w>
並 外れ</w>
両 家</w>
不 朽</w>
不 慣れ</w>
不 吉</w>
不 作</w>
下 水</w>
下 りる</w>
万 年</w>
丁 重</w>
一人 っ子</w>
一 行</w>
一 縷</w>
一 新</w>
一 山</w>
一 堂</w>
一 向</w>
一 丸</w>
ヶ 国</w>
ン ソン</w>
ン シップ</w>
ン グ
ワ ナ</w>
ワ ット</w>
ワ シン
ワシン トン</w>
ワ シ</w>
ワ ザ
ロ イヤ
レス ラー</w>
レ ージ</w>
レ ル</w>
レ ム</w>
リー ナ</w>
リ ック</w>
リ ズ
リ ウム</w>
ライ ン
ライ ター</w>
ラ ック</w>
ラ ス
ユ キ</w>
ヤ ッ
モーター ボート</w>
モテ カ
モ モ</w>
メン ツ</w>
メモ リー</w>
メカ ニズム</w>
メ バチ</w>
メ イト</w>
メ ア
ミネ ラル</w>
ミステ リー</w>
ミ ッシ
ミッシ ェル</w>
ミ カル</w>
マー ジャン</w>
マネ ージ
マニ キュア</w>
マスコ ミ</w>
マガ ジン</w>
マイ ケル</w>
マ ネ</w>
マ ヌケ</w>
マ ップ</w>
マ ク
ポート フォ
ポートフォ リオ</w>
ポリ シー</w>
ポ ーカー</w>
ポ ップ</w>
ポ エ
ボー ナス</w>
ボク シング</w>
ホ ワイ
ベン チャー</w>
ベ ルギー</w>
ヘッド ホン</w>
プレ ミ
プレ ス</w>
プラ ット
プ ット</w>
ブリ キ</w>
ブ ーツ</w>
ブ タ</w>
フライ ド</w>
フェ スティ
フェスティ バル</w>
フィ ールド</w>
フィ ア</w>
フ ー</w>
フ レン
ビ ーフ</w>
ビ リティ</w>
ヒ ュー</w>
ヒ ト
パチ パチ</w>
パ ニ
バイ ヤー</w>
バ トル</w>
バ グ
ハイ テ
ハイテ ク</w>
ハ ード</w>
ハ ー</w>
ハ ガキ</w>
ノ ン
ニ ャ</w>
ニ カル</w>
ナ リ</w>
ドキュ メン
ド リ</w>
ド ジ</w>
トラン ペット</w>
ト レ</w>
ト カ
ディー ラー</w>
デ ル
デ ッド</w>
デ ックス</w>
デ ッ
デ スク</w>
テイ ク
テ ール</w>
ツ ツ
チーム ワーク</w>
チュ ーブ</w>
チ ー</w>
ダイヤ ル</w>
ダ ッ</w>
タバ タ</w>
タイ ピング</w>
タ レ</w>
タ リ</w>
ゾ ーン</w>
ゾ ン</w>
ソー ダ</w>
ソ 連</w>
ソ ング</w>
ソ ウ</w>
ゼ ン
ゼ ネ
ステ ン
スキャン ダル</w>
ス ル</w>
ス リ</w>
ス ッ</w>
ジョ ブ</w>
シン ボル</w>
シロ ップ</w>
ショ ウ
シミュ レーション</w>
シカ ゴ</w>
ザー ザー</w>
サー チ</w>
サイ パン</w>
サ ロン</w>
サ ブ
サ トウ</w>
サ ク</w>
ゴ ル
コー ティング</w>
コン パス</w>
コ ラ
コ イ</w>
グ アイ</w>
ク ビ</w>
ギャ ラリー</w>
ガ リー</w>
ガ チョウ</w>
カー ペット</w>
カン ニング</w>
カタ カ
カサ サギ</w>
カ ール</w>
カ フェ
カ テ
カ チ
カ セット</w>
オーケ ストラ</w>
オ ー</w>
オ リーブ</w>
オ タク</w>
エ ール</w>
エ ル
ウ グ
イン フォ
イン スタント</w>
イ ー
イ ング</w>
イ ヌ</w>
アン ダー</w>
アル カリ</w>
アッ プル</w>
アイ ル
ア レンジ</w>
ア ヘン</w>
ん ぼり</w>
ん ぱん</w>
わき 起こっ</w>
わ たく
わたく し</w>
わ う</w>
ら れよう</w>
よど み</w>
よく よ</w>
よ みが
やり くり</w>
ややこ しい</w>
やみ 討ち</w>
や ー</w>
や らかし</w>
もた れ
もし び</w>
も じ</w>
め そ
むだ 骨</w>
むだ 話</w>
むしゃ ら</w>
むか むか</w>
む くん</w>
む き
み てぇ</w>
み そか</w>
み くじ</w>
み え</w>
また また</w>
ま たがる</w>
ま いっ</w>
ぽつ ん</w>
ほん のり</w>
ほど け</w>
ほお づえ</w>
ほ の</w>
べ た
べ い</w>
へ い</w>
ふさ わしく</w>
ふ 化</w>
ふ ろしき</w>
ふ き</w>
ふ か
ふか ふか</w>
ぴ り
ぴ ら</w>
ぴ く</w>
ぴ く
ぴく ぴく</w>
ひと え</w>
ひそ め</w>
ひ も
ひ な
ひ づめ</w>
ぱ んぱん</w>
ば らし</w>
はば かる</w>
はに かん</w>
は やり</w>
は やっ</w>
は な
は だけ</w>
は せる</w>
は ぎ
ののし ら</w>
のぞ き
の 巣</w>
の ォ</w>
ね た
にじ み出</w>
にく かっ</w>
なま めかしい</w>
なか れ</w>
な ァ</w>
な わ</w>
な れ
な な</w>
とど ろく</w>
とど ろ
と もしび</w>
と けよ</w>
と ある</w>
て か</w>
づ くり</w>
つ らく</w>
つ ゆ</w>
つ つい</w>
っ 腹</w>
ちゃ ぐ
ちゃぐ ちゃ</w>
ちく しょう</w>
ため らう</w>
た るん</w>
た まる</w>
そそっ かしい</w>
そ っ
すべ すべ</w>
す する</w>
す すぐ</w>
しょ んぼり</w>
しゃ くし</w>
しの ぶ</w>
し る
し っくり</w>
し おれ</w>
ざ っぱ</w>
さぼ っ</w>
さざ 波</w>
ささ やい</w>
さ め</w>
さ す</w>
さ くさく</w>
さ お</w>
ご たえ</w>
こぼ す</w>
こつ こつ</w>
こ らえる</w>
け ん
ぐ ちゃぐちゃ</w>
くど くど
く よくよ</w>
く み</w>
く ず
ぎり ぎり</w>
き らい</w>
き め</w>
き のう</w>
が むしゃら</w>
が み</w>
が く</w>
かま わ</w>
かす め</w>
かけ がえ</w>
かき 立て</w>
かか と</w>
か ばっ</w>
か そう</w>
か すみ</w>
か ざし</w>
か ぎ
おご り
おお らか</w>
お 手上げ</w>
お どけ</w>
お じけ</w>
うわ ー</w>
うつ むい</w>
うず う
う せろ</w>
う い</w>
いと ま</w>
いち ご</w>
いさ かい</w>
いか ん</w>
いか め
い れる</w>
あきら める</w>
あい だ</w>
あ ど
あ たる</w>
あ せ
s h
o r</w>
n g</w>
m an</w>
l l
k m</w>
k g</w>
e r</w>
bu rning</w>
a c
U S
PD F</w>
G l
E D</w>
8 000</w>
19 6
黒 光り</w>
黒 人</w>
黄色 く</w>
麦 わら</w>
鳴り 響く</w>
鳴 き</w>
鮮 血</w>
高 跳び</w>
高 揚</w>
高 山</w>
高 層</w>
高 ぶる</w>
骨 折り</w>
驚 き
騒ぎ 立て</w>
騎 兵</w>
駆け 込ん</w>
馴 れ
養 っ</w>
飾り 立て</w>
飼い 葉</w>
飲み 込め</w>
飢 餓</w>
飛び 立っ</w>
飛 ば</w>
風 浪</w>
風 水</w>
顔 かたち</w>
頼り ない</w>
頭 脳</w>
順 次</w>
面 持ち</w>
非 道</w>
非 番</w>
非 凡</w>
青 葉</w>
青 ざめ</w>
震 い</w>
雷 鳴</w>
難 問</w>
雑 談</w>
雌 鶏</w>
隣 り</w>
障 る</w>
隙 間</w>
階 層</w>
隅 っこ</w>
陳 腐</w>
除 外</w>
陛 下</w>
降 水</w>
防 塵</w>
間違 わ</w>
開 け
閉 ざし</w>
長 旅</w>
長 引く</w>
長 寿</w>
長 兄</w>
鑑 定</w>
鋭 敏</w>
銅 貨</w>
銃 口</w>
鉄 橋</w>
鈍 感</w>
鈍 く</w>
釣 れ</w>
金 もうけ</w>
量 り</w>
醸 造</w>
配 偶</w>
配 ら</w>
配 せ</w>
部 外</w>
還 元</w>
遺 族</w>
選 定</w>
選 べる</w>
遮 蔽</w>
遠 征</w>
道 管</w>
過ご そう</w>
過 激</w>
運び 出し</w>
遊 離</w>
遊 牧</w>
遅 らせ</w>
遂 に</w>
進 軍</w>
進 度</w>
造 林</w>
速 達</w>
逝 去</w>
通 達</w>
通 称</w>
通 れ</w>
途 切れ
途切れ 途切れ</w>
逃げ 道</w>
送 電</w>
送 致</w>
追い 出さ</w>
近 寄っ</w>
近 々</w>
輪 郭</w>
軽 重</w>
転 用</w>
転 売</w>
軟ら かい</w>
軒 下</w>
身の 上</w>
身 震い</w>
蹴 る</w>
踏み 込ん</w>
踏 切</w>
踏 ん
跳 ね</w>
起こ ろう</w>
起き ろ</w>
起 工</w>
贈 呈</w>
賛 嘆</w>
賓 客</w>
賑 わう</w>
資 質</w>
貼 り</w>
貸 出</w>
貴 族</w>
貴 い</w>
貯 蓄</w>
貯 め</w>
貪 欲</w>
販 促</w>
貨 車</w>
豪 放</w>
諭 す</w>
請け 合い</w>
調 え</w>
読み 上げる</w>
誠 心</w>
誇 大</w>
話し 声</w>
詮 索</w>
詩 句</w>
試 行</w>
試 す</w>
訳 文</w>
計 っ</w>
訃 報</w>
触 り</w>
解 き
覗 き
見せ び
見 守る</w>
見 下し</w>
見 とれ</w>
褒めそ やす</w>
複 写</w>
製 錬</w>
製 鉄</w>
製 図</w>
補 足</w>
裏 表</w>
裂 け</w>
裂 き</w>
衰 退</w>
衣 料</w>
街 並み</w>
行 商</w>
虚 弱</w>
薬 屋</w>
蔵 書</w>
蒸し 暑く</w>
葡 萄</w>
落ち 葉</w>
落 第</w>
莫 大</w>
荷 重</w>
荘 厳</w>
草 取り</w>
芳 香</w>
船 頭</w>
船 長</w>
船 室</w>
舞 踏</w>
舗 装</w>
自 明</w>
自 愛</w>
自 尊</w>
臨 界</w>
臨 ん</w>
腹立 た
腕 輪</w>
腐 ら</w>
脱 する</w>
脅 かす</w>
脂 身</w>
胸 部</w>
背 徳</w>
聖 人</w>
耳 鳴り</w>
耳 目</w>
耳 打ち</w>
考え 出し</w>
考 古</w>
老 化</w>
翻 っ</w>
翻 し</w>
羅 針</w>
罰 せ</w>
織 っ</w>
繁 忙</w>
縫い 目</w>
縁 日</w>
縁 故</w>
絶 壁</w>
絞 め</w>
結び つける</w>
結び つい</w>
終 点</w>
終 値</w>
紺 碧</w>
素晴 らし</w>
紙 切れ</w>
粘り 強い</w>
粗 暴</w>
粕 漬</w>
笑 え</w>
端 正</w>
端 午</w>
立て 直す</w>
立ち直 る</w>
立ち 寄る</w>
立 たさ</w>
窓 側</w>
破 れる</w>
研 磨</w>
矛 先</w>
瞑 想</w>
督 促</w>
着 目</w>
着 替える</w>
眼 光</w>
真っ 向</w>
真 空</w>
県 長</w>
眉 間</w>
相 関</w>
直 角</w>
目 配せ</w>
目 覚
目 印</w>
監 禁</w>
盛り 上げ</w>
益 々</w>
百 出</w>
白 鳥</w>
白 話</w>
登 れ</w>
発 汗</w>
発 動</w>
痛 撃</w>
症 例</w>
画 策</w>
田 園</w>
用 法</w>
生み 出さ</w>
生まれ 変わる</w>
生まれ 変わり</w>
生き 残る</w>
生き 延
生 かす</w>
甘 かっ</w>
瓦 解</w>
理 性</w>
理 学</w>
玩 具</w>
王 国</w>
率 いる</w>
獲 物</w>
獰 猛</w>
献 身</w>
献 立</w>
独り 占め</w>
犬 飼</w>
特 注</w>
特 恵</w>
特 化</w>
物 言い</w>
牛 馬</w>
牛 飼い</w>
片 時</w>
爽 快</w>
燃 やし</w>
熱 し</w>
照 らし
無く なり</w>
無 礼</w>
無 性</w>
無 形</w>
炒め 物</w>
火 気</w>
火 星</w>
激 怒</w>
潜 伏</w>
滴り 落ち</w>
滅ぼ す</w>
滅ぼ し</w>
満ち 足り</w>
満 月</w>
湿 布</w>
湯 船</w>
湯 気</w>
湧 き
湧き 水</w>
減 る</w>
渇 き</w>
混ぜ 合わせ</w>
混 じり
深 まっ</w>
淮 河</w>
浸 水</w>
浴び せ</w>
浮かび 上がっ</w>
派 生</w>
洗い 流し</w>
注 入</w>
注 が</w>
泣き 声</w>
波 風</w>
波 長</w>
波 瀾</w>
波 乱</w>
泊 め</w>
沿 岸</w>
治 める</w>
油 圧</w>
沈 没</w>
決め 事</w>
決 裁</w>
決 壊</w>
決 まら</w>
汚 点</w>
汚 す</w>
汚 さ</w>
求 職</w>
永 沢</w>
水 陸</w>
水 筒</w>
水 晶</w>
気 合</w>
気 取っ</w>
気 まずい</w>
残 り
死 去</w>
死 に
歩み 寄っ</w>
歩 兵</w>
武 芸</w>
止 血</w>
止 まれ</w>
歌 曲</w>
歌 山</w>
横 道</w>
楽 勝</w>
極 左</w>
検 定</w>
案 外</w>
根 絶</w>
柔 順</w>
架 空</w>
果 敢</w>
枚 数</w>
有 為</w>
有 価</w>
月 間</w>
月 見</w>
月 経</w>
書き 込み</w>
更 衣</w>
曲 げる</w>
曖 昧</w>
暴 利</w>
暗 殺</w>
暑 中</w>
景 勝</w>
時 節</w>
時 折</w>
時 局</w>
明 朝</w>
明 る</w>
明 かし</w>
早 寝</w>
早 める</w>
日 課</w>
日 照</w>
旅 立ち</w>
旅 団</w>
方 程</w>
新 株</w>
断 絶</w>
断 つ</w>
断 じ</w>
文 言</w>
文 脈</w>
敬 礼</w>
教え 導く</w>
擦り 切れ</w>
操 っ</w>
摂 氏</w>
摂 り</w>
摂 っ</w>
搾 る</w>
揺り かご</w>
掛 かる</w>
掘り 起こす</w>
掘り 下げ</w>
捜し 出し</w>
挿 し</w>
振 舞う</w>
挙 手</w>
指 し
指 さし</w>
持ち 込ん</w>
拝 聴</w>
招 請</w>
押し 黙っ</w>
押し 流し</w>
押 印</w>
折 れ
抗 生</w>
投げ 捨て</w>
投げ 売り</w>
技 巧</w>
打ち 込ん</w>
打ち つけ</w>
打 席</w>
手 際</w>
手 違い</w>
手 綱</w>
手 書き</w>
手 放す</w>
手 提げ</w>
手 探り</w>
手 掛かり</w>
手 中</w>
手 り
手り ゅう</w>
手 ぬぐい</w>
所 帯</w>
戒 める</w>
懸 かり</w>
懇 ろ</w>
憑 か</w>
憎 らしい</w>
慌てふため い</w>
慈 愛</w>
愛 お
情 感</w>
悪 性</w>
恨 む</w>
恥 じる</w>
急 性</w>
急 変</w>
怠 惰</w>
思い やる</w>
思い つき</w>
思 惟</w>
必 需</w>
心 構え</w>
心 強い</w>
微 笑み</w>
得 体</w>
後 押し</w>
彫 る</w>
形 象</w>
当てこ すり</w>
当 該</w>
強 行</w>
弱 気</w>
弱 かっ</w>
引き 金</w>
引き 返し</w>
引き 揚げ</w>
引き 取り</w>
引 当</w>
引 受</w>
弄 し</w>
弁 公</w>
廃 物</w>
座 り込ん</w>
床 屋</w>
幾 何</w>
幼 少</w>
年 次</w>
年 数</w>
平 常</w>
平 安</w>
帰 す</w>
帝 王</w>
市 販</w>
巻き 起こし</w>
差し 込ん</w>
差し 上げる</w>
川 崎</w>
崩 れる</w>
岐 阜</w>
山 積み</w>
山 川</w>
屋 久</w>
居 合わせ</w>
少 なめ</w>
小さ かっ</w>
小 雨</w>
小 物</w>
導 体</w>
対 等</w>
寄り かかっ</w>
宮 廷</w>
客 間</w>
客 船</w>
実 装</w>
実 在</w>
定 住</w>
学 派</w>
婉 曲</w>
威 張り</w>
奮 起</w>
奥ゆ かしい</w>
奢 っ</w>
夫 妻</w>
天 皇</w>
天 性</w>
天 子</w>
大 西</w>
大 慶</w>
大 みそか</w>
大 ざっぱ</w>
多 佳
多佳 子</w>
変 色</w>
壮 烈</w>
壁 画</w>
基 盤</w>
基 板</w>
培 養</w>
埋 まっ</w>
垂れ 下がっ</w>
坑 道</w>
地 道</w>
国 産</w>
国 内外</w>
図 表</w>
図 り</w>
回り くどい</w>
回 顧</w>
噴 火</w>
器 材</w>
噛 む</w>
品 切れ</w>
和 歌山</w>
和 らい</w>
命 じる</w>
呼び かける</w>
味 付け</w>
吹 雪</w>
吹 聴</w>
吸い 込ん</w>
向こう 側</w>
名 門</w>
名 字</w>
名 乗っ</w>
吉 林</w>
合 間</w>
合 衆</w>
合 い
右 派</w>
叱 っ</w>
召 使</w>
召 さ</w>
古 参</w>
古 人</w>
口 説
口 答え</w>
口 ひげ</w>
受け継 ぐ</w>
受 動</w>
取り 込ん</w>
取り 消さ</w>
取り 残さ</w>
取り 引き</w>
取り 巻い</w>
取り 外す</w>
取り 合っ</w>
取り 入っ</w>
反 論</w>
参 上</w>
去 れ</w>
原 紙</w>
原 爆</w>
原 告</w>
厚 か
即 時</w>
卓 越</w>
半 期</w>
千 曳</w>
区 間</w>
北 部</w>
包み 隠さ</w>
労 農</w>
励 ん</w>
劣 等</w>
加 速</w>
劇 的</w>
割 安</w>
剥 奪</w>
剛 直</w>
前 月</w>
削 り</w>
刻 印</w>
到 来</w>
利 率</w>
初 戦</w>
初 代</w>
切り 出し</w>
切 なく</w>
分 業</w>
分 厚い</w>
出 稼ぎ</w>
出 番</w>
出 欠</w>
出 前</w>
凶 作</w>
几 帳面</w>
凍 ら</w>
冷や 汗</w>
冬 季</w>
写 し
再 起</w>
内 面</w>
内 陸</w>
内 閣</w>
内 訳</w>
内 臓</w>
共 存</w>
公 害</w>
全 快</w>
入れ 替える</w>
入 門</w>
入 獄</w>
入 港</w>
入 念</w>
入 居</w>
先 行</w>
先 延ばし</w>
充 血</w>
元 旦</w>
儲 け</w>
償 還</w>
傾 く</w>
傷 病</w>
備 わっ</w>
健 診</w>
健 在</w>
停 戦</w>
俳 句</w>
信 奉</w>
侵 犯</w>
余 興</w>
何 もの</w>
体 質</w>
体 積</w>
佐 伯</w>
似 通っ</w>
似 合わ</w>
伸び 伸び</w>
伯 母</w>
休 止</w>
伊 藤</w>
仕 立て</w>
介 入</w>
人 士</w>
交 わる</w>
予 知</w>
乱 用</w>
主 語</w>
丸 薬</w>
中 農</w>
中 秋</w>
中 東</w>
並べ 立て</w>
両 翼</w>
両 端</w>
不 運</w>
不 動</w>
下り 坂</w>
下 旬</w>
下 放</w>
下 図</w>
上 長</w>
三 重</w>
万 物</w>
一 読</w>
一 筆</w>
一 握り</w>
一 式</w>
一 報</w>
ール スマン</w>
ー リング</w>
ー デン</w>
ー ら</w>
ヶ 丘</w>
ン ボーン</w>
ン な</w>
ワン ワン</w>
ワ ックス</w>
ロー ソク</w>
ロ ウ
レン ト
レッ シュ</w>
レセ プション</w>
レ オ</w>
レ イン</w>
ル ト
リウ サ</w>
リア リティ</w>
リ フト</w>
リ フォーム</w>
リ ップ</w>
リ ストラ</w>
ラン キング</w>
ラオラオラオラオ ラオラオラオラオ
ライ フル</w>
ライ ダー</w>
ユー ロ</w>
ユニ フォーム</w>
モニ ター</w>
モ リ</w>
モ ダン</w>
モ ク
モク セイ</w>
メア リー</w>
メ ラ
ム ード</w>
ム ー
ム チ</w>
ミ リウサ</w>
ミ ナル</w>
マラ ヤ</w>
マネ ー</w>
マ セン</w>
ポエ ム</w>
ポ リ</w>
ポ プラ</w>
ボー リング</w>
ボ ー</w>
ホワイ トボード</w>
ホ ーン</w>
ホ ッと</w>
ホ イ</w>
ペ ルー</w>
ベ ラ</w>
ベ イ
プロ ット</w>
プレ ックス</w>
ブラ ウ
ブラウ ザ</w>
ブ ッ
フレ ーム</w>
フォ ーク</w>
フェ ンス</w>
フ レッシュ</w>
ピュ ー
ビ ル
ビ ジョン</w>
ビ キ
ビキ ニ</w>
ヒュ ー
ヒ ート</w>
ヒ マラヤ</w>
ヒ マ</w>
パ ーン</w>
パ ッ
パ チン
パチン コ</w>
パ タ</w>
バン クー
バンクー バー</w>
バイト 先</w>
バ ード</w>
バ タバタ</w>
バ シ
バ ク
ハー ブ</w>
ハン ガー</w>
ハ チ
ノ ロジー</w>
ノ ア</w>
ネ ール</w>
ネ ーション</w>
ニュ アンス</w>
ニ バル</w>
ドリ ル</w>
ドラララララ ララララ
ド ンドン</w>
ド ロ</w>
トロ ンボーン</w>
トル コ</w>
トリ ッジ</w>
トナ カイ</w>
ト ライ
デリ バ
ディ ス
デ ン
デ リー</w>
デ イ</w>
テク ノロジー</w>
テク ニカル</w>
ティ ック</w>
テ ー</w>
テ ロ
テ ラ
ツツ ジ</w>
ッ サー</w>
チェ ス</w>
チ ング</w>
チ レン</w>
ダ ーク</w>
ター ミナル</w>
ター テイ
ター ジュ</w>
タイ ム
タイ ト</w>
タ レント</w>
ソ ニー</w>
ソ クラ
ソクラ テス</w>
ゼ ッ
セラ ミックス</w>
セ ールスマン</w>
セ ロ
スリ ル</w>
スポ ンジ</w>
スニ ーカー</w>
ストラ ップ</w>
スト リア</w>
ステ ロイド</w>
スズ メバチ</w>
スキ ン</w>
スカ イ
スウェ ーデン</w>
ス クラ
ジャ イ
シル エット</w>
シ ュー</w>
シ ミ</w>
シ ガ
シ エ</w>
サー ブ</w>
サボ る</w>
サイ ダー</w>
サ プライ
ゴー ゴー</w>
ゴル ファー</w>
コー スター</w>
コンベ ヤー</w>
コレ ステ
コツ コツ</w>
コ ー</w>
コ ント</w>
コ ル
コ ソ</w>
コ ク</w>
コ ア
ゲー トル</w>
ゲ イ</w>
グラ フィ
グ ッド</w>
クル ミ</w>
クリ ップ</w>
クラ ウ
ク ォ
ギャ ン
キャン パス</w>
キャ ン</w>
キ ョン</w>
ガ ール</w>
ガ レージ</w>
ガ ニ</w>
ガ ッ
ガ タ
カー ニバル</w>
カー トリッジ</w>
カル チャー</w>
カテ ゴ
オー ストリア</w>
オリエン テーション</w>
オム レツ</w>
エン トリー</w>
エン ターテイ
エ コ</w>
ウグ イス</w>
ウェ イ
ウイ スキー</w>
ウ ー
ウ ル
ウ チ</w>
インター ンシップ</w>
イン ストラ
イタ リアン</w>
イエ ス</w>
イ キ
アマ チュア</w>
アイル ランド</w>
ア ナ</w>
ア ジ
れ 目</w>
り 合い</w>
ら わ</w>
ら れれ</w>
ら め
らめ ら</w>
よー く</w>
よ っぽ
よっぽ ど</w>
よ そよそ
ゆ う
やみ くも</w>
やっ かい</w>
もら し</w>
もの わかり</w>
も ろい</w>
も ろ
も む</w>
も ぎ
めん ど</w>
めで たし</w>
めそ め
めそめ そ</w>
め らめら</w>
め くり</w>
むしゃ くしゃ</w>
むか つく</w>
む く</w>
み ぞ
みぞ おち</w>
まん ま</w>
まん じゅう</w>
まぶ しい</w>
まと まら</w>
ま だら</w>
ま たがっ</w>
ま じ
ま ぐる
ま かせ</w>
ま える</w>
ぽ ん</w>
ほろ 酔い</w>
ほ とば
ぺ ら</w>
ぺ ちゃくちゃ</w>
べ っ</w>
へ っ</w>
ぶら つく</w>
ぶっ 通し</w>
ぶ どう
ぶどう ヶ丘</w>
ぶ つける</w>
ぶ しゃ
ぶしゃ ぶ</w>
ふさ ぎ
ふ ーん</w>
ふ ぞろい</w>
ふ ける</w>
び っこ</w>
ひと え
ひとえ に</w>
ひ れ</w>
ひ とり
ひ しゃく</w>
ぱち ぱ
ぱちぱ ち</w>
ば ね</w>
ば た</w>
はる ばる</w>
はち みつ</w>
は やる</w>
は やら</w>
は さん</w>
は げ
は ぐれ</w>
は き
は か</w>
は い
の 皮</w>
の っぽ</w>
の せ</w>
の こ</w>
ね よう</w>
ね い</w>
ぬ る
なら び</w>
なに がし</w>
なぞ なぞ</w>
なすり つける</w>
な でる</w>
どしゃ 降り</w>
ど ー
ど ろ</w>
ど もり</w>
とり とめ</w>
とも す</w>
とも あれ</w>
とく に</w>
てん てこ
てんてこ 舞い</w>
て こ</w>
て え</w>
づ く</w>
づ き
づき あい</w>
つぶ さ</w>
つなぎ 合わせ</w>
つけ よ</w>
つき まとう</w>
つ こう</w>
つ ぐ
つ く
つ い
っち い</w>
っ 放し</w>
ちら 側</w>
ちゃ え</w>
ち と</w>
だ らし</w>
たん す</w>
ため し</w>
たま り
たい そう</w>
た もと</w>
た べ</w>
そろ える</w>
そよそ よ</w>
そび れ</w>
そ らす</w>
そ らし</w>
せん べい</w>
せり ふ</w>
せき 止め</w>
せ え</w>
ず らし</w>
ず うずう
すげ え</w>
すく す</w>
すく い</w>
す む</w>
す ね</w>
す だれ</w>
じろ っ</w>
じり じり</w>
じ ま</w>
しゃべ れる</w>
しゃ んと</w>
しゃ ぶしゃぶ</w>
しゃ がん</w>
しみ 込ん</w>
しぼ ん</w>
しぶ し
しぶし ぶ</w>
しば し</w>
しの ぎ</w>
しつ こい</w>
しか め</w>
し んと</w>
し こり</w>
さらけ 出し</w>
さら さら</w>
さ わっ</w>
さ れ</w>
さ らい</w>
さ せよう</w>
さ か
ご し</w>
こし らえ</w>
こ よう</w>
こ も
こ ちら側</w>
こ すり
こ ぎ</w>
け な</w>
ぐら ぐら</w>
くら ます</w>
くっ つけ</w>
く らん</w>
く ま</w>
く すくす</w>
ぎ こち
き わ
がた がた</w>
かわ す</w>
かぶ せる</w>
かな め</w>
かな え</w>
かち かち</w>
かき 分け</w>
かき 乱す</w>
かかわ っ</w>
かか え</w>
か んな</w>
か らし</w>
か ぶれ</w>
か ば
か ない</w>
か ぐ
か え</w>
おもし ろく</w>
おし ろい</w>
お 蔭</w>
お っとり</w>
お だて</w>
お それ</w>
お じゃん</w>
お う
うろ こ</w>
うっ すら</w>
うそ 偽り</w>
うか がい</w>
う きん</w>
いら だっ</w>
いや ぁ</w>
いっ つ</w>
いただ か</w>
いじ くる</w>
い ぶ
い て</w>
い そ
あん かけ</w>
あふれ 出</w>
あて 先</w>
あざ けり</w>
あか ぎれ</w>
あ っけ</w>
あ した</w>
あ さる</w>
あ ご
w i
o r
o p
i s
h a
g E</w>
figh ting</w>
d a</w>
an d</w>
S N
SN S</w>
L ED</w>
I gE</w>
I C</w>
H ol
E O</w>
C EO</w>
7 2</w>
4 9</w>
19 70</w>
1 7
1 46</w>
２０ １２</w>
１９ ８
黙 禱</w>
黒 山</w>
黄 山</w>
鳥 類</w>
鳥 肌</w>
高 貴</w>
高 けれ</w>
骨 組み</w>
駆け 出し</w>
馴 染
馬 鹿
餓 死</w>
飼い 主</w>
飲 もう</w>
食い 物</w>
飛び 散る</w>
飛び 散っ</w>
飛び 交
風 邪
風邪 薬</w>
風 通し</w>
風 変わり</w>
顧 みる</w>
頭 数</w>
領 事</w>
預 かり
響 か</w>
音 節</w>
面 識</w>
静 め</w>
青 二
青二 才</w>
雨 粒</w>
雨 上がり</w>
離 島</w>
雑 音</w>
雑 文</w>
集 積</w>
隣 町</w>
隣 接</w>
隠し 立て</w>
陥 れよう</w>
陣 痛</w>
防 空</w>
関 東</w>
閉 まり</w>
閉 ざ
鍛 え
鋳 造</w>
銀 賞</w>
針 路</w>
針 仕事</w>
金 目</w>
量 販</w>
野 鳥</w>
野 草</w>
野 ウサギ</w>
重 苦しい</w>
重 なり</w>
醜 態</w>
酔 い
酒 飲み</w>
酒 食</w>
配 合</w>
邁 進</w>
避 暑</w>
遺 失</w>
選 集</w>
選 任</w>
遭 難</w>
違 約</w>
道 順</w>
道 場</w>
過 敏</w>
遊 走</w>
逸 する</w>
連れ 立っ</w>
連れ 出し</w>
造 船</w>
造 形</w>
速 める</w>
速 かっ</w>
通 院</w>
通 告</w>
通 わ</w>
途 切れる</w>
逆 流</w>
逆 境</w>
逆 らえ</w>
逆 さ</w>
逃 がし</w>
逃 がさ</w>
送り 届け</w>
送り 先</w>
送 還</w>
退 避</w>
退 路</w>
退 役</w>
退 廃</w>
退 け</w>
追い はぎ</w>
追 え</w>
近 寄る</w>
近 寄ら</w>
迂 回</w>
込み 上げ</w>
込 もう</w>
農 繁</w>
農 夫</w>
農 園</w>
辞 任</w>
軽 量</w>
軽 薄</w>
転げ 落ち</w>
転 嫁</w>
転 任</w>
軍 国</w>
車 軸</w>
車 掌</w>
踏み 出し</w>
足 場</w>
足 る</w>
越 冬</w>
起こ せ</w>
起 草</w>
起 業</w>
走り 回る</w>
赤ら め</w>
賭 博</w>
賢 かっ</w>
賞 与</w>
貸し 出す</w>
貸 さ</w>
買い 替え</w>
買い 得</w>
貶 し</w>
販 路</w>
財 貨</w>
負 け
貝 殻</w>
豪 勢</w>
豆 乳</w>
論 調</w>
談 話</w>
調 べ
読み 取る</w>
読み 上げ</w>
語 り合っ</w>
誓 約</w>
誇 示</w>
試 食</w>
試 みる</w>
評 議</w>
記 帳</w>
記 す</w>
計 り</w>
計 らい</w>
言い聞 かせる</w>
角 い</w>
覚 まさ</w>
見積 もっ</w>
見 極める</w>
見 据え</w>
見 回す</w>
見 合い</w>
見 下げ</w>
見 い
覆い 隠す</w>
覆 いか
覆いか ぶ
西 南</w>
西 北</w>
襲 いか
褒 賞</w>
褐 色</w>
製 薬</w>
製 本</w>
裏 地</w>
装 丁</w>
裂 く</w>
裁 く</w>
街 頭</w>
街 中</w>
行き 止まり</w>
行 列</w>
血 肉</w>
血 流</w>
虫 害</w>
薬 用</w>
薦 める</w>
薄 味</w>
薄 れ</w>
蕎 麦</w>
蒸し 暑かっ</w>
葉 書</w>
落とし 物</w>
落ち 込み</w>
落ち くぼん</w>
荒 波</w>
荒 地</w>
草 地</w>
茫 漠</w>
英 訳</w>
苦 闘</w>
苦 戦</w>
花 柄</w>
花 屋</w>
花 壇</w>
船 舶</w>
船 体</w>
舞い 降り</w>
舞い 落ち</w>
興 し</w>
自 適</w>
自 炊</w>
自 供</w>
膠 着</w>
膏 薬</w>
腹 立ち</w>
腹 心</w>
腫 物</w>
腕 章</w>
脱 退</w>
脱 が</w>
脅 かし</w>
胡 弓</w>
胎 児</w>
背 筋</w>
背 け</w>
育て 上げ</w>
育 種</w>
肥 大</w>
聴 取</w>
聞き 取れる</w>
聞 ける</w>
耳 鼻</w>
考え ろ</w>
考え よう</w>
老 齢</w>
老 眼</w>
羽 田</w>
羽 根</w>
羊 肉</w>
罰 則</w>
繋 げ</w>
繋 がら</w>
縁 組み</w>
練 れ</w>
締め つけ</w>
締め く
締 り</w>
緑 茶</w>
綿 毛</w>
綿 布</w>
網 戸</w>
綱 渡り</w>
絶 命</w>
絵 巻</w>
結 集</w>
結 っ</w>
組み 合わせる</w>
組 ま</w>
素 姓</w>
純 度</w>
紅 白</w>
糾 弾</w>
糸 口</w>
粘り 強く</w>
算 段</w>
策 略</w>
筆 致</w>
筆 者</w>
筆 力</w>
笑い もの</w>
竹 やぶ</w>
端 子</w>
立て よう</w>
立ち 上がら</w>
突っ 込む</w>
突っ 込み</w>
突き 破る</w>
突き 当たり</w>
空き 缶</w>
空き 家</w>
空 輸</w>
究 極</w>
積み 重ねる</w>
積 もる</w>
積 もり</w>
税 込み</w>
程 々</w>
移 入</w>
移 し
称 し</w>
私 的</w>
秀 才</w>
祝 電</w>
祝 辞</w>
祝 い事</w>
社 説</w>
礼 砲</w>
示 唆</w>
硫 酸</w>
砂 降り</w>
石 膏</w>
石 橋</w>
着 込ん</w>
眠 れる</w>
省 エ
省エ ネ</w>
省 く</w>
相 応
直 系</w>
目 当て</w>
盗 難</w>
盗 聴</w>
的 外れ</w>
発 布</w>
癒 す</w>
病 理</w>
病 死</w>
疑 惑</w>
異 論</w>
異 様</w>
留 置</w>
留 保</w>
画 期</w>
画 数</w>
田 野</w>
用 量</w>
用 命</w>
産 児</w>
生き 残っ</w>
生 臭</w>
生 後</w>
生 彩</w>
生 え
甚 大</w>
理 髪</w>
王 家</w>
獣 医</w>
猟 犬</w>
狼 狽</w>
狙 撃</w>
狂 気</w>
特 長</w>
特 等</w>
物 思い</w>
物 干し</w>
牧 草</w>
牢 獄</w>
片 面</w>
片 側</w>
片 付ける</w>
片 付い</w>
爛 漫</w>
爆 笑</w>
燻 製</w>
燐 酸</w>
燃 やす</w>
熱 々</w>
熊 手</w>
照 り
無 量</w>
無 罪</w>
無 縁</w>
無 機</w>
無 我</w>
点 滅</w>
炒 める</w>
災 禍</w>
火 薬</w>
瀬 戸</w>
潜 入</w>
漬 物</w>
漬 ける</w>
漏 れる</w>
漂 白</w>
滴り 落ちる</w>
滑り 台</w>
滑 らし</w>
溺 死</w>
溶 かす</w>
満 期</w>
満 室</w>
湿 地</w>
湿 り
湿り 気</w>
湧 い</w>
測 り</w>
渡 し
済 南</w>
清 涼</w>
清 水</w>
混じり け</w>
深 かっ</w>
涼 しかっ</w>
消え 去っ</w>
浸 食</w>
浮き 沈み</w>
浮 遊</w>
浮 か</w>
浅 はか</w>
流れ 込む</w>
流れ 出</w>
流 血</w>
洞 察</w>
洗 礼</w>
注 視</w>
泥 沼</w>
泣き 叫ん</w>
法 事</w>
油 井</w>
沸き 立っ</w>
沢 東</w>
氷 河</w>
水 銀</w>
水 車</w>
水 質</w>
水 没</w>
水 文</w>
気 骨</w>
気 色</w>
気 持</w>
気 安く</w>
気 品</w>
気 取り</w>
比べ れ</w>
殺 気</w>
段 違い</w>
残 虐</w>
歯 ごたえ</w>
歩 ま</w>
正 しけれ</w>
歓 談</w>
歓 心</w>
歌 える</w>
欺 瞞</w>
次 期</w>
次 官</w>
欄 干</w>
橋 脚</w>
横 切る</w>
検 収</w>
植 林</w>
棚 上げ</w>
梅 雨
枯 れる</w>
果 肉</w>
果 汁</w>
林 立</w>
林 業</w>
東 側</w>
村 々</w>
杉 浦</w>
本 籍</w>
本 場</w>
末 節</w>
末 っ子</w>
木 造</w>
木 目</w>
有 償</w>
最 長</w>
最 盛</w>
最 上</w>
曾 祖母</w>
書 式</w>
曇 ら</w>
暴 徒</w>
暫 時</w>
暑 気</w>
暇 つぶし</w>
晩 婚</w>
晩 ご飯</w>
晦 日</w>
時 限</w>
時 給</w>
時 宜</w>
時 勢</w>
昼 飯</w>
明る み</w>
明 媚</w>
昆 明</w>
早 熟</w>
旧 式</w>
日 没</w>
日 帰り</w>
旅 立つ</w>
新 語</w>
新 米</w>
新 生</w>
新 曲</w>
新 手</w>
新 劇</w>
断 崖</w>
断 ら</w>
整 列</w>
教え 子</w>
教 えろ</w>
敗 戦</w>
救い 出し</w>
救 出</w>
政 務</w>
放 電</w>
放 た</w>
攻 勢</w>
攻 める</w>
改 竄</w>
改 心</w>
播 種</w>
撃 退</w>
撃 て</w>
摘 む</w>
損 得</w>
損 じ</w>
掴 め</w>
推 挙</w>
探 索</w>
探 求</w>
探 偵</w>
採 血</w>
採 算</w>
掃 討</w>
掃 く</w>
捜 さ</w>
捕 獲</w>
振る 舞う</w>
振り 返ら</w>
振り 込ん</w>
挟 み</w>
指 折り</w>
持 て
拳 法</w>
拡 充</w>
拝 読</w>
拘 束</w>
押し 倒し</w>
抹 消</w>
抱き 抱え</w>
抱き つか</w>
抱 擁</w>
抜け 落ち</w>
抜き 取り</w>
投げ 出す</w>
投げ 出さ</w>
抑 揚</w>
打ち 鳴らし</w>
打ち 破っ</w>
手伝 える</w>
手 軽</w>
手 落ち</w>
手 管</w>
手 持ち</w>
手 慣れ</w>
手 工</w>
手 厚く</w>
手 ぶり</w>
戻 ろう</w>
戦 機</w>
戦 時</w>
戦 力</w>
成 就</w>
懲 らしめ</w>
懇 願</w>
憤 激</w>
憤 っ</w>
憑 い</w>
感じ 取っ</w>
感 度</w>
感 嘆</w>
愛 護</w>
惹き つけ</w>
情 理</w>
情 実</w>
悪 役</w>
悪 夢</w>
悪 ふざけ</w>
悪 ぃ</w>
悩 み
悩 ます</w>
恩 返し</w>
恩 師</w>
恒 例</w>
怪 しく</w>
思い 知ら</w>
思い 浮かべ</w>
思 潮</w>
思 惑</w>
快 い</w>
忘れ 去ら</w>
心 掛け</w>
心 房</w>
心 底</w>
心 がける</w>
徴 集</w>
微 細</w>
復 員</w>
復 元</w>
得 よう</w>
従 軍</w>
後 期</w>
後 家</w>
待ち 望む</w>
待 機</w>
待 合</w>
待 たさ</w>
役 立て</w>
役 柄</w>
彗 星</w>
当て は
当 館</w>
当 座</w>
強 運</w>
強 敵</w>
強 姦</w>
強 国</w>
強 める</w>
強 まっ</w>
弱 まっ</w>
引っ かけ</w>
引き 立た</w>
引き 渡す</w>
引き 延ばし</w>
引き 合い</w>
引き 伸ばし</w>
引き 下げ</w>
引き こもり</w>
引 ける</w>
度 々</w>
店 先</w>
広 漠</w>
幾 多</w>
幻 覚</w>
幹 事</w>
年 の
年 ごろ</w>
常 勤</w>
帰 属</w>
布 切れ</w>
巻き 起こっ</w>
巻 か</w>
差し伸 べ</w>
差し 替え</w>
差し 引く</w>
差し 引き</w>
工 科</w>
工 房</w>
工 員</w>
巣 窟</w>
崩 れ落ち</w>
崩 す</w>
岡 田</w>
山 上</w>
履 き
居 留</w>
尽く さ</w>
尺 度</w>
小 魚</w>
小 銃</w>
小 生</w>
小 猫</w>
小 犬</w>
小 柄</w>
小 数</w>
導 き</w>
将 校</w>
専 属</w>
専 任</w>
封 じ</w>
対 聯</w>
対 峙</w>
寝 起き</w>
寝 言</w>
寝 つけ</w>
寒 波</w>
密 閉</w>
密 封</w>
密 告</w>
寄 贈</w>
寂 れ</w>
宿 命</w>
室 温</w>
実 演</w>
実 体</w>
定 番</w>
定 刻</w>
安 逸</w>
安 堵</w>
孔 明</w>
嫁 い</w>
威 勢</w>
姿 かたち</w>
始 発</w>
妻 子</w>
妖 精</w>
好 ましい</w>
奮い 起こし</w>
奨 励</w>
奥 深く</w>
奥 歯</w>
奥 底</w>
奔 走</w>
奇 遇</w>
奇 形</w>
失 態</w>
天 災</w>
大 盛り</w>
大 病</w>
大 晦日</w>
夢 想</w>
夜 行</w>
夜 半</w>
外 せ</w>
変 装</w>
変 異</w>
売り 出し</w>
声 望</w>
声 援</w>
増 援</w>
境 目</w>
塩 分</w>
塗 炭</w>
堪 える</w>
地 毛</w>
在 留</w>
土 砂降り</w>
土 産
土 日</w>
国 勢</w>
固 有</w>
団 員</w>
回 虫</w>
回 想</w>
四 角い</w>
噴 射</w>
噴 出</w>
噴 き出し</w>
嘲 笑</w>
嘘 つき</w>
嘆 願</w>
営 利</w>
喜 劇</w>
問い 詰める</w>
唐 詩</w>
唐 代</w>
哺 乳</w>
品 評</w>
和ら げ</w>
呼び 止め</w>
员 会</w>
呑 気</w>
吹 こう</w>
吸い 込ま</w>
吸い 殻</w>
含 有</w>
向き 合っ</w>
名残 惜し</w>
名 画</w>
名 物</w>
名 曲</w>
同 棲</w>
同 族</w>
合 奏</w>
各 省</w>
右 足</w>
右 腕</w>
叱 る</w>
台 本</w>
可愛 らしい</w>
可 否</w>
古 来</w>
口 数</w>
口 下手</w>
口 々</w>
叙 情</w>
受け継 が</w>
受け よう</w>
取り組 ま</w>
取り 替える</w>
取り 換え</w>
取り 持っ</w>
取り 合わ</w>
取り 入ろう</w>
取 消</w>
取 扱い</w>
収 まら</w>
反 故</w>
反 感</w>
双 眼</w>
厳 罰</w>
原 動</w>
卵 焼き</w>
占 う</w>
博 学</w>
協 業</w>
卑 屈</w>
半 数</w>
千 々</w>
勧 誘</w>
勤 める</w>
募 っ</w>
勇 ましい</w>
勃 発</w>
劣 悪</w>
割 当</w>
副 次</w>
剥 がれ</w>
剥 い</w>
前 非</w>
前 歯</w>
前 年</w>
前 夜</w>
前 任</w>
削り 取っ</w>
刻 む</w>
別 便</w>
判 子</w>
初 耳</w>
切り 株</w>
切り 札</w>
切り 抜ける</w>
切り 取っ</w>
分け 隔て</w>
分 岐</w>
出来 合い</w>
出 航</w>
出 納</w>
出 回っ</w>
出 入</w>
凱 旋</w>
処 し</w>
凝 視</w>
凍 りつい</w>
冷え 冷え</w>
冷 房</w>
冷 やす</w>
円 筒</w>
円 満</w>
円 安</w>
内 装</w>
内 線</w>
公 立</w>
公 的</w>
公 債</w>
全 集</w>
全 社</w>
全 権</w>
入り 乱れ</w>
入 館</w>
光 芒</w>
光 臨</w>
光 来</w>
光 明</w>
先 着</w>
先 例</w>
先 代</w>
優 等</w>
儒 家</w>
働き 手</w>
傾 斜</w>
傭 兵</w>
傍 観</w>
健 闘</w>
停 泊</w>
借 款</w>
倒 さ</w>
倍 増</w>
修 道</w>
修 め</w>
侵 す</w>
供 養</w>
供 える</w>
例 文</w>
作り 笑い</w>
作り 上げる</w>
余 波</w>
住 め</w>
低 級</w>
伸び やか</w>
伸 縮</w>
伸 ばさ</w>
伴 わ</w>
伝 っ</w>
会 堂</w>
仮 病</w>
付き 合える</w>
付 託</w>
付 帯</w>
仕 入れる</w>
人 込み</w>
人 身</w>
人 払い</w>
二 者</w>
乳 房</w>
乱 雑</w>
乗り 気</w>
主 旨</w>
中 流</w>
中 和</w>
並 木</w>
並 び
並 ば</w>
不可 解</w>
不 確か</w>
不 発</w>
不 慮</w>
不 和</w>
不 向き</w>
不 倫</w>
不 信</w>
下 駄</w>
下 車</w>
下 山</w>
上げ ろ</w>
上 野</w>
上 納</w>
上 書き</w>
七 千</w>
一 様</w>
一 存</w>
一 命</w>
一 利</w>
一 介</w>
ージ ュ</w>
ー ギャー</w>
ー し</w>
ヴ ォ
ワン ゲル</w>
ワ リ</w>
ロイヤ ル</w>
ロ サン
ロサン ゼ
ロサンゼ ルス</w>
ロ ゴ</w>
レー ショ
レント ゲン</w>
レッ チ</w>
レ ーン</w>
レ ビュー</w>
リズ ミカル</w>
リ ピ
リ ターン</w>
ララ ラ
ラ ード</w>
ラ マ</w>
ラ ッ
ラ グ
ヤ ス</w>
モヤ モ
モヤモ ヤ</w>
モ ニー</w>
モ ット
モ チ
モ スク
モスク ワ</w>
メ タン</w>
メ タ</w>
メ イ
ム ーン</w>
ム キ</w>
ミ ラー</w>
ミ ノ</w>
ミ クロ
マイクロ フィルム</w>
マ ンス</w>
マ ツ</w>
マ ット</w>
マ ズ
マ ス
ポ ロ
ボク サー</w>
ホーム シック</w>
ホル ダー</w>
ホ ー</w>
ホ ッ
ペー スト</w>
ベン ダー</w>
ベ ン</w>
ベ リー</w>
ベ ネ
ベ ジ
ベジ タ
ベジタ リアン</w>
ベ イ</w>
ヘル プ</w>
ヘ ビー</w>
プロ グラ
プラット ホーム</w>
プラ ネ
プラネ タ
プラネタ リウム</w>
プラ ズ
プラズ マ</w>
プ ー
プ レ</w>
ブロー カー</w>
ブレ ス
ブレス レット</w>
ブレ イク</w>
フレン ドリー</w>
フラ フラ</w>
フォ ード</w>
フィン ランド</w>
ファイ ナンス</w>
ファ スト</w>
ピ ュー</w>
ピ チャ
ピ カ
ピ オ
ビリ ヤード</w>
ヒステ リック</w>
ヒ ーター</w>
ヒ ョ
ヒ アリング</w>
パ ラ</w>
パ ト
パ タ
バー ニング</w>
バラ バラ</w>
バッ ジ</w>
バイ ザー</w>
バイ キング</w>
バ マ</w>
バ ッド</w>
ハー フ</w>
ハ ネ
ハ ウ</w>
ノ ウ
ネ ック</w>
ニュー ジー
ニュージー ランド</w>
ニ ー
ナ リスト</w>
ドキュメン タリー</w>
ド ー</w>
ド ン
ド シン</w>
トレ ンド</w>
トラ スト</w>
ト レード</w>
ト リア</w>
デッ サン</w>
ディ ズ
ディズ ニー</w>
デ メリット</w>
デ ヒ
デ バイス</w>
デ ター</w>
テイク アウト</w>
テ ナー</w>
ッチ ング</w>
ッケ ー</w>
チョ ウ
チャ リティー</w>
チャ ネル</w>
チア リーダー</w>
チ ワン</w>
チ オ</w>
ダブ ルス</w>
ダイア モンド</w>
タ ロウ</w>
タ ブ
タ コ
ゾ ッと</w>
ソ ード</w>
セー ラー</w>
セン チ
セ グ
ズ ラ</w>
スリ ート</w>
スライ ダー</w>
スプ ーン</w>
スピ ン</w>
スピ レーション</w>
スト レッチ</w>
スティ ック</w>
ス ワ
ス ミ</w>
ス マ</w>
ス ノ
ス チュ
ス キューバ</w>
ジャー ナリスト</w>
ジェン ダ</w>
ジェ ント</w>
ジェ ル
ジ ン
シン ク</w>
シャ ープ</w>
シア トル</w>
シ ル</w>
シ リアル</w>
サン ド
サン タ
サボ テン</w>
サボ り</w>
サイ レン</w>
サ ル
ゴク ン</w>
ゴ ールド</w>
ゴ スペル</w>
コーポ レート</w>
コーディ ネ
コー プ</w>
コンサル ティング</w>
コン プレックス</w>
コレステ ロール</w>
コレ クション</w>
コミュニ ティ</w>
コ メ
コ コア</w>
コ ケ</w>
ゲー マー</w>
グロー ブ</w>
グ レー</w>
クー デター</w>
クロ ース</w>
クラウ ド</w>
クラ クション</w>
クイ ティ</w>
ギリ シア</w>
ギャン ブル</w>
ギャ ーギャー</w>
ギャ グ</w>
キー パー</w>
キラ キラ</w>
キュ ラム</w>
キ レる</w>
キ ヨ</w>
キ モチ</w>
キ ック</w>
ガー デン</w>
ガン ガン</w>
ガ リ
ガ チャン</w>
カリ キュラム</w>
カテゴ リー</w>
カ ーン</w>
カ モ
カ オ</w>
エン ドウ</w>
エレベ ータ</w>
エレ ク
エピ ソード</w>
エスカ レート</w>
エイ ター</w>
エ ース</w>
エ ー
エ ラ</w>
エ サ</w>
エ コノ
エ クイティ</w>
ウィ ンド
ウィ ッチ</w>
ウ ー</w>
ウ ト</w>
ウ シ</w>
インフォ メーション</w>
インストラ クター</w>
イン デックス</w>
イン スピレーション</w>
イスラ エル</w>
イキ ナリ</w>
イエ ッサー</w>
イ ニ
イ ズ</w>
アン ペラ</w>
アン ティ
アン チ</w>
アン タ</w>
アル ミ</w>
アラ ブ</w>
ア ポイント</w>
ア スリート</w>
ア ジェンダ</w>
わり と</w>
わき 目</w>
わ めく</w>
わ そう</w>
わ か</w>
わ い
ろく ろ</w>
ろく に</w>
ろく な</w>
りり しい</w>
ら そう</w>
よ かろう</w>
ゆ だ
やり 残し</w>
やぼ ったい</w>
やさ しく</w>
や に
もん ちゃく</w>
もたれ かかっ</w>
もた らさ</w>
もし も
もしも ーし</w>
も ろ</w>
も とる</w>
も じ
もじ もじ</w>
め げ</w>
め がね</w>
むだ 遣い</w>
む な
む せ</w>
む せ
む ざ</w>
む ざ
むざ むざ</w>
む ごい</w>
まぶ し</w>
まぐる しく</w>
まき 散らす</w>
ま ぐ
ま くっ</w>
ぼ ーっと</w>
ぼ やけ</w>
ほど ほど</w>
ほど い</w>
ほ くろ</w>
ぺ た</w>
ぺ こ</w>
べ え</w>
へ ー</w>
ぶっ 飛ばす</w>
ぶっ きら
ぶ くれ</w>
ふる まっ</w>
ふさ がっ</w>
ふさ が</w>
ふ や</w>
ひょ っこり</w>
ひょ う</w>
ひも じい</w>
ひと み</w>
ひと ところ</w>
ひけら かし</w>
ひき 臼</w>
ひ じ</w>
ひ さし</w>
ひ け</w>
はら はら</w>
はめ 込ん</w>
はね つけ</w>
はた き
は や
は み
は まり
は な</w>
は て</w>
は げ</w>
は ぐ
は く</w>
は き</w>
は かり
はかり ごと</w>
のろ ま</w>
のろ し</w>
のの しり</w>
の ど
の ち</w>
ね だる</w>
ね ずみ</w>
ぬ い</w>
にら みつけ</w>
に らむ</w>
に じん</w>
に きび</w>
なん ちゃ
なんちゃ って</w>
なめ らか</w>
ない し</w>
な りゃ</w>
な らす</w>
な あ
とん だ</w>
とり こ</w>
とら われる</w>
とど まら</w>
と らえ</w>
と もし</w>
で っ
でっ かい</w>
で こ</w>
てら っしゃる</w>
て ら</w>
て つ</w>
つる はし</w>
つり 銭</w>
つり 上げ</w>
つっ かい</w>
つか まっ</w>
つ れ
つ ぼ
っ 端</w>
っ ちゃ
ちま き</w>
ち き</w>
だまし 取る</w>
だまし 取っ</w>
ただ ただ</w>
た たり</w>
た けれ</w>
そで 口</w>
そ れる</w>
ぜん まい</w>
せん じ
ず ぶ
ず さん</w>
ず こ</w>
すれ 違っ</w>
すばし こい</w>
す らっ</w>
しょ せん</w>
し ーっ</w>
し ー</w>
し わが
し っとり</w>
し だい</w>
し げ</w>
し げ
しげ しげ</w>
し がみ
ざ た</w>
さらけ 出す</w>
さび しい</w>
さす らう</w>
ご み
ご し
ころ ころ</w>
こみ 上げ</w>
こび りつい</w>
こび へつらう</w>
こ ろん</w>
こ ざ
け ら</w>
け さ</w>
ぐる り</w>
ぐ せ</w>
くら む</w>
くぼ み</w>
くつろ ぐ</w>
くっ つく</w>
くだ さ</w>
く ま
く ぼ</w>
く だ</w>
く じい</w>
きわ めて</w>
きまり 悪</w>
き ゃあ</w>
がんば ろう</w>
がんば る</w>
がり 火</w>
が つ</w>
が える</w>
かみ しめ</w>
かく まっ</w>
かき 集める</w>
か 年</w>
か わ</w>
か ゆ</w>
か せ
か じっ</w>
か ざす</w>
か ぎ</w>
か がり火</w>
おろ か</w>
おも しろ</w>
おぼ れる</w>
おび え</w>
おど お
おどお ど</w>
おう よう</w>
お もっ</w>
お っ
お だ
お さえ</w>
うろ つい</w>
うらや まし</w>
うら らか</w>
うな だれ</w>
う わっ</w>
う たた
う す
いや らしい</w>
いま いち</w>
いた る</w>
い な
あれ ー</w>
あれ っ</w>
あり さ</w>
あや ふや</w>
あ や</w>
あ きれ</w>
あ がき</w>
あ か</w>
あ え</w>
々 木</w>
v i
u t
ti on</w>
l i
j i
figh ter</w>
er s</w>
en n</w>
e s</w>
e al
eal th</w>
b i
S P
S G</w>
S F</w>
P e
O S</w>
E G
C O</w>
6 000</w>
4 2</w>
3 50</w>
20 15</w>
20 11</w>
199 9</w>
19 50</w>
1 60</w>
1 146</w>
５ ００</w>
２０ １１</w>
２ １</w>
２ ００</w>
１ ８</w>
黙 る</w>
黙 々</w>
黒 色</w>
黒 幕</w>
麻 婆</w>
鳴 らさ</w>
鬱 々</w>
高 知</w>
高 慢</w>
髄 膜</w>
駆け 足</w>
駆け 引き</w>
駆け 回っ</w>
駆 逐</w>
首 謀</w>
飲み 込む</w>
飲み 下し</w>
食 おう</w>
飛び 込む</w>
飛び 回っ</w>
飛び 出す</w>
風 貌</w>
風 化</w>
頼み 込む</w>
靴 底</w>
面白 味</w>
面 前</w>
非 核</w>
静 養</w>
静 止</w>
静 岡</w>
静 けさ</w>
青 銅</w>
青 白く</w>
青 島</w>
雲 霧</w>
雲 間</w>
雲 行き</w>
雲 海</w>
雪 山</w>
雨 季</w>
難 航</w>
難 く</w>
雑 費</w>
雑 種</w>
雑 念</w>
雌 雄</w>
集 金</w>
集 落</w>
集 結</w>
集 客</w>
隣 家</w>
隣 り合っ</w>
隠し 事</w>
隠 匿</w>
隔 たっ</w>
隊 形</w>
陸 軍</w>
陸 路</w>
除 き</w>
除 か</w>
院 長</w>
院 生</w>
降り れ</w>
附 属</w>
防 寒</w>
防 具</w>
閣 下</w>
関 数</w>
間 中</w>
閑 散</w>
開 講</w>
開 こう</w>
閉ざ さ</w>
閃 光</w>
門 前</w>
長 髪</w>
鎮 め</w>
鎌 倉</w>
鍛え 上げ</w>
錯 覚</w>
鋼 板</w>
鋼 材</w>
鋭 気</w>
銘 じ</w>
銃 弾</w>
銃 器</w>
鉄 筋</w>
金 沢</w>
野 営</w>
野 党</w>
重 用</w>
重 任</w>
重 ね
里 帰り</w>
酔っ 払う</w>
配 備</w>
都 内</w>
遭 わさ</w>
適 齢</w>
遠ざ かっ</w>
遠 回り</w>
達 人</w>
道 楽</w>
道 ばた</w>
過 渡</w>
過 小</w>
遊び 場</w>
遊 歴</w>
遅 らせる</w>
逸 脱</w>
進 撃</w>
連 帯</w>
連 ね</w>
造 作</w>
通り 抜ける</w>
通り す
通りす がり</w>
通 販</w>
通 暁</w>
通 じ
透き 通っ</w>
透 析</w>
逆 巻い</w>
逆 上</w>
逃げ 場</w>
逃 避</w>
送り 返す</w>
退 去</w>
退 会</w>
追い 求め</w>
追い 出す</w>
追 っ
返 上</w>
近 辺</w>
近 寄り</w>
辱 める</w>
辛 亥</w>
輸 出入</w>
軽 蔑</w>
軽 微</w>
転 落</w>
転 じる</w>
軟 膏</w>
軒 昂</w>
軍 艦</w>
軍 用</w>
車 線</w>
車 体</w>
身 辺</w>
身 勝手</w>
躍 起</w>
踏みに じる</w>
踏み 入れる</w>
跳 ねる</w>
足 踏み</w>
起 因</w>
起 きれ</w>
赴 き</w>
賞 状</w>
賄 い</w>
貼り 付け</w>
貼 ら</w>
貸 与</w>
買い 取っ</w>
買い 付ける</w>
買 物</w>
貴 賓</w>
貴 下</w>
貫 く</w>
貪 食</w>
貧 窮</w>
財 力</w>
貞 操</w>
豊 年</w>
護 衛</w>
議 決</w>
謹 厳</w>
謁 見</w>
論 証</w>
請け 負っ</w>
課 せ</w>
課 し</w>
課 さ</w>
読み 込み</w>
語 り合う</w>
該 博</w>
話し 合わ</w>
詰め 込ん</w>
詭 弁</w>
試 飲</w>
証 文</w>
訪 ねよう</w>
計 らっ</w>
言い がかり</w>
触 れ
解 熱</w>
解 毒</w>
解 け
視 聴覚</w>
見 送ら</w>
見 込ん</w>
見 習っ</w>
見 渡し</w>
見 守り</w>
要 塞</w>
西 安</w>
襲いか かっ</w>
褒め たたえ</w>
複 線</w>
補 正</w>
裏 口</w>
裏 切る</w>
裏 側</w>
裁 断</w>
裁 き</w>
行き 詰まる</w>
血 縁</w>
蚊 帳</w>
虚 心</w>
虚 ろ</w>
虐 げ</w>
薄ら 寒い</w>
蒸 す</w>
蒙 昧</w>
葛 藤</w>
葉 原</w>
落とし 穴</w>
落と せ</w>
落ち着 ける</w>
落ち つい</w>
落 選</w>
落 し</w>
萎 縮</w>
菜 園</w>
荒 野</w>
荒 涼</w>
荒 唐</w>
荒 っぽい</w>
荒 々しく</w>
茶 店</w>
若 かっ</w>
芳 しく</w>
色 調</w>
色 情</w>
色 あせ</w>
良 種</w>
船 荷</w>
船 積</w>
船 便</w>
至 上</w>
自 重</w>
自 筆</w>
自 問</w>
自 制</w>
自 作</w>
膨ら ま</w>
膨 脹</w>
膨 れ</w>
腹 部</w>
腰 抜け</w>
腕 立て</w>
脱 線</w>
脂 っこい</w>
背 骨</w>
背 伸び</w>
胃 壁</w>
育 た</w>
肉 食</w>
肉 汁</w>
職 責</w>
職 能</w>
聞き 飽き</w>
聞き 入れる</w>
聞 かさ</w>
聖 地</w>
考え 出せ</w>
考 課</w>
考 証</w>
老 練</w>
習 い事</w>
群 山</w>
群 がっ</w>
美 徳</w>
罷 免</w>
置 換</w>
織 る</w>
縮こ まっ</w>
縫い つける</w>
縫い つけ</w>
縛 り
緩 衝</w>
緩 み</w>
緊 密</w>
続 行</w>
続 か</w>
継 が</w>
絹 糸</w>
給 仕</w>
組み 版</w>
組 め</w>
終 身</w>
細 々</w>
素 養</w>
素 振り</w>
素 性</w>
素 っ
素っ 裸</w>
紛 れ</w>
紅 楼</w>
精 華</w>
粛 清</w>
粘 着</w>
粘 り</w>
築 地</w>
築 き
箱 詰め</w>
算 定</w>
答 礼</w>
答 えろ</w>
筋 トレ</w>
等 しく</w>
筆 画</w>
笑い かけ</w>
竹 刀</w>
競 い
立ち 居</w>
立ち 回り</w>
立ち 向かっ</w>
立ち 去り</w>
立ち 入る</w>
立 脚</w>
立 憲</w>
窓 際</w>
穏 当</w>
積み 荷</w>
積み 出し</w>
種 付け</w>
税 理</w>
秋 葉原</w>
祭 る</w>
神 論</w>
祝 祭</w>
祝 し</w>
社 名</w>
碑 文</w>
硬 直</w>
硬 度</w>
破 綻</w>
研 ぎ
研 い</w>
石 材</w>
知 育</w>
着 工</w>
着 任</w>
眺 望</w>
眠 たい</w>
真ん 丸く</w>
真ん 丸</w>
真っ 盛り</w>
相 殺</w>
直 せる</w>
盲 腸</w>
目 薬</w>
目 立っ</w>
目 新しく</w>
目 処</w>
目 じり</w>
盛り 合わせ</w>
盛 況</w>
盛 っ</w>
皮 質</w>
皮 肉
白 地</w>
発 破</w>
発 現</w>
発 声</w>
痴 漢</w>
痛 ん</w>
病み つき</w>
病 棟</w>
病 原</w>
畳 み</w>
留 め
男 前</w>
申し 出る</w>
甲 高い</w>
産 卵</w>
産 休</w>
生み 出し</w>
生 水</w>
生 体</w>
甘 った
瓶 詰め</w>
瓦 ぶき</w>
瑕 疵</w>
琵 琶</w>
現 し</w>
玉 ねぎ</w>
猿 人</w>
独 力</w>
狩 猟</w>
狂 人</w>
特 効</w>
物 色</w>
物 悲しい</w>
爆 薬</w>
熟 れ</w>
煮 込ん</w>
煮 え
煩 わさ</w>
煩 わ</w>
煎 餅</w>
煎 じ</w>
焼き 付け</w>
焦 げ
無 稽</w>
無 欠</w>
無 援</w>
無 害</w>
烧 饼</w>
炭 火</w>
火 種</w>
火 勢</w>
激 高</w>
激 し</w>
潰 す</w>
潤 滑</w>
潜 め</w>
溜 まる</w>
源 泉</w>
満ち あふれる</w>
満 場</w>
湯 水</w>
渡 河</w>
減 量</w>
清 代</w>
清 く</w>
混ぜ 合わせる</w>
混 紡</w>
混 在</w>
混 同</w>
混 む</w>
混 み合っ</w>
涼 み</w>
消 灯</w>
海 鮮</w>
海 峡</w>
浴び せる</w>
浮き 輪</w>
流れ 落ち</w>
流 石</w>
流 用</w>
流 産</w>
流 派</w>
流 水</w>
流 星</w>
洗 車</w>
洗 脳</w>
洗 え</w>
泳 ぎ
泳 が</w>
波 濤</w>
波 打つ</w>
法 務</w>
泉 美</w>
治 まら</w>
沸 騰</w>
河 口</w>
汚 名</w>
永 続</w>
水 遊び</w>
水 溶</w>
水 域</w>
水 ぶくれ</w>
水 の
水の 泡</w>
気 配り</w>
気 落ち</w>
気 脈</w>
気 心</w>
気 付け</w>
民 家</w>
民 国</w>
毛 細</w>
比 重</w>
毎 食</w>
毎 度</w>
母 車</w>
母 校</w>
母 乳</w>
殺し 屋</w>
殺 せる</w>
殊 勲</w>
死 因</w>
死 力</w>
死 人</w>
歯 並び</w>
正 大</w>
正 さ</w>
止 み</w>
歌 謡</w>
歌 舞
歌 い
次 ぎ</w>
機 雷</w>
横た わり</w>
権 謀</w>
概 観</w>
楽 屋</w>
楽 園</w>
楷 書</w>
極 秘</w>
極 まる</w>
検 知</w>
検 死</w>
植 えつけ</w>
梗 塞</w>
桜 木</w>
案 の
案の 定</w>
格 段</w>
格 子</w>
根 付い</w>
校 内</w>
栄 える</w>
柳 絮</w>
染 み
枝 垂れ
枝垂れ 柳</w>
枕 元</w>
来 院</w>
束 ね</w>
朝 霧</w>
朝 礼</w>
朝 晩</w>
朝 夕</w>
朝 地</w>
服 務</w>
服 し</w>
有り 難う</w>
有 形</w>
月 食</w>
月 面</w>
月 給</w>
月 初め</w>
最 期</w>
最 強</w>
書き 留める</w>
書き 留め</w>
書き 写し</w>
書 斎</w>
暴 行</w>
暮 色</w>
暗 澹</w>
暗 かっ</w>
時 たま</w>
春 節</w>
映 し
星 空</w>
明 月</w>
明 晰</w>
昇 降</w>
早 けれ</w>
日 めくり</w>
旅 立っ</w>
旅 券</w>
新 薬</w>
新 式</w>
新 居</w>
新 刊</w>
断ち 切ら</w>
断ち 切っ</w>
斥 候</w>
文 面</w>
文 科</w>
敵 意</w>
整 合</w>
敬 愛</w>
敬 い</w>
教 練</w>
教 条</w>
救 護</w>
救 え</w>
放 蕩</w>
放 熱</w>
改 まっ</w>
擦り 傷</w>
擦 れ</w>
撤 廃</w>
撤 去</w>
搾り 取る</w>
損 ねる</w>
損 ね</w>
揺り 動かす</w>
揺さ ぶっ</w>
揺 らい</w>
揺 すっ</w>
描 き
揃 う</w>
掴 む</w>
推 論</w>
接 収</w>
探 そう</w>
採 取</w>
採 ら</w>
掛け 値</w>
掘 削</w>
排 他</w>
捻 挫</w>
捜し 求める</w>
捜し 出せ</w>
挿 絵</w>
振り 返り</w>
振り まく</w>
挑 ん</w>
指 先</w>
持ち 株</w>
持 久</w>
拭 き</w>
拭 き
拒 ん</w>
拒 む</w>
拉 致</w>
押し 通す</w>
押し 流さ</w>
押し つぶさ</w>
押し つける</w>
押さ えつける</w>
抱き 締め</w>
抱き つい</w>
抱き しめる</w>
抜 群</w>
抜 粋</w>
折れ 曲がっ</w>
折り 返す</w>
折り 合い</w>
投げ つけ</w>
投げ かける</w>
投 棄</w>
投 入</w>
技 法</w>
打ち 負かし</w>
打ち 上げる</w>
打 算</w>
手 心</w>
手 厳しい</w>
手 分け</w>
戻 せ</w>
戸 棚</w>
戸 口</w>
戦 況</w>
戦 局</w>
戦 国</w>
戦 利</w>
戦 え</w>
成り 立つ</w>
成 都</w>
成 る</w>
成 り</w>
成 っ</w>
懲 り</w>
懇 請</w>
懇 談</w>
憤 然</w>
憎 ま</w>
慚 愧</w>
慕 っ</w>
感 知</w>
愛 知</w>
愛 犬</w>
愛 人</w>
愛 らしい</w>
愛 す</w>
愚 か
愚か 者</w>
愁 傷</w>
惑 わさ</w>
情 操</w>
悪 運</w>
悪 態</w>
悩み 事</w>
患 う</w>
悠 然</w>
悟 空</w>
悔い 改める</w>
息 苦しい</w>
息 抜き</w>
恫 喝</w>
恥じ 入っ</w>
恒 星</w>
恐 慌</w>
怪 し</w>
思い 込む</w>
思い 起こし</w>
思い 起こさ</w>
思い 当たる</w>
思 索</w>
怒鳴り つける</w>
怒 鳴る</w>
快 晴</w>
志 士</w>
志 向</w>
忍び 込ん</w>
必 修</w>
心 づ
心づ もり</w>
微 力</w>
従 姉妹</w>
後 進</w>
後 見</w>
後 藤</w>
後 尾</w>
後 味</w>
往 診</w>
彫 り</w>
彩 雲</w>
彩 り</w>
形 跡</w>
形 相</w>
当て はめる</w>
当 地</w>
弾 ま</w>
弾 き
張り 合っ</w>
弱 者</w>
弱 体</w>
弱 め</w>
引き継 が</w>
引き 離し</w>
引き 返す</w>
引き 落とし</w>
引き 続い</w>
引き 渡さ</w>
引き 延ばす</w>
引き 回し</w>
引き 出さ</w>
引き ちぎっ</w>
廃 墟</w>
座 標</w>
座 り
店 長</w>
広 がり</w>
幼 虫</w>
幸 甚</w>
年 配</w>
年 賀</w>
平 板</w>
平 地</w>
平 価</w>
干し 草</w>
干 ばつ</w>
干 から
幅 広く</w>
常 時</w>
常 套</w>
帳 票</w>
帰 路</w>
帰 れよ</w>
席 順</w>
巻き 起こす</w>
巻き つい</w>
差し 出す</w>
巨 人</w>
巡り 会う</w>
巡り 会い</w>
川 底</w>
川 島</w>
川 岸</w>
崩 さ</w>
島 国</w>
山 腹</w>
履 修</w>
届け 出</w>
屈 原</w>
居 所</w>
居 候</w>
就 寝</w>
就 学</w>
就 労</w>
少 子</w>
小 船</w>
小 腸</w>
小 山</w>
射 る</w>
対 称</w>
対 価</w>
対 人</w>
寸 分</w>
寝 ろ</w>
寝 そ
寝 かせる</w>
寝 かせ</w>
寒 気</w>
富 農</w>
富 豪</w>
密 集</w>
密 林</w>
寄 稿</w>
寄 れ</w>
宿 屋</w>
容 認</w>
家 系</w>
家 主</w>
実 業</w>
宛 名</w>
定 額</w>
定 理</w>
定 数</w>
定 例</w>
定 休</w>
定 か</w>
官 界</w>
官 庁</w>
官 吏</w>
完 済</w>
完 治</w>
守 勢</w>
学び 取る</w>
学 芸</w>
学 界</w>
学 友</w>
学 ぼう</w>
子 守</w>
嫌 気</w>
嫁 ぎ
嫁ぎ 先</w>
婚 礼</w>
威 張り
委 ね</w>
姓 名</w>
如 意</w>
好き 勝手</w>
好 機</w>
奮い 立つ</w>
奮い 立っ</w>
奮 っ</w>
奪い 合い</w>
奪い 取っ</w>
奥 義</w>
奔 放</w>
夾 も</w>
失 言</w>
失 念</w>
太 刀</w>
太 ら</w>
天 山</w>
天 命</w>
大 道</w>
大 賞</w>
大 当たり</w>
大 差</w>
大 将</w>
大 まか</w>
大 い
大い なる</w>
夜 通し</w>
多 種</w>
多 発</w>
外 形</w>
外 回り</w>
売り さ
壇 場</w>
増 設</w>
増 強</w>
墓 前</w>
塩 素</w>
塩 漬け</w>
塞 ぐ</w>
塞 い</w>
堪 忍</w>
堪 え
堪え 忍
堆 肥</w>
執り なし</w>
地 層</w>
在 来</w>
土産 話</w>
土 壇場</w>
園 芸</w>
国 王</w>
因 縁</w>
回り くどく</w>
四 捨</w>
嘆 い</w>
嗅 ぐ</w>
喘 息</w>
喉 元</w>
善 行</w>
善 悪</w>
問い 合わせる</w>
問 う</w>
問 い</w>
咽 頭</w>
咲き 誇っ</w>
咲 子</w>
和 紙</w>
和 服</w>
命 日</w>
呼び 捨て</w>
呼び 声</w>
呼 ぼう</w>
味 覚</w>
周 忌</w>
告 訴</w>
吹き 飛ばさ</w>
吹き 抜ける</w>
吹き つける</w>
吹き す
吹 部</w>
吹 け</w>
吸い 取る</w>
吸 血</w>
吸 着</w>
吸 える</w>
否 決</w>
吟 味</w>
向かい 風</w>
向かい 側</w>
吐 露</w>
名 産</w>
名 手</w>
名 医</w>
名 まえ</w>
同 席</w>
同 名</w>
吉 凶</w>
合わ せれ</w>
合 鍵</w>
合 点</w>
号 令</w>
右 目</w>
史 書</w>
叱 正</w>
台 車</w>
台 帳</w>
台 北</w>
可 愛</w>
叩 き</w>
口 過ぎ</w>
受け 身</w>
受 諾</w>
受 かる</w>
受 かっ</w>
取り締 まり</w>
取り仕 切っ</w>
取り 返す</w>
取り 直し</w>
取り 決め</w>
取り 壊し</w>
取り 乱し</w>
取り つか</w>
取り そろえ</w>
取っ 組み</w>
取っ 手</w>
取 付</w>
収 量</w>
収 賄</w>
収 まる</w>
反 面</w>
及ぼ し</w>
厳 寒</w>
厳 冬</w>
原 生</w>
原 点</w>
厚か ましい</w>
厚 情</w>
卸 し
卸し 売り</w>
即 興</w>
印 字</w>
南 下</w>
半 角</w>
半 人</w>
千 古</w>
包 容</w>
勝ち 目</w>
勝 者</w>
動 こう</w>
動 ける</w>
動 き
勇 壮</w>
励 まし
助 っ
助っ 人</w>
助 けよう</w>
劣 る</w>
力 添え</w>
劇 中</w>
割り ふる</w>
割り ふり</w>
割 れる</w>
剰 余</w>
剪 定</w>
前 足</w>
前 島</w>
前 列</w>
剃 り</w>
刻 みつけ</w>
刺 青</w>
券 売</w>
刷 り</w>
制 圧</w>
利 回り</w>
判 別</w>
刑 場</w>
切り 立っ</w>
切 開</w>
切 迫</w>
切 ろう</w>
分かち 合う</w>
出し 合っ</w>
出 獄</w>
出 撃</w>
出 所</w>
出 庫</w>
出 向く</w>
出 しゃ
凝 集</w>
凝 らす</w>
冷や かし</w>
冷 やか</w>
冠 水</w>
冗 長</w>
再 考</w>
再 四</w>
円 滑</w>
内 幕</w>
兼 ね
共 謀</w>
公 有</w>
公 明</w>
八 卦</w>
全 軍</w>
入れ ろ</w>
入 営</w>
光 彩</w>
先 駆け</w>
先 ず</w>
兄 嫁</w>
元 金</w>
優 生</w>
償 う</w>
儀 礼</w>
催 さ</w>
備 蓄</w>
備 え付け</w>
停 まっ</w>
偏 差</w>
値 札</w>
値 下がり</w>
倒 壊</w>
倒 れ込ん</w>
倍 率</w>
修 養</w>
修 羅</w>
信 義</w>
信 望</w>
信 心</w>
信 任</w>
保 釈</w>
便 秘</w>
併 せ</w>
作り 直し</w>
作 為</w>
余 白</w>
余 し</w>
佐 賀</w>
住み つい</w>
住み か</w>
低 温</w>
低 減</w>
伝 送</w>
伝 え
会 費</w>
休 会</w>
件 名</w>
仲むつま じく</w>
仲むつま じい</w>
仰 天</w>
仰 せ</w>
仮 想</w>
代 価</w>
仙 人</w>
付 する</w>
付 す</w>
付 け
仕事 探し</w>
仕 留める</w>
仕 留め</w>
仕 掛ける</w>
仕 打ち</w>
仕 える</w>
人 違い</w>
人 造</w>
人 殺し</w>
人 望</w>
人 だ
人だ かり</w>
交 響</w>
亡 霊</w>
亡 き</w>
亜 美</w>
五 入</w>
二の 足</w>
二の 次</w>
二 股</w>
二 千</w>
乳 母車</w>
乗り 出し</w>
乗 船</w>
乗 組</w>
主 流</w>
主 治</w>
主 宰</w>
丹 念</w>
丸 顔</w>
丸 太</w>
丸 出し</w>
丸 め</w>
丸 々</w>
中 高</w>
中 耳</w>
中 尾</w>
中 二</w>
中 ごろ</w>
両 開き</w>
丘 陵</w>
世 渡り</w>
世 事</w>
不 遜</w>
不 遇</w>
不 潔</w>
不 況</w>
不 治</w>
不 振</w>
不 味
下ろ せ</w>
下ろ さ</w>
下 書き</w>
下 方</w>
上り 下り</w>
上げ れ</w>
上 述</w>
上 訴</w>
上 書</w>
上 旬</w>
上 役</w>
上 っ面</w>
三 条</w>
三 味</w>
万 端</w>
一人 娘</w>
一人 ひとり</w>
一 郎</w>
一 続き</w>
一 節</w>
一 揆</w>
一 席</w>
一 夜</w>
一 わたり</w>
ー ソン</w>
ー んと</w>
ー く</w>
ン ヒ
ン サー</w>
ワーク ショップ</w>
ワー キング</w>
ワイ ルド</w>
ロー ション</w>
ロー カル</w>
ロジ ック</w>
ロ ン
ロ マンス</w>
ロ ケ</w>
レ クト</w>
ル ド
ル ギ
リ ンス</w>
リ フレッシュ</w>
リ ニュー
リニュー アル</w>
リ サーチ</w>
リ ガニ</w>
リ アクション</w>
ラー ニング</w>
ラン ドリー</w>
ラス メント</w>
ライ フ
ラ テン</w>
ラ ッピング</w>
ユウ コ</w>
ヤ ック</w>
ヤ キモチ</w>
モテカ ワ</w>
モット ー</w>
メ シ</w>
ミシ シッ
ミ ル
ミ ラ
ミ スト</w>
ミ スター</w>
マー チャン
マーチャン ダイ
マグ ロ</w>
マイ ズ</w>
マ ワリ</w>
マ ニア</w>
マ ックス</w>
マ チ</w>
ポル ト
ポルト ガル</w>
ポ テン
ポテン シャル</w>
ポ タ
ポ キ
ボイ コ
ボイコ ット</w>
ボ ディ</w>
ボ チャ</w>
ホイ ール</w>
ホイ ッ
ホ ース</w>
ホ ラ</w>
ホ モ</w>
ホ ット
ペン チ</w>
ペン ギ
ペンギ ン</w>
ペ ナル
ペ ダル</w>
ベ ール</w>
ベ ー</w>
ヘリ ウム</w>
プレ イヤー</w>
プリン タ</w>
プリ メント</w>
プライ ター</w>
プライ アンス</w>
プラ グ</w>
プ ン
プ ル
ブラック リスト</w>
フリ ーター</w>
フランチャイ ズ</w>
フォーマ ット</w>
フォル ニア</w>
フォ ト</w>
ファイ ター</w>
ファ レンス</w>
ファ ク
フ フフ</w>
ピオ ネール</w>
ピ チャ</w>
ピ ストン</w>
ピ ア</w>
ビル ディング</w>
ビビ ら</w>
ビジ ネ
ビジネ スマン</w>
ビ ン
ビ ネット</w>
ビ シ
ビ エ
ビエ ト</w>
ヒュー ヒュー</w>
ヒ ラ</w>
ヒ ラ
ヒ マワリ</w>
ヒ チ</w>
パラ パラ</w>
パト カー</w>
パタ パタ</w>
パ ノ
パ ティ
パティ シエ</w>
パ ク
バン パー</w>
バレ リーナ</w>
バリ バリ</w>
バリ ゼーション</w>
バック アップ</w>
バグ り</w>
バク テリア</w>
バイ オリ
バ バ
バ ニラ</w>
バ タ</w>
ハー ドル</w>
ハー イ</w>
ハイ ジャック</w>
ハ ラスメント</w>
ハ ム
ハ チ</w>
ハ セ
ハセ ヨ</w>
ハ エ
ハ ウ
ハ アハ
ハアハ ア</w>
ノル ド</w>
ノウ ハウ</w>
ネ ーズ</w>
ヌ ード</w>
ニ ック
ニ コ
ニ クス</w>
ニ オン</w>
ニ オ</w>
ニ アリング</w>
ナー レ</w>
ナイ ロン</w>
ナ ルド</w>
ナ マ</w>
ドラ フト</w>
ド レッ
ド ラ</w>
ド ッグ</w>
ド ック</w>
ド カン</w>
トン トン</w>
トゥ ー</w>
ト レッ
ト ピック</w>
ト ニオ</w>
ディ ッシュ</w>
ディ ガン</w>
テ レ</w>
ツ ーリング</w>
ツ ムリ</w>
ツ キ</w>
ツ ァ
ッツ ン</w>
ッチ ッ</w>
ッシュ ッ</w>
ッシ ング</w>
ッ ス</w>
チーム メイト</w>
チラ ッ</w>
チャ ップ</w>
チャ ック</w>
チ ョ</w>
チ ッチッ</w>
チ ッと</w>
チ カン</w>
チ ア</w>
ター ボ
タイム リー</w>
タイ プライター</w>
タイ ド</w>
タ ンス</w>
タ ブー</w>
タ ヒチ</w>
タ ダ</w>
タ グ</w>
ソー シング</w>
ソ ビエト</w>
ソ ックス</w>
セク ハラ</w>
セ ッション</w>
ズ ル
スモ ッグ</w>
スポ ンサー</w>
スペ シャ
スプ リング</w>
スト ーカー</w>
スト ッキング</w>
スケー トボード</w>
スケ ベ</w>
スキャ ナー</w>
スカ ーフ</w>
スカ ル</w>
スカ ウト</w>
ス ルー</w>
ス パート</w>
ス パン
ス タ</w>
ス コープ</w>
ジョ ンソン</w>
ジャ ク</w>
ジャ ク
ジェ ーソン</w>
シュ ッシュッ</w>
シャ フト</w>
シェ ー
シ ード</w>
シ マ
シ ティ</w>
シ シ</w>
シ アー</w>
ザ リガニ</w>
ザ ラ
ザ メ</w>
サンド ウィッチ</w>
サンタ クロース</w>
サン プ
サ ンド</w>
サ プリメント</w>
サ ファイア</w>
サ ッ</w>
サ キ</w>
コンベ ア</w>
コン ロ</w>
コン プライアンス</w>
コン ビ</w>
コン ディ
コ ラー
グル メ</w>
グ リ</w>
グ ラン
グ ライダー</w>
グ ラ</w>
クロ ーズ</w>
クレー プ</w>
クリ エーション</w>
クソ ッ</w>
ク ー</w>
ク トル</w>
ク ジャク</w>
ギャ ング</w>
キロ ワット</w>
キャン ドル</w>
キャン ディー</w>
キャ ビア</w>
キャ シー</w>
キ ン
キ リ
キ ムチ</w>
キ ット</w>
キ チッと</w>
ガラ ガラ</w>
ガッ カリ</w>
ガタ ガタ</w>
ガソ ック</w>
カー ディガン</w>
カン トリー</w>
カリ フォルニア</w>
カタ ツムリ</w>
カ ント</w>
カ ヤック</w>
カ ム</w>
カ ボチャ</w>
カ ツ</w>
カ セ</w>
カ ジュアル</w>
カ ウ
オー ラ</w>
オー ブン</w>
オム ライス</w>
オペ レーション</w>
エンターテイ メント</w>
エンジ ニアリング</w>
エン ヤ</w>
エスカ レーター</w>
エ ン</w>
エ ド
エ ステ
エ グ
ウォ ン</w>
ウェ ーブ</w>
ウイ グル</w>
ウィ ルス</w>
ウ インド
インフ レーション</w>
インパ クト</w>
インター ナショナル</w>
イン ディアン</w>
イン ター</w>
イノ シシ</w>
イ ラン</w>
イ コール</w>
イ ケ</w>
イ カ
アー ノルド</w>
アル プス</w>
アラ ーム</w>
アラ スカ</w>
アパ レル</w>
アップ グレード</w>
アカ デ
アイ コン</w>
ア メ</w>
ア ベ
ア セ
ア キ
ア オ
ん ー</w>
ん かち
んかち ん</w>
ん えん</w>
わき 道</w>
わ るい</w>
わ な
わ そ
わそ わ</w>
わ さび</w>
ろう じて</w>
ろ やか</w>
れ 込む</w>
り 立てる</w>
り 売り</w>
り ひ
りひ り</w>
ら ず</w>
ら かす</w>
よろ めき</w>
よそ 見</w>
よそ 者</w>
よじ 登る</w>
よじ 登っ</w>
よ もや</w>
ょ ん</w>
やせ 細
やき もち</w>
や ろ</w>
や に</w>
や き</w>
や かし</w>
や い
もら い
もの 狂い</w>
もくろ む</w>
もくろ み</w>
も ー</w>
も ぐ</w>
も がく</w>
も がい</w>
めで たい</w>
め で</w>
め ぐ
むな しく</w>
む ちゃくちゃ</w>
む しば
み どり</w>
まぶ しく</w>
まつ げ</w>
まじ ない</w>
まさ ら</w>
ま 湯</w>
ま ろやか</w>
ま れる</w>
ま ちがい</w>
ま ち</w>
ま そう</w>
ま しかっ</w>
ま げ
まげ て</w>
ぽつ ぽ
ぽつぽ つ</w>
ぼ っ</w>
ぼ こり</w>
ほほえ む</w>
ほっ ぺた</w>
ほころ び</w>
ほう き</w>
ほ ーら</w>
ほ どき</w>
ほ ぐし</w>
へ な</w>
へ な
へな へな</w>
へ と</w>
へ と
へと へと</w>
へ そ
へそ くり</w>
ぶり 返し</w>
ぶら 下げ</w>
ぶら つい</w>
ぶっきら ぼう</w>
ぶっ 放し</w>
ぶち 壊し</w>
ふる っ</w>
ふっ くら</w>
ふ つう</w>
ふ し
ふし だら</w>
ふ さ</w>
ふ けり</w>
ふ くら
ふ き
ぴ ょん</w>
びしょ び
びしょび しょ</w>
び た</w>
ひょ ろ
ひど かっ</w>
ひっ かき</w>
ひた むき</w>
ひ れ
ひ りひり</w>
ひ ねっ</w>
ひ ど</w>
ひ じ
ぱ ったり</w>
ば む</w>
ば くち</w>
はな は
はため い</w>
はた して</w>
はしゃ い</w>
はき はき</w>
は じく</w>
は がし</w>
は が
は いっ</w>
のど か</w>
のぞ か</w>
の 間</w>
の 根</w>
の 手</w>
の び</w>
の し
の ぅ</w>
ねた む</w>
ね り</w>
ね だり</w>
ぬる ま湯</w>
ぬぐ う</w>
ぬ るく</w>
ぬ ぐっ</w>
ぬ か</w>
にん にく</w>
なすり つけ</w>
なく さ</w>
な ーん</w>
な よ
な ま</w>
な びく</w>
な じま</w>
な げ
な けりゃ</w>
な え</w>
どー ぞ</w>
どう こう</w>
ど ろ
ど もる</w>
ど かっ</w>
とろ 火</w>
とど ろい</w>
と ろ</w>
と まっ</w>
と てつ</w>
と か</w>
で かし</w>
で かけ</w>
てん ぷら</w>
づ らく</w>
つんざ く</w>
つぶ やい</w>
つかみ どころ</w>
つ れる</w>
つ くし</w>
っぽ う</w>
っぱ っ</w>
っつ り</w>
っ てぇ</w>
ちら ほら</w>
ちっ こい</w>
ち なん</w>
だん らん</w>
だん だ</w>
だ あ</w>
たわ わ</w>
たわ ごと</w>
たら たら</w>
たまり 水</w>
たま げ</w>
たどり 着く</w>
たどり 着い</w>
たた か</w>
た める</w>
た な</w>
た える</w>
た あ</w>
そっ けなく</w>
そそ ぐ</w>
そそ くさ</w>
そう こう</w>
そ わそわ</w>
そ る</w>
そ ぎ
せんじ 薬</w>
せ がん</w>
ずぶ ぬれ</w>
ずうずう しい</w>
ず るく</w>
ず ら
すら り</w>
すば らしかっ</w>
すっ から
すっから かん</w>
すく い
す わっ</w>
す ぼ
す ず</w>
す がる</w>
じろ ぎ</w>
じ だんだ</w>
しん どかっ</w>
しわが れ</w>
しる し</w>
しょう しゃ</w>
しゃ っ</w>
しみ ったれ</w>
しの ぐ</w>
しで かす</w>
しか りつける</w>
し ら
し た
し おり</w>
ざ り</w>
さま よっ</w>
さっ そく</w>
さし あたり</w>
さし あげ</w>
さか のぼ
さえ ずっ</w>
さい ころ</w>
さ ん
さ わる</w>
さ り
さ た</w>
さ くら
さくら んぼ</w>
さ くさ</w>
さ き</w>
ご も</w>
ご う
ごう ごう</w>
こん ろ</w>
こも ごも</w>
こま め</w>
こぼ れる</w>
こぼ れ
こじ つけ</w>
こうむ る</w>
げ つない</w>
げ いこ</w>
け ば
け なす</w>
け ず
け い</w>
け い
ぐら つい</w>
くる り</w>
くま なく</w>
くどくど しい</w>
くっ そ</w>
くたば り</w>
くす ぐっ
くしゃ くしゃ</w>
く せえ</w>
く じ
く う</w>
きょ とん</w>
きめ 細かく</w>
き ゅ
き ゃ
き つ</w>
き っ
き ず
が わ</w>
が ろう</w>
が らん</w>
が める</w>
が つ
かわい らしい</w>
かわ し</w>
から かい</w>
かぶ と</w>
かち んかちん</w>
かしこ まっ</w>
かぐ わしい</w>
かき 立てる</w>
か ろうじて</w>
か ゆく</w>
か ゆ
か ぐ</w>
おさ める</w>
おこ す</w>
お ッ</w>
お だ</w>
え んえん</w>
え げつない</w>
うろ たえる</w>
うろ たえ</w>
うっ そう</w>
うたた 寝</w>
う んこ</w>
う り
う め</w>
う め
う せ</w>
う す</w>
う しろ</w>
いや あ</w>
いで よ</w>
いち ず</w>
い まさら</w>
い たい</w>
い ずこ</w>
い じ</w>
あり あり</w>
あぶ ねー</w>
あず かり</w>
あご ひげ</w>
あげ く</w>
あお ぐ</w>
あえ い</w>
あ ーっ</w>
あ ー
あ やし</w>
あ ば
あ さ
あ あっ</w>
々 し</w>
à n</w>
à n
v e</w>
s on</w>
ra d
rad f
radf or
radfor d</w>
on e</w>
ol l
oll in
ollin s</w>
o m</w>
o m
m i
l a
i r
hi l</w>
g u
f i</w>
e st
di o</w>
d e
c om</w>
U V</w>
SP W</w>
R ollins</w>
R a
P hil</w>
M E</w>
L i
L I
Hol man</w>
H ealth</w>
H I
E U</w>
E C</w>
C V</w>
B radford</w>
9 9</w>
8 5</w>
8 2</w>
7 8</w>
6 1</w>
5 5</w>
4 7</w>
3 6</w>
200 8</w>
19 90</w>
10 000</w>
1 80</w>
1 23</w>
1 10</w>
Ｉ Ｄ</w>
９ ０</w>
６ ５</w>
２００ ８</w>
２ ５</w>
１ ６</w>
１ ０００</w>
鼻 腔</w>
鼻 先</w>
鼓 膜</w>
黄 身</w>
黄 浦</w>
黄 土</w>
麻 袋</w>
麻 縄</w>
麗 しく</w>
鳴 り物</w>
魚 雷</w>
魔 物</w>
魅 惑</w>
鬼 ごっこ</w>
鬱 積</w>
高 潮</w>
高 位</w>
高 三</w>
高 めよう</w>
驚 かす</w>
驚 かし</w>
騒 然</w>
騒 々しく</w>
駆け 巡っ</w>
駆け 寄っ</w>
駆け だし</w>
駆 り立て</w>
馬鹿 げ</w>
香 川</w>
飾り 立てる</w>
飼い ならし</w>
飲み 込ま</w>
飲み 水</w>
飲み 干す</w>
飢 え
食べ ろ</w>
食べ れる</w>
食い 止める</w>
食い 止め</w>
食 らう</w>
飛び 抜け</w>
飛び 回る</w>
飛び 去っ</w>
風呂 場</w>
風 雅</w>
風 流</w>
風 光</w>
類 推</w>
類 人</w>
願い 出る</w>
顕 示</w>
題 目</w>
頼み ごと</w>
頼 め</w>
頭 角</w>
頭 蓋</w>
頤 和</w>
頑 健</w>
音 波</w>
音 域</w>
面 構え</w>
露 見</w>
震 撼</w>
震 動</w>
電 極</w>
雪 原</w>
難 解</w>
難 点</w>
離れ ろ</w>
離 れよう</w>
雑 食</w>
雑 巾</w>
雌 豚</w>
雄 々しい</w>
隷 属</w>
隣 国</w>
障 っ</w>
際 限</w>
隔 週</w>
陽 光</w>
陸 地</w>
陰 陽</w>
陥 没</w>
除 名</w>
陣 容</w>
陜 西</w>
阻 害</w>
防 音</w>
防 除</w>
防 備</w>
防 げる</w>
防 げ</w>
防 ぎ
闘 わ</w>
閲 兵</w>
関 の
関の 山</w>
間違 う</w>
間 食</w>
間 際</w>
開 演</w>
開 廷</w>
開 けよう</w>
閉 まる</w>
長 身</w>
長 者</w>
長 引か</w>
長 居</w>
長 安</w>
鎮 痛</w>
錯 綜</w>
鋳 型</w>
鋭 利</w>
銑 鉄</w>
銀 白</w>
鉱 産</w>
鉄 柵</w>
釣り 針</w>
釘 付け</w>
金 銀</w>
量 り売り</w>
重 心</w>
重 き</w>
重 々しく</w>
重 々しい</w>
酸 味</w>
酷 暑</w>
酒 場</w>
配 転</w>
都 心</w>
部 数</w>
部 屋
避 妊</w>
避 けよう</w>
遼 寧</w>
遺 物</w>
選 ぼう</w>
適 量</w>
適 格</w>
適 する</w>
遠ざ かる</w>
遠 縁</w>
違 背</w>
道 連れ</w>
道 程</w>
過ぎ 去り</w>
過 少</w>
運び 込ま</w>
運 べ</w>
遊 泳</w>
遊 戯</w>
遊 べる</w>
逼 迫</w>
連 綿</w>
速 力</w>
通り 越し</w>
通り かかっ</w>
通 気</w>
通 せ</w>
逐 次</w>
透 視</w>
逃げ 惑
送り 返し</w>
送り 迎え</w>
送り 出し</w>
退 席</w>
退 化</w>
退 出</w>
退 き</w>
追い 返し</w>
追い 出そう</w>
追い つき</w>
追 突</w>
迫 り</w>
返 礼</w>
辿 っ</w>
込み 入っ</w>
軽 傷</w>
転 化</w>
転 出</w>
転 ば</w>
転 々</w>
軟 弱</w>
軟 らか</w>
車 夫</w>
身 障</w>
身 の毛</w>
身 ご
躍 り</w>
踏み 込ま</w>
踏み 出す</w>
踏 査</w>
踏 まえる</w>
踊 れ</w>
足 かせ</w>
起き 上がる</w>
起き 上がり</w>
起 用</w>
赤 身</w>
賭 ける</w>
質 量</w>
質 疑</w>
質 朴</w>
質 屋</w>
賛 美</w>
賛 歌</w>
買い 上げる</w>
貴 国</w>
貴 信</w>
豪 傑</w>
象 眼</w>
豊 満</w>
譲り 渡し</w>
譲 ろう</w>
譲 り合う</w>
警 護</w>
譜 面</w>
謹 慎</w>
謳 歌</w>
謝 れ</w>
講 和</w>
論 駁</w>
論 議</w>
論 拠</w>
請 い
調 教</w>
課 す</w>
読 解</w>
読 点</w>
説 き
語 法</w>
誘 発</w>
誇 らしく</w>
話し 合おう</w>
詰め 込む</w>
詰 問</w>
試 さ</w>
許 諾</w>
記 名</w>
記 さ</w>
託 送</w>
討 つ</w>
言葉 数</w>
言い触 らす</w>
言い表 せ</w>
言い 張る</w>
言い 回し</w>
触 発</w>
角 刈り</w>
親 近</w>
覗 い</w>
見せび らかす</w>
見せ しめ</w>
見え 隠れ</w>
見 開く</w>
見 返し</w>
見 計らっ</w>
見 放さ</w>
見 張る</w>
見 張っ</w>
見 地</w>
見 回り</w>
見 合わせる</w>
見 下ろす</w>
見 下げる</w>
見 る
見る 見る</w>
見 く
覆 さ</w>
要 所</w>
褒め 言葉</w>
製 法</w>
裸 足</w>
補 完</w>
補 い</w>
裏 づけ</w>
表 題</w>
表 われる</w>
表 わさ</w>
表 さ</w>
街 道</w>
街 路</w>
行き 違い</w>
行き 詰まっ</w>
行き 届か</w>
行 間</w>
行 え</w>
血 色</w>
蜂 の巣</w>
虚 無</w>
虚 名</w>
藤 岡</w>
薬 液</w>
薬 学</w>
薄 着</w>
薄 っ
葬 ら</w>
落ち着 けよ</w>
落 葉</w>
菜 食</w>
荘 重</w>
荒 れる</w>
荒 々しい</w>
草 書</w>
草 刈り</w>
草 ぶき</w>
茶 葉</w>
茶 苦
茶苦 茶</w>
英 知</w>
英 才</w>
若 き</w>
苗 字</w>
芽 球</w>
花 弁</w>
花 婿</w>
花 かご</w>
花 々</w>
良 薬</w>
良 家</w>
船 酔い</w>
舶 来</w>
舞い 上がる</w>
興 行</w>
至 極</w>
自 足</w>
自 販</w>
自 称</w>
自 滅</w>
自 業</w>
自 我</w>
自 得</w>
自 失</w>
臨 終</w>
腹立た しい</w>
腰 回り</w>
腫 れる</w>
腫 れ
腐 食</w>
腐 れ
腐れ 縁</w>
脱 税</w>
脊 柱</w>
脈 拍</w>
脅 かさ</w>
脂 質</w>
背 い</w>
育て 上げる</w>
肌 着</w>
聴 診</w>
聞き 耳</w>
聞き 出し</w>
聞き つける</w>
聞き つけ</w>
聖 歌</w>
耕 耘</w>
耐 震</w>
耐 熱</w>
耐 火</w>
耐 水</w>
考え 事</w>
考え ごと</w>
羽 ば
義 母</w>
義 姉</w>
義 俠</w>
羨 ましかっ</w>
羨 まし</w>
群 衆</w>
美 酒</w>
美 緒</w>
美 感</w>
罵 倒</w>
罰 する</w>
置 物</w>
罗 场</w>
纏 め</w>
繰 延</w>
織 り
縮 む</w>
縫 製</w>
縛 り上げ</w>
縛 りつけ</w>
縄 跳び</w>
練 ら</w>
練 っ</w>
緯 度</w>
編 制</w>
締めく くり</w>
締 まる</w>
線 維</w>
緒 くた</w>
総 数</w>
総 体</w>
綿 糸</w>
綿 々</w>
網 袋</w>
続 けよう</w>
継ぎ 合わせる</w>
絶 賛</w>
絶 景</w>
絶 体</w>
絶 交</w>
絶 える</w>
絵 はがき</w>
絢 爛</w>
絞 首</w>
絞 り
絞 め
結 露</w>
結 納</w>
結 社</w>
結 束</w>
経 常</w>
経 典</w>
終 電</w>
終 結</w>
紺 色</w>
紹 興</w>
累 積</w>
紫 色</w>
素 手</w>
紛ら わしい</w>
純 白</w>
純 朴</w>
純 情</w>
納 棺</w>
紋 様</w>
紆 余</w>
紀 元</w>
精 霊</w>
精 緻</w>
精 油</w>
精 査</w>
粘り 気</w>
粗 品</w>
粗 い</w>
簡 便</w>
範 疇</w>
筋 書き</w>
筋 合い</w>
筆 遣い</w>
筆 先</w>
笑い 興
笑い ぐさ</w>
竹 林</w>
童 話</w>
竜 巻</w>
立て 直し</w>
立ち 昇っ</w>
立ち 入っ</w>
立ち 上がれ</w>
立 替</w>
立 とう</w>
突っ 立っ</w>
突き 進ん</w>
突き 刺し</w>
突き 出し</w>
突 如</w>
空 室</w>
穴 蔵</w>
積み 重なる</w>
積み 込み</w>
積み 木</w>
積み 替え</w>
積 雪</w>
積 立</w>
稼 げる</w>
稼 げ</w>
稲 刈り</w>
稲 わら</w>
種 族</w>
稚 魚</w>
税 制</w>
秘 方</w>
科 挙</w>
秋 頃</w>
秋 雨</w>
秋 冬</w>
私 塾</w>
秀 で</w>
祭 祀</w>
祭 っ</w>
神 々</w>
祈 祷</w>
礼 節</w>
硫 化</w>
破 格</w>
砲 兵</w>
砲 丸</w>
砂 丘</w>
石 頭</w>
石 段</w>
石 器</w>
知り 合う</w>
知 謀</w>
知 己</w>
矢 印</w>
瞬 い</w>
睡 魔</w>
着 心地</w>
着 付け</w>
真 冬</w>
省 都</w>
盾 突く</w>
盾 突い</w>
相応 しい</w>
直 言</w>
盲 従</w>
目 鼻</w>
目 覚める</w>
目 の
目 ざす</w>
盗 人</w>
盆 踊り</w>
皮 革</w>
皆 殺し</w>
皆 勤</w>
白 昼</w>
白 旗</w>
白 兵</w>
発 火</w>
発 光</w>
痛 え</w>
病 魔</w>
疾 走</w>
疑 い
異 音</w>
略 称</w>
留 意</w>
畏 敬</w>
町 中</w>
申し 開き</w>
申し 立てる</w>
申し わけ</w>
用 務</w>
産 後</w>
生け 花</w>
生 誕</w>
生 業</w>
生 卵</w>
生 ま</w>
甘った るい</w>
瓦 礫</w>
琴 線</w>
球 形</w>
珊 瑚</w>
王 位</w>
猫 草</w>
猛 暑</w>
狩 人</w>
狙 わ</w>
犯 行</w>
牽 制</w>
特 質</w>
特 約</w>
物 的</w>
物 書き</w>
物 心</w>
物 力</w>
物 凄い</w>
物 ごい</w>
牧 師</w>
牛 車</w>
版 本</w>
片 隅</w>
片 道</w>
片 言</w>
父 兄</w>
爪 切り</w>
燃 費</w>
熱 血</w>
熟 読</w>
煮 物</w>
煮 沸</w>
煩 わし</w>
照らし 合わせ</w>
照 準</w>
照 れ
照れ 隠し</w>
照 りつける</w>
煙 幕</w>
焼き 払っ</w>
焦 り</w>
焦 がし</w>
無く す</w>
無 謀</w>
無 学</w>
無 けれ</w>
烈 火</w>
点 い</w>
炊 煙</w>
炊 き</w>
炊 い</w>
灯 台</w>
灯 ろう</w>
火 葬</w>
火 の
灌 木</w>
瀕 する</w>
瀋 陽</w>
濾 過</w>
濫 用</w>
濃 淡</w>
濁 す</w>
潰 さ</w>
潜 り込む</w>
潜 り</w>
潔 癖</w>
演 算</w>
演 目</w>
漆 器</w>
漁 夫</w>
漁 場</w>
滴 る</w>
滞 ら</w>
滑 稽</w>
滋 養</w>
滅ぼ さ</w>
溶 鉱</w>
溶 岩</w>
溜 め</w>
溜 め
満 州</w>
渡 れ</w>
清 栄</w>
清 書</w>
混 入</w>
混 ざっ</w>
深 まる</w>
淑 女</w>
涼 む</w>
液 晶</w>
液 化</w>
消え 去る</w>
浸 す</w>
浸 け</w>
海 運</w>
海 苔</w>
浴 槽</w>
浮 浪</w>
浚 渫</w>
流れ 込ん</w>
流れ 出る</w>
活 路</w>
活 字</w>
津 々</w>
洋 子</w>
波 形</w>
波 動</w>
法 学</w>
沿 う</w>
沸き 立つ</w>
没 する</w>
沈 殿</w>
沈 下</w>
決 起</w>
決 裂</w>
決 行</w>
決 死</w>
決 めろ</w>
決 し</w>
汲 み
水 量</w>
水 郷</w>
水 辺</w>
水 虫</w>
水 色</w>
水 洗い</w>
水 夫</w>
水 仙</w>
気 難しい</w>
気 遣う</w>
気 炎</w>
気 泡</w>
気 後れ</w>
気 宇</w>
気 合い</w>
比 類</w>
比 喩</w>
毒 蛇</w>
毒 素</w>
母 音</w>
殺 虫</w>
殺 そう</w>
殴 れ</w>
残 照</w>
殉 じる</w>
死 す</w>
歯 茎</w>
歩み 寄る</w>
歩 もう</w>
武 官</w>
此 処</w>
正 気</w>
正 座</w>
正 味</w>
正 々</w>
歓 楽</w>
歓 待</w>
歌 唱</w>
次 兄</w>
欠 落</w>
欠 如</w>
欠 かす</w>
欠 か</w>
機 敏</w>
横 行</w>
横 取り</w>
横 っ面</w>
模 擬</w>
構 図</w>
構 える</w>
概 略</w>
概 ね</w>
極 楽</w>
極 上</w>
極 み</w>
検 疫</w>
検 察</w>
棒 線</w>
棒 引き</w>
案 ずる</w>
格 納</w>
根 回し</w>
根 こそ
根こそ ぎ</w>
校 訂</w>
栃 木</w>
染 料</w>
染 める</w>
枯れ 葉</w>
果 断</w>
松 林</w>
東 照</w>
来 春</w>
来 す</w>
札 入れ</w>
本 木</w>
本 書</w>
本 堂</w>
末 尾</w>
朝 飯</w>
朝 風</w>
朗 唱</w>
服 する</w>
有 線</w>
替 わる</w>
替 え
替え 玉</w>
書き 込ん</w>
書き 取り</w>
書き 写す</w>
書き 入れる</w>
書き 入れ</w>
書き 付け</w>
書 士</w>
書 名</w>
曲 解</w>
曇 り
暴 飲</w>
暮 らせ</w>
暗 黙</w>
晴れ 上がっ</w>
晴 天</w>
時 効</w>
時 世</w>
昼 過ぎ</w>
昨 今</w>
春 耕</w>
春 夏</w>
春 先</w>
映 写</w>
映 ら</w>
映 える</w>
昔 なじみ</w>
昔 々</w>
明け 暮れ</w>
明 快</w>
明 かす</w>
昇 り</w>
昂 然</w>
早 目</w>
早 産</w>
旧 跡</w>
日 雇い</w>
日 暮れ</w>
日 払い</w>
日 干し</w>
日 よけ</w>
日 づけ</w>
方 策</w>
方 正</w>
方 位</w>
新 鋭</w>
新 設</w>
断 水</w>
断 わら</w>
文 集</w>
文 体</w>
敷き 詰め</w>
数 え
敬 っ</w>
散ら かし</w>
散 財</w>
散 布</w>
救 国</w>
政 局</w>
改 組</w>
改 悛</w>
攪 拌</w>
擦 っ</w>
撮 ろう</w>
撫 で</w>
摘 み
摂 る</w>
損 なわ</w>
揺る ぎ
揺さ ぶる</w>
揺 ら
援 軍</w>
援 兵</w>
揚 げ
提 げる</w>
掻 き
推 量</w>
推 敲</w>
接 戦</w>
探 さ</w>
採 決</w>
掛け 軸</w>
掘り 起こし</w>
掘 ら</w>
排 泄</w>
授 乳</w>
掃 き</w>
捜し 出す</w>
捜 そう</w>
捕ら え
捕らえ どころ</w>
捕ま えよう</w>
捏 造</w>
振る 舞っ</w>
振り 込ま</w>
振り 絞っ</w>
振り 向く</w>
振り 上げ</w>
振 出</w>
挟 み
挙 行</w>
挙 式</w>
指 向</w>
持て 余し</w>
持ち かけ</w>
拭 く</w>
拝 啓</w>
拝 受</w>
招き 入れ</w>
拙 宅</w>
担 げ</w>
担 ぎ</w>
押し 込ん</w>
押し とどめ</w>
押し かけ</w>
抱え 込ん</w>
抜き 取っ</w>
抜き ん
抜 本</w>
折り 目</w>
折り 畳み</w>
折り たた
折 衝</w>
投 じる</w>
技 量</w>
扱 え</w>
扮 装</w>
払 暁</w>
打ち 込む</w>
打ち 解ける</w>
打ち 捨て</w>
打ち 寄せ</w>
打ち のめ
打ち どころ</w>
手の 甲</w>
手 話</w>
手 腕</w>
手 編み</w>
手 痛い</w>
手 渡す</w>
手 放せ</w>
手 放さ</w>
手 引き</w>
手 塩</w>
手 厳しく</w>
手 伝え</w>
手 ぶら</w>
手 がけ</w>
所 長</w>
所 詮</w>
戸 締り</w>
戯 曲</w>
戯 れる</w>
戦 地</w>
戦 功</w>
戒 厳</w>
成り 立っ</w>
成 虫</w>
懸 案</w>
懸 かっ</w>
懲 罰</w>
憎 悪</w>
慶 弔</w>
慌てふため き</w>
慈 しみ</w>
感 づい</w>
愛し 合う</w>
愛 媛</w>
愛 せ</w>
意 訳</w>
意 匠</w>
情 誼</w>
悔 しく</w>
息 災</w>
息 の根</w>
恐ろ し</w>
恐る る</w>
恐 喝</w>
急 進</w>
急 ぎ
怠 ら</w>
思い 違い</w>
思い 煩
思い 浮かべる</w>
思い 浮かば</w>
思い 上がっ</w>
思い やら</w>
念 願</w>
忠 義</w>
忘 れよう</w>
志 す</w>
忌 ましい</w>
忌 ま
忌ま 忌ましい</w>
心 配り</w>
心 苦しい</w>
心 拍</w>
徹 し</w>
徴 候</w>
微 小</w>
微 塵</w>
御 者</w>
従 順</w>
従 え</w>
後ろ 手</w>
後 続</w>
後 援</w>
後 先</w>
待ち 受け</w>
征 伐</w>
往 生</w>
彼 岸</w>
影 印</w>
当ては まら</w>
当て 字</w>
当たり 散らす</w>
当 代</w>
当 人</w>
当 り</w>
弾き 語り</w>
弾 圧</w>
弾 ん</w>
弾 か</w>
強 いて</w>
弱 虫</w>
弱 火</w>
弱 小</w>
引っ 込ん</w>
引き裂 か</w>
引き 込む</w>
引き 合う</w>
引 率</w>
式 場</w>
廃 部</w>
座 視</w>
座 礁</w>
度 外</w>
度 合い</w>
広 義</w>
広 まる</w>
幼 く</w>
年 越し</w>
年 来</w>
年 内</w>
年 俸</w>
年 中</w>
平 時</w>
平 底</w>
平 定</w>
平 ら
平 べ
平 々</w>
干から び</w>
常 習</w>
帰 順</w>
帯 びる</w>
巻き 込む</w>
巻き 込み</w>
巻き つける</w>
差し 押さえ</w>
差し 出し</w>
差し 入れ</w>
巧 妙</w>
左 耳</w>
左 翼</w>
工 面</w>
巡り 会っ</w>
川 辺</w>
島 根</w>
岸 部</w>
山 口</w>
山 あい</w>
履 け</w>
届け 先</w>
届 出</w>
屈 伏</w>
局 部</w>
尾 部</w>
尾 根</w>
尻 尾</w>
就 活</w>
小 躍り</w>
小 豆</w>
小 言</w>
小 羊</w>
小 箱</w>
小 旗</w>
小 人</w>
小 事</w>
導き 出す</w>
尋 常</w>
尋 ね
射 出</w>
専 売</w>
専 務</w>
対 局</w>
寡 黙</w>
寡 婦</w>
察 知</w>
寝そ べっ</w>
寝 過ごし</w>
寝 床</w>
寝 具</w>
寝 入り</w>
寝 入っ</w>
寒 け</w>
富 裕</w>
富 強</w>
宿 願</w>
家 々</w>
宮 崎</w>
宣 誓</w>
実 例</w>
実 る</w>
宝 庫</w>
定 評</w>
定 性</w>
定 価</w>
完 結</w>
完 売</w>
宋 代</w>
安ら ぎ</w>
安 危</w>
学 風</w>
学 籍</w>
孤 島</w>
存 続</w>
嫌 疑</w>
嫌 味</w>
婿 入り</w>
威 光</w>
始 動</w>
始 まら</w>
好き 好き</w>
女 色</w>
女 神</w>
女 王</w>
女 中</w>
奪 回</w>
奉 公</w>
失 調</w>
失 敬</w>
失 意</w>
太 る</w>
天 道</w>
大き め</w>
大 黒</w>
大 麻</w>
大 連</w>
大 男</w>
大 王</w>
大 漁</w>
大 概</w>
大 損</w>
大 五
大五 郎</w>
大 もうけ</w>
大 っ
多 岐</w>
外 壁</w>
外 債</w>
変わり 目</w>
変わ れ</w>
変 幻</w>
売り 込む</w>
売り 込み</w>
売 場</w>
壮 挙</w>
壮 志</w>
士 官</w>
壇 上</w>
壁 面</w>
墨 汁</w>
増 額</w>
増 進</w>
増 幅</w>
増 収</w>
塩 酸</w>
塩 焼き</w>
塩 水</w>
塩 基</w>
塗り 替え</w>
塗り つぶす</w>
執 る</w>
埋 もれ</w>
垣 根</w>
垂 らす</w>
坑 内</w>
地 平</w>
在 り</w>
土 質</w>
土 塀</w>
国 難</w>
国 宝</w>
国 力</w>
固 体</w>
図 柄</w>
図 ろう</w>
回 れ</w>
噴 い</w>
喰 らっ</w>
喰 い</w>
喉 頭</w>
善 後</w>
善 処</w>
問 答</w>
唐 揚げ</w>
品 揃え</w>
品 位</w>
哀れ む</w>
咲 か</w>
命 名</w>
呼び 起こし</w>
味わ え</w>
呈 する</w>
呈 し</w>
吹っ 飛ばす</w>
吹き 飛ばし</w>
吹き だし</w>
吸 虫</w>
向か わ</w>
吐き 出す</w>
名 案</w>
名 札</w>
同 額</w>
合わ せよう</w>
合わ さ</w>
合い 言葉</w>
合 弁</w>
合 作</w>
各 様</w>
司 祭</w>
司 教</w>
叶 い</w>
右 肩</w>
右 折</w>
右 心</w>
右 上</w>
可哀 そう</w>
可 笑
可 燃</w>
召し 上がれ</w>
召 喚</w>
叩 か</w>
句 読点</w>
古 し</w>
口 笛</w>
口 径</w>
口 内</w>
口 コ
口コ ミ</w>
受け 答え</w>
受 益</w>
取り 込む</w>
取り 留め</w>
取り 次ぎ</w>
取り 柄</w>
取り 巻く</w>
取り 囲ま</w>
取り やめ</w>
取り かかる</w>
友 愛</w>
参 会</w>
参 る</w>
原 田</w>
原 案</w>
厚 着</w>
即 効</w>
即 刻</w>
危 篤</w>
占 い
占い 師</w>
博 覧</w>
南 極</w>
卒 倒</w>
卒 中</w>
华 全</w>
半 殺し</w>
半 径</w>
半 休</w>
区 切り</w>
北 西</w>
北 極</w>
北 上</w>
化け の皮</w>
勿 体</w>
勤 め
勘 案</w>
動 態</w>
労 務</w>
労 動</w>
劳 改</w>
助 長</w>
力 持ち</w>
割 れ目</w>
割 ら</w>
割 と</w>
前 田</w>
前 庭</w>
前 代</w>
前 人</w>
削り 取る</w>
削 ら</w>
刺 し
制 覇</w>
利 発</w>
別 居</w>
判 り</w>
列 席</w>
刈り 入れ</w>
刈 っ</w>
切れ 目</w>
切り 離す</w>
切り 開き</w>
切り 落とす</w>
切 羽
切 望</w>
切 々</w>
分 量</w>
分 娩</w>
分 けよう</w>
分 かり
分 かた</w>
出来 上がり</w>
出く わさ</w>
出 家</w>
出 回る</w>
出 兵</w>
処 す</w>
凡 人</w>
凡 々</w>
冷 める</w>
冷 まし</w>
冷 た</w>
写 生</w>
冒 頭</w>
冒 し</w>
内 皮</w>
内 気</w>
兼 用</w>
兼 任</w>
兵 站</w>
共 進</w>
共 用</w>
六 本木</w>
公 費</w>
公 認</w>
公 言</w>
公 営</w>
全 隊</w>
全 線</w>
全 文</w>
入れ よ</w>
入 籍</w>
入 ん</w>
党 籍</w>
光り 輝い</w>
先 覚</w>
先 見</w>
先 立ち</w>
先 天</w>
先 ごろ</w>
元 日</w>
儲 かる</w>
優 越</w>
償 い</w>
僭 越</w>
働 こう</w>
働 かす</w>
傷 痍</w>
傷 害</w>
傷 付け</w>
傷 ん</w>
傷 つく</w>
偶 に</w>
停 職</w>
停 め</w>
偉 業</w>
値 動き</w>
個 展</w>
個 室</w>
修 飾</w>
修 辞</w>
信 条</w>
信 じ
俗 物</w>
俗 世</w>
侵 し</w>
侮 れ</w>
侮 る</w>
価 額</w>
供 与</w>
使い 分け</w>
作り 直す</w>
作 料</w>
余 韻</w>
余 人</w>
何 とぞ</w>
佐 々木</w>
住 める</w>
低 音</w>
但 し</w>
似 顔</w>
伝 授</w>
休 職</w>
休 眠</w>
休 もう</w>
休 める</w>
企 てる</w>
仲 人</w>
仰 ぎ
仮 設</w>
仮 名</w>
代 弁</w>
付き 従っ</w>
他 言</w>
他 者</w>
仕方 ねえ</w>
仕事 帰り</w>
仕 業</w>
仏 頂</w>
仏 壇</w>
介 抱</w>
介 し</w>
人 馬</w>
人 件</w>
人 でなし</w>
人 ごみ</w>
享 楽</w>
交 ぜ
五 十</w>
二 口</w>
二 三</w>
事 象</w>
事 由</w>
事 欠か</w>
事 後</w>
予 断</w>
乳 牛</w>
乞 い</w>
乗り 継ぎ</w>
乗 換</w>
乗 っ
主 体</w>
丸 印</w>
中 絶</w>
中 天</w>
中 堅</w>
中 型</w>
両 眼</w>
両 用</w>
両 性</w>
与 党</w>
不味 い</w>
不 調</w>
不 肖</w>
不 服</w>
不 敵</w>
不 手際</w>
不 憫</w>
不 定</w>
下 調べ</w>
下 回っ</w>
下 唇</w>
下 さる</w>
下 げ
下 がれ</w>
下 々</w>
上り 坂</w>
上 薬</w>
三 振</w>
三 峡</w>
万 丈</w>
一 風</w>
一 躍</w>
一 肌</w>
一 緒くた</w>
一 端</w>
一 派</w>
一 両</w>
一 まとめ</w>
一 くだり</w>
ーマ チ</w>
ー サー</w>
ー イ</w>
ー む</w>
ンド ラ</w>
ンド ゥ
ン ヘン</w>
ワザ と</w>
ワイ ヤ</w>
ワ ガ
ワガ ママ</w>
ワ イン
ロー リング</w>
ロー スト</w>
ロウ ロ</w>
ロ ビ
レセ プター</w>
レイ シ</w>
レ クリエーション</w>
レ ア</w>
ルド ルフ</w>
ルギ ッシュ</w>
ル ープ</w>
リー ディング</w>
リン グ
リュ ーマチ</w>
リウ マチ</w>
リア リズム</w>
リ ム
リム ジン</w>
リ ベ
リ ソース</w>
ラン マ</w>
ラン チ
ラン ダム</w>
ラジ コン</w>
ラジ カセ</w>
ラグ ビー</w>
ライフ スタイル</w>
ライ フ</w>
ラ テン
ラテン アメリカ</w>
ラ テ</w>
ラ ウンド</w>
ヨー グル
ヨーグル ト</w>
ヨ ット</w>
ヨ タ</w>
ヨ シカ
ヨシカ ゲ</w>
ユウ キ</w>
ヤ ロウ</w>
ヤ バ</w>
ヤ ダ</w>
モー ニング</w>
モン スト
モヤ シ</w>
モ ータ</w>
モ リ
モ ランマ</w>
モ ミ</w>
モ バイ
モバイ ル</w>
モ チャ</w>
モ ス</w>
モ ジュール</w>
モ ザ
メー カ</w>
メン タル</w>
メン タ
ム ズ</w>
ミリ リットル</w>
ミラ ノ</w>
ミュ ンヘン</w>
ミネ ーション</w>
ミ ミ
ミ ドル</w>
ミ ソ
マー ガ
マル チ
マリ ファ
マリファ ナ</w>
マネージ メント</w>
マネ ギ</w>
マグ ネ
マク ド
マクド ナルド</w>
マイ ナー</w>
マイ ト</w>
マイ シン</w>
マ リン</w>
マ ヨ
マ ブ
マブ ダチ</w>
マ フィア</w>
マ ッシュ</w>
マ ック</w>
マ スカ
マ ザー</w>
マ カオ</w>
ポー トランド</w>
ポー タ
ポータ ブル</w>
ポロ ポロ</w>
ポタ ポ
ポタポ タ</w>
ボー ッと</w>
ボン ベ</w>
ボ コ
ボ ケ
ホーム ルーム</w>
ホル ン</w>
ホット ケーキ</w>
ホイッ スル</w>
ホ リ
ペ ニス</w>
ベル サイ
ベルサイ ユ</w>
ベ ーション</w>
ベ ネズ
ベネズ エラ</w>
ベ ア</w>
ヘ ン
ヘ ク
プン プン</w>
プレミ アム</w>
プリ ンス</w>
プリ クラ</w>
プライ シング</w>
プラ カード</w>
プ ファイア</w>
プ ニング</w>
プ ッツン</w>
プ ッシュ</w>
プ シー</w>
プ サン</w>
ブー ブー</w>
ブー ケ</w>
ブラ ク
ブラ ウン</w>
ブラ ウス</w>
ブ レス</w>
ブ ラ</w>
ブ ク</w>
フラ スコ</w>
フェ ース</w>
フェ ン
フィ ー</w>
フィ ラ
フィ ナーレ</w>
フィ ット
フィット ネス</w>
フィ ッシュ</w>
ファン タ
ファシ ズム</w>
ファ イ</w>
フ レー</w>
フ ット
フ ッ
フ ジ</w>
フ クロ
フクロ ウ</w>
ピン チ</w>
ピュー ピュー</w>
ピッ タリ</w>
ピチャ ピチャ</w>
ピ カ</w>
ビ ーム</w>
ビ ラ</w>
ヒュ ーマン</w>
ヒ ヒ</w>
パー マン</w>
パー ソ
パー ク</w>
パー キング</w>
パラ メーター</w>
パラ ダイ
パラ シュート</w>
パ ル
パ ッド</w>
パ タン</w>
パ カ</w>
パ カ
パカ パカ</w>
パ オ
パオ ズ</w>
バー ガー</w>
バレ る</w>
バリ ケ
バリケ ード</w>
バラ ード</w>
バッ チリ</w>
バッ タ</w>
バカ ンス</w>
バ ト
バト ミントン</w>
バ タン</w>
バ エ</w>
ハード ウェア</w>
ハー バード</w>
ハロ ウィ
ハロウィ ーン</w>
ハエ たたき</w>
ハイ パー</w>
ハイ ウェー</w>
ハ ミ</w>
ハ ズレ</w>
ハ サ
ノ ミ</w>
ノ イズ</w>
ネ ッ
ネ オン</w>
ニック ネーム</w>
ニ ヤ</w>
ニ ャン</w>
ナ ーズ</w>
ナ ント</w>
ナ ック</w>
ナ タ</w>
ナ ギ</w>
ナ イト</w>
ドー ピング</w>
ドー ナッツ</w>
ドロ ップ</w>
ドレッ シング</w>
ドリ ブル</w>
ドラ ッグ
ドラッグ ストア</w>
ド メイン</w>
ド クター</w>
ド ゥ
トー タル</w>
トロ ン</w>
トレッ キング</w>
トラ ンス</w>
ト メント</w>
ト ド
デン マーク</w>
デル タ</w>
デヒ ド</w>
ディスカ ッション</w>
デ モンスト
デ カ
テキ サス</w>
ティ シャン</w>
テ ル
テ イク</w>
ツバ キ</w>
ツイ ッター</w>
ツ バ</w>
ツ ケ</w>
ッ ポ</w>
ッ プ
ッ ソ</w>
ッ カ
ッ て</w>
チン チ
チン ケ</w>
チョウ チョウ</w>
チョ モランマ</w>
チュ ン</w>
チャイ ナ</w>
チャ ラ</w>
チャ ッ</w>
チャ ガ
チャガ チャ</w>
チェ スター</w>
チ ライト</w>
チ ュ</w>
チ ミン</w>
チ スト</w>
ダー ウィン</w>
ダン ピング</w>
ダイナ ミック</w>
ダイナ マイト</w>
ダイ レクト</w>
ダ ボ</w>
ダ ッ
ダ サ
タン カー</w>
タイ マー</w>
タ マネギ</w>
タ ッ
タ ス</w>
タ イン</w>
ソ ロー</w>
ソ コソ</w>
ゼネ ラル</w>
ゼッ ケン</w>
センチ メートル</w>
セン セ
セロ リ</w>
セレ ブ</w>
セレ ウス</w>
セ リング</w>
セ クト</w>
ズル ズル</w>
ズ ー
ズ ド</w>
スラ ム</w>
スマ ホ</w>
スポー ツ
スペ アリ
スペアリ ブ</w>
スペ ア</w>
スピ ア</w>
ストライ プ</w>
スト リ
ステン ション</w>
ステ ッキ</w>
スタ ン
スコ ップ</w>
スケ ール</w>
スクラ ップ</w>
ス ミ
ス ナック</w>
ス テレ
ス ゲ
スゲ ェ</w>
ス ガ
ジー パン</w>
ジャン グル</w>
ジャ ージャー</w>
ジェ リア</w>
ジ ャ</w>
ジ ビ
ジ スト</w>
ジ アラビア</w>
ショウ ガ</w>
ショ ー
シュ タイン</w>
シャ ベル</w>
シマ ウマ</w>
シ マ</w>
シ フォン</w>
シ ナ</w>
シ タ</w>
シ ギ
シ アン</w>
ザ ニア</w>
ザ クロ</w>
サー チライト</w>
サン ショウ</w>
サウ ジアラビア</w>
サ バ</w>
サ ナトリウム</w>
サ ック</w>
サ キス</w>
ゴール キーパー</w>
ゴ ホン</w>
ゴ ビ</w>
コン トラスト</w>
コロン ブス</w>
コラー ゲン</w>
コミュニ ティー</w>
コマ ース</w>
コマ ンド</w>
コア ラ</w>
コ モ
コ ソコソ</w>
コ スモ
ゲ ロ</w>
ゲ ス</w>
ケ ージ</w>
ケ チャップ</w>
ケ イ
グ ワ
グ ロ</w>
クロー バー</w>
クロ ーク</w>
クリ ーン</w>
クリ ン</w>
クリ エイター</w>
クラ ッチ</w>
ク ッソ</w>
ク セ</w>
ク スピア</w>
ク ジ</w>
ギ ー
ギ ヤ</w>
ギ ニア</w>
ギ タ
ギ ス</w>
キャン プファイア</w>
キャン キャン</w>
キャッ チャー</w>
キャ ビネット</w>
キャ スト</w>
キ ョ
キ メ
キ ム</w>
ガ チャガチャ</w>
カー ボン</w>
カリ ウム</w>
カラ フル</w>
カフェ イン</w>
カツ オ</w>
カタカ タ</w>
カスタ マイズ</w>
カウン セラー</w>
カ ワイ</w>
カ レ
カ ラ</w>
カ プ
カ ブ</w>
カ チン</w>
カ シワ</w>
オーディ オ</w>
オー ソ
オペ レーター</w>
オペ レー
オ ート</w>
オ レ
オ モチャ</w>
オ ブ
オ ッ</w>
オ イ
エネ ルギッシュ</w>
エステ ティシャン</w>
エコノ ミスト</w>
エグ ゼ
エク ステンション</w>
エ ラ
ウル グアイ</w>
ウォ ーク</w>
ウェ ル
ウィ ン
ウ ロウロ</w>
ウ オ</w>
ウ エスト</w>
ウ エ
イン ベ
イン プット</w>
イン フラ</w>
イン グランド</w>
イル ミネーション</w>
イニ シャル</w>
イ 族</w>
イ ネ</w>
イ グ
イ オ
アー モンド</w>
アンティ ーク</w>
アン ニョ
アン グル</w>
アル ミ
アル デヒド</w>
アパ ルト
アニ サキス</w>
アド バイザー</w>
アス ロン</w>
アス ベスト</w>
アク ティブ</w>
アウト ソーシング</w>
ア ーク</w>
ア ポ</w>
ア ポ
ア デ
ア ス</w>
ア クリ
ァ ァ
ん ちき</w>
わん わん</w>
わん や</w>
わん ぱく</w>
わな わな</w>
わざ わ</w>
わき 出</w>
わき 上がっ</w>
わい わい</w>
わ びる</w>
わ っしょ
わっしょ い</w>
わ せる</w>
れ もうけ</w>
る む</w>
り っぱ</w>
ら い
よろ け</w>
ゆる さ</w>
ゆう べ</w>
やん わり</w>
やん ちゃ</w>
やり 直
やに や</w>
やす り</w>
やす やす</w>
や わんや</w>
や わら
や さし</w>
や く
やく ざ</w>
もん どり</w>
もみ 洗い</w>
もち 米</w>
も も</w>
も え</w>
めき 合っ</w>
め ず
め ぐり
むつま じい</w>
むち 打ち</w>
むだ 口</w>
む こう</w>
みす ぼ
み 込ん</w>
み たらし</w>
み える</w>
まん ま
まんま と</w>
まな い
まない た</w>
まと わりつい</w>
まつ わりつい</w>
まず き</w>
まくり 上げる</w>
まくり 上げ</w>
ま ろう</w>
ま ま
ま ちまち</w>
ま たい</w>
ま しょ</w>
ま ぁ
まぁ まぁ</w>
ぽ かり</w>
ぼろ もうけ</w>
ぼう ぜん</w>
ぼ ちゃ</w>
ほど く</w>
ほじ くる</w>
ほお ずり</w>
ほう ろう</w>
ほう り
ほ い</w>
ぺ ちゃ
ぺ こ
ぺこ ぺこ</w>
べた べた</w>
べ ら</w>
べ ったり</w>
べ こ
べこ べ</w>
へ ば
へば りつい</w>
へ ど</w>
へ つらい</w>
へ こん</w>
ぶん 殴る</w>
ぶつ かり
ぶちのめ す</w>
ぶ ざま</w>
ふん わり</w>
ふん まん</w>
ふん だ
ふっ 飛ばし</w>
ふさ がり</w>
ふ ー</w>
ふ っかけ</w>
ふ くれ
ふ きん</w>
ふ がい
ぴり ぴ
ぴりぴ り</w>
びしょ 濡れ</w>
びく と</w>
ひっくり 返る</w>
ひっ かか</w>
ひそ める</w>
ひし めき合っ</w>
ひ るむ</w>
ひ やっ</w>
ひ ねる</w>
ひ で
ひ っ</w>
ひ だ</w>
ぱ っぱっ</w>
ばら 売り</w>
ばら つき</w>
ば っちり</w>
ば っさり</w>
ば かし</w>
はや し
はめ 込ま</w>
はみ 出し</w>
はび こっ</w>
はば から</w>
はなは だ</w>
はず せ</w>
はじ き
はしゃ ぎ</w>
は ん
は る</w>
は らん</w>
は はは</w>
は だ
は たい</w>
は しっぽ</w>
は しか</w>
は さま</w>
は け
はけ 口</w>
の 目</w>
の さば
ね じっ</w>
ぬかる ん</w>
にぎ わっ</w>
に ー</w>
に やにや</w>
なよ な
なよな よ</w>
なく なれ</w>
なく なら</w>
なく する</w>
な び
な せ</w>
ど っさり</w>
ど き
どき どき</w>
とり で</w>
とどろ き</w>
とど け</w>
と める</w>
と ぼ
と て</w>
と こう</w>
と こ
と きゃ</w>
で ん
で ろ</w>
てん やわんや</w>
てん ば</w>
てん で</w>
て よ</w>
て こっ</w>
て か
て いた
ていた らく</w>
づ つ</w>
つる さ</w>
つり 革</w>
つり 上げる</w>
つや やか</w>
つむ じ</w>
つむ じ
つぼ み</w>
つぶ せ</w>
つづ り</w>
つけ 込ん</w>
つけ 込む</w>
つか れ</w>
つか まり</w>
つか え</w>
つ め
つ まっ</w>
つ ね</w>
つ とめ</w>
つ づる</w>
つ くり
つ くら</w>
っぷ ち</w>
っしゃ ら</w>
っ てー</w>
っ そり</w>
っ しょ</w>
ちん ぴら</w>
ちら り</w>
ちょ う</w>
ちょ い</w>
ち ぇ
ちぇ っ</w>
だし ぬけ</w>
だい じょう
だいじょう ぶ</w>
だ ぶ
だ に</w>
だ か</w>
だ ぁ</w>
ため らい</w>
たど たど
たどたど しく</w>
たた ましい</w>
たず ね</w>
たず た</w>
たく っ</w>
た わい</w>
た やすく</w>
た す
た き
た ぁ</w>
ぞ ろ
ぞ く</w>
ぞ く
ぞく ぞく</w>
ぞ うきん</w>
ぞ う</w>
そそり 立つ</w>
そこ なっ</w>
そう そう</w>
そ ぼ
そ なえ</w>
そ っけ</w>
そ ぐ
ぜ っ</w>
せっ せ
せっせ と</w>
せき 立て</w>
せき 払い</w>
ずる 賢い</w>
ず たずた</w>
すり 減っ</w>
すば らし</w>
すば やい</w>
すすり 泣く</w>
すご ーい</w>
す る
す まし</w>
す っぱ
す ずり</w>
す え</w>
じゃ ー</w>
じゃ ん
じ わ</w>
じ ぎ</w>
しょ ぼ
しの い</w>
し る</w>
し け</w>
ざ わり</w>
ざ わざわ</w>
ざ や</w>
さみ しい</w>
さ ーん</w>
さ ば</w>
さ なか</w>
さ じ</w>
さ か</w>
ごま かせ</w>
ご っちゃ</w>
ご った
こん 棒</w>
こま ねい</w>
この 方</w>
こな せる</w>
こな い
こない だ</w>
こうむ っ</w>
こ わい</w>
こ ぎ
こ い
げ ろ</w>
けし かける</w>
けし かけ</w>
けい れん</w>
け なし</w>
け たたましい</w>
け いこ</w>
ぐ う
くたび れもうけ</w>
くすぐっ たい</w>
くい 違い</w>
く べ</w>
く し
く さる</w>
く くる</w>
ぎ ゃ</w>
きら めき</w>
きゅう り</w>
き な
き つかっ</w>
がら くた</w>
がつ がつ</w>
がた み</w>
が ん
が む</w>
が ま</w>
が ない</w>
が せ</w>
かん ざし</w>
から だ</w>
かみ 締め</w>
かた づけ</w>
かすめ 取る</w>
かすめ 取っ</w>
かじ かん</w>
かさ ばっ</w>
かき 混ぜ</w>
かき 回し</w>
かかわ り合い</w>
かえ し</w>
か ぼちゃ</w>
か すれ</w>
か けれ</w>
か がめる</w>
おん ぼろ</w>
おも い
おもい っきり</w>
おご る</w>
おお ー</w>
おお っ</w>
おお げさ</w>
お わり</w>
お わ</w>
お もう</w>
お ぼれ</w>
お のの
お てんば</w>
え せ</w>
うら ぶれ</w>
うめ き声</w>
うつ 病</w>
うつ 伏せ</w>
うか がえる</w>
うか がい
う ー</w>
う のみ</w>
う ねり</w>
う だつ</w>
う う</w>
いら っ</w>
いちゃ い
いちゃい ちゃ</w>
いたず ら
いじ くり
いじ くっ</w>
いさ める</w>
いかめ しい</w>
い ー</w>
い んちき</w>
い とも</w>
い せ</w>
い じる</w>
あー あ</w>
あん まし</w>
あり きたり</w>
あら われ</w>
あや まる</w>
あど けな</w>
あず かる</w>
あざ 笑っ</w>
あこ がれる</w>
あげ よっ</w>
あお むけ</w>
あえ もの</w>
あ め
あ ぶっ</w>
あ った
あ ぐら</w>
あ がい</w>
wi fi</w>
ut le
utle t</w>
u m</w>
t o</w>
s t</w>
s e
ow ers</w>
n f
n d
l e</w>
k e</w>
ic e</w>
i s</w>
e l
e g
d e</w>
as hi
ar k</w>
a y</w>
a tion</w>
W i
TO E
T V</w>
T M
TM L</w>
T A</w>
S t
P owers</w>
O S
O B</w>
M D</w>
L o
K a
J K</w>
I X</w>
H TML</w>
C ar
B r
8 9</w>
6 3</w>
5 25</w>
4 4</w>
3 9</w>
3 14</w>
200 6</w>
200 2</w>
199 5</w>
19 49</w>
19 46</w>
19 00</w>
12 1
121 314</w>
10 5</w>
Ｏ Ｋ</w>
４ ５</w>
３ ９</w>
３ ５</w>
３ １</w>
２ ４</w>
２ ３</w>
２ ２</w>
１９８ ３</w>
１ ４</w>
１ 番</w>
鼻 持ち</w>
黙 り
黙り こ
黙りこ くっ</w>
黎 明</w>
鳴 りつけ</w>
鳳 凰</w>
鳥 取</w>
魚 屋</w>
魂 胆</w>
鬱 憤</w>
髪 形</w>
高 配</w>
高 空</w>
高 生</w>
高 炉</w>
高 潔</w>
高 望み</w>
高 射</w>
高 み</w>
高 ぶり</w>
高 ぶら</w>
骨 格</w>
骨 抜き</w>
驚 愕</w>
騎 士</w>
駆け 巡る</w>
馴染 ん</w>
馴れ 馴れ
馴れ馴れ しく</w>
馴 染み</w>
馬 鈴
馬鈴 薯</w>
馬 蹄</w>
馬 術</w>
馥 郁</w>
香 気</w>
饅 頭</w>
養 蜂</w>
養 わ</w>
飽 く</w>
飲み 干し</w>
食ら わせ</w>
食べ もの</w>
食 費</w>
食 肉</w>
食 前</w>
飛び交 っ</w>
飛び 越し</w>
飛び 乗っ</w>
飛 翔</w>
飛 散</w>
飛 べる</w>
風呂 屋</w>
風 選</w>
風 車</w>
風 物</w>
願い 出</w>
顕 在</w>
額 縁</w>
頼み 事</w>
頭 目</w>
領 海</w>
預かり 所</w>
預 かる</w>
音 信</w>
靴 箱</w>
靴 屋</w>
静 粛</w>
静 める</w>
青 木</w>
露 骨</w>
霜 焼け</w>
雨 風</w>
雨 雲</w>
難 病</w>
難 儀</w>
難 なく</w>
離 間</w>
離 着陸</w>
雑 役</w>
雑 務</w>
雑 事</w>
雇 え</w>
集 権</w>
集 う</w>
雄 渾</w>
雄 壮</w>
隠れ ん坊</w>
隠れ み
隠れみ の</w>
隠 遁</w>
隠 元</w>
隠 せ</w>
際 立つ</w>
隔 膜</w>
階 上</w>
険 悪</w>
除 隊</w>
限り なき</w>
降り 立っ</w>
降り 注ぐ</w>
降り やま</w>
降り し
降りし きる</w>
降り かかる</w>
降 ろう</w>
阻 ん</w>
阻 ま</w>
防 火</w>
防 ごう</w>
闘 病</w>
闘 牛</w>
闊 達</w>
閨 閥</w>
関 門</w>
間 取り</w>
間 作</w>
開け 放し</w>
開 館</w>
閉じ 込める</w>
閉 幕</w>
閉 ざす</w>
門 戸</w>
長 雨</w>
長 袖</w>
長 蛇</w>
長 老</w>
長 短</w>
長 官</w>
長 女</w>
長 め</w>
鍵 盤</w>
鋭 意</w>
銘 記</w>
銀 河</w>
鉄 製</w>
釣り 上げ</w>
金 物</w>
金 具</w>
量 的</w>
量 子</w>
野良 猫</w>
野良 犬</w>
野 放
野放 図</w>
重 度</w>
重 圧</w>
重 合</w>
醸 し
醜 悪</w>
醍 醐</w>
酷 使</w>
酵 母</w>
酔っ 払い</w>
酔 わ</w>
酒 類</w>
酒 量</w>
配 賦</w>
配 下</w>
部屋 代</w>
部 落</w>
部 材</w>
邪 念</w>
那 子</w>
遺 風</w>
遺 書</w>
遺 志</w>
選び 出す</w>
適 時</w>
適 さ</w>
遠 洋</w>
遠 来</w>
違 犯</w>
道 学</w>
道 す
道す がら</w>
過 疎</w>
過 熱</w>
過 不足</w>
運び 出す</w>
運 航</w>
運 ぼう</w>
遊び 心</w>
遅 滞</w>
進 めよう</w>
進 み出</w>
週 番</w>
連れ 去っ</w>
連れ 出す</w>
連 勝</w>
逢 う</w>
造 成</w>
速 報</w>
通り がかり</w>
通じ 合う</w>
通 牒</w>
通 商</w>
通 俗</w>
透 徹</w>
逆 巻き</w>
逃げ惑 う</w>
逃げ 回る</w>
逃 れよう</w>
送り 返さ</w>
退 ける</w>
追っ 払っ</w>
追い 風</w>
追い 込ん</w>
追い 込む</w>
追い 越す</w>
追い 立て</w>
追い つける</w>
追 随</w>
追 尾</w>
返 電</w>
返 そう</w>
返 せる</w>
近 藤</w>
近 海</w>
迎え 撃つ</w>
迎え 入れ</w>
迎 撃</w>
辿 り
辺 区</w>
辞 令</w>
辞 し</w>
載 る</w>
軽 井
軽井 沢</w>
転 機</w>
転 戦</w>
転 がる</w>
軍 縮</w>
軍 務</w>
軍 刀</w>
車 間</w>
車 酔い</w>
車 窓</w>
身ご もっ</w>
身 柄</w>
身 持ち</w>
身 代</w>
身 じろぎ</w>
蹴 り
蹴 ら</w>
蹄 鉄</w>
踏みに じっ</w>
踏み 鳴らし</w>
踏み 出せ</w>
踏み つける</w>
跳び はねる</w>
跳 ぶ</w>
路 頭</w>
足 止め</w>
超 し</w>
起こ そう</w>
起き 上がれ</w>
起 し</w>
起 き出し</w>
走り 去っ</w>
走 馬</w>
走 ろう</w>
走 れる</w>
赤 毛</w>
贈 与</w>
賽 銭</w>
賢 人</w>
賛 助</w>
貼 付</w>
貸し 切り</w>
貸し 借り</w>
貸し 付け</w>
貸 倒</w>
貸 せ</w>
買い 戻し</w>
買い 取り</w>
買い 占め</w>
買 掛</w>
買 付</w>
貴 君</w>
貴 兄</w>
貴 ぶ</w>
貰 わ</w>
責 め
貧 弱</w>
貧 し</w>
負 い
豪 快</w>
豆 炭</w>
譲 り合っ</w>
警 笛</w>
謬 論</w>
諾 々</w>
諸 将</w>
諭 し</w>
諜 報</w>
論 説</w>
論 破</w>
請い 求める</w>
請 願</w>
請 わ</w>
請 け</w>
調べ れ</w>
調 書</w>
調 剤</w>
説 い</w>
誤 謬</w>
誤 植</w>
誤 ち</w>
誣 告</w>
語 録</w>
誘い 込ん</w>
誘 致</w>
誘 おう</w>
認 めよう</w>
誇 らしい</w>
話し 込ん</w>
詩 経</w>
試 写</w>
訳 さ</w>
託 さ</w>
訓 話</w>
訓 戒</w>
計 ら</w>
言い 返し</w>
言い 負かす</w>
言い 渡さ</w>
言い 合う</w>
言い 合い</w>
言い 切れ</w>
解 体</w>
観 閲</w>
観 れ</w>
親 睦</w>
親 和</w>
親 しま</w>
覚 書</w>
覚 ませ</w>
覚 えよう</w>
見舞 っ</w>
見舞 う</w>
見つ けろ</w>
見せ れ</w>
見 込め</w>
見 栄え</w>
見 定め</w>
見 境</w>
見 合う</w>
見 受け</w>
見 入っ</w>
覆いかぶ さり</w>
覆 し</w>
要 路</w>
要 地</w>
西 暦</w>
西 方</w>
西 口</w>
襲 来</w>
製 鋼</w>
製 紙</w>
製 版</w>
製 材</w>
補 欠</w>
補 わ</w>
裏 通り</w>
装 束</w>
裂 ける</w>
裂 い</w>
裁 量</w>
裁 縫</w>
裁 い</w>
被 覆</w>
表 通り</w>
表 装</w>
表 敬</w>
表 せ</w>
衣 姿</w>
術 数</w>
行き 詰まり</w>
行 楽</w>
行 える</w>
血 走っ</w>
血 統</w>
血 相</w>
血 痕</w>
血 漿</w>
血 清</w>
血 中</w>
血 まみれ</w>
融 解</w>
虫 喰い</w>
虫 けら</w>
虚 栄</w>
虐 げる</w>
虎 口</w>
蘇 生</w>
薬 代</w>
薬 事</w>
薫 製</w>
薄っ ぺら</w>
薄 汚い</w>
薄 型</w>
薄 め</w>
蒼 白</w>
蒼 然</w>
葬 り
著 述</w>
著 書</w>
葉 掘り</w>
葉 巻</w>
葉 っぱ</w>
落 着</w>
落 差</w>
落 っ
華 美</w>
荷 役</w>
荒れ 地</w>
荒 川</w>
茶 館</w>
茶 碗</w>
茶 目</w>
茨 城</w>
茂 み</w>
英 数字</w>
英 字</w>
若 造</w>
若 々しい</w>
苛 立ち</w>
花 言葉</w>
花 形</w>
花 崗</w>
花 作り</w>
色 気</w>
良 品</w>
舞い 込む</w>
舞い 落ちる</w>
舐 める</w>
舌 打ち</w>
興 趣</w>
興 信</w>
至 近</w>
自 責</w>
自 負</w>
自 答</w>
自 営</w>
臨 み</w>
臣 下</w>
膨れ っ面</w>
膨 らむ</w>
膏 血</w>
腹 腔</w>
腹 いせ</w>
腫 脹</w>
腕 利き</w>
腐 る</w>
脱 臼</w>
脱 稿</w>
脱 皮</w>
脱 毛</w>
脱 却</w>
脚 立</w>
脊 椎</w>
胸 腺</w>
背 負い</w>
背 もたれ</w>
胃 酸</w>
肺 癌</w>
肩 掛け</w>
肩 幅</w>
肛 門</w>
肉 屋</w>
聾 啞</w>
職 階</w>
聞き 分け</w>
聞き 出せ</w>
聞き 入る</w>
聞き ほれ</w>
聖 職</w>
聖 戦</w>
耳 ざ
耐 寒</w>
考え 直し</w>
考え つか</w>
老 舗</w>
老 母</w>
老 木</w>
老 年</w>
老 将</w>
翌 週</w>
羽 織っ</w>
群 島</w>
美 那子</w>
美 化</w>
羅 漢</w>
罰 し</w>
置き 換え</w>
罪 業</w>
繰り 合わせ</w>
繭 子</w>
繋 ぐ</w>
繁 茂</w>
縮 こま</w>
縦 縞</w>
縛 り</w>
緩 む</w>
編み 物</w>
締め 切る</w>
締め 切ら</w>
締め 出さ</w>
締め 付け</w>
締 まり</w>
線 形</w>
緑 肥</w>
総 計</w>
綿 羊</w>
綾 野</w>
網 羅</w>
維 新</w>
続 出</w>
継 ぐ</w>
絶 版</w>
絶 妙</w>
統 括</w>
絡 ん</w>
結 膜</w>
結 腸</w>
結 石</w>
絆 創</w>
組み 込む</w>
組 長</w>
終 っ</w>
細 分</w>
累 進</w>
累 計</w>
紡 い</w>
素 顔</w>
素 焼き</w>
紛ら わし</w>
級 別</w>
紙 面</w>
紙 袋</w>
純 金</w>
純 正</w>
納 付</w>
紋 章</w>
紋 切り</w>
紅 い</w>
約 定</w>
糧 秣</w>
精 子</w>
粛 然</w>
粛 正</w>
粗 大</w>
粉 薬</w>
粉 塵</w>
簿 記</w>
篤 実</w>
築 山</w>
築 け</w>
築 き</w>
節 度</w>
策 動</w>
答 弁</w>
等 分</w>
筆 勢</w>
笑い 転
笑い 話</w>
笑 くぼ</w>
竹 製</w>
竹 井</w>
競い 合っ</w>
競 わ</w>
競 っ</w>
端 的</w>
端 々</w>
立て 板</w>
立て れ</w>
立て こもっ</w>
立ち 止まり</w>
立ち 回っ</w>
立ち 合い</w>
立ち 去ら</w>
立ち 上げる</w>
立 華</w>
立 入</w>
窓 辺</w>
窒 素</w>
突っ 込め</w>
突き 止める</w>
突き 刺さっ</w>
突 風</w>
突 起</w>
空 襲</w>
空 虚</w>
空 疎</w>
空 振り</w>
空 売り</w>
空 回り</w>
積み 込む</w>
稲 田</w>
税 額</w>
税 込</w>
税 抜き</w>
移り 住ん</w>
移 ろい</w>
称 さ</w>
称 え</w>
秦 嶺</w>
租 税</w>
秘 蔵</w>
秒 間</w>
私 語</w>
私 憤</w>
私 怨</w>
禿 げ</w>
禁 酒</w>
禁 輸</w>
禁 忌</w>
禁 令</w>
禁 ずる</w>
祭 壇</w>
祝 典</w>
社 用</w>
磁 性</w>
磁 場</w>
硬 貨</w>
硫 黄</w>
破 局</w>
砥 石</w>
砕 ける</w>
砂 金</w>
砂 利</w>
砂 ぼこり</w>
石 壁</w>
短 波</w>
知 ら
瞬 き</w>
着 色</w>
着 地</w>
着 れ</w>
着 ぐるみ</w>
眺 め
眠 ろう</w>
眠 たく</w>
真ん 丸い</w>
真 価</w>
直 訳</w>
直 視</w>
直 球</w>
直 撃</w>
直 入</w>
直 々</w>
目覚 ましい</w>
目 黒</w>
目 途</w>
目 新しい</w>
盟 約</w>
盛 衰</w>
盗み 聞き</w>
盗み 取る</w>
皮 むき</w>
百 花</w>
白 米</w>
白 眼</w>
白 目</w>
白 熱</w>
白 毛</w>
白 書</w>
白 々</w>
発 起</w>
発 話</w>
発 覚</w>
発 芽</w>
発 給</w>
発 祥</w>
発 癌</w>
発 疹</w>
発 令</w>
発 っ</w>
癒 え</w>
痛め つける</w>
痛み 入り</w>
痛 風</w>
痛 快</w>
痙 攣</w>
痒 い</w>
疑 わし</w>
異 存</w>
番 線</w>
番 地</w>
留 まる</w>
畑 仕事</w>
画 集</w>
画 材</w>
申 込み</w>
田 地</w>
産 気</w>
産 毛</w>
生け 垣</w>
生き延 びる</w>
生き 返っ</w>
生き 残り</w>
生き 延び</w>
生き 埋め</w>
生 魚</w>
生 身</w>
生 もの</w>
生 っ
生 ごみ</w>
生 け</w>
生 かせ</w>
甚だ しく</w>
甘 み</w>
甘 える</w>
瓶 詰</w>
瑣 末</w>
球 状</w>
球 団</w>
現 職</w>
珍 味</w>
珍 し</w>
王 女</w>
玉 門</w>
獅 子</w>
猫 背</w>
猟 銃</w>
狭 隘</w>
狭 苦しい</w>
独 習</w>
独 善</w>
特 設</w>
特 筆</w>
特 異</w>
特 攻</w>
特 価</w>
物 議</w>
物 見</w>
物 笑い</w>
物 忘れ</w>
物 差し</w>
物 寂しく</w>
物 凄く</w>
物 まね</w>
片 づか</w>
片 づい</w>
父 祖</w>
爆 死</w>
燃え 上がる</w>
熱 湯</w>
熱 せ</w>
熟 語</w>
熟 考</w>
熟 慮</w>
煽 る</w>
照り 焼き</w>
煎 じる</w>
焼き 鳥</w>
焼き 入れ</w>
焦 土</w>
無く なる</w>
無 辜</w>
無 残</w>
無 根</w>
無 期</w>
無 情</w>
無 二</w>
烙 饼</w>
炊 飯</w>
炊 け</w>
炉 裏</w>
灼 熱</w>
灯 油</w>
灯 る</w>
灯 り</w>
濃 縮</w>
濁 し</w>
激 戦</w>
激 情</w>
澄 まし</w>
潰 瘍</w>
潤 す</w>
潔 し</w>
演 歌</w>
漏 らさ</w>
漉 し</w>
漆 喰</w>
漂 い</w>
漁 獲</w>
滞 っ</w>
滑り 降り</w>
滋 賀</w>
滅 相</w>
溢 れ
満ち る</w>
満 腔</w>
満 点</w>
満 タン</w>
温 床</w>
温 もり</w>
渡り 歩い</w>
減 退</w>
減 資</w>
減 らさ</w>
済 ます</w>
済 まさ</w>
添 乗</w>
混 血</w>
混 沌</w>
深 長</w>
淡 々</w>
淘 汰</w>
涼 ん</w>
涙 ぐ
消し 止め</w>
消し 去る</w>
消し 去っ</w>
消 印</w>
消 せ</w>
浸 る</w>
海 路</w>
海 南</w>
浴 衣姿</w>
浮き 袋</w>
浮き 上がっ</w>
浮か れ</w>
浮か び</w>
浜 口</w>
浅 緑</w>
浅 かっ</w>
流れ 下る</w>
流 行
流 布</w>
流 刑</w>
流 体</w>
派 出</w>
活 かせる</w>
洞 庭</w>
洗い 落とさ</w>
洗い ざ
洗 顔</w>
泰 然</w>
泥 酔</w>
泣き 虫</w>
泣き じゃ
波 状</w>
波 及</w>
法 治</w>
法 師</w>
法 制</w>
泌 尿</w>
泊 まれ</w>
沿 え</w>
油 汚れ</w>
沈 痛</w>
沈 み込ん</w>
決め 手</w>
決め れ</w>
決 戦</w>
汚 れる</w>
水 防</w>
水 玉</w>
水 牛</w>
水 温</w>
水 深</w>
水 流</w>
水 気</w>
水 先</w>
気づ かい</w>
気 道</w>
気 化</w>
気 乗り</w>
気 ない</w>
民 情</w>
民 俗</w>
氏 族</w>
毛 穴</w>
毒 殺</w>
母 屋</w>
母 子</w>
殺 到</w>
殺 傷</w>
残り かす</w>
残 留</w>
残 暑</w>
殊 に</w>
殉 難</w>
死 神</w>
死 活</w>
死 守</w>
歯 止め</w>
歯 ざわり</w>
歯 が
歪 ん</w>
歪 み</w>
歩き 疲れ</w>
歩 幅</w>
歩 こう</w>
武 松</w>
正 札</w>
正 念</w>
歓 送</w>
歌い だし</w>
歌 舞</w>
次 号</w>
欠 片</w>
欠 品</w>
機 具</w>
橋 梁</w>
樹 状</w>
樹 海</w>
横 転</w>
横 棒</w>
横 向き</w>
模 造</w>
標 高</w>
様 変わり</w>
榎 戸</w>
概 況</w>
概 括</w>
概 して</w>
楽 曲</w>
極 まりない</w>
検 閲</w>
検 数</w>
検 問</w>
植 字</w>
植 え付け</w>
植 え
棺 おけ</w>
棚 引い</w>
棄 権</w>
梅 子</w>
桃 色</w>
根 掘り</w>
根 底</w>
核 心</w>
株 券</w>
校 風</w>
査 証</w>
架 ける</w>
架 かっ</w>
枯 らす</w>
果た せ</w>
松 江</w>
東 部</w>
東 洋</w>
来 さ</w>
条 文</w>
杜 甫</w>
村 民</w>
杏 仁</w>
朽 ち</w>
机 上</w>
朴 訥</w>
札 束</w>
本 道</w>
本 誌</w>
本 箱</w>
本 業</w>
本 分</w>
末 日</w>
未 開</w>
未 遂</w>
未 聞</w>
未 然</w>
未 曽
未曽 有</w>
未 婚</w>
木 霊</w>
木 管</w>
木 炭</w>
木 工</w>
木 型</w>
木 之
木之 下</w>
木 下</w>
期 す</w>
朝 顔</w>
朝 露</w>
朗 報</w>
有 権</w>
有 性</w>
月 餅</w>
月 夜</w>
月 光</w>
替 えよう</w>
書き 記す</w>
曲 直</w>
曙 光</w>
曇り 空</w>
暴 落</w>
暴 れ
暮 らせる</w>
暗 礁</w>
暗 然</w>
暗 がり</w>
暖 かかっ</w>
智 香</w>
景 徳
景徳 鎮</w>
晩 秋</w>
時 短</w>
時 流</w>
時 候</w>
昼 前</w>
映し 出さ</w>
映 し</w>
易 者</w>
易 しく</w>
易 く</w>
昏 睡</w>
明 点</w>
明 清</w>
明 朗</w>
明 星</w>
明 文</w>
明 代</w>
明 かさ</w>
昇 任</w>
早 稲</w>
早 まる</w>
早 う</w>
日 銀</w>
日 月</w>
日 当</w>
日 和</w>
日 割り</w>
既 婚</w>
旗 印</w>
旅 路</w>
旅 装</w>
旅 先</w>
施 錠</w>
施 術</w>
施 肥</w>
新 調</w>
断 面</w>
断 然</w>
斡 旋</w>
文 筆</w>
文 盲</w>
文 士</w>
敷 物</w>
敵 討ち</w>
敵 視</w>
敵 艦</w>
敵 情</w>
敵 側</w>
数 珠</w>
散ら かり</w>
散 漫</w>
散 乱</w>
教え 込む</w>
教 鞭</w>
教 諭</w>
教 職員</w>
教 皇</w>
教 えよう</w>
放 水</w>
放 り
放 て</w>
改 変</w>
改 めよう</w>
支払 日</w>
支 流</w>
擦 れ
操 ら</w>
擁 する</w>
撤 収</w>
撒 き</w>
撃 滅</w>
摩 夾</w>
摘 ん</w>
搬 入</w>
損 し</w>
揺る がす</w>
援 用</w>
揮 発</w>
握り こぶし</w>
揚 々</w>
揃 える</w>
掻 き</w>
掲 揚</w>
推し 量る</w>
推 賞</w>
推 戴</w>
接 点</w>
接 岸</w>
接 ぎ</w>
探し 物</w>
探 知</w>
掘り 出す</w>
排 外</w>
掌 握</w>
掃 い</w>
捨 てろ</w>
捜 せ</w>
捗 り</w>
捕ら われ</w>
捕ま えろ</w>
捕 り</w>
捕 まら</w>
挿 す</w>
振り 子</w>
振り まい</w>
振り かざし</w>
挫 け</w>
挙 句</w>
指し 示す</w>
指し 示し</w>
指 針</w>
持ち 逃げ</w>
持ち 帰る</w>
拝 誦</w>
拙 劣</w>
拘 る</w>
拓 本</w>
担 架</w>
押し 黙る</w>
押し 出し</w>
押し とどめる</w>
押さ えつけ</w>
抹 殺</w>
抱き 枕</w>
抱き 合わせ</w>
抱 っこ</w>
抜き んで</w>
折り 曲げ</w>
折 角</w>
折 檻</w>
抗 戦</w>
投 球</w>
投 函</w>
承 服</w>
払い 落とす</w>
打ち 破り</w>
打ち 切る</w>
打ち 出し</w>
打ち 下ろし</w>
打ち ひし
打ちひし が</w>
才 知</w>
手の 内</w>
手 錠</w>
手 縫い</w>
手 短</w>
手 相</w>
手 招き</w>
手 押し</w>
手 抜き</w>
手 土産</w>
手 合わせ</w>
手 付け</w>
手 下</w>
手 まね</w>
手 つき</w>
手 さげ</w>
戸惑 う</w>
戸惑 い</w>
戸 外</w>
戴 天</w>
戯 れ</w>
戦 後</w>
戒 律</w>
成 語</w>
成 形</w>
懸 賞</w>
懸 け
懲 戒</w>
懐 かし
憎 々し</w>
憂 患</w>
憂 さ</w>
慣 用</w>
慢 心</w>
慕 わ</w>
慕 う</w>
感 受</w>
愛し 合っ</w>
愛し 合い</w>
愛お しく</w>
愛お しい</w>
愛 読</w>
愛 用</w>
愚 民</w>
惹き つける</w>
惨 憺</w>
惨 事</w>
情 状</w>
悪 寒</w>
患 部</w>
悔い 改め</w>
悔 悟</w>
悔 やむ</w>
悔 いる</w>
息 苦しく</w>
恩 義</w>
恨 め
恐れ おのの
恐る 恐る</w>
恋 々</w>
性 癖</w>
性 急</w>
性 向</w>
急ぎ 足</w>
急 騰</w>
急 襲</w>
急 務</w>
急 ごう</w>
急 かし</w>
思い 返し</w>
思い 起こせ</w>
思い きっ</w>
思 念</w>
怒 鳴りつけ</w>
怒 鳴ら</w>
怒 らす</w>
念 仏</w>
快 哉</w>
忠 臣</w>
忍 者</w>
必 読</w>
必 殺</w>
必 勝</w>
心 置き</w>
心 服</w>
心 境</w>
徳 育</w>
徳 川</w>
復 唱</w>
御 す</w>
従 姉</w>
従 妹</w>
徒 手</w>
徒 党</w>
後ろ 足</w>
後ろ め
後 遺</w>
後 戻り</w>
待 てよ</w>
征 途</w>
役 畜</w>
役 場</w>
形 而</w>
形 作ら</w>
当たり 散らし</w>
当 院</w>
当 主</w>
弾 む</w>
強 者</w>
強 権</w>
強 弱</w>
強 弁</w>
強 健</w>
強 め</w>
強 じん</w>
張り 詰め</w>
張り 切り</w>
張り つけ</w>
張り つい</w>
張 本</w>
張 れ</w>
弱 々しく</w>
引っ 掛かっ</w>
引っ かき</w>
引き 綱</w>
引き 立てる</w>
引き 抜い</w>
引き 合わ</w>
引き 伸ばす</w>
引き 下げる</w>
引き 下がら</w>
引 越</w>
引 継ぎ</w>
引 換</w>
引 け
引け 値</w>
弔 問</w>
弔 う</w>
弓 道</w>
弊 店</w>
弁 別</w>
延 伸</w>
延 べ
延 びる</w>
延 ばせ</w>
座 禅</w>
座 れる</w>
度 数</w>
広 かっ</w>
幻 滅</w>
年の 暮れ</w>
年 頃</w>
年 限</w>
年 貢</w>
年 端</w>
年 産</w>
年 玉</w>
年 少</w>
平ら げ</w>
平べ ったい</w>
平 年</w>
平 たく</w>
干 害</w>
干 せ</w>
幕 開け</w>
幅 跳び</w>
常 在</w>
帳 消し</w>
帰 納</w>
帰 する</w>
席 次</w>
席 巻</w>
席 上</w>
希 薄</w>
希 少</w>
帆 船</w>
帆 柱</w>
市 況</w>
巻き 上げる</w>
巻き つけ</w>
巴 金</w>
左 利き</w>
巡 航</w>
巡 業</w>
巡 ら</w>
川 床</w>
山 賊</w>
山 菜</w>
山 盛り</w>
履 物</w>
屋根 瓦</w>
居 残り</w>
就 け</w>
少 額</w>
小 骨</w>
小 路</w>
小 国</w>
小 口</w>
小 分け</w>
小 作</w>
小 一</w>
導き 手</w>
導 火</w>
尊 称</w>
射 精</w>
射 ぬか</w>
専 行</w>
封 切り</w>
封 じ
対 決</w>
対 句</w>
察 する</w>
寒 冷</w>
富 み</w>
寄り 集まっ</w>
寄せ 集める</w>
寄 れる</w>
寄 る
宿 敵</w>
容 積</w>
家 長</w>
家 政</w>
害 し</w>
宰 相</w>
宮 城</w>
宮 中</w>
宣 戦</w>
実 費</w>
実 戦</w>
実 弾</w>
実 入り</w>
宜 しけれ</w>
定 量</w>
宙 ぶら
宙ぶら りん</w>
完 走</w>
安 物</w>
安 易</w>
安 打</w>
安 寧</w>
安 っぽい</w>
宅 配</w>
学び 合う</w>
学び 取ら</w>
学び 取っ</w>
学 徒</w>
学 べる</w>
孤 高</w>
字 数</w>
子 牛</w>
子 ネコ</w>
嫡 出</w>
威張り 散らす</w>
好 漢</w>
女 男</w>
女 流</w>
奥ゆ かしく</w>
奥 行き</w>
奢 侈</w>
奢 る</w>
奇 行</w>
失 脚</w>
失 火</w>
太 者</w>
太 古</w>
天 険</w>
天 賦</w>
天 涯</w>
天 寿</w>
天 の
大っ 嫌い</w>
大 麦</w>
大 計</w>
大 著</w>
大 粒</w>
大 柄</w>
大 敵</w>
大 慌て</w>
大 忙し</w>
大 山田</w>
大 寨</w>
大 奥</w>
大 仕事</w>
大 仏</w>
大 久
大久 保</w>
夢 見る</w>
夜 風</w>
夜 色</w>
夜 戦</w>
夜 店</w>
夜 学</w>
多 才</w>
多 幸</w>
多 かれ</w>
外 注</w>
外 寇</w>
外 地</w>
外 在</w>
外 傷</w>
変わ ん</w>
変 質</w>
変 節</w>
変 圧</w>
変 人</w>
変 っ</w>
売り 込ん</w>
売り 買い</w>
売り 物</w>
売り 渡し</w>
売り 払っ</w>
売 掛</w>
売 主</w>
声 高</w>
声 調</w>
声 かけ</w>
増 長</w>
増 補</w>
増 税</w>
墓 場</w>
塩 辛い</w>
堅 苦しい</w>
堅 牢</w>
堅 気</w>
基づ か</w>
基 調</w>
執 着</w>
執 拗</w>
執 念</w>
城 楼</w>
型 番</w>
垂 れる</w>
地 表</w>
地 価</w>
圧 延</w>
土 足</w>
土 用</w>
国 辱</w>
国 政</w>
国 なまり</w>
固 守</w>
固 まる</w>
図 太く</w>
囲 炉裏</w>
回 生</w>
回 帰</w>
回 せ</w>
四 国</w>
囚 われ</w>
嚢 胞</w>
噴 き
嘆 く</w>
営 む</w>
営 み</w>
喫 し</w>
喜ば しく</w>
喜 色</w>
喋 ら</w>
喉 仏</w>
問い かけ</w>
問 屋</w>
唾 棄</w>
唱 和</w>
唯 心</w>
唯 々</w>
唆 さ</w>
品 薄</w>
咳 止め</w>
咲き 誇る</w>
咲き 乱れ</w>
和ら ぐ</w>
和 え</w>
命 数</w>
呼 ば
呼ば わり</w>
味 気ない</w>
呪 う</w>
周 期</w>
呑 み</w>
吹っ 飛ばさ</w>
吹き 荒れ</w>
吹き 替え</w>
吹き 回し</w>
吸い 取ら</w>
吸い 上げ</w>
吸 殻</w>
含 蓄</w>
否 め</w>
吟 遊</w>
向かい 合う</w>
向 っ</w>
名 言</w>
名 状</w>
名 勝</w>
名 作</w>
名 乗る</w>
同 音</w>
同 業</w>
同 梱</w>
同 日</w>
同 列</w>
同 伴</w>
吉 岡</w>
合わ さっ</w>
各 項</w>
各 社</w>
司 書</w>
号 砲</w>
叶 っ</w>
史 跡</w>
台 頭</w>
台 場</w>
可 決</w>
古 都</w>
古 跡</w>
古 希</w>
口 述</w>
口 裏</w>
受 粉</w>
受 容</w>
受 取り</w>
受 入れ</w>
取り 込み</w>
取り 繕う</w>
取り 立てる</w>
取り 決める</w>
取り 掛かり</w>
取り 持つ</w>
取り 押さえ</w>
取り 憑い</w>
取り 巻き</w>
取り 寄せる</w>
取り 外さ</w>
取り 囲み</w>
取り 合わせ</w>
取り 合う</w>
取り つけ</w>
取り かかっ</w>
取 消し</w>
収 蔵</w>
収 束</w>
反 田</w>
反 帝</w>
反 則</w>
反 党</w>
反 り
反り 返っ</w>
双 書</w>
双 務</w>
参 列</w>
参 事</w>
去 来</w>
去 ろう</w>
厢 房</w>
厚 誼</w>
即 発</w>
即 し</w>
危 ねー</w>
印 章</w>
占 有</w>
博 する</w>
単 刀</w>
南 米</w>
南 国</w>
卑 賤</w>
卑 猥</w>
卑 俗</w>
半 熟</w>
千 金</w>
千 秋</w>
千 万</w>
十 二
匿 名</w>
医 院</w>
区 分け</w>
北 海</w>
北 島</w>
北 国</w>
包み 込ん</w>
勿 論</w>
勲 功</w>
勤め 先</w>
勤 続</w>
勤 倹</w>
募 り</w>
勝ち 誇っ</w>
勝ち 取り</w>
勝 敗</w>
勝 報</w>
勝 也</w>
動き 回っ</w>
勇 士</w>
勇 ましく</w>
効 能</w>
効 用</w>
労 使</w>
劣 勢</w>
加 わり</w>
加 わら</w>
功 罪</w>
功 徳</w>
力 量</w>
創 っ</w>
割り 込ん</w>
割り 込む</w>
割り 勘</w>
割 賦</w>
割 拠</w>
剥 離</w>
剛 性</w>
前 頭</w>
前 者</w>
前 科</w>
前 借り</w>
刻 みつける</w>
制 空</w>
利 他</w>
利 ざや</w>
利 かす</w>
利 かし</w>
別れ 別れ</w>
別 送</w>
別 表</w>
別 れよう</w>
初 任</w>
刑 期</w>
刈り 取る</w>
刈り 入れる</w>
切羽 詰まっ</w>
切れ 味</w>
切り 離せ</w>
切り 離し</w>
切り 離さ</w>
切り 詰める</w>
切り 詰め</w>
切り 落とし</w>
切り 捨てる</w>
切り 下げ</w>
切り 上げ</w>
切 削</w>
分 断</w>
分 っ</w>
出逢 う</w>
出来 高</w>
出 頭</w>
出 陣</w>
出 迎える</w>
出 廷</w>
出 入国</w>
出 れる</w>
凹 凸</w>
凶 器</w>
凛 と</w>
冷 麺</w>
冴 え</w>
冬 眠</w>
冬 期</w>
写し 取る</w>
冒 す</w>
再 版</w>
円 陣</w>
円 柱</w>
内 視</w>
内 職</w>
内 密</w>
内 向</w>
兼ね 備え</w>
兵 馬</w>
共 働き</w>
公 私</w>
公 司</w>
公 使</w>
八 百</w>
全 開</w>
全 長</w>
全 角</w>
全 県</w>
全 席</w>
全 巻</w>
全 土</w>
全 党</w>
入れ 歯</w>
入れ 墨</w>
入れ れ</w>
入 賞</w>
入 用</w>
光 沢</w>
先 遣</w>
先 約</w>
先 手</w>
先 刻</w>
元 首</w>
元 値</w>
優 性</w>
働き 詰め</w>
働き 盛り</w>
働き づめ</w>
傾 き</w>
催 眠</w>
備 考</w>
偽 る</w>
偶 発</w>
健 気</w>
停 頓</w>
偏 向</w>
偉 人</w>
偉 く</w>
値 切る</w>
借り 入れ</w>
倒 せる</w>
修 訂</w>
保 温</w>
保 寺</w>
促 さ</w>
係 数</w>
係 り</w>
便 座</w>
侮 り</w>
例 証</w>
使い もの</w>
使 者</w>
使 役</w>
併 設</w>
併 呑</w>
作り 話</w>
余 談</w>
余 生</w>
余 熱</w>
余 力</w>
何 ぴ
何ぴ と</w>
体 長</w>
体 表</w>
体 罰</w>
住 血</w>
低 木</w>
伺 わ</w>
伴 奏</w>
伴 侶</w>
会 釈</w>
休 み
伏 線</w>
伏 せる</w>
伏 す</w>
任 す</w>
仲 立ち</w>
仰ぎ 見る</w>
仰 向け</w>
仰 っ</w>
仮 眠</w>
以 北</w>
代 役</w>
代 償</w>
代 え</w>
付 随</w>
他 界</w>
他 方</w>
他 愛</w>
仕方 なかっ</w>
仕事 終わり</w>
仕 置き</w>
仕 立て
仕 切っ</w>
仕 出し</w>
仕 入
人 当たり</w>
人 夫</w>
人 声</w>
人 品</w>
人 となり</w>
交 わっ</w>
交 わさ</w>
交 じり</w>
交 じ
交 える</w>
亜 鉛</w>
五 百</w>
五 反田</w>
五 千</w>
互 恵</w>
二人 暮らし</w>
二 つ</w>
事 理</w>
予 見</w>
予 科</w>
乾 か</w>
乱 筆</w>
乱 さ</w>
乗り 継い</w>
乗り 切る</w>
乏 しく</w>
久 保寺</w>
主 食</w>
主 将</w>
丸 裸</w>
丸 める</w>
中 高生</w>
中 風</w>
中 長期</w>
中 部</w>
中 背</w>
中 肉</w>
中 耕</w>
中 坊</w>
中 原</w>
並べ 立てる</w>
両 脚</w>
両 社</w>
両 極</w>
両 ほお</w>
世 継ぎ</w>
世 故</w>
与 太者</w>
与 信</w>
不可 避</w>
不 順</w>
不 通</w>
不 祥</w>
不 眠</w>
不 渡り</w>
不 撓</w>
不 孝</w>
不 変</w>
不 倶</w>
下 顎</w>
下 賤</w>
下 見</w>
下 腹</w>
下 線</w>
下 界</w>
下 働き</w>
下 位</w>
上 質</w>
上 皮</w>
上 座</w>
上 履き</w>
上 官</w>
上 奏</w>
上 向い</w>
上 値</w>
三 毛</w>
三 国</w>
万 障</w>
七 十</w>
丁 目</w>
一 陣</w>
一 触</w>
一 色</w>
一 笑</w>
一 物</w>
一 朝</w>
一 望</w>
一 抱え</w>
一 寸</w>
一 変</w>
一 句</w>
一 倍</w>
一 く
一く さり</w>
ード ー</w>
ー ラ</w>
ー ミング</w>
ー ノ</w>
ー シップ</w>
ー て</w>
ヴィ ー
ヴ ィ</w>
ン ン</w>
ン ボ</w>
ン ハセヨ</w>
ワッ フル</w>
ワ ール</w>
ワ ゴン</w>
ワ ケ</w>
ロー タリー</w>
ロン ジン</w>
ロボ ー</w>
ロジ ロ</w>
ロジ スティ
ロ ーズ</w>
ロ ース</w>
ロ リン</w>
ロ デ
ロ イ
レーショ ンズ</w>
レッ ダー</w>
レ ポーター</w>
レ ナ
レ トロ</w>
レ チ
レ ジュ
レジュ メ</w>
レ ジャー</w>
レ ギュ
レギュ ラー</w>
レ オ
ルー ブル</w>
ルー シー</w>
ルン プール</w>
ル ビー</w>
ル ダー</w>
ル ダン</w>
ル ケット</w>
ル クス</w>
リー ヌ</w>
リング ジム</w>
リュ ック</w>
リモ ート</w>
リピ リ</w>
リア ート</w>
リ ヤ</w>
リ ベート</w>
リ ベン
リベン ジ</w>
リ テラ
リテラ シー</w>
リ ダ</w>
リ ジ
ランチ タイム</w>
ラン ド
ライン ナ
ラインナ ップ</w>
ライ ム</w>
ラ ント</w>
ラ ム
ラ ミ
ラミ ッド</w>
ラ ボ</w>
ラ ブラ
ラブラ ブ</w>
ラ フ</w>
ラ ッカー</w>
ラ チオ</w>
ラ ガス</w>
ヨ ルダン</w>
ユー ザ</w>
ユ ル</w>
ユ イ</w>
ヤン コ</w>
ヤン キ
ヤンキ ース</w>
ヤッ ホー</w>
ヤ ン</w>
ヤ モリ</w>
ヤ マ</w>
ヤ シ</w>
モル タル</w>
モノ ホン</w>
モチ ーフ</w>
モザ イク</w>
モ ー</w>
モ ニア</w>
モ ナ
モ トカ
モトカ ノ</w>
メン テーション</w>
メリ ヤス</w>
メラ ルド</w>
メモ リ</w>
メ ラン</w>
メ タ
ムー ビー</w>
ムカ デ</w>
ム ッティ</w>
ム ダ</w>
ム ゾン</w>
ム ギ</w>
ミリ メートル</w>
ミミ ズ</w>
ミニ スカート</w>
ミニ ウム</w>
ミシシッ ピー</w>
ミシ ガン</w>
ミクロ ネシア</w>
ミ ール</w>
ミ ャ
ミ ット</w>
ミ ス
ミ ア</w>
マーチャンダイ ジング</w>
マーガ リン</w>
マー ジン</w>
マン モス</w>
マル チ</w>
マリ ナーズ</w>
マラ リア</w>
マヨ ネーズ</w>
マジ シャン</w>
マグネ シウム</w>
マイ ンド</w>
マ ル</w>
マ ナ
マ ドリ
マ トリ
マ ット
マット レス</w>
マ チック</w>
マ ダ
マダ ガ
マダガ スカル</w>
マ スタ
マスタ ード</w>
マ シタ</w>
ポン ポン</w>
ポリ ープ</w>
ポリ マー</w>
ポ ーク</w>
ポ コ</w>
ポ コ
ボン バ
ボンバ ヘ
ボル ダ
ボルダ リングジム</w>
ボ ブ
ボ キャ
ボキャ ブラ
ボキャブラ リー</w>
ボ ウ
ボウ リング</w>
ホーム レス</w>
ホー チミン</w>
ペナル ティー</w>
ペ ル
ペ ティ
ペティ ション</w>
ペ イ</w>
ペ イ
ベン ション</w>
ベラ ベラ</w>
ベイ ビー</w>
ベ ータ</w>
ベ リ
ベ ッ
ヘン リー</w>
ヘル ニア</w>
ヘク タール</w>
ヘ ルス</w>
ヘ イト</w>
プロレタ リアート</w>
プロジェ クター</w>
プロ レス</w>
プロ ペラ</w>
プロ パン</w>
プロ バイ
プロ デュ
プレッ サー</w>
プリン クラ
プリンクラ ー</w>
プラン ク
プランク トン</w>
プラ モデル</w>
プラ イ</w>
プチ ブル</w>
ブー メラン</w>
ブレー カー</w>
ブル ース</w>
ブル ン</w>
ブル ク</w>
ブリ ッド</w>
ブラク ダ</w>
ブチ 殺し</w>
ブ レ</w>
ブ リア</w>
ブ ツ</w>
ブ ツ
ブ ッシュ</w>
ブ ク
ブク ブク</w>
ブ イ</w>
フロ リダ</w>
フラン ジ</w>
フラン シ
フランシ スコ</w>
フライ ス</w>
フォーマ ル</w>
フォ ース</w>
フォ ント</w>
フォ ワード</w>
フォ ニ
フォ ア</w>
フェ ル
フェ ラチオ</w>
フェ ニ
フェ イク</w>
フィ ート</w>
フィ ット</w>
フィ ッ
ファンタ ジー</w>
ファク シ
ファクシ ミリ</w>
ファ ッシ
ファッシ ョ</w>
フ ローリング</w>
フ リー
フ ス</w>
フ サービス</w>
ピカ ピカ</w>
ピ ーター</w>
ピ ル</w>
ピ リピリ</w>
ピ ラミッド</w>
ピ ニオン</w>
ピ ッチ</w>
ピ スト</w>
ピ ケ</w>
ビー トル
ビートル ズ</w>
ビ ーズ</w>
ビ ット</w>
ビ ク
ヒョ ウ</w>
ヒュ ーマ
ヒュ ーズ</w>
ヒト ラー</w>
ヒ メ
ヒ ゲ</w>
ヒ グマ</w>
パーソ ナル</w>
パー トナ
パートナ ーシップ</w>
パラ グアイ</w>
パク チー</w>
パ レオ</w>
パ ル</w>
パ ブ</w>
パ ナマ</w>
パ テント</w>
パ テ</w>
パ チン</w>
パ ズル</w>
パ ウ
パウ ダー</w>
バース デー</w>
バン ナ</w>
バン ジー</w>
バラ し</w>
バック ト</w>
バイオリ ニスト</w>
バイオ レンス</w>
バ ート</w>
バ ロ
バ レッ
バ リア</w>
バ ナ</w>
バ ッチ</w>
バ ダ</w>
バ タ
バタ フライ</w>
バ ザー</w>
バ ク</w>
ハー ハー</w>
ハンド ボール</w>
ハン ティング</w>
ハン グル</w>
ハム スター</w>
ハハ ハ
ハハハ ハ</w>
ハッ ハ</w>
ハチ の巣</w>
ハサ ミ</w>
ハイ ブリッド</w>
ハ プニング</w>
ハ ット</w>
ハ ウンド</w>
ノ ックアウト</w>
ノ ック
ネ ーブ</w>
ネ イル</w>
ヌー トリア</w>
ニョ ール</w>
ニュー ス
ニュース レター</w>
ニヤ ニヤ</w>
ニ レ</w>
ナー ゼ</w>
ナ ン</w>
ナ メント</w>
ナ メ</w>
ナ メ
ナ ポリ</w>
ナ パ
ナ ノ</w>
ドー ラン</w>
ドリ ブン</w>
ドラ マチック</w>
ドキュ メント</w>
ド ードー</w>
ド ロボー</w>
ド スン</w>
ド ス
トロ イト</w>
トレー ナー</w>
トリ オ</w>
トラン ジ
トランジ スター</w>
トライ アル</w>
トライ アスロン</w>
トラ ル</w>
トラ ップ</w>
トラ ウマ</w>
トド メ</w>
トカ ゲ</w>
ト ーチ</w>
ト レス</w>
ト リ</w>
ト ヨタ</w>
ト ッピング</w>
ト ダウン</w>
ト ス</w>
ト コ
ト ゲ
ト キ
デリバ ティブ</w>
デリ ジェ
デリジェ ンス</w>
ディー ゼル</w>
ディス プレイ</w>
ディ ン
ディ フェンス</w>
ディ スコ</w>
ディ ア
デ ュー</w>
デ トロイト</w>
デ コ</w>
テン ダー</w>
ティ ン
ティ カル</w>
テ ージ</w>
テ ラ</w>
テ ノール</w>
ツ ン</w>
ツ ン
ツ ラ</w>
ツ グ
ツ ェ</w>
ット ダウン</w>
ッシ モ</w>
ック ル</w>
ック ス
ック オフ</w>
ッ パリ</w>
ッ トランド</w>
ッ ティー</w>
チンチ ロリン</w>
チョ ッキ</w>
チュー イン
チューイン ガム</w>
チュ ード</w>
チュ ウ</w>
チャイ ム</w>
チャ ラ
チク ショー</w>
チク っ</w>
チェ ッ</w>
チ キ</w>
チ ェ</w>
ダサ い</w>
ダイ バー</w>
ダ ル
ダ ニ</w>
ダ ッシュ</w>
ダ サイ</w>
タン ザニア</w>
タブ ロイド</w>
タオ ルケット</w>
タ ラップ</w>
タ ナ</w>
タ トゥー</w>
タ ップ</w>
タ チ</w>
ゾ ール</w>
ゾ ナ</w>
ソ ナタ</w>
ソ テー</w>
ソ つき</w>
ゼン チン</w>
ゼ ータ</w>
セレ モニー</w>
セル フサービス</w>
セラ ミック</w>
セグ メンテーション</w>
セ ッ
セ カ
セカ ンド</w>
ズ ック</w>
スミ マセン</w>
スペ ック</w>
スペ シャル</w>
スピ ー
スパゲ ッティー</w>
スパゲ ッティ</w>
スパイ ス</w>
スパ ラガス</w>
スパ ナ</w>
ストロ ボ</w>
ストライ ク</w>
ストラ テ
スト リート</w>
スト メント</w>
スト イ
ストイ ック</w>
ステン レス</w>
ステレ オ</w>
スティ ン</w>
ステ ッチ</w>
ステ ィ</w>
スタ ーター</w>
スタ ン</w>
スタ ディ</w>
スコ ットランド</w>
スコ ア
スケ ジュ</w>
スカイ プ</w>
ス ー</w>
ス ボン</w>
ス プリンクラー</w>
ス ッキリ</w>
ス ッ
ス チ
ス ウィ
ス っ</w>
ジョ イ</w>
ジュ ー</w>
ジュ ー
ジュ ネーブ</w>
ジュ エ
ジュエ リー</w>
ジャン ボ</w>
ジャク シ</w>
ジャイ ロ
ジャ ンク</w>
ジェル メン</w>
ジェ ニー</w>
ジ ロジロ</w>
ジ ョ</w>
シー ソー</w>
シン バラ</w>
ショ ン
シュ レッダー</w>
シュ ミ
シャン パン</w>
シャ ボン</w>
シャ ットダウン</w>
シギ シ</w>
シェ ル</w>
シ ーズ</w>
シ ロ</w>
シ リン</w>
シ リン
シ ニョール</w>
シ チュー</w>
シ ェ</w>
ザー バー</w>
ザラ シ</w>
ザ ン</w>
ザ マ</w>
ザ ス</w>
ザ シ</w>
ザ イ</w>
ザ イ
サー キット</w>
サンプ リング</w>
サン フランシスコ</w>
[...]
