#version: 0.2
我 们</w>
没 有</w>
t ;</w>
q u
qu o
quo t;</w>
& quot;</w>
一 个</w>
这 个</w>
自 己</w>
什 么</w>
孩 子</w>
他 们</w>
可 以</w>
进 行</w>
不 能</w>
因 为</w>
公 司</w>
问 题</w>
起 来</w>
为 了</w>
现 在</w>
开 始</w>
时 候</w>
已 经</w>
工 作</w>
那 个</w>
时 间</w>
很 多</w>
生 活</w>
不 要</w>
如 果</w>
不 是</w>
非 常</w>
所 以</w>
国 家</w>
韩 国</w>
事 情</w>
就 是</w>
政 府</w>
正 在</w>
的 话</w>
今 天</w>
但 是</w>
朋 友</w>
应 该</w>
这 种</w>
学 生</w>
虽 然</w>
由 于</w>
可 能</w>
这 次</w>
通 过</w>
还 是</w>
成 为</w>
怎 么</w>
企 业</w>
知 道</w>
社 会</w>
一 下</w>
大 家</w>
地 方</w>
中 国</w>
需 要</w>
人 们</w>
这 样</w>
经 济</w>
出 来</w>
喜 欢</w>
老 师</w>
一 样</w>
出 现</w>
一 起</w>
一 直</w>
世 界</w>
这 些</w>
比 赛</w>
别 人</w>
东 西</w>
最 近</w>
决 定</w>
这 么</w>
妈 妈</w>
不 会</w>
一 定</w>
情 况</w>
得 到</w>
活 动</w>
发 展</w>
0 0</w>
学 习</w>
衣 服</w>
部 分</w>
下 来</w>
关 系</w>
发 生</w>
学 校</w>
总 是</w>
使 用</w>
之 后</w>
那 么</w>
感 到</w>
受 到</w>
真 是</w>
大 学</w>
美 国</w>
两 个</w>
产 品</w>
结 果</w>
过 去</w>
行 为</w>
这 件</w>
今 年</w>
点 儿</w>
所 有</w>
参 加</w>
容 易</w>
作 为</w>
努 力</w>
父 母</w>
电 影</w>
只 有</w>
经 常</w>
必 须</w>
准 备</w>
特 别</w>
这 里</w>
无 法</w>
看 到</w>
一 些</w>
身 体</w>
一 点</w>
这 是</w>
重 要</w>
不 同</w>
计 划</w>
教 育</w>
希 望</w>
许 多</w>
一 次</w>
增 加</w>
运 动</w>
主 义</w>
觉 得</w>
因 此</w>
国 民</w>
认 为</w>
之 间</w>
感 觉</w>
汽 车</w>
表 示</w>
对 于</w>
韩 元</w>
只 是</w>
一 种</w>
成 功</w>
要 求</w>
作 品</w>
才 能</w>
考 试</w>
获 得</w>
选 手</w>
技 术</w>
能 够</w>
事 件</w>
方 面</w>
文 章</w>
好 像</w>
突 然</w>
人 员</w>
随 着</w>
敌 人</w>
不 了</w>
父 亲</w>
民 浩</w>
能 力</w>
文 化</w>
调 查</w>
困 难</w>
母 亲</w>
儿 子</w>
只 要</w>
经 过</w>
结 束</w>
政 策</w>
各 种</w>
变 得</w>
日 本</w>
天 气</w>
而 且</w>
一 天</w>
提 高</w>
接 受</w>
处 理</w>
举 行</w>
家 里</w>
地 区</w>
十 分</w>
几 个</w>
方 法</w>
根 据</w>
还 有</w>
有 些</w>
事 故</w>
不 好</w>
说 话</w>
进 入</w>
主 要</w>
有 人</w>
意 见</w>
具 有</w>
最 后</w>
解 决</w>
历 史</w>
政 治</w>
样 子</w>
很 大</w>
内 容</w>
爸 爸</w>
不 过</w>
每 天</w>
过 来</w>
研 究</w>
时 代</w>
严 重</w>
方 式</w>
完 成</w>
人 类</w>
以 后</w>
心 里</w>
市 场</w>
小 说</w>
哥 哥</w>
完 全</w>
1 0</w>
一 般</w>
房 子</w>
目 前</w>
对 方</w>
不 断</w>
精 神</w>
发 现</w>
任 何</w>
不 到</w>
终 于</w>
环 境</w>
消 息</w>
导 致</w>
明 天</w>
健 康</w>
态 度</w>
2 0
现 象</w>
出 去</w>
帮 助</w>
那 些</w>
警 察</w>
有 点</w>
听 到</w>
价 格</w>
其 他</w>
日 子</w>
去 年</w>
存 在</w>
声 音</w>
眼 睛</w>
利 用</w>
表 现</w>
昨 天</w>
产 生</w>
即 使</w>
这 部</w>
自 然</w>
你 们</w>
如 此</w>
过 程</w>
多 少</w>
原 因</w>
家 庭</w>
意 思</w>
. .
之 前</w>
提 供</w>
取 得</w>
不 起</w>
战 争</w>
更 加</w>
成 绩</w>
小 时</w>
这 家</w>
减 少</w>
会 议</w>
有 关</w>
结 婚</w>
提 出</w>
一 切</w>
最 终</w>
影 响</w>
城 市</w>
实 现</w>
不 少</w>
同 时</w>
不 住</w>
那 样</w>
以 前</w>
生 产</w>
妻 子</w>
条 件</w>
音 乐</w>
选 举</w>
回 来</w>
来 说</w>
造 成</w>
开 发</w>
全 部</w>
离 开</w>
演 员</w>
为 什么</w>
最 好</w>
商 品</w>
比 较</w>
制 度</w>
责 任</w>
怎 么
不 管</w>
下 去</w>
失 败</w>
故 事</w>
丈 夫</w>
部 门</w>
考 虑</w>
会 儿</w>
人 家</w>
首 尔</w>
世 界
引 起</w>
作 用</w>
习 惯</w>
运 动
重 新</w>
此 次</w>
变 化</w>
只 能</w>
选 择</w>
晚 上</w>
心 情</w>
当 时</w>
人 生</w>
不 知</w>
组 织</w>
方 案</w>
小 心</w>
充 满</w>
拥 有</w>
面 前</w>
家 伙</w>
2 0</w>
飞 机</w>
展 开</w>
就 要</w>
女 性</w>
人 士</w>
越 来
事 业</w>
民 族</w>
反 对</w>
代 表</w>
漂 亮</w>
本 书</w>
整 个</w>
几 天</w>
另 外</w>
第 一
弟 弟</w>
家 人</w>
令 人</w>
管 理</w>
注 意</w>
国 际</w>
可 是</w>
那 里</w>
投 资</w>
时 期</w>
错 误</w>
穿 着</w>
担 心</w>
不 仅</w>
必 要</w>
奶 奶</w>
姐 姐</w>
训 练</w>
个 人</w>
观 众</w>
医 院</w>
力 量</w>
俊 基</w>
越来 越</w>
机 会</w>
全 国</w>
颜 色</w>
那 种</w>
左 右</w>
马 上</w>
放 在</w>
带 来</w>
爷 爷</w>
如 何</w>
保 持</w>
讨 论</w>
相 关</w>
不 可</w>
达 到</w>
相 信</w>
传 统</w>
发 出</w>
了 解</w>
客 人</w>
国 内</w>
做 出</w>
现 场</w>
安 全</w>
经 营</w>
工 厂</w>
水 平</w>
手 机</w>
我 国</w>
信 息</w>
一 边</w>
自 由</w>
事 实</w>
周 围</w>
逐 渐</w>
生 意</w>
当 然</w>
女 儿</w>
职 员</w>
旅 行</w>
最 大</w>
每 个</w>
回 家</w>
负 责</w>
对 象</w>
实 在</w>
医 生</w>
是 因为</w>
危 机</w>
甚 至</w>
性 格</w>
大 部分</w>
到 处</w>
任 务</w>
领 域</w>
欢 迎</w>
建 设</w>
尽 管</w>
似 乎</w>
直 接</w>
爱 情</w>
不 得</w>
电 话</w>
项 目</w>
电 视
房 间</w>
味 道</w>
高 兴</w>
经 理</w>
电 脑</w>
双 方</w>
制 作</w>
动 物</w>
工 程</w>
少 年</w>
规 模</w>
美 丽</w>
按 照</w>
一 年</w>
正 式</w>
好 好</w>
不 得
适 合</w>
规 定</w>
变 成</w>
中 心</w>
很 难</w>
咱 们</w>
几 乎</w>
正 确</w>
食 物</w>
服 务</w>
失 去</w>
一 会儿</w>
记 者</w>
简 单</w>
设 计</w>
幸 福</w>
危 险</w>
资 金</w>
办 法</w>
这 一</w>
皮 肤</w>
理 解</w>
改 革</w>
建 筑</w>
一 位</w>
身 上</w>
期 间</w>
年 轻</w>
而 是</w>
看 着</w>
然 后</w>
教 授</w>
我 家</w>
形 成</w>
价 值</w>
近 来</w>
职 业</w>
是 否</w>
休 息</w>
女 人</w>
坐 在</w>
首 先</w>
其 中</w>
经 历</w>
真 的</w>
检 查</w>
胜 利</w>
目 标</w>
未 来</w>
持 续</w>
购 买</w>
继 续</w>
法 律</w>
意 识</w>
仍 然</w>
一 个
太 阳</w>
听 说</w>
十 年</w>
陷 入</w>
经 验</w>
制 定</w>
超 过</w>
领 导</w>
以 上</w>
老 人</w>
整 天</w>
一 场</w>
旅 游</w>
到 底</w>
认 识</w>
紧 张</w>
知 识</w>
显 得</w>
利 益</w>
批 评</w>
如 今</w>
外 国</w>
报 纸</w>
保 护</w>
改 变</w>
工 资</w>
人 才</w>
找 到</w>
或 者</w>
思 想</w>
交 通
之 一</w>
下 雨</w>
上 去</w>
气 氛</w>
先 生</w>
件 事</w>
阳 光</w>
银 行</w>
材 料</w>
建 立</w>
想 法</w>
哪 儿</w>
一 片</w>
遇 到</w>
礼 物</w>
巨 大</w>
务 员</w>
收 入</w>
男 人</w>
发 表</w>
语 言</w>
议 员</w>
生 命</w>
实 力</w>
不 足</w>
真 正</w>
清 楚</w>
支 持</w>
工 人</w>
之 中</w>
三 个</w>
那 位</w>
示 威</w>
看 起来</w>
儿 童</w>
1 9
费 用</w>
网 络</w>
年 轻
势 力</w>
冠 军</w>
游 戏</w>
想 到</w>
要 是</w>
行 动</w>
竞 争</w>
现 实</w>
机 器</w>
北 京</w>
科 学</w>
看 见</w>
大 量</w>
公 开</w>
顾 客</w>
委 员
员 工</w>
农 民</w>
程 度</w>
人 物</w>
肯 定</w>
以 来</w>
附 近</w>
销 售</w>
节 目</w>
办 公
效 果</w>
3 0</w>
球 队</w>
据 说</w>
压 力</w>
再 次</w>
下 午</w>
肚 子</w>
实 际</w>
团 体</w>
毕 业</w>
方 向</w>
头 发</w>
国 会</w>
其 实</w>
似 的</w>
一 声</w>
表 情</w>
曾 经</w>
夏 天</w>
合 作</w>
世 纪</w>
留 下</w>
照 片</w>
患 者</w>
两 人</w>
一 句</w>
群 众</w>
一 点儿</w>
20 0
评 价</w>
回 答</w>
财 产</w>
百 姓</w>
关 于</w>
不 错</w>
脸 上</w>
平 时</w>
做 事</w>
介 绍</w>
报 道</w>
居 民</w>
基 础</w>
状 态</w>
根 本</w>
天 空</w>
同 学</w>
关 注</w>
人 民</w>
艺 术</w>
现 代</w>
扩 大</w>
好 吃</w>
产 业</w>
表 演</w>
简 直</w>
方 便</w>
拒 绝</w>
以 为</w>
一 件</w>
足 球</w>
设 施</w>
死 亡</w>
矛 盾</w>
名 字</w>
民 浩
早 上</w>
告 诉</w>
积 极</w>
培 养</w>
动 作</w>
主 张</w>
不 停</w>
说 明</w>
就 算</w>
教 练</w>
想 要</w>
互 相</w>
公 共
每 年</w>
打 算</w>
媒 体</w>
出 发</w>
农 村</w>
见 面</w>
苹 果</w>
措 施</w>
作 者</w>
速 度</w>
选 人</w>
路 上</w>
年 龄</w>
干 净</w>
地 上</w>
不 用</w>
商 店</w>
吃 饭</w>
采 取</w>
那 件事</w>
竟 然</w>
独 立</w>
激 烈</w>
机 关</w>
应 当</w>
年轻 人</w>
业 务</w>
绝 对</w>
政 党</w>
彻 底</w>
市 民</w>
候 选人</w>
除 了</w>
梦 想</w>
他 人</w>
桌 子</w>
协 商</w>
防 止</w>
作 家</w>
立 即</w>
理 由</w>
感 冒</w>
坚 持</w>
1 00</w>
避 免</w>
这 儿</w>
资 料</w>
标 准</w>
反 而</w>
专 家</w>
一 家</w>
相 比</w>
演 出</w>
权 力</w>
本 次</w>
周 末</w>
关 心</w>
经 济
祖 国</w>
水 果</w>
很 快</w>
内 部</w>
亿 韩元</w>
不 想</w>
报 告</w>
广 告</w>
连 续</w>
运 会</w>
记 录</w>
政 权</w>
愿 意</w>
总 统</w>
长 得</w>
禁 止</w>
丰 富</w>
舒 服</w>
美 元</w>
痛 苦</w>
无 论</w>
对 手</w>
万 韩元</w>
瞬 间</w>
污 染</w>
地 球</w>
办公 室</w>
令 人
电 视</w>
永 远</w>
怎么 样</w>
一 名</w>
安 排</w>
事 儿</w>
不 如</w>
露 出</w>
警 方</w>
见 到</w>
社 会
明 星</w>
感 受</w>
当 天</w>
文 学</w>
士 兵</w>
可 爱</w>
原 来</w>
决 心</w>
实 施</w>
公 园</w>
确 认</w>
消 费
正 常</w>
劳 动</w>
食 品</w>
单 位</w>
分 钟</w>
一 条</w>
队 员</w>
理 论</w>
忘 记</w>
强 调</w>
发 言</w>
仪 式</w>
子 女</w>
参 与</w>
劲 儿</w>
风 格</w>
面 临</w>
部 队</w>
还 要</w>
土 地</w>
公 寓</w>
认 真</w>
睡 觉</w>
消 除</w>
年 纪</w>
专 业</w>
0 00</w>
强 烈</w>
论 文</w>
生 气</w>
热 情</w>
实 行</w>
讨 厌</w>
等 待</w>
妹 妹</w>
多 年</w>
降 低</w>
阶 段</w>
控 制</w>
前 面</w>
5 0</w>
最 高</w>
同 意</w>
发 挥</w>
空 气</w>
损 失</w>
不 安</w>
长 期</w>
运动 员</w>
教 室</w>
打 开</w>
里 面</w>
感 情</w>
增 长</w>
包 括</w>
共 同</w>
联 系</w>
治 疗</w>
检 察
成 长</w>
合 同</w>
第 一次</w>
机 场</w>
姑 娘</w>
哪 里</w>
去 世</w>
冬 天</w>
享 受</w>
回 到</w>
和 平</w>
基 本</w>
吸 引</w>
明 显</w>
分 析</w>
不 知
系 统</w>
期 待</w>
担 任</w>
属 于</w>
优 秀</w>
青 少年</w>
难 以</w>
第 二
破 坏</w>
文 件</w>
为 止</w>
贷 款</w>
地 位</w>
判 断</w>
创 造</w>
纷 纷</w>
希 贞</w>
咖 啡</w>
作 业</w>
本 来</w>
解 释</w>
稍 微</w>
杂 志</w>
明 白</w>
寻 找</w>
举 办</w>
集 中</w>
缺 乏</w>
犯 罪</w>
奥 运会</w>
二 十
部 长</w>
相 反</w>
村 子</w>
度 过</w>
便 宜</w>
身 份</w>
海 外</w>
季 节</w>
图 书
遭 到</w>
称 为</w>
看 来</w>
改 善</w>
年 代</w>
委员 会</w>
合 适</w>
行 车</w>
命 令</w>
出 口</w>
裤 子</w>
研 究
春 天</w>
成 立</w>
开 放</w>
目 光</w>
看 看</w>
流 行</w>
并 且</w>
复 杂</w>
出 版</w>
一 步</w>
青 年</w>
粮 食</w>
确 定</w>
真 相</w>
整 理</w>
恢 复</w>
志 娟</w>
将 会</w>
台 风</w>
麻 烦</w>
立 场</w>
段 时间</w>
收 到</w>
对 待</w>
只 好</w>
公 布</w>
放 弃</w>
意 义</w>
大 概</w>
做 好</w>
机 构</w>
贸 易</w>
脾 气</w>
彼 此</w>
厉 害</w>
不 可
面 对</w>
表 明</w>
行 业</w>
舆 论</w>
聚 会</w>
工 作
图书 馆</w>
反 应</w>
住 宅</w>
限 制</w>
朝 鲜</w>
明 年</w>
所 谓</w>
引 发</w>
大 会</w>
在 于</w>
同 事</w>
几 年</w>
这 座</w>
观 察</w>
武 器</w>
权 利</w>
战 斗</w>
失 误</w>
反 映</w>
空 间</w>
比 起</w>
国 外</w>
刚 才</w>
允 许</w>
过 于</w>
趋 势</w>
满 意</w>
列 车</w>
位 置</w>
形 式</w>
功 能</w>
上 午</w>
物 品</w>
火 车</w>
合 理</w>
1 2</w>
自 行车</w>
篇 文章</w>
答 应</w>
暂 时</w>
明 确</w>
新 闻</w>
敏 智</w>
处 于</w>
于 是</w>
一 到</w>
首 次</w>
非 法</w>
迅 速</w>
轻 松</w>
车 站</w>
欧 洲</w>
大 型</w>
克 服</w>
传 来</w>
长 时间</w>
王 青</w>
独 特</w>
指 出</w>
往 往</w>
各 自</w>
从 事</w>
立 刻</w>
眼 前</w>
男 女</w>
状 况</w>
消 失</w>
展 示</w>
鼻 子</w>
既 然</w>
后 来</w>
加 入</w>
遗 产</w>
质 量</w>
英 语</w>
缺 点</w>
是 不是</w>
宪 法</w>
人 口</w>
一 只</w>
过 分</w>
收 拾</w>
投 入</w>
成 果</w>
当 地</w>
以 及</w>
仔 细</w>
不 多</w>
顺 利</w>
这 项</w>
观 点</w>
数 量</w>
印 象</w>
饭 店</w>
预 计</w>
耳 朵</w>
消费 者</w>
法 院</w>
来 看</w>
教 师</w>
心 中</w>
害 怕</w>
外 面</w>
难 道</w>
服 装</w>
有 着</w>
支 援</w>
交 易</w>
罪 犯</w>
科 学
形 象</w>
魅 力</w>
遭 受</w>
迟 到</w>
日 期</w>
也 许</w>
预 算</w>
随 便</w>
异 常</w>
协 议</w>
话 题</w>
表 面</w>
司 机</w>
重 视</w>
网 站</w>
相 当</w>
此 外</w>
广 场</w>
别 的</w>
调 整</w>
著 名</w>
眼 神</w>
打 扮</w>
建 议</w>
地 铁</w>
一 顿</w>
进 来</w>
设 立</w>
职 位</w>
结 构</w>
每 次</w>
星 期</w>
想 起</w>
出 色</w>
公 路</w>
来 到</w>
影 片</w>
个 子</w>
专 门</w>
尽 快</w>
试 图</w>
纪 录</w>
目 的</w>
椅 子</w>
材 质</w>
文 化
抓 住</w>
多 么</w>
全 面</w>
赶 紧</w>
善 良</w>
会 谈</w>
具 体</w>
倾 向</w>
距 离</w>
资 源</w>
程 序</w>
病 人</w>
留 学</w>
斗 争</w>
摆 脱</w>
尤 其</w>
小 孩</w>
好 处</w>
事 态</w>
上 班</w>
这 位</w>
脖 子</w>
物 质</w>
成 熟</w>
面 包</w>
进 步</w>
这 场</w>
绳 子</w>
直 到</w>
多 数</w>
分 别</w>
决 赛</w>
设 备</w>
记 忆</w>
格 外</w>
有 名</w>
居 然</w>
小 伙
叔 叔</w>
具 备</w>
依 靠</w>
良 好</w>
窗 户</w>
现 代
手 术</w>
一 生</w>
一 时</w>
一 下
选 拔</w>
自 信</w>
校 长</w>
掌 握</w>
对 面</w>
像 是</w>
偶 尔</w>
不 出</w>
至 今</w>
统 一</w>
演 奏</w>
恐 怕</w>
勉 强</w>
不 动</w>
聪 明</w>
皮 鞋</w>
建 筑
对 话</w>
古 代</w>
力 气</w>
农 业</w>
不 再</w>
采 访</w>
表 达</w>
游 泳</w>
帽 子</w>
工 业</w>
加 强</w>
值 得</w>
代 表
详 细</w>
观 念</w>
老 婆</w>
突 破</w>
渐 渐</w>
意 志</w>
对 策</w>
劳 动
交 往</w>
不 行</w>
高 档</w>
贡 献</w>
范 围</w>
满 足</w>
或 许</w>
意 味
怀 疑</w>
常 常</w>
婚 礼</w>
反 复</w>
一 张</w>
韩 国
遭 遇</w>
胜 负</w>
牺 牲</w>
然 而</w>
接 近</w>
对 此</w>
原 则</w>
体 育
人 数</w>
下 面</w>
车 辆</w>
老 板</w>
有 效</w>
时 刻</w>
回 忆</w>
街 道</w>
确 保</w>
牛 奶</w>
意味 着</w>
应 对</w>
导 演</w>
取 消</w>
刺 激</w>
信 用
不 但</w>
鸡 蛋</w>
集 团</w>
针 对</w>
胳 膊</w>
症 状</w>
生 存</w>
推 迟</w>
投 票</w>
媳 妇</w>
出 租
出 生</w>
冰 箱</w>
角 色</w>
案 件</w>
将 来</w>
书 籍</w>
严 格</w>
练 习</w>
看 法</w>
我 要</w>
当 局</w>
嫌 疑</w>
厨 房</w>
下 降</w>
认 可</w>
裙 子</w>
自 然
多 种</w>
地 震</w>
周 年</w>
事 项</w>
乘 坐</w>
不得 不</w>
院 子</w>
落 后</w>
消 费</w>
活 儿</w>
新 鲜</w>
提 前</w>
掀 起</w>
指 责</w>
委 员</w>
充 分</w>
不 见</w>
上 海</w>
队 伍</w>
衬 衫</w>
第 一</w>
早 晨</w>
待 遇</w>
工 具</w>
小伙 子</w>
家 乡</w>
从 来</w>
从 小</w>
负 担</w>
紧 急</w>
米 饭</w>
眼 光</w>
熟 悉</w>
毛 病</w>
未 能</w>
放 心</w>
快 乐</w>
国 人</w>
即 将</w>
制 造</w>
公 务员</w>
仿 佛</w>
结 实</w>
牛 仔
激 动</w>
有 时</w>
文 物</w>
接 着</w>
忽 然</w>
展 现</w>
宗 教</w>
奖 金</w>
国 王</w>
后 面</w>
上 级</w>
身 材</w>
缓 解</w>
结 论</w>
申 请</w>
庄 稼</w>
差 不多</w>
哪 怕</w>
剩 下</w>
上 涨</w>
石 头</w>
提 议</w>
嘴 唇</w>
命 运</w>
占 据</w>
从 而</w>
交 通</w>
膝 盖</w>
眼 泪</w>
生 病</w>
生 活
活 跃</w>
歌 手</w>
来 自</w>
手 段</w>
思 念</w>
安 静</w>
安 慰</w>
人 事</w>
中 间</w>
餐 厅</w>
稳 定</w>
疲 劳</w>
正 好</w>
故 意</w>
情 景</w>
主 人</w>
西 瓜</w>
被 子</w>
至 少</w>
究 竟</w>
珍 贵</w>
深 刻</w>
描 写</w>
可 惜</w>
分 配</w>
分 手</w>
上 升</w>
节 日</w>
看 上去</w>
疾 病</w>
教 训</w>
广 播</w>
年 级</w>
差 距</w>
小 时候</w>
乐 观</w>
邻 居</w>
蔬 菜</w>
日 益</w>
怎 样</w>
座 位</w>
女 子</w>
失 望</w>
军 队</w>
一 度</w>
进 去</w>
着 手</w>
欲 望</w>
新 娘</w>
减 肥</w>
任 命</w>
不 够</w>
频 繁</w>
面 貌</w>
随 意</w>
秋 天</w>
理 想</w>
派 遣</w>
政 治
慢 慢</w>
从 前</w>
亚 洲</w>
安 装</w>
先 进</w>
视 线</w>
符 合</w>
确 实</w>
田 野</w>
特 点</w>
宣 传</w>
国 家
喝 酒</w>
单 纯</w>
单 独</w>
分 子</w>
临 时</w>
陌 生</w>
行 政</w>
着 急</w>
相 互</w>
牛仔 裤</w>
数 字</w>
我 会</w>
心 灵</w>
屋 里</w>
子 弹</w>
妇 女</w>
呼 吸</w>
参 观</w>
公共 汽车</w>
交 流</w>
不 然</w>
一 旦</w>
首 都</w>
民 主
战 略</w>
广 泛</w>
实 际
同 样</w>
口 气</w>
优 点</w>
一 大
风 景</w>
采 用</w>
袭 击</w>
补 充</w>
相 同</w>
热 闹</w>
抛 弃</w>
情 绪</w>
后 悔</w>
1 1</w>
追 求</w>
积 累</w>
攻 击</w>
坚 决</w>
办 理</w>
出租 车</w>
一下 子</w>
答 案</w>
特 定</w>
散 步</w>
恶 劣</w>
主 意</w>
中 央</w>
不 上</w>
一 向</w>
集 体</w>
课 程</w>
舞 台</w>
老 虎</w>
男 子</w>
日 程</w>
忍 受</w>
受 伤</w>
保 险</w>
维 持</w>
生 日</w>
球 员</w>
灰 尘</w>
拼 命</w>
招 聘</w>
折 磨</w>
尸 体</w>
凌 晨</w>
依 旧</w>
一 块</w>
相 应</w>
浪 费</w>
月 亮</w>
普 通</w>
愉 快</w>
开 心</w>
审 判</w>
信 心</w>
促 进</w>
一 看</w>
1 5</w>
读 书</w>
英 国</w>
而 已</w>
给 予</w>
木 头</w>
工 会</w>
各 地</w>
句 子</w>
之 际</w>
丧 失</w>
音 机</w>
证 明</w>
秘 密</w>
白 色</w>
电视 剧</w>
物 资</w>
照 顾</w>
核 心</w>
有 所</w>
暴 力</w>
按 时</w>
把 握</w>
姿 态</w>
准 确</w>
免 费</w>
不 敢</w>
跟 着</w>
行 李</w>
脑 袋</w>
老 百姓</w>
罚 款</w>
接 触</w>
屁 股</w>
可 怜</w>
兄 弟</w>
一 份</w>
邀 请</w>
透 露</w>
违 背</w>
民 主</w>
暖 和</w>
是 从</w>
接 到</w>
打 扫</w>
恋 爱</w>
岁 月</w>
小 孩子</w>
学 期</w>
吵 架</w>
个 月</w>
顺 序</w>
爱 好</w>
汇 率</w>
批 准</w>
尊 重</w>
千 万</w>
出 差</w>
清 晨</w>
沟 通</w>
无 比</w>
承 担</w>
执 政党</w>
我 军</w>
干 脆</w>
孙 子</w>
到 达</w>
音 乐
辞 职</w>
赶 快</w>
设 置</w>
统 治</w>
等 于</w>
皮 革</w>
敌 军</w>
婴 儿</w>
奇 怪</w>
场 面</w>
地 点</w>
喜 悦</w>
同 志</w>
中 午</w>
一 面</w>
起 床</w>
显 示</w>
打 折</w>
开 展</w>
内 心</w>
兴 趣</w>
伤 害</w>
世界 杯</w>
三 年</w>
验 证</w>
遵 守</w>
道 德</w>
请 求</w>
流 传</w>
搭 配</w>
指 定</w>
思 考</w>
因 素</w>
半 天</w>
利 息</w>
信用 卡</w>
使 得</w>
两 天</w>
一个 月</w>
驾 驶</w>
那 天</w>
通 常</w>
笔 记
民 间</w>
植 物</w>
必 然</w>
合 格</w>
可 见</w>
发 达</w>
利 润</w>
电 影
播 放</w>
往 事</w>
局 面</w>
诚 实</w>
眼 镜</w>
盲 目</w>
汉 语</w>
排 除</w>
外 表</w>
协 会</w>
不 觉</w>
那 儿</w>
这 篇</w>
联 合</w>
约 会</w>
没 什么</w>
村 里</w>
招 呼</w>
学 者</w>
大 赛</w>
善 于</w>
全 身</w>
俱 乐
信 任</w>
红 色</w>
疑 惑</w>
玩 笑</w>
模 仿</w>
无 聊</w>
敏 感</w>
情 节</w>
心 理</w>
平 等</w>
声 明</w>
地 产</w>
出 门</w>
俱乐 部</w>
了 不起</w>
钥 匙</w>
野 党</w>
谴 责</w>
角 度</w>
现 出</w>
烦 恼</w>
批 判</w>
成 就</w>
名 誉</w>
召 开</w>
兴 奋</w>
饮 食</w>
难 得</w>
辣 椒</w>
组 成</w>
纪 念
岩 石</w>
对 不起</w>
大 海</w>
国 际
依 然</w>
骨 头</w>
重 点</w>
这 块</w>
货 物</w>
衣 裳</w>
联 盟</w>
精 彩</w>
称 赞</w>
真 理</w>
推 测</w>
情 报</w>
忽 视</w>
宇 宙</w>
在 家</w>
全 都</w>
一 把</w>
领 导
词 典</w>
规 则</w>
礼 貌</w>
破 产</w>
石 油</w>
混 乱</w>
流 通</w>
早 就</w>
否 定</w>
借 口</w>
不 满</w>
镜 子</w>
道 路</w>
诱 惑</w>
脱 离</w>
羡 慕</w>
棉 花</w>
权 威</w>
徘 徊</w>
当 中</w>
团 结</w>
军 事</w>
修 理</w>
你 别</w>
亲 自</w>
上 面</w>
一 遍</w>
适 应</w>
误 会</w>
许 可</w>
记 得</w>
能 性</w>
离 婚</w>
疲 惫</w>
炎 热</w>
注 重</w>
无 论
支 出</w>
打 击</w>
原 谅</w>
北 方</w>
公 主</w>
主 导</w>
个 性</w>
计 算
艺 术
老 鼠</w>
热 烈</w>
游 客</w>
棒 球</w>
景 气</w>
收 音机</w>
挣 扎</w>
平 静</w>
守 护</w>
卡 车</w>
协 助</w>
企 图</w>
不 开</w>
一 半</w>
纪 念</w>
灵 魂</w>
毫 无</w>
手 表</w>
停 止</w>
人 民
两 种</w>
需 求</w>
难 受</w>
进 口</w>
购 物</w>
气 候</w>
总 经理</w>
年 人</w>
客 厅</w>
实际 上</w>
啤 酒</w>
反 正</w>
博 物
前 途</w>
保 证</w>
体 育</w>
不 清</w>
一 副</w>
饮 料</w>
跳 舞</w>
舌 头</w>
腐 败</w>
肩 膀</w>
翅 膀</w>
笑 话</w>
玻 璃</w>
燃 烧</w>
模 特</w>
桌 上</w>
时 光</w>
成 分</w>
大 幅</w>
叶 子</w>
包 裹</w>
侵 犯</w>
伤 心</w>
高 中</w>
铅 笔</w>
运 行</w>
谨 慎</w>
计 算</w>
结 合</w>
祖 先</w>
现 金</w>
感 激</w>
征 收</w>
山 上</w>
学 会</w>
大 约</w>
辈 子</w>
解 决
相 机</w>
玩 儿</w>
技 术
干 部</w>
宣 布</w>
博物 馆</w>
革 命</w>
般 的</w>
粗 糙</w>
空 调</w>
普 及</w>
抽 烟</w>
房 地产</w>
成 员</w>
微 笑</w>
尽 量</w>
妨 碍</w>
垃 圾</w>
友 谊</w>
到 来</w>
阅 读</w>
豆 腐</w>
蝴 蝶</w>
肌 肉</w>
聚 集</w>
短 信</w>
环 境
漫 画</w>
期 望</w>
有 点儿</w>
月 份</w>
是 非</w>
文 明</w>
承 受</w>
小 事</w>
实 践</w>
一 番</w>
阶 层</w>
道 理</w>
犹 如</w>
打 工</w>
干 燥</w>
外 国人</w>
在 野党</w>
可 能性</w>
协 调</w>
事 务</w>
上 来</w>
一 致</w>
一 杯</w>
言 论</w>
背 景</w>
电 子</w>
时 常</w>
携 带</w>
手 法</w>
固 定</w>
否 则</w>
各 国</w>
可 怕</w>
保 障</w>
传 说</w>
之 外</w>
配 合</w>
贫 困</w>
联 合
竞 争
种 植</w>
沙 漠</w>
正 是</w>
更 好</w>
推 出</w>
总 理</w>
夫 妇</w>
及 时</w>
修 改</w>
黄 金</w>
高 速
过 度</w>
装 备</w>
艰 苦</w>
电 子
很 少</w>
墙 上</w>
事 物</w>
道 歉</w>
精 力</w>
灾 难</w>
正 当</w>
景 色</w>
数 学</w>
拳 头</w>
打 破</w>
履 行</w>
压 迫</w>
加 上</w>
作 出</w>
体 系</w>
义 务</w>
重 复</w>
祝 贺</w>
正 义</w>
歌 曲</w>
树 立</w>
旁 边</w>
手 艺</w>
好 奇</w>
女 孩</w>
夫 妻</w>
估 计</w>
交通 事故</w>
一 趟</w>
4 0</w>
用 于</w>
多 次</w>
场 所</w>
今 后</w>
万 元</w>
一 口</w>
用 品</w>
犯 人</w>
沉 默</w>
普 遍</w>
年 度</w>
干 活</w>
就 业</w>
天 生</w>
三 天</w>
一 部</w>
一 股</w>
高 考</w>
高 级</w>
进 一步</w>
普 通
慎 重</w>
大 众</w>
品 质</w>
公 里</w>
信 念</w>
以 下</w>
中 有</w>
中 国
一 共</w>
预 测</w>
面 积</w>
网 上</w>
生 物</w>
清 晰</w>
据 悉</w>
感 谢</w>
怎么 办</w>
头 上</w>
领 先</w>
青 春</w>
规 律</w>
时 机</w>
战 术</w>
奇 迹</w>
地 说</w>
全 力</w>
从 不</w>
维 护</w>
秩 序</w>
熬 夜</w>
武 装</w>
概 念</w>
挑 战</w>
好 看</w>
场 上</w>
勇 敢</w>
力 于</w>
全 世界</w>
那 边</w>
蔓 延</w>
致 力于</w>
百 货
森 林</w>
极 其</w>
威 胁</w>
天 才</w>
大 学生</w>
传 闻</w>
主 题</w>
阵 地</w>
色 彩</w>
没 想到</w>
氛 围</w>
推 进</w>
恐 怖
当 作</w>
尽 力</w>
增 多</w>
功 夫</w>
出 售</w>
释 放</w>
追 究</w>
身 子</w>
袜 子</w>
老 实</w>
此 事</w>
放 松</w>
护 士</w>
思 维</w>
带 有</w>
名 单</w>
办 事</w>
创 作</w>
他 俩</w>
交 给</w>
互 联
个 人
饼 干</w>
预 防</w>
迎 接</w>
足 以</w>
睡 着</w>
眼 儿</w>
漫 长</w>
温 暖</w>
流 泪</w>
收 藏</w>
收 益</w>
成 人</w>
宝 贵</w>
基 本
各 位</w>
十 足</w>
公 平</w>
公 共</w>
众 多</w>
高速 公路</w>
难 免</w>
这 条</w>
生 长</w>
执 行</w>
分 为</w>
付 款</w>
锻 炼</w>
股 票</w>
火 车站</w>
信 赖</w>
何 必</w>
互联 网</w>
严 厉</w>
一 部分</w>
遥 远</w>
调 节</w>
装 饰</w>
节 约</w>
能 源</w>
综 合</w>
盛 开</w>
生 产
现 状</w>
爬 山</w>
智 慧</w>
明 明</w>
拍 摄</w>
投 机</w>
引 进</w>
帮 忙</w>
失 业</w>
大 门</w>
以 免</w>
p o
风 俗</w>
面 子</w>
难 过</w>
进 攻</w>
秘 书</w>
神 话</w>
相 对</w>
就 是
小 学</w>
学 位</w>
妥 协</w>
发 行</w>
几 次</w>
上 学</w>
读 者</w>
葡 萄</w>
聊 天</w>
平 安</w>
及 格</w>
再 也</w>
以 便</w>
亲 密</w>
两 年</w>
三 十
一 周</w>
金 融
违 反</w>
资 格</w>
观 看</w>
自 主</w>
耀 眼</w>
管 理
福 利</w>
提 交</w>
所 有人</w>
天 天</w>
大 人</w>
各 个</w>
军 事
人 群</w>
门 口</w>
走 路</w>
评 论</w>
生 动</w>
清 除</w>
擅 长</w>
快 速</w>
平 均</w>
失 踪</w>
外 交</w>
不 成</w>
陆 续</w>
身 边</w>
艰 难</w>
舞 蹈</w>
灵 活</w>
淘 汰</w>
文 字</w>
拿 出</w>
全 体</w>
不 久</w>
阻 碍</w>
金 融</w>
金 属</w>
转 让</w>
资 本</w>
良 心</w>
罢 工</w>
真 实</w>
疯 狂</w>
猛 烈</w>
独 自</w>
沙 发</w>
放 进</w>
报 名</w>
引 导</w>
宾 馆</w>
保 险
一 代</w>
这 幅</w>
这 事</w>
轻 轻</w>
谈 判</w>
约 定</w>
特 殊</w>
注 视</w>
没 能</w>
欺 骗</w>
有 个</w>
情 形</w>
形 态</w>
大 多数</w>
乘 客</w>
s ;</w>
po s;</w>
a pos;</w>
& apos;</w>
证 实</w>
绿 色</w>
系 列</w>
条 约</w>
昨 晚</w>
故 乡</w>
手 里</w>
幻 想</w>
小 狗</w>
小 偷</w>
家 长</w>
周 边</w>
刚 刚</w>
养 成</w>
信 仰</w>
位 于</w>
优 先</w>
黑 暗</w>
面 料</w>
街 上</w>
类 型</w>
泡 菜</w>
毕 业
支 付</w>
忙 碌</w>
家 务</w>
安 全
孩 儿</w>
关 键</w>
人 气</w>
不 下</w>
6 0</w>
金 钱</w>
邮 局</w>
温 度</w>
无 知</w>
整 顿</w>
恶 化</w>
忍 耐</w>
家 具</w>
大 规模</w>
受 欢迎</w>
冷 静</w>
关 闭</w>
中 小
不 去</w>
下 班</w>
一 人</w>
2 1</w>
黄 色</w>
炫 耀</w>
法 官</w>
构 成</w>
地 面</w>
名 牌</w>
全 球</w>
免 得</w>
作 风</w>
一 整天</w>
精 神
移 动</w>
浑 身</w>
每 到</w>
果 然</w>
推 荐</w>
推 翻</w>
指 望</w>
承 认</w>
战 胜</w>
想 象</w>
婚 姻</w>
大 小</w>
博 士</w>
使 馆</w>
仅 仅</w>
不 着</w>
一 段时间</w>
黑 色</w>
说 出</w>
融 化</w>
缘 故</w>
演 讲</w>
泄 露</w>
指 示</w>
房 屋</w>
处 罚</w>
南 北</w>
共 同
依 据</w>
不 幸</w>
19 9
震 惊</w>
退 休</w>
瓦 台</w>
抱 怨</w>
愚 蠢</w>
将 军</w>
参 考</w>
卫 生</w>
冻 得</w>
他 家</w>
乞 丐</w>
不知 不觉</w>
非 常
重 大</w>
通 知</w>
运 营</w>
视 频</w>
裁 判</w>
耐 心</w>
火 灾</w>
星 期
文化 遗产</w>
散 发</w>
教 育
支 配</w>
宝 贝</w>
多 亏</w>
培 训</w>
地 图</w>
含 有</w>
传 播</w>
一 层</w>
2 5</w>
骄 傲</w>
青 瓦台</w>
零 食</w>
证 据</w>
西 方</w>
蓝 色</w>
筷 子</w>
海 边</w>
柔 和</w>
无 辜</w>
教 材</w>
心 态</w>
征 服</w>
定 期</w>
大 米</w>
地 板</w>
地 下</w>
例 外</w>
上 司</w>
一 阵</w>
一 辆</w>
1 3</w>
长 大</w>
让 步</w>
翻 译</w>
码 头</w>
眼 色</w>
病 毒</w>
用 来</w>
毛 巾</w>
收 集</w>
排 队</w>
怀 孕</w>
就是 说</w>
大 使馆</w>
坚 强</w>
唯 一</w>
向 来</w>
后 果</w>
受 不了</w>
上 课</w>
5 00</w>
谢 谢</w>
讽 刺</w>
脂 肪</w>
玻 璃
犯 罪
灭 亡</w>
战 士</w>
半 年</w>
倾 听</w>
体 现</w>
会 长</w>
任 何
主 人
这 句</w>
辛 苦</w>
超 级</w>
背 后</w>
种 子</w>
杯 子</w>
日 常
强 制</w>
子 里</w>
如 同</w>
历 史
以 往</w>
马 拉
阴 谋</w>
长 辈</w>
超 市</w>
走 进</w>
点 心</w>
支 撑</w>
当 选</w>
开 玩笑</w>
地 里</w>
凉 快</w>
依 赖</w>
一 颗</w>
越 是</w>
考 上</w>
歪 曲</w>
果 实</w>
效 率</w>
得 以</w>
建筑 物</w>
小 组</w>
大 声</w>
发 抖</w>
不 能
不 太
下 属</w>
.. ..
鲜 明</w>
销 售
自 从</w>
继 承</w>
细 胞</w>
签 证</w>
神 经</w>
清 醒</w>
庞 大</w>
干 什么</w>
常 识</w>
屋 子</w>
寂 寞</w>
学 费</w>
噪 音</w>
凄 凉</w>
体 制</w>
买 卖</w>
一 百
一 段</w>
足 球
负 责
签 署</w>
物 价</w>
每 当</w>
有 没有</w>
最 佳</w>
星 星</w>
年 来</w>
平 常</w>
吃 惊</w>
务 必</w>
会 员</w>
中 断</w>
两 国</w>
业 绩</w>
一 辈子</w>
突 出</w>
法 国</w>
模 糊</w>
恶 心</w>
却 是</w>
冒 险</w>
保 存</w>
一 项</w>
. .</w>
酱 油</w>
讲 究</w>
缺 少</w>
细 致</w>
牛 肉</w>
浪 漫</w>
气 味</w>
扩 散</w>
形 势</w>
客 观</w>
学 问</w>
多 个</w>
只 会</w>
占 领</w>
偶 像</w>
侮 辱</w>
主人 公</w>
中小 企业</w>
严 禁</w>
一 座</w>
领 土</w>
计算 机</w>
自 身</w>
职 务</w>
疲 倦</w>
疏 忽</w>
海 洋</w>
日 记</w>
挤 满</w>
悲 伤</w>
头 脑</w>
可 靠</w>
口 袋</w>
事 实
.... ..</w>
钱 包</w>
迎 来</w>
美 国
登 上</w>
男 性</w>
温 和</w>
比 例</w>
小 子</w>
同 情</w>
判 决</w>
出 国</w>
偏 见</w>
供 应</w>
个 别</w>
不 顾</w>
跑 步</w>
负责 人</w>
象 征</w>
视 为</w>
统 计</w>
盘 子</w>
本 身</w>
指 标</w>
害 羞</w>
始 终</w>
大 厦</w>
嘴 里</w>
助 于</w>
侵 略</w>
人 质</w>
两 国
不 来</w>
不 太</w>
不 及</w>
一 道</w>
一 套</w>
难 以
适 当</w>
达 成</w>
空 中</w>
没 法</w>
欺 负</w>
尺 寸</w>
小 区</w>
射 击</w>
天 下</w>
夏 季</w>
前 进</w>
假 装</w>
争 论</w>
8 0</w>
阵 容</w>
这 份</w>
走 向</w>
繁 荣</w>
第 一个</w>
热 爱</w>
探 索</w>
心 眼儿</w>
弹 性</w>
密 切</w>
外 出</w>
外 交
在 意</w>
做 成</w>
不 必</w>
高 尔
财 政</w>
每 月</w>
改 正</w>
掩 盖</w>
性 感</w>
咳 嗽</w>
华 丽</w>
书 法</w>
不 定</w>
饭 菜</w>
过 得</w>
轻 易</w>
美 术</w>
登 山</w>
珍 珠</w>
洪 水</w>
服 务
掏 出</w>
拿 到</w>
愤 怒</w>
录 取</w>
强 大</w>
床 上</w>
平 凡</w>
帐 篷</w>
味 儿</w>
加 班</w>
软 件</w>
资 产</w>
而 言</w>
神 奇</w>
洗 澡</w>
哪 个</w>
前 来</w>
做 法</w>
争 夺</w>
隐 瞒</w>
阻 止</w>
远 处</w>
起 到</w>
观 众
算 是</w>
笼 罩</w>
爽 快</w>
法 案</w>
正 规</w>
树 枝</w>
有 助于</w>
心 思</w>
庆 祝</w>
岗 位</w>
山 顶</w>
回 去</w>
商 场</w>
做 生意</w>
俄 罗
休 假</w>
伊 拉
交 换</w>
为 主</w>
两 位</w>
不 肯</w>
2 00</w>
让 人</w>
虚 假</w>
自 由
看 书</w>
摩 托
德 国</w>
延 续</w>
巧 妙</w>
学 院</w>
军 人</w>
体 力</w>
伙 伴</w>
一 带</w>
隔 壁</w>
那 座</w>
通 讯</w>
这 台</w>
能 量</w>
美 术
美 军</w>
笔记 本</w>
狭 窄</w>
模 样</w>
柔 软</w>
村 庄</w>
昼 夜</w>
故 障</w>
巧 克
夜 晚</w>
从 此</w>
争 议</w>
主 流</w>
上 下</w>
随 时</w>
逻 辑</w>
还 会</w>
谣 言</w>
自 我</w>
白 天</w>
画 家</w>
服 务员</w>
拖 延</w>
弱 点</w>
巧克 力</w>
头 儿</w>
大 学
垃 圾
协 定</w>
刊 登</w>
公 交
停 滞</w>
倾 斜</w>
代 替</w>
之 情</w>
两 次</w>
不 已</w>
上 次</w>
1 6</w>
遗 憾</w>
要 紧</w>
董 事
营 业</w>
脸 色</w>
竞争 力</w>
相 处</w>
民 俊</w>
有 趣</w>
晴 朗</w>
新 郎</w>
手 指</w>
实 验</w>
嫌 疑
大 楼</w>
卫 星</w>
卓 越</w>
伤 口</w>
今 年
乎 乎</w>
一 刻</w>
风 险</w>
送 给</w>
赢 得</w>
荣 誉</w>
自 动</w>
经 营
消 耗</w>
流 氓</w>
民 众</w>
时 尚</w>
政 界</w>
摩 擦</w>
指 甲</w>
忍 不住</w>
微 不
她 们</w>
大 事</w>
外 界</w>
唱 歌</w>
何 时</w>
人 权</w>
不得 了</w>
一 碗</w>
首 脑</w>
馒 头</w>
门 前</w>
酒 店</w>
走 私</w>
赞 成</w>
认 定</w>
街 头</w>
紧 紧</w>
热 潮</w>
灯 光</w>
气 温</w>
提 醒</w>
居 住</w>
原 本</w>
厌 恶</w>
债 券</w>
企 业
人民 币</w>
人 为</w>
不 管
1 9</w>
韩 美</w>
长 官</w>
通 信</w>
迷 人</w>
轮 胎</w>
访 问</w>
职 工</w>
线 索</w>
白 菜</w>
没 关系</w>
气 质</w>
提 问</w>
意 外</w>
急 忙</w>
天 然
大 多</w>
在 一起</w>
发 放</w>
十 岁</w>
光 明</w>
优 势</w>
任何 人</w>
人 格</w>
题 材</w>
那 时</w>
这 点</w>
话 说</w>
蛋 糕</w>
薪 水</w>
留 神</w>
泡 沫</w>
沙 滩</w>
树 木</w>
本 月</w>
无 数</w>
文 学
摄 影</w>
接 待</w>
护 照</w>
我 方</w>
懂 得</w>
师 傅</w>
太 多</w>
喜 爱</w>
友 好</w>
前 提</w>
光 临</w>
伟 大</w>
众 人</w>
仓 库</w>
人 体</w>
五 个</w>
一 贯</w>
钢 琴</w>
那 条</w>
运 用</w>
舒 适</w>
网 球</w>
源 于</w>
油 漆</w>
沉 重</w>
气 势</w>
民主 主义</w>
摩托 车</w>
快 要</w>
平 原</w>
实 话</w>
国 主义</w>
发 射</w>
利 于</w>
其 它</w>
俄罗 斯</w>
之 下</w>
一 根</w>
一 方</w>
马拉 松</w>
防 守</w>
酒 吧</w>
这 本</w>
这 张</w>
轻 视</w>
起 初</w>
航 班</w>
能 干</w>
箱 子</w>
电视 台</w>
栽 培</w>
束 缚</w>
无 所
攀 登</w>
报 社</w>
工 业
展 望</w>
寺 庙</w>
学 术
在 外</w>
冬 季</w>
乒 乓
不 绝</w>
集 合</w>
金 牌</w>
能 否</w>
终 点</w>
素 质</w>
第 三
申 报</w>
涉 及</w>
有 力</w>
投 资
打 招呼</w>
悄 悄</w>
并 非</w>
差 异</w>
好 几
包 含</w>
勇 气</w>
农 产品</w>
再 说</w>
信 封</w>
今 晚</w>
事 先</w>
不 怕</w>
不 好
集 会</w>
障 碍</w>
这 人</w>
蜜 蜂</w>
英 雄</w>
看 出</w>
猴 子</w>
爆 发</w>
殖 民
旋 律</w>
接 连</w>
找 出</w>
战 斗
少 女</w>
夫 妻
四 个</w>
咖 啡
告 别</w>
即 便</w>
十 五</w>
使 人</w>
主 任</w>
上 任</w>
预 期</w>
那 家</w>
逃 跑</w>
说 法</w>
试 验</w>
规 矩</w>
艺 人</w>
老 是</w>
生 育</w>
歧 视</w>
检察 机关</w>
暴 雨</w>
新 闻
撒 谎</w>
惋 惜</w>
幽 默</w>
寒 冷</w>
多 岁</w>
基 金</w>
冷 淡</w>
公交 车</w>
修 建</w>
伊拉 克</w>
乒乓 球</w>
一 大</w>
7 0</w>
零 件</w>
著 作</w>
编 辑</w>
神 秘</w>
男 孩</w>
深 夜</w>
海 岸</w>
活 泼</w>
气 象
昆 虫</w>
日 常</w>
整 体</w>
挖 掘</w>
投 降</w>
怀 念</w>
开 车</w>
天 堂</w>
大 地</w>
动 力</w>
出 席</w>
全 力
两 名</w>
一 眼</w>
一 头</w>
香 港</w>
陆 地</w>
途 径</w>
豪 华</w>
评 估</w>
联 赛</w>
百 分
电 梯</w>
理 所
海 鲜</w>
毫 无
散 发出</w>
战 场</w>
我 用</w>
感 动</w>
娃 娃</w>
大 大
嘱 咐</w>
司 法
动 摇</w>
刻 苦</w>
二 人</w>
一 身</w>
一 流</w>
3 00</w>
1 8</w>
1 4</w>
邻 居
赠 送</w>
调 料</w>
讲 座</w>
蚂 蚁</w>
膨 胀</w>
美 好</w>
真 让人</w>
清 理</w>
池 塘</w>
操 场上</w>
挽 回</w>
抗 议</w>
强 迫</w>
尚 未</w>
完 美</w>
四 处</w>
同 胞</w>
出 台</w>
决 不</w>
光 滑</w>
做 到</w>
假 期</w>
为 期</w>
中 文</w>
下 次</w>
鼓 励</w>
默 默
谦 虚</w>
讲 话</w>
要 素</w>
花 钱</w>
竞 选</w>
的 确</w>
特 征</w>
消 防
树 上</w>
本 人</w>
更 为</w>
曲 子</w>
施 工</w>
操 场</w>
恰 当</w>
家 庭
大 选</w>
国 政</w>
只 不过</w>
几 句</w>
共 有</w>
入 口</w>
假 如</w>
信 息
何 况</w>
人 心</w>
闪 烁</w>
送 到</w>
贸 易
课 题</w>
论 坛</w>
落 实</w>
经 典</w>
治 理</w>
枕 头</w>
新 生</w>
新 年</w>
投 手</w>
很 久
国 会
国会 议员</w>
围 绕</w>
人 间</w>
为 难</w>
为 此</w>
走 廊</w>
组 合</w>
生 命
瓶 子</w>
清 澈</w>
日常 生活</w>
无 限</w>
放 入</w>
操 心</w>
意 料</w>
性 命</w>
很 强</w>
岛 屿</w>
小 家伙</w>
大 方</w>
增 添</w>
合 法</w>
发 布</w>
半 岛</w>
医 学</w>
内 外</w>
也 好</w>
与 其</w>
一 篇</w>
预 料</w>
那 家伙</w>
这 片</w>
车 厢</w>
误 解</w>
解决 问题</w>
留 在</w>
理所 当然</w>
熄 灭</w>
春 节</w>
无 法
承 诺</w>
执 着</w>
容 忍</w>
它 们</w>
回 事</w>
原 理</w>
前 往</w>
作 物</w>
体 验</w>
任 意</w>
产 量</w>
也 就是说</w>
不 怎么</w>
下 达</w>
2 4</w>
那 名</w>
达 国家</w>
赞 助</w>
览 会</w>
装 置</w>
祖 父</w>
球 场</w>
水 泥</w>
毫 不
放 到</w>
掩 饰</w>
损 坏</w>
折 腾</w>
手 续</w>
店 铺</w>
妥 当</w>
奋 斗</w>
均 匀</w>
咨 询</w>
发 达国家</w>
卫 生
别 说</w>
飘 扬</w>
节 奏</w>
篮 球</w>
清 洁</w>
朴 素</w>
描 绘</w>
授 予</w>
挽 救</w>
当 心</w>
小 小
嫌疑 人</w>
多 名</w>
商 业</w>
品 种</w>
发 烧</w>
压 制</w>
别 看</w>
冤 枉</w>
保 护
今 天
东 方</w>
不 让</w>
长 江</w>
釜 山</w>
谅 解</w>
视 力</w>
绅 士</w>
签 订</w>
礼 节</w>
眉 毛</w>
理 念</w>
球 迷</w>
狠 狠</w>
海 上</w>
注 意
沿 着</w>
正 经</w>
晚 饭</w>
文 艺</w>
摔 倒</w>
援 助</w>
排 斥</w>
帝 国主义</w>
威 力</w>
增 强</w>
基 地</w>
十 二
分 开</w>
出 示</w>
写 作</w>
关 键
全力 以
全力以 赴</w>
亲 切</w>
三 星
邮 件</w>
这 辆</w>
过 后</w>
积 极
画 面</w>
生 效</w>
现 实
活 力</w>
正 面</w>
极 了</w>
时 要</w>
早 已</w>
天 然</w>
大 夫</w>
埋 怨</w>
嗓 子</w>
医 疗</w>
区 域</w>
前 后</w>
制 成</w>
出 于</w>
充 分
习 俗</w>
不 容易</w>
不 堪</w>
一 群</w>
一 本</w>
近 代</w>
赌 博</w>
谋 求</w>
营 养</w>
细 菌</w>
确 切</w>
知 识
盛 行</w>
疏 远</w>
电 池</w>
泉 水</w>
极 为</w>
村 民</w>
有 所
显 著</w>
找 个</w>
打 架</w>
平 衡</w>
巴 巴</w>
已 有</w>
工 程
小 心
审 查</w>
学 术</w>
委 托</w>
太 空</w>
佛 教</w>
不 合理</w>
钢 铁</w>
连 接</w>
这 笔</w>
起 飞</w>
苗 条</w>
终 究</w>
疼 痛</w>
溜 溜</w>
活 着</w>
气 息</w>
本 届</w>
打 着</w>
忧 郁</w>
律 师</w>
夕 阳</w>
图 案</w>
品 牌</w>
动 机</w>
冲 突</w>
公 正</w>
修 复</w>
保 管</w>
作 战</w>
世 上</w>
不 良</w>
1 000</w>
黄 河</w>
身 体
赛 季</w>
虐 待</w>
肚 子
而 成</w>
纠 纷</w>
监 狱</w>
玩 具</w>
淹 没</w>
治 安</w>
欣 赏</w>
模 式</w>
架 子</w>
文 艺
排 列</w>
把 手</w>
很 漂亮</w>
引 擎</w>
废 话</w>
客 气</w>
奢 侈</w>
国 务
商 业
吸 收</w>
司 法</w>
古 典
协 力</w>
努 力
制 服</w>
凉 爽</w>
典 型</w>
兑 换</w>
保 持
休 闲</w>
人 工</w>
不 景气</w>
一 口气</w>
一 一</w>
高 度</w>
误 差</w>
要 性</w>
科学 家</w>
生 态</w>
潮 湿</w>
演 绎</w>
演 习</w>
水 分</w>
提 升</w>
担 忧</w>
开 会</w>
干 旱</w>
好 不容易</w>
培 育</w>
坦 白</w>
回 国</w>
千 万
动 不动</w>
入 学</w>
人 选</w>
两 家</w>
额 头</w>
轮 船</w>
调 查
行 驶</w>
胞 胎</w>
第 二</w>
窗 外</w>
着 想</w>
盼 望</w>
相 当
相 似</w>
百 年</w>
火 柴</w>
演 技</w>
汉 江</w>
毕业 生</w>
来 临</w>
无论 是</w>
方 针</w>
家 族</w>
室 内</w>
女 朋友</w>
女 士</w>
坚 定</w>
困 境</w>
听 众</w>
各 样</w>
吃 亏</w>
取 得
十 个</w>
加 工</w>
保 留</w>
俗 话说</w>
以 外</w>
临 近</w>
不 愿</w>
不 平</w>
一 夜</w>
一 圈</w>
长 城</w>
钻 石</w>
造 型</w>
连 衣
连衣 裙</w>
这 话</w>
语 法</w>
词 汇</w>
视 野</w>
股 价</w>
细 节</w>
监 督</w>
洗 手
泪 水</w>
景 象</w>
数 学
搬 家</w>
抱 歉</w>
戒 指</w>
意 图</w>
想 着</w>
应 用</w>
广 播
幼 儿
工 夫</w>
山 坡</w>
尊 严</w>
勤 奋</w>
助 理</w>
加 以</w>
创 业</w>
再 见</w>
信 号</w>
一 日</w>
一 批</w>
一 味</w>
麻 痹</w>
领导 人</w>
领 袖</w>
踏 实</w>
观众 们</w>
自 杀</w>
胡 同</w>
联 络</w>
网 络
绝 不</w>
爆 炸</w>
滞 留</w>
殴 打</w>
本 领</w>
有 时候</w>
有 害</w>
挑 剔</w>
心 血</w>
循 环</w>
延 长</w>
封 信</w>
密 码</w>
多 样</w>
双 胞胎</w>
凭 借</w>
主 权</w>
不 便</w>
上 市</w>
鼓 掌</w>
风 雨</w>
院 长</w>
过 日子</w>
过 敏</w>
转 向</w>
走 上</w>
诸 位</w>
订 购</w>
表 扬</w>
药 物</w>
股 市</w>
类 似</w>
祈 祷</w>
用 力</w>
现代 人</w>
环境 污染</w>
照 相机</w>
汽 车
殖民 地</w>
智 能
无 人</w>
新 型</w>
改 革
抵 抗</w>
抢 劫</w>
性 质</w>
心 理
单 调</w>
千 年</w>
包 装</w>
出 入</w>
作 弊</w>
今 日</w>
个 儿</w>
不 通</w>
不 论</w>
不 要紧</w>
上 游</w>
风 吹</w>
静 下来</w>
隧 道</w>
陶 瓷</w>
长 度</w>
镇 压</w>
耽 误</w>
瘫 痪</w>
痕 迹</w>
模 范</w>
查 明</w>
暴 露</w>
明 亮</w>
旗 帜</w>
散 文</w>
散 布</w>
教 学</w>
招 待</w>
抑 制</w>
当 成</w>
容 纳</w>
学 说</w>
委员 长</w>
好 事</w>
夸 张</w>
天然 气</w>
听 见</w>
厕 所</w>
半 个</w>
切 实</w>
分 成</w>
会 计</w>
他 会</w>
两 倍</w>
不 时</w>
1 7</w>
香 蕉</w>
顿 饭</w>
错 过</w>
轮 流</w>
请 问</w>
董事 长</w>
花 费</w>
聚 在一起</w>
纪 律</w>
洗手 间</w>
油 价</w>
悲 观</w>
延 伸</w>
废 除</w>
家 属</w>
多 余</w>
处 境</w>
壮 观</w>
地 向</w>
器 官</w>
品 尝</w>
吸 烟</w>
午 饭</w>
冲 击</w>
事实 上</w>
下 个月</w>
上 个月</w>
一 点
一 棵</w>
一 对</w>
20 00</w>
面 试</w>
通 用</w>
这 首</w>
转 移</w>
诞 生</w>
话 剧</w>
警 告</w>
获 胜</w>
苦 恼</w>
背 上</w>
神 圣</w>
确 信</w>
看 不
皇 帝</w>
济 州
更 换</w>
指 导</w>
打 电话</w>
心 脏</w>
心 协力</w>
得 出</w>
当 事
市 场
官 员</w>
完 毕</w>
完 善</w>
孤 独</w>
启 动</w>
可 谓</w>
发 起</w>
出 身</w>
准 时</w>
例 子</w>
价 格
付 出</w>
人 性</w>
之 类</w>
专 业
万 分</w>
一 阵
金 额</w>
逐 年</w>
运 输</w>
路 边</w>
赶 到</w>
资 本
萝 卜</w>
肌 肤</w>
联合 国</w>
牵 制</w>
最 为</w>
无 可
旋 转</w>
所 说</w>
尽 全力</w>
少 数</w>
学 历</w>
好 转</w>
太 阳
地 下
在 内</w>
图 书</w>
句 话</w>
化 妆
偏 僻</w>
倒 霉</w>
体 重</w>
会 场</w>
休 息
中 央
上 网</w>
默默 地</w>
高 丽</w>
高 中
车 祸</w>
足 球队</w>
足 够</w>
说 服</w>
设 法</w>
衰 退</w>
自 治</w>
脑 筋</w>
考 试
浓 厚</w>
注 射</w>
水 面</w>
振 兴</w>
房 价</w>
开 发
庆 典</w>
年 前</w>
天 气
外 语</w>
坐 下</w>
四 周</w>
古 典</w>
原 先</w>
单 品</w>
全 家</w>
之 内</w>
举 动</w>
业 界</w>
不好 意思</w>
一 脸</w>
9 0</w>
韩国 队</w>
韩国 语</w>
鞋 子</w>
适 用</w>
轮 廓</w>
赔 偿</w>
财 政
诈 骗</w>
翼 翼</w>
结 算</w>
税 金</w>
眼 里</w>
看 望</w>
爱 心</w>
液 体</w>
济州 岛</w>
极 大</w>
来 不及</w>
有 意思</w>
时 而</w>
排 名</w>
投资 者</w>
懒 惰</w>
志 敏</w>
建 造</w>
广 大</w>
年 糕</w>
差 别</w>
山 脉</w>
宴 会</w>
夫妻 俩</w>
太 太</w>
多 久</w>
士 学位</w>
土 壤</w>
哲 学</w>
前 景</w>
制 止</w>
利 害
出 了
债 务</w>
传 达</w>
优 美</w>
驾 驶
迷 信</w>
近 期</w>
谈 话</w>
脚 步</w>
老 家</w>
社 长</w>
碰 到</w>
用 作</w>
现 有</w>
涉 嫌</w>
来 得
有 利于</w>
有 利</w>
挑 衅</w>
指 挥
平 均
希 贞
宝 宝</w>
多 人</w>
墙 壁</w>
国家 队</w>
发 明</w>
双 手</w>
南 方</w>
人 力</w>
买 来</w>
不 该</w>
不 及格</w>
选 出</w>
转 变</w>
起 伏</w>
说 谎</w>
葡 萄
至 于</w>
网 民</w>
缴 纳</w>
目 的
病 情</w>
环 保</w>
流 行
检察 官</w>
有 事</w>
料 理</w>
教 科
放 下</w>
总 会</w>
彩 虹</w>
年 底</w>
屋 顶</w>
小心 翼翼</w>
大 陆</w>
向 往</w>
加 快</w>
出 众</w>
典 礼</w>
偏 偏</w>
倒 闭</w>
亲 戚</w>
五 年</w>
举 止</w>
上 当</w>
万 人</w>
一 千
齐 心协力</w>
齐 全</w>
走 出</w>
诉 讼</w>
相当 于</w>
理 性</w>
特 色</w>
法 庭</w>
普通 话</w>
无 偿</w>
指 挥</w>
恐 怖</w>
幼儿 园</w>
小 孩儿</w>
宿 舍</w>
地 道</w>
公 斤</w>
全 是</w>
停 车</w>
做 人</w>
予 以</w>
之 风</w>
不 容
上 衣</w>
万 名</w>
龙 头</w>
预 定</w>
铁 路</w>
词 语</w>
议 案</w>
行 了</w>
虽 说</w>
经 商</w>
移 民</w>
科 技</w>
看 不到</w>
特 性</w>
某 些</w>
掌 声</w>
心 疼</w>
弥 漫</w>
局 势</w>
就 行了</w>
小小 的</w>
富 有</w>
定 性</w>
大 雨</w>
夜 间</w>
名 牌
历 代</w>
北 京
动 物
加 油
初 期</w>
分 裂</w>
分 数</w>
元 素</w>
侄 子</w>
什 么
中 立</w>
一 家人</w>
T 恤</w>
阶 级</w>
醒 过来</w>
部 位</w>
超 越</w>
调 解</w>
诗 人</w>
警 察
行 事</w>
血 压</w>
紧 急
管 制</w>
祭 祀</w>
盒 子</w>
生 日
王 子</w>
特 意</w>
每 周</w>
搜 查</w>
探 讨</w>
持 有</w>
成 本</w>
感 染</w>
当 年</w>
屏 幕</w>
尾 巴</w>
实 实</w>
太 大</w>
国 防
喇 叭</w>
发 展
劳动 者</w>
出 乎
事 例</w>
上 班
难 关</w>
限 度</w>
野 心</w>
运 转</w>
赛 场</w>
解 除</w>
背 着</w>
红 柿</w>
粉 丝</w>
笑 容</w>
称 呼</w>
目的 地</w>
电 脑
渠 道</w>
渔 民</w>
深 深</w>
没 用</w>
水 灾</w>
民 国</w>
松 树</w>
有 钱</w>
拜 托</w>
开 幕</w>
市 长</w>
均 衡</w>
地 带</w>
商 务</w>
叫 做</w>
反 抗</w>
加油 站</w>
加 油</w>
利 亚</w>
冷 却</w>
其 妙</w>
儿 女</w>
代表 性</w>
事 迹</w>
书 店</w>
之 所以</w>
不 利</w>
马 路</w>
首 要</w>
餐 馆</w>
预 报</w>
雨 水</w>
银 行
钉 子</w>
轻 轻
路 线</w>
货 币</w>
西 红柿</w>
线 条</w>
确 立</w>
特 有</w>
港 口</w>
海 水</w>
校 园</w>
更 大</w>
新 人</w>
整 整</w>
教科 书</w>
效 益</w>
改 造</w>
强 化</w>
建 成</w>
展 现出</w>
屋 子里</w>
对 立</w>
外 貌</w>
周 密</w>
名 义</w>
同 一</w>
剧 场</w>
使 用
传 染</w>
什么 样</w>
之 心</w>
主 动</w>
严 密</w>
下 周</w>
三 星</w>
.. .</w>
难 题</w>
钱 财</w>
配 送</w>
进 展</w>
进 军</w>
赚 钱</w>
肥 皂</w>
而 来</w>
相 差</w>
盘 旋</w>
百分 之
用 水</w>
用 户</w>
王 朝</w>
热 心</w>
清 新</w>
浮 现</w>
流 利</w>
洗 衣
油 腻</w>
河 水</w>
本 质</w>
期 限</w>
朝 野</w>
明 智</w>
新 颖</w>
整 齐</w>
换 成</w>
愿 望</w>
幕 式</w>
工 地</w>
崭 新</w>
好 好
夫 人</w>
大 韩
复 习</w>
地 步</w>
各 种
发 动</w>
升 起</w>
创 新</w>
出乎 意料</w>
传 染
亿 美元</w>
不太 好</w>
三 十</w>
一 双</w>
风 气</w>
韩 日</w>
零 钱</w>
邻居 家</w>
避 开</w>
透 明</w>
这 套</w>
近 年来</w>
起 码</w>
赶 上</w>
贪 婪</w>
请 教</w>
表 示
荣 幸</w>
缩 小</w>
终 身</w>
童 话</w>
班 长</w>
犹 豫</w>
物 体</w>
牙 齿</w>
游 乐
来 不</w>
智 力</w>
日 本
新 建</w>
提 起</w>
排 放</w>
扎 实</w>
手 势</w>
或 是</w>
恋 人</w>
性 能</w>
当 初</w>
开 设</w>
奴 隶</w>
天 晚上</w>
夜 里</w>
商 人</w>
发 生
压 抑</w>
千万 别</w>
出 版
修 养</w>
从 来不</w>
事 事</w>
为 何</w>
严 格
丝 毫</w>
集 中
隐 藏</w>
除 非</w>
这 边</w>
越 过</w>
走 过</w>
语 气</w>
警 惕</w>
解 放
莫 名
莫名 其妙</w>
胃 口</w>
老 年人</w>
约 束</w>
种 类</w>
生 疏</w>
生 态
玫 瑰</w>
桥 梁</w>
果 汁</w>
有 条
无论 如何</w>
操 作</w>
挑 选</w>
慌 张</w>
形 状</w>
尽 情</w>
小 姐</w>
封 建
奥 运</w>
天 赋</w>
否 认</w>
发 火</w>
原 始</w>
化妆 品</w>
创 意</w>
健 身</w>
企业 家</w>
主 办</w>
高尔 夫</w>
饲 养</w>
韩 文</w>
阿 姨</w>
重 新
这 么
轻轻 地</w>
茂 盛</w>
英 语
航 空
癌 症</w>
生 素</w>
灾 害</w>
灾 区</w>
潮 流</w>
渴 望</w>
来 往</w>
暑 假</w>
旅 游
文 献</w>
收 获</w>
抵 达</w>
恐 惧</w>
录 音</w>
客 户</w>
学 习
夺 冠</w>
大韩 民国</w>
大 街</w>
场 合</w>
台 湾</w>
发 送</w>
区 分</w>
列 举</w>
分 明</w>
使 命</w>
争 先
中 学</w>
严 峻</w>
不 久
一 心</w>
风 景
靠 近</w>
闻 名</w>
锅 里</w>
逮 捕</w>
过 多</w>
身 高</w>
财 富</w>
装 修</w>
营 养
茫 茫</w>
美 妙</w>
绘 画</w>
简 历</w>
笔记 本
笔记本 电脑</w>
研究 所</w>
相 互
电 台</w>
率 领</w>
涂 抹</w>
汹 涌</w>
汉 城</w>
正 直</w>
树 林</w>
查 看</w>
来得 及</w>
智能 手机</w>
时 节</w>
政治 家</w>
捐 款</w>
悄 悄
恐 后</w>
得 分</w>
平 民</w>
家 中</w>
宝 石</w>
天 上</w>
外 部</w>
坚 持
向 前</w>
即 可</w>
停 留</w>
体 内</w>
从 未</w>
争先 恐后</w>
乐 器</w>
主 办
世 代</w>
不 如
上 述</w>
三 次</w>
一 笔</w>
一 支</w>
频 道</w>
顽 强</w>
青 春
雨 季</w>
迄 今
辅 导</w>
贪 污</w>
说 不
议 会</w>
解 开</w>
药 品</w>
穿 过</w>
男 女
民 间
民 族
歌 声</w>
染 上</w>
某 个</w>
本 事</w>
旅 客</w>
放 着</w>
手 脚</w>
情 感</w>
快 点</w>
忠 实</w>
学 家</w>
娱 乐</w>
娱 乐
圆 满</w>
团 结
嗓 音</w>
后 背</w>
凡 事</w>
决 不能</w>
保 守</w>
代表 团</w>
乡 下</w>
严 肃</w>
不久 前</w>
鲜 花</w>
隐 约</w>
随 之</w>
闲 话</w>
配 备</w>
邮 票</w>
迄今 为止</w>
起 诉</w>
言 行</w>
要 命</w>
行 人</w>
自 我
老 公</w>
科 长</w>
种 种</w>
残 疾
曲 折</w>
无 视</w>
无 关</w>
报 告
投 票
手 上</w>
开 水</w>
局 长</w>
导 游</w>
夹 克</w>
失 业
外 汇</w>
土 豆</w>
医 疗
匆 忙</w>
分 布</w>
具 体
其 次</w>
充 满
似 地</w>
人 人</w>
人 事
主 角</w>
不 小</w>
黑 板</w>
项 链</w>
非 洲</w>
重 量</w>
那 本书</w>
追 加</w>
运动 会</w>
辽 阔</w>
车 子</w>
路 口</w>
贫 穷</w>
谢 您</w>
萧 条</w>
茫 然</w>
精 打
直 播</w>
生 锈</w>
燃 料</w>
照 耀</w>
灿 烂</w>
灵 感</w>
瀑 布</w>
滋 润</w>
消 化</w>
流 下</w>
沙 子</w>
检 察</w>
柜 台</w>
条 款</w>
无 力</w>
损 害</w>
打 扰</w>
戴 上</w>
截 止</w>
我 来</w>
惊 讶</w>
总 算</w>
很 长</w>
往 来</w>
山 路</w>
宠 物</w>
安 保</w>
存 款</w>
大 桥</w>
大 批</w>
四 肢</w>
半 场</w>
剪 刀</w>
切 成</w>
优 秀
不 易</w>
下 跌</w>
一 手</w>
2 7</w>
高 层</w>
飞 行</w>
野 蛮</w>
遵 循</w>
通 货
追 悼</w>
辣 辣</w>
路 面</w>
询 问</w>
融 洽</w>
获 取</w>
花 纹</w>
艺术 家</w>
自 动
而 不
综 合
等 等</w>
第一 名</w>
示 意</w>
男 朋友</w>
琢 磨</w>
渗 透</w>
没 事</w>
服 用</w>
摔 跤</w>
提 拔</w>
才 行</w>
心 头</w>
广 阔</w>
干 净
展 览会</w>
屈 服</w>
寻 求</w>
宁 可</w>
学 金</w>
大 自然</w>
塑 造</w>
垃圾 桶</w>
厘 米</w>
勺 子</w>
击 球</w>
农 夫</w>
偷 偷</w>
优 惠</w>
价 钱</w>
举 起</w>
中 秋
上 调</w>
一 来</w>
超 出</w>
西 服</w>
装 作</w>
致 使</w>
等 级</w>
窗 口</w>
电 话
独 裁
爱 好
煤 炭</w>
烹 饪</w>
满 满
消 防</w>
正 月
概 括</w>
根 本
本 国</w>
晚 会</w>
日 后</w>
无 耻</w>
敏 捷</w>
抢 救</w>
找 回</w>
戴 着</w>
急 剧</w>
审 理</w>
块 儿</w>
国 民
各种 各样</w>
号 码</w>
发 音</w>
单 词</w>
劳 资
前 方</w>
信 用</w>
体 会</w>
伴 随</w>
仔 细
中 毒</w>
不 吃</w>
一个 劲儿</w>
高 速</w>
问 候</w>
这 时</w>
足 道</w>
观 光</w>
行 使</w>
蜡 烛</w>
英 勇</w>
船 只</w>
精 心</w>
看 不起</w>
目 睹</w>
监 视</w>
源 泉</w>
流 露出</w>
流 逝</w>
流 浪</w>
法 律
民 生</w>
残 酷</w>
最 新</w>
提 示</w>
提 到</w>
戏 剧</w>
感 兴趣</w>
微不 足道</w>
得 上</w>
彩 票</w>
开 幕式</w>
店 里</w>
底 下</w>
容 貌</w>
好 几个</w>
处 处</w>
和 平
呈 现出</w>
变 动</w>
发 言
化 学</w>
勤 劳</w>
做 饭</w>
借 钱</w>
例 如</w>
主 管</w>
主 妇</w>
两 只</w>
不 变</w>
万 美元</w>
一 同</w>
2 3</w>
2 2</w>
黎 明</w>
韩 语</w>
韩 服</w>
降 落</w>
逃 避</w>
近 日</w>
身 份
贿 赂</w>
说 实话</w>
讲 述</w>
装 满</w>
表 决</w>
花 生</w>
花 儿</w>
维 生素</w>
络 绎
络绎 不绝</w>
竖 起</w>
示 范</w>
熟 练</w>
深 受</w>
汗 水</w>
毕 竟</w>
武 力</w>
极 度</w>
机 械</w>
时 隔</w>
无 故</w>
数 额</w>
改 编</w>
手 中</w>
房 东</w>
慰 问</w>
惩 罚</w>
总 结</w>
性 子</w>
怎 能</w>
当 前</w>
干 涉</w>
帅 气</w>
学 科</w>
学 生
奖 学金</w>
太 小</w>
大 笑</w>
大 战</w>
复 印</w>
地 响</w>
回 头</w>
周 知</w>
呈 现</w>
副 作用</w>
制 品</w>
利害 关系</w>
传 出</w>
会 上</w>
以 此</w>
互 相
事 宜</w>
主 席</w>
不 禁</w>
不 分
2 8</w>
香 气</w>
重 建</w>
遇 见</w>
退 出</w>
迫 切</w>
轿 车</w>
踢 足球</w>
趣 味</w>
诊 断</w>
舒 畅</w>
自 发</w>
糊 涂</w>
童 年</w>
硬 币</w>
睡 眠</w>
看 待</w>
百货 店</w>
用 心</w>
漂 浮</w>
泄 气</w>
河 边</w>
沉 浸</w>
死 去</w>
柿 子</w>
早 点</w>
早 早</w>
无 疑</w>
数 据</w>
改革 开放</w>
所 周知</w>
感 想</w>
意 大
怀 着</w>
影 像</w>
当事 人</w>
峡 谷</w>
山 谷</w>
好 多</w>
大 衣</w>
嘲 笑</w>
名 称</w>
只 顾</w>
原 料</w>
印 度</w>
卖 场</w>
十 字
其 他人</w>
便 利</w>
使 劲</w>
伸 出</w>
众 所周知</w>
仪 器</w>
中秋 节</w>
严 寒</w>
不 在
七 八
首 饰</w>
食 用</w>
长 相</w>
键 盘</w>
钻 研</w>
金 某</w>
购 物
营 销</w>
自 满</w>
罩 着</w>
经济 危机</w>
笼 罩着</w>
秘 诀</w>
礼 堂</w>
矿 泉水</w>
相 遇</w>
疗 法</w>
生 人</w>
猛 地</w>
爱 护</w>
测 量</w>
毫 不</w>
样 儿</w>
普通 人</w>
旅 行
技 巧</w>
惭 愧</w>
忧 虑</w>
忠 诚</w>
开 来</w>
广 告
幼 稚</w>
屡 次</w>
实 质</w>
宁 愿</w>
学 考试</w>
大学 毕业</w>
大 大</w>
大 厅</w>
夜 空</w>
埋 没</w>
图 为</w>
唯 独</w>
响 起</w>
吃 饱</w>
受 害
参 赛</w>
卫生 间</w>
创 下</w>
凶 恶</w>
冷 落</w>
全 家人</w>
偶 然</w>
交 际</w>
五 十
争 吵</w>
严 重
万 亿韩元</w>
一 方面</w>
一 不
3 000</w>
骗 子</w>
陷 阱</w>
醒 来</w>
踏 上</w>
趴 在</w>
认 真
角 落</w>
要 说</w>
行 走</w>
落 叶</w>
营 业
脚 下</w>
考 生</w>
美 女</w>
结 果
神 经
研究 生</w>
真 心</w>
看 不见</w>
用 钱</w>
理 智</w>
混 合</w>
深 沉</w>
毒 品</w>
残疾 人</w>
机 密</w>
更 是</w>
暂 且</w>
早 日</w>
提 案</w>
抬 起</w>
扇 子</w>
我 队</w>
悬 挂</w>
怀 里</w>
开 口</w>
工程 师</w>
工作 人员</w>
尊 敬</w>
定 为</w>
大 致</w>
堵 车</w>
地 笑</w>
商 品
周 边
削 弱</w>
刹 车</w>
利 率</w>
创 造
出 名</w>
兵 力</w>
兔 子</w>
儿 童
价 值
以 致</w>
仍 旧</w>
介 入</w>
仁 川</w>
人 生
人 情</w>
交 道</w>
事 务
争 取</w>
乐 趣</w>
之 处</w>
不 由
一大 早</w>
一 台</w>
一 丝</w>
2 6</w>
高 温</w>
顿 时</w>
陶 醉</w>
镜 头</w>
销售 额</w>
那 场</w>
辣 椒
责 任
谎 言</w>
记 忆
袋 子</w>
血 液</w>
背 叛</w>
精打 采</w>
第二 天</w>
私 人</w>
神 气</w>
电 站</w>
由 此</w>
珍 惜</w>
清 淡</w>
水 龙头</w>
水 库</w>
水 中</w>
气 象</w>
气 得</w>
此 前</w>
检 方</w>
本 能</w>
更 何况</w>
智 能</w>
敏 锐</w>
提 倡</w>
报告 书</w>
执 政</w>
我 校</w>
性 别</w>
威 风</w>
姓 名</w>
大 象</w>
处 以</w>
地 狱</w>
地 毯</w>
响 应</w>
口 号</w>
发 愁</w>
出版 社</w>
减 轻</w>
一 团</w>
魔 术</w>
驱 逐</w>
预 先</w>
顺 着</w>
雨 伞</w>
配 偶</w>
逃 走</w>
迫 切
转 达</w>
躲 避</w>
说 些</w>
花 朵</w>
移 植</w>
社 区</w>
破 裂</w>
百 万</w>
瓦 解</w>
点 缀</w>
沐 浴</w>
水 里</w>
比 如</w>
有 限</w>
最 多</w>
普 遍
无 精打采</w>
教 会</w>
摇 摆</w>
心 地</w>
得 知</w>
年 末</w>
宽 松</w>
学 界</w>
婆 婆</w>
姿 势</w>
委 屈</w>
女 生</w>
契 机</w>
大 众
基本 上</w>
坏 事</w>
地 理</w>
固 执</w>
器 材</w>
呼 声</w>
周 期</w>
可 不是</w>
叫 声</w>
口 味</w>
双 眼</w>
努力 学习</w>
助 手</w>
出 人
内 幕</w>
之 地</w>
不 当</w>
不 准</w>
一 幅</w>
麻 醉</w>
香 味</w>
面 孔</w>
雄 伟</w>
镇 静</w>
那 次</w>
遗 传</w>
逛 街</w>
选 民</w>
违 法</w>
这 批</w>
解 雇</w>
见 解</w>
覆 盖</w>
节 省</w>
自 尊
结 构
经 费</w>
纠 正</w>
百货 商店</w>
留 有</w>
渔 船</w>
江 水</w>
民主 化</w>
棕 色</w>
检察 院</w>
标 志</w>
杀 人</w>
昔 日</w>
搜 索</w>
提 琴</w>
掠 夺</w>
报 导</w>
打 碎</w>
打 出</w>
我 能</w>
成 年人</w>
想 想</w>
惊 人</w>
悲 痛</w>
得 来</w>
很 久</w>
往 年</w>
开 通</w>
市 政府</w>
巨 额</w>
尝 试</w>
小 溪</w>
对 比</w>
完 工</w>
太 极
天 地</w>
大 师</w>
外 套</w>
外 地</w>
场 地</w>
团 队</w>
呕 吐</w>
告 知</w>
原 野</w>
历 来</w>
动物 园</w>
制 裁</w>
出 动</w>
兼 职</w>
入 睡</w>
入 场</w>
代表 队</w>
人 会</w>
京 剧</w>
两 队</w>
两 边</w>
下 定
三星 电子</w>
一 脚</w>
4 00</w>
1 0
默 默</w>
高 高
首 歌</w>
饭 桌</w>
领 取</w>
音乐 会</w>
锻 炼
锻炼 身体</w>
部 下</w>
途 中</w>
返 回</w>
运 气</w>
过 错</w>
诚 恳</w>
证 人</w>
计 较</w>
衰 老</w>
获 得
荒 唐</w>
苦 苦</w>
背 包</w>
考 察</w>
结 婚
管 子</w>
电影 院</w>
生 计</w>
生 物
生 机</w>
爱好 者</w>
焦 点</w>
演 讲
水 稻</w>
水 田</w>
步 伐</w>
朗 读</w>
曲 线</w>
时 髦</w>
指 数</w>
所 在</w>
慢 性</w>
意 儿</w>
想 念</w>
患 上</w>
志 愿
心 意</w>
很 小</w>
归 来</w>
引 入</w>
开 门</w>
开 着</w>
巨 大
尽 可能</w>
就 此</w>
寿 命</w>
对 抗</w>
富 裕</w>
夺 得</w>
太 久</w>
大 腿</w>
大 脑</w>
基 因</w>
国 防</w>
团 伙</w>
唱 片</w>
呻 吟</w>
受 贿</w>
原 始
危 害</w>
千 里</w>
区 别</w>
勃 勃</w>
分 离</w>
公 民</w>
倒 塌</w>
促 使</w>
之 上</w>
不 良
不 胜
不 明</w>
一 首</w>
一 页</w>
一 律</w>
一 动</w>
5 000</w>
鼓 舞</w>
食 欲</w>
风 筝</w>
顽 固</w>
门 外</w>
长 久</w>
遗 传
通货 膨胀</w>
这 所</w>
辆 车</w>
资本 主义</w>
课 堂</w>
该 国</w>
装 有</w>
落 榜</w>
草 原</w>
自尊 心</w>
脑 子</w>
胡 说</w>
股 票
羞 耻</w>
绝 望</w>
笑 声</w>
穿 戴</w>
知识 分子</w>
疑 问</w>
炸 弹</w>
潇 洒</w>
消 毒</w>
汇 款</w>
气象 厅</w>
正 当
棵 树</w>
树 叶</w>
某 人</w>
期 付款</w>
无 尽</w>
数 十
故 事
支 柱</w>
播 出</w>
捐 赠</w>
打 针</w>
戒 烟</w>
思 索</w>
心 事</w>
幸 运</w>
幅 度</w>
常 见</w>
带 领</w>
姐 妹</w>
多 大</w>
国 语</w>
因 而</w>
回 避</w>
回 报</w>
喧 哗</w>
合 成</w>
叙 述</w>
动 员</w>
加 速</w>
刷 牙</w>
分 期付款</w>
几 点</w>
兵 役</w>
光 芒</w>
偿 还</w>
佩 服</w>
传 统
主 持
丢 失</w>
不知 所
不 相
不 理</w>
下定 决心</w>
上 映</w>
一 路</w>
一 行</w>
饮 酒</w>
题 目</w>
革 新</w>
长 期
里 人</w>
酒 后</w>
郊 游</w>
逝 世</w>
迷 路</w>
进 球</w>
进 出</w>
输 入</w>
较 大</w>
谢 绝</w>
说 是</w>
设 有</w>
论 会</w>
葬 礼</w>
草 地</w>
航 空</w>
胸 怀</w>
罢 了</w>
空 闲</w>
祝 福</w>
睡 不着</w>
看 作</w>
盈 利</w>
登 山
登 场</w>
片 刻</w>
漫 着</w>
法 行为</w>
汉 字</w>
永 恒</w>
民浩 在</w>
民 俗</w>
次 数</w>
样 式</w>
某 种</w>
有 益</w>
最 早</w>
新 罗</w>
搞 砸</w>
拟 定</w>
打 交道</w>
懂 事</w>
惯 例</w>
悄悄 地</w>
总 裁</w>
很久 以前</w>
强 盗</w>
工作 岗位</w>
对 外</w>
实 惠</w>
嫁 给</w>
女 孩子</w>
奔 跑</w>
大 都</w>
处 分</w>
围 棋</w>
唠 叨</w>
向 导</w>
名 副
名副 其实</w>
同 盟</w>
古典 音乐</w>
取 出</w>
厨 师</w>
压 缩</w>
加 大</w>
初 中</w>
分 之一</w>
兴 旺</w>
公 职</w>
傲 慢</w>
保险 公司</w>
优 雅</w>
代 理</w>
亚 军</w>
书 桌</w>
义 者</w>
与 否</w>
一 般
黄 瓜</w>
高 低</w>
饶 恕</w>
领 会</w>
预 备</w>
面 条</w>
难 民</w>
道 德
迹 象</w>
身 心</w>
资 金
贪 污
话 语</w>
航空 公司</w>
称 作</w>
秘 书
玩 意儿</w>
玉 米</w>
毅 力</w>
样 的话</w>
有 过</w>
月 光</w>
昨 日</w>
无 穷
无 礼</w>
无 条件</w>
无 情</w>
政 客</w>
收 购</w>
收 成</w>
描 述</w>
扰 乱</w>
战斗 力</w>
想 不到</w>
忙 于</w>
得 意</w>
徒 刑</w>
当 场</w>
弥 漫着</w>
庄 严</w>
布 置</w>
布 料</w>
宗 教
完 整</w>
奉 献</w>
奇 妙</w>
基 督
含 义</w>
吝 啬</w>
发 表
发 动机</w>
加 重</w>
制 造
刑 警</w>
关 门</w>
先 前</w>
兄 弟
值 班</w>
侵 略
体 面</w>
伤 脑筋</w>
人 能</w>
人 来</w>
亲 热</w>
主 义者</w>
世 人</w>
麻 木</w>
雇 佣</w>
难 堪</w>
重 要性</w>
重 心</w>
邻 国</w>
适 宜</w>
运动 场</w>
跳 跃</w>
账 户</w>
语 言
试 卷</w>
设 计
订 单</w>
解 放</w>
西 班
胡 乱</w>
老 朋友</w>
缓 慢</w>
绝 不能</w>
结 账</w>
纤 维</w>
策 划</w>
真 诚</w>
特 长</w>
点 头</w>
灰 色</w>
火 辣辣</w>
氧 气</w>
气 色</w>
歌 唱</w>
核 心
教 堂</w>
收 支</w>
招 收</w>
扭 转</w>
成 语</w>
年 内</w>
尴 尬</w>
娘 家</w>
太 热</w>
太 平
大 力</w>
外 边</w>
士 气</w>
基 础
圆 满
咕 嘟</w>
咔 嚓</w>
和 谐</w>
吵 醒</w>
向 着</w>
友 情</w>
利 落</w>
写 字</w>
入 学考试</w>
充 足</w>
传染 病</w>
人 口
主 力</w>
不 尽</w>
鱿 鱼</w>
高 峰</w>
马 虎</w>
食 堂</w>
预 言</w>
面 上</w>
集 体
陈 述</w>
金融 危机</w>
通 缉</w>
这 根</w>
身 穿</w>
责 怪</w>
谈 论</w>
说 不出</w>
证 会</w>
被 迫</w>
行 列</w>
血 管</w>
蚊 子</w>
蔚 蓝</w>
落 下</w>
萎 缩</w>
英 文</w>
航 行</w>
自 豪</w>
纯 粹</w>
竞 赛</w>
社会 主义</w>
礼 仪</w>
知 觉</w>
知 名</w>
皱 纹</w>
田 径</w>
生日 礼物</w>
瓷 器</w>
热 量</w>
游 泳
深 深
深 处</w>
流 感</w>
欣 慰</w>
标 准
未 经</w>
服 从</w>
有 权</w>
有 意</w>
暗 示</w>
显 出</w>
放 假</w>
摄 取</w>
揭 发</w>
提 前
探 测</w>
拥 挤</w>
拘 捕</w>
扮 演</w>
恭 喜</w>
思 想
山 里</w>
宣 言</w>
宠 物
威 信</w>
头 疼</w>
失 眠</w>
太 高</w>
大 使</w>
塑 料</w>
地 站</w>
圈 套</w>
司 令
去 一趟</w>
厂 长</w>
化 学
动 向</w>
加 深</w>
功 课</w>
分 歧</w>
几 种</w>
写 出</w>
写 下</w>
公 认</w>
光 线</w>
倾 注</w>
以 为
仁 慈</w>
乡 村</w>
乐 队</w>
专 心</w>
不管 怎么</w>
不 许</w>
下 游</w>
上 半年</w>
万 一</w>
一点 点</w>
一 举
饱 受</w>
饭 后</w>
面 粉</w>
队 长</w>
问 世</w>
那 件</w>
通 行</w>
选 为</w>
辉 煌</w>
起 源</w>
走 了</w>
说 起</w>
诬 陷</w>
诗 歌</w>
若 干</w>
芝 麻</w>
联 想</w>
职 业
老 王</w>
罪 行</w>
缩 短</w>
素 材</w>
糖 尿
等 候</w>
疙 瘩</w>
球 手</w>
热 水</w>
灾 民</w>
潜 力</w>
洗 涤</w>
没 见</w>
每 逢</w>
每 人</w>
正 如</w>
案 子</w>
果 树</w>
极 端</w>
木 板</w>
木 材</w>
月 底</w>
月 初</w>
显 然</w>
旅 馆</w>
施 展</w>
方 便
救 援</w>
收 回</w>
推 行</w>
挣 钱</w>
拘 留</w>
抚 养</w>
手 工</w>
情 侣</w>
志 愿</w>
得 不到</w>
影 响
影响 力</w>
引 人
季 度</w>
嫂 子</w>
婚 姻
如 实</w>
堆 积</w>
图 片</w>
国 旗</w>
嘉 宾</w>
哭 泣</w>
听 证会</w>
名牌 大学</w>
发 光</w>
发 了</w>
友 好
及 其</w>
博 士学位</w>
包 子</w>
势 头</w>
动 用</w>
分 享</w>
凶 手</w>
农 作物</w>
写 文章</w>
关 怀</w>
住 院</w>
优 越</w>
优 异</w>
从 中</w>
产 品
产 业
习 惯
九 月</w>
丰 收</w>
不能 不</w>
上班 族</w>
万 物</w>
200 2</w>
首 席</w>
选 定</w>
进 口
这 栋</w>
辩 解</w>
转 换</w>
身份 证</w>
走 私
资 助</w>
证 券
记 载</w>
虚 伪</w>
结 局</w>
糖尿 病</w>
答 复</w>
租 赁</w>
石 油
痛 快</w>
留 恋</w>
理 睬</w>
爱 惜</w>
点 燃</w>
演 说</w>
演 绎
湖 水</w>
河 里</w>
河 流</w>
水 洗</w>
残 忍</w>
款 式</w>
来 得</w>
杀 人
有 用</w>
昂 贵</w>
早 晚</w>
无 微不
无微不 至</w>
新 来</w>
敏 智
揭 露</w>
扩 张</w>
意大 利</w>
悲 剧</w>
恐怖 袭击</w>
当 做</w>
干 杯</w>
展 出</w>
尺 码</w>
小 麦</w>
小 型</w>
导 弹</w>
家 门</w>
安 定</w>
大 树</w>
多 多</w>
备 受</w>
场 景</w>
回 收</w>
呼 吸
劳动 力</w>
刮 风</w>
击 球手</w>
冷 酷</w>
八 月</w>
做 起</w>
信 件</w>
住 宅
企 划</w>
交 替</w>
二 十</w>
了 个</w>
之 急</w>
举 报</w>
中 途</w>
中 秋</w>
东 亚</w>
不知所 措</w>
不 像</w>
一 回</w>
19 8
鸟 儿</w>
魄 力</w>
高尔 夫
高 贵</w>
香 烟</w>
饥 饿</w>
风 波</w>
隆 重</w>
闷 热</w>
钓 鱼</w>
采 取
酱 汤</w>
这 棵</w>
这 幢</w>
还 给</w>
边 儿</w>
轨 道</w>
车 上</w>
赤 字</w>
贫 困
请 假</w>
记 住</w>
议 论</w>
计 划
言 语</w>
被 判</w>
获 奖</w>
苦 难</w>
花 瓶</w>
脑 海</w>
能 为
能为 力</w>
群 体</w>
维 修</w>
移 交</w>
看 过</w>
界 人士</w>
电 线</w>
现代 化</w>
玩 耍</w>
灰 心</w>
游 行</w>
温 柔</w>
深深 地</w>
海 军</w>
波 涛</w>
波 浪</w>
法 人</w>
没 收</w>
民 心</w>
比 喻</w>
正月 十五</w>
模 型</w>
柱 子</w>
权 益</w>
朝 鲜
最 初</w>
无 能为力</w>
无 人
收 缩</w>
支 持
推 销</w>
意 愿</w>
悬 殊</w>
志愿 者</w>
开 业</w>
建 设
干 练</w>
已 久</w>
工 作者</w>
小 鬼</w>
小 学生</w>
宇 宙
学 业</w>
媒 介</w>
好 友</w>
天 花
大 风</w>
大 胆</w>
国 内外</w>
哎 呀</w>
名 次</w>
名 为</w>
合 并</w>
台 阶</w>
可 不</w>
受 损</w>
发 给</w>
反 驳</w>
参 考
剧 本</w>
制 约</w>
分 类</w>
公 社</w>
公 平
元 首</w>
体 操</w>
住 房</w>
了 一
主持 人</w>
不得 已</w>
不 高</w>
不 惜</w>
不 必要</w>
不 动
不 仅仅</w>
上 山</w>
一大 堆</w>
一 见</w>
1 8
飞 船</w>
靠 着</w>
雇 用</w>
难 免
难免 会</w>
随 即</w>
那 艘</w>
逐 步</w>
连 续
赋 予</w>
诸 多</w>
言 之</w>
西 部</w>
被 选为</w>
袖 子</w>
行 政
脸 皮</w>
肥 胖</w>
老 实
经 验
糟 糕</w>
等 到</w>
硕 士</w>
看 电视</w>
看 成</w>
畏 惧</w>
男 生</w>
申 请
田 地</w>
生 理</w>
点 钟</w>
演绎 出</w>
流 动</w>
求 是</w>
气 球</w>
气 概</w>
机 器
未 免</w>
晋 升</w>
时 事</w>
日 俱
日俱 增</w>
无 线
整 齐
收 取</w>
挡 住</w>
拥 抱</w>
招 标</w>
拍 照</w>
投 掷</w>
慎 重
情 愿</w>
恶 意</w>
很 深</w>
很 受</w>
平 坦</w>
差 点儿</w>
差 点</w>
对 付</w>
实 事
实事 求是</w>
好 久
女 友</w>
太 累</w>
多 种
多 样
处 在</w>
埋 葬</w>
在 场</w>
四 年</w>
喜 剧</w>
响 亮</w>
听 取</w>
名 额</w>
各 个
取得 胜利</w>
南 京</w>
勋 章</w>
几 十年</w>
凝 聚</w>
内 衣</w>
内 在</w>
共 和
信 徒</w>
依 照</w>
佩 戴</w>
五 十</w>
乌 黑</w>
专 用</w>
与 日俱增</w>
不 远</w>
一 笑</w>
一 年级</w>
一 块儿</w>
200 8</w>
领 带</w>
面 包
难 忘</w>
间 谍</w>
销 量</w>
辩 论</w>
起 身</w>
规 制</w>
被 告</w>
草 坪</w>
致 命</w>
职 责</w>
秋 季</w>
神 情</w>
瞄 准</w>
男 子
田 里</w>
理 会</w>
溪 水</w>
注 册</w>
气 魄</w>
歹 徒</w>
晚 餐</w>
无 穷</w>
无 动
无动 于
无动于 衷</w>
收 费</w>
拼 搏</w>
抬 头</w>
强 行</w>
强 国</w>
开 朗</w>
希 腊</w>
崩 溃</w>
小 吃</w>
小 人</w>
宣 誓</w>
宣 传
学 长</w>
好 久</w>
大 气
大 哭</w>
大 哥</w>
壮 丽</w>
填 写</w>
圣 诞
国 籍</w>
国 立</w>
国 土</w>
困 扰</w>
喊 声</w>
售 货
品 德</w>
呼 吁</w>
同 一个</w>
合 约</w>
各 项</w>
吃 点</w>
取 决
取决 于</w>
发 型</w>
加 剧</w>
前 辈</w>
出 口
冲 动</w>
写 得</w>
内 阁</w>
兴 起</w>
健 康
停 车
假 日</w>
修 订</w>
低 价</w>
今年 夏天</w>
享 有</w>
交 易
事 故
东 北
世界 各地</w>
上 演</w>
上 台</w>
一 词</w>
一 艘</w>
一 瞬间</w>
一 堆</w>
200 5</w>
20 10</w>
高 手</w>
饮 食
预 想</w>
难 度</w>
隐 蔽</w>
谦 逊</w>
调 动</w>
证 券</w>
蜂 蜜</w>
艰 巨</w>
老 小</w>
羽 绒
结 尾</w>
索 性</w>
糊 糊</w>
端 正</w>
短 暂</w>
瞩 目</w>
着 头</w>
直 升
监 查</w>
用 功</w>
班 里</w>
狡 猾</w>
熊 猫</w>
热 气</w>
激 情</w>
演 奏
滑 雪</w>
深 入</w>
法 规</w>
梦 中</w>
构 造</w>
来 访</w>
有 句</w>
暴 风雨</w>
无法 忍受</w>
新 生
揭 开</w>
推 理</w>
掉 下来</w>
拿 来</w>
扔 掉</w>
手 腕</w>
战 略
患 有</w>
快 到</w>
待 人</w>
强 烈
巴 西</w>
左 派</w>
尽 头</w>
富 翁</w>
宣 扬</w>
妥 善
好 人</w>
大 雪</w>
大 火</w>
外 人</w>
垒 打</w>
国 税</w>
四 十岁</w>
喝 醉</w>
喝 一杯</w>
后 天</w>
古 董</w>
受害 者</w>
助 威</w>
前 任</w>
前 一天</w>
列 入</w>
划 分</w>
几 位</w>
凝 固</w>
农 药</w>
六 月</w>
全 局</w>
党 内</w>
儿 时</w>
像 样</w>
储 蓄</w>
停 电</w>
保 安</w>
保 守
伸 手</w>
人 际
人 要</w>
两 条</w>
丑 闻</w>
不可 避免</w>
不 同
上 空</w>
一 再</w>
一 倍</w>
3 1</w>
骂 人</w>
音 响</w>
静 静
难 怪</w>
隐 私</w>
随 处
随处 可见</w>
长 长
镇 定</w>
酒 精</w>
遗 失</w>
道 题</w>
远 方</w>
这 支</w>
边 缘</w>
贵 族</w>
谈 恋爱</w>
说 道</w>
警 戒</w>
西班 牙</w>
蔑 视</w>
落 地</w>
营 造</w>
羽绒 服</w>
美 德</w>
缩 减</w>
纷 争</w>
精 通</w>
简 洁</w>
立 法</w>
窗 帘</w>
空 军</w>
电视 机</w>
电 力</w>
理 事</w>
献 给</w>
火 势</w>
浏 览</w>
测 试</w>
此 后</w>
橡 皮
杂 草</w>
方 人</w>
新 鲜
放 过</w>
放 点</w>
摄 影
授 课</w>
招 生</w>
拉 开</w>
打 造</w>
房 里</w>
悲 惨</w>
必 需</w>
影 子</w>
庸 俗</w>
并 不
年 薪</w>
年 初</w>
巴 士</w>
巩 固</w>
密 度</w>
容 器</w>
客 观
实 用</w>
学术 界</w>
妄 想</w>
头 来</w>
坏 人</w>
固 然</w>
回 复</w>
商 量</w>
商 家</w>
哪 些</w>
可 真</w>
古 代
反 倒</w>
厚 的</w>
厚 厚的</w>
南 瓜</w>
十 五
包 围</w>
力 度</w>
刑 事
出了 名</w>
出 生
几 下</w>
关 税</w>
公 约</w>
会 议
人 手</w>
事务 所</w>
世界 纪录</w>
不 佳</w>
一 系列</w>
一 年
一 家
一 会</w>
2 9</w>
黄 金
饭 碗</w>
闪 烁
锦 标
锦标 赛</w>
遮 挡</w>
连 日</w>
连 年</w>
越 高</w>
论 自由</w>
讨 论会</w>
言 论自由</w>
解 散</w>
角 落
要 么</w>
衣 着</w>
虫 子</w>
节 约
艰 辛</w>
船 舶</w>
船 上</w>
自 觉</w>
肚子 疼</w>
耐 烦</w>
老 张</w>
羊 肉</w>
纽 约</w>
红 灯</w>
第 三</w>
端 庄</w>
着 瞧</w>
眼 看</w>
看 热闹</w>
留 给</w>
生活 费</w>
甜 蜜</w>
狭 隘</w>
独 立
爱 情
熟 透</w>
消 灭</w>
海 里</w>
毛 衣</w>
比 重</w>
比 率</w>
次 性</w>
果 断</w>
来 源</w>
来 回</w>
杂 技
有条 不
有条不 紊</w>
最 低</w>
暴 涨</w>
日 报</w>
新 任</w>
敞 开</w>
效 应</w>
收 录</w>
摇 晃</w>
摇 摇
推 动</w>
感 性</w>
悬 崖</w>
急 需</w>
往 后</w>
庭 院</w>
应 酬</w>
市 内</w>
展 示
就 让</w>
尖 锐</w>
小 说
完 全
学 到</w>
太 贵</w>
大 豆</w>
堵 住</w>
地 去</w>
喝 水</w>
后 期</w>
司法 考试</w>
受 害</w>
取 胜</w>
发言 人</w>
千 元</w>
动 身</w>
动 手</w>
别 扭</w>
出 演</w>
再 三</w>
其 余</w>
入 住</w>
借 给</w>
倒 下</w>
体 质</w>
低 于</w>
亲 近</w>
亲 人</w>
亮 相</w>
事 后</w>
书 桌上</w>
乌 云</w>
主 教练</w>
主 导
主 体</w>
两 点</w>
业 余
不 论
不 耐烦</w>
下 雪</w>
上 传</w>
万 里
一 线</w>
一 次性</w>
一 处</w>
一 丝
高 涨</w>
颤 抖</w>
青 蛙</w>
震 撼</w>
雕 刻</w>
难 看</w>
陌 生人</w>
长 出</w>
郊 区</w>
这 起</w>
这 艘</w>
过 节</w>
迁 移</w>
足球 赛</w>
警 报</w>
观 测</w>
西 装</w>
草 莓</w>
腰 部</w>
职 场</w>
考 验</w>
美 观</w>
美 的</w>
组 建</w>
第一 位</w>
稿 子</w>
税 收</w>
种 族</w>
私 生活</w>
眼 中</w>
电子 邮件</w>
猪 肉</w>
牙 膏</w>
热 烈
火 焰</w>
清 爽</w>
深 奥</w>
浴 场</w>
泛 滥</w>
沉 着</w>
江 南</w>
死 刑</w>
此 地</w>
楼 梯</w>
检 验</w>
核 武器</w>
染 红</w>
杀 害</w>
本 性</w>
本 地</w>
时 分</w>
无 声</w>
无 几</w>
救 护
放 学</w>
支 票</w>
接 收</w>
挫 折</w>
技 能</w>
打 听</w>
所 属</w>
戏 剧
感 到
当 面</w>
当 当</w>
当 务
当务 之急</w>
强 硬</w>
弹 钢琴</w>
应 付</w>
年 幼</w>
平 静下来</w>
干 完</w>
岁 钱</w>
山 峰</w>
就 行</w>
小 猫</w>
将 要</w>
寺 院</w>
宗 旨</w>
孔 子</w>
大 麦</w>
境 地</w>
地 址</w>
国防 部</w>
哄 哄</w>
和 解</w>
君 子</w>
厌 烦</w>
压 岁钱</w>
半 夜</w>
化 妆</w>
办 成</w>
劝 说</w>
刷 新</w>
创 立</w>
刑 事</w>
出 手</w>
几 十
净 化</w>
农 活</w>
六 个</w>
光 荣</w>
作 文</w>
体 谅</w>
伺 候</w>
传 记</w>
休息 日</w>
伊 斯
人 行
产 物</w>
五 月</w>
事 前</w>
书 包</w>
不 算</w>
不 成
不 合</w>
不 合
三 十年</w>
七 个</w>
一 通</w>
一 言
一 所</w>
魔 鬼</w>
高 采
高采 烈</w>
高 潮</w>
饭 馆</w>
飞 来</w>
飘 着</w>
频 率</w>
韩国 政府</w>
零 花钱</w>
陈 旧</w>
阻 挡</w>
门 儿</w>
长 途
通 话</w>
远 远</w>
达 成
调查 结果</w>
识 别</w>
衣 柜</w>
融 合</w>
蓬 勃</w>
花 园</w>
自 行</w>
脸 庞</w>
胡 子</w>
股 东</w>
聘 用</w>
羽 毛
缺 陷</w>
统 治
纪念 日</w>
篇 小说</w>
科学 技术</w>
离 别</w>
神 色</w>
真 是
真 挚</w>
直升 机</w>
益 于</w>
球 赛</w>
班 主任</w>
现 场
玩 弄</w>
物 价
牛 皮</w>
炒 年糕</w>
漫 画
满满 的</w>
滔 滔
湖 面</w>
添 加</w>
比 分</w>
次 要</w>
楼 房</w>
检察 厅</w>
栗 子</w>
本 垒打</w>
未 曾</w>
月 末</w>
曝 光</w>
暗 中</w>
晃 动</w>
春 季</w>
时 会</w>
日 用品</w>
无 意</w>
故事 情节</w>
收 尾</w>
按 摩</w>
拜 访</w>
招 待
投 球</w>
扩 充</w>
打 网球</w>
手 臂</w>
所 得
当 今</w>
应 聘</w>
应 有</w>
庄 重</w>
干净 净</w>
干 干净净</w>
带 上</w>
山 区</w>
小 朋友</w>
富 人</w>
定 义</w>
如 下</w>
头 痛</w>
太极 旗</w>
天花 板</w>
大 气</w>
大 力
多 加</w>
增 长
地 望</w>
嘎 吱</w>
哗 啦
听 话</w>
向 上</w>
名 人</w>
吃 力</w>
可 笑</w>
古 人</w>
发 育</w>
去 除</w>
出 息</w>
冷 水</w>
冰 冷</w>
兴 高采烈</w>
党 派</w>
健 身
停 泊</w>
做 梦</w>
侵 害</w>
伦 理</w>
伤 亡</w>
传 开</w>
代 价</w>
他 用</w>
亿 元</w>
人际 关系</w>
人 以</w>
亲 手</w>
事故 现场</w>
书 本</w>
之 苦</w>
为 人
中 华
中 东</w>
两国 关系</w>
世界 大战</w>
与 此
不 胜</w>
上 瘾</w>
上 帝</w>
一阵 子</w>
一 事</w>
麻 雀</w>
饺 子</w>
非常 高兴</w>
非 凡</w>
随 身
阿 拉
阵 营</w>
防 卫</w>
野 菜</w>
酱 面</w>
避 暑</w>
迫切 需要</w>
远 离</w>
输 掉</w>
身体 健康</w>
跆 拳
跆拳 道</w>
走 来</w>
贫 乏</w>
责 备</w>
说 不定</w>
诚 意</w>
评 论
训 练
苦 头</w>
腾 腾</w>
肿 瘤</w>
耳 边</w>
美 味</w>
罪 名</w>
结构 调整</w>
细 腻</w>
纪 轻轻</w>
糊 口</w>
笑 了
立 体</w>
离 去</w>
相 见</w>
相 亲</w>
电 器</w>
狐 狸</w>
爱 国
爱 人</w>
灵 活
演 变</w>
滔滔 不绝</w>
深 厚</w>
气 候
杜 绝</w>
李 某</w>
本 周</w>
有 望</w>
晚 霞</w>
晚 年</w>
早 饭</w>
日 益
新 郎
料 到</w>
教 导</w>
敌 阵</w>
改 为</w>
抽 屉</w>
报 酬</w>
手 套</w>
总 得</w>
开 阔</w>
开 花</w>
开 学</w>
廉 价</w>
并 未</w>
年 纪轻轻</w>
平 息</w>
市 区</w>
差 错</w>
寄 来</w>
家 境</w>
存 折</w>
奖 杯</w>
失 事</w>
太 冷</w>
大 臣</w>
塑 料
坟 墓</w>
坏 习惯</w>
命 名</w>
周 转</w>
吵 闹</w>
启 程</w>
后 代</w>
合 作
台 词</w>
台 上</w>
取 缔</w>
反 省</w>
原 材料</w>
劳资 双方</w>
到 困难</w>
分 解</w>
出 面</w>
出 场</w>
几 件</w>
写 成</w>
兴 隆</w>
关 节</w>
公 开
停车 场</w>
俘 虏</w>
余 地</w>
位 子</w>
价值 观</w>
亲 眼
交 谈</w>
严 惩</w>
不 透</w>
不 苟</w>
不 正
不 快</w>
不 堪
下 滑</w>
上 门</w>
三 岁</w>
一 角</w>
一 经</w>
一 分</w>
1 .
高 龄</w>
高 价</w>
驾 车</w>
韩 流</w>
青 年人</w>
限 于</w>
阻 拦</w>
防 御</w>
长 寿</w>
钢 铁
酷 暑</w>
通 俗
运 送</w>
达成 协议</w>
输 给</w>
轻 微</w>
转 眼</w>
足球 比赛</w>
资 格
贸易 协定</w>
财 团</w>
请 客</w>
试 试</w>
规 划</w>
补 偿</w>
衣 料</w>
葡萄 酒</w>
荡 荡</w>
脆 弱</w>
职 人员</w>
老实 人</w>
老 人家</w>
群 众
统 统</w>
筹 备</w>
空 气
盛 产</w>
登 记</w>
界 限</w>
用 语</w>
用 手</w>
狮 子</w>
独 裁</w>
牲 畜</w>
焦 急</w>
炸 酱面</w>
激 增</w>
滋 味</w>
法 则</w>
没 人</w>
死 者</w>
武 术</w>
正 经
榜 样</w>
本 钱</w>
未 免
替 代</w>
明 日</w>
早 期</w>
无 虑</w>
无 忧
无忧 无虑</w>
文 雅</w>
整 夜</w>
数 百
政 局</w>
掩 护</w>
推 广</w>
接 过</w>
排 骨</w>
托 运</w>
打 印</w>
所得 税</w>
情 报
恢 复
急 速</w>
很 会</w>
形 容</w>
弥 补</w>
岛 上</w>
岁 数</w>
对 应</w>
寂 静</w>
委 会</w>
好 评</w>
太 忙</w>
大 叫</w>
声 誉</w>
墓 地</w>
国 情</w>
回 顾</w>
四 季</w>
哲 洙</w>
后 辈</w>
只 得</w>
受 罪</w>
厌 倦</w>
单 身</w>
劝 告</w>
前 线</w>
删 除</w>
初 次</w>
创造 性</w>
傻 瓜</w>
传 递</w>
今天 下午</w>
人 工
亭 子</w>
争 端</w>
书 房</w>
两 旁</w>
业 主</w>
下 半年</w>
三 点</w>
七八 糟</w>
一 进</w>
一 百</w>
一 幢</w>
一 体</w>
200 9</w>
高 山</w>
面 向</w>
间 接</w>
闪 闪
门 上</w>
长 江
野 外</w>
野 兽</w>
重 大
郑 重</w>
通 知
通 报</w>
递 给</w>
送 来</w>
退 休
这 门</w>
这 才</w>
过 量</w>
过 年</w>
轻 便</w>
转 动</w>
跑 道</w>
赛 事</w>
论 述</w>
论 证</w>
解 答</w>
衷 心</w>
萌 芽</w>
腰 带</w>
胆 小鬼</w>
而 出</w>
网 友</w>
绿 茶</w>
纵 横</w>
算 数</w>
科 目</w>
碎 片</w>
研 发</w>
短 期</w>
直 线</w>
直 气
直气 壮</w>
痊 愈</w>
留 下来</w>
甜 甜
理 直气壮</w>
现 任</w>
王 青
献 出</w>
牛 仔</w>
烈 地</w>
满 脸</w>
游 览</w>
海 面</w>
沿 海</w>
沉 沉</w>
此 人</w>
正 常
朝 天</w>
有 空</w>
有 种</w>
春 风</w>
明 朗</w>
早 餐</w>
日 元</w>
无 一
新 纪录</w>
新 婚</w>
教育 部</w>
教 学
教 养</w>
救 助</w>
政 府
支 流</w>
指 头</w>
拯 救</w>
折 断</w>
手 机
我 俩</w>
成 天</w>
怪 不得</w>
必 要性</w>
心 地
微 弱</w>
很 浓</w>
征 兆</w>
常 用</w>
巡 逻</w>
山 村</w>
尖 端</w>
客 机</w>
审 判
安 心</w>
好 奇
好奇 心</w>
女 演员</w>
女 婿</w>
天 使</w>
基督 教</w>
四 大</w>
和 尚</w>
周 岁</w>
听 听</w>
各 界</w>
原 有</w>
协 作</w>
十 年代</w>
十 分钟</w>
匆 匆</w>
办 得</w>
剥 夺</w>
利 害</w>
创 建</w>
农 户</w>
六 点</w>
公 款</w>
全 球
入 侵</w>
傍 晚</w>
倘 若</w>
体 积</w>
人 海</w>
亏 损</w>
二 十年</w>
主办 方</w>
个 头</w>
两 头</w>
不由 得</w>
不正 之风</w>
不 负
上 天</w>
上 下班</w>
三 国</w>
三 名</w>
一 间</w>
一 粒</w>
一 滴</w>
一 有</w>
4 5</w>
3 5</w>
200 4</w>
鲁 迅</w>
高 尚</w>
领 悟</w>
预 订</w>
顶 级</w>
青春 期</w>
青 睐</w>
需 品</w>
阻 挠</w>
鉴 定</w>
遇 到困难</w>
选 举
追 究
起 火</w>
议 长</w>
视 觉</w>
蛋 白
自 在</w>
脱 离
胸 膛</w>
肚子 饿</w>
老 金</w>
羽毛 球</w>
细 心</w>
签 名</w>
第 四
竞争 对手</w>
立 体
福 利
着 陆</w>
看 样子</w>
相 等</w>
相 撞</w>
相 声</w>
目 前
目前 为止</w>
疲 力
照 料</w>
热 门</w>
点 子</w>
澳 大
演 艺
演 唱</w>
演 唱
游 击
深 度</w>
深 切</w>
淡 淡
浪 费
流 入</w>
洗 脸</w>
注意 事项</w>
江 边</w>
比 亚</w>
武 装
次 见面</w>
根 源</w>
枫 叶</w>
松 懈</w>
条 纹</w>
服 饰</w>
旺 盛</w>
时 请</w>
日本 政府</w>
日 渐</w>
无 罪</w>
无 奈</w>
施 工
方 言</w>
效 力</w>
捕 鱼</w>
指 令</w>
抽 象</w>
护 理</w>
抖 搂</w>
抓 紧</w>
批 发
我 刚</w>
怎么 回事</w>
忠 告</w>
弟 子</w>
开 交</w>
广 州</w>
市 中心</w>
展示 会</w>
尽 量
小 提琴</w>
对 北</w>
家 畜</w>
宠物 狗</w>
好 听</w>
太 过</w>
大 田</w>
大 片</w>
大 城市</w>
基 准</w>
坚 固</w>
地 被</w>
地 主</w>
四 十</w>
嘴 巴</w>
和 睦</w>
周 六</w>
启 示</w>
听 不
含 量</w>
吞 吐
后 方</w>
后 山</w>
古 老</w>
变 更</w>
发生 变化</w>
参 加
去 过</w>
原 油</w>
原 子
加 拿
判 定</w>
初 次见面</w>
分 散</w>
凉 水</w>
决 定性</w>
内 涵</w>
共 产
公 害</w>
光 泽</w>
偏 向</w>
信 号
作 响</w>
伦 敦</w>
伤 员</w>
伙 儿</w>
交 货</w>
交 纳</w>
买 票</w>
书 中</w>
主 管
中 旬</w>
两 半</w>
与 其
不能 容忍</w>
不 见
下 山</w>
三 月</w>
一 架</w>
200 6</w>
1 50</w>
高 喊</w>
高 句
高句 丽</w>
驻 扎</w>
餐 桌上</w>
风 顺</w>
雕 塑</w>
隐 患</w>
阴 影</w>
部 署</w>
遗 物</w>
遗 址</w>
迟 钝</w>
辞 去</w>
车 票</w>
货 车</w>
财 物</w>
调 和</w>
试 着</w>
评 为</w>
证 书</w>
警 卫</w>
规 范</w>
蛋白 质</w>
色 调</w>
船 员</w>
脉 搏</w>
而 言之</w>
老 年</w>
纸 币</w>
纯 洁</w>
繁 殖</w>
紫 菜</w>
糟 蹋</w>
管 道</w>
竣 工</w>
穷 人</w>
研 制</w>
着 迷</w>
看 不清</w>
电影 节</w>
电 灯</w>
爆 炸
烧 酒</w>
炉 子</w>
满 是</w>
游乐 场</w>
深 感</w>
涤 纶</w>
涌 现</w>
流 水</w>
注 目</w>
气 体</w>
欢 呼</w>
橡 皮</w>
检 测</w>
染 成</w>
服 于</w>
最 先</w>
昨 天晚上</w>
早 起</w>
施 加</w>
新 媳妇</w>
教 徒</w>
摸 索</w>
摆 放</w>
搅 拌</w>
打 败</w>
才 华</w>
怀 抱</w>
心 脏
微 微</w>
得 意
很久 没</w>
彩 色</w>
开 头</w>
延 期</w>
度 假</w>
幸 福
帆 风顺</w>
封 建</w>
密 切
宽 敞</w>
宽 广</w>
媛 媛</w>
如 其
好 意</w>
天 文
大 邱</w>
外 线</w>
外 来</w>
地 铁
地 形</w>
回 忆
囚 犯</w>
呼 呼</w>
周 日</w>
名 词</w>
只 用</w>
受 到
取得 成功</w>
发 誓</w>
卷 入</w>
十 天</w>
包 袱</w>
劳 驾</w>
加拿 大</w>
分 公司</w>
出了 门</w>
出 走</w>
几 岁</w>
几 分</w>
农 田</w>
共和 国</w>
公 司
全 场</w>
免 疫
光 彩</w>
充 实</w>
停 顿</w>
做 错</w>
便 是</w>
依 赖
体育 馆</w>
份 儿</w>
代 谢</w>
人 物
严 厉
两 手</w>
两 块</w>
世 间</w>
不 善</w>
不 休</w>
万 能</w>
一丝 不苟</w>
一 职</w>
一 新</w>
一 帆风顺</w>
饰 品</w>
顺 利
革 命
雄 厚</w>
门 票</w>
镶 嵌</w>
锋 利</w>
金 色</w>
都 是</w>
邻 里</w>
那 段</w>
遮 住</w>
通知 书</w>
迫 害</w>
迟 早</w>
进 程</w>
进 度</w>
进 化</w>
运动 鞋</w>
谈 会</w>
译 成</w>
讲 课</w>
讲 解</w>
角落 里</w>
视 着</w>
西 欧</w>
蒸 发</w>
药 店</w>
般 地</w>
致 勃勃</w>
耕 地</w>
美 貌</w>
美 满</w>
级 别</w>
繁 忙</w>
糖 果</w>
糊 不清</w>
积 雪</w>
碟 子</w>
瞌 睡</w>
真是 太</w>
真 实
真 叫
真叫 人</w>
相 结合</w>
相 爱</w>
百 计</w>
登 陆</w>
疼 爱</w>
理 学</w>
理 发</w>
班 级</w>
玻璃 窗</w>
犯罪 分子</w>
牧 师</w>
漆 黑</w>
滑 雪
混 纺</w>
海 中</w>
派 出</w>
沸 腾</w>
汽 油</w>
水 质</w>
气 蓬勃</w>
民 意</w>
每 天晚上</w>
检 查
查 出</w>
构 思</w>
机器 人</w>
机 制</w>
未免 太</w>
木 匠</w>
期 内</w>
朝 气蓬勃</w>
有 话</w>
最 强</w>
曾 一度</w>
是 好</w>
既 往</w>
无 际</w>
旁 观</w>
新郎 新娘</w>
新 买</w>
整齐 齐</w>
整 整齐齐</w>
攻 势</w>
改 掉</w>
收 视
操 纵</w>
搬 迁</w>
搞 好</w>
握 住</w>
损 伤</w>
指挥 官</w>
拿 手</w>
拐 杖</w>
拇 指</w>
折 扣</w>
抓 捕</w>
把 戏</w>
承 蒙</w>
打 了个</w>
必 需品</w>
心地 善良</w>
往 常</w>
彻 底
强 度</w>
异 于</w>
开 张</w>
尺 子</w>
小 女孩</w>
封 闭</w>
寒 假</w>
宣 告</w>
嫉 妒</w>
婚 事</w>
如 何
如何 是好</w>
好好 儿</w>
好 消息</w>
女 王</w>
夹 子</w>
天气 预报</w>
大 钱</w>
大 奖</w>
大 伙儿</w>
外 行</w>
外 来
处 理
城 里</w>
地 走了</w>
国 产</w>
嚷 嚷</w>
喝 杯</w>
哗 哗</w>
周 到</w>
吞吐 吐</w>
吞 吞吐吐</w>
合 格
可 疑</w>
变 暖</w>
受 过</w>
十 分
包 容</w>
勇 士</w>
出 自</w>
凝 视着</w>
凝 视</w>
准 则</w>
冷 清</w>
冷 得</w>
决 不会</w>
农 场</w>
兴 致勃勃</w>
关 上</w>
全 民</w>
儿 媳妇</w>
做 过</w>
假 设</w>
保 密</w>
他 长</w>
产 地</w>
争 气</w>
乱 七八糟</w>
书 记</w>
主 观</w>
主 教</w>
丫 头</w>
个 个</w>
两 眼</w>
专 辑</w>
不 起来</w>
不 懈</w>
下 车</w>
三 百
七 月</w>
一个 个</w>
一 款</w>
一 旁</w>
一 排</w>
一 届</w>
一 响</w>
鲜 艳</w>
高 超</w>
饿 死</w>
飞 快</w>
风 俗
预 兆</w>
顺 便</w>
零 用钱</w>
集 市</w>
随 后</w>
长 短</w>
透 过</w>
追 赶</w>
迷 惑</w>
连 锁</w>
这 道题</w>
辜 负</w>
转 播</w>
踪 迹</w>
跌 倒</w>
赶 不上</w>
贫 富
质 疑</w>
象 力</w>
豆 腐
谎 话</w>
请 原谅</w>
说 完</w>
解决 方案</w>
行 情</w>
落 选</w>
花 草</w>
花 花
航 线</w>
舍 不得</w>
自 来
肩 上</w>
股 份</w>
聘 请</w>
老 大</w>
美 景</w>
罕 见</w>
编 制</w>
紫 色</w>
紧 密</w>
策 略</w>
第二 次</w>
第 一天</w>
祈 求</w>
矮 小</w>
着 火</w>
白 雪</w>
番 话</w>
生 涯</w>
理 事
现实 生活</w>
猎 人</w>
狂 热</w>
火 爆</w>
火 星</w>
演唱 会</w>
游乐 园</w>
清 凉</w>
深 入
海 水
海 底</w>
海 关</w>
浪费 时间</w>
活 动
洗衣 机</w>
泥 土</w>
没 来</w>
水 管</w>
此 时</w>
正 确
正 正</w>
正 值</w>
歌 词</w>
极 力</w>
期 徒刑</w>
月 球</w>
暴 力
星期 天</w>
时 差</w>
无 数
无 效</w>
无 异于</w>
方 百计</w>
新 车</w>
文 人</w>
敲 打</w>
救 出</w>
收 纳</w>
撰 写</w>
换 上</w>
投 诉</w>
把 头</w>
执 行
打 发</w>
手 头</w>
意 料
想 象力</w>
悠 久</w>
总 长</w>
心 痛</w>
得 住</w>
当 代</w>
开 支</w>
开 启</w>
康 复</w>
市 里</w>
工 艺</w>
少 数
小 店</w>
对 决</w>
审 议</w>
如 既往</w>
大 国</w>
大 叔</w>
大 体</w>
复 苏</w>
复 兴</w>
围 着</w>
回 想</w>
回 合</w>
嗡 嗡
启 发</w>
各 有</w>
各 大</w>
司 令</w>
变 质</w>
变 化
发 青</w>
印 花</w>
午 餐</w>
升 高</w>
千 方百计</w>
北 部</w>
北 者</w>
加 点</w>
功 劳</w>
办 公</w>
力 求</w>
刺 绣</w>
判 断
初 级</w>
分 发</w>
击 败</w>
几 句话</w>
决 议</w>
写 日记</w>
冒 犯</w>
关 爱</w>
公 众</w>
入 境</w>
克 制</w>
光 复</w>
先 后</w>
儿 媳</w>
健 全</w>
保 健</w>
便 于</w>
供 给</w>
伪 造</w>
会 面</w>
以 防</w>
付 诸
他 来</w>
人 造
交通 工具</w>
中国 政府</w>
个人 信息</w>
两 口</w>
丢 掉</w>
东 京</w>
不负 责任</w>
不可 开交</w>
不动 产</w>
不 断
不 懂事</w>
不 对
不 宜</w>
上 周</w>
上 加
上 下
三 大</w>
三 分</w>
三 人</w>
万 吨</w>
一 轮</w>
一 枪</w>
一 如既往</w>
一 分
1 7
1 6
鼻 涕</w>
鱼 片</w>
高 额</w>
高 校</w>
高 度
高 地</w>
骗 人</w>
静静 地</w>
陷 害</w>
降 雨</w>
陆 军</w>
门 槛</w>
长 满</w>
酝 酿</w>
都 市</w>
道 菜</w>
通 风</w>
通 俗</w>
连续 剧</w>
连 忙</w>
进 屋</w>
这 道</w>
过 失</w>
贴 着</w>
财 产
讲 师</w>
观 赏</w>
要 点</w>
褶 皱</w>
行 径</w>
螺 丝</w>
苍 蝇</w>
自然 环境</w>
腐 烂</w>
老 奶奶</w>
羞 愧</w>
缺 口</w>
竭 尽全力</w>
礼 拜</w>
短 时间</w>
着 装</w>
眼 球</w>
皮 子</w>
白 白
登 载</w>
男子 汉</w>
男 友</w>
用 地</w>
生 死
猛 烈地</w>
牺 牲
烤 肉</w>
灵 敏</w>
灭 绝</w>
漫画 书</w>
滋 病</w>
济 州</w>
洗 衣服</w>
江 原
江原 道</w>
永 久</w>
氏 度</w>
毅 然</w>
死 后</w>
框 架</w>
查 处</w>
机 票</w>
更 新</w>
暴 雪</w>
景 观</w>
晒 干</w>
日 起</w>
日 前</w>
无穷 无尽</w>
方 设法</w>
新 词</w>
斗 志</w>
救护 车</w>
救 灾
播 种</w>
摄 氏度</w>
排 球</w>
挥 动</w>
拳 击</w>
招 牌</w>
成 都</w>
感 激
想 方设法</w>
总 部</w>
总 而言之</w>
忘 了</w>
当 上</w>
弯 曲</w>
年 间</w>
帝 国</w>
山 林</w>
展 览</w>
尝 到</w>
小 王</w>
小 小</w>
密 密
家 电</w>
客 车</w>
奖 励</w>
天 黑</w>
天 色</w>
大 王</w>
大 伙</w>
多种 多样</w>
处 事</w>
堵 塞</w>
埋 头</w>
地 瓜</w>
国民 经济</w>
固 有</w>
商 贩</w>
叹 气</w>
右 手</w>
口 子</w>
变 形</w>
双 鞋</w>
双 重</w>
博 客</w>
勤 奋
劳 资</w>
动 静</w>
办 好</w>
别 着急</w>
别 提</w>
别 忘了</w>
分 辨</w>
分 给</w>
农 业
储 备</w>
停 下来</w>
做 菜</w>
借 助</w>
促 销</w>
体 温</w>
传 给</w>
传 到</w>
会 见</w>
人 节</w>
亚 于</w>
二十 岁</w>
事 来</w>
主 持</w>
中 介</w>
两 岸</w>
不容 忽视</w>
不 说</w>
不 止</w>
不 是
不 怎么样</w>
不 亚于</w>
下 载</w>
三 角
一 试</w>
一 朵</w>
一 惊</w>
默 契</w>
高中 生</w>
风 潮</w>
雪 花</w>
雨 淋</w>
集中 精力</w>
随身 携带</w>
除 去</w>
长 子</w>
金 总</w>
野 花</w>
野 生
郁 闷</w>
逆 转</w>
逆 境</w>
追究 责任</w>
返 还</w>
运 作</w>
过 期</w>
辛 勤
较 量</w>
车 间</w>
车 道</w>
越 发</w>
贫富 差距</w>
说 好</w>
记忆 力</w>
训 斥</w>
讨 人
衬 衣</w>
藐 视</w>
获 奖
英 雄
自 愿</w>
脱 掉</w>
胸 口</w>
而 至</w>
老 太太</w>
翻 过</w>
绝 不会</w>
绑 架</w>
组 长</w>
红 红
粗 心</w>
篮 子</w>
筛 选</w>
窃 听</w>
空 荡荡</w>
税 款</w>
离 家</w>
离 家
离家 出走</w>
破 碎</w>
研究 成果</w>
研究 员</w>
短 缺</w>
知 名
盼 望
相 传</w>
目 击
目击 者</w>
界 线</w>
田 径
班 车</w>
珠 子</w>
珍 藏</w>
环 节</w>
犯 下</w>
物 流</w>
爱 国</w>
热 带</w>
火 热</w>
激 动
澳大 利亚</w>
湿 透</w>
消 极</w>
浪 漫
流 淌</w>
流 动
汤 里</w>
水 上</w>
死 亡
正 月</w>
欢 迎
果 说</w>
板 子</w>
权 限</w>
机 械
朴 实</w>
朝 着</w>
服 装
有 罪</w>
有 期徒刑</w>
最 快</w>
最 少</w>
最 小</w>
晃 晃</w>
早 会</w>
无 常</w>
施 加
新 政府</w>
断 绝</w>
斟 酌</w>
整 治</w>
数 字
救灾 物资</w>
政 界人士</w>
放 宽</w>
放 在
摆 着</w>
摆 在</w>
据 调查</w>
挥 舞</w>
拥 护</w>
抽 出</w>
把 门</w>
我 市</w>
成 年</w>
慎重 考虑</w>
惊 醒</w>
总 有</w>
性 格
忙 忙</w>
忍 住</w>
必 不可
往 前</w>
异 性</w>
平 线</w>
屈 服于</w>
层 面</w>
小 船</w>
将 近</w>
导 体</w>
富 贵</w>
实 习</w>
官 僚
字 典</w>
如 果说</w>
好好 学习</w>
夺 取</w>
复 原</w>
围 墙</w>
喝 咖啡</w>
哈 哈</w>
咣 当</w>
周 五</w>
吸 引
名 声</w>
同 行</w>
合 法
变 革</w>
发 酵</w>
发 掘</w>
十字 路口</w>
勾 结</w>
助 长</w>
功 效</w>
剧 院</w>
前 去</w>
到 期</w>
分 担</w>
出 汗</w>
冷 战</w>
军 官</w>
冒 充</w>
关 系
充分 发挥</w>
停 下</w>
做 作业</w>
做 些</w>
信息 化</w>
侦 探</w>
何 处</w>
体育 场</w>
伤 痛</w>
传 单</w>
众 不同</w>
以 内</w>
令人 吃惊</w>
人 情
京 华</w>
五 天</w>
云 彩</w>
二 楼</w>
中 年</w>
两 者</w>
与 众不同</w>
不 离</w>
上 放</w>
一 顿饭</w>
一 说</w>
一 号</w>
1 20</w>
鼻 子
首 相</w>
飞 去</w>
面 具</w>
雪 白</w>
雪 地</w>
随 笔</w>
陈 代谢</w>
阵 雨</w>
门 户
长 大
长大 成人</w>
银行 贷款</w>
采 纳</w>
那 辆</w>
那 句话</w>
那 事</w>
遗 迹</w>
通 往</w>
连 连</w>
这 届</w>
身 材
身 影</w>
路 过</w>
跟 头</w>
走 近</w>
费 力</w>
誉 为</w>
西 海</w>
被 捕</w>
补 贴</w>
舞 蹈
舅 舅</w>
腹 部</w>
脑 子里</w>
胜 者</w>
背 影</w>
肥 料</w>
职 能</w>
而 行</w>
缓 和</w>
经营 者</w>
红 火</w>
紧急 情况</w>
精 密</w>
第二 个</w>
立 马</w>
离 散</w>
社 团</w>
碰 上</w>
破 旧</w>
真 不
相 差
痛 哭</w>
留 学生</w>
用 餐</w>
生 鱼片</w>
生 意
王 国</w>
独裁 政权</w>
犹 豫
牢 骚</w>
牌 子</w>
爽 口</w>
照 明</w>
火 炉</w>
滥 用</w>
游 玩</w>
淡淡 的</w>
消 化
海 域</w>
浅 薄</w>
流行 歌曲</w>
泄 漏</w>
水 道</w>
水 流</w>
每 日</w>
枪 声</w>
构 筑</w>
最 长</w>
昨 夜</w>
无 需</w>
无 能</w>
无 线</w>
方便 面</w>
新 陈代谢</w>
散 落</w>
放 置</w>
收 下</w>
撤 退</w>
搬 运</w>
推 开</w>
接 待
担 保</w>
抵 制</w>
房 门</w>
房 租</w>
我 怕</w>
感 谢您</w>
意 向</w>
惨 败</w>
恼 火</w>
总 额</w>
忘 掉</w>
志 气</w>
心 底</w>
得 失</w>
往 日</w>
往 下
当 啷</w>
强 制
引 领</w>
开 除</w>
带 走</w>
带 到</w>
帖 子</w>
小 鸟</w>
小 路</w>
实 用
安 静下来</w>
宇宙 飞船</w>
学习 成绩</w>
字 母</w>
孕 妇</w>
子 孙</w>
威 望</w>
好久 没</w>
头 地</w>
太平 洋</w>
大 意</w>
多 家</w>
复 古</w>
声 响</w>
增 进</w>
地铁 站</w>
地下 室</w>
回 归</w>
哪 能</w>
咖啡 厅</w>
周边 国家</w>
同 感</w>
合 同
吃 零食</w>
吃 药</w>
发 脾气</w>
双 腿</w>
参 军</w>
原 文</w>
博 览会</w>
南 极</w>
包 饭</w>
劳 工</w>
出人 头地</w>
出 错</w>
出 土</w>
凡 是</w>
关键 时刻</w>
八 十</w>
党 员</w>
充 沛</w>
充 斥</w>
僵 硬</w>
保 住</w>
任 期</w>
以 至</w>
人 品</w>
书 写</w>
乐 团</w>
久 久</w>
两 张</w>
丝 丝</w>
不 足
不 着
不 大</w>
下 决心</w>
一不 小心</w>
一 空</w>
一 派</w>
一 条
一 拐</w>
6 .
3 6</w>
200 3</w>
麻 麻</w>
驾驶 员</w>
风 光</w>
顺 畅</w>
雨 天</w>
长长 的</w>
铺 上</w>
钢 笔</w>
针 织</w>
采 集</w>
那 点</w>
遗 留</w>
通 红</w>
逃 脱</w>
迟 早会</w>
远 镜</w>
进 而</w>
这 趟</w>
这 药</w>
过 高</w>
践 踏</w>
越 大</w>
贪污 腐败</w>
谈 到</w>
读 完</w>
说 服
说 得
评论 家</w>
设 定</w>
警 官</w>
见 识</w>
蘑 菇</w>
薄 弱</w>
葫 芦</w>
著 名
花 香</w>
自 卑</w>
老 李</w>
罗 马</w>
缺 席</w>
结果 表明</w>
结 成</w>
经营 权</w>
紧 迫</w>
系 统
篝 火</w>
算 盘</w>
章 程</w>
突 如其
突如其 来</w>
空 地</w>
称 号</w>
秋 收</w>
秀 丽</w>
石 子</w>
真 够</w>
看 得</w>
看 似</w>
看 不出</w>
瘸 一拐</w>
疲力 尽</w>
疲 惫
疲惫 不堪</w>
画 画</w>
电 费</w>
用 途</w>
生 存
瑟 瑟</w>
理 想
玩 得</w>
犯罪 行为</w>
牵 着</w>
物价 上涨</w>
熊 熊
照 着</w>
照 看</w>
煤 气</w>
炮 弹</w>
清 早</w>
淇 淋</w>
洞 里</w>
法 定</w>
法 子</w>
没 错</w>
此 处</w>
棍 子</w>
根 除</w>
权 势</w>
朴 某</w>
本 词典</w>
日 出</w>
无 事</w>
旅行 社</w>
旅 途</w>
新 一代</w>
攻 击
收视 率</w>
收 受</w>
搜 集</w>
揭 穿</w>
握 手</w>
插 秧</w>
控 制
排 练</w>
排 成</w>
招待 会</w>
拉 链</w>
抹 布</w>
抛 开</w>
技 艺</w>
扫 除</w>
打 个</w>
手 下</w>
战 友</w>
愚 昧</w>
心 愿</w>
得 罪</w>
引人 注目</w>
建 国</w>
废 水</w>
店 员</w>
幼 儿</w>
平 生</w>
平 安
干 活儿</w>
山 火</w>
尚 且</w>
小 巷</w>
小 孙子</w>
宽 容</w>
家 家</w>
孤 立</w>
存 放</w>
妥 善</w>
好 象</w>
好 感</w>
奖 牌</w>
太 难</w>
太 重</w>
增 大</w>
堂 堂</w>
坚 守</w>
块 钱</w>
地 域</w>
地 人</w>
圈 子</w>
哪 有</w>
听 从</w>
后 人</w>
吃 掉</w>
右 边</w>
受 理</w>
发 货</w>
发 电</w>
发 作</w>
反 响</w>
印 机</w>
南 部</w>
升 级</w>
十 点</w>
包 里</w>
务 部</w>
剥 削</w>
前 边</w>
前 行</w>
制 订</w>
到 位</w>
刚 好</w>
出 头</w>
出 境</w>
凭 着</w>
减 弱</w>
减 免</w>
冻 僵</w>
冷 面</w>
冰 激
共同 努力</w>
公 然</w>
兄弟 俩</w>
做 个</w>
偏 差</w>
使用 者</w>
你 方</w>
余 名</w>
会议 室</w>
优 良</w>
付 给</w>
从 没</w>
人 力
交 涉</w>
亚 洲
了 婚</w>
乖 乖</w>
中 要</w>
中 外</w>
两 侧</w>
世界 级</w>
世 道</w>
专 门
不 难</w>
不 由</w>
不 振</w>
不 在意</w>
下 调</w>
上 车</w>
三 日</w>
一般 来说</w>
一 门</w>
一 瘸一拐</w>
一 匹</w>
200 7</w>
黑 人</w>
飞 过</w>
飞 翔</w>
领 到</w>
预 算
音乐 剧</w>
韩 美军</w>
雨 下</w>
隐 约
阳 台</w>
闭 上
闪烁 着</w>
铲 除</w>
铃 声</w>
野生 动物</w>
酒 菜</w>
部 件</w>
郊 外</w>
邻居 们</w>
那 片</w>
这 双鞋</w>
这 一
迈 着</w>
过 冬</w>
起 点</w>
起 源于</w>
赞 同</w>
调 皮</w>
诺 言</w>
请 勿</w>
论 点</w>
观众 席</w>
行 星</w>
行 为
落 水</w>
苏 联</w>
苍 白</w>
艾 滋病</w>
腿 部</w>
脑 海中</w>
胸 前</w>
考试 合格</w>
老 化</w>
统 计
终 点
约 翰</w>
系 列
算 了</w>
简 化</w>
空 缺</w>
空 白</w>
稍 稍</w>
稀 里
科 研</w>
科 研
私 自</w>
神 仙</w>
眨 眼</w>
目 不
病 痛</w>
留 念</w>
生 成</w>
班 子</w>
玻璃 杯</w>
现 政府</w>
王 老师</w>
猖 獗</w>
犯 了
片 面</w>
点 点</w>
激 励</w>
滑 冰</w>
清 醒过来</w>
清 洗</w>
海 浪</w>
气 儿</w>
比 较
毒 性</w>
每 件事</w>
残 疾</w>
正 合适</w>
歌 迷</w>
欢 乐</w>
橡 胶</w>
梅 雨</w>
柴 火</w>
林 匹
杯 酒</w>
机 智</w>
有 余</w>
有 一天</w>
更 改</w>
晒 黑</w>
旨 在</w>
旧 社会</w>
既 有</w>
无 理
无 不</w>
方 会谈</w>
新 春</w>
新 婚
断 定</w>
整 洁</w>
敦 促</w>
摆 满</w>
提 包</w>
探 望</w>
换 个</w>
捡 起</w>
报 复</w>
抓 获</w>
截 至</w>
战 绩</w>
战 役</w>
成 败</w>
成 功
戏剧 性</w>
慢 慢
情 人</w>
总 有一天</w>
性 情</w>
念 头</w>
快 递</w>
必不可 少</w>
必 将</w>
强 力</w>
开 辟</w>
延 迟</w>
座 谈会</w>
幸 亏</w>
干 嘛</w>
常 去</w>
己 见</w>
山 沟</w>
寻 常</w>
害 人</w>
定 会</w>
官 司</w>
官 兵</w>
完 饭</w>
孤 儿</w>
婚 后</w>
女 孩儿</w>
女 人
奥 林匹
奈 何</w>
太 紧</w>
大 雾</w>
大 酱</w>
大 有</w>
大 吃
大 为</w>
大 不
多 有</w>
复 活</w>
声 称</w>
境 界</w>
堪 称</w>
基 于</w>
埃 及</w>
圆 的</w>
圆 圆的</w>
回 应</w>
啪 啪</w>
哆 嗦</w>
品 格</w>
合格 者</w>
吃 完饭</w>
吃 不
司令 部</w>
可 别</w>
召 集</w>
口 渴</w>
取 代</w>
反 感</w>
历 经</w>
印 有</w>
卧 室</w>
南 下</w>
卖 掉</w>
单 元</w>
升 职</w>
动 态</w>
出 局</w>
出 事</w>
冰激 凌</w>
冰 淇淋</w>
农 历</w>
再 有</w>
共 存</w>
六 方会谈</w>
公 职人员</w>
公 安
全 体
入 伍</w>
保持 沉默</w>
佛 像</w>
伸 进</w>
人 心
产 阶级</w>
交 情</w>
交 代</w>
二 手
事 要</w>
习 班</w>
乘 务员</w>
中 期</w>
不胜 感激</w>
不 起
下 水</w>
下 巴</w>
下 场</w>
上 长</w>
上 街</w>
一 片
一 想</w>
一 天
一 千</w>
1 4
高 声</w>
高 于</w>
骄 傲
驾 照</w>
饲 料</w>
飞 往</w>
领导 者</w>
领导 层</w>
顶 撞</w>
鞭 炮</w>
非 正式</w>
青 色</w>
雪 上加
雪上加 霜</w>
隐 隐</w>
降 价</w>
重 逢</w>
里 装</w>
通 道</w>
通 宵</w>
追 问</w>
这 样的话</w>
这 回</w>
还 清</w>
近 几年</w>
迎 风</w>
过 敏
辫 子</w>
轻 重</w>
轻 快</w>
转 身</w>
起 头</w>
财 阀</w>
谢 谢您</w>
说服 力</w>
设计 师</w>
设 想</w>
讲 台</w>
认 同</w>
触 感</w>
袖 手
袖手 旁观</w>
衰 弱</w>
衣 物</w>
虚 弱</w>
蒸 气</w>
董事 会</w>
落 到</w>
花 盆</w>
耐 用</w>
考 场</w>
美术 馆</w>
美国 政府</w>
美 容</w>
缘 无故</w>
综合 症</w>
给 人以</w>
结果 显示</w>
累 得</w>
稻 子</w>
稳 重</w>
租 金</w>
租 房</w>
离 不开</w>
磨 损</w>
短 期内</w>
直 觉</w>
疫 苗</w>
电视 节目</w>
电子 商务</w>
生 生</w>
甜甜 的</w>
独 生
牵 扯</w>
牲 口</w>
照 射</w>
烫 伤</w>
烟 雾</w>
火 箭</w>
潜 水</w>
演艺 界</w>
温 室</w>
淘 气</w>
涌 向</w>
消 瘦</w>
浑 身
流 出</w>
派 别</w>
洋 洋</w>
注意 安全</w>
注意 力</w>
法 语</w>
治 愈</w>
没 有
没 到</w>
沉 思</w>
次 世界大战</w>
核 电站</w>
查 找</w>
架 上</w>
来 讲</w>
来 信</w>
杀 死</w>
本 科</w>
期 末
望 远镜</w>
显 眼</w>
明 书</w>
时 代
日 帝</w>
无 赖</w>
无 缘无故</w>
施加 压力</w>
新 兵</w>
文 坛</w>
教 诲</w>
攒 钱</w>
擅 自</w>
摘 掉</w>
捐 给</w>
指 向</w>
拿 走</w>
拖 欠</w>
拉 拉</w>
拄 着</w>
抗 争</w>
技术 人员</w>
批 货</w>
打 断</w>
懒 觉</w>
感 人</w>
情 理</w>
情 人节</w>
悠 悠</w>
总 共</w>
怒 火</w>
得 起</w>
很 帅</w>
往 外</w>
强 忍</w>
弱 者</w>
开 工</w>
建 校</w>
幸 好</w>
幕 后</w>
常 年</w>
左 手</w>
尤 为</w>
小说 家</w>
家庭 主妇</w>
家 园</w>
定 下</w>
官 僚</w>
安 逸</w>
姥 姥</w>
女人 味</w>
头 顶</w>
天 下
大 蒜</w>
大 声
夏 日</w>
增长 率</w>
堂 堂
国务 总理</w>
四 十
喝 完</w>
告 白</w>
含 着</w>
可 口</w>
古 迹</w>
口 水</w>
受 灾</w>
发表 声明</w>
发展 中
发展中 国家</w>
发 短信</w>
反 对
又 称</w>
原 定</w>
压 倒
半 数</w>
半 导体</w>
勇 于</w>
动 植物</w>
前 走</w>
前 夕</w>
到 晚</w>
判 处</w>
初 恋</w>
击 中</w>
出 产</w>
冻 结</w>
冷 冷
决 策</w>
共 识</w>
公 交</w>
全 国
免 除</w>
借 用</w>
倒 入</w>
住 宿</w>
低 迷</w>
优 惠
以 色
人行 道</w>
五 岁</w>
二 百
事 发</w>
了 然</w>
之 为</w>
中国 队</w>
严重 性</w>
两 岁</w>
世 宗</w>
不 问</w>
不 容</w>
上 铺</w>
万里 长城</w>
七 年</w>
一 瓶</w>
一 步
一 堂</w>
一 切
黑 夜</w>
鸡 肉</w>
高尔夫 球</w>
高 血压</w>
高 级
高 层
高 原</w>
首 要
飞 舞</w>
额 外</w>
颜 无耻</w>
预 约</w>
面 对面</w>
院 内</w>
闻 到</w>
闪闪 发光</w>
销售 量</w>
钦 佩</w>
钢 琴
醉 酒</w>
那 篇</w>
那 人</w>
遭 殃</w>
追 随</w>
追 捧</w>
远 大</w>
转 过</w>
车 轮</w>
身 旁</w>
身 后</w>
身 为</w>
踊 跃</w>
赞 叹</w>
贵 宾</w>
豆 芽</w>
谈 谈</w>
诸 葛
记 录
计算 机
警察 局</w>
西 海岸</w>
装 在</w>
被 誉为</w>
表 达
补 习班</w>
行 军</w>
蜂 拥
蕴 藏</w>
著 称</w>
航 天
自 古</w>
自 古
自 卫
脸 颊</w>
背 诵</w>
肆 无
老 总</w>
绽 放</w>
绷 带</w>
线 路</w>
纳 税</w>
粉 色</w>
简 约</w>
签 字</w>
符 号</w>
穷 得</w>
积极 性</w>
禁 烟</w>
票 房</w>
祝 愿</w>
礼 服</w>
示 威
睡 得</w>
着 鼻子</w>
着 眼</w>
相 逢</w>
相 通</w>
盛 大</w>
盖 子</w>
病 倒</w>
电 报</w>
理 发
犯 规</w>
爱情 故事</w>
然 大
焦 虑</w>
漂 亮
浦 项</w>
测 验</w>
流 浪
沼 泽</w>
沦 落</w>
沦 为</w>
没 完</w>
污 水</w>
求 婚</w>
水 位</w>
气 压</w>
民浩 和
段 落</w>
橘 子</w>
棒 球队</w>
桔 子</w>
桃 花</w>
果 园</w>
本 文</w>
本 报</w>
本 年度</w>
有所 不同</w>
有 机</w>
最 高
最 具</w>
更 生</w>
昏 迷</w>
新 开</w>
敢 于</w>
摇 头</w>
搬 到</w>
捷 径</w>
挨 着</w>
扫 卫生</w>
扔 进</w>
打 扫卫生</w>
打 得</w>
打 下</w>
所 为</w>
战斗 机</w>
战 线</w>
战 乱</w>
懒 人</w>
愈 烈</w>
悠 闲
忌 惮</w>
心 肠</w>
得 益于</w>
很 棒</w>
录 像</w>
当 日</w>
开 动</w>
干 起</w>
已 过</w>
工 艺
岸 边</w>
山 人海</w>
就 业
寓 言</w>
密密 麻麻</w>
家 住</w>
定 居</w>
学 过</w>
学 好</w>
学 分</w>
如 山</w>
好 话</w>
奇 特</w>
太阳 能</w>
太 辣</w>
多样 化</w>
多 彩</w>
外交 部</w>
处 方</w>
坏 话</w>
地 皮</w>
图 画</w>
围 巾</w>
团 圆</w>
喇 叭
商 讨</w>
售货 员</w>
名 胜
吃 光</w>
口 才</w>
口 头</w>
变 为</w>
发 扬</w>
厚 颜无耻</w>
印 刷</w>
动 人</w>
刺 痛</w>
初 一</w>
分 泌</w>
分 出</w>
几 棵</w>
几 张</w>
几 名</w>
冷 漠</w>
军 方</w>
写 信</w>
内 部
其 后</w>
光 盘</w>
先 进
偷 偷
侵略 者</w>
侧 面</w>
依赖 于</w>
你 家</w>
何 种</w>
住宅 区</w>
伤 者</w>
以色 列</w>
人 马</w>
人 有</w>
人 山人海</w>
人 员
亮 点</w>
交 警</w>
习惯 性</w>
中 学生</w>
中 世纪</w>
两 根</w>
东北 亚</w>
东 北</w>
不 适</w>
不 漏</w>
不 干</w>
三 种</w>
万 块</w>
一家 子</w>
一 连</w>
一 路上</w>
一 组</w>
一 枚</w>
一 无所
一 夜
一 动不动</w>
8 00</w>
6 5</w>
5 5</w>
19 7
高 明</w>
高 大</w>
骆 驼</w>
首 位</w>
饱 满</w>
风 度</w>
领 悟
颁 布</w>
顶 上</w>
面 部</w>
面 目</w>
难以 忍受</w>
随 风
降 临</w>
阴 暗</w>
闯 过</w>
闪 电</w>
错 觉</w>
钟 声</w>
里 头</w>
采取 措施</w>
酸 痛</w>
酗 酒</w>
配 色</w>
都 行</w>
那 年</w>
连 三</w>
这 方面</w>
还 好</w>
迎 合</w>
过 生日</w>
较 为</w>
跟 随</w>
走 着瞧</w>
赛 跑</w>
赚 取</w>
资格 证</w>
质 感</w>
诽 谤</w>
请 示</w>
讲 得</w>
认 证</w>
装 进</w>
被 困</w>
表 现
衡 量</w>
血 液
董 事</w>
落 入</w>
获奖 者</w>
荷 兰</w>
自古 以来</w>
自 力
自力 更生</w>
肆无 忌惮</w>
老 头</w>
老 大
翻 译成</w>
美 食</w>
编 写</w>
经 典
纵 然</w>
紫 外线</w>
索 取</w>
精 华</w>
粉 碎</w>
篱 笆</w>
符 合
笔 钱</w>
称 得上</w>
称 之为</w>
秒 钟</w>
种 族
神 态</w>
社 交</w>
磨 破</w>
着 脸</w>
真 有</w>
看 病</w>
眉 头</w>
相 识</w>
直 到
直到 现在</w>
盲 人</w>
皮 肤
百 年
病 房</w>
生 性</w>
珍 珠
玫 瑰
特 网</w>
牧 场</w>
爱 意</w>
然 不同</w>
热烈 欢迎</w>
热 得</w>
火 山</w>
演 愈烈</w>
滚 动</w>
渺 小</w>
游 荡</w>
渡 过</w>
海水 浴场</w>
浓 雾</w>
流 露</w>
流 失</w>
泰 山</w>
波 涛
沉 没</w>
污 染
汇 报</w>
民 俊
母 语</w>
正 宗</w>
欧 洲
栏 杆</w>
标 记</w>
构 想</w>
极 点</w>
本 赛季</w>
本 市</w>
本 分</w>
未 成年人</w>
期末 考试</w>
望 去</w>
服 药</w>
有 效
最 起码</w>
暴 行</w>
易 懂</w>
旺 季</w>
无 所谓</w>
施 行</w>
新 式</w>
斯 文</w>
文 凭</w>
数 码
放 射
改 进</w>
改 良</w>
操 作
摘 下</w>
摆 出</w>
摄 像
接 二
接二 连三</w>
换 季</w>
振 奋</w>
拉 面</w>
拉 拉
拆 开</w>
抵 押</w>
打 起</w>
房 产</w>
成 绩
慈 善</w>
感激 不尽</w>
意 想不到</w>
愈 演愈烈</w>
态 势</w>
必 有</w>
心 上</w>
得 直</w>
徒 弟</w>
强 队</w>
强 硬
弄 清</w>
开 化</w>
开 关</w>
延 到</w>
废 纸</w>
废 墟</w>
并 非
年 头</w>
平 壤</w>
带 给</w>
带 头</w>
巨 浪</w>
山 水</w>
尝 到
尝到 了</w>
小 镇</w>
小 河</w>
小 姑娘</w>
封 面</w>
封 锁</w>
家 电
室 外</w>
学 识</w>
孤 儿
孙 女</w>
字 体</w>
子 公司</w>
婆 家</w>
始 终
奥 会</w>
头 晕</w>
太 过分</w>
天文 数字</w>
天 性</w>
大 有
大 巴</w>
大 宇</w>
多 得</w>
堕 落</w>
堂堂 正正</w>
坐 火车</w>
地 方
圆 形</w>
国 力</w>
团结 起来</w>
器 皿</w>
喝 点</w>
呼 地</w>
周 刊</w>
呆 地</w>
吵 得</w>
启 蒙</w>
吩 咐</w>
名 片</w>
名 气</w>
各 家</w>
口 处</w>
发 亮</w>
反 射</w>
友好 关系</w>
去 掉</w>
原 著</w>
原 则
卖 得</w>
卖 出</w>
华 盛
升 为</w>
十 八
劳 累</w>
加 热</w>
剩 余</w>
剧 中</w>
制造 业</w>
别 墅</w>
判断 力</w>
刊 物</w>
切 断</w>
出 嫁</w>
出 卖</w>
几 百
凝 结</w>
决 议案</w>
内 科</w>
内 心
关 联</w>
共 鸣</w>
共 享</w>
六 岁</w>
公 告</w>
八 个</w>
全 新</w>
免 疫</w>
儒 教</w>
储 存</w>
值 得
修 正
信号 灯</w>
保护 环境</w>
低 着头</w>
低 下</w>
伟 人</w>
伊 朗</w>
从 头
人 才
人 儿</w>
亚 运会</w>
二十 世纪</w>
二十 一</w>
买 点</w>
之 道</w>
之 势</w>
举 着</w>
临 时
中 场</w>
个 体</w>
两 班</w>
两 件</w>
世 俗</w>
不在 乎</w>
不同 于</w>
不分 昼夜</w>
不 诚实</w>
不 经
下 酒菜</w>
下 半场</w>
下 令</w>
下 个</w>
上 身</w>
上 要</w>
三 四
一夜 之间</w>
一举 一动</w>
一 目
一 望
一 小</w>
一 封信</w>
3 3</w>
20 14</w>
高 达</w>
骑 马</w>
馅 儿</w>
风 暴</w>
随 风</w>
阿 富
阿富 汗</w>
闹 事</w>
间 隔</w>
门户 网站</w>
铺 子</w>
金 刚
酒 馆</w>
配 套</w>
那 块</w>
那 么
遇 难</w>
递 交</w>
边 上</w>
辣椒 酱</w>
躲 开</w>
跳 动</w>
越 南</w>
趁 着</w>
起 义</w>
资 质</w>
费 劲</w>
贬 低</w>
课 后</w>
诺 贝
诸葛 亮</w>
诡 计</w>
试 穿</w>
让 给</w>
讨 好</w>
要 不是</w>
装 箱</w>
衷 于</w>
补 助</w>
行 李
蔓 延到</w>
蓝 天</w>
蒙 蒙</w>
莱 坞</w>
药 材</w>
茶 馆</w>
苛 刻</w>
花 瓣</w>
花 坛</w>
艰 苦
脱 落</w>
胸 部</w>
胳 膊
联 系
耻 辱</w>
老 爷</w>
缔 结</w>
绝 对
经济 学</w>
经 受</w>
紧 张
精 明</w>
窒 息</w>
空 前</w>
税 率</w>
税 务</w>
福 祉</w>
短 篇小说</w>
睡 觉
盖 房子</w>
盖 住</w>
白 领</w>
白 云</w>
生活 必需品</w>
生活 习惯</w>
生 死</w>
班 上</w>
现 金
环境 保护</w>
特 殊
特 产</w>
物 理</w>
牢 固</w>
熊熊 燃烧</w>
照 亮</w>
热 衷于</w>
烈 士</w>
激 起</w>
漏 洞</w>
溪 谷</w>
游 戏
渔 村</w>
涨 价</w>
消 毒
活 下去</w>
洗 完</w>
注 入</w>
没 了</w>
沉 迷
水 利</w>
氧 化
比 赛
正 为</w>
款 项</w>
样 品</w>
校 内</w>
果 子</w>
杭 州</w>
杂技 演员</w>
朴 智
本 店</w>
有条 理</w>
有 钱
有 序</w>
有 味</w>
晚 点</w>
显 示
日 语</w>
无 非</w>
新 款</w>
新 加
新加 坡</w>
数 码</w>
改 组</w>
搭 话</w>
搭 建</w>
提 防</w>
提 炼</w>
提 名</w>
提 出
推 断</w>
掉 落</w>
拜 年</w>
拍 卖</w>
担 子</w>
报 考</w>
报 答</w>
执 照</w>
打 瞌睡</w>
打 乒乓球</w>
手 枪</w>
手 掌</w>
所 作
所作 所为</w>
感 叹</w>
恶 性
总 公司</w>
总 体</w>
很 差</w>
录 用</w>
归 还</w>
强 有力</w>
弹 力</w>
开 枪</w>
库 存</w>
平 日</w>
平 方
平 整</w>
帷 幕</w>
席 卷</w>
巴 黎</w>
屠 杀</w>
尚 属</w>
察 力</w>
宽 阔</w>
家 里人</w>
宫 殿</w>
实 验
宇 航
孤儿 院</w>
孝 顺</w>
孕 育</w>
嫁 出去</w>
好 莱坞</w>
好 日子</w>
好 坏</w>
奥 秘</w>
失 踪
失 去
太 空
大 路</w>
大 幅度</w>
夜 班</w>
外交 官</w>
外 形</w>
复 制</w>
处 置</w>
壮 大</w>
城 市
在 线</w>
圣诞 节</w>
国 境</w>
园 区</w>
因 特网</w>
回 老家</w>
喷 喷</w>
喜 事</w>
唤 醒</w>
哭 闹</w>
响 声</w>
品 味</w>
哀 悼</w>
呆 呆地</w>
吸 取</w>
吧 嗒</w>
号 召</w>
可 贵</w>
可 乐</w>
另 一方面</w>
发 芽</w>
占 有</w>
办 事
划 着</w>
出 院</w>
出 租</w>
冰 块</w>
军 部</w>
再 生</w>
再 现</w>
共同 点</w>
公 务</w>
光 顾</w>
催 促</w>
偷偷 地</w>
保 姆</w>
保 卫
使 唤</w>
伸 展</w>
传 真</w>
会 晤</w>
伊斯 兰</w>
令人 震惊</w>
人 造</w>
人 身
人 中</w>
产 权</w>
交 织</w>
五 百</w>
五 点</w>
争 斗</w>
书 法
乞 讨</w>
之 作</w>
中 将</w>
严格 遵守</w>
两 支</w>
两 大</w>
东 南
丑 陋</w>
不管 怎样</w>
不 道德</w>
不 曾</w>
不 忍
不 受</w>
下 半
上班 时间</w>
上 用</w>
上 爬</w>
三十 岁</w>
三 天
一目 了然</w>
一望 无际</w>
一 无
一 封</w>
一 伙</w>
6 00</w>
3 4</w>
3 2</w>
3 .
2 .
199 8</w>
龄 化</w>
黑 客</w>
麦 克
鸽 子</w>
骚 扰</w>
骚 乱</w>
饭 时间</w>
食 物
飕 飕</w>
风 中</w>
颠 倒</w>
预 料到</w>
颁 奖
顶 嘴</w>
韩 币</w>
露 天</w>
需 求
雾 气</w>
零 星</w>
难 者</w>
隔 阂</w>
陷 入
院 里</w>
陈 列</w>
阴 险</w>
防 范</w>
闹 哄哄</w>
长期 以来</w>
长 处</w>
长 假</w>
铸 造</w>
金刚 山</w>
金 属
重 伤</w>
重 任</w>
酿 成</w>
酒 杯</w>
那 小子</w>
遏 制</w>
逻 辑
透 明
迷 住</w>
这 天</w>
这 名</w>
过 热</w>
过 激</w>
辞 呈</w>
转 为</w>
踢 球</w>
起 舞</w>
走 动</w>
资金 周转</w>
资 深</w>
质 性</w>
课 时</w>
说 闲话</w>
语 调</w>
该 片</w>
诈 骗
证 词</w>
记 下</w>
议 书</w>
讨 会</w>
认 出</w>
规 章
规章 制度</w>
观 望</w>
西 洋</w>
西 亚</w>
褐 色</w>
装 扮</w>
裂 缝</w>
表 白</w>
衔 接</w>
行 程</w>
血液 循环</w>
融 入</w>
虽 小</w>
虚 荣</w>
获得 成功</w>
至 极</w>
自然 界</w>
腥 味</w>
脸 部</w>
脸 儿</w>
耍 赖</w>
美术 作品</w>
缝 隙</w>
终 日</w>
红红 的</w>
简 短</w>
第一 步</w>
立 足
穿 越</w>
空 虚</w>
积 攒</w>
秋 日</w>
离 职</w>
禁 止
祝 您</w>
礼 品</w>
碰 撞</w>
破 例</w>
研 讨会</w>
盹 儿</w>
相 符</w>
相 片</w>
相 投</w>
盗 贼</w>
监 察</w>
皱 巴巴</w>
畅 销
电 流</w>
用 具</w>
独裁 者</w>
狂 风</w>
犯 错误</w>
燕 子</w>
熟 人</w>
火 力</w>
漏 掉</w>
滴 溜溜</w>
满 面</w>
滑 稽</w>
温 顺</w>
清 香</w>
清 纯</w>
清 算</w>
消防 队员</w>
海 啸</w>
派 兵</w>
津 贴</w>
法 法院</w>
死 人</w>
步 骤</w>
步 行</w>
步 入</w>
模 范
梦 里</w>
校 服</w>
标 签</w>
栅 栏</w>
枯 竭</w>
村 口</w>
朵 花</w>
未 婚</w>
晋 升为</w>
明 知</w>
时 间
时 装</w>
旧 时</w>
日 程
无法 挽回</w>
无所 事事</w>
无 心</w>
斥 责</w>
文 静</w>
敬 语</w>
政 变</w>
搞 笑</w>
挽 留</w>
指 着</w>
抱 住</w>
报 警</w>
抚 摸</w>
扶 持</w>
打 转</w>
手 好
截 然</w>
感 情
惊 叹</w>
患 病</w>
恰 到
恰到 好处</w>
快 餐</w>
必 定</w>
心 眼</w>
很 累</w>
征 集</w>
往 上</w>
彻 夜</w>
影 院</w>
归 纳</w>
开 得</w>
建 交</w>
底 层</w>
庆 州</w>
广 东</w>
平 面</w>
平 等
平 稳</w>
干 细胞</w>
市场 经济</w>
左 边</w>
工作 作风</w>
岳 母</w>
寡 妇</w>
容 量</w>
宵 节</w>
宪 法法院</w>
室 内
实 情</w>
官 方</w>
完 备</w>
完 后</w>
安 置</w>
守 卫</w>
存 储</w>
字 迹</w>
姑 姑</w>
好 些</w>
奶 油</w>
套 装</w>
奔 驰</w>
头 绪</w>
大 病</w>
大 头</w>
大 型
多 方</w>
壁 画</w>
墨 水</w>
堆 满</w>
培 训
坚 硬</w>
坐 满</w>
坐 地铁</w>
坍 塌</w>
地 基</w>
国家 元首</w>
国 产
园 里</w>
四 月</w>
喷 嚏</w>
喳 喳</w>
喧 闹</w>
啬 鬼</w>
唤 起</w>
哗 啦</w>
告 终</w>
吹 得</w>
听不 懂</w>
吝 啬鬼</w>
后 门</w>
同 期</w>
各 类</w>
史 上</w>
只 见</w>
叙 事</w>
取 闹</w>
叉 子</w>
压倒 性</w>
厅 长</w>
厂 里</w>
印 刷
卫 星
单 一</w>
华盛 顿</w>
半 小时</w>
勾 当</w>
力 劳动</w>
前 锋</w>
切 不可</w>
刀 子</w>
出 血</w>
出 新</w>
准 确
冷 不
冰 面</w>
关 照</w>
公 婆</w>
八 点</w>
光 灯</w>
光 明
光 州</w>
充 电</w>
元 宵节</w>
偷 懒</w>
偏 爱</w>
借 着</w>
修 好</w>
依 次</w>
住 脚</w>
低 头</w>
传 授</w>
代 理
今天 天气</w>
人 意</w>
人 参</w>
人 为
交 叉</w>
交 了</w>
乘 车</w>
主管 部门</w>
丰 盛</w>
丧 气</w>
严厉 打击</w>
两 腿</w>
两 样</w>
两 党</w>
不 符</w>
不 用
不 敢
不 愧</w>
不 大
不 及
不 前</w>
下 届</w>
一 记</w>
一 类</w>
一 班</w>
一 岁</w>
一 出</w>
一 上午</w>
3 7</w>
200 1</w>
20 12</w>
1 500</w>
高高 的</w>
高中 毕业</w>
驱 赶</w>
饮 用水</w>
飞 行
领悟 到</w>
领 事
预 告</w>
顶 峰</w>
鞭 子</w>
非 要</w>
隆 重
陶 器</w>
限 期</w>
阴 谋
防 线</w>
阐 明</w>
长 胖</w>
铭 记</w>
重 重
重 担</w>
里 屋</w>
郁 症</w>
那 样的话</w>
遗 属</w>
遗 体</w>
遇 上</w>
造 船</w>
逃 离</w>
适 量</w>
迷 恋</w>
违 法行为</w>
进 出口</w>
近 乎</w>
过 大</w>
辛 勤</w>
身 着</w>
赶 来</w>
赠 品</w>
赞 扬</w>
赛 马</w>
贵 方</w>
购物 中心</w>
账 簿</w>
财 务</w>
象 征
说不 出来</w>
语 文</w>
该 死</w>
试 一试</w>
证 件</w>
记 在</w>
观 者</w>
见 底</w>
被 称作</w>
表示 感谢</w>
衣 架</w>
行 进</w>
虚 构</w>
菜 肴</w>
菜 单</w>
茁 壮
茁壮 成长</w>
苏 醒</w>
花 样
节 假日</w>
至 上</w>
自然 灾害</w>
自 私</w>
脚 石</w>
胜 地</w>
胎 儿</w>
肉 体</w>
职 棒</w>
置 之
网 上
统治 者</w>
经济 界</w>
紧 凑</w>
精 力
粉 红色</w>
管 如此</w>
筹 集</w>
笑了 笑</w>
竹 子</w>
童 话
立 学校</w>
窗 户
窗户 纸</w>
突 显</w>
稀 少</w>
积极 参与</w>
秋 风</w>
禁 不住</w>
神 秘
磨 蹭</w>
破 灭</w>
砍 掉</w>
睡觉 时</w>
着 重</w>
真不 知道</w>
真 想</w>
盼望 着</w>
相差 无几</w>
相 貌</w>
目 录</w>
盆 里</w>
疼 得</w>
男 孩子</w>
电话 号码</w>
申请 书</w>
用 尽</w>
生 前</w>
瑞 士</w>
现场 直播</w>
现 行</w>
玩 乐</w>
王 室</w>
猜 测</w>
猛 增</w>
狭 小</w>
爵 士
爱 你</w>
熨 斗</w>
然 自
烟 草</w>
点 火</w>
火 花</w>
激 发</w>
潜 在</w>
滚 烫</w>
滑 倒</w>
游 说</w>
温 差</w>
清 扫</w>
混 杂</w>
深 得</w>
深 山</w>
淋 湿</w>
涌 入</w>
浴 室</w>
浪 潮</w>
洽 谈</w>
波涛 汹涌</w>
没 意思</w>
没 完
没完 没了</w>
沉迷 于</w>
沉 默
江 河</w>
水 泥
水 池</w>
水 产</w>
树 苗</w>
树 丛</w>
松 软</w>
杰 出</w>
机 灵</w>
朴智 星</w>
本 部</w>
本 意</w>
朝鲜 半岛</w>
更 替</w>
暴 露出</w>
暂 停</w>
景 点</w>
是 非
春 雨</w>
星期 六</w>
时 装
时 段</w>
旱 情</w>
无理 取闹</w>
无可 挑剔</w>
无可 奈何</w>
无 踪</w>
旅 程</w>
方 形</w>
新 手</w>
新 房</w>
敬 请</w>
放 映</w>
攻 读</w>
改 成</w>
收 看</w>
支持 者</w>
搬 进</w>
插 手</w>
提 取</w>
推 论</w>
换 来</w>
拧 紧</w>
招 聘
拓 宽</w>
披 上</w>
投 机
承 担
扬 起</w>
打 量</w>
打 喷嚏</w>
打 倒</w>
扎 根</w>
我 爱你</w>
成 群</w>
悠闲 地</w>
恶 习</w>
性 化</w>
微 风</w>
微 妙</w>
往 返</w>
张 老师</w>
引 用</w>
开 出</w>
废 弃</w>
应 急</w>
干 得</w>
崇 拜</w>
岁 月
山 野</w>
山 下</w>
层 次</w>
尽 管如此</w>
就 别</w>
小 张</w>
小 便</w>
对 外
密 布</w>
家 常
家 务
安 宁</w>
学 弟</w>
好 了</w>
奥林匹 克</w>
失踪 者</w>
太 极</w>
天气 晴朗</w>
大大 小小</w>
大 嫂</w>
大 婶</w>
大 妈</w>
大 军</w>
外 衣</w>
处 世</w>
声 调</w>
填 补</w>
基 层</w>
坏 了</w>
地下 水</w>
地 开</w>
在 所
土 匪</w>
国务 院</w>
国 库</w>
四 方</w>
喝 茶</w>
喝 啤酒</w>
啪 啦</w>
商 标</w>
哎 哟</w>
吸 取
听 觉</w>
听 懂</w>
后 退</w>
吊 唁</w>
合 伙</w>
叹 息</w>
可 取</w>
发 票</w>
发 性</w>
反 应
历 程</w>
历 历
危 险
升 温</w>
十 月</w>
十 多年</w>
十 几
化 解</w>
前 例</w>
削 减</w>
刷 卡</w>
到 头</w>
刮 起</w>
划 拉</w>
出 门
几 块</w>
农 忙</w>
军事 力量</w>
再 也
内 战</w>
内 向</w>
养 殖</w>
六 十</w>
公 文</w>
公 式</w>
候 鸟</w>
侦 查</w>
依 法</w>
住 户</w>
伪 装</w>
传 言</w>
仅 凭</w>
人 去</w>
人 人
交 换
亚 麻</w>
二 年级</w>
事实 真相</w>
事 业
买 房</w>
也 罢</w>
乏 味</w>
为 重要</w>
为 时
丰 厚</w>
两国 间</w>
两国 之间</w>
两 人
丢 人</w>
丝 绸</w>
东 部</w>
专 利</w>
专 人</w>
与此 相反</w>
与其 说是</w>
不论 是</w>
不是 故意</w>
不 顺</w>
不 规则</w>
不 法</w>
不 响</w>
不 分</w>
不 光</w>
不 争气</w>
上 级
上 场</w>
三 年级</w>
三 分之一</w>
万 个</w>
七 点</w>
一 肚子</w>
一 棵树</w>
一 时
一 拳</w>
一 发</w>
一 则</w>
i n
7 00</w>
4 6</w>
鼠 标</w>
魁 梧</w>
高 品质</w>
高 位</w>
首 发</w>
饮食 习惯</w>
飙 升</w>
风俗 习惯</w>
风 浪</w>
风 扇</w>
领事 馆</w>
领 子</w>
领 养</w>
预 防
顾 问</w>
面 纱</w>
青 瓷</w>
露 珠</w>
露 水</w>
难 处</w>
障 碍
降 温</w>
降 到</w>
阿拉 伯</w>
防 水</w>
长 久
长久 以来</w>
重 庆</w>
配 件</w>
那 幢</w>
那 幅</w>
遵 照</w>
遗 症</w>
通 商</w>
适 应
违 宪</w>
远 远
进 门</w>
进 行
进 城</w>
这 颗</w>
迎 面</w>
过 身</w>
边 际</w>
转 过身</w>
跟 前</w>
贪 心</w>
败 者</w>
谢 意</w>
调 味</w>
课 文</w>
课 外
该 项</w>
该 书</w>
话 费</w>
诉 说</w>
议 题</w>
认真 学习</w>
解放 军</w>
视 角</w>
被 褥</w>
被 告
被 动</w>
行 礼</w>
蜂拥 而至</w>
蕾 丝</w>
英 寸</w>
苏 州</w>
花 粉</w>
色 彩
舞 弊</w>
至 此</w>
自来 水</w>
自 称</w>
脸 蛋</w>
背 心</w>
肥 沃</w>
肆 虐</w>
耗 尽</w>
而 然</w>
而 上</w>
老 龄化</w>
老 老
老老 实实</w>
羊 毛</w>
结 了婚</w>
经验 丰富</w>
终 生</w>
练 习
纪念 活动</w>
紧 闭</w>
精 确</w>
粮 食
粗 暴</w>
筹 措</w>
章 鱼</w>
立 足</w>
突 发</w>
秋 千</w>
神 灵</w>
社会 福利</w>
破 损</w>
研究 院</w>
矿 石</w>
石 块</w>
短 裤</w>
短 发</w>
睡 梦中</w>
眼 下</w>
看 得
看 好</w>
相 对
皂 白</w>
百 花
白 眼</w>
留 言</w>
画 作</w>
生态 环境</w>
生命 力</w>
生 于</w>
现实 主义</w>
王 先生</w>
犯 错</w>
牵 手</w>
版 面</w>
熟 练
煽 动</w>
热 议</w>
点 击</w>
炖 菜</w>
漂亮 亮</w>
漂 漂亮亮</w>
满 满</w>
温 泉</w>
渗 透
深 圳</w>
消 沉</w>
海 风</w>
海 带</w>
派 对</w>
法 治</w>
法 令</w>
治 病</w>
求 职</w>
水 蒸气</w>
此 案</w>
此 刻</w>
正 忙
正忙 着</w>
歌 星</w>
植 物
格 式</w>
根 深
根 据
构 建</w>
极 高</w>
来 源于</w>
来 之际</w>
朦 胧</w>
有所 增加</w>
有 损</w>
最 低
曲 调</w>
日 历</w>
无 私</w>
无 名</w>
新闻 报道</w>
新生 儿</w>
斯 科</w>
断 然</w>
斗 士</w>
文 笔</w>
放 开</w>
摇摇 晃晃</w>
搭 乘</w>
提 供
排 出</w>
捐 献</w>
挨 打</w>
挑 起</w>
挂 号</w>
拿 下</w>
招 来</w>
拖 延
拉 扯</w>
批 发</w>
扬 扬</w>
扫 地</w>
打 糕</w>
打 中</w>
手 背</w>
所 能</w>
截 然不同</w>
意 志
情 趣</w>
悬 念</w>
恶 性</w>
恐怖 事件</w>
恐 慌</w>
总 和</w>
性 病</w>
得 出
得出 结论</w>
征 税</w>
强 势</w>
弯 弯
张 罗</w>
弊 端</w>
异 国</w>
开 办</w>
延 误</w>
度 日</w>
常 有</w>
已 然</w>
已 到</w>
崇 高</w>
山 头</w>
就 职</w>
少 说</w>
小 规模</w>
小 组
将 士</w>
对 照</w>
对 人</w>
寄 宿</w>
家 产</w>
宣 称</w>
实验 室</w>
官僚 主义</w>
存 钱</w>
存 有</w>
好 不好</w>
奖 品</w>
奋 力</w>
天 晴</w>
大气 污染</w>
大 坝</w>
大 喊
大喊 大叫</w>
大 发
外 汇
备 战</w>
堤 坝</w>
垫 子</w>
团结 一心</w>
因 涉嫌</w>
回忆 起</w>
嗅 觉</w>
喷 出</w>
商 务
唉 呀</w>
咱 俩</w>
咨 询
吓 了一
吓了一 跳</w>
后 遗症</w>
后 卫</w>
名胜 古迹</w>
名 分</w>
吉 他</w>
各 方</w>
各 处</w>
可 观</w>
只 管</w>
古 怪</w>
叛 军</w>
受 尽</w>
参加 者</w>
参 谋</w>
半 点</w>
千 人</w>
十 二</w>
区 政府</w>
勤 快</w>
募 集</w>
劣 势</w>
剧 增</w>
前 所
到 来之际</w>
分 寸</w>
出 路</w>
几 条</w>
几 家</w>
兼 备</w>
关 头</w>
共同 声明</w>
共同 体</w>
兰 花</w>
八 年</w>
全 额</w>
全 面
入 场
免 不了</w>
光 阴</w>
停 住</w>
借 来</w>
修正 案</w>
修 订
修 行</w>
信 任
保 湿</w>
保 养</w>
你 好</w>
余 生</w>
体 型</w>
伴 侣</w>
传 球</w>
任 性</w>
他 常</w>
人 称</w>
人 之
交 响
交 付</w>
互 不</w>
买 个</w>
乐 园</w>
乌 鸦</w>
之 意</w>
之 力</w>
之 交</w>
久 违</w>
举 手</w>
临 床
中华 民族</w>
世 代
不 过
不 应</w>
不 利于</w>
不 像
下 起</w>
万 幸</w>
一大 笔钱</w>
一 辆车</w>
一 幕</w>
6 3</w>
3 8</w>
2 50</w>
黄 豆</w>
黄 山</w>
麻 醉
高 气
高 呼</w>
高 压</w>
马 虎
风景 画</w>
风 雪</w>
风 味</w>
风 吹
频 频</w>
预算 案</w>
预 选
预选 赛</w>
鞋 底</w>
面 食</w>
露 头
震 动</w>
雷 霆</w>
零 碎</w>
零 下</w>
阴 历</w>
防 备</w>
闭上 眼睛</w>
闪 闪</w>
闪 现</w>
重 重</w>
里 程
采 购</w>
酒 席</w>
邪 恶</w>
那 间</w>
那 套</w>
遇 事</w>
逼 人</w>
造 假</w>
逐 一</w>
退休 金</w>
追 踪</w>
追 查</w>
违 规</w>
远 去</w>
这 棵树</w>
这 会儿</w>
运 输
轻 率</w>
轰 炸</w>
跟 鞋</w>
起 立</w>
赊 账</w>
资本 家</w>
购 置</w>
质 地</w>
责任 感</w>
议 会
警察 厅</w>
规 格</w>
要 死</w>
要 塞</w>
西 藏</w>
西 湖</w>
虚 拟</w>
虚 度</w>
蒸 汽</w>
蒙 受</w>
著 作
落 落</w>
营 企业</w>
花 园里</w>
花 丛</w>
自由 贸易</w>
自 律</w>
自 幼</w>
脏 了</w>
背 面</w>
肖 像</w>
联 络
耶 稣</w>
而 后</w>
考试 成绩</w>
老 练</w>
老 爷
美 容
网 页</w>
网 吧</w>
缓 缓</w>
绵 延</w>
绕 过</w>
结婚 仪式</w>
经 常
终点 线</w>
组 装</w>
组 织
纺 衫</w>
纠 缠</w>
精 致</w>
精 光</w>
第一 印象</w>
笔 者</w>
竭 力</w>
立 案</w>
空 空</w>
秘书 长</w>
磋 商</w>
硬 是</w>
眼 皮</w>
看 人</w>
相 继</w>
直 说</w>
监 察
白 白</w>
白 人</w>
登 台</w>
畿 道</w>
电 车</w>
电 线
生命 危险</w>
甜 美</w>
理发 店</w>
理事 会</w>
理 论
王 宫</w>
率 地</w>
猎 物</w>
牺牲 者</w>
特 别
煎 熬</w>
炒 饭</w>
火 烧
火 山
漠 不
漠不 关心</w>
满 嘴</w>
满 分</w>
湿 度</w>
消化 不良</w>
涂 上</w>
浸 透</w>
浮 出</w>
浓 郁</w>
浓 度</w>
泡 影</w>
没 带</w>
永 不</w>
水 量</w>
毫不 犹豫</w>
正 装</w>
正 义
止 境</w>
歌 剧</w>
款 待</w>
横 幅</w>
模 拟</w>
根据 地</w>
根 儿</w>
样 样</w>
束 手
本 子</w>
替 换</w>
暖 气</w>
显示 器</w>
显 微
显微 镜</w>
时 速</w>
日 夜</w>
无线 电</w>
无 情
施工 现场</w>
新鲜 空气</w>
新 兴</w>
文 具
文 书</w>
救 灾</w>
放 心
放 出</w>
改 正
改 宪</w>
收 起</w>
摇 滚</w>
摆 放着</w>
掘 出</w>
捕 获</w>
挺 拔</w>
指 纹</w>
拖延 时间</w>
拍 打着</w>
拆 除</w>
拆 掉</w>
抗 日</w>
抗 拒</w>
投 向</w>
承 受
扭 曲</w>
执 法</w>
打 理</w>
所 得</w>
戴 眼镜</w>
意 识
情 调</w>
恶 魔</w>
恶 臭</w>
总 之</w>
急 刹车</w>
怒 气</w>
必 然
心 胸</w>
心 爱</w>
心 扉</w>
录 取
当 着</w>
弄 脏了</w>
开发 新</w>
开 往</w>
座 右
座右 铭</w>
底 儿</w>
广播 电台</w>
年 龄
年 终</w>
平 底
平 和</w>
干净 利落</w>
干 预</w>
席 子</w>
巷 子</w>
巨大 损失</w>
山 间</w>
山 中</w>
层 层</w>
尺 度</w>
尝 尝</w>
尖 端
少数 民族</w>
小 鸭</w>
小 菜</w>
寻 觅</w>
寒 风</w>
审 美</w>
实 物</w>
安全 性</w>
威 严</w>
妹 俩</w>
妇 人</w>
好 几</w>
失业 者</w>
失 礼</w>
天 文</w>
大大 的</w>
大众 文化</w>
大 碗</w>
大 法官</w>
多 重</w>
多 功能</w>
外 国
外 向</w>
墨 西
增 高</w>
增 产</w>
墙 面</w>
垄 断</w>
地 看</w>
地 直</w>
地 往</w>
地 为</w>
回 家
四 面</w>
嘈 杂</w>
嗓 门</w>
喊 叫</w>
哼 哼</w>
咕 噜</w>
呼 唤</w>
呼 呼地</w>
吸取 教训</w>
吵 吵
听 课</w>
听 得</w>
君 主</w>
向 阳</w>
后 头</w>
同 桌</w>
各 人</w>
司法 部</w>
右 侧</w>
古 时</w>
发 软</w>
发 觉</w>
反 击</w>
去 玩</w>
压 低</w>
危 急</w>
印 章</w>
千 里
十 名</w>
十 万</w>
化 石</w>
勤 俭</w>
剧 团</w>
前 天</w>
到 头来</w>
到 场</w>
创 伤</w>
切 勿</w>
击 退</w>
出 去玩</w>
几 只</w>
冲 破</w>
冲 向</w>
冥 想</w>
内 地</w>
养 育</w>
养 殖
其 事</w>
公 益
公 子</w>
全 靠</w>
免疫 力</w>
光 景</w>
充满 活力</w>
充 饥</w>
充 当</w>
儿童 节</w>
停 业</w>
倾 泻</w>
债 主</w>
保 育</w>
便 利
依 托</w>
使 出</w>
作 曲
体 裁</w>
传 唤</w>
会 馆</w>
仔细 观察</w>
仓 促</w>
人 间
人 种</w>
亲眼 目睹</w>
亲 友</w>
京 畿道</w>
云 密布</w>
事 已
争 执</w>
书 架上</w>
乐 天</w>
主 犯</w>
主 演</w>
为 生</w>
中央 政府</w>
世 事</w>
专 长</w>
专 职</w>
不像 话</w>
不 至于</w>
不 爱</w>
不 慎</w>
不 免</w>
不 为
不 下雨</w>
下 结论</w>
下 列</w>
上 风</w>
三 千</w>
万 年</w>
一天 到晚</w>
一 贯
一 股
一 耸</w>
一 秒</w>
一 票</w>
一 包</w>
一 侧</w>
一 举</w>
9 00</w>
4 8</w>
20 13</w>
鼻 梁</w>
黑 社会</w>
黄 昏</w>
麦克 风</w>
鸦 雀
鸦雀 无声</w>
鱼 类</w>
高 跟鞋</w>
高 楼</w>
香 水</w>
飞 速</w>
飞 跃</w>
飞 来
颤 动</w>
预 赛</w>
预 习</w>
颁 发</w>
顶 尖</w>
音乐 家</w>
韩 式</w>
非 同
非 典</w>
露头 角</w>
难 闻</w>
隔 离</w>
险 恶</w>
限 性</w>
闹 闹</w>
闯 红灯</w>
闯 入</w>
闪 亮</w>
长 途</w>
铜 像</w>
钻 进</w>
钱 儿</w>
钢 丝</w>
酷 无情</w>
配 角</w>
部 落</w>
邪 气</w>
那 本</w>
避 难</w>
遗 漏</w>
选 择
退 缩</w>
退 役</w>
迷 你</w>
迫 使</w>
这 点儿</w>
这 伙</w>
过 难关</w>
过 得
辅 助</w>
轻 柔</w>
转 化</w>
跟 踪</w>
超 群</w>
起 精神</w>
败 坏</w>
负 面</w>
负 债</w>
贝 壳</w>
谜 语</w>
调 到</w>
诺贝 尔
诱 人</w>
诗 集</w>
认 错</w>
西 南</w>
褪 色</w>
被 窝</w>
表 面
衣 领</w>
蒙 古</w>
落 成</w>
落 山</w>
营养 成分</w>
菊 花</w>
莫 大</w>
药 水</w>
药 剂
药剂 师</w>
茶 叶</w>
花 样</w>
节 制</w>
艺术 性</w>
船 长</w>
自然 而然</w>
自 治
自 小</w>
自 如</w>
自 卑
腿 脚</w>
脸 红</w>
脱 下来</w>
脑 后</w>
聊 天
耷 拉</w>
而 知</w>
老 爷爷</w>
翻 过来</w>
美 化</w>
缝 纫
统 合</w>
给 出</w>
细 微</w>
纪 录
纪录 片</w>
紧 身</w>
精 英</w>
管理 员</w>
管理 人员</w>
管 弦
第 五
笛 声</w>
窟 窿</w>
窗 子</w>
稻 草</w>
稻 田</w>
秘书 官</w>
种族 歧视</w>
社会 各界</w>
礼 拜
知 晓</w>
睡 醒</w>
睡 懒觉</w>
睁 不开</w>
看 清</w>
直 径</w>
百 济</w>
百 日</w>
留 着</w>
电线 杆</w>
用 电</w>
用 不着</w>
生 平</w>
瑞 典</w>
理 财</w>
理 应</w>
珍 岛</w>
现 今</w>
玩 游戏</w>
玩 水</w>
率 先</w>
猛 然</w>
独 有</w>
犯 困</w>
牙 刷</w>
熟 睡</w>
煤 矿</w>
然 无
热 门
热 情
灯 泡</w>
演 艺</w>
漏 水</w>
滴 滴</w>
渔 夫</w>
清 洁
淑 女</w>
涌 出</w>
海 报</w>
测 量
流 向</w>
洁 白</w>
没 多久</w>
沉 闷</w>
江 面</w>
气 来</w>
民间 故事</w>
毫 米</w>
毛 毛
欢 喜</w>
模 糊不清</w>
梅 花</w>
格 局</w>
格 子</w>
标 语</w>
查 清</w>
柜 子</w>
染 色</w>
极 好</w>
机械 化</w>
机 遇</w>
本 土</w>
有 者</w>
有 病</w>
暴 风</w>
暗 杀</w>
昨 天
星期 日</w>
昏 暗</w>
明 真相</w>
昌 盛</w>
时 局</w>
时 刻
日 趋</w>
日 来</w>
无情 地</w>
无 形</w>
旋 风</w>
新 意</w>
新 学期</w>
整 日</w>
故 人</w>
擦 掉</w>
摇 滚
搬 走</w>
揭 示</w>
提 及</w>
挡 不住</w>
指 南</w>
招 致</w>
担 负</w>
抵 御</w>
报 刊</w>
抢 眼</w>
打 起精神</w>
打 成</w>
手 指头</w>
房 顶</w>
我 往</w>
意识 形态</w>
想 一想</w>
悲 哀</w>
悬 案</w>
恐怖 分子</w>
总 要</w>
急 事</w>
怀 有</w>
必 胜</w>
必 定会</w>
心 想</w>
心 情
心 怀</w>
很 晚</w>
彼 此
彷 徨</w>
强烈 要求</w>
异 议</w>
开 拓</w>
底 部</w>
广播 电视</w>
广 大
干 瘦</w>
带 动</w>
已 婚</w>
岳 山</w>
履 行
尽 早</w>
尽 心
小 贩</w>
小 腿</w>
寄 给</w>
寄 托</w>
审 核</w>
宝 物</w>
守 旧</w>
宇航 员</w>
宁 静</w>
学生 家长</w>
孤 单</w>
娴 熟</w>
威 夷</w>
如 流</w>
奉 承</w>
夺 走</w>
失 措</w>
失 掉</w>
太 慢</w>
天 安
天 主教</w>
大 道</w>
大 炮</w>
大 山</w>
大 于</w>
多 长时间</w>
多 达</w>
外 援</w>
夏 威夷</w>
增 加
塌 下来</w>
堆 积
城 镇</w>
城 墙</w>
坡 路</w>
坠 落</w>
坚持 到底</w>
坎 坷</w>
场 内</w>
在 目</w>
圣 人</w>
国家 足球队</w>
国 宝</w>
困 得</w>
嘟 噜</w>
售 价</w>
哗啦 啦</w>
向 下</w>
后 院</w>
合 着</w>
吃 得
吃 不下</w>
可 行</w>
口 感</w>
变 色</w>
变 数</w>
发 电
发 热</w>
反 面</w>
反 动
友 谊
参 赛
去 处</w>
历历 在目</w>
博 得</w>
卖 店</w>
单 方面</w>
升 值</w>
十二 点</w>
十 多岁</w>
势 必</w>
动 听</w>
功 绩</w>
前 年</w>
前 人</w>
刺 鼻</w>
刮 得</w>
创 性</w>
列 为</w>
分 娩</w>
击 出</w>
凶 狠</w>
几 号</w>
冷 风</w>
冬 奥会</w>
再 次
再 度</w>
内 侧</w>
具体 情况</w>
关键 在于</w>
关 进</w>
公平 交易</w>
公 演</w>
全球 化</w>
全 校</w>
元 老</w>
儒 家</w>
偷 拍</w>
保 全</w>
你 老</w>
低 廉</w>
会 计
休 闲
他 病</w>
从 容</w>
人情 味</w>
人 道</w>
人 世</w>
产业 化</w>
交易 所</w>
交 战</w>
事 到
争 夺
了一 跤</w>
九 点</w>
乐 谱</w>
乐 曲</w>
之 美</w>
之 手</w>
义 务
久 性</w>
主 儿</w>
个 世纪</w>
两 部</w>
两 得</w>
两 句</w>
东南 亚</w>
东 海</w>
业 余</w>
丘 陵</w>
不用 说</w>
不 齐</w>
不 听话</w>
不 发</w>
不 决</w>
不 作
不 一会儿</w>
下 过</w>
一千 元</w>
一举 两得</w>
一 锅
一 觉</w>
一 袋</w>
一 局</w>
7 5</w>
5 6</w>
5 3</w>
4 000</w>
鸭 子</w>
鲤 鱼</w>
高尔夫 球场</w>
骑 着</w>
香 喷喷</w>
飞 扬</w>
风 险
颜 料</w>
预 感</w>
顺 便
面 容</w>
面 团</w>
非 法行为</w>
青 年
零 售</w>
陷入 困境</w>
陪 同</w>
附 加</w>
阴 沉</w>
长 远</w>
长 发</w>
镀 金</w>
错 误
错 事</w>
锅 炉</w>
锅 巴</w>
铅 笔
钟 表</w>
钓 到</w>
钉 截
钉截 铁</w>
重新 做人</w>
重 要
重 于</w>
采 访
邀 请
遗传 基因</w>
逝 去</w>
递 员</w>
选举 法</w>
逆 行</w>
逃 税</w>
追 逐</w>
连 胜</w>
连 夜</w>
进 取</w>
这 架</w>
过 时</w>
迁 徙</w>
辱 骂</w>
辞 退</w>
辅 佐</w>
软 弱</w>
转 会</w>
身 处</w>
跳 槽</w>
越来 越
走 得</w>
走 开</w>
赦 免</w>
赞 美</w>
赌 场</w>
费 心</w>
贯 穿</w>
象 棋</w>
课 长</w>
课 外</w>
说 笑话</w>
说 唱</w>
语 音</w>
评 选</w>
议会 选举</w>
认 不
警 备</w>
言 蜚
言蜚 语</w>
要 领</w>
要 钱</w>
要 用</w>
要 害</w>
西 边</w>
西 北</w>
被告 人</w>
草 案</w>
草 木</w>
茂 密</w>
若 无
芳 香</w>
花 光</w>
节 能</w>
航 海</w>
致 富</w>
自 负</w>
自 家</w>
自 夸</w>
自 一人</w>
脚 底</w>
胡 须</w>
胡 闹</w>
胜 过</w>
胜 任</w>
胖 乎乎</w>
胆 子</w>
肩 负</w>
股票 价格</w>
股 指</w>
肆 意</w>
聚 到</w>
耗 子</w>
耕 种</w>
老 鼠
翻 开</w>
罚 金</w>
继 母</w>
经济 指标</w>
经 纪
经纪 人</w>
终 身
终 究
终究 会</w>
纸 条</w>
红 豆</w>
繁 华</w>
素 食</w>
糖 醋</w>
米 酒</w>
答 题</w>
等 奖</w>
站 不
穷 困</w>
稿 件</w>
科学 研究</w>
私 家
禽 流感</w>
硕 士学位</w>
研 修</w>
眺 望</w>
相 隔</w>
相 助</w>
直 达</w>
盛 夏</w>
的 是</w>
生产 力</w>
琐 碎</w>
珍 稀</w>
玩 吧</w>
玉 米
独 自一人</w>
牵 着鼻子</w>
物 种</w>
熟 知</w>
烟 囱</w>
烈 日</w>
炽 热</w>
点 名</w>
潜 水
溜 儿</w>
湖 边</w>
游击 队</w>
温 馨</w>
清 白</w>
消 遣</w>
海 警</w>
海 盗</w>
海 洋
流 言蜚语</w>
流 产</w>
洗衣 店</w>
洗 澡
洗 手</w>
洗 净</w>
泰 国</w>
波 动</w>
沮 丧</w>
没 落</w>
水 泡</w>
民 谣</w>
毫无 根据</w>
每 隔</w>
母 校</w>
步 子</w>
欢 快</w>
樱 花</w>
根本 无法</w>
林 中</w>
板 凳</w>
松 弛</w>
未 有</w>
朋 友
有钱 人</w>
有 机
有 把握</w>
月 刊</w>
曼 联</w>
晕 倒</w>
时 不时</w>
早 年</w>
无一 失</w>
无 谓</w>
方 位</w>
新 进</w>
新 村</w>
新 星</w>
斩 钉截铁</w>
文学 作品</w>
文化 交流</w>
数学 题</w>
数 据
敌 方</w>
支持 率</w>
播 音
摊 子</w>
插 入</w>
提前 完成</w>
掺 和</w>
掩 埋</w>
推 到</w>
探 险</w>
探 亲</w>
掠 过</w>
排 挤</w>
掀 开</w>
振 作
挥 手</w>
挑 食</w>
挑 战
拘 束</w>
报 名
抢 劫
投 标</w>
投 放</w>
承担 责任</w>
打 印机</w>
扑 通</w>
手 提包</w>
手 感</w>
手 册</w>
所 致</w>
所 有权</w>
战 后</w>
戒 掉</w>
我 点</w>
我 心</w>
我 以</w>
成 名</w>
憔 悴</w>
憎 恶</w>
慈 善
惊 慌</w>
恤 衫</w>
恐 龙</w>
恐 吓</w>
急 躁</w>
急 急
忽 略</w>
快 快</w>
忘 不了</w>
心脏 病</w>
心 跳</w>
弯 腰</w>
引 来</w>
废 物</w>
平 台</w>
布 满</w>
布 局</w>
已 成</w>
己 主义</w>
工作 效率</w>
巡 视</w>
展 览
局 限性</w>
尽量 避免</w>
小 鸡</w>
小 瞧</w>
对 峙</w>
密 集</w>
宽 大</w>
客 轮</w>
客 房</w>
实 力
宝 座</w>
定 做</w>
安全 带</w>
学 期
媳 妇
媳妇 儿</w>
始 于</w>
妥善 解决</w>
好 时光</w>
头 部</w>
头 脑
失业 率</w>
太 晚</w>
太 好了</w>
大吃 一惊</w>
大发 雷霆</w>
大 面积</w>
大 口</w>
夜 色</w>
基本 权利</w>
地 转</w>
地 用</w>
地 理
地 势</w>
因 子</w>
回 首</w>
回 乡</w>
嘴 边</w>
啊 哈</w>
唐 朝</w>
呼 噜</w>
周 一</w>
含 糊</w>
后 者</w>
同 伴</w>
吃 剩</w>
可 用</w>
叮 嘱</w>
口 音</w>
口 语</w>
发 霉</w>
发 酸</w>
发 病</w>
发 点</w>
发 布
反 美</w>
双 臂</w>
参 战</w>
厨 艺</w>
原始 森林</w>
原 木</w>
动 性</w>
务 农</w>
加 紧</w>
前 要</w>
到 家</w>
利 己主义</w>
列 强</w>
刑 罚</w>
分 割</w>
刀 割</w>
出 家</w>
出 任</w>
凉 鞋</w>
冬 日</w>
农 家</w>
八 方</w>
全 年</w>
入 选</w>
充分 利用</w>
兄 妹</w>
元 化</w>
健 壮</w>
修 饰</w>
修 长</w>
修 炼</w>
信 奉</w>
俗 称</w>
便 饭</w>
侨 胞</w>
侍 奉</w>
作曲 家</w>
作 案</w>
余 额</w>
低 温</w>
伤 痕</w>
传 入</w>
传 下来</w>
优 越
休 日</w>
价 廉</w>
以 求</w>
令人 讨厌</w>
代 名词</w>
他 成</w>
介 绍
人事 变动</w>
人 格
人 多</w>
京 畿</w>
五 花
五 千</w>
互相 帮助</w>
事 无
书 上</w>
九 个</w>
主导 权</w>
主 见</w>
中 风</w>
个人 主义</w>
个 星期</w>
严 肃
两 派</w>
两 方</w>
两 下</w>
丢 弃</w>
东 海岸</w>
专 家
丑 恶</w>
不 计
不 留</w>
不 熟</w>
不 服</w>
不 复
不 信</w>
下 棋</w>
上 半场</w>
三角 形</w>
万 岁</w>
七 十</w>
一大 批</w>
一分 钱</w>
一 缕</w>
一 等</w>
一 时间</w>
一 帮</w>
一 亮</w>
199 9</w>
黑 烟</w>
麻 将</w>
麦 子</w>
鸟 类</w>
鱼 儿</w>
高度 评价</w>
验 收</w>
驱 逐
香 甜</w>
香 油</w>
餐 具</w>
食 品
飞来 飞去</w>
飘 起</w>
风 采</w>
颇 为</w>
预 示</w>
顾 忌</w>
顺利 进行</w>
静 坐
静坐 示威</w>
雪 岳山</w>
集 装箱</w>
雅 致</w>
隐约 可见</w>
除 掉</w>
阵 阵</w>
阐 述</w>
问 话</w>
长途 旅行</w>
长 达</w>
长 得
锲 而不
锲而不 舍</w>
银 色</w>
重 返</w>
重 组</w>
里程 碑</w>
酷 热</w>
那 首</w>
那 部</w>
那 支</w>
造 诣</w>
透明 性</w>
透 出</w>
选 票</w>
迹 般地</w>
进 货</w>
这 般</w>
这 样
这 帮</w>
过得 去</w>
过 重</w>
过 早</w>
过 世</w>
边 境</w>
边 倒</w>
辛勤 工作</w>
辅 导
跳 进</w>
跳 跳</w>
路 旁</w>
赶 走</w>
走 去</w>
赛 车</w>
负 着</w>
说 明书</w>
该 报</w>
话 不
诗 句</w>
试 题</w>
论 者</w>
记 者
言 不
解 渴</w>
角 度
觉 醒</w>
装 载</w>
裂 痕</w>
被 压迫</w>
表 演
行李 箱</w>
行 家</w>
行 动
行 不通</w>
蜿 蜒</w>
蕴 含着</w>
蒂 固</w>
葱 葱</w>
荒 废</w>
茬 儿</w>
茄 子</w>
英 明</w>
花 鱼</w>
花 招</w>
节约 能源</w>
艺术 作品</w>
舞 会</w>
至 终</w>
自卑 感</w>
自动 化</w>
自 大</w>
自 以为
腹 泻</w>
脚 印</w>
脑 汁</w>
能 行</w>
胸 中</w>
肥 皂
联合 会</w>
而 过</w>
而 生</w>
而 易
老 同学</w>
翻 滚</w>
美国 大使馆</w>
美 元
美 人</w>
置 信</w>
罗 马
网络 游戏</w>
缝纫 机</w>
缘 分</w>
绯 闻</w>
结 冰</w>
终 结</w>
纯 真</w>
纪念 馆</w>
繁 重</w>
繁 荣
紧 身
紧 要</w>
紧 带</w>
粗 鲁</w>
签 约</w>
答 辩</w>
第二 次世界大战</w>
第 五</w>
笔 记</w>
笔 直</w>
笔 画</w>
空 洞</w>
祖 母</w>
礼 金</w>
瞻 仰</w>
着 凉</w>
眼 底</w>
眼 帘</w>
真 伪</w>
真 不错</w>
相 会</w>
盗 窃</w>
盖 章</w>
监 管</w>
皮 包</w>
白 糖</w>
白 昼</w>
畅 销</w>
画 片</w>
画 得</w>
画 儿</w>
男女 平等</w>
电脑 游戏</w>
电子 产品</w>
甲 板</w>
田 园</w>
用 药</w>
用 处</w>
生活 用品</w>
生命 体</w>
生 非</w>
琐 事</w>
理想 主义</w>
理 工
班 同学</w>
现 已</w>
献 身</w>
特 检</w>
版 本</w>
热 乎乎</w>
烈 火</w>
点 着</w>
火 锅</w>
激动 人心</w>
滴 水
滑雪 场</w>
滑 行</w>
溢 着</w>
湖 南</w>
渗透 到</w>
渐 进</w>
清 溪</w>
清 廉</w>
深 情</w>
淋 得</w>
消防 员</w>
消 耗
消 息
海 拔</w>
海 军
浓 缩</w>
浓 的</w>
浓 浓的</w>
测量 方法</w>
流 程</w>
活 字</w>
洪 灾</w>
洋 溢着</w>
泰 斗</w>
注 射
波 斯
泡 沫
泛 起</w>
法 务部</w>
没 睡</w>
没 剩</w>
江 山</w>
水 壶</w>
水 产品</w>
气候 变化</w>
气 势
民 工</w>
毕 生</w>
毒 素</w>
毁 灭</w>
毁 坏</w>
残 留</w>
武 汉</w>
此 举</w>
歌 坛</w>
欧 盟</w>
欢 呼声</w>
檐 下</w>
模 一样</w>
森 林
框 框</w>
桃 子</w>
格 兰</w>
根深 蒂固</w>
核 对</w>
标 题</w>
查 询</w>
柠 檬</w>
枪 支</w>
极 限</w>
松 紧带</w>
来 宾</w>
条 理</w>
条 例</w>
杀人 犯</w>
机 枪</w>
期 中
期中 考试</w>
服务 器</w>
有 神</w>
曾 祖父</w>
暗 淡</w>
易 于</w>
明 确
旱 田</w>
旧 衣服</w>
日益 严重</w>
日 军</w>
无数 次</w>
无 影
无 形
无 关
新 奇</w>
斧 子</w>
斧 头</w>
斗 山</w>
敷 衍</w>
数码 相机</w>
数学 考试</w>
教育 厅</w>
救 人</w>
放 暑假</w>
改革 方案</w>
播音 员</w>
撤 回</w>
撕 开</w>
摒 弃</w>
摄像 机</w>
接 纳</w>
据 此</w>
挫 败</w>
挪 到</w>
挨 饿</w>
拆 卸</w>
抨 击</w>
报 以</w>
投 身</w>
技 法</w>
批发 市场</w>
打 字</w>
所 长</w>
所 知</w>
我 敢</w>
成 不了</w>
成 一团</w>
感 恩</w>
意 外
意 味</w>
惹 祸</w>
想 不出</w>
惩 戒</w>
恳 切</w>
恩 情</w>
怨 恨</w>
急 救</w>
思 路</w>
忘 却</w>
忍 受
忌 讳</w>
心 所
微 小</w>
很 近</w>
录 像
当 地人</w>
强 劲</w>
开 放
开 垦</w>
建 起</w>
座 楼</w>
底 子</w>
并非 如此</w>
平 庸</w>
干 不了</w>
常 规</w>
工艺 品</w>
工作 制</w>
巡 回
峭 壁</w>
山 河</w>
就 任</w>
少 量</w>
小 钱</w>
小 猪</w>
小 儿子</w>
导 师</w>
密切 相关</w>
密 封</w>
宣 判</w>
宗教 信仰</w>
安 稳</w>
安 放</w>
守 住</w>
妥善 处理</w>
如 焚</w>
好 运</w>
奶 牛</w>
奥 妙</w>
奇 迹般地</w>
太 远</w>
大 话</w>
大 白天</w>
大 喊</w>
大 关</w>
夜 深</w>
夜 景</w>
多样 性</w>
多 方面</w>
多 出</w>
外来 文化</w>
填 饱</w>
基础 设施</w>
坚持 下去</w>
坚 信</w>
坏 蛋</w>
地 价</w>
在 职</w>
在 此
固 定
回 头
喝 光</w>
商业 街</w>
商 定</w>
哈 欠</w>
品 行</w>
咯 吱</w>
咧 咧</w>
员 国</w>
吹 牛</w>
吐 出来</w>
后 进</w>
后 跟</w>
后 腿</w>
名 著</w>
合 理
合 影</w>
吃 晚饭</w>
吃 奶</w>
右 翼</w>
右 派</w>
可 要</w>
只 想</w>
发表 意见</w>
发 电站</w>
发 牢骚</w>
反 恐</w>
友谊 赛</w>
参 与
厢 房</w>
厚 度</w>
历 届</w>
厂 家</w>
卖 完</w>
十 周年</w>
医疗 保险</w>
剽 窃</w>
刺 耳</w>
刷 刷</w>
别 管</w>
利 地</w>
创 刊</w>
创 出</w>
分 量</w>
出生 率</w>
出人 意料</w>
出 海</w>
几 声</w>
减 退</w>
冷 酷无情</w>
决 出</w>
冲 出</w>
军事 演习</w>
写 错</w>
养 老金</w>
养 活</w>
典 范</w>
公共 场所</w>
公 寓
公 元</w>
八 字</w>
全 书</w>
入 口处</w>
兜 里</w>
克 服
先 烈</w>
兄弟 姐妹</w>
元 前</w>
健身 房</w>
停 战</w>
偏 离</w>
倒 退</w>
信息 技术</w>
信 誉</w>
信 儿</w>
使 眼色</w>
体 检</w>
低 级</w>
伸 向</w>
伎 俩</w>
仰 望</w>
以 待</w>
以 备</w>
令人 满意</w>
从头 到
人造 卫星</w>
人 文
亲 身</w>
产 妇</w>
五 分钟</w>
云 集</w>
了 钱</w>
了 结</w>
之 士</w>
之 以
之 争</w>
久 远</w>
乃 至</w>
为 准</w>
丰 富
中 药</w>
中 是</w>
中 日</w>
中 文
中 心
丧 事</w>
两 碗</w>
丢 下</w>
业 务
世 袭</w>
与 会</w>
不 屈</w>
不 一</w>
下 方</w>
下 台</w>
下 一代</w>
上 诉</w>
上 画</w>
上 海
上 报</w>
上 头</w>
万 册</w>
万 事
七 岁</w>
一 连
一 级</w>
一 模一样</w>
一 整夜</w>
一 地</w>
一 听</w>
8 000</w>
默默 无
鲜 血</w>
高 雅</w>
骨 折</w>
驰 骋</w>
马 车</w>
首要 任务</w>
饥 荒</w>
餐 饮
食物 中毒</w>
飘 飘</w>
颠 覆</w>
顾 及</w>
须 知</w>
顺 手</w>
非 法
非 得</w>
非 主流</w>
霸 道</w>
露 出来</w>
雪 球</w>
雪 橇</w>
难 办</w>
陷 于</w>
陆 战
陆战 队</w>
附 属</w>
附 加
闲 暇</w>
闭 幕</w>
闭 上</w>
长 着</w>
锐 利</w>
锋 相对</w>
锃 亮</w>
铁 丝</w>
针 锋相对</w>
针 织
针织 衫</w>
重 现</w>
重 感冒</w>
重 修</w>
里 边</w>
酸 溜溜</w>
配 置</w>
邮 递员</w>
那 双</w>
那 份</w>
那 一刻</w>
遗 像</w>
道 主义</w>
通 讯
通 信
逆 差</w>
退 货</w>
退 学</w>
迫 不及
迫不及 待</w>
进 水</w>
这样 一来</w>
这 款</w>
这 出</w>
运动 服</w>
迈 进</w>
过 滤</w>
过 儿</w>
辐 射</w>
转 悠</w>
转 弯</w>
转 到</w>
车 库</w>
路 灯</w>
路 来</w>
跑 过来</w>
跑 出去</w>
足 足</w>
趋 于</w>
起 路来</w>
起 亚</w>
赶 路</w>
走 钢丝</w>
走 起路来</w>
走 来
走来 走去</w>
购 房</w>
购 买
贪 官
贪官 污
贪官污 吏</w>
货 币
财政 支出</w>
财 经
财 源</w>
负 面
负 伤</w>
谷 物</w>
课 本</w>
评 委</w>
证券 公司</w>
记 号</w>
认不 出来</w>
警察 署</w>
触 摸</w>
解 读</w>
角 逐</w>
觉 悟</w>
见 面
要 职</w>
装 饰品</w>
装 运</w>
血 汗</w>
蜻 蜓</w>
蛛 网</w>
蓝 图</w>
落 空</w>
荡 漾</w>
草 率</w>
致 辞</w>
致 以</w>
自 转</w>
自 制</w>
自 主
脱 北者</w>
脚 步
脚步 声</w>
胳膊 肘</w>
肖 像
肉 类</w>
聪 明
聚 力</w>
联合 国
耐 力</w>
考 虑
老 远</w>
老 少</w>
罪 恶</w>
罪 人</w>
绸 缎</w>
细 雨</w>
细 细
纽 扣</w>
纤 细</w>
糕 点</w>
篮 球
笼 子</w>
第一 届</w>
笔 试</w>
笑 语</w>
端 午
端午 节</w>
突 袭</w>
穷 光
穷光 蛋</w>
稻 谷</w>
税 制</w>
积 压</w>
科学 知识</w>
私 立学校</w>
私 立</w>
禁 忌</w>
神 父</w>
社会 治安</w>
磨 难</w>
碗 饭</w>
瞧 不起</w>
睁 开
着 实</w>
真 棒</w>
看 重</w>
看 一看</w>
相 连</w>
盲 目
盖 上</w>
监 控</w>
百货 商场</w>
癌 细胞</w>
瘦 得</w>
痒 痒</w>
略 有</w>
男 孩儿</w>
男 士</w>
甩 开</w>
生态 系统</w>
生产 量</w>
生 肖</w>
甜 头</w>
甚 远</w>
甘 情愿</w>
瑕 疵</w>
球 门</w>
球 星</w>
现 在
现在 起</w>
玛 丽</w>
独 断
独 创性</w>
犹豫 不决</w>
特 种
爵士 乐</w>
熨 烫</w>
热门 话题</w>
热 火
热火 朝天</w>
烧 焦</w>
烦 人</w>
烟 头</w>
烘 烘</w>
炮 火</w>
炮 声</w>
火 苗</w>
火 灾
激 活</w>
激 化</w>
澡 堂</w>
演 变成</w>
滴水 不漏</w>
满 怀</w>
游泳 池</w>
清 脆</w>
清 清
清 晰
添 麻烦</w>
混 在</w>
深 层</w>
淡 水</w>
涌 现出</w>
海 鸥</w>
海 岸
津 津
洞 穴</w>
洛 阳</w>
洋 葱</w>
油 田</w>
油 炸</w>
没 指望</w>
没 出息</w>
汇 集</w>
求 学</w>
比 试</w>
每 星期</w>
母 鸡</w>
殿 堂</w>
死 板</w>
此 项</w>
此 类</w>
此 理</w>
正常 化</w>
正 向</w>
歌 谣</w>
次 序</w>
横 跨</w>
楼 上</w>
档 案</w>
桌 面</w>
案 发
柔 道</w>
杂 念</w>
杀 菌</w>
朋友 家</w>
有 何</w>
暴 跌</w>
暴 徒</w>
晋 级</w>
是 谁</w>
星期 一</w>
明 智
时 有</w>
时 时</w>
日程 安排</w>
无影 无踪</w>
无 意识</w>
新 党</w>
斯 坦</w>
文具 店</w>
数 千</w>
教 给</w>
救 济</w>
敏 捷
敌 机</w>
政治 犯</w>
放 上</w>
收 眼底</w>
收 益
收 割</w>
攀 岩</w>
擦 拭</w>
携 手</w>
插 进</w>
插 上</w>
接 任</w>
接 下来</w>
换 句
换句 话说</w>
捕 捉</w>
挺 立</w>
披 露</w>
护 人</w>
抢 夺</w>
抄 袭</w>
技术 革新</w>
扩 建</w>
扣 押</w>
扣 子</w>
打 赢</w>
打 来</w>
打 斗</w>
手 术
或 缺</w>
我 哥</w>
成 见</w>
意 见
愈 合</w>
惶 惶</w>
想 得到</w>
想 不起来</w>
惊 吓</w>
恳 求</w>
急急 忙忙</w>
急 于</w>
思 潮</w>
怎么 着</w>
心 甘情愿</w>
得 多</w>
征 求</w>
往 上爬</w>
形 象
当 真</w>
当 兵</w>
归 于</w>
弃 物</w>
应 邀</w>
并 存</w>
年 老</w>
平均 寿命</w>
平 行</w>
干 吗</w>
师 生</w>
已 故</w>
左 侧</w>
山 东</w>
屋 檐下</w>
尽 收眼底</w>
就 会</w>
尖 儿</w>
小小 年纪</w>
小 手</w>
小 吃
小 儿</w>
射 箭</w>
对 准</w>
寸 步
宾 客</w>
宽 恕</w>
家电 产品</w>
审 问</w>
审 批</w>
实用 性</w>
定 论</w>
完 好</w>
安 乐
孝 子</w>
字 形</w>
字 幕</w>
子 树</w>
婚 纱</w>
始 至终</w>
好 歹</w>
好 喝</w>
好 几年</w>
奶 酪</w>
奴 隶
奋 战</w>
太 鱼</w>
太 长</w>
太 薄</w>
大 鱼</w>
大 肆</w>
大 幅
大 屏幕</w>
大 便</w>
多 远</w>
外 国语</w>
壶 里</w>
基 金
培训 班</w>
地 过</w>
地 球
地 流</w>
地 干</w>
在 座</w>
圣 经</w>
图 像</w>
国 债</w>
固 体</w>
困 惑</w>
回家 吧</w>
四 起</w>
嘴 皮子</w>
售货 机</w>
哈 哈
哀 求</w>
咬 住</w>
咕 咕</w>
告 栏</w>
告 别
听 闻</w>
听 力</w>
君 王</w>
后 要</w>
号 称</w>
口 中</w>
叛 徒</w>
变 迁</w>
变 好</w>
受 罚</w>
受 益</w>
发布 会</w>
发 红</w>
发 球</w>
发 来</w>
反 过来</w>
反 动</w>
双 龙</w>
双 亲</w>
厨 房
原 子</w>
压 榨</w>
压 倒</w>
即 兴</w>
南 大门</w>
卖 会</w>
单 间</w>
午 夜</w>
升 到</w>
医疗 费</w>
医 学
匹 马</w>
北 极</w>
包 围
勾 起</w>
动 荡</w>
动 工</w>
功 臣</w>
办 完</w>
劈 开</w>
剧 烈</w>
别 国</w>
删 掉</w>
划 一</w>
切 实际</w>
分 晓</w>
分 店</w>
出 资</w>
出 没</w>
出 发点</w>
准 时
冲 着</w>
冰 雹</w>
冰 雪</w>
冰 上</w>
冤 枉
再 起</w>
再 犯</w>
再 婚</w>
共 度</w>
公 益</w>
全 部
全 程</w>
全 校
全 村</w>
全 市</w>
全 副
入场 券</w>
偷 东西</w>
偏 要</w>
修 补</w>
修 宪</w>
供 奉</w>
住 房
住 处</w>
低 沉</w>
低 收入</w>
传 媒</w>
会 费</w>
优秀 人才</w>
休息 时间</w>
休息 室</w>
他 出</w>
从 这
从 现在起</w>
今年 冬天</w>
今天 上午</w>
人力 资源</w>
人 道主义</w>
人 用</w>
人 文</w>
亲 生</w>
亲 戚
亲 属</w>
京 城</w>
产 值</w>
交通 规则</w>
交 流
交 接</w>
五 百
事 是</w>
买 回来</w>
书 生</w>
乌 龟</w>
之 路</w>
举 措</w>
临 床</w>
中 游</w>
中 奖</w>
中 以</w>
个人 利益</w>
严 谨</w>
两 片</w>
业余 时间</w>
世界 性</w>
专 注</w>
与 会
不堪 设想</w>
不可 或缺</w>
不 轻</w>
不 舍</w>
不 自在</w>
不 怕
不 妨</w>
不 向</w>
不 切实际</w>
不 允许</w>
下 身</w>
上 层</w>
三星 队</w>
三天 两头</w>
万 里</w>
万 千</w>
一言 不发</w>
一下 子
一 齐</w>
一 谈</w>
一 气</w>
一 株</w>
一 族</w>
一 声
一 团
一 员</w>
8 6</w>
5 8</w>
5 1</w>
1 200</w>
鼓 鼓
黑 白</w>
黄 油</w>
魔 术
高 粱</w>
高 处</w>
骚 动</w>
马 克
馆 子</w>
餐 桌</w>
风 貌</w>
风 头</w>
领 口</w>
领 先
顺 从</w>
音 器</w>
韩 屋</w>
韧 性</w>
鞋 跟</w>
靶 心</w>
面包 店</w>
面 谈</w>
面 试
面试 官</w>
非 但</w>
静 静</w>
青 红
青红 皂白</w>
露 面</w>
霓 虹
霓虹 灯</w>
零 部件</w>
雨 衣</w>
雨 点</w>
难以 置信</w>
隔 绝</w>
隐 秘</w>
除 夕</w>
阳 光
闲 置</w>
闯 进</w>
闯 祸</w>
问 问</w>
锦 赛</w>
错 综
错综 复杂</w>
销 员</w>
鉴 别</w>
金融 界</w>
金融 公司</w>
金 山</w>
量 刑</w>
野 猪</w>
里 外
酸 酸
酒 疯</w>
邻 家</w>
邮 寄</w>
那 股</w>
那 根</w>
遥 遥
遗 留下来</w>
道德 性</w>
逼 近</w>
通俗 易懂</w>
通 车</w>
退 款</w>
退 伍</w>
追 击</w>
迫 在
迫在 眉
迫在眉 睫</w>
迟 迟</w>
连 带</w>
违 法
远 征</w>
进 修</w>
还 价</w>
近 在
运 到</w>
过 关</w>
轻 盈</w>
软 软</w>
转 学</w>
车 费</w>
路 程</w>
跨 越</w>
跑 来
跑来 跑
跑来跑 去</w>
起 着</w>
起 毛</w>
走 势</w>
走 到</w>
赞 助
赔 偿
贵 重</w>
贯 彻</w>
货 款</w>
败 露</w>
败 为
败为 胜</w>
贤 惠</w>
责 骂</w>
豆 子</w>
谷 歌</w>
说 教</w>
语 句</w>
诚 信</w>
证券 市场</w>
讲 故事</w>
解决 不了</w>
解 救</w>
见 过</w>
西 兰</w>
褥 子</w>
裂 开</w>
裁 员</w>
表 态</w>
补 助
行 间</w>
血 统</w>
虚 心</w>
蒲 公
蒲公 英</w>
菩 萨</w>
菜 刀</w>
荞 麦</w>
荒 谬</w>
英 俊</w>
苦 练</w>
若无 其事</w>
若 想</w>
苏 醒过来</w>
节 食</w>
臭 味</w>
自然 科学</w>
自动 售货机</w>
自以为 是</w>
自 立</w>
自 有</w>
自 始至终</w>
自 信心</w>
腹 痛</w>
腌 制</w>
脸 面</w>
胜 利
肠 胃</w>
肉 眼</w>
职 守</w>
聆 听</w>
耿 直</w>
耳 光</w>
而 起</w>
考 了</w>
老 先生</w>
翻 阅</w>
翻 看</w>
羞 涩</w>
美 学</w>
罪 过</w>
缺 乏
编 造</w>
维 持
绰 号</w>
继 承
绞 尽
绞尽 脑汁</w>
结婚 典礼</w>
组 员</w>
纯 属</w>
纪念 品</w>
红 叶</w>
精 彩
簌 簌</w>
管 教</w>
简 便</w>
筋 疲力尽</w>
立足 于</w>
突 破
空 隙</w>
稳 定
磨 练</w>
磁 带</w>
碴 儿</w>
碳 酸</w>
碌 碌</w>
硬 朗</w>
破 除</w>
矿 工</w>
石油 价格</w>
短 裙</w>
短 短</w>
知 事</w>
着 脸皮</w>
着 眼
着 办</w>
真 可怜</w>
看 守</w>
相 近</w>
直 率</w>
盖 得</w>
盒 饭</w>
皮 带</w>
略 微</w>
留 意</w>
畅销 书</w>
电 源</w>
电 动</w>
申 办</w>
生意 兴隆</w>
生 菜</w>
班 时间</w>
玷 污</w>
现实 性</w>
现 异常</w>
环境 部</w>
环 绕</w>
玫瑰 花</w>
独立 性</w>
独 占</w>
狩 猎</w>
版 型</w>
片 断</w>
照 相</w>
煤 气
煎 饼</w>
热 销</w>
热 带
烤 鸭</w>
烟 火</w>
烂 熟</w>
炮 击</w>
炉 火</w>
濒 临
演奏 会</w>
滚 滚</w>
滋 滋</w>
源 地</w>
游 牧
游 手好
游手好 闲</w>
淳 朴</w>
深 刻
海岸 线</w>
流 量</w>
流 域</w>
流 利地</w>
洞 察力</w>
泥 泞</w>
波 及</w>
泡 汤</w>
法 国
沿 海
没 个</w>
沙 拉</w>
沉 醉
沉 稳</w>
汉 堡</w>
水 瓶</w>
水 果
水 晶</w>
氧化 碳</w>
气 愤</w>
气 力</w>
毫无 意义</w>
比 比
毁 掉</w>
步 枪</w>
正 道</w>
正 比</w>
正 性</w>
正 以</w>
欺 诈</w>
欧 元</w>
概 率</w>
梯 子</w>
梦 见</w>
梅 雨
根 基</w>
核心 内容</w>
校 方</w>
栖 息</w>
标 识</w>
标 榜</w>
查 明真相</w>
枯 萎</w>
极 化</w>
本 金</w>
本 本</w>
本 想</w>
未 婚
朝 廷</w>
有 此理</w>
有 待</w>
最 有</w>
最 佳
更 要</w>
更 能</w>
暴 食</w>
暴 躁</w>
暴 动</w>
暗 自</w>
暖 暖
晾 干</w>
智 商</w>
春 花</w>
星 光</w>
明 洞</w>
明 太鱼</w>
无 益</w>
无 用</w>
无 止境</w>
新 西兰</w>
文艺 作品</w>
文 盲</w>
数 万</w>
散 开</w>
教 士</w>
敏捷 地</w>
故 宫</w>
收 场</w>
播 报</w>
搞 活</w>
插 嘴</w>
提 高
提 条件</w>
推 举</w>
接待 客人</w>
换 乘</w>
捡 起来</w>
指 导
挂 满</w>
持 续
持 久</w>
拿 捏</w>
拧 干</w>
拖 鞋</w>
拖 拉
拖拉 机</w>
拍 打</w>
拉拉 队</w>
抵 挡</w>
抵 抗
把 握住</w>
技术 开发</w>
扩 展</w>
打 进</w>
打 翻</w>
打 球</w>
打 捞</w>
打 动</w>
扑 腾</w>
手机 短信</w>
手 镯</w>
所 欲
房 钱</w>
户 户</w>
战 败</w>
成 家</w>
成 品</w>
成 千
惹 出</w>
惨 重</w>
惊 险</w>
情 侣
情侣 装</w>
悲 壮</w>
恶 梦</w>
恶 势力</w>
恶 作
恶作 剧</w>
恩 惠</w>
恢复 正常</w>
总 能</w>
总 爱</w>
急 促</w>
怂 恿</w>
心 来</w>
心 人</w>
得 着</w>
得 好</w>
得 了</w>
很 穷</w>
往 前走</w>
形 式
当 红</w>
当 即</w>
强硬 派</w>
强 者</w>
弯 子</w>
弯 儿</w>
张 嘴</w>
引 诱</w>
开发 区</w>
开 馆</w>
开 走</w>
建 了</w>
废 弃物</w>
庙 里</w>
床 单</w>
并 用</w>
平 昌</w>
师 长</w>
帆 船</w>
左 翼</w>
工作 室</w>
岂 有此理</w>
山 川</w>
山 地</w>
局 限</w>
就 职
小 儿
将 来临</w>
射 门</w>
对 视</w>
对 性</w>
对 头</w>
寒 气</w>
寄 出</w>
宽 裕</w>
家常 便饭</w>
家 门口</w>
家 用</w>
家 户户</w>
家 家户户</w>
审 视</w>
实 践
实 现
定 于</w>
定 主意</w>
官 职</w>
子 弟</w>
子 儿</w>
嫌 犯</w>
媒 体
娶 媳妇</w>
姨 妈</w>
她 家</w>
奔 走</w>
奔 波</w>
失业 问题</w>
太 快</w>
天 高
天 阴</w>
天 亮</w>
天 一</w>
大 局</w>
大 姐</w>
大 半</w>
多 月</w>
多 处</w>
多 地</w>
多 元</w>
外 头</w>
外 号</w>
复 习
壁 垒</w>
堆积 如山</w>
埋 藏</w>
坐 飞机</w>
坐 落</w>
地 喊</w>
在 生活
土 气</w>
圆满 结束</w>
图 形</w>
国 庆
回 帖</w>
四 名</w>
嘴 角</w>
喝 了
喝了 酒</w>
喜 鹊</w>
喜 剧
善 意</w>
商 谈</w>
售 后
售后 服务</w>
咚 咚</w>
呜 呜</w>
告别 仪式</w>
吸引 住</w>
否 决</w>
后 续</w>
名 誉
名 演员</w>
吁 吁</w>
叽 叽
可 怜
句 号</w>
古 书</w>
受 骗</w>
受 苦</w>
受 累</w>
受 了
受了 伤</w>
发 财</w>
去 向</w>
原 子弹</w>
即 将来临</w>
印 度
南 方人</w>
南 山</w>
匿 迹</w>
医 术</w>
募 捐</w>
劳动 党</w>
劣 质</w>
力 争</w>
前 者</w>
前 科</w>
前 提条件</w>
刻 薄</w>
刺 激
到 时候</w>
利 比亚</w>
初 级
创 办</w>
刚 一</w>
划 出</w>
切 齿</w>
切 实
切 地</w>
分 外</w>
出 狱</w>
凸 显</w>
几 根</w>
凝 聚力</w>
冰 冰</w>
农 乐</w>
军 舰</w>
写 诗</w>
冒 烟</w>
冒 失
再也 不能</w>
内 需</w>
内 衬</w>
其 间</w>
共 计</w>
兮 兮</w>
六 年</w>
六 个月</w>
公司 员工</w>
公 正性</w>
公 事</w>
全副 武装</w>
兜 风</w>
僧 人</w>
傻 子</w>
健康 状况</w>
修 正</w>
保险 费</w>
保 暖</w>
侦 察</w>
体育 运动</w>
体 贴</w>
体 罚</w>
伪 善</w>
传 送</w>
传 教士</w>
优 先
份 子</w>
价格 便宜</w>
令人 厌恶</w>
代 人</w>
仆 人</w>
人生 观</w>
人 鱼
人 影</w>
亲 兄弟</w>
亮 丽</w>
产 后</w>
交换 意见</w>
交 加</w>
五 谷</w>
五 日</w>
云 层</w>
于 事</w>
书 架</w>
书 信</w>
九 十</w>
之 色</w>
之 战</w>
之 徒</w>
之 举</w>
主办 国</w>
为 名</w>
中 医</w>
两 周</w>
东 边</w>
东 洋</w>
业 者</w>
世界 观</w>
世 态</w>
专 卖店</w>
丑 小鸭</w>
不如 说是</w>
不如 说</w>
不在 少数</w>
不 足以</w>
不 了
下 落</w>
下 级</w>
下 班时间</w>
下 水道</w>
下 旬</w>
下 手</w>
下 乡</w>
上 课时</w>
上 万</w>
三星 集团</w>
三 顿</w>
三 角</w>
三 倍</w>
万 无一失</w>
一百 块</w>
一切 都是</w>
一 面
一 辈</w>
一 盘</w>
一 球</w>
一 流
一 日
一 把
一 户</w>
一 战</w>
一 小
一 刻
一 九
a n
T 恤衫</w>
5 4</w>
4 7</w>
4 .
20 11</w>
鼓 舞
麻 利</w>
麦 芽
麦芽 糖</w>
鲸 鱼</w>
魔术 师</w>
高 难度</w>
高 空</w>
高 科技</w>
高 出</w>
骄傲 自满</w>
驾驶 执照</w>
驶 向</w>
马虎 虎</w>
马 马虎虎</w>
首 长</w>
饮 用</w>
食 材</w>
飞行 员</w>
风景 优美</w>
风 雨
领 空</w>
顾 虑</w>
顺 差</w>
青 草</w>
霹 雳</w>
露 营</w>
雨 声</w>
集体 利益</w>
难 得
难得 一见</w>
随 心所
随心所 欲</w>
陪 你
降 低
陋 习</w>
闪 过</w>
闪 耀</w>
门 缝</w>
门 员</w>
长期 化</w>
长 跑</w>
锤 子</w>
野 营</w>
里 种</w>
郁 郁
那 棵</w>
遗 骸</w>
遗 弃</w>
遗 嘱</w>
逼 真</w>
通 货</w>
逃 北者</w>
适 于</w>
送 走</w>
退 潮</w>
退 步</w>
退 下来</w>
连 日来</w>
违 章</w>
远远 地</w>
远 程</w>
这 时候</w>
这 下</w>
还 债</w>
迈 出</w>
过 头</w>
过 不去</w>
辛 辣</w>
转 变成</w>
车 窗</w>
身体 状况</w>
身 世</w>
路 滑</w>
跟 上</w>
足 有</w>
赶 集</w>
走 马
走 漏</w>
货 轮</w>
负 起</w>
课外 辅导</w>
课 税</w>
读 过</w>
请 谅解</w>
说 错</w>
说 了
误 认为</w>
该 案</w>
许 可
许 久</w>
讲 道理</w>
记 本</w>
认 同感</w>
计划 生育</w>
警 车</w>
解放 前</w>
角度 看</w>
西 山</w>
裤 腿</w>
装 束</w>
裁 判
被 盗</w>
被 害人</w>
衰 落</w>
表 彰</w>
融 资</w>
蝴 蝶
菲 律
莲 花</w>
莫 名</w>
荷 花</w>
药 效</w>
茫 茫
苦 闷</w>
苦 痛</w>
苦 战</w>
色 色</w>
舞蹈 演员</w>
舒 展</w>
自我 介绍</w>
自卫 权</w>
腊 月</w>
脱 下</w>
脚 趾</w>
胖 得</w>
胆 敢</w>
胆 怯</w>
育 儿</w>
肮 脏</w>
肩 部</w>
股票 市场</w>
聚 餐</w>
聚 一堂</w>
考 古
老 二</w>
耀 着</w>
缘 由</w>
编 排</w>
绿 色
绝 妙</w>
绚 丽</w>
结 下</w>
经常 出现</w>
纪念 邮票</w>
红 了
繁 杂</w>
紧身 裤</w>
紧 时间</w>
管理 者</w>
算 计</w>
简 易</w>
等 着瞧</w>
第一 轮</w>
第一 线</w>
第一 场</w>
站不 住脚</w>
站 台</w>
站 住</w>
立 着</w>
立 法
窝 棚</w>
窃 取</w>
突 然
穿 透</w>
空 儿</w>
稳 定性</w>
稳 固</w>
移 动
积 分</w>
秃 秃</w>
神 儿</w>
祖 上</w>
社会 秩序</w>
社 员</w>
砖 头</w>
知 数</w>
知 情
瞧 的</w>
着眼 于</w>
眼 镜
眩 晕</w>
省 钱</w>
相 邻</w>
相 框</w>
相 成</w>
相 仿</w>
直 接
直 射</w>
盛 开着</w>
百 货</w>
病 因</w>
畅 通</w>
电 波</w>
用 法</w>
生 硬</w>
生 怕</w>
班 机</w>
王 位</w>
猩 猩</w>
狠 心</w>
状 元</w>
犯了 罪</w>
犀 利</w>
特 级</w>
牵 连</w>
牙 切齿</w>
爆 破</w>
焕 发</w>
烦 闷</w>
烟 花</w>
炒 鱿鱼</w>
火 烧</w>
潜 入</w>
演讲 者</w>
演奏 者</w>
满 天
溶 解</w>
溪 边</w>
源 自</w>
渺 茫</w>
游 记</w>
游 乐</w>
温 带</w>
渊 博</w>
淹 死</w>
深 造</w>
深 浅</w>
淡 薄</w>
淘 汰
淋 浴</w>
涂 鸦</w>
浸 湿</w>
海军 陆战队</w>
浮 肿</w>
流 通
流 血</w>
流 星</w>
活 得</w>
注 定</w>
沾 满</w>
没 良心</w>
没 想</w>
沉 痛</w>
汉 子</w>
水 下</w>
气候 异常</w>
气 馁</w>
气 腾腾</w>
民间 传说</w>
民浩 用</w>
民 俗
段 话</w>
死 不
歪 曲
歪曲 事实</w>
正常 人</w>
正 气</w>
次 于</w>
欠 下</w>
橄 榄
植 树
棺 材</w>
检 讨</w>
梆 梆</w>
根本 上</w>
校 门口</w>
染 得</w>
某 种
松 开</w>
条 理
权 威
机 动</w>
末 期</w>
未 见</w>
服务 行业</w>
服务 业</w>
有 色
有 理</w>
有 无</w>
有 其
月 薪</w>
暴 富</w>
暗 暗</w>
暗 地里</w>
暖暖 的</w>
智 异
智异 山</w>
普遍 认为</w>
晚 辈</w>
映 出</w>
明 显
明 星
明 快</w>
明 信
明信 片</w>
旧 金山</w>
日 落</w>
无 端</w>
无 味</w>
无 从</w>
新婚 夫妇</w>
新 药</w>
料 子</w>
斑 点</w>
文 体</w>
敲 门</w>
数 年</w>
放 眼
放 声
收 藏
收 受
收受 贿赂</w>
摔 了一跤</w>
摇 摆
摆 弄</w>
摆 布</w>
携 带
搏 斗</w>
提 心
提心 吊
提心吊 胆</w>
排 场</w>
捏 造</w>
捏 弄</w>
指 甲
指 点</w>
指 尖</w>
指 南
指南 针</w>
拙 劣</w>
拉 肚子</w>
拉 开
拉 大</w>
拉 伸</w>
押 金</w>
折 叠</w>
抓 紧时间</w>
抒 情</w>
扣 除</w>
托 出</w>
托 人</w>
打 通</w>
打 篮球</w>
打 死</w>
打 响</w>
打 入</w>
打 人</w>
手 持</w>
手 巾</w>
所 能
所 学</w>
战 时</w>
懒 腰</w>
愣 愣</w>
愈 来
惹 事</w>
想 来</w>
想 像</w>
恳 请</w>
恩 师</w>
恐怖 组织</w>
恍 惚</w>
急 得</w>
念 书</w>
快 捷</w>
忧 愁</w>
忘 录</w>
忍受 着</w>
心理 战</w>
心 里
心 虚</w>
心 如
德 行</w>
循 序
循序 渐进</w>
很 想</w>
影 迷</w>
形 色色</w>
形 形色色</w>
强 风</w>
张 望</w>
引 向</w>
式 化</w>
弄 坏了</w>
廉 洁</w>
度 过难关</w>
废 料</w>
庄 稼
幽 静</w>
年轻 一代</w>
平底 锅</w>
平 局</w>
干 电池</w>
巫 婆</w>
巨 人</w>
左 转</w>
左 右
工业 化</w>
工 薪
工 商
巡 回</w>
峰 会</w>
山 腰</w>
屡 屡</w>
展览 馆</w>
屏 风</w>
屏 障</w>
届 时</w>
尘 土</w>
少 女
少女 时代</w>
少 不了</w>
小 锅</w>
小 两口</w>
将 领</w>
射 出</w>
察 看</w>
富 豪</w>
富 含</w>
宿 费</w>
容 许</w>
实 质性</w>
实 习
宝 库</w>
宏 伟</w>
完 成
安全 事故</w>
安 葬</w>
守 门员</w>
宁 肯</w>
学术 研究</w>
学期 开始</w>
季 后
季后 赛</w>
存 活</w>
存 在
字 画</w>
嫌疑 犯</w>
媒体 报道</w>
婚姻 生活</w>
娱乐 节目</w>
妓 女</w>
妇 女
如 故</w>
如 愿</w>
好 心</w>
奶 粉</w>
奖 状</w>
夺 目</w>
夸 大</w>
头 衔</w>
头 牛</w>
失 色</w>
太 强</w>
太 少</w>
天 太热</w>
天 国</w>
天 冷</w>
天 体</w>
大学 教授</w>
大大 增加</w>
大 闹</w>
大 理
大 水</w>
大 峡谷</w>
大 增</w>
大 儿子</w>
大 作</w>
够 瞧的</w>
多 于</w>
外交 政策</w>
外 遇</w>
复 发</w>
备 忘录</w>
声 匿迹</w>
填 满</w>
堂 皇</w>
基本 功</w>
基 石</w>
埋 伏</w>
地 来</w>
地 想</w>
在 我
在 世</w>
国务 卿</w>
国 乐</w>
围 坐在</w>
困 难
园 林</w>
团结 一致</w>
团 长</w>
团 员</w>
团 体
四 面
四 强</w>
四 岁</w>
噩 梦</w>
啤 酒
唐 代</w>
哺 乳
哭 声</w>
哪 位</w>
咬 牙切齿</w>
咬 牙</w>
呵 呵</w>
周 三</w>
吻 合</w>
吹 过</w>
吸 烟
吓 人</w>
向 东</w>
后 半
吉 利</w>
合法 权益</w>
合作 伙伴</w>
合 计</w>
各个 部门</w>
各个 方面</w>
吃 苦</w>
吃 喝
可 言</w>
可 知</w>
召 回</w>
变 弱</w>
取 暖</w>
发 怒</w>
反 复
去 不去</w>
原 稿</w>
原 地</w>
原 动力</w>
原 作</w>
原 产地</w>
厚 着脸皮</w>
卑 鄙</w>
协 议书</w>
半 决赛</w>
午 饭时间</w>
午 觉</w>
午 后</w>
十 多
十 几年</w>
北京 市</w>
北 风</w>
化 肥</w>
包 揽</w>
勤 勉</w>
办 不成</w>
副 业</w>
前 程</w>
前 后
刻 意</w>
刺激 性</w>
刺 眼</w>
刺 儿</w>
制 作
别 有</w>
别 无
利 用
刚 过</w>
出 道</w>
出 差错</w>
几 经</w>
几 滴</w>
几 步</w>
几 分钟</w>
凉 拌</w>
准时 到达</w>
凄 惨</w>
冷 汗</w>
决 赛
冲 撞</w>
冲 天</w>
冲 冲</w>
农 耕</w>
军事 训练</w>
军 装</w>
冗 长</w>
再 用</w>
其 词</w>
兵 们</w>
兴 趣
兴 奋
关 掉</w>
共产 党</w>
共 处</w>
兰 教</w>
公 元前</w>
公 休日</w>
全 无</w>
入 狱</w>
光 光</w>
光 亮</w>
先 例</w>
儿 上</w>
做 手术</w>
偏 远</w>
倾 倒</w>
倔 强</w>
俯 视</w>
修 理
保险 金</w>
保守 派</w>
保 健
便 秘</w>
作 品
体 力劳动</w>
位 居</w>
佃 农</w>
伸 开</w>
传 教</w>
伊斯 兰教</w>
令人 羡慕</w>
付诸 实践</w>
从这 一点</w>
从 根本上</w>
今年 以来</w>
仅 如此</w>
人鱼 公主</w>
人 类
人 均</w>
人 命</w>
互 助</w>
互 助
二 氧化碳</w>
事 由</w>
乡 镇
乡 土</w>
乐 意</w>
乐 于</w>
乌 云密布</w>
之 感</w>
主 席
为 官</w>
丰富 多彩</w>
中 间
中 部</w>
中 等</w>
中 止</w>
中 华</w>
严 严
两 颗</w>
两 顿</w>
两 面
世 博
专业 性</w>
专 栏</w>
不足 之处</w>
不知 羞耻</w>
不对 劲</w>
不容 乐观</w>
不 长</w>
不 离
不 染</w>
不 明智</w>
不 提</w>
不 择
不 幸
不 带</w>
不 仅如此</w>
下半 身</w>
下 星期</w>
上 阵</w>
上 涂</w>
上 将</w>
上 周末</w>
三 分钟</w>
万 事</w>
一点 一点</w>
一无所 知</w>
一年 四季</w>
一个 多</w>
一 转眼</w>
一 致
一 米</w>
一 栋</w>
一 去
一 两天</w>
一 两个</w>
l e</w>
6 8</w>
199 5</w>
龙 山</w>
龙 去
龙去 脉</w>
鼻子 灰</w>
黄 牛</w>
高高 地</w>
高 耸</w>
高 烧</w>
高 档
高 利
马 路上</w>
马 屁</w>
香 糖</w>
香 港
饿 肚子</w>
饰 演</w>
飞 驰</w>
领 海</w>
顺便 去</w>
韩 中</w>
鞋 带</w>
鞋 垫</w>
靶 子</w>
雷 劈</w>
雨 后</w>
集 结</w>
雅 典</w>
难 能
难能 可贵</w>
难 听</w>
陪 伴</w>
险 峻</w>
除 草</w>
限 定</w>
附 有</w>
附 上</w>
阿 里
阻 断</w>
阁 楼</w>
闹 非凡</w>
间 断</w>
闲 着</w>
闲 事</w>
问 卷
问卷 调查</w>
门 户</w>
长 成</w>
长 年</w>
锄 头</w>
银 杏
钟 摆</w>
针 线
金 黄色</w>
里 加</w>
醒 目</w>
醒 悟</w>
酥 酥</w>
配 有</w>
邦 邦
邦邦 的</w>
那 一</w>
遗传 因子</w>
遗 忘</w>
遇 难者</w>
通 向</w>
透 气</w>
选 拔
选拔 赛</w>
送 货</w>
送 礼</w>
送 往</w>
退 场</w>
迷 茫</w>
迷 上</w>
连 锁
连 环</w>
连 不断</w>
这 身</w>
近 海</w>
运 算</w>
运 往</w>
过 意
过意 不去</w>
辛 劳</w>
辅 相成</w>
较 弱</w>
轻 巧</w>
轮 到</w>
躲 过</w>
身 于</w>
跳 高</w>
跨 国
跟 我</w>
跟 不上</w>
跑 腿</w>
足 协</w>
超 人</w>
起 哄</w>
赎 罪</w>
资 源
资 历</w>
贬 值</w>
贫 民</w>
豁 然</w>
谷 底</w>
谋 生</w>
调 换</w>
请 来</w>
诱 发</w>
误 导</w>
诊 所</w>
诊 室</w>
识 字</w>
评 审</w>
记 性</w>
议 院</w>
讨人 嫌</w>
订 阅</w>
订 货</w>
解 说</w>
视 察</w>
观 察
见 了
见了 面</w>
西 式</w>
被 关</w>
蠕 动</w>
蜷 缩</w>
虔 诚</w>
藏 书</w>
蒙 上</w>
著作 权</w>
落 下来</w>
营业 额</w>
菲律 宾</w>
菜 汤</w>
莫 斯科</w>
荷 尔
荷尔 蒙</w>
荷 叶</w>
荒 凉</w>
草 叶</w>
茶 杯</w>
英 国
苦 衷</w>
花样 滑冰</w>
芯 片</w>
芭 蕾
节 性</w>
节 俭</w>
艘 船</w>
舍 己
自 首</w>
自 救</w>
腐 蚀</w>
脸 子</w>
脱离 现实</w>
脱 发</w>
脑 勺</w>
脏 话</w>
胰 岛
胰岛 素</w>
胖 子</w>
肉 汤</w>
联 军</w>
职 者</w>
耗 费</w>
而 入</w>
者 家属</w>
考 官</w>
考 完
考完 试</w>
老 兵</w>
群 山</w>
美元 汇率</w>
美 价廉</w>
羊 皮</w>
置之 不理</w>
缠 绕</w>
编 织</w>
编 成</w>
续 费</w>
继 续
绝 大多数</w>
经营 不善</w>
经济 效益</w>
经济 损失</w>
终 止</w>
细 胞
纹 路</w>
纳 税
纪念 碑</w>
糯 米</w>
精 髓</w>
精 巧</w>
粗 大</w>
管 辖</w>
算 命
简 单
签 合同</w>
第二 年</w>
笔 挺</w>
站 不住</w>
立 下</w>
积 水</w>
种 地</w>
私 利</w>
离 世</w>
福 音</w>
票 数</w>
神 童</w>
社会 性</w>
磨 合</w>
硬 邦邦的</w>
破 解</w>
短 袖</w>
矛 盾
矗 立</w>
睁 开</w>
眼 角</w>
眼 眶</w>
真实 性</w>
真 帅</w>
真 品</w>
真 假</w>
真 令人</w>
看不 清楚</w>
看不 惯</w>
相 辅相成</w>
直 销</w>
直 响</w>
盛 情
盆 地</w>
百货 公司</w>
白 费</w>
登山 者</w>
登 录</w>
病 魔</w>
病 死</w>
病 床</w>
疾 驰</w>
画 廊</w>
画 出</w>
男女 老少</w>
电 筒</w>
电 动
用 脚</w>
用 纸</w>
用 刀</w>
用 以</w>
生 就</w>
瓦 片</w>
瓦 斯</w>
珍珠 项链</w>
现代 医学</w>
现 政权</w>
猴 桃</w>
猜 不透</w>
独断 专
独断专 行</w>
特 辑</w>
特 派
特 权</w>
物 美价廉</w>
牙 关</w>
爸 妈</w>
父 子</w>
熟练 地</w>
焦 躁</w>
热 闹非凡</w>
烛 光</w>
炸 鸡</w>
炒 菜</w>
灯 塔</w>
灭 火</w>
火烧 眉毛</w>
火 车票</w>
火 海</w>
澄 清</w>
漫 无
演 艺人</w>
演 戏</w>
漂 泊</w>
满 载</w>
满 意
溃 疡</w>
游 子</w>
渗 出</w>
深 邃</w>
深 远</w>
消防 车</w>
消 退</w>
海 运</w>
海 滩</w>
流 放</w>
派 系</w>
洪 流</w>
津津 有味</w>
洞 洞</w>
洗 礼</w>
洁 净</w>
法 学</w>
法 儿</w>
沿 岸</w>
油 价格</w>
没 人
沙 尘
沙尘 暴</w>
汽车 产业</w>
汹 汹</w>
污 渍</w>
江 湖</w>
汗 珠</w>
民浩 说</w>
民浩 是</w>
毛 发</w>
比 不上</w>
每 晚</w>
母 乳</w>
毁 损</w>
殖民 统治</w>
死亡 线</w>
死 者家属</w>
正 文</w>
正 事</w>
欲 滴</w>
欣 欣
欣欣 向
欣欣向 荣</w>
欢迎 光临</w>
模 子</w>
楼 下</w>
楚 楚</w>
棱 角</w>
棋 子</w>
梳 理</w>
梅雨 季节</w>
桌 椅</w>
桌 布</w>
案发 现场</w>
案 例</w>
样 才能</w>
栩 栩
栩栩 如
栩栩如 生</w>
校 对</w>
标 本</w>
标 明</w>
柴 油</w>
柳 树</w>
查 阅</w>
果 真</w>
枕 着</w>
极 少</w>
杰 克</w>
杰 作</w>
来 龙去脉</w>
来 袭</w>
杠 子</w>
束手 无
束手无 策</w>
村 长</w>
村 里人</w>
权 者</w>
权 力
杂 志
杂志 社</w>
机 能</w>
机 关
本 案</w>
未 知数</w>
未 干</w>
木 炭</w>
服 役</w>
服 刑</w>
服 兵役</w>
有 史
有史 以来</w>
月 租</w>
最高 值</w>
最 合适</w>
更 显</w>
晚 宴</w>
晓 得</w>
时刻 刻</w>
时 时刻刻</w>
时 才</w>
日本 队</w>
日常 事务</w>
无所 不
无 须</w>
无 误</w>
无 理</w>
旅游 业</w>
方 向
新闻 媒体</w>
新 高</w>
新 旧</w>
整 容</w>
教 员</w>
教 书</w>
故 国</w>
政治 性</w>
政府 部门</w>
政 坛</w>
放在 心上</w>
放 盐</w>
放 晴</w>
放 大</w>
放 声</w>
改 建</w>
收 入
收 买</w>
攒 下</w>
攀 升</w>
撤 销</w>
摧 毁</w>
摊 开</w>
摆 好</w>
摆 动</w>
摄影 师</w>
摄 入</w>
搭 档</w>
搞 不
搅 乱</w>
搂 住</w>
提 了</w>
推 辞</w>
接 连不断</w>
接 再
接再 厉</w>
排 行</w>
据 称</w>
振 动</w>
挑战 者</w>
按 期</w>
指 控</w>
拥 堵</w>
招 揽</w>
招 募</w>
拍 了
拍了 拍</w>
拉 上</w>
抽 签</w>
抽 打</w>
抹 杀</w>
投票 权</w>
投 出</w>
抓 挠</w>
技术 水平</w>
扫 帚</w>
执 意</w>
托 付给</w>
打 猎</w>
打 仗</w>
打 乱</w>
扑 鼻</w>
才 艺</w>
手 续费</w>
手 绢</w>
手 电筒</w>
手 帕</w>
扇 门</w>
所能 及</w>
所 用</w>
户 口</w>
战 死</w>
戒 备</w>
成绩 单</w>
成千 上万</w>
成 正比</w>
成 交</w>
憧 憬</w>
感 触</w>
意 气
想 见</w>
悠 闲</w>
恰 巧</w>
恭 敬</w>
总 统
总 在</w>
怎 样才能</w>
快 感</w>
忠 心</w>
必 备</w>
心脏 麻痹</w>
心 胸
心 灵
心 急
心 存</w>
律 性</w>
很 重</w>
征 用</w>
当事 者</w>
当 家</w>
当 今
强 迫
弱 小</w>
张 开</w>
弄 清楚</w>
廉 耻</w>
店 主</w>
应 变</w>
广 泛
年 岁</w>
平方 米</w>
平 地</w>
幌 子</w>
带 子</w>
市 面上</w>
工业 园区</w>
工 匠</w>
工 人
山 脚</w>
山 脊</w>
屋 外</w>
尼 斯</w>
就是 指</w>
就 会
尚 早</w>
小 米</w>
小 岛</w>
小 声</w>
封建 社会</w>
寒 酸</w>
寒 流</w>
富 足</w>
家庭 暴力</w>
宴 席</w>
室 长</w>
实 地</w>
官 场</w>
守 纪律</w>
学生 会</w>
好 觉</w>
好 汉</w>
好 学</w>
奶 家</w>
奶 奶家</w>
夸 耀</w>
头 巾</w>
头 子</w>
失 明</w>
太极 拳</w>
太 窄</w>
太 白</w>
天 日</w>
天 子</w>
天 后</w>
大理 石</w>
大幅 提高</w>
大 门口</w>
大 江</w>
大 棚</w>
多 钱</w>
多 放点</w>
多 半</w>
外 婆</w>
外 交通
外交通 商
外交通商 部</w>
声 色</w>
声 势</w>
壮 实</w>
壁 纸</w>
增 收</w>
塑料 袋</w>
基 和
垃圾 堆</w>
坦 克</w>
坚持 不懈</w>
地 疼</w>
地 段</w>
地 利</w>
在 心</w>
在 位</w>
土 耳
圆 圈</w>
国际 形势</w>
国庆 节</w>
国 土
国 军</w>
回 生</w>
回 信</w>
四 川</w>
嗡嗡 地</w>
喷 泉</w>
喷 发</w>
喝 多</w>
啧 啧</w>
商 议</w>
唱 法</w>
哲 学家</w>
响 彻</w>
品 性</w>
咯 吱
咯吱 咯吱</w>
呼 喊</w>
周 折</w>
呐 喊</w>
向 南</w>
吐 露</w>
后 盾</w>
后 世</w>
名 胜</w>
名 歌手</w>
名 叫</w>
同 等</w>
同 性
同 岁</w>
同 声</w>
合 身</w>
合 拍</w>
合 唱
各 级</w>
吃 喝</w>
吃 不上</w>
叹 不已</w>
史 无
史 书</w>
可 得</w>
只 眼</w>
句 句</w>
古代 人</w>
古 都</w>
口 香糖</w>
变 换</w>
变 坏</w>
受害 人</w>
受 灾
发 车</w>
反 问</w>
反 常</w>
及 时
原则 上</w>
压 得</w>
压 住</w>
厂 子</w>
却 说</w>
即 便
即便 如此</w>
南 京
卖 光</w>
半 价</w>
千 米</w>
十 字</w>
十 大</w>
匿 名</w>
匪 徒</w>
化 身</w>
化 成</w>
包围 圈</w>
包 装
劳 务</w>
劳 作</w>
加 盟</w>
加 班
力 所能及</w>
剩 饭</w>
前 途
刻 有</w>
刷 子</w>
到 手</w>
别 跟我</w>
初 中
划 破</w>
划 时代</w>
切 忌</w>
分 组</w>
分 红</w>
分 工</w>
分 化</w>
分 不清</w>
刁 难</w>
刀 刃</w>
出 题</w>
出 行</w>
出 战</w>
出 个</w>
凭 直觉</w>
几 笔</w>
几 百年</w>
几 本书</w>
几 何</w>
冷 冻</w>
冷 冰冰</w>
决 断</w>
决 斗</w>
再 接再厉</w>
内心 世界</w>
共产 主义</w>
公 转</w>
公 公</w>
八 百</w>
入 眠</w>
入 境
克 隆</w>
光 靠</w>
充满 热情</w>
偷 走</w>
做 主</w>
做 不了</w>
倡 导</w>
候 选</w>
信 心
保 温</w>
促 成</w>
便利 店</w>
便 会</w>
侵 蚀</w>
依 稀
作 废</w>
体 上</w>
低 估</w>
伤 感</w>
伤 人</w>
优 缺点</w>
价格 上涨</w>
价 还价</w>
仲 裁</w>
们 儿</w>
以 继
他 边</w>
他 杀</w>
从头到 尾</w>
人员 伤亡</w>
交通 堵塞</w>
交 错</w>
交 锋</w>
交 到</w>
亚洲 杯</w>
互 换</w>
二 手</w>
事到 如今</w>
争夺 战</w>
乱 说</w>
买 菜</w>
书 柜</w>
乡镇 企业</w>
乘 着</w>
之 差</w>
之 多</w>
举 办
为人 知</w>
中 东
严严 实实</w>
严 明</w>
两国 人民</w>
两 遍</w>
两 层</w>
丝 网</w>
业余 爱好</w>
世 锦赛</w>
世 纪
专业 知识</w>
与此 同时</w>
不相 上下</w>
不 顾
不 解</w>
不 甘
不 浅</w>
不 比</w>
不 忍</w>
不 孝</w>
不 周</w>
不 入</w>
下 课后</w>
下 坡路</w>
上 马</w>
上 交</w>
三十 分钟</w>
三 层</w>
三 家</w>
万 苦</w>
丁 点儿</w>
一阵 风</w>
一流 大学</w>
一不 留神</w>
一 鼻子灰</w>
一 闪</w>
一 路
一 艘船</w>
一 箱</w>
一 等奖</w>
一 环</w>
一 期</w>
一 晒</w>
一 并</w>
一 周年</w>
一 体
a r
9 9</w>
9 .
8 8</w>
7 8</w>
6. 25</w>
6 4</w>
5 .
3 0
20 15</w>
199 7</w>
199 0</w>
龄 人</w>
鼓鼓 的</w>
鼓 动</w>
麻 子</w>
鹅 绒</w>
鸦 片</w>
鲜 鱼</w>
鲜 明
魔 法</w>
高 高</w>
高 考
高 昂</w>
高 官</w>
骨 碌</w>
骨 头
驯 服</w>
餐 饮</w>
飞 走</w>
风险 投资</w>
风 声</w>
频 发</w>
领导 班子</w>
预 备
顽 强
顺 眼</w>
音 信</w>
韩 朝</w>
面 向
面 儿</w>
非常 感激</w>
非 议</w>
青 岛</w>
雷 阵雨</w>
零 工</w>
雪 人</w>
雪 下</w>
障碍 物</w>
隐 退</w>
随 便
隆 隆</w>
除 以</w>
附 带</w>
阿 尔
阵 亡</w>
阴谋 诡计</w>
防 晒
闹 钟</w>
闹 腾</w>
闹 别扭</w>
间 隙</w>
问 卷</w>
门 铃</w>
长江 大桥</w>
长 势</w>
销 声匿迹</w>
铺 开</w>
银 河</w>
铜 钱</w>
铃 铛</w>
铁 丝网</w>
金融 机构</w>
金 银</w>
重 量
重 演</w>
里 行间</w>
里 慌张</w>
醒 酒</w>
鄙 视</w>
遵 从</w>
遥遥 领先</w>
遗 言</w>
道 儿</w>
逗 留</w>
逗 得</w>
递 增</w>
逊 色</w>
选 者</w>
选 用</w>
选 中</w>
逃 出</w>
逃 亡</w>
适 时</w>
追 求
迷 藏</w>
连 载</w>
连 接
连 同</w>
进 进
进进 出
进进出 出</w>
这 间</w>
这 菜</w>
这 病</w>
这 番话</w>
这 段</w>
过 渡</w>
过 上</w>
迁 都</w>
边 疆</w>
辩 护</w>
辣椒 面</w>
辣椒 粉</w>
辣 得</w>
辣 味</w>
辛 辛
辛 万苦</w>
轮 椅</w>
转 折
身 经历</w>
蹦 蹦
蹦蹦 跳跳</w>
踏 板</w>
足 迹</w>
超 速</w>
起 色</w>
起 步</w>
走 狗</w>
赛 前</w>
贵 贱</w>
购 入</w>
贫 瘠</w>
货 船</w>
负面 影响</w>
象征 性</w>
谱 儿</w>
谈 及</w>
请 柬</w>
语言 表达</w>
语言 学</w>
诗 篇</w>
诗 文</w>
设 在</w>
讲 演</w>
记录 下来</w>
记 述</w>
讨人 喜欢</w>
讨 价还价</w>
认 错误</w>
警 戒
警 卫
言 巧
言巧 语</w>
解 脱</w>
解 体</w>
角 儿</w>
视 而
规 规
规规 矩
规规矩 矩</w>
见 效</w>
见 分晓</w>
要 来</w>
要 价</w>
装 成</w>
装 卸</w>
补助 金</w>
行 榜</w>
螺 丝
蜕 皮</w>
虚 无</w>
薪 酬</w>
薄 薄
落 在</w>
营 救</w>
营 地</w>
营 化</w>
草 草</w>
范 畴</w>
苹 果树</w>
花 言巧语</w>
花 开</w>
花 卉</w>
节 课</w>
节 炎</w>
艺术 品</w>
舰 艇</w>
般 配</w>
舆 论
致 意</w>
臭 骂</w>
自然 规律</w>
自 尊</w>
自 取
自 传</w>
腐 朽</w>
脂 肪
能 源
能 克服</w>
胸 脯</w>
背 阴</w>
背 着手</w>
肌 肉
肉 质</w>
联 欢
联 手</w>
耸 肩</w>
耳 机</w>
耐 久性</w>
而 出名</w>
考 入</w>
老 鹰</w>
翻 身</w>
群 结
置 疑</w>
置 于</w>
缺 课</w>
缺 勤</w>
编 纂</w>
绿 灯</w>
绳 索</w>
统 称</w>
统 一
绝 技</w>
结 晶</w>
组 成
组成 部分</w>
组 合
纽 约
纳 入</w>
红 薯</w>
累 积</w>
紧张 感</w>
糖 分</w>
精力 充沛</w>
精 细</w>
精 灵</w>
篮球 比赛</w>
管 闲事</w>
算命 先生</w>
立体 感</w>
穿 梭</w>
空 手</w>
稀 稀
租 借</w>
科 技
私 塾</w>
离 谱</w>
神 志</w>
神 圣
社会 风气</w>
社 论</w>
礼拜 天</w>
示威 游行</w>
磕 磕
碍 事</w>
破 坏
石 塔</w>
知名 度</w>
瞪 眼</w>
睫 毛</w>
眼 珠</w>
真 快</w>
真 心
真 切</w>
看 着办</w>
看 眼色</w>
看 点</w>
看 做</w>
看 中</w>
省 略</w>
盛情 款待</w>
盘 问</w>
盗 窃
监 禁</w>
盐 水</w>
皆 是</w>
百 般</w>
百 米</w>
百 科
百 出</w>
白 雪
白 脸</w>
白 布</w>
白 山</w>
白 发</w>
痴 迷</w>
痴 呆</w>
痛 痛
痛痛 快快</w>
病 菌</w>
疗 效</w>
疑 犯</w>
电影 演员</w>
由 此
甩 卖</w>
用 过</w>
生活 态度</w>
生产 者</w>
生 来</w>
甜 甜</w>
甜 点</w>
甘 愿</w>
理 解
玲 珑</w>
王 妃</w>
猕 猴桃</w>
狡 辩</w>
犯罪 团伙</w>
特殊 性</w>
物 证</w>
牢 牢</w>
牡 丹</w>
燃 料
照 样</w>
照 旧</w>
然 一新</w>
焕 然一新</w>
热 水
热 天</w>
烧 伤</w>
点 菜</w>
点 滴</w>
炒 鸡蛋</w>
炉 灶</w>
灵活 运用</w>
灵 通</w>
火 车
火 气</w>
火 光</w>
激 战</w>
漫 画家</w>
漩 涡</w>
漏 雨</w>
漂 流</w>
滴 水</w>
满 地</w>
滑 梯</w>
溜 走</w>
游泳 馆</w>
游 船</w>
清清 楚楚</w>
清 朝</w>
混 凝
混凝 土</w>
深 呼吸</w>
淤 血</w>
淋 雨</w>
济 于事</w>
浇 水</w>
洼 洼</w>
洗衣 粉</w>
洗 碗</w>
洗 掉</w>
注 释</w>
波斯 菊</w>
波 兰</w>
法 制</w>
油 轮</w>
没 大
沙 沙</w>
汇 票</w>
求 得</w>
求 助</w>
水 画</w>
水 源</w>
水 原</w>
水 准</w>
民浩 对</w>
民 营化</w>
民 歌</w>
民 意
毯 子</w>
毛毛 雨</w>
毛 线</w>
每 层</w>
残 余</w>
此 以后</w>
正当 行为</w>
正 门</w>
正 要</w>
正 方形</w>
欢 笑</w>
橡皮 擦</w>
横 行</w>
模范 生</w>
棒 球场</w>
检查 一下</w>
梨 花</w>
桃 树</w>
柿 子树</w>
枣 树</w>
松 散</w>
松 动</w>
来 个</w>
机 车</w>
本 场</w>
末 尾</w>
木 偶</w>
朝 向</w>
朗 诵</w>
有 话
有 条</w>
有 余
有 何
最 棒</w>
晴 天
晴天 霹雳</w>
普 及
晚 期</w>
晕 车</w>
显 现</w>
是 生非</w>
星期 五</w>
时 报</w>
旱 灾</w>
旮 旯
日 记本</w>
日 新
日新 月
日 利亚</w>
无穷 的</w>
无 间</w>
无 边</w>
无 缘</w>
无 济于事</w>
无 愧</w>
无 处</w>
无 处
无 声
新 城</w>
新 品种</w>
新 品</w>
新 世纪</w>
新 世界</w>
斤 计较</w>
斤 斤计较</w>
文艺 复兴</w>
文 具</w>
文 中</w>
整 形
数 目</w>
救 火</w>
政 务</w>
放声 大哭</w>
放在 眼里</w>
放 手</w>
攻击 性</w>
改正 错误</w>
改 变
收 容
收容 所</w>
撒 娇</w>
搁 板</w>
插 图</w>
提前 退休</w>
提 着</w>
揉 搓</w>
推 车</w>
推 定</w>
推 卸</w>
接 管</w>
排 行榜</w>
换 气</w>
捐 出</w>
捉 迷藏</w>
捆 绑</w>
挨 骂</w>
挥 霍</w>
挟 持</w>
挖 苦</w>
挑 拨</w>
挑 出</w>
按 钮</w>
挂 牌</w>
拼 死</w>
拔 掉</w>
拉 着</w>
抽 象
抵抗 力</w>
抱 负</w>
抢 走了</w>
抢 先</w>
把 柄</w>
承 认错误</w>
扼 杀</w>
扶 起来</w>
执 己见</w>
打 磨</w>
才 干</w>
房 檐</w>
战 局</w>
成 群结
成 效</w>
成 员国</w>
懦 弱</w>
慢 点儿</w>
慌 里慌张</w>
慌 忙</w>
慌 张
慈 悲</w>
感到 高兴</w>
意料 之外</w>
愈来 愈</w>
惹 是生非</w>
惨 淡</w>
惊 慌
惊 奇</w>
情 况
悬 崖
悄 然</w>
恶 毒</w>
总 务
性 别
怜 悯</w>
忧 伤</w>
忙 活</w>
忘 形</w>
志 士</w>
必 要
心急 如焚</w>
心 动</w>
微 薄</w>
得 病</w>
往 里</w>
往 东</w>
影 视
彩 绘</w>
彩 旗</w>
彗 星</w>
录像 带</w>
录 音机</w>
当 官</w>
当 儿</w>
当 众</w>
式 各样</w>
异 味</w>
异 口
异口 同声</w>
开发 商</w>
开 销</w>
开 采</w>
开 衫</w>
开 城</w>
延 坪
延坪 岛</w>
康 乃
康乃 馨</w>
序 言</w>
序 幕</w>
幸福 生活</w>
并 肩</w>
年 里</w>
年 华</w>
干 草</w>
干 脆
干 涸</w>
巴 格
差 别
岳 父</w>
山 水画</w>
山 再起</w>
展 品</w>
屏 住</w>
居 多</w>
层 楼</w>
尾 声</w>
尽 致</w>
尼 日利亚</w>
少 年
小 气</w>
小 幅</w>
小 女儿</w>
射 击
对外 贸易</w>
对 阵</w>
对 错</w>
对 称</w>
家 教</w>
家 境
实 地
实 况</w>
宝 玉</w>
宜 人</w>
宛 如</w>
学 了</w>
存 心</w>
存 储
字 里行间</w>
娘 子</w>
姐 妹俩</w>
如 此
好 使</w>
好 似</w>
奇 异</w>
夸 奖</w>
头 盔</w>
头 皮</w>
失 火</w>
失 利</w>
太 淡</w>
天高 地
天高地 厚</w>
天 际</w>
天 边</w>
天 热</w>
天 津</w>
天 化
天化 日</w>
大 陆
大 汗</w>
大 权</w>
大 手
大 吵
大 受欢迎</w>
大 个子</w>
夜 路</w>
多 用</w>
多 多
外交 关系</w>
外 观</w>
外 宾</w>
复 仇</w>
备 用</w>
声 援</w>
壮 烈</w>
增 税</w>
境 内</w>
塔 利
塔利 班</w>
堵 墙</w>
城 乡</w>
坛 子</w>
坚 实</w>
坚 定
坑 洼洼</w>
坑 坑洼洼</w>
地 要</w>
地 表</w>
地 盘</w>
地 掉</w>
在 短期内</w>
土 著</w>
土 地
圈 圈</w>
图 章</w>
国 立
国 有
国 庆</w>
固 守</w>
围 成</w>
困 意</w>
因 后果</w>
回 升</w>
四面 八方</w>
四 处
噩 耗</w>
嘴 儿</w>
嘎 巴</w>
嘀 咕</w>
喝 牛奶</w>
喜 马拉
喜 好</w>
喂 奶</w>
商 铺</w>
唧 唧</w>
哪 来</w>
哨 兵</w>
哗啦 哗啦</w>
咸 淡</w>
咬 紧
和 蔼</w>
咋 呼</w>
味 无穷</w>
吸 毒</w>
启 用</w>
启 事</w>
含 糊不清</w>
后 脑勺</w>
后 感</w>
名牌 产品</w>
同 龄人</w>
合 力</w>
合 体</w>
各 式各样</w>
史无 前例</w>
可 信</w>
古 今
古今 中外</w>
口 罩</w>
口 哨</w>
口 吻</w>
变 态</w>
取 笑</w>
发 胖</w>
发 源</w>
发 明
发 动
发 力</w>
发 出
反 弹</w>
双 赢</w>
参考 书</w>
原始 人</w>
原 委</w>
原 以为</w>
压 压</w>
历史 性</w>
历史 剧</w>
厄 运</w>
占 卜</w>
南 道</w>
单 身
单 凭</w>
半 路</w>
半 球</w>
半 个世纪</w>
千 金</w>
千 辛万苦</w>
十 里</w>
十 年
十 八</w>
医 师</w>
北 上</w>
化 为
勤奋 工作</w>
勤 俭
勘 探</w>
勉 励</w>
动 画片</w>
动 手术</w>
动 弹</w>
动 作
动 乱</w>
加 倍</w>
办事 处</w>
劝 导</w>
劈 成</w>
剪 子</w>
前 因后果</w>
刻 画</w>
刹 那</w>
到 此
利 索</w>
初 步</w>
刚 来</w>
刚 出生</w>
列 出</w>
划 过</w>
刑事 责任</w>
出口 额</w>
出 现异常</w>
出 游</w>
军 用
再次 发生</w>
再 来</w>
兼 具</w>
养 老</w>
其 自然</w>
关 在</w>
公平 竞争</w>
公 告栏</w>
全 然</w>
全 州</w>
全 厂</w>
入 门</w>
入 围</w>
克服 困难</w>
光 秃秃</w>
光 是</w>
光 天化日</w>
先 是</w>
僵 化</w>
健康 成长</w>
做 买卖</w>
偏 袒</w>
假 币</w>
修 剪</w>
保 镖</w>
俗 语</w>
侵略 战争</w>
侵 袭</w>
作 答</w>
体育 锻炼</w>
体 格</w>
体 弱</w>
住 宿费</w>
但 愿</w>
伴 奏</w>
伦 比</w>
传染 给</w>
传 承</w>
优 质</w>
休 止</w>
休 养</w>
任 职</w>
任 凭</w>
以 至于</w>
以 示</w>
他 气</w>
从 此以后</w>
介 意</w>
仅 靠</w>
人 长</w>
人 流</w>
人 大</w>
人 体
人 住</w>
亲 身经历</w>
亲 密
产 生
交 出</w>
五 颜
五 名</w>
互 利</w>
二手 车</w>
二 百</w>
二 战</w>
二 位</w>
了 之</w>
乱 哄哄</w>
买 卖
书 面</w>
九 年</w>
之 计</w>
之 气</w>
乃 是</w>
主 观
为 首</w>
临床 试验</w>
临 头</w>
中 产阶级</w>
个 别
丧 生</w>
两 瓶</w>
两 口子</w>
东 山再起</w>
东 南</w>
丛 林</w>
世纪 末</w>
世界 冠军</w>
世博 会</w>
世 子</w>
不管 是谁</w>
不 醒</w>
不 详</w>
不 识
不 绝
不 穷</w>
不 祥</w>
不 正</w>
不 朽</w>
不 掉</w>
不 挠</w>
不 妙</w>
不 单
不 凡</w>
下 摆</w>
下 子</w>
下 围棋</w>
上 火</w>
上 人</w>
三 峡</w>
三 尺</w>
万 人
一百 万</w>
一 筹</w>
一 盒</w>
一 格</w>
一 月</w>
一 斤</w>
一 寸</w>
一 字</w>
一 天天</w>
一 升</w>
一 分钟</w>
一 万</w>
a l
6 6</w>
4 9</w>
4 2</w>
4 0
1 80</w>
1 10</w>
0 0
黏 糊糊</w>
黄 花鱼</w>
黄 土</w>
鸟 鸣</w>
鲁 莽</w>
高 水平</w>
高 性能</w>
高 得</w>
高 强度</w>
高 举</w>
高 下</w>
骨 架</w>
骑 车</w>
驶 过</w>
驳 回</w>
驱逐 出境</w>
马 来
马 戏
香 火</w>
首 领</w>
飞 涨</w>
风 势</w>
风 力</w>
颈 部</w>
领 着</w>
顺 风</w>
顺 溜</w>
音 响
霸 气</w>
需求 者</w>
零 零</w>
雨 来</w>
雇 主</w>
难 说</w>
难 懂</w>
难 保</w>
难 于</w>
难 为
随 和</w>
隆重 举行</w>
陪 审
阵 痛</w>
防晒 霜</w>
防 万一</w>
阅 览
阅览 室</w>
闺 女</w>
闹 翻</w>
问 好</w>
问 个</w>
闭 嘴</w>
门 面</w>
长 进</w>
镰 刀</w>
锅 盖</w>
锅 底</w>
银 幕</w>
钞 票</w>
鉴 赏</w>
金 浦</w>
野 草</w>
野 生</w>
重 工业</w>
重 力</w>
里 啪啦</w>
酷 似</w>
部 族</w>
郁郁 葱葱</w>
邻 近</w>
那 项</w>
那 家
那 台</w>
避 难
遮 盖</w>
造 林</w>
造 出</w>
造 作</w>
逗 人</w>
逐 个</w>
透 了</w>
逆 向</w>
逃 犯</w>
送 货
送 行</w>
退 回</w>
迷 宫</w>
迪 拜</w>
迟 缓</w>
连 天</w>
连 休</w>
进 退
这么 点儿</w>
这么 晚</w>
这么 些</w>
这么 久</w>
这 部分</w>
这 袋</w>
这 盘</w>
这 比</w>
这 段话</w>
这 布</w>
这 使</w>
这 会</w>
返 乡</w>
运 费</w>
运 河</w>
过 往</w>
过 剩</w>
边 界</w>
辞 职
输 出</w>
载 人</w>
转 来
转 去</w>
轩 然大
轩然大 波</w>
车 里</w>
身材 矮小</w>
身 子
跑 掉</w>
跌 至</w>
足 联</w>
越 长</w>
越 低</w>
趁 早</w>
赶 忙</w>
赶 回</w>
赵 某</w>
走私 物品</w>
走 走</w>
走 失</w>
走 不动</w>
赞 赏</w>
赞 叹不已</w>
贫困 学生</w>
贪 官</w>
货 运</w>
账 目</w>
败 仗</w>
财经 部</w>
财 界</w>
财 务
财 力</w>
豆 沙</w>
调查 团</w>
调 剂</w>
课 桌</w>
读 物</w>
诸 如</w>
说 来</w>
详 细
试 问</w>
试 看</w>
试 探</w>
试 一下</w>
词 句</w>
证 言</w>
论 据</w>
讲 理</w>
讲 授</w>
训 了</w>
让 座</w>
认 知</w>
警戒 线</w>
警 力</w>
言 辞</w>
言 谈
解 题</w>
视而 不见</w>
见面 会</w>
见 见</w>
西 方人</w>
襁 褓</w>
衬 托</w>
表 述</w>
表 格</w>
补 药</w>
补 习</w>
补 丁</w>
行 舟</w>
行 者</w>
行 性</w>
血 压
螃 蟹</w>
蚕 食</w>
虚 幻</w>
薄薄 的</w>
蒜 皮</w>
蒙 古
落 脚</w>
萝 卜
菠 萝</w>
荣 获</w>
草 绳</w>
草 房</w>
英 格兰</w>
英 文
英 国人</w>
苦 涩</w>
苦 心</w>
花 束</w>
花 插</w>
色 苍白</w>
艰 难
良 性
航 道</w>
航 运</w>
至 沓
至沓 来</w>
自 语</w>
自 行
自 新</w>
自 作
自 习</w>
臀 部</w>
腹 大笑</w>
腰 间</w>
腰 里</w>
脱 轨</w>
脚 跟</w>
脚 脖子</w>
背 部</w>
背 地里</w>
胆 小</w>
肤 色</w>
肝 炎</w>
肚 里</w>
肋 骨</w>
联 邦</w>
耳 目</w>
而 立</w>
考 证</w>
老 院</w>
老 眼光</w>
老 天
老天 爷</w>
翻 来
羽 毛</w>
罐 子</w>
编 辑
编 号</w>
绿 化</w>
绚 烂</w>
给 与</w>
绘 制</w>
绊 脚石</w>
织 品</w>
纷 至沓来</w>
纷 纷
纵 火</w>
纲 纪</w>
红 牌</w>
紧 缩</w>
精神 压力</w>
精 疲力尽</w>
精 湛</w>
粗 粗</w>
篇 幅</w>
筹 划</w>
第 三个</w>
笑了 起来</w>
童话 故事</w>
竞 相</w>
竞 技</w>
站 立</w>
窝 点</w>
空 话</w>
稿 纸</w>
税 店</w>
稍 加</w>
程 子</w>
积 蓄</w>
租 住</w>
科 医生</w>
种 树</w>
种 下</w>
私 人
离 奇</w>
离 乡</w>
票 价</w>
神 来</w>
硬 化</w>
硬 件</w>
破 格</w>
矿 物质</w>
石 碑</w>
知识 产权</w>
知情 权</w>
督 促</w>
睡 眠
睡眠 不足</w>
睡 意</w>
眼 线</w>
眯 眯</w>
眨 眼睛</w>
真 谛</w>
相 看</w>
直 发抖</w>
目 击</w>
盛 会</w>
盎 然</w>
益 处</w>
盈 余</w>
皱 起</w>
白白 地</w>
登 记
病 重</w>
病 态</w>
疗 养
疏 散</w>
畸 形</w>
留 个</w>
画 像</w>
电 风扇</w>
用 车</w>
用 词</w>
用 卡</w>
用 光</w>
生 机
瓶 盖</w>
理工 科</w>
球 场上</w>
珍 爱</w>
玩 家</w>
献 上</w>
独 木
犯了 错</w>
牵 强</w>
物 理学</w>
物 理
牢 靠</w>
牢 房</w>
牛 病</w>
爬 坡</w>
热 血</w>
烧 毁</w>
烙 印</w>
点 灯</w>
灵活 性</w>
火灾 现场</w>
火 燎</w>
灌 溉</w>
濒 临</w>
激动 不已</w>
潮 水</w>
潜 艇</w>
漫 长
演 说
演 员
演员 阵容</w>
溪 流</w>
湿 润</w>
游 人</w>
温 水</w>
清 秀</w>
清 单</w>
深 陷</w>
深 意</w>
深 思</w>
深 化</w>
淋 漓</w>
润 色</w>
消 磨</w>
消 极
消 散</w>
消 亡</w>
海 绵</w>
测 定</w>
流 着</w>
流 畅</w>
流 亡</w>
派 出
派出 所</w>
洗 刷</w>
洒 脱</w>
治 好</w>
沸 沸
沸沸 扬扬</w>
没 过
没 规矩</w>
没 小</w>
没 劲</w>
沉 睡</w>
沉 淀</w>
汪 汪</w>
汉 文</w>
汉 拿
汉拿 山</w>
求 职者</w>
水 草</w>
水 温</w>
水 利
水 从</w>
气 流</w>
民间 艺术</w>
民俗 村</w>
民 兵</w>
民 事</w>
毛 皮</w>
比比 皆是</w>
毒 软件</w>
毒 药</w>
残 暴</w>
武 断</w>
此 机会</w>
歌 唱
欠 缺</w>
橱 窗</w>
橡 树</w>
樱 桃</w>
横 行
榴 弹</w>
概 念
森 森</w>
棒 子</w>
检 点</w>
桑 拿
根 底</w>
核 试验</w>
校 规</w>
染 料</w>
某 处</w>
枷 锁</w>
架 势</w>
架 不住</w>
枪 响</w>
杯 赛</w>
来 劲</w>
条 条</w>
李 老师</w>
李 白</w>
李 子</w>
杆 子</w>
杂 技</w>
杂 乱</w>
杀 毒软件</w>
杀 伤
机 身</w>
机 会
未 知</w>
有色 眼镜</w>
有 礼</w>
有 氧</w>
有 毒</w>
有 尽
有尽 有</w>
有 害
有 名气</w>
曲 目</w>
景 区</w>
普遍 性</w>
春 秋</w>
明智 之举</w>
明 朝</w>
旷 课</w>
时 赛</w>
日新月 异</w>
日 光</w>
无关 紧要</w>
无 遗</w>
施 压</w>
新 作</w>
新 书</w>
文学 史</w>
文 集</w>
整 座</w>
整 体
数学 家</w>
散 散</w>
教育 界</w>
救 济
效 仿</w>
放 进去</w>
放 肆</w>
放 任</w>
改 不了</w>
支 架</w>
撞 击</w>
撕 破</w>
摇摆 不定</w>
搞 定</w>
推 销员</w>
推 算</w>
推 移</w>
接 手</w>
接 头</w>
探 险
掉 色</w>
捧 腹大笑</w>
损 毁</w>
损 失
捕 食</w>
捍 卫</w>
捉 贼</w>
捉 弄</w>
挺 直</w>
挺 不错</w>
挣 脱</w>
指 掌</w>
拿 不定</w>
拼 音</w>
拧 开</w>
抹 黑</w>
抵 消</w>
报 价</w>
报 仇</w>
折 扣
投 篮</w>
抓 起</w>
把 酒</w>
扮 成</w>
扫 而
打 赌</w>
打 消</w>
打 哆嗦</w>
打 压</w>
打 不开</w>
手 足</w>
手 拿
手 心</w>
手 做</w>
所 指</w>
所 在
户 外</w>
我 该</w>
我 想</w>
成 问题</w>
成 就
成就 感</w>
憎 恨</w>
慈 祥</w>
感 知</w>
感 染
意见 分歧</w>
愉 悦</w>
惺 惺</w>
想 出</w>
惊慌 失措</w>
惊 喜</w>
情 谊</w>
情 景
情 意</w>
您 好</w>
恩 爱</w>
总 务</w>
怦 怦</w>
忧 郁症</w>
忠 臣</w>
心理 学</w>
心 烦</w>
心 境</w>
循 环
得意 忘形</w>
徐 徐</w>
很 饱</w>
很 辣</w>
往 下</w>
录取 名单</w>
归 队</w>
强制 性</w>
弱 势
弱势 群体</w>
弊 病</w>
开 票</w>
开 演</w>
开 满</w>
废 品</w>
应 用
应 有尽有</w>
库 房</w>
年 期</w>
平 民
干 枯</w>
干 扰</w>
干 巴</w>
干 二
干二 净</w>
常 理</w>
帮 人</w>
帝 王</w>
市 价</w>
巴格 达</w>
巴 掌</w>
差 额</w>
差 劲</w>
差 事</w>
差 一点</w>
巨 头</w>
工作 量</w>
工 钱</w>
工 序</w>
巡 警</w>
崇 礼</w>
山 洞</w>
山 寨</w>
属 实</w>
屋 内</w>
屈 辱</w>
屈 膝</w>
居 室</w>
尽心 尽力</w>
尼 龙</w>
尼 亚</w>
就 够</w>
尚 有</w>
尘 器</w>
小组 赛</w>
小心 谨慎</w>
小 男孩</w>
小 王子</w>
小 树</w>
小 李</w>
小 品</w>
封 不动</w>
导 火
察 觉
宽 厚</w>
家 长
家 什</w>
家 业</w>
害 者</w>
客 场</w>
实 名</w>
实 为</w>
定 位</w>
官 府</w>
宗教 界</w>
完 蛋</w>
安 理会</w>
安 安
孩 子
学术 会议</w>
学 员</w>
婉 转</w>
娱乐 场所</w>
娱乐 圈</w>
姑 子</w>
始 末</w>
妻 儿</w>
如 指掌</w>
好几 种</w>
好久 不见</w>
好 容易</w>
好 办</w>
好 了
奶 瓶</w>
女 郎</w>
女 职员</w>
女 主角</w>
女 主人</w>
奥 委会</w>
奢 侈
奠 定</w>
奖 项</w>
奔 腾</w>
奋 斗
夺 回</w>
夹 住</w>
失 恋</w>
太阳 镜</w>
太阳 系</w>
太 短</w>
太 瘦</w>
太 暗</w>
天气 炎热</w>
天 真</w>
天 王</w>
天 灾</w>
天 上
大 错</w>
大 葱</w>
大 脚</w>
大 清早</w>
大 提琴</w>
大 扫除</w>
大 打
大 房子</w>
大 块</w>
多 项</w>
多 变</w>
外 科</w>
外 文</w>
外 币</w>
士 官</w>
士 大夫</w>
士 们</w>
墨西 哥</w>
塌 陷</w>
堵 得</w>
城 门</w>
坑 道</w>
地 雷</w>
地 质</w>
地 朝</w>
地 平线</w>
在生活 中</w>
在 野</w>
在 世界
在世界 上</w>
圣 贤</w>
圣 火</w>
圈 内</w>
圆满 成功</w>
国务 会议</w>
国 道</w>
困 苦</w>
困 住</w>
团体 赛</w>
团 聚</w>
回 音</w>
四 年级</w>
四 天</w>
嚣 张</w>
嘲 讽</w>
嗜 好</w>
喜 悦
喜 庆</w>
喘 吁吁</w>
喂 养</w>
啰 嗦</w>
啪 嗒</w>
唾 弃</w>
哲 理</w>
哐 当</w>
哈 气</w>
哀 乐</w>
咬紧 牙关</w>
咖啡 因</w>
和平 共处</w>
呼吸 困难</w>
味 十足</w>
周 期
周 围
吸引 力</w>
向 西</w>
名 家</w>
同 居</w>
合 眼</w>
合 理性</w>
合 物</w>
合 得来</w>
合 唱</w>
各 界人士</w>
各 不
各不 相同</w>
吃不 饱</w>
可 耻</w>
另 有</w>
口 红</w>
口 令</w>
叠 好</w>
叛 乱</w>
变 异</w>
受灾 地区</w>
受 挫</w>
受 人</w>
取 款</w>
取 巧</w>
发 痒</w>
发 疯</w>
发 现
发 射
发 呆</w>
反对 派</w>
反 败为胜</w>
反 作用</w>
参考 文献</w>
原子 能</w>
原 封不动</w>
卷 起</w>
卵 子</w>
南 韩</w>
南 非</w>
卖 力气</w>
半 辈子</w>
十 多</w>
医 学界</w>
匕 首</w>
努力 提高</w>
努力 奋斗</w>
加 时赛</w>
劝 阻</w>
剧 组</w>
剧 毒</w>
前 期</w>
前 嫌</w>
前 半
前 列</w>
前 不久</w>
制 药</w>
别 致</w>
别 想</w>
别 处</w>
利 己</w>
刊 载</w>
分 配
击 打</w>
出 马</w>
出 过</w>
出 车祸</w>
出 毛病</w>
出 处</w>
出 国
出 入口</w>
出 乎</w>
凶 器</w>
几 颗</w>
几 片</w>
几 杯</w>
减 缓</w>
凉 飕飕</w>
凉 风</w>
冲 走</w>
冰 川</w>
冰 凉</w>
冬 至</w>
农 闲</w>
农 具</w>
内 行</w>
其 数</w>
其 人</w>
关 节炎</w>
六 色</w>
六 十岁</w>
公共 设施</w>
公共 交通</w>
八 九</w>
全球 性</w>
兑 现</w>
免 费
免 税店</w>
光 辉</w>
充满 希望</w>
儿 们</w>
催 泪
储 藏</w>
储 蓄
做 文章</w>
做 得好</w>
做 工</w>
做 学问</w>
假 定</w>
借 书</w>
倒 数</w>
修 筑</w>
保护 区</w>
保 卫</w>
保 佑</w>
侵 入</w>
侨 民</w>
供 暖</w>
例 行</w>
佳 作</w>
作 曲</w>
余 人</w>
体育 课</w>
低 落</w>
会 为</w>
优 良
以 防万一</w>
令人 担忧</w>
他 花</w>
从 今天
从今天 起</w>
从 严</w>
人 真</w>
亲 爱</w>
亲 朴</w>
亲 信</w>
亮 度</w>
交 朋友</w>
交 待</w>
五颜 六色</w>
五 块</w>
五 十岁</w>
云 南</w>
于 世</w>
争 辩</w>
争 相</w>
了 如指掌</w>
乱 子</w>
买 主</w>
之 时</w>
之 声</w>
主 语</w>
主 要
主 楼</w>
主 旨</w>
为 啥</w>
丰 满</w>
中央 电视台</w>
中 有
中 意</w>
严 酷</w>
严 令</w>
两 面</w>
两 米</w>
两 杯</w>
两 条
两 本</w>
两 地</w>
两 台</w>
两 千</w>
两 军</w>
两 份</w>
东 西方</w>
东 方人</w>
丛 书</w>
世界 化</w>
专 题
与其 说</w>
不起 眼</w>
不经 意</w>
不知 疲倦</w>
不着 边际</w>
不忍 心</w>
不如 意</w>
不 进</w>
不 移</w>
不 正经</w>
不 忙</w>
不 尽
不 予</w>
下 雨天</w>
下 着
下 气</w>
下 楼</w>
下 意识</w>
下 垂</w>
下 个星期</w>
上 路</w>
上 岗</w>
三 月份</w>
三 口</w>
三 三
三 七
万 户</w>
一贯 性</w>
一片 片</w>
一 笔
一 站</w>
一 窝
一 番话</w>
一 气
一 桌</w>
一 枝</w>
一 提</w>
一 扫而
一 打</w>
一 塌
一 刀</w>
一 万
a t
7 2</w>
7 000</w>
6 9</w>
4 4</w>
199 4</w>
1 30</w>
黯 淡</w>
黑 马</w>
麻 袋</w>
麻 布</w>
鸡 皮
鸡皮 疙瘩</w>
鲫 鱼</w>
鲍 鱼</w>
鱼 饵</w>
魔 鬼
高利 贷</w>
高 质量</w>
高 等
高 油价</w>
高 效</w>
骨 碌碌</w>
骡 子</w>
骗 术</w>
驶 入</w>
首 场</w>
饭 量</w>
饭 粒</w>
食 指</w>
风 靡</w>
风 水</w>
风 情</w>
颗 颗</w>
颇 丰</w>
领 事</w>
顽 皮</w>
顺 序
顺序 排列</w>
韵 味</w>
音 量</w>
面 膜</w>
非常 适合</w>
非 正规</w>
静 坐</w>
靓 丽</w>
难以 预料</w>
难 逃</w>
隔 开</w>
陛 下</w>
附 着</w>
陀 螺</w>
阿拉 伯
阻 塞</w>
防 疫</w>
防 火</w>
防 波
防波 堤</w>
防 战</w>
阐 释</w>
闹 肚子</w>
闹 着
间 距</w>
闭 门
长长 地</w>
长得 帅</w>
长 篇小说</w>
长 毛</w>
铁 门</w>
铁 道</w>
钻 石
金 黄</w>
金 矿</w>
金 字
金 子</w>
重 振</w>
里 长</w>
酿 造</w>
酸酸 的</w>
酒 气</w>
郑 某</w>
邻 村</w>
邮 政</w>
那 颗</w>
那 辆车</w>
那 栋</w>
那 批</w>
道 而
道 义</w>
遍 地</w>
造 就</w>
途 而
途而 废</w>
透 风</w>
透 顶</w>
选 项</w>
选 购</w>
适 用
追 尾</w>
追 寻</w>
迫 感</w>
连 个</w>
远 扬</w>
进 步
这 番</w>
这 枚</w>
这 头</w>
这 匹</w>
过敏 反应</w>
过 自新</w>
过 渡
过 半数</w>
过 低</w>
迁 户</w>
辛辛 苦苦</w>
辗 转</w>
输 赢</w>
辍 学</w>
轻 薄</w>
轮 子</w>
转来 转去</w>
转 眼
转 告</w>
身体 虚弱</w>
身 躯</w>
身 心
身 亡</w>
身 一人</w>
跳 水</w>
跳 板</w>
起 用</w>
赶 出</w>
走 掉</w>
资 料
贵 重
购物 袋</w>
购 进</w>
账 单</w>
败 局</w>
负 荷</w>
豪 感</w>
谈 一谈</w>
调 味
谁 家</w>
读 懂</w>
读 书
请 帖</w>
说 成</w>
该 队</w>
该 地</w>
话 儿</w>
诚 地</w>
试 用</w>
译 本</w>
诋 毁</w>
评 分</w>
讲 完</w>
记忆 里</w>
记 在心</w>
订 婚</w>
言谈 举止</w>
见 鬼</w>
覆 盖
要 学</w>
要 地</w>
西 斯</w>
装 着</w>
装 点</w>
裁 缝</w>
裁 军</w>
袒 护</w>
补 给</w>
行 踪</w>
行 贿</w>
蝙 蝠</w>
蜜 月</w>
蜘 蛛网</w>
蛋 白</w>
虫 害</w>
虚 拟
藏 青色</w>
薪 金</w>
葱 绿</w>
菠 菜</w>
菜 花</w>
获得 者</w>
药 用</w>
草 绿色</w>
草 屋</w>
草 丛
苹 果
英 镑</w>
英 里</w>
芹 菜</w>
花花 公子</w>
芭 蕾</w>
芦 苇</w>
良 机</w>
船 头</w>
舰 队</w>
舜 臣</w>
臭 钱</w>
臭 皮
臭 氧
臭氧 层</w>
自由 自在</w>
自取 灭亡</w>
自主 性</w>
自 豪感</w>
自 拔</w>
自 居</w>
臃 肿</w>
腐 败
腐 化</w>
脚 后跟</w>
能 靠</w>
胶 卷</w>
胃 癌</w>
肩 负着</w>
肩 带</w>
肠 子</w>
职 权</w>
耳 环</w>
而 今</w>
考虑 一下</w>
考 研</w>
考 核</w>
考 察
老 汉</w>
老 师傅</w>
老 套</w>
老 两口</w>
翻 车</w>
翩 翩
群众 运动</w>
美术 界</w>
美 美</w>
美 白</w>
罗马 帝国</w>
缺 失</w>
缠 身</w>
缝 里</w>
缜 密</w>
缅 甸</w>
绿 洲</w>
绝 食</w>
结 结
结 出</w>
结 了</w>
经济 上</w>
经 不住</w>
细 细</w>
细 小</w>
细 密</w>
细 嫩</w>
纹 理</w>
红 花</w>
红 旗</w>
繁 多</w>
累 计</w>
紧 接着</w>
索 里</w>
精神 病</w>
精 诚
精 美</w>
粮食 产量</w>
粗 重</w>
粗 略</w>
粗 俗</w>
米 袋</w>
简 陋</w>
签 发</w>
签 了</w>
等 兵</w>
第三 次</w>
第 九
笔 字</w>
竹 竿</w>
竹 林</w>
竟 敢</w>
站 稳</w>
立 志</w>
窥 视</w>
窝 里
窗 边</w>
突然 袭击</w>
突 起</w>
突 变</w>
突 击</w>
穿 插</w>
空 想</w>
稀 烂</w>
科研 成果</w>
私家 车</w>
私 下</w>
福利 部</w>
祸 害</w>
票 口</w>
神秘 感</w>
神 像</w>
磕 碰</w>
碰 见</w>
砰 砰</w>
矿 业</w>
石 头
矮 子</w>
矫 正</w>
矣 岛</w>
睫 毛
着 落</w>
着 打扮</w>
眼 部</w>
真 话</w>
看得 见</w>
看 透</w>
相 配</w>
相 聚</w>
相 中</w>
盛 情</w>
皱 皱巴巴</w>
皮肤 病</w>
皮 球</w>
皮 包
皆 知</w>
百花 盛开</w>
病 情
疑 虑</w>
疑 点</w>
电脑 前</w>
电影 票</w>
电影 界</w>
由 衷</w>
田径 比赛</w>
田 埂</w>
用 布</w>
生物 学</w>
生产 率</w>
生 疼</w>
生 根</w>
生 出</w>
生 下</w>
甜 丝丝</w>
瑜 伽</w>
班 次</w>
珠 笔</w>
珠 宝</w>
现代 汉语</w>
现代 史</w>
王 冠</w>
献 血</w>
独 居</w>
独 家
犹 新</w>
犹 太
特 惠</w>
物 力</w>
牢 记</w>
牛 脾气</w>
片 子</w>
爷 爷
爷爷 奶奶</w>
爱国 心</w>
爱 着</w>
爱 慕</w>
爆 发力</w>
爆 出</w>
煤 烟</w>
然自 若</w>
热 点</w>
热 泪</w>
烧 掉</w>
点 半</w>
点 到</w>
灿 灿</w>
灰 蒙蒙</w>
灯 火</w>
灯 火
灯 亮
灯亮 了</w>
火 红</w>
火 机</w>
火 把</w>
激 光</w>
漓 尽致</w>
满天 飞</w>
满 员</w>
滑雪 板</w>
滋 生</w>
溶 化</w>
溢 出</w>
湿 地</w>
游牧 民族</w>
渗 入</w>
渔 业</w>
清 水</w>
淫 秽</w>
淡 绿色</w>
淘汰 赛</w>
淋 漓尽致</w>
涉 足</w>
海 滨</w>
海 南</w>
浓 密</w>
浑 浊</w>
流 血
活 路</w>
活 生生</w>
活 来</w>
活 命</w>
洪 亮</w>
注射 针</w>
波 折</w>
法律 责任</w>
法 定
法 制
油 灯</w>
没大 没小</w>
没 面子</w>
没 过</w>
没 考上</w>
没 事儿</w>
污 蔑</w>
汝 矣岛</w>
汉 阳</w>
求 饶</w>
水 资源</w>
水 淹</w>
水 沟</w>
水 来</w>
水 坑</w>
气 头上</w>
气 喘吁吁</w>
气 不
民族 主义</w>
民 秀</w>
毛 笔</w>
毛 泽
毛 孔</w>
毕业 典礼</w>
每 一件</w>
歪 斜</w>
此 书</w>
歌 颂</w>
歌 舞</w>
歉 意</w>
次 三
次三 番</w>
欠 款</w>
橡皮 筋</w>
橙 色</w>
橙 子</w>
植 树</w>
棍 儿</w>
检 索</w>
梁 柱</w>
档 次</w>
桌 前</w>
格 斗</w>
根本 性</w>
根 治</w>
校 庆</w>
树 干</w>
柿 饼</w>
枝 头</w>
林 立</w>
林 子里</w>
极 具</w>
板 儿</w>
来 之
李 舜臣</w>
李 教授</w>
杂 货
杂 粮</w>
机 应变</w>
本 着</w>
末 班车</w>
木 柴</w>
期 盼</w>
服 从
有 误</w>
有 益于</w>
最 高峰</w>
更 具</w>
曲 曲</w>
晴 天</w>
景 气
晨 练</w>
显 露出来</w>
春 笋</w>
春 来</w>
春 日</w>
星 座</w>
昏 昏
明确 规定</w>
明 灯</w>
时 钟</w>
时 应</w>
时 不
早 退</w>
旧 事</w>
旧 习</w>
无一 例外</w>
无 限期</w>
无 言</w>
无 罪
无 暇</w>
无 家
无家 可
无家可 归</w>
无 休止</w>
旗 子</w>
施 肥</w>
新闻 界</w>
新 设</w>
新 绿</w>
新 房子</w>
斡 旋</w>
文学 家</w>
文学 奖</w>
文 科</w>
数 值</w>
敬 意</w>
教 练
敌 对</w>
政治 上</w>
政府 军</w>
放心 不下</w>
放 风筝</w>
放 送</w>
放 慢</w>
攻 防战</w>
攻 防</w>
改 写</w>
收 购
收 据</w>
撤 离</w>
摘 取</w>
揪 住</w>
揣 摩</w>
握 紧</w>
描 绘
推 崇</w>
接 种</w>
接 吻</w>
探 测
掐 断</w>
掌 管</w>
换 取</w>
振作 起来</w>
挨 户</w>
挤 得</w>
挖 掘出</w>
挎 着</w>
持 枪</w>
拿 给</w>
拟 人
拘 留
拐 角</w>
拍 子</w>
拉 长</w>
报 废</w>
报 应</w>
报 上</w>
抢 占</w>
抉 择</w>
技 师</w>
承受 不住</w>
承 包
扩 音器</w>
执 勤</w>
扣 留</w>
托 儿
托儿 所</w>
托 付</w>
打 麻将</w>
打 闹</w>
打 点</w>
打 火机</w>
打 滑</w>
打 杂</w>
打 手势</w>
打 小
打 字
打 包</w>
扎 进</w>
手 推车</w>
手 动</w>
房 主</w>
战 俘</w>
戒 酒</w>
我 本</w>
成 名
成 书</w>
戏 水</w>
懒 得</w>
懈 怠</w>
懈 努力</w>
慢 点</w>
感 应</w>
意大 利
意 境</w>
想 不起</w>
惨 遭</w>
惨 剧</w>
情 绪
悬崖 峭壁</w>
悬 赏</w>
恶 劣
恰 好</w>
恨 不得</w>
恐怖 电影</w>
总 选</w>
总 结
思 绪</w>
怀 上</w>
快 节奏</w>
快 活</w>
忘 怀</w>
志 向</w>
心 领
心 神
心 目</w>
心 有余
心 口</w>
微 生物</w>
律 平等</w>
很 香</w>
很 感兴趣</w>
很 广</w>
很 嫩</w>
彰 显</w>
归 国</w>
强 求</w>
弯弯 曲曲</w>
弘 扬</w>
引 起
式 样</w>
弄 错</w>
异 国
异 乡</w>
开 起</w>
开 战</w>
开 局</w>
开 叉</w>
开 去</w>
开 创</w>
开 了个</w>
度 数</w>
庆 幸</w>
广播 节目</w>
广 义</w>
幼 时</w>
并不 一定</w>
并 进</w>
并 列</w>
年 迈</w>
年 均</w>
平均 化</w>
常 在</w>
常 人</w>
席 位</w>
希 腊
师 父</w>
差 价</w>
巨 资</w>
巨 款</w>
巨 星</w>
工业 革命</w>
工 资
巡 访</w>
崽 子</w>
岔 子</w>
岁月 流逝</w>
山 羊</w>
居 高
居 住
层 出
层出 不穷</w>
尾 气</w>
尘 不染</w>
小 丑</w>
尊 重
射击 训练</w>
寿 司</w>
对 岸</w>
察觉 到</w>
察 觉</w>
家务 事</w>
家 糊口</w>
家 当</w>
宣 读</w>
审判 官</w>
实际 行动</w>
实 说</w>
实 战</w>
实 事</w>
官 方
宏 观</w>
宋 代</w>
安全 帽</w>
安 息</w>
孤 僻</w>
存 者</w>
嫩 绿</w>
如 雷</w>
如 期</w>
如 意</w>
好 玩</w>
好 客</w>
好 书</w>
女 秘书</w>
女 神</w>
契 约</w>
失 足</w>
失 手</w>
失 之
太 深</w>
太 旧</w>
太 急</w>
太 差</w>
太 咸</w>
太 厚</w>
天 线</w>
天 塌下来</w>
天 一亮</w>
大手 大脚</w>
大学 校长</w>
大声 喊叫</w>
大力 发展</w>
大不 一样</w>
大 马</w>
大 祸</w>
大 爷</w>
大 拇指</w>
大 家庭</w>
大 堤</w>
大 名</w>
大 化</w>
大 不了</w>
夜 夜</w>
夜 以继
夜以继 日</w>
多 部</w>
多 数
多 元化</w>
多 为</w>
外 间</w>
外 卖</w>
外 加</w>
复 节</w>
壮 年</w>
增 设</w>
墙 脚</w>
墙 纸</w>
塞 进</w>
堆 放</w>
基金 会</w>
城 堡</w>
城 区</w>
垂 直</w>
坦 诚</w>
坦 率</w>
坚 果</w>
块 头</w>
坐 视
场 外</w>
地 放</w>
地 摊</w>
地 处</w>
地 哭</w>
在所 难免</w>
在 经济上</w>
在 政治上</w>
在 历史
在历史 上</w>
在 乎</w>
圣 诞</w>
土耳 其</w>
土 机</w>
圆 珠笔</w>
图 纸</w>
国际 贸易</w>
国际 化</w>
国 格</w>
固 醇</w>
固 执己见</w>
围 棋
园 子</w>
团 团
回 过</w>
四 点</w>
四 溢</w>
四 海</w>
噜 噜</w>
嘟 嘟</w>
嗦 嗦</w>
嗡 嗡</w>
嗖 嗖</w>
喷 洒</w>
喝 彩</w>
喜悦 之情</w>
唾 沫</w>
唱 起</w>
哭 笑
哥 伦
哆 哆
品 位</w>
哀 叹</w>
哀 伤</w>
咯 咯</w>
咬 了
咬了 一口</w>
咖啡 馆</w>
咖啡 店</w>
咀 嚼</w>
命 题</w>
命 中</w>
周边 环境</w>
周 长</w>
告 吹</w>
吹 灭</w>
吸 尘器</w>
吭 哧</w>
吞 噬</w>
吝 惜</w>
吓 唬</w>
后 顺序</w>
后 边</w>
后 半场</w>
后 会</w>
名 品</w>
名 册</w>
同 性</w>
同 学会</w>
合理 化</w>
合 乎</w>
各 异</w>
司令 官</w>
号 令</w>
史 料</w>
台 湾
可 行性</w>
可 回收</w>
可 信
可 亲</w>
叮 当
叫 醒</w>
叫 喊</w>
只 能靠</w>
另 行</w>
古典 小说</w>
古 时候</w>
古 希腊</w>
古 墓</w>
变 相</w>
变 故</w>
变 大</w>
变 冷</w>
受到 谴责</w>
受 阻</w>
发 黑</w>
发 紫</w>
发 笑</w>
发 烧
发 售</w>
反应 堆</w>
反动 派</w>
双 职工</w>
双 层</w>
双 双</w>
参与 者</w>
参 观者</w>
参 照</w>
原 地
原 告</w>
原 价</w>
压 缩
危 机
危 及</w>
卡 住</w>
博 学</w>
博 士
单 打</w>
协 约</w>
华 尔
半 途而废</w>
十 六
匣 子</w>
匠 人</w>
包 儿</w>
势 力
势力 范围</w>
劳资 纠纷</w>
动作 片</w>
加 快
剪 裁</w>
剪 断</w>
前所 未有</w>
削 去</w>
制 住</w>
到 之处</w>
别 太</w>
别 以为</w>
利 条件</w>
判 罚</w>
初级 阶段</w>
初中 生</w>
创造 力</w>
刚 到</w>
划 掉</w>
刑 法</w>
切 除</w>
分 行</w>
分 立</w>
分 清</w>
分 析
出门 在外</w>
出 水</w>
出 征</w>
凹 凸
凹凸 不平</w>
凶 猛</w>
凳 子</w>
凡 人</w>
几 遍</w>
几 倍</w>
减 去</w>
准 儿</w>
冻 死</w>
冷冷 地</w>
冷 却
决赛 圈</w>
决 战</w>
决 不允许</w>
冲 刺</w>
冰 冻</w>
冤枉 钱</w>
冤 家</w>
农 协</w>
写 法</w>
冒 失</w>
冒 出来</w>
再 见面</w>
册 子</w>
内 讧</w>
内 政</w>
养 花</w>
养 父母</w>
养 家糊口</w>
其 一</w>
六 十
公寓 楼</w>
公共 场合</w>
公 鸡</w>
公 车</w>
公 诉</w>
八 道</w>
八 岁</w>
全 罗
全 省</w>
全 方位</w>
全 文</w>
全 心
入 座</w>
党 政</w>
免 职</w>
光 溜溜</w>
光 复节</w>
光 化</w>
先 锋</w>
先 后顺序</w>
充 血</w>
儒 家
偷 看</w>
偏 颇</w>
假 发</w>
借 此机会</w>
借 款</w>
倍 感</w>
修订 案</w>
信 纸</w>
侦 探
侥 幸</w>
依稀 可见</w>
依 法
供 参考</w>
使用 费</w>
使 者</w>
作 对</w>
作 出
作 假</w>
何 时
体 能</w>
低 谷</w>
低 俗</w>
伴 着</w>
伦 理
伤 病</w>
伤 心事</w>
会 出</w>
伙 人</w>
优秀 作品</w>
休 学</w>
伊拉 克
任 由</w>
代 言</w>
他 乡</w>
仔细 阅读</w>
今 儿</w>
仅 限于</w>
人心 惶惶</w>
人口 密度</w>
人 寿
人 太多</w>
人 亡</w>
亵 渎</w>
亲 手做</w>
亮 出</w>
享 用</w>
产品 价格</w>
交通 部</w>
井 有条</w>
井 井有条</w>
五花 肉</w>
五 次</w>
互 不
云 朵</w>
于 心</w>
二十 多岁</w>
二 月</w>
事 会</w>
事 件
事 不
乱 跑</w>
乱 动</w>
买 方</w>
书法 作品</w>
书 稿</w>
习惯 于</w>
乞 求</w>
九 牛
之 词</w>
之 花</w>
之 才</w>
之 恩</w>
之 人</w>
主席 台</w>
主 题
主 谋</w>
为 民</w>
为 国
临时 工</w>
中文 系</w>
中 用</w>
中 方</w>
中 伤</w>
严 加</w>
两 间</w>
两 辆</w>
两 端</w>
两 极化</w>
两 把</w>
两 千
两 件事</w>
丢 脸</w>
丛 林中</w>
专 务</w>
不合 逻辑</w>
不为 过</w>
不 谈</w>
不 计</w>
不 灵</w>
不 死</w>
不 改</w>
不 懈努力</w>
不 慢</w>
不 妥</w>
不 出
不 依</w>
下 岗</w>
下 层</w>
下 学期</w>
下 人</w>
上 届</w>
三七 二十一</w>
三 方</w>
三 位</w>
丁 零</w>
一阵 阵</w>
一锅 粥</w>
一时 半
一年 一度</w>
一塌 糊涂</w>
一去 不复
一体 化</w>
一 锅</w>
一 概</w>
一 晚</w>
一 斗</w>
一 撇</w>
一 律平等</w>
一 干二净</w>
一 席
一 尺</w>
一 国</w>
一 吹</w>
一 去</w>
一 勺</w>
一 击</w>
一 具</w>
一 伸</w>
一 世</w>
r e
i t</w>
8 5</w>
7 7</w>
6 7</w>
4 3</w>
199 2</w>
1 300</w>
0 .
齿 轮</w>
鼻 血</w>
鼓舞 人心</w>
黝 黑</w>
默 感</w>
黑 子</w>
黄 沙</w>
麦 田</w>
鹃 花</w>
鸡 窝</w>
鸡 毛
鸡毛 蒜皮</w>
鲜明 对比</w>
高 端</w>
高 新
高 年级</w>
高 分</w>
高 傲</w>
高 低
高低 不平</w>
高 产</w>
骨 干</w>
骑 手</w>
驻 外</w>
驱 散</w>
马来 西亚</w>
马戏 团</w>
馨 香</w>
首 选</w>
首 个</w>
饿 得</w>
饰 物</w>
饭 吃</w>
风 向</w>
颠 簸</w>
额 度</w>
颓 废</w>
领 军</w>
颁奖 仪式</w>
顺 其自然</w>
顶 端</w>
音 节</w>
音 色</w>
韭 菜</w>
面 而来</w>
面 世</w>
靠 在</w>
非常 复杂</w>
非 人</w>
静 谧</w>
青 山</w>
需求 量</w>
雷 达</w>
零 售
雪 山</w>
雨 雪</w>
雕 像</w>
集中 力</w>
难 分
难 事</w>
隔 断</w>
隔 壁
随风 飘</w>
随 机应变</w>
随 地</w>
陷 进</w>
限 量</w>
闭 口</w>
门 锁</w>
门 窗</w>
门 心思</w>
长 队</w>
长 款</w>
错 话</w>
锁 上</w>
销 路</w>
链 子</w>
银 牌</w>
银 子</w>
铃 响</w>
铁 锹</w>
钱 来</w>
钱 币</w>
钥 匙
钢 筋</w>
针 扎</w>
金 达
金达 莱</w>
金 石</w>
金 戒指</w>
量 生产</w>
重量 级</w>
重 男
重男 轻
重男轻 女</w>
重 点
重 型</w>
重 叠</w>
醉 得</w>
酸 味</w>
酱 缸</w>
酒 量</w>
酒 精
酒 窝</w>
酒 家</w>
那家 店</w>
那 头</w>
遮 掩</w>
遮 拦</w>
道而 驰</w>
道 士</w>
道 四</w>
道 具</w>
逢 年
逢年 过节</w>
通 畅</w>
通 告</w>
递 费</w>
选 址</w>
逃 到</w>
适应 能力</w>
送 上</w>
退休 年龄</w>
连 饭</w>
连 长</w>
连 篇</w>
连 冠</w>
违 反
远 门</w>
远 古</w>
进退 两
进退两 难</w>
进 站</w>
这 顶</w>
这 辈子</w>
这 节</w>
这 群</w>
这 匹马</w>
这 像</w>
近 年</w>
运动 量</w>
运 营
迈 向</w>
过 头来</w>
过 半</w>
辨 是非</w>
辨 别</w>
辛 酸</w>
较 强</w>
轻 浮</w>
轰 鸣</w>
转眼 间</w>
转折 点</w>
转 账</w>
转 让
转 睛</w>
转 意</w>
转 入</w>
车 门</w>
车 速</w>
车 室</w>
躲 藏</w>
躲 藏
身 居
踩 踏</w>
路 子</w>
跑 线</w>
足 轻重</w>
越来越 少</w>
起 飞
起 跑线</w>
赶 着</w>
赶 得上</w>
走私 犯</w>
走 红</w>
赤 道</w>
赤 裸
赤裸 裸</w>
赞 誉</w>
赝 品</w>
赛 过</w>
赏 识</w>
资 产阶级</w>
贵重 物品</w>
购物 券</w>
贫 血</w>
贫 富</w>
贪污 受贿</w>
质 问</w>
质 量
账 号</w>
贤 明</w>
责任 人</w>
负 有</w>
豁 然
谱 写</w>
谋 取</w>
谈 笑
调 解
调 研</w>
课 上</w>
诸 侯</w>
说得 好</w>
说 白
说 大话</w>
说 句</w>
说 个</w>
说 三
说三 道四</w>
误 事</w>
该 是</w>
该 剧</w>
诗 中</w>
诊 疗</w>
诉 苦</w>
诈骗 犯</w>
评 定</w>
证 金</w>
论 调</w>
论 纷纷</w>
论 断</w>
许可 证</w>
记忆 犹新</w>
议 论纷纷</w>
训 话</w>
讨 饭</w>
计 时</w>
警 钟</w>
言 行
言 之
解放 后</w>
解决 办法</w>
视 觉
要 不得</w>
西 餐</w>
西 洋
西 下</w>
装 扮成</w>
装 得</w>
裁 剪</w>
裁 减</w>
裁 决</w>
袖 口</w>
衷 心
衰 败</w>
衣 绳</w>
行 示威</w>
蠢 事</w>
蝴蝶 结</w>
蛋 儿</w>
虎 视
薄 片</w>
落 泪</w>
落 得</w>
菜 里</w>
菜 谱</w>
获 救</w>
获 利</w>
荫 下</w>
荒 山</w>
茶 壶</w>
茫 然
若 干
若 失</w>
花 色</w>
花 环</w>
节 车厢</w>
色彩 感</w>
色 情</w>
至 关
自卫 队</w>
自 责</w>
自 已</w>
自 助</w>
自 助
膜 炎</w>
腿 疼</w>
腰 围</w>
脸 色苍白</w>
脱 节</w>
脑 中风</w>
脏 兮兮</w>
脆 脆</w>
背 道而驰</w>
背 离</w>
胆 量</w>
胃 病</w>
肺 炎</w>
肥皂 水</w>
肉 片</w>
联 想起</w>
职 工作</w>
耽 搁</w>
耍 滑</w>
而 战</w>
考试 题</w>
考 题</w>
考 得</w>
老爷 子</w>
老 树</w>
老 弱
翻 腾</w>
翻 倒</w>
美术 课</w>
美 洲</w>
羊 群</w>
置 备</w>
罗 列</w>
罐 头</w>
缰 绳</w>
缝 纫</w>
绿 豆</w>
绿 荫</w>
绿 草</w>
维 护
维 修
续 续</w>
结 满</w>
结 核</w>
绑 匪</w>
经济 部</w>
经 由</w>
细 长</w>
纽 带</w>
纸 巾</w>
纷 飞</w>
纷 纭</w>
纳税 人</w>
纯 净</w>
红 辣椒</w>
红 茶</w>
繁荣 昌盛</w>
累 月</w>
紧 不慢</w>
素 养</w>
粗 野</w>
粉 笔</w>
米 黄色</w>
米 糕</w>
篇 章</w>
篇 一律</w>
算 得</w>
算 命</w>
简 称</w>
答 答</w>
答 卷</w>
第二 届</w>
第 六
笨 重</w>
笨 脚</w>
立 意</w>
立 功</w>
立 不安</w>
窝 囊</w>
窗 前</w>
突破 口</w>
穿 衣服</w>
空 子</w>
稀 薄</w>
科 举</w>
私 通</w>
私 房钱</w>
离 间</w>
离 弦</w>
离 子</w>
票 据</w>
票 子</w>
社会 保障</w>
社 交
礼 遇</w>
磕 头</w>
碗 柜</w>
确 诊</w>
确 定性</w>
砸 碎</w>
破 洞</w>
破 人亡</w>
研究 室</w>
砍 断</w>
码 事</w>
矿 物</w>
石 窟</w>
知名 人士</w>
睡 前</w>
眼 科</w>
眼 影</w>
眼 力</w>
真 空</w>
看不 下去</w>
看 花</w>
看 破</w>
相 接</w>
直 跳</w>
目不 转睛</w>
目 成
盗 版</w>
盖 儿</w>
盐 分</w>
盈 眶</w>
盆 大雨</w>
白 费
白 日</w>
白 头
登 门</w>
登 机</w>
病 症</w>
病 得</w>
疯 牛病</w>
留 心</w>
画 纸</w>
画 上</w>
电影 明星</w>
电影 吧</w>
电 信</w>
由此 可见</w>
用 意</w>
用 人</w>
生日 快乐</w>
生产 性</w>
生 子</w>
甘 心</w>
玻璃 球</w>
现代 文明</w>
现 役</w>
王 族</w>
猴 儿</w>
猛 涨</w>
狼 狈</w>
犯罪 现场</w>
特 检
特 价</w>
牵 引</w>
物 色</w>
物 业
牡 蛎</w>
爆炸 声</w>
爆 裂</w>
爆 满</w>
熏 陶</w>
照 相
热 风</w>
热 腾腾</w>
热 热</w>
热 气腾腾</w>
热 恋</w>
热 切</w>
烧 开</w>
烟 灰
烟灰 缸</w>
灾 情</w>
灵 性</w>
灯 笼</w>
火 火</w>
火 来</w>
灌 输</w>
濒临 灭绝</w>
激 素</w>
激 怒</w>
澳 门</w>
演讲 会</w>
滴 答</w>
满满 地</w>
满 足
满 情绪</w>
滚 下来</w>
溶 液</w>
湿 气</w>
游泳 场</w>
游 行示威</w>
清 清</w>
清 明</w>
混 用</w>
深 秋</w>
深 渊</w>
淡 化</w>
涣 散</w>
消费 量</w>
消 气</w>
涂 层</w>
海 外
海 地</w>
浪 花</w>
浓 烟</w>
浓 烈</w>
浑身 发抖</w>
流浪 生活</w>
流 过</w>
流 传
活 活</w>
活 泼
活 儿
活儿 干</w>
洗 涤
泰 然自若</w>
泪 珠</w>
泥 水</w>
泡沫 塑料</w>
沿海 地区</w>
沾 染</w>
治 之
油 路</w>
油 菜花</w>
河 山</w>
没有 勇气</w>
没 说</w>
没 考</w>
没 空</w>
没 熟</w>
沙 滩
沉醉 在</w>
沉 寂</w>
汽 笛</w>
水 桶</w>
水 是</w>
水 声</w>
气势 汹汹</w>
气 话</w>
气 节</w>
民浩 给</w>
毫无 疑问</w>
毛 毯</w>
毕业 证</w>
毕业 论文</w>
毒 蛇</w>
每 桶</w>
每 户</w>
每 家</w>
每 位</w>
死 角</w>
武 艺</w>
此 间</w>
此 款</w>
正月 初一</w>
正义 感</w>
正 轨</w>
正 统
正 相反</w>
正 想</w>
正 大</w>
正 午</w>
正 中</w>
款 单</w>
欧洲 人</w>
欣 然</w>
欢 送</w>
欢 心</w>
樵 夫</w>
横行 霸道</w>
横 穿</w>
棱 棱</w>
棋 盘</w>
棋 手</w>
检 修</w>
案 情</w>
核心 人物</w>
样 本</w>
校 门</w>
标准 化</w>
标 注</w>
标 志
染 色
柏 油路</w>
柏 林</w>
枪 击</w>
林 木</w>
松 鼠</w>
松 林</w>
杨 树</w>
来 过</w>
来 来
来 时</w>
来 客</w>
来 头</w>
条 子</w>
束 带</w>
杜 鹃花</w>
李 先生</w>
权 贵</w>
杂 音</w>
杂 烩</w>
杂 交</w>
杂 乱
杀人 案</w>
杀 手</w>
机 型</w>
机 动
朴 赞
本 职工作</w>
本 科
本 月底</w>
本 应</w>
本 学期</w>
末 端</w>
未 能
未 满</w>
未 必</w>
未 决</w>
木 质</w>
期 刊</w>
望 而
望 了
望了 望</w>
服装 店</w>
有 生
有 八九</w>
最 难</w>
最 出色</w>
更 迭</w>
更 为重要</w>
暴 风雪</w>
暧 昧</w>
暗 号</w>
晾 晒</w>
晨 时分</w>
晒 太阳</w>
显 现出</w>
昨天 夜里</w>
昧 无知</w>
星 人</w>
易 碎</w>
易 事</w>
昏 倒</w>
明 细</w>
明 文
明文 规定</w>
旷 野</w>
时 说</w>
早 了</w>
旧 日</w>
日 照</w>
日 头</w>
日 光
日光 浴</w>
无形 中</w>
无 虚
无 损</w>
无 息</w>
无 名
无 云</w>
无 上</w>
旗 杆</w>
旁 听</w>
旁 听
方 才</w>
新生 事物</w>
新 造</w>
新 疆</w>
新 华
新 出</w>
断 言</w>
文艺 创作</w>
文学 创作</w>
文 件
整 晚</w>
整 套</w>
整 合</w>
敲 响</w>
数 次</w>
数 千
数 十</w>
数 一
敬 礼</w>
敛 财</w>
教 皇</w>
教 官</w>
救 护</w>
放眼 望去</w>
收益 率</w>
收 费
收 监</w>
攒 动</w>
撇 开</w>
撇 嘴</w>
摸 不透</w>
摸 不着
摘 得</w>
摔 碎</w>
摇滚 乐</w>
摆 设</w>
摆 摆</w>
摄 氏</w>
摄 像</w>
插 队</w>
提 早</w>
提 意见</w>
推 理
接 电话</w>
掐 着</w>
掀 翻</w>
捣 乱</w>
换 算</w>
捕 捞</w>
捐 助</w>
挺 起</w>
挪 威</w>
挤 进</w>
挤 出</w>
指甲 油</w>
指 手
挂 钟</w>
持 刀</w>
拿 定主意</w>
拷 问</w>
拨 打</w>
拉 丁
拆 散</w>
抹 掉</w>
报名 者</w>
折扣 店</w>
抗 日
抖 动</w>
投票 表决</w>
投 稿</w>
把 劲</w>
批 量生产</w>
扭 动</w>
扣 帽子</w>
打 盹儿</w>
打 盹</w>
打 滚</w>
打 湿</w>
打 气</w>
打 探</w>
打 包
扑 灭</w>
扑 棱</w>
扑 打</w>
才 智</w>
手 铐</w>
手 笨脚</w>
扇 扇子</w>
所在 地</w>
所 有者</w>
所 幸</w>
所 剩</w>
户 籍</w>
成群结 队</w>
成 堆</w>
慷 慨</w>
慰 问
慢慢 儿</w>
慢 跑</w>
慌张 张</w>
慌 慌张张</w>
感 慨</w>
感 慨
感 冒
感冒 药</w>
意外 事故</w>
想 当</w>
惩 处</w>
惨 状</w>
惨 叫</w>
惨 不忍
情 深
恶 棍</w>
总 数</w>
总 想</w>
怪 谈</w>
怪 物</w>
怪 异</w>
急 性</w>
急 切</w>
思 议</w>
怒 视</w>
快 递费</w>
忠 清</w>
忙 乱</w>
必要 条件</w>
必 会</w>
心胸 狭窄</w>
心 转意</w>
心 得</w>
心 声</w>
微 观</w>
得 救</w>
得 当</w>
很 脏</w>
很 矮</w>
很 淡</w>
影 星</w>
形式 主义</w>
形 容
录 音
弹 不得</w>
异 样</w>
开 裂</w>
开 始
建筑 材料</w>
延 世
庶 民</w>
底 朝天</w>
应 邀
庇 护</w>
广播 公司</w>
幽 默感</w>
幽 深</w>
幼 苗</w>
幼 小</w>
幸福 美满</w>
幸 存者</w>
年 累月</w>
干 着急</w>
干 劲</w>
干 事</w>
常 事</w>
帮 子</w>
带 回</w>
师 范
布 景</w>
布 什</w>
市 公司</w>
巴 马</w>
已 晚</w>
差 一点儿</w>
巨大 贡献</w>
巨 石</w>
工 期</w>
崭 露头角</w>
崛 起</w>
山 岭</w>
属 下</w>
屋 檐</w>
居 民
屁 股
局 部</w>
尽 孝</w>
就 餐</w>
就 绪</w>
尝 一
尝一 尝</w>
尖端 技术</w>
小 道</w>
小 聪明</w>
小 看</w>
小 明</w>
小 可</w>
射 中</w>
封建 时代</w>
寻 访</w>
对 朝</w>
对 折</w>
寄 予</w>
家 破人亡</w>
家 常</w>
家 们</w>
宰 相</w>
客观 性</w>
实现 目标</w>
实力 雄厚</w>
实习 生</w>
实 权</w>
实 弹</w>
实 则</w>
实 例</w>
定 好</w>
定 价</w>
宏 大</w>
守 法</w>
它 会</w>
学 得</w>
学 年度</w>
孤 零零</w>
季 节性</w>
嫩 芽</w>
嫩 的</w>
嫩 嫩的</w>
嫁 妆</w>
婆 媳</w>
如 蒙</w>
如 一日</w>
好 长时间</w>
好 比</w>
好 哇</w>
好 儿</w>
奴 婢</w>
女 士们</w>
奥 斯
奥 巴马</w>
奢 华</w>
奖 赛</w>
奔 放</w>
奔 忙</w>
头脑 清醒</w>
头 攒动</w>
头 戴</w>
头 丧气</w>
失去 知觉</w>
太空 船</w>
太 阳光</w>
太 硬</w>
太 滑</w>
太 平</w>
天安 门</w>
天 大</w>
天 价</w>
大气 层</w>
大型 超市</w>
大不 相同</w>
大 雁</w>
大 醉</w>
大 车</w>
大 跌</w>
大 类</w>
大 礼堂</w>
大 石头</w>
大 熊猫</w>
大 浪</w>
大 惊
大 寿</w>
大 宗</w>
大 好
大 奖赛</w>
大 伯</w>
大 义</w>
够 呛</w>
夜 校</w>
多 日</w>
多 位</w>
多 万</w>
外 资</w>
外 籍</w>
外 星人</w>
外 敌</w>
复 出</w>
增 减</w>
垫 底</w>
型 号</w>
垃圾 邮件</w>
垂 钓</w>
垂 头丧气</w>
坠 入</w>
坚 韧</w>
坐 立不安</w>
坐 牢</w>
坐 不住</w>
坐 上</w>
地理 位置</w>
地 拉</w>
地 堆</w>
地 写</w>
地 儿</w>
地 倒</w>
在 读</w>
圣诞 老人</w>
圣 地</w>
土 特产</w>
圆满 解决</w>
圆 点</w>
国际 足联</w>
国 营</w>
国 策</w>
国 内
固定 资产</w>
困难 户</w>
囫 囵</w>
因 果
回 顾
回 心转意</w>
回 娘家</w>
四 肢
四 人</w>
嘻 嘻</w>
喝 下</w>
喘 气</w>
喉 咙</w>
商 船</w>
啃 骨头</w>
唱 功</w>
哭笑 不得</w>
哧 溜</w>
哈哈 大笑</w>
哆哆 嗦嗦</w>
品 牌
和平 统一</w>
和 善</w>
命 感</w>
呼 啦</w>
周围 环境</w>
告 诫</w>
告 发</w>
吹 风</w>
吹 来</w>
吵吵 闹闹</w>
启 蒙
听 过</w>
向 外</w>
向 前走</w>
名 门</w>
同 仁</w>
合 一</w>
各 有
吃 些</w>
司法 机关</w>
可 数</w>
叮 当当</w>
叮 叮当当</w>
只 靠</w>
只 怕</w>
口 舌</w>
变 通</w>
变 小</w>
变 卦</w>
受 益
叔 父</w>
发生 冲突</w>
发现 自己</w>
发 行
发 白</w>
发 懒</w>
反 革命</w>
反 转</w>
双 重
参考 资料</w>
县 城</w>
去 取</w>
原 样</w>
原 住
原住 民</w>
压 制住</w>
卫生 纸</w>
卫 兵</w>
占 有
南 海岸</w>
南 海</w>
单 行
协 商
半 边</w>
半 截</w>
升 至</w>
千 篇一律</w>
千 日</w>
十五 岁</w>
十二 个</w>
十 有八九</w>
十 万元</w>
区 别
区 内</w>
北京 大学</w>
北 韩</w>
化 为</w>
勤 劳
劳动 组合</w>
劳 役</w>
劲 地</w>
助 教</w>
动 词</w>
动 弹不得</w>
加 把劲</w>
加 固</w>
功 过</w>
力 学</w>
劈 柴</w>
副 校长</w>
剥 落</w>
前 门</w>
前 头</w>
制 铁</w>
制 度
刮 胡子</w>
别 老</w>
别 生气</w>
别 吵</w>
别 去</w>
利害 得失</w>
刨 子</w>
初 夏</w>
刘 海</w>
划 船</w>
刑 期</w>
切 得</w>
切 开</w>
分 队</w>
刀 切</w>
出口 量</w>
出 神</w>
出 气</w>
出 世</w>
凹 陷</w>
凤 凰</w>
几 项</w>
几 率</w>
几 处</w>
几 口</w>
几 何
凑 合</w>
减 肥
减 价</w>
凌 晨时分</w>
冷 饭</w>
冷 静下来</w>
冲 锋</w>
冰 场</w>
农业 税</w>
军事 机密</w>
冒失 失</w>
冒 出</w>
冒 冒失失</w>
再 谈</w>
再 作</w>
内心 深处</w>
内 脏</w>
内 疚</w>
内 情</w>
内 务</w>
兼 任</w>
养 生</w>
养 分</w>
兴 盛</w>
关键 问题</w>
公 馆</w>
公 推</w>
公 安</w>
全国 性</w>
全体 会议</w>
全 集</w>
全 景</w>
全 意</w>
党 的
党 代表</w>
免 去</w>
克 兰</w>
光 棍</w>
光 彩
先 行</w>
先 天</w>
先 发</w>
儒家 思想</w>
催泪 弹</w>
偷 袭</w>
偷 听</w>
停 放</w>
停 工</w>
假 想</w>
倾 销</w>
倾 盆大雨</w>
倡 议</w>
借 鉴</w>
候 车室</w>
倒 胃口</w>
修 身</w>
修 课</w>
俭 朴</w>
信 托</w>
保持 中立</w>
保护 主义</w>
保守 势力</w>
保卫 祖国</w>
保 证金</w>
供 货</w>
例 句</w>
侄 儿</w>
使 命感</w>
使 劲儿</w>
作 一团</w>
佛 教
低 年级</w>
低 层</w>
伸 出手</w>
估 算</w>
估 摸</w>
伤 心地</w>
伤 得</w>
传统 观念</w>
会 餐</w>
会 来</w>
优越 性</w>
优惠 券</w>
伊 始</w>
任 用</w>
价格 比</w>
令人 窒息</w>
代 为</w>
他 命</w>
从 未
仇 恨</w>
仇 人</w>
人民 共和国</w>
人寿 保险</w>
人 身</w>
亲戚 家</w>
亲 们</w>
产 卵</w>
交通 拥堵</w>
交 学费</w>
二 乎</w>
争 得</w>
了 门</w>
了 当</w>
乱 成一团</w>
买 进</w>
买 车</w>
买 些</w>
书 页</w>
乡 间</w>
乡 亲们</w>
乘 火车</w>
乍 一看</w>
之 谈</w>
之 日起</w>
之 名</w>
之 事</w>
义 勇
举 重</w>
临时 政府</w>
丰 硕</w>
丰 田</w>
中国 大使馆</w>
中 级</w>
中 性</w>
中 年
中 小</w>
中 介
两 颊</w>
两 辆车</w>
两 省</w>
两 极</w>
两 万元</w>
不计 其数</w>
不知 天高地厚</w>
不择 手段</w>
不可 思议</w>
不分 青红皂白</w>
不 配</w>
不 自
不 紧不慢</w>
不 算数</w>
不 稳</w>
不 睬</w>
不 爽</w>
不 法
不 明朗</w>
不 早了</w>
不 放过</w>
不 接</w>
不 拔</w>
不 值
不 乏</w>
不 上
下 马</w>
下 边</w>
下 脚</w>
下 海</w>
下 定</w>
下 头</w>
下 不来</w>
上下 下</w>
上 钩</w>
上 边</w>
上 策</w>
上 方</w>
上 市公司</w>
上 上下下</w>
三 百</w>
三 四个</w>
三 周</w>
三 千
三 代</w>
万 多</w>
七 天</w>
一连 串</w>
一致 同意</w>
一百 元</w>
一条 龙</w>
一无 所有</w>
一千 块</w>
一 颗颗</w>
一 顶</w>
一 门心思</w>
一 针</w>
一 边倒</w>
一 跃</w>
一 窝</w>
一 眨眼</w>
一 清
一 楼</w>
一 斑</w>
一 放</w>
一 指</w>
一 招</w>
一 字
一 刹那</w>
一 串</w>
一 万元</w>
c o
7 6</w>
6 1</w>
5 7</w>
3 9</w>
黑 压压</w>
黑 儿</w>
黏 糊</w>
黄金 时间</w>
黄 帝</w>
麻 花</w>
麻 婆
麻婆 豆腐</w>
鸣 声</w>
鳞 次
鳞次 栉
鳞次栉 比</w>
高新 技术</w>
高层 建筑</w>
高中 同学</w>
高 音</w>
高 矮</w>
高 望
高 僧</w>
骗 取</w>
驴 子</w>
马 场</w>
首 映</w>
首 屈
首屈 一指</w>
馅 饼</w>
饲 养
饮 暴食</w>
食 谱</w>
飞 逝</w>
飞 过来</w>
飘 落</w>
风景 秀丽</w>
风 机</w>
颗 粒</w>
领 土
预 料
预 售</w>
颁奖 典礼</w>
顺利 完成</w>
顺 应</w>
音乐 声</w>
音 调</w>
韩 医</w>
韩 剧</w>
革命 性</w>
面 值</w>
靠 背</w>
非常 简单</w>
非常 感谢</w>
静静 的</w>
青 铜
露 馅儿</w>
震 荡</w>
震 得</w>
雷 声</w>
零 零
雨 量</w>
雨 过
雨 后
雇 工</w>
雇 员</w>
集体 生活</w>
集 邮</w>
集 训</w>
集 权</w>
雅 虎</w>
雄 壮</w>
难以 承受</w>
难为 情</w>
难 解</w>
难 耐</w>
隐 形
隐 居</w>
随风 飘扬</w>
随 行</w>
随 手</w>
隆 起</w>
陪审 员</w>
险 些</w>
除 此
除 名</w>
院 院长</w>
阿里 郎</w>
阿 根
阿根 廷</w>
阴 凉
阴凉 处</w>
防 护</w>
阅 历</w>
闻 名
闹 矛盾</w>
闹 声</w>
闲 谈</w>
闯 进来</w>
问 道</w>
闪闪 发亮</w>
长 袍</w>
长 级</w>
长 工</w>
错 失</w>
铁 轨</w>
铁 板</w>
钟 头</w>
鉴 于</w>
金融 市场</w>
金字 塔</w>
金 钱
金 星</w>
重 读</w>
重 税</w>
重 病</w>
重 机</w>
里外 外</w>
里 里外外</w>
醉 汉</w>
酸 奶</w>
酒 鬼</w>
酒 味</w>
都 市
那么 点儿</w>
那 张</w>
避难 所</w>
遗 书</w>
遍 野</w>
逼 迫</w>
逻辑 性</w>
通 晓</w>
透 彻</w>
选 好</w>
逃 避
逃 逸</w>
逃 生</w>
适 中</w>
退 还</w>
退 去</w>
追 捕</w>
迷 们</w>
迥 异</w>
连接 起来</w>
连 话
连话 都</w>
连 绵</w>
连 城</w>
远 山</w>
进 食</w>
进 化
这 车</w>
这 茶</w>
这 周</w>
这 口</w>
还 原</w>
近 郊</w>
近 距离</w>
过 桥</w>
过 季</w>
过 夜</w>
迂 回</w>
达 到
边 形</w>
辣 乎乎</w>
辞 典</w>
轿 子</w>
轻 蔑</w>
轻 而易
轻而易 举</w>
轻 率地</w>
轻 声</w>
轻 信</w>
轰 击</w>
软 乎乎</w>
转 型</w>
转 业</w>
车 身</w>
身心 健康</w>
身 价</w>
蹲 下</w>
踪 影</w>
踢 进</w>
踏 踏
踏踏 实实</w>
路 费</w>
跨 国</w>
趾 高气
足球 场</w>
足 坛</w>
超 额
超 载</w>
起 重机</w>
起 航</w>
起 皱</w>
起 死
起死 回生</w>
赶 往</w>
走 访</w>
赚 来</w>
赚 大钱</w>
赔 礼
赔礼 道歉</w>
费 解</w>
费 尽
贵 金属</w>
贯 通</w>
购买 力</w>
购 票</w>
贫 苦</w>
贩 卖</w>
责 难</w>
财政 部</w>
财产 税</w>
财产 损失</w>
贝 多
贝多 芬</w>
豆腐 汤</w>
豁 达</w>
谷 鸟</w>
谷 子</w>
谩 骂</w>
谐 音</w>
谊 会</w>
谈 起</w>
谈 得</w>
谈 吐</w>
调 皮
读 着</w>
诺贝尔 奖</w>
说 话
说 正经</w>
说 来
说 八道</w>
诱 导</w>
该 市</w>
诠 释</w>
话 音</w>
话 少说</w>
话 实说</w>
诗 词</w>
试 试看</w>
评 审
评 判</w>
访 问
记者 会</w>
记 着</w>
议 程</w>
警 署</w>
誓 言</w>
触 礁</w>
视 听</w>
规 模
观 光
覆 辙</w>
要 不然</w>
裱 糊</w>
裤 脚</w>
装 潢</w>
装 上</w>
裁判 员</w>
被 忽视</w>
表示 祝贺</w>
表现 手法</w>
衣 食</w>
行 贿
血压 高</w>
蟑 螂</w>
蜂 拥</w>
蛤 蜊</w>
蛋 黄</w>
虾 酱</w>
蒙 蔽</w>
落 网</w>
落 户</w>
落 幕</w>
营养 价值</w>
营业 时间</w>
菲 尔
莎 士
莎士 比亚</w>
荷 塘</w>
药 性</w>
药 味</w>
药 剂</w>
荡 秋千</w>
荒 野</w>
荒 诞</w>
荒 地</w>
草 药</w>
草 皮</w>
草 帽</w>
英 美</w>
英 才</w>
英 姬</w>
苦 钻研</w>
苍 苍</w>
花花 绿
花花绿 绿</w>
花 盆里</w>
花 甲</w>
花 木</w>
花 子</w>
节 日
色 泽</w>
航 母</w>
舞 姿</w>
舞 团</w>
舞 台
舍 得</w>
臭 名
自然 资源</w>
自来 水管</w>
臣 子</w>
臂 膀</w>
膝 下</w>
腾 出</w>
腰 板</w>
脸 蛋儿</w>
脸 皮
脸 型</w>
脱 险</w>
脚 踝</w>
脚 腕</w>
脚 背</w>
脖 儿</w>
脑 死亡</w>
脏 水</w>
脏 东西</w>
能 为</w>
胸 怀
胡 说八道</w>
胡 萝卜</w>
胡 来</w>
胜 诉</w>
胜 出</w>
胚 胎</w>
胆 固醇</w>
肾 脏</w>
股 东
肖像 画</w>
肉 店</w>
肇 事</w>
联合 声明</w>
联 谊会</w>
聊 得</w>
耸 了
耙 子</w>
耍 嘴皮子</w>
而 定</w>
而 去</w>
而 代
而代 之</w>
者 之间</w>
老鼠 洞</w>
老 话</w>
老 头儿</w>
老 外</w>
翘 起来</w>
羞 辱</w>
美容 院</w>
美 日</w>
美 感</w>
美 式</w>
罢 休</w>
网 状</w>
罐 头
缺 氧</w>
缝 儿</w>
编辑 部</w>
编 剧</w>
绵 绵</w>
维 系</w>
维 和
维和 部队</w>
继承 人</w>
继 任
统治 阶级</w>
绝 好</w>
绝 境</w>
绝 佳</w>
经验 教训</w>
经营 方式</w>
经营 学</w>
经济 衰退</w>
经济 社会</w>
经济 体制</w>
练 歌
练歌 房</w>
练 就</w>
纽约 时报</w>
纸 牌</w>
纸 上</w>
纳 闷</w>
纱 布</w>
约 摸</w>
红 着脸</w>
红 烧</w>
繁 茂</w>
繁 琐</w>
累 坏</w>
紧 缺</w>
糟 糟</w>
精彩 表演</w>
精 简</w>
精 于</w>
粗 话</w>
粗 笨</w>
粒 子</w>
米 粒</w>
篮 球赛</w>
简 要</w>
简 朴</w>
答 谢</w>
等 国</w>
第二 位</w>
第一 部</w>
第一 枚</w>
第一 年</w>
笨 拙</w>
笑 脸</w>
笑 意</w>
童 子</w>
章 节</w>
竞争 者</w>
窝 里</w>
窝 子</w>
窗 框</w>
空气 清新</w>
空 如
稍 等
程 序
稀里 糊涂</w>
稀 疏</w>
移 居</w>
秧 苗</w>
租 房子</w>
离 得</w>
离 合</w>
福 宫</w>
祭 品</w>
神圣 不可</w>
神 会</w>
祖 坟</w>
社会 科学</w>
社会 制度</w>
社 稷</w>
示威 者</w>
磁 铁</w>
确 认
硬 梆梆</w>
硬 挺</w>
破 案</w>
研究 组</w>
砍 柴</w>
砂 糖</w>
矿 山</w>
石油 资源</w>
石 器</w>
瞪 口
瞪口 呆</w>
瞎 子</w>
睫毛 膏</w>
睡 衣</w>
睁开 眼睛</w>
睁 眼</w>
眼 窝</w>
眼 眶
眼眶 里</w>
眼 皮子</w>
眼 界</w>
眨 一</w>
真 能</w>
真 愁</w>
真 情</w>
看不 懂</w>
看 戏</w>
看 吧</w>
眈 眈</w>
盾 牌</w>
相互 之间</w>
相 约</w>
相 称</w>
相 思</w>
相 干</w>
相 左</w>
相 册</w>
相 交</w>
直 至</w>
目 瞪口呆</w>
盛 世</w>
监 考</w>
监 督
监 听</w>
皑 皑</w>
百科 全书</w>
百 姓
白 宫</w>
白 头发</w>
白 天
登 顶</w>
痛 得</w>
病 在
病在 床</w>
病 危</w>
疲 劳
番 茄</w>
畜 生</w>
留 情</w>
画 展</w>
画 册</w>
电话 铃</w>
电 磁
申请 者</w>
田 间</w>
用 油</w>
用 枪</w>
用 到</w>
用 做</w>
用 人
生 动
生 俱
生俱 来</w>
瓦 房</w>
理事 长</w>
球 棒</w>
现 存</w>
环 顾</w>
玩 火</w>
王 道</w>
猪 蹄</w>
猜 到</w>
猛 击</w>
独生 子女</w>
独 岛</w>
独 享</w>
独 一无
独一无 二</w>
犹太 人</w>
犯 法</w>
特 大</w>
特 地</w>
特 儿</w>
牛 粪</w>
牌 号</w>
片 段</w>
爱 过</w>
爱 戴</w>
爆 竹</w>
燃 起</w>
熬 过</w>
熟 虑</w>
熔 化</w>
熊 熊</w>
照相 馆</w>
焚 烧</w>
热 线</w>
热 泪
热泪 盈眶</w>
热 敷</w>
烧 烤</w>
烦 心事</w>
烟 斗</w>
烛 火</w>
烈 烈</w>
烂 泥</w>
烂 掉</w>
点 烟</w>
点 亮</w>
炸 药</w>
炸 毁</w>
炒 作</w>
灵 气</w>
灰 烬</w>
火山 灰</w>
火 药</w>
澳 洲</w>
演奏 家</w>
漉 漉</w>
滥 伐</w>
满 屋</w>
满 头
滑 落</w>
滋 长</w>
湍 急</w>
渲 染</w>
温 热</w>
渡 船</w>
渡 河</w>
渔 网</w>
清晰 可见</w>
清 唱</w>
清 净</w>
深 蓝色</w>
深 海</w>
深 受
深 信</w>
淘 米</w>
淋 淋</w>
淀 粉</w>
润 泽</w>
涌 进</w>
消防 队</w>
浸 泡</w>
浮 动</w>
浪漫 爱情</w>
流行 性</w>
流动 资金</w>
流 言</w>
流 派</w>
流 口水</w>
活 性</w>
活 在</w>
洞 窟</w>
洗涤 剂</w>
洗 漱</w>
洋 洋
泪 下</w>
治之 症</w>
治 国</w>
油 光</w>
河 堤</w>
沧 海
没 钱</w>
没 得</w>
没 干</w>
没 少</w>
没 准儿</w>
沙 龙</w>
沙 哑</w>
江 华</w>
水 行舟</w>
水 珠</w>
水 深</w>
水 汽</w>
水 槽</w>
水 平线</w>
水 坝</w>
水 吧</w>
气 性</w>
气 功</w>
民浩和 俊基</w>
民 营</w>
民 事
毛泽 东</w>
毛 骨
每 秒</w>
每 每</w>
每 周五</w>
歪 风</w>
歧 途</w>
正经 事</w>
正 视</w>
歌唱 家</w>
歇 尔</w>
款 机</w>
欺 压</w>
欢 声
欢声 笑语</w>
次 官</w>
横 道</w>
模 糊
模 特儿</w>
榜 首</w>
楼 盘</w>
椭 圆</w>
植树 节</w>
森 严</w>
棘 手</w>
梦 幻</w>
核 实</w>
校 园
树 龄</w>
树 荫下</w>
标 点</w>
标 价</w>
查 封</w>
柠 檬
柔 韧性</w>
柔 弱</w>
染色 体</w>
某种 程度</w>
架 起</w>
架 设</w>
果 酱</w>
果 显著</w>
果 冻</w>
来之 不易</w>
来 电</w>
来 历</w>
杏 仁</w>
李 承
杂乱 无
杂乱无 章</w>
杂 着</w>
杀 敌</w>
机关 枪</w>
术 语</w>
未 遂</w>
木 鱼</w>
木 料</w>
木 工</w>
朝 阳</w>
朝 方</w>
朝 一日</w>
望 未来</w>
望 台</w>
服从 命令</w>
服 者</w>
朋 好友</w>
有 染</w>
有 朝一日</w>
有 意识</w>
有 家</w>
有 失</w>
有 多
有 功</w>
有 制</w>
月 饼</w>
最 深</w>
最 坏</w>
更 高</w>
更 难</w>
更 深</w>
曲 曲
曙 光</w>
暴 饮暴食</w>
暴 利</w>
暖 烘烘</w>
暂 定</w>
晾 衣绳</w>
智 力
晶 莹</w>
景气 停滞</w>
景 福宫</w>
普遍 存在</w>
普通 百姓</w>
晨 雾</w>
晃 荡</w>
显 赫</w>
映 入
映入 眼帘</w>
星 点点</w>
明 暗</w>
明 代</w>
时 调</w>
时 用</w>
时 值</w>
旧 货</w>
旧 时代</w>
日 派</w>
日 式</w>
日 复
日复 一日</w>
既 定</w>
无所 不能</w>
无 路</w>
无 可</w>
无 双</w>
无 原则</w>
无 公害</w>
无 与
无与 伦比</w>
旗 号</w>
旅游 胜地</w>
旅游 区</w>
旅 店</w>
方 圆</w>
新婚 旅行</w>
新 年
新 学说</w>
断 然
文化 圈</w>
文 风</w>
文 档</w>
整 形</w>
整 修</w>
数 十年</w>
数 不清</w>
散 架</w>
教 师
救 活</w>
敏 感
敌 营</w>
敌 意</w>
效 果显著</w>
放射 性</w>
放 飞</w>
放 不下</w>
攻 下</w>
收 复</w>
收 听</w>
收 养</w>
支 部</w>
支 撑
支 援
擦 伤</w>
擦 亮</w>
撒 手
摸不着 头脑</w>
摸 不着</w>
摧 残</w>
摘 下来</w>
摇 篮</w>
摆 划</w>
搭 理</w>
搬 动</w>
搪 塞</w>
搞不 懂</w>
搞 清楚</w>
搜 救</w>
搁 置</w>
援 军</w>
揭 晓</w>
揪 心</w>
揣 测</w>
插 座</w>
插 头</w>
提 请</w>
措 辞</w>
推理 小说</w>
推 脱</w>
接 球</w>
接 力
排 长</w>
排 水</w>
排 名
排 便</w>
捺 不住</w>
据 统计</w>
据 点</w>
据 不足</w>
换 掉</w>
捉 到</w>
挪 用</w>
挪 动</w>
挨 揍</w>
按 着</w>
按 捺不住</w>
指挥 部</w>
拿 破
拦 住</w>
拟人 化</w>
招 手</w>
招 惹</w>
拒 付</w>
拍 手</w>
拉 手</w>
拉 得</w>
拉 圭</w>
担 当</w>
抽 奖</w>
抬 高</w>
抢劫 案</w>
抛 出</w>
抗 战</w>
投票 率</w>
投 保</w>
抒 情
把 布</w>
抄 写</w>
承 载</w>
批 评
扭 转
扫 荡</w>
扫 墓</w>
执行 官</w>
打字 机</w>
打 鼓</w>
打 铁</w>
打 车</w>
打 水
打 个
打个 招呼</w>
扑 噜</w>
扑 哧</w>
才 学</w>
才 华
手 榴弹</w>
手 巧</w>
手 印</w>
手 儿</w>
所欲 为</w>
所 述</w>
所 剩
所剩 无几</w>
所 作</w>
房 屋
户 型</w>
截 稿</w>
战 果</w>
我 见</w>
我 省</w>
我 学</w>
成 片</w>
成 交
戏 曲</w>
慰 藉</w>
慎重 处理</w>
愤 慨</w>
感到 疲倦</w>
感 伤</w>
意气 相投</w>
意志 坚强</w>
想 必</w>
想 干什么</w>
惨不忍 睹</w>
惨 痛</w>
惟 肖</w>
惟 妙
惟妙 惟肖</w>
情 理
悼 念</w>
悲 观
悔 改</w>
恶性 循环</w>
恶劣 影响</w>
总 管</w>
总 攻</w>
性 骚扰</w>
性 欲</w>
急 性子</w>
怠 慢</w>
念 叨</w>
快 攻</w>
忏 悔</w>
心领 神会</w>
心理 准备</w>
心 软</w>
心 潮
心 机</w>
得 逞</w>
得 票</w>
得 手</w>
得 其
很 难说</w>
很 着急</w>
很 盛</w>
很 甜</w>
很 旺</w>
很 多
征 服者</w>
征 得</w>
往 西</w>
彼 得</w>
彻底 清除</w>
录 制</w>
当 局
当 家
归 功
归功 于</w>
强 奸</w>
弹 药</w>
弱 势</w>
张 口</w>
引人 入
引人入 胜</w>
弄 懂</w>
异 地</w>
开 进</w>
开 赛</w>
开 心
开 导</w>
建设 工程</w>
建 有</w>
延世 大学</w>
废 止</w>
底 线</w>
应 试</w>
应 由</w>
应 征</w>
应 从</w>
庆 贺</w>
广 为
幽 灵</w>
幼 年</w>
幸 运
并 重</w>
年龄 层</w>
年 青</w>
年 月</w>
年 少</w>
平 淡</w>
平 板</w>
干 燥
干 洗</w>
干 些</w>
常 客</w>
带 入</w>
布 谷鸟</w>
布 袜</w>
巡回 赛</w>
巡 逻
崩 塌</w>
岩 壁</w>
屹 立</w>
山 脚下</w>
履 历</w>
展 望未来</w>
居高 不下</w>
屁股 债</w>
局 限于</w>
局 部
尿 布</w>
尽量 少</w>
尼 西亚</w>
就 读</w>
尤 为重要</w>
尚 存</w>
少 时</w>
小 鱼</w>
小 金</w>
小 豆</w>
小 毛</w>
小 巧</w>
小 妹妹</w>
小 型
小 不
将 帅</w>
封建 迷信</w>
对 光</w>
寡 老人</w>
寒 舍</w>
寒 冬</w>
富 强</w>
宽 心</w>
家 用
家 居</w>
家 后</w>
害 死</w>
审判 员</w>
审 讯</w>
宠 爱</w>
实践 中</w>
实 话实说</w>
实 录</w>
实 属</w>
宝 贵
宝 贝
宝 级</w>
定 期
定 时</w>
定 员</w>
官 兵们</w>
完成 度</w>
完 人</w>
守 约</w>
孵 化</w>
孩子 气</w>
学生 证</w>
学习 外语</w>
学 聚会</w>
学 士学位</w>
孤 身一人</w>
孤 寡老人</w>
孤 寂</w>
孝 心</w>
存在 主义</w>
存 亡</w>
字 型</w>
字 号</w>
字 儿</w>
子 孙
嬉 戏</w>
娘 儿们</w>
娇 气</w>
姓 张</w>
姐 夫</w>
始终 保持</w>
始 祖</w>
如 说</w>
如 一</w>
好几 层</w>
好 手</w>
奸 臣</w>
女 权
套 书</w>
奋 发
夹 缝</w>
头 部队</w>
头 盖
失 败者</w>
失 调</w>
失 灵</w>
失 分</w>
失 主</w>
太 饱</w>
太 胖</w>
太 紧张</w>
天 儿</w>
大学 校园</w>
大 败</w>
大 肚子</w>
大 洲</w>
大 河</w>
大 木头</w>
大 将</w>
大 发</w>
大 动
大 人物</w>
大 亏</w>
大 为
大 丰收</w>
大 丈夫</w>
多 情</w>
多 媒体</w>
多 发</w>
外国 游客</w>
外 流</w>
外 带</w>
夕 阳
夏 夜</w>
复 印机</w>
处 女
壮 士</w>
壁 炉</w>
墙 角</w>
塑料 大棚</w>
基督 教徒</w>
基 调</w>
基 点</w>
垂 柳</w>
坚定 不移</w>
坐 车</w>
坐 船</w>
地球 村</w>
地下 资源</w>
地 质
地 擦</w>
地 中
在 校</w>
在 实践中</w>
土 质</w>
图 表</w>
国际 性</w>
国家 主权</w>
国 贼</w>
国 歌</w>
国 有</w>
国 宝级</w>
困 乏</w>
园 艺</w>
园 丁</w>
因 果</w>
因 有</w>
因 在</w>
回 过头来</w>
回 味无穷</w>
四 角</w>
四 次</w>
四 川
嚓 嚓</w>
器 械</w>
器 具</w>
嗓 子
喜 讯</w>
喜 怒
善 终</w>
善 恶</w>
喂 给</w>
啥 事</w>
唯 恐</w>
哽 咽</w>
哺乳 动物</w>
哑 巴
哇 啦</w>
咸 菜</w>
咂 嘴</w>
呼 叫</w>
告 辞</w>
呈 上升</w>
吹 进来</w>
吸烟 者</w>
吵吵 嚷嚷</w>
吵 嚷</w>
吵 吵</w>
听 说
听 不清</w>
吓 坏</w>
吐 出</w>
后半 期</w>
后 过</w>
后 路</w>
后 悔
后 台</w>
名 利</w>
名 列
同 龄</w>
同 窗</w>
同 学聚会</w>
合 不
各个 领域</w>
各 阶层</w>
吃喝 玩乐</w>
吃 素</w>
吃 水</w>
叽叽 喳喳</w>
叽 里
司 马
司 仪</w>
可 说是</w>
可 说</w>
可 着</w>
可 望</w>
可 好</w>
可 以
可 不
可不 可以</w>
叮 当</w>
叫 作</w>
叨 叨</w>
古 至今</w>
古 玩</w>
古 今</w>
口 腔</w>
口 碑</w>
口 头
口 吃</w>
变化 无常</w>
变 软</w>
变 绿</w>
变 红</w>
变 硬</w>
受 训</w>
取 而代之</w>
发 麻</w>
发 源地</w>
发 挥
发 威</w>
发 困</w>
发 冷</w>
反 胃</w>
双 打</w>
友 爱</w>
及 早</w>
参加 考试</w>
参 拜</w>
原则 性</w>
原 油价格</w>
原 本本</w>
原 型</w>
原 原本本</w>
历史 悠久</w>
历 时</w>
厂 商</w>
却 没能</w>
即 刻</w>
危险 性</w>
卧 病在床</w>
占 用</w>
卑 劣</w>
华 北
华 侨</w>
午 休</w>
升 腾</w>
升 入</w>
十 几个</w>
医 治</w>
北 边</w>
北 美</w>
北 欧</w>
北 极
北 方
化 合物</w>
匆 忙忙</w>
匆 匆忙忙</w>
包 庇</w>
勤奋 学习</w>
勒 紧</w>
勇 于
动 笔</w>
动 画</w>
动 感</w>
动 地</w>
剩 余
前 台</w>
削 苹果</w>
刻 苦钻研</w>
刺 骨</w>
刺 伤</w>
刹 那间</w>
制造 商</w>
到此 为止</w>
别 字</w>
别 名</w>
别 具
别 光</w>
初 秋</w>
初 犯</w>
初 学者</w>
创 始
刚 进</w>
刚 要</w>
刚 学</w>
列 车
划 算</w>
切 切</w>
分 道
分 之
出生 年月</w>
出 炉</w>
出 头
凶 残</w>
凝 神</w>
凌 乱</w>
准 备
冷不 热</w>
冷 门</w>
冷 笑</w>
冷 气</w>
冲 入</w>
冰 水</w>
冰 山</w>
冬 夜</w>
农 民
军事 政变</w>
军 营</w>
军 用</w>
冉 冉
内 定</w>
内 人士</w>
养殖 业</w>
典 雅</w>
其 为</w>
兴 致</w>
兴 建</w>
关系 密切</w>
关 税
关 注
关 乎</w>
六 点钟</w>
公 示</w>
全罗 道</w>
全心 全意</w>
全 队</w>
全 貌</w>
全 班同学</w>
全 党</w>
免 税</w>
先 头部队</w>
先 发
充 气</w>
儿 俩</w>
儒 生</w>
催 得</w>
偶 然
停 靠在</w>
停 课</w>
停 着</w>
做 点</w>
做 官</w>
做 好事</w>
做 作</w>
假 面
假 话</w>
假 意</w>
假 惺惺</w>
倾 盆</w>
借 此</w>
倒 挂</w>
信用 证</w>
信心 十足</w>
信 访</w>
信 物</w>
保 龄
保 有</w>
保 人</w>
侵 吞</w>
侵 占</w>
使用 暴力</w>
佳 节</w>
佳 绩</w>
佣 金</w>
作 样</w>
作 料</w>
作 呕</w>
作 势</w>
何 在</w>
体育 界</w>
体育 明星</w>
住 进</w>
住 址</w>
低 调</w>
伸 长</w>
伸 缩
伸 张</w>
伴 有</w>
伴 儿</w>
伯 父</w>
伤 心
传 播
会 员
伙 伴
优 待</w>
休 会</w>
任 人
价值 连城</w>
以 人为
令人 遗憾</w>
令人 担心</w>
代表 作</w>
仙 花</w>
仙 女</w>
从 宽</w>
从 古至今</w>
今 夏</w>
人行 横道</w>
人物 形象</w>
人人 平等</w>
人 头攒动</w>
人 伦</w>
亲密 无间</w>
亲 朋好友</w>
亲 日派</w>
亲 情</w>
亲 和
亲 吻</w>
亮 片</w>
产品 质量</w>
产业 结构</w>
交通 费</w>
交响 乐团</w>
交 稿</w>
五 指</w>
五 千
五 万</w>
二十 多年</w>
二十 四</w>
二 者</w>
二 级</w>
事无 成</w>
事已 至此</w>
乱 糟糟</w>
乱 画</w>
书 画</w>
乡 镇</w>
习 气</w>
习 性</w>
九 岁</w>
九 十年代</w>
乘 凉</w>
乖 巧</w>
乌 有</w>
之 物</w>
之 母</w>
之 机</w>
之 分</w>
之 乐</w>
义务 教育</w>
义 卖会</w>
举 行
举 出</w>
举 世
主 食</w>
主 页</w>
为 所欲为</w>
为 例</w>
为 一体</w>
丹 麦</w>
串 门</w>
中东 地区</w>
中 枢</w>
中 坚</w>
个人 隐私</w>
个 州</w>
个 头儿</w>
个 体
严格 控制</w>
严 实</w>
严 守</w>
两 项</w>
两 脚</w>
两 篇</w>
两 百
两 用</w>
两 枚</w>
两 本书</w>
两 处</w>
两 场</w>
两 两</w>
两 三个</w>
两 三
东 学</w>
业 内人士</w>
世代 相传</w>
专 科</w>
与 生俱来</w>
不见 得</w>
不绝 口</w>
不由 自主</w>
不断 涌现</w>
不断 扩大</w>
不敢 相信</w>
不幸 遭遇</w>
不对 头</w>
不作 美</w>
不 香</w>
不 败</w>
不 看</w>
不 测</w>
不 期
不 惜
不 失
不 坏</w>
不 冷不热</w>
不 值</w>
不 俗</w>
不 买</w>
不 乐</w>
下着 雨</w>
下 酒</w>
下 流</w>
下 文</w>
下 坡</w>
下 功夫</w>
下 凡</w>
上 限</w>
上 船</w>
上 盖</w>
上 会</w>
三三 两两</w>
三 餐</w>
三 楼</w>
三 号</w>
万里 无云</w>
万 台</w>
万 古
万 分
万 众
七 十年代</w>
一面 镜子</w>
一清 二
一年 到头</w>
一大 笔</w>
一团 糟</w>
一个 劲地</w>
一 问</w>
一 针
一 语</w>
一 见
一 碰</w>
一 眨一</w>
一 束</w>
一 本
一 晃</w>
一 捆</w>
一 扇</w>
一 心
一 屁股债</w>
一 对
一 宿</w>
一 事无成</w>
V D</w>
B A</w>
8 1</w>
6 000</w>
鼻 炎</w>
鼎 沸</w>
黑 洞</w>
麦 茶</w>
麦 苗</w>
鸭 绒</w>
鸡 汤</w>
鲜 活</w>
鱼 肉</w>
鱼 汤</w>
高望 重</w>
高 飞</w>
高 无上</w>
高 升</w>
高 三</w>
骨 肉</w>
骨 子里</w>
骤 雨</w>
骗 过</w>
骗 走</w>
骑 上</w>
驾 驭</w>
驾 崩</w>
驾 于</w>
驶 离</w>
驳 斥</w>
驱 车</w>
马 格
马 力</w>
香 瓜</w>
首要 条件</w>
首 脑
饱 含</w>
饭 钱</w>
饭 盒</w>
飘 散</w>
飓 风</w>
风景 线</w>
风 衣</w>
风 行</w>
风 范</w>
风 生</w>
风 流</w>
风 化</w>
领先 地位</w>
预备 役</w>
预 选</w>
预 见</w>
顺 风
顶 层</w>
顶 住</w>
音乐 界</w>
面 色</w>
露 骨</w>
零 点</w>
雨过 天晴</w>
隶 属</w>
隔壁 家</w>
隔 夜</w>
隐 匿</w>
随 处</w>
陪你 去</w>
险 情</w>
除此 之外</w>
陡 峭</w>
限 时</w>
陈 谷
陈谷 子
陈 腐</w>
陈 年</w>
阿 Q</w>
阵 脚</w>
阴 雨</w>
阴 云</w>
防 火
防 洪</w>
队 里</w>
闹着 玩儿</w>
闹 剧</w>
闪 着</w>
闪 光灯</w>
门 诊</w>
门 下</w>
长途 电话</w>
长 龙</w>
长 谈</w>
长 袖</w>
长 者</w>
长 孙</w>
镇 上</w>
错 开</w>
错 儿</w>
锐 地</w>
锈 钢</w>
铺 设</w>
银行 职员</w>
铭 记在心</w>
铁 塔</w>
钢铁 厂</w>
钢琴 演奏</w>
钢琴 家</w>
金 库</w>
金 妍
金妍 儿</w>
野 游</w>
重 金属</w>
重 见
重 症</w>
重 压</w>
采访 团</w>
醉 心
醉心 于</w>
酒 桌上</w>
酒 桌</w>
配 不上</w>
鄙 人</w>
那 般</w>
那 笔</w>
邀请 赛</w>
邀请 函</w>
遵 守纪律</w>
遗 留
道 教</w>
道 弟</w>
造 船
逛 荡</w>
通 气</w>
通 明</w>
透 视</w>
选 区</w>
逆 水行舟</w>
适 者
适者 生存</w>
送 还</w>
追 上</w>
迷 了
迷了 路</w>
迫 于</w>
迪 斯
连 队</w>
违 纪</w>
远 近</w>
远 比</w>
远 景</w>
远 地区</w>
远 儿</w>
远 亲</w>
进化 论</w>
进 驻</w>
进 攻
这么 一来</w>
这一 关</w>
这 类</w>
这 碗</w>
这 桩</w>
这 包</w>
这 则</w>
还 款</w>
近在 眼前</w>
近 邻</w>
近 处</w>
近 况</w>
近 代
近 人</w>
近 些
迎 春花</w>
迎 战</w>
迈 入</w>
过 饭</w>
过 河</w>
迅 猛</w>
迁 就</w>
辣 辣
辣 白菜</w>
辞 掉</w>
辞 令</w>
辅导 班</w>
较 差</w>
轻 重
轻 心</w>
轻 工业</w>
轰 轰
轰轰 烈烈</w>
轰 炸
轰炸 机</w>
轰 动</w>
软 件
转 转</w>
转 折</w>
车 开</w>
车 展</w>
车 型</w>
身 而出</w>
身 手</w>
跳 如雷</w>
跳 入</w>
跛 脚</w>
跑 垒
跑垒 员</w>
跌 落</w>
跃 进</w>
趋 向</w>
越 深</w>
超 强</w>
起 跑</w>
起 泡</w>
起 劲</w>
起 伏
起 人</w>
走 时</w>
走 光</w>
赞 颂</w>
赞 不绝口</w>
赛 程</w>
赛 后</w>
赚 了钱</w>
赘 肉</w>
赏 光</w>
贺 年
费 尽</w>
财政 困难</w>
象 是</w>
豆腐 渣
豆腐渣 工程</w>
豁然 开朗</w>
谦 让</w>
谈笑 风生</w>
调 理</w>
调 子</w>
谁 知</w>
读 后感</w>
说得 对</w>
说了 半天</w>
说 说
说 纷纭</w>
说 一说</w>
话不 投机</w>
诉 讼
证 据不足</w>
访 美</w>
记 不清</w>
训练 营</w>
训练 场</w>
让 开</w>
讥 笑</w>
认 输</w>
认 得</w>
计 画</w>
譬 如</w>
言 自语</w>
言 故事</w>
言 人</w>
触 犯</w>
触 动</w>
解 除
解 法</w>
见 一斑</w>
西 扯</w>
裸 露</w>
裂 纹</w>
袭 来</w>
被 扣</w>
被 套</w>
表 露出</w>
表 露</w>
街 小巷</w>
行 船</w>
行 不行</w>
血 迹</w>
蜜 语</w>
蛤 蟆</w>
蛀 牙</w>
蚯 蚓</w>
虚 心
虚 度
虚 传</w>
虎视 眈眈</w>
虎 皮</w>
藏 身</w>
薄 纱</w>
蕴 含</w>
蔽 日</w>
蔚 为
蔚为 壮观</w>
蓝 队</w>
蓄 意</w>
葬 送</w>
营业 员</w>
萌 生</w>
获 悉</w>
莫 非</w>
荡 产</w>
草 稿</w>
草 料</w>
草 丛</w>
茧 子</w>
茁 壮</w>
英雄 事迹</w>
英语 水平</w>
若 有</w>
苗 头</w>
花 白</w>
花 生
芬 兰</w>
芥 末</w>
芝 加
节日 期间</w>
节 节</w>
艰苦 奋斗</w>
良 田</w>
良 好
良 久</w>
舒 适
舒 缓</w>
舍己 为
致 死</w>
致 志</w>
至关 重要</w>
至 高无上</w>
至 诚</w>
至 多</w>
自由 主义</w>
自然 景观</w>
自 重</w>
自 足</w>
自 言自语</w>
自 给
自 律性</w>
腿 儿</w>
腔 作势</w>
脸 红
脱 水</w>
脚 儿</w>
脚 乱</w>
脖 颈</w>
脑 儿</w>
脏 字</w>
脊 椎</w>
能 训练</w>
胳 臂</w>
胜 算</w>
背 负</w>
背 景
背景 音乐</w>
胃 炎</w>
肥 肉</w>
肤 浅</w>
股东 大会</w>
肚 皮</w>
聚 在</w>
聘 者</w>
联系 方式</w>
联 邦
聊天 室</w>
聊 生</w>
耸 立</w>
耳 闻</w>
耳 朵
耍 酒疯</w>
耍 威风</w>
而 未决</w>
而 久
而久 之</w>
考古 学</w>
考 完</w>
考 古</w>
老弱 病
老 花
老 病死</w>
老 母</w>
老 年
老 头子</w>
老 友</w>
老 一套</w>
翻 遍</w>
翻 炒</w>
翻 新</w>
翩翩 起舞</w>
群众 性</w>
美国 队</w>
美 英</w>
美 甲</w>
美 好时光</w>
羊 羔</w>
罹 难</w>
罪 责</w>
罢 免</w>
缴 获</w>
缤 纷</w>
缠 住</w>
绿 地</w>
绿 叶</w>
绽 开</w>
综合 性</w>
综合 征</w>
综 艺</w>
维持 现状</w>
维 艰</w>
维 新</w>
绝 壁</w>
绝 关系</w>
结 识</w>
结 为</w>
经验 不足</w>
经 他</w>
经 不起</w>
终身 难忘</w>
练 兵
练兵 场</w>
纸 片</w>
纵 观</w>
纯 正</w>
纯 朴</w>
纯 情</w>
纪念 物</w>
红 肿</w>
红 地毯</w>
繁 星</w>
累 累</w>
紧急 状态</w>
紧 紧
索 桥</w>
素 来</w>
糟 粕</w>
精神 状态</w>
精 炼</w>
粪 便</w>
粉 末</w>
米 歇尔</w>
管理 费</w>
管理 层</w>
管理 体系</w>
算 术</w>
算 不上</w>
等 级
等 于
笼 统</w>
第二 名</w>
第一 次世界大战</w>
第一 批</w>
第 十
第 七
笨 手笨脚</w>
笔 法</w>
笑 眯眯</w>
童 谣</w>
竞 标</w>
站 岗</w>
窝 儿</w>
穿 鞋</w>
穿 厚</w>
空气 污染</w>
稳 健</w>
稚 嫩</w>
稀稀 拉拉</w>
稀 有
稀 奇</w>
稀 动物</w>
移 到</w>
积 淀</w>
秦 始
租 税</w>
租 出去</w>
秘 密
种 子
秉 性</w>
私 语</w>
秀 美</w>
离 破碎</w>
福 气</w>
祷 告</w>
神 话
神 社</w>
祈 福</w>
社会 活动</w>
磨 牙</w>
磨 不开</w>
磕 破</w>
磊 落</w>
碰 破</w>
碑 文</w>
确认 书</w>
破 烂</w>
研究 生
研究生 院</w>
砌 墙</w>
石 流</w>
石 板</w>
石 墙</w>
矮 胖</w>
短 路</w>
短 浅</w>
知 性</w>
矛 头</w>
睿 智</w>
睡 午觉</w>
着 泪</w>
眼 睁
眼 前
真 香</w>
真 面目</w>
真 要命</w>
真 知</w>
真 没想到</w>
真 对不起</w>
真 人
看不 出来</w>
看 报</w>
看 护</w>
省 得</w>
相互 间</w>
直 观</w>
直 属</w>
直 冲</w>
盲目 投资</w>
目 光
盛 时期</w>
盘 查</w>
监察 院</w>
皮 毛</w>
皇 后</w>
的 事</w>
百分之 百</w>
百 家</w>
白 酒</w>
白 送</w>
白 纸</w>
白 皙</w>
白 得</w>
白 卷</w>
登山 队</w>
瘫 软</w>
瘫 坐</w>
痴 呆
症 候
症候 群</w>
病情 恶化</w>
疫 情</w>
疗养 院</w>
疑 心</w>
略 显</w>
留 守</w>
留 存</w>
画 幅</w>
男 篮</w>
男 主角</w>
电视 广播</w>
电 量</w>
电 力
申 氏</w>
由 来
由来 已久</w>
甩 掉</w>
用 湿</w>
用 事</w>
生活 圈</w>
生存 权</w>
生 长
生 还</w>
生 育
生 老病死</w>
生 理
生 息</w>
生 厌</w>
甘 蔗</w>
瓷 砖</w>
理 赔</w>
球 速</w>
珍 稀动物</w>
现金 结算</w>
环 视</w>
玩 闹</w>
玩 具
王 牌</w>
率 高</w>
猛 进</w>
独生 女</w>
独 处</w>
狠 毒</w>
狠 揍</w>
狂 奔</w>
犹豫 豫</w>
犹 犹豫豫</w>
犯罪 事实</w>
牺牲 品</w>
特别 法</w>
特 质</w>
特 色
特 快</w>
特 兰
物业 管理</w>
物 质
物 件</w>
物 产</w>
牧 业</w>
牛 鼻子</w>
牛 皮
爱国 者</w>
爱 美</w>
熬 粥</w>
煞 费
然无 恙</w>
焚 香</w>
烦 躁</w>
烟 雾
烟 袋</w>
烂 醉</w>
炯 炯
炯炯 有神</w>
炭 火</w>
炕 头</w>
炎 症</w>
灾 祸</w>
灼 热</w>
灰 意
灰 姑娘</w>
火 炬</w>
火 如
火如 荼</w>
火 上</w>
火 上
激 进</w>
潜 能</w>
漫无 目的</w>
漫 步</w>
漫 不经
漫不经 心</w>
演 示</w>
演 得</w>
滴 溜儿</w>
满满 当当</w>
满 身</w>
满 口</w>
滑 下来</w>
溯 到</w>
溜 出去</w>
湿 漉漉</w>
湿 器</w>
渴 得</w>
渣 儿</w>
清 代</w>
添 加
深 思
深思 熟虑</w>
淫 雨</w>
淡 黄色</w>
淡 蓝色</w>
液 晶</w>
涨 潮</w>
消费 税</w>
消毒 药</w>
海 豚</w>
海 峡
海峡 两岸</w>
浴 缸</w>
浮 在</w>
流行 音乐</w>
流动 人口</w>
流 下来</w>
活 该</w>
洞 察</w>
洋 相</w>
泳 装</w>
泰 然</w>
注 册
泥 石流</w>
法 理</w>
法 国人</w>
治 水</w>
油 脂</w>
河 道</w>
河 南</w>
没 法儿</w>
没 好</w>
没 多大</w>
没 听说
没听说 过</w>
沙 特
沙 丘</w>
沉 迷</w>
汽 笛声</w>
污 浊</w>
江 原</w>
汗 渍</w>
汇 合</w>
水 路</w>
水 罐</w>
水 滴</w>
水 机</w>
水 彩
民 警</w>
民 不
民不 聊生</w>
毫不 相干</w>
毛骨 悚
毛骨悚 然</w>
毛 笔字</w>
比赛 结果</w>
比 方</w>
比 如说</w>
比 作</w>
毒 辣</w>
毒 气</w>
毒 品
毒品 走私</w>
母 爱</w>
段 距离</w>
残 骸</w>
残 存</w>
死 活</w>
武装 警察</w>
武 汉
武 侠</w>
武 侠
此 种</w>
正当 理由</w>
正 统</w>
正 反
止 住</w>
欧 美</w>
次 日</w>
次 品</w>
檀 君</w>
橱 柜</w>
橄榄 油</w>
模 糊糊</w>
模 模糊糊</w>
模 拟
模 像样</w>
榉 树</w>
概 不</w>
楼 顶</w>
楷 模</w>
植物 性</w>
植物 园</w>
棉 袄</w>
梳 妆
梨 树</w>
梧 桐
梧桐 树</w>
梦 到</w>
桌 面上</w>
案 犯</w>
桂 林</w>
格 调</w>
核 查</w>
核 废料</w>
校 友</w>
树 种</w>
标准 语</w>
标准 杆</w>
标 出</w>
查 获</w>
查 禁</w>
柔 嫩</w>
染 发</w>
架 飞机</w>
枪 手</w>
构 图</w>
极 致</w>
极 有</w>
板 球</w>
松 饼</w>
条 路</w>
条 文</w>
杠 杠</w>
杆 菌</w>
杂技 团</w>
杀 戮</w>
杀 得</w>
机 长</w>
机 上</w>
未 经
木 马</w>
木 桩</w>
期 望
期望 值</w>
朝 南</w>
朗 朗</w>
有所 提高</w>
有害 物质</w>
有 骨头</w>
有 色</w>
有 线
有 点
有 愧</w>
有 志气</w>
有 发生</w>
有 劲</w>
有 位</w>
最 高级</w>
最 能</w>
最 爱</w>
最 差</w>
最 小
最 大化</w>
替 补
更 正</w>
暴力 犯罪</w>
暴力 事件</w>
暴 跳如雷</w>
暴 君</w>
暮 色</w>
暗 恋</w>
暖 炉</w>
暑 期</w>
晦 涩</w>
显 摆</w>
星期 二</w>
明 珠</w>
明 晚</w>
昆 明</w>
昂 首</w>
时间 段</w>
时代 背景</w>
时 起</w>
时 有发生</w>
时 日</w>
时 尚
时 宜</w>
早 点儿</w>
早 到</w>
旨 意</w>
旧 书</w>
旦 夕</w>
日 月</w>
无 量</w>
无 话
无 表情</w>
无 妨</w>
无 偿
无 一人</w>
旅行 者</w>
旅 费</w>
方向 盘</w>
方 能</w>
新华 社</w>
新 米</w>
新 秀</w>
新 版</w>
新 家</w>
新 娘子</w>
新 修</w>
断然 拒绝</w>
断 裂</w>
断 续续</w>
断 绝关系</w>
断 断续续</w>
斜 线</w>
文艺 节目</w>
文化 部</w>
文化 节</w>
敷 衍
整齐 划一</w>
整形 手术</w>
整 条</w>
数百 名</w>
数学 课</w>
数学 公式</w>
数十 万</w>
数 百年</w>
敬 佩</w>
散 伙</w>
散 乱</w>
教育 费</w>
教 条</w>
敏 锐地</w>
政治 势力</w>
政 敌</w>
放 满</w>
放 得</w>
放 任
改 姓</w>
改 天</w>
改 名</w>
收 敛</w>
收 容</w>
收 发</w>
支援 灾区</w>
支 离破碎</w>
攒 成</w>
摸 了
摸了 摸</w>
摘 要</w>
摔 打</w>
摆 渡</w>
摆 架子</w>
摆 手</w>
搅 和</w>
揭 幕
提 成</w>
推 向</w>
推 倒</w>
控 球</w>
接 通</w>
探 访</w>
探 寻</w>
排 除
排 版</w>
排 气
排 毒</w>
掉 落在</w>
掉 牙</w>
掉 以
掉以 轻心</w>
换 衣服</w>
捕 捉到</w>
捎 来</w>
挺 身而出</w>
挨 过</w>
挖 出</w>
按 计划</w>
按 劳
指挥 家</w>
指 正</w>
指 引</w>
持 家</w>
拿破 仑</w>
拿 主意</w>
拾 掇</w>
拳 击
括 号</w>
拨 款</w>
拦 截</w>
拜 见</w>
拘留 所</w>
拔 出</w>
拓 展</w>
拍 拍</w>
拉 斯</w>
抽 筋</w>
抽 空</w>
抽 泣</w>
抹 角</w>
抵 触</w>
披 萨</w>
抛 锚</w>
折 叠
抗日 战争</w>
抗 衰老</w>
投 了</w>
抑 郁症</w>
把 子</w>
抄 近</w>
找 人</w>
扶 植</w>
扶 手</w>
执 笔</w>
执 导</w>
打包 票</w>
打 牌</w>
打 拼</w>
打 哈欠</w>
扒 拉</w>
才 多
才多 艺</w>
手 语</w>
扁 担</w>
所 困</w>
战 机</w>
我 读</w>
我 活</w>
我 姐</w>
成功 率</w>
成 团</w>
成 不变</w>
戏 称</w>
慢 性病</w>
慈善 事业</w>
愧 疚</w>
感到 痛苦</w>
感 受
意料 不到</w>
意 切</w>
惹 人
想 过</w>
想 而知</w>
想 得</w>
想 当然</w>
惰 性</w>
惯 用</w>
惨 案</w>
情 面</w>
情 操</w>
情 书</w>
悬 而未决</w>
悟 出</w>
恶 感</w>
恶 人</w>
恳 切地</w>
息 息
恭 敬
恩 怨</w>
恐怖 活动</w>
性 情
急 救
思 乡</w>
怒 放</w>
怀 揣</w>
快 车</w>
忘 食</w>
心情 舒畅</w>
心情 愉快</w>
心如 刀割</w>
心 致志</w>
心 腹</w>
心 灰意
心 无愧</w>
心 惊
心 不在
心不在 焉</w>
德 高望重</w>
德 寿
德寿 宫</w>
得意 洋洋</w>
徒 步</w>
很 能</w>
很 窄</w>
很 多年</w>
彬 有礼</w>
彬 彬有礼</w>
彩 礼</w>
彩 电</w>
形 体</w>
当 铺</w>
当 受骗</w>
当 下</w>
强 强</w>
强 占</w>
弯 抹角</w>
张 贴</w>
张 某</w>
弄 碎</w>
弄 是非</w>
弄 断</w>
开发 计划</w>
开 端</w>
开 灯</w>
开 播</w>
开 天
开 个</w>
废 铁</w>
底 裤</w>
底 细</w>
应 聘者</w>
庆 典
庆典 活动</w>
广泛 应用</w>
广告 公司</w>
广为 流传</w>
并 行</w>
并 排</w>
年 长</w>
平安 无事</w>
平均 水平</w>
平 白</w>
平 平
干 过</w>
干 线</w>
干 的事</w>
常 会</w>
帮 手</w>
师 兄</w>
布 娃娃</w>
巴 结</w>
巴 基
巫 师</w>
巨大 成功</w>
巨 响</w>
工 学</w>
工 团</w>
工 会
山 高
山 泉</w>
山 村里</w>
山 岳</w>
山 寺</w>
山 势</w>
屡 次三番</w>
屈 不挠</w>
尽 如
尽如 人意</w>
就职 仪式</w>
就业 机会</w>
就 跑</w>
就 座</w>
尝 过</w>
尘 世</w>
尖 叫</w>
少 见</w>
少 有</w>
少 得</w>
小吃 店</w>
小伙 伴</w>
小不 点儿</w>
小 鹿</w>
小 病</w>
小 块</w>
尊 贵</w>
封 顶</w>
导 向</w>
寡 言</w>
寓 言故事</w>
寓 意</w>
富 余</w>
家 荡产</w>
家 宝</w>
家 事</w>
家 之
害 虫</w>
宰 桐</w>
宪 政</w>
审 计</w>
实 体</w>
定 额</w>
定 稿</w>
定 理</w>
定 型</w>
官 移植</w>
宗 派</w>
完 好
安 详</w>
安 然无恙</w>
安 家</w>
安 好</w>
守 护
学 士</w>
学 堂</w>
孤 独
孝 道</w>
存 取款</w>
字 样</w>
字 句</w>
媲 美</w>
媒 人</w>
威 风
始终 如一</w>
姆 指</w>
妙 计</w>
妊 娠</w>
妄 图</w>
妄 动</w>
如 火如荼</w>
如 命</w>
如 初</w>
好了 吗</w>
好 过</w>
好 意思</w>
好 受</w>
她 俩</w>
女 明星</w>
女 方</w>
女 工</w>
奥 运
奋 起</w>
奋 力
奋力 拼搏</w>
奉 献给</w>
奇 怪
夺 秒</w>
夹 杂着</w>
夹 带</w>
头 目</w>
头 条</w>
头 去</w>
失去 平衡</w>
失 衡</w>
失 常</w>
太 黑</w>
太 高兴</w>
太 苦</w>
太 浅</w>
太 弱</w>
太 低</w>
天安 门
天上 掉</w>
天 花</w>
天 棚</w>
天 桥</w>
天 时</w>
天 动地</w>
天 公
大大 减少</w>
大声 嚷嚷</w>
大 麦茶</w>
大 队</w>
大 街小巷</w>
大 虾</w>
大 胜</w>
大 而</w>
大 而
大 笔</w>
大 牌</w>
大 户</w>
大 志</w>
大 得</w>
大 娘</w>
大 同
大 号</w>
大 势</w>
大 功
大 伤脑筋</w>
大 乱</w>
大 举</w>
夜 猫
多 长</w>
多 读</w>
多 病</w>
多 才多艺</w>
多 天</w>
多 一些</w>
外 调</w>
外 皮</w>
外 婆家</w>
复习 功课</w>
复 合</w>
复 印
备 齐</w>
处理 器</w>
处 长</w>
墩 墩</w>
墨 镜</w>
增 至</w>
增 幅</w>
墓 碑</w>
填 充</w>
塔 上</w>
基 是</w>
城 楼</w>
城 南</w>
埋 进</w>
坦 白
坑 里</w>
坐 席</w>
坏 消息</w>
坏 毛病</w>
均 力
均力 敌</w>
地中 海</w>
地 面积</w>
地 问</w>
地 进</w>
地 缘</w>
在 校
在 手</w>
土 重
土 壤
圈 里</w>
圆满 完成</w>
国家 级</w>
国 度</w>
国 君</w>
因 于</w>
回 荡</w>
回 绝</w>
回 礼</w>
四 字</w>
四 分之一</w>
嚼 舌头</w>
器 官移植</w>
嘲 弄</w>
嗽 声</w>
嗨 哟</w>
喝 醉酒</w>
喜马拉 雅
啦 哇啦</w>
商 行</w>
唱 得</w>
唯 有</w>
哨 声</w>
哐 啷</w>
响 动</w>
哇 啦哇啦</w>
哇 哇</w>
咳 嗽声</w>
咯 噔</w>
咧 嘴</w>
呼 啸</w>
呻 吟
呻吟 声</w>
周 转
周 全</w>
呆 滞</w>
吹 灯</w>
吹 倒</w>
吸 纳</w>
吸 入</w>
吵 起来</w>
吭 声</w>
听 使唤</w>
吧 唧</w>
吞 没</w>
名 言</w>
名 目</w>
名 山</w>
名 列</w>
同性 恋</w>
同 道
吊 销</w>
合唱 团</w>
合 金</w>
合 乎
合 不来</w>
各 行
各 政党</w>
各 抒
吃 过饭</w>
吃 水果</w>
吃 了
号 线</w>
台 球</w>
台 下</w>
可以 信赖</w>
可 想而知</w>
可 否</w>
只 求</w>
只 手</w>
另 一方</w>
古代 文明</w>
古 画</w>
口 信</w>
口 供</w>
口 传</w>
叛 逆</w>
叙 利亚</w>
发展 潜力</w>
发出 声音</w>
发 黄</w>
发 髻</w>
发 烫</w>
发 涩</w>
发 泄</w>
发 掘出</w>
发 夹</w>
反 潜</w>
反 攻</w>
反 光</w>
双 面</w>
友 人</w>
及 第</w>
参赛 选手</w>
参 谋
县 长</w>
去 年
原 状</w>
原 形</w>
厚 道</w>
厚 实</w>
压 抑
历史 文物</w>
历 尽</w>
卸 责任</w>
卸 下</w>
卷 发</w>
卵 石</w>
危 难</w>
印 记</w>
印 染</w>
占 线</w>
占 上风</w>
南 美</w>
单 薄</w>
单 一
半 月</w>
半 晌</w>
半 径</w>
升 格</w>
千 古</w>
千 丈</w>
十 四
十 六</w>
十 余
十 万
十 一</w>
区别 对待</w>
北京 奥运</w>
化 剂</w>
勤俭 节约</w>
勒 令</w>
勇 敢
势 均力敌</w>
劫 匪</w>
务 请</w>
加 薪</w>
加 盟
加 以
副 经理</w>
剪 掉</w>
剩 菜</w>
剧 情</w>
前 身</w>
前 茅</w>
前 端</w>
前 沿</w>
前 排</w>
刺 啦</w>
制 人</w>
刮 倒</w>
别 重逢</w>
别 干</w>
别 为</w>
初 版</w>
创 新
创 制</w>
划 线</w>
划 定</w>
切 掉</w>
切 尔
分 校</w>
分 居</w>
分 家</w>
分 夺秒</w>
击 毙</w>
出 钱</w>
出 笼</w>
出 声</w>
出 品</w>
凸 现</w>
几 度</w>
几 多</w>
凌 驾于</w>
准确 无误</w>
冷冷 清清</w>
冲 淡</w>
冲 毁</w>
冬 眠</w>
农 村
军事 基地</w>
军 阀</w>
写 实
冒 雨</w>
再 生
内 陆</w>
内 里</w>
内 裤</w>
养 猪</w>
典 故</w>
具体 内容</w>
共 事</w>
公开 赛</w>
公共 利益</w>
公 道</w>
公 物</w>
公 民
公 团</w>
八 面
八 百
八 成</w>
八 强</w>
八 下</w>
全部 都是</w>
全 身心</w>
全 能</w>
全 盘</w>
全 城</w>
入 球</w>
入 微</w>
入 室</w>
入 内</w>
免疫 系统</w>
免 受</w>
免 于</w>
光明 正大</w>
光 照</w>
光 头</w>
先发 制人</w>
先 驱</w>
先 说</w>
先 给</w>
先 知</w>
充满 信心</w>
充 电器</w>
儿 地</w>
僵 尸</w>
像 模像样</w>
催 眠</w>
催 债</w>
偷 吃</w>
健身 运动</w>
健 美
停 靠</w>
停 运</w>
偏 巧</w>
偏 好</w>
假 面</w>
假 象</w>
倾 诉</w>
倾 家荡产</w>
值得 称赞</w>
值得 一看</w>
倭 乱</w>
倒 立</w>
修订 版</w>
修 改
信 条</w>
信 服</w>
信 口
信 函</w>
保持 清洁</w>
保 障
保 质
保 育
保 不住</w>
便 当</w>
侦 破</w>
侦 察
依 依
供 求</w>
供 应
使 节</w>
使 臣</w>
佛 脚</w>
余 力</w>
体育 比赛</w>
体 能训练</w>
体 操
住宅 小区</w>
住 所</w>
住 在一起</w>
位 数</w>
佃 户</w>
伸 直</w>
伸 得</w>
传统 美德</w>
传 遍</w>
传 真
会 合</w>
会 变</w>
会 以</w>
伙伴 关系</w>
优秀 学生</w>
优 质
众 说纷纭</w>
份 额</w>
以人为 本</w>
令人 高兴</w>
代理 店</w>
代 言人</w>
代 办</w>
他 开</w>
他 常
仕 途</w>
从未 有过</w>
从 家</w>
从 头</w>
从 业
介绍 所</w>
仅 供参考</w>
人身 安全</w>
人类 文明</w>
人民 军</w>
人 潮</w>
人 死</w>
人 头</w>
人 因</w>
人 前</w>
人 一</w>
亲眼 看到</w>
交 集</w>
交 由</w>
亚 特兰
五 谷
五 千元</w>
五 分</w>
五 六
五 人</w>
互 动</w>
云 雾</w>
亏 了</w>
二 年</w>
事件 真相</w>
事 端</w>
事 关</w>
争 分夺秒</w>
争 上游</w>
乱 打</w>
乱 成</w>
乱 世</w>
买 单</w>
买 不起</w>
买 不到</w>
书法 家</w>
书 里</w>
书 后</w>
乡 下人</w>
九牛 二
乐 业</w>
之 言</w>
之 见</w>
之 策</w>
之 梦</w>
之 明</w>
之 旅</w>
之 志</w>
之 师</w>
之 大</w>
之 于</w>
之 不
久 而久之</w>
久 别重逢</w>
举 止
主 帅</w>
主 场</w>
主 力
为 本</w>
串 通</w>
中 起</w>
中 指</w>
丧 命</w>
严 防</w>
严 冬</w>
两 者之间</w>
两 碗饭</w>
两 下子</w>
两 万</w>
东 风</w>
东 江</w>
东 欧</w>
业 已</w>
世界 排名</w>
专 心致志</w>
专 卖</w>
专 制</w>
专 利
与 共</w>
不足 为
不良 影响</w>
不管 不顾</w>
不管 三七二十一</w>
不法 分子</w>
不好 办</w>
不失 为</w>
不了 了之</w>
不 靠</w>
不 锈钢</w>
不 语</w>
不 讲理</w>
不 确定性</w>
不 法行为</w>
不 治之症</w>
不 料</w>
不 放</w>
不 感兴趣</w>
不 息</w>
不 忘</w>
不 屈不挠</w>
不 吭</w>
不 听使唤</w>
不 含糊</w>
不 化</w>
不 力</w>
不 像样</w>
不 倦</w>
不 以为
下 锅</w>
下 海
下 沉</w>
下 一场</w>
上 门
上 起</w>
上 端</w>
上 架</w>
上 当受骗</w>
上 岁数</w>
三十 周年</w>
三 峡
三 万元</w>
万 难</w>
万 不得已</w>
一窝 蜂</w>
一心 一
一 首歌</w>
一 端</w>
一 盏</w>
一 盆</w>
一 段落</w>
一 棒</w>
一 朝</w>
一 朝
一 曲</w>
一 早</w>
一 摸</w>
一 成不变</w>
一 尘不染</w>
一 场
一 半
一 任</w>
i c
c e
N BA</w>
D VD</w>
9 7</w>
8 7</w>
8 .
7 9</w>
7 4</w>
5 2</w>
4 1</w>
3 86</w>
3 50</w>
20 20</w>
2 500</w>
2 40</w>
2 30</w>
龙 王</w>
鼻 而来</w>
鼻 尖</w>
鼓 鼓</w>
鼓 起</w>
鼓 起
鼓起 勇气</w>
鼓 声</w>
默默无 闻</w>
黑 钱</w>
黑 白
黑 猩猩</w>
黑 洞洞</w>
黑 板
黑 字</w>
黏 土</w>
黄 牌</w>
麻 木
麻 料</w>
鸿 沟</w>
鸳 鸯</w>
鸣 笛</w>
鲨 鱼</w>
鬼 脸</w>
高气 爽</w>
高 等</w>
高 楼
高楼 大厦</w>
高 挑</w>
骨 儿</w>
骏 马</w>
驾 光临</w>
驻 美</w>
驶 去</w>
驱 动</w>
马拉 松
香 炉</w>
香 味儿</w>
首 播</w>
馆 长</w>
饿 着
饿着 肚子</w>
饮食 文化</w>
饮 水</w>
饭 前</w>
餐 费</w>
餐 后</w>
食 量</w>
食 费</w>
飞 奔</w>
飘 来</w>
飘 向</w>
飘 动</w>
风俗 画</w>
风 风
风 霜</w>
风 车</w>
风 趣</w>
风 琴</w>
风 沙</w>
风 大</w>
风 下雨</w>
颇 具</w>
领 了</w>
预防 针</w>
颁 奖</w>
顾 家</w>
顾 名
顾名 思
顾名思 义</w>
顽强 抵抗</w>
须 刀</w>
顶 点</w>
顶 多</w>
音 频</w>
韩 裔</w>
鞭 策</w>
面包 车</w>
面 相</w>
面 对
面对 现实</w>
靠 墙</w>
非 难</w>
静 物
静物 画</w>
静 悄悄</w>
青春 年华</w>
青 松</w>
青 云</w>
霸 权</w>
霸 占</w>
霞 光</w>
霉 事</w>
雪 纺衫</w>
雪 亮</w>
雨后 春笋</w>
雕 刻
集 成</w>
集 合
难 用</w>
难 改</w>
难 当</w>
隔 音</w>
隔 三
隐约 约</w>
隐形 眼镜</w>
隐 隐约约</w>
随 身</w>
随 时
院 校</w>
限 额</w>
陈谷子 烂
陈谷子烂 芝麻</w>
阿 谀
阿谀 奉承</w>
阴 森</w>
防 盗</w>
阅 览</w>
闻 乐
闻乐 见</w>
闷 闷
闷闷 不乐</w>
闷 得
闷得 慌</w>
闲 聊</w>
问 路</w>
问 责</w>
闭 症</w>
闭 关
闪 耀着</w>
门 道</w>
门 厅</w>
长 篇</w>
长 椅</w>
长 叹</w>
镜 片</w>
镜 框</w>
锯 战</w>
锁 门</w>
销售 价格</w>
链 接</w>
铺 垫</w>
铭 心</w>
铁 路
铁 矿石</w>
铁 杆</w>
铁 匠</w>
钻 探</w>
钢铁 产业</w>
钢 材</w>
钟 爱</w>
针线 活</w>
针 对性</w>
金 香</w>
野 蛮
野 心
重重 地</w>
重 建
重建 家园</w>
重 复
里 糊涂</w>
采 蜜</w>
采 录</w>
采 光</w>
酷 刑</w>
酒 醉</w>
酒 瓶</w>
配 合
配合 默契</w>
部 长级</w>
郎 当</w>
郁 金香</w>
郁 结</w>
邮 戳</w>
那 话</w>
那 架</w>
邋 遢</w>
遥 控
道 道</w>
道 而来</w>
遇 险</w>
造 纸
造 势</w>
速 行驶</w>
逞 能</w>
通货 紧缩</w>
通信 网</w>
通 顺</w>
通 话
通 缉
递 送</w>
逐 条</w>
选 秀</w>
逆 流</w>
送货 上门</w>
退 化</w>
追 溯到</w>
迫 近</w>
连续 不断</w>
连 败</w>
连 翘</w>
连 累</w>
连 任</w>
违 抗</w>
远 道而来</w>
进 山</w>
进 发</w>
进 不去</w>
这 班</w>
这 有</w>
这 书</w>
近 视</w>
运输 业</w>
迎 新</w>
过 节
过 火</w>
过 活</w>
迁 往</w>
辩 论会</w>
辣辣 的</w>
辞职 信</w>
辛勤 劳动</w>
辗 转
输 送</w>
输 光</w>
辈 分</w>
轻 松
轰 隆</w>
转 晴</w>
转 换成</w>
转 头</w>
车 辆
车 是</w>
车 主</w>
躺 倒</w>
身材 高大</w>
身子 骨儿</w>
身 量</w>
身 教</w>
踱 来</w>
踱 去</w>
踏 进</w>
踏 步</w>
跺 脚</w>
跳 下来</w>
路 途</w>
路 段</w>
路 径</w>
路 人</w>
跨 过</w>
跌 入</w>
足 常
足常 乐</w>
趣 味
越 野
越 狱</w>
越 南
越 久</w>
超 高速</w>
超 速行驶</w>
超 级
超 乎</w>
起 风</w>
赶 时髦</w>
赶 出来</w>
走 遍</w>
走 低</w>
赛 马场</w>
赛 中</w>
赔偿 金</w>
赔 钱</w>
赌 徒</w>
赃 物</w>
贺年 卡</w>
贴 金</w>
贫困 地区</w>
贫 寒</w>
贪 欲</w>
贪 吃</w>
贩 毒</w>
贩 卖
质 彬
质彬 彬</w>
货 色</w>
败 北</w>
责任 心</w>
豪 爽</w>
豁 出</w>
谨 向</w>
调味 料</w>
调 养</w>
读 报</w>
说不 上来</w>
说 理</w>
说 明
说 员</w>
语言 不通</w>
该 厂</w>
该 党</w>
话 头</w>
诗 作</w>
试 验
试 映</w>
识 破</w>
识 渊博</w>
诅 咒</w>
评审 委员</w>
诀 窍</w>
访 韩</w>
设计 图</w>
讲 求</w>
议 政</w>
议 席</w>
议 事</w>
让 出</w>
警卫 室</w>
警 觉</w>
言 蜜语</w>
言 碎
触 电</w>
解 说员</w>
解 数</w>
解 剖</w>
解 冻</w>
角 质</w>
角 膜</w>
视 作</w>
观 察力</w>
见 过
见 证</w>
见 血</w>
见 怪</w>
见 度</w>
见 于</w>
要 花</w>
要 数</w>
裙 带
装 配</w>
装 船</w>
装 腔作势</w>
装 模
装模 作样</w>
裂 口</w>
被 叫</w>
被 划</w>
袅 袅</w>
表达 能力</w>
表达 方式</w>
补 课</w>
补 牢</w>
补 漏</w>
补 偿
衣 长</w>
衣 角</w>
衣 襟</w>
衣 橱</w>
衣 兜</w>
街 边</w>
街 区</w>
行贿 受贿</w>
行动 不便</w>
行为 准则</w>
行 骗</w>
行 我
行我 素</w>
行 不
蜥 蜴</w>
蜕 变</w>
蜂 窝</w>
蚕 室</w>
虚 情
虚情 假意</w>
虚 名</w>
虔 敬</w>
虎 穴</w>
虎 之力</w>
薄 冰</w>
蔼 可亲</w>
蒸 笼</w>
葡萄 牙</w>
著名 人士</w>
落 石
落石 出</w>
落 四</w>
落 千丈</w>
落 伍</w>
萦 绕</w>
营 运</w>
萌 发</w>
菜 鸟</w>
获 释</w>
莫 过于</w>
莫 测</w>
莫 及</w>
莫 不</w>
荒 岛</w>
草 席</w>
茶 碗</w>
茶 水</w>
茫茫 大海</w>
英 超</w>
若 能</w>
苔 藓</w>
花 销</w>
花 掉</w>
芝加 哥</w>
节 拍</w>
艺术 界</w>
艺 节目</w>
艳 丽</w>
色 素</w>
艰 险</w>
良 药</w>
航 天</w>
舞 动</w>
舒 坦</w>
舍己为 人</w>
致 敬</w>
臭皮 匠</w>
自由 化</w>
自 闭症</w>
自 若</w>
自 学</w>
自 主权</w>
自 个儿</w>
腿 就跑</w>
腰 包</w>
脸红 脖
脸红脖 子
脸红脖子 粗</w>
脱离 实际</w>
脚 踏
脚 掌</w>
脚 尖</w>
脑 际</w>
脑 力劳动</w>
脊 背</w>
能 过</w>
能 力
能 不</w>
胸 襟</w>
胸 围</w>
胶 鞋</w>
胡 子
胜利 者</w>
胜 率</w>
背 弃</w>
背 井
背井 离乡</w>
胆 小
胆 大
胃 里</w>
胃 溃疡</w>
肥 猪</w>
肢 体</w>
肝 癌</w>
联合国 安理会</w>
职业 联赛</w>
耗 时</w>
耐 磨</w>
耐 性</w>
耍 起</w>
而易 见</w>
而 皇
而皇 之</w>
考试 及格</w>
考 取</w>
老 顽固</w>
老 本</w>
老 旧</w>
老 掉牙</w>
老 战友</w>
老 成</w>
老 幺</w>
老 子</w>
老 妇人</w>
翻 白眼</w>
翘 起</w>
翕 动</w>
群众 中</w>
群 星</w>
群 岛</w>
群 居</w>
美术 史</w>
美 食
美 好
美 人
羊 补牢</w>
署 名</w>
置 办</w>
网络 版</w>
罐头 盒</w>
缩 略
缩 水</w>
缝 线</w>
缝 制</w>
缘 关系</w>
编 入</w>
缓 期</w>
缓 急</w>
缓 刑</w>
缓 冲
缆 车</w>
绿色 食品</w>
综 艺节目</w>
绷 紧</w>
维 能力</w>
维 他命</w>
继续 前进</w>
继任 者</w>
绝 大部分</w>
给 钱</w>
绕 远儿</w>
绕 脖子</w>
绕 在</w>
结 着</w>
结 核
结 巴</w>
结 交</w>
绑 架
经济 基础</w>
经 过
经 纪</w>
经 查明</w>
绊 倒</w>
细细 的</w>
练习 本</w>
纺 织</w>
纹 身</w>
纹 章</w>
纸 箱</w>
纷纷 表示</w>
纳 粹</w>
纲 领</w>
纱 帽</w>
纯 熟</w>
纯 棉</w>
纬 度</w>
红了 眼</w>
红 魔</w>
红 润</w>
红 彤
红彤 彤</w>
纠 结</w>
累 赘</w>
紧紧 抓住</w>
紧急 措施</w>
紧 绷</w>
紧 绷
紧 握</w>
紧 握
素 描</w>
系统 化</w>
系列 赛</w>
系 在</w>
糟 透了</w>
糊 里糊涂</w>
精诚 团结</w>
精神 科</w>
精 心
精 品</w>
粹 主义</w>
粗 浅</w>
粗 气</w>
粗 壮</w>
粉 刷</w>
篮 球队</w>
管 用</w>
管 束</w>
算 错</w>
简 介</w>
等于 零</w>
第三 名</w>
第一 阶段</w>
第一 眼</w>
第 四</w>
第 六</w>
笨 蛋</w>
笔 迹</w>
笔 筒</w>
笑 笑</w>
笑 料</w>
端 端</w>
竟 是</w>
站 住脚</w>
站 上</w>
竖 立</w>
立法 权</w>
立 身
立 方</w>
窍 门</w>
窃 窃
窃窃 私语</w>
突 发
穿 马路</w>
穿 衣</w>
空如 也</w>
空 腹</w>
空 空如也</w>
空 着</w>
空 白
空 格</w>
空 旷</w>
空 心</w>
空 当</w>
穆 朗
穆朗 玛
穆朗玛 峰</w>
稳定 物价</w>
税 费</w>
稀 罕</w>
稀 有</w>
移动 电话</w>
移 开</w>
称 霸</w>
称 心</w>
称 兄
称兄 道弟</w>
积 食</w>
租 给</w>
秘书 室</w>
科学 界</w>
科 幻
种 田</w>
私 营</w>
私 事</w>
离 不了</w>
神经 衰弱</w>
神 入
神入 化</w>
祖 国
祈 愿</w>
礼 轻
磨 光</w>
磅 礴</w>
碰 面</w>
碧 绿</w>
碎 石</w>
硬 撑</w>
研 讨</w>
石 灰</w>
短 篇</w>
知识 经济</w>
知 足常乐</w>
知 情</w>
知 己</w>
睡 着
睡着 觉</w>
睡 个</w>
着 劲儿</w>
眼睁 睁</w>
眼 花</w>
眼 珠子</w>
眠 症</w>
真实 情况</w>
真 甜</w>
真 得</w>
真 叫</w>
真 像</w>
真 乖</w>
看不 起人</w>
看 穿</w>
看 人
眉 山</w>
省 会</w>
盼望 已久</w>
相 待</w>
相 形
直 截
直截 了当</w>
目成 仇</w>
盟 国</w>
盛 装</w>
盘 索里</w>
盗 用</w>
益 健康</w>
盈 盈</w>
盆 花</w>
皮 衣</w>
百分之 十</w>
白雪 公主</w>
白 衬衫</w>
白 沙滩</w>
白 吃</w>
登山 队员</w>
瘦 身</w>
瘦 弱</w>
瘦 小</w>
痼 疾</w>
痛 痒</w>
痛 心</w>
病 呻吟</w>
疲劳 过度</w>
疲 软</w>
疲 乏</w>
疤 痕</w>
疟 疾</w>
疑 难
疏 于</w>
留 言
留 名</w>
留 住</w>
畏 缩</w>
畏 缩
画 风</w>
画 中</w>
男 装</w>
电磁 波</w>
电 算</w>
电 机</w>
甲 方</w>
生活 状况</w>
生死 存亡</w>
生机 勃勃</w>
生 风</w>
生 路</w>
生 精力</w>
生 姜</w>
甜 言蜜语</w>
甜 味</w>
甄 别</w>
瓶 颈</w>
璀 璨</w>
珠 穆朗玛峰</w>
珍 视</w>
珍 本</w>
玻璃 门</w>
现实 情况</w>
现代 集团</w>
现 身</w>
现 成</w>
现 如今</w>
玫瑰 色</w>
玩 忽
玩忽 职守</w>
玩 儿
玉 石</w>
猫 咪</w>
猛 扑</w>
狭 义</w>
独生 子</w>
独 创</w>
状 况
特 种</w>
特 写</w>
牵 挂</w>
牧 民</w>
牢 牢
牢牢 地</w>
牙 科</w>
牙 疼</w>
版 权</w>
片 面
片 中</w>
爽 朗</w>
爸 爸
爸爸 妈妈</w>
父 子
爱 河</w>
爬 行</w>
爆炸 事件</w>
燃 气</w>
熨 帖</w>
煽 情</w>
照 进来</w>
照 搬</w>
照 应</w>
照 实</w>
煞费 苦心</w>
然 有序</w>
焊 接</w>
热烈 鼓掌</w>
热 爱
热 度</w>
烧 光</w>
烤 面包</w>
烟雾 弥漫</w>
烟 尘</w>
烟 云</w>
点 钱</w>
点 事</w>
点 上</w>
炒 股</w>
炒 热</w>
灾 难
灭 种</w>
火 种</w>
火 堆</w>
火 儿</w>
火 候</w>
激 灵</w>
澎 湃</w>
潦 草</w>
潜 意识</w>
漫长 岁月</w>
演 练</w>
漏 税</w>
滥 用
满头 大汗</w>
满 面
满 贯</w>
满 腹</w>
满 腔</w>
满 肚子</w>
满 天</w>
满 了</w>
滞 纳</w>
滚 圆</w>
滚 下去</w>
滑 坡</w>
溜 滑</w>
溜 圆</w>
溜 出</w>
源 头</w>
湖 中</w>
游戏 机</w>
清洁 工</w>
清 闲</w>
混 混</w>
混 沌</w>
深刻 印象</w>
深 爱</w>
淡 漠</w>
淡 忘</w>
淡 季</w>
消费 品</w>
消息 灵通</w>
消息 人士</w>
消 释</w>
海 峡</w>
海 南
浴 池</w>
浪漫 主义</w>
济 事</w>
浇 灌</w>
流 鼻血</w>
流 汗</w>
流 水
派 送</w>
活 脱</w>
津 津</w>
洗 衣</w>
洗 发
泼 出去</w>
泥 沼</w>
波 澜
波 士
波士 顿</w>
法律 效力</w>
法律 依据</w>
法 西斯</w>
泄 露
泄 物</w>
泄 不通</w>
治 疗
治 安
油 画</w>
油 桶</w>
沸 水</w>
河 川</w>
没过 多久</w>
没有 规矩</w>
没 头
没头 没
沙 特</w>
沙 漠
沙 尘</w>
沉默 寡言</w>
沉 溺
沈 阳</w>
汽车 轮胎</w>
污 点</w>
池 子</w>
江 陵</w>
汗 毛</w>
汉 奸</w>
永 生</w>
水彩 画</w>
水 边</w>
水 落石出</w>
水 般</w>
水 渠</w>
水 浅</w>
水 泄不通</w>
水 域</w>
水 在</w>
气象 台</w>
气 鬼</w>
气 十足</w>
民浩 为</w>
民浩 一</w>
民 宿</w>
毯 式</w>
毫无 顾忌</w>
毫不 在意</w>
毫不 动摇</w>
毫不 关心</w>
毕 生精力</w>
比 萨</w>
每 棵</w>
每 学期</w>
每 件</w>
母 舰</w>
母 女</w>
母 体</w>
母 乳
母乳 喂养</w>
死亡 率</w>
死 理</w>
死 机</w>
死 对头</w>
武 打</w>
武 器
步 兵</w>
正统 性</w>
正经 八百</w>
正 音</w>
正 对</w>
正 品</w>
正 人
款 子</w>
欲 绝</w>
欲 坠</w>
欢 腾</w>
欢 庆</w>
欠 佳</w>
橡 子</w>
横 穿马路</w>
概 括
楼 阁</w>
楼 道</w>
楼 层</w>
棒 球赛</w>
棒 极了</w>
棒 了</w>
检 阅</w>
检 票口</w>
检 疫</w>
梳 子</w>
根本 原因</w>
核心 技术</w>
核 桃</w>
样 貌</w>
树 皮</w>
树 下</w>
标 示</w>
某 一</w>
枯 燥</w>
枪 械</w>
枪 口</w>
枝 叶</w>
枕 套</w>
极 富</w>
极 右</w>
松 柏</w>
松 松</w>
松 子</w>
来 函</w>
条 斯
条斯 理</w>
杠 铃</w>
杠 杆</w>
束 力</w>
村 人</w>
材 料
李承 烨</w>
杂 费</w>
杂 质</w>
杂 物</w>
杀 猪</w>
机 体</w>
朴赞 浩</w>
朴 泰
朴 前</w>
本 营</w>
本 色</w>
本 校</w>
本 是</w>
本 家</w>
未经 许可</w>
未婚 妻</w>
未 成年</w>
木 耳</w>
期 货</w>
期 满</w>
期 末</w>
朝 气</w>
有 雨</w>
有 车</w>
有 素</w>
有 益健康</w>
有 物</w>
有 方</w>
有 心</w>
有 幸</w>
有 大</w>
月 色</w>
最 美</w>
最 多
替 身</w>
曹 操</w>
更 让人</w>
暴 政</w>
暴 发
暗 礁</w>
智 敏</w>
景 物</w>
景 况</w>
普遍 化</w>
普 京</w>
晚 秋</w>
晕 船</w>
晕 头
晕 乎乎</w>
晒 晒</w>
显 露出</w>
显 露</w>
显 而易见</w>
春 节
春 耕</w>
春 游</w>
映 照</w>
星 儿</w>
易 近人</w>
易 拉
易拉 罐</w>
明显 增加</w>
明 示</w>
明 儿</w>
昂 首
旮旯 儿</w>
早 逝</w>
旧 式</w>
旧 书店</w>
日 志</w>
日 向</w>
既 要</w>
既 得</w>
无话 可说</w>
无论 怎样</w>
无虚 席</w>
无线 网络</w>
无 邪</w>
无 色</w>
无 稽</w>
无 病呻吟</w>
无 机
无 敌</w>
无 意
无 为</w>
旗 下</w>
旋 转
方 方
方 可</w>
新鲜 血液</w>
新 风</w>
新 近</w>
新 路</w>
新 增</w>
新 人
新 一届</w>
斗 殴</w>
斑 斑</w>
斋 戒</w>
文化 产业</w>
文 质彬彬</w>
整体 性</w>
敲 定</w>
数据 库</w>
数字 化</w>
数 点</w>
敬 畏</w>
散 漫</w>
散 散步</w>
教练 组</w>
教学 楼</w>
教 课</w>
教 化</w>
教 义</w>
救 生
故 而</w>
放 纵</w>
放 炮</w>
放 火</w>
放 射</w>
攻击 力</w>
攻 入</w>
改 观</w>
改 动</w>
收 货</w>
擦 干</w>
操作 系统</w>
操 持</w>
撞 车</w>
撕 下</w>
撑 开</w>
撅 撅</w>
摸 不到</w>
摇摇 欲坠</w>
摇摇 摆摆</w>
摇 曳</w>
摇 动</w>
摆 正</w>
摆 开</w>
摄 取
摄取 量</w>
携带 方便</w>
携 式</w>
搬 出</w>
搜 身</w>
搅 匀</w>
搁 浅</w>
插 花</w>
提出 异议</w>
提供 支援</w>
描绘 出</w>
推 选</w>
推 给</w>
推 土机</w>
控 告</w>
接 见</w>
探测 器</w>
排名 第</w>
排 遣</w>
排 泄物</w>
排 序</w>
排 在</w>
掌 权</w>
掉 队</w>
捷 报</w>
据 传</w>
捣 蛋</w>
换 代</w>
损失 惨重</w>
捞 取</w>
捕 猎</w>
捐 躯</w>
捉 住</w>
挺 胸</w>
振 作</w>
挪 用
按劳 分配</w>
指 称</w>
指 教</w>
挂 号
挂号 信</w>
持 平</w>
拿 手
拿手 菜</w>
拿 不出</w>
招聘 广告</w>
招 工</w>
拐 弯</w>
拍 出</w>
拉开 帷幕</w>
拉 锯战</w>
拉 票</w>
拉 拢</w>
拉 倒</w>
拆 迁</w>
拆 借</w>
担 负起</w>
抽 取</w>
押 送</w>
抱 佛脚</w>
抬 眼</w>
披 肩</w>
报 表</w>
报 纸
抢 镜头</w>
抛 售</w>
折 起来</w>
折 射</w>
折 中</w>
抗 衡</w>
抖 落</w>
投票 者</w>
把 守</w>
抄 起</w>
技 工</w>
承 包</w>
找 寻</w>
批 示</w>
扭 伤</w>
执行 公务</w>
执 法
执 教</w>
执 拗</w>
打 过</w>
打 结</w>
扑 鼻而来</w>
扑 棱棱</w>
扎 啤</w>
扎 到</w>
手拿 着</w>
手 软</w>
手 来</w>
手 把</w>
所 到之处</w>
房 客</w>
房 地
户 主</w>
戴 高
战略 要地</w>
战 火</w>
战 功</w>
戒 律</w>
我 行我素</w>
我 受</w>
成 风</w>
成 是</w>
成 性</w>
戏 弄</w>
懒 散散</w>
懒 懒散散</w>
懒 做</w>
慢 走</w>
慢 条斯理</w>
慌 乱</w>
慈 爱</w>
愤 恨</w>
感情 用事</w>
感情 丰富</w>
感 觉
意志 力</w>
惹 火</w>
惹 人</w>
惶 惶
想 开</w>
想 尽
想 不通</w>
惨 烈</w>
惧 怕</w>
惊 呆</w>
惆 怅</w>
情理 之中</w>
情景 喜剧</w>
情况 紧急</w>
情 结</w>
情 深</w>
悲 凉</w>
您 老</w>
悦 耳</w>
悔 恨</w>
悄悄 的</w>
恼 怒</w>
恐怖 主义</w>
恐 惧
总 罢工</w>
总 值</w>
怪 人</w>
性格 内向</w>
性别 歧视</w>
性 行为</w>
急 匆匆</w>
思想 家</w>
思 维能力</w>
怎 能不</w>
念 起来</w>
念 完</w>
快 点儿</w>
快 慢</w>
快 地</w>
忧 心
志 同道
志同道 合</w>
心理 压力</w>
心 血管</w>
心 病</w>
心 性</w>
心 急</w>
微 微
微微 一笑</w>
得 慢</w>
得 奖</w>
律 师
很 早</w>
很 严</w>
待 命</w>
径 直</w>
往下 掉</w>
往 家</w>
往 回</w>
彼此 间</w>
影 视</w>
形容 词</w>
当局 者</w>
当 头</w>
当 代
归 属</w>
归 咎
归咎 于</w>
强迫 观念</w>
强 壮</w>
弹 奏</w>
弯 路</w>
张 本</w>
张 大</w>
弟 兄</w>
引起 争议</w>
引 资</w>
引 咎
引咎 辞职</w>
引 力</w>
引 以为
弓 箭</w>
弄 湿</w>
异国 他乡</w>
开 课</w>
开 店</w>
开 场</w>
建设 性</w>
建筑 风格</w>
建筑 工地</w>
座 无虚席</w>
应 立即</w>
广播 局</w>
并不 等于</w>
并 发
并发 症</w>
年龄 段</w>
年 金</w>
年 纪念</w>
年 份</w>
平等 互利</w>
平民 百姓</w>
平 衡
平 易近人</w>
平 方</w>
干脆 利落</w>
干 重</w>
干 裂</w>
干 舌
干 柴</w>
干 到底</w>
常 说</w>
常 情</w>
常 态</w>
常 任</w>
席 上</w>
带 球</w>
帆 布</w>
布 下</w>
市场 竞争</w>
市 容</w>
巴基 斯坦</w>
已 满</w>
差别 待遇</w>
差 不齐</w>
工业 国</w>
崔 某</w>
崇 尚</w>
峰 期</w>
峨 眉山</w>
山 涧</w>
山 丘</w>
屠 夫</w>
属 性</w>
展 期</w>
屏 息</w>
就 照</w>
就 学</w>
尚 无</w>
尘 封</w>
少 许</w>
小儿 麻痹</w>
小 额</w>
小 雨</w>
小 费</w>
小 老婆</w>
小 火</w>
小 意思</w>
小 山坡</w>
小 姑子</w>
小 分队</w>
小 东西</w>
射 程</w>
寻 摸</w>
对外 开放</w>
对 话
寸步 不离</w>
寸 断</w>
寥 寥
寒 碜</w>
富 于</w>
寄 出去</w>
寄 信</w>
家庭 教育</w>
害 处</w>
害 喜</w>
宫 廷</w>
宣 泄</w>
客 队</w>
客 运</w>
实地 考察</w>
实力 派</w>
实 效</w>
实 意</w>
实 在
定 金</w>
定 量</w>
定 准</w>
定 书</w>
官 邸</w>
官 吏</w>
官 儿</w>
宗教 团体</w>
宏 观
完全 全</w>
完 美
完 完全全</w>
完 作业</w>
安乐 窝</w>
安乐 死</w>
安 然</w>
安 检</w>
安 抚</w>
安 打</w>
安 危</w>
安 乐</w>
守 则</w>
孩 童</w>
学 识渊博</w>
学 舌</w>
学 籍</w>
学 派</w>
学 子</w>
学 妹</w>
存储 器</w>
存 进</w>
存 入</w>
字 报</w>
婚 期</w>
婚 宴</w>
娇 惯</w>
娃 娃
威 尼斯</w>
姻 缘</w>
姜 汤</w>
妆 容</w>
如 若</w>
好几 家</w>
好 端端</w>
好 戏</w>
好 大</w>
好 吃
好吃 懒做</w>
女 足</w>
女 装</w>
女 星</w>
女 娲</w>
奢侈 品</w>
奢 望</w>
套 餐</w>
奔 赴</w>
奔 西
奏 效</w>
头盖 脸</w>
失 落</w>
失 策</w>
失 眠症</w>
失 意</w>
央 求</w>
夭 折</w>
夫妻 间</w>
太阳 升</w>
太 近</w>
太 精彩</w>
太 棒了</w>
太 子</w>
天下 第一</w>
天 职</w>
天 真
天 文学</w>
天 快</w>
天 伦
天伦 之乐</w>
大大 提高</w>
大吵 大闹</w>
大力 支持</w>
大力 士</w>
大众 化</w>
大 骂</w>
大 驾光临</w>
大 雄
大 连</w>
大 获</w>
大 白菜</w>
大 热天</w>
大 灾难</w>
大 潮</w>
大 洋</w>
大 步</w>
大 本营</w>
大 抵</w>
大 成</w>
大 德</w>
大 干</w>
大 字报</w>
大 姑娘</w>
大 国家
大国家 党</w>
大 半天</w>
大 加</w>
够 不着</w>
夜猫 子</w>
夜 宵</w>
多 花</w>
多 端</w>
外汇 储备</w>
外 快</w>
外 地人</w>
复 学</w>
备 有</w>
备 受
备受 瞩目</w>
处 流</w>
处 死</w>
处 决</w>
壮 阔</w>
墨西 哥
增 值
增值 税</w>
填 空</w>
堆 起来</w>
堂 而皇之</w>
基础 科学</w>
基本 工资</w>
基 用</w>
城市 化</w>
城 里人</w>
垮 塌</w>
垮 台</w>
垫 脚石</w>
坚持 原则</w>
坐 标</w>
坐 垫</w>
坐 到</w>
坏 脾气</w>
均 摊</w>
地 缠</w>
地 毯式</w>
地 壳</w>
地 名</w>
地 冲</w>
在此 期间</w>
在我 看来</w>
在 群众中</w>
在 旦夕</w>
土 豆
圆 润</w>
国防 部长</w>
国民 党</w>
国家 机密</w>
国土 面积</w>
围 裙</w>
围 住</w>
团团 转</w>
因 病</w>
因 是</w>
回 转</w>
回 旋</w>
回 扣</w>
四 运动</w>
四 射</w>
四 下</w>
器 物</w>
嘴 笨</w>
嘟 囔</w>
喷 涌</w>
喝 上</w>
喜怒 哀乐</w>
喜剧 演员</w>
喜 闻乐见</w>
喇叭 花</w>
善 于
啦 啦</w>
啥 时候</w>
啕 大哭</w>
商 户</w>
唯 物
售 票
售 卖</w>
唧 唧
哼 哧</w>
哪 边</w>
哪 件</w>
哥 儿俩</w>
咬 一口</w>
咫 尺</w>
和 蔼可亲</w>
和 睦
和 民浩</w>
命 中
呼吸 道</w>
呼 扇</w>
呵 斥</w>
呱 唧</w>
周 年纪念</w>
告 状</w>
呆 笨</w>
呆 了</w>
吸 管</w>
听 则
听 信</w>
听 不见</w>
含 恨</w>
后 援</w>
后 患</w>
后 侧</w>
名列 前茅</w>
名 儿</w>
名 不
名 下</w>
同 胞
同 类</w>
同 班同学</w>
同 批</w>
同 情
吉 祥</w>
合同 条款</w>
合作 社</w>
各 色</w>
各 色
吃 香</w>
吃 生</w>
吃 大亏</w>
吃 不得</w>
叽里 咕噜</w>
司令 员</w>
叶 茂</w>
可信 度</w>
可 恶</w>
可 喜</w>
可 可</w>
可 及</w>
可 信赖</w>
叮当 响</w>
召 力</w>
叫 苦</w>
另 一边</w>
另 一半</w>
古 风</w>
口 轻</w>
口 头上</w>
变化 球</w>
变 心</w>
变 少</w>
变 宽</w>
变 卖</w>
受 冻</w>
发言 者</w>
发电 机</w>
发烧 友</w>
发 高烧</w>
发 给
发 福</w>
发 炎</w>
发 工资</w>
反应 迟钝</w>
反 目成仇</w>
反 悔</w>
反 思</w>
反 差</w>
反 之</w>
双 边</w>
双 脚</w>
双 眼皮</w>
双 全</w>
又 名</w>
参赛 者</w>
参 选</w>
参 差不齐</w>
叁 加</w>
去年 同期</w>
去 路</w>
原始 社会</w>
原 貌</w>
原 作者</w>
厚 望</w>
厚 厚</w>
压 迫感</w>
历史 观</w>
历史 使命</w>
厂 房</w>
卷 儿</w>
即 逝</w>
卫 冕
卡 通</w>
博 爱</w>
南 国</w>
卖 弄</w>
卖 国贼</w>
单一 化</w>
单 靠</w>
单 单</w>
单 价</w>
卑 微</w>
协 会
半 身</w>
半 空</w>
升 学考试</w>
升 任</w>
千 克</w>
十 来</w>
十 块钱</w>
十 几岁</w>
十 三岁</w>
医 药</w>
医 务
匹 配</w>
匪 浅</w>
北方 地区</w>
北京 烤鸭</w>
北 大</w>
化 工</w>
包装 纸</w>
包 涵</w>
包 住</w>
勉 强强</w>
勉 勉强强</w>
劳资 关系</w>
劳 总</w>
劳 力</w>
劲 头</w>
助 学</w>
务 实</w>
加盟 店</w>
加快 速度</w>
加 湿器</w>
加 倍
加倍 努力</w>
功 能性</w>
办公 用品</w>
办公 楼</w>
办公 大楼</w>
力 争上游</w>
力 不
副 产品</w>
剪 纸</w>
剧 目</w>
前途 无量</w>
前 院</w>
前 男友</w>
前 列
前 先</w>
前 世</w>
削 铅笔</w>
剃 须刀</w>
刺 溜</w>
刺 刀</w>
刮 风下雨</w>
别 碰</w>
别 理</w>
别 动</w>
利 息
创始 人</w>
切尔 西</w>
分 阶段</w>
分 解
分 界线</w>
分 摊</w>
击 破</w>
击 倒</w>
出门 时</w>
出 轨</w>
出 访</w>
出 让</w>
出 神入化</w>
出 溜</w>
出 戏</w>
出 席
出 厂</w>
出 力</w>
出 丑</w>
凶 犯</w>
凶 巴巴</w>
凭 良心</w>
凤 仙花</w>
几 道</w>
几 杯酒</w>
几 日</w>
几 年来</w>
几 十</w>
减 税</w>
减 刑</w>
准确 性</w>
冷不 丁</w>
冷 飕飕</w>
冷 枪</w>
冷 板凳</w>
决 裂</w>
决 胜负</w>
决 一
冲 洗</w>
冲 刷</w>
冠 军
军事 设施</w>
军 需</w>
军 纪</w>
写 作
再 版</w>
冉冉 升起</w>
内部 矛盾</w>
内 线</w>
养殖 场</w>
养 老院</w>
养 护</w>
养 家</w>
其 实
兴 亡</w>
关注 度</w>
关 灯</w>
关 押</w>
关 口</w>
共和 党</w>
共 用</w>
公安 机关</w>
公 论</w>
公 营企业</w>
公 用
公 关</w>
八 旬</w>
八 字
八 十年代</w>
全力 支持</w>
全 过程</w>
全 胜</w>
全 员</w>
入 库</w>
入 党</w>
兜 圈子</w>
兑 付</w>
光 着</w>
光 看</w>
先进 经验</w>
先 锋
先 到</w>
元 旦</w>
儿 里</w>
僵 局</w>
傲 气</w>
催 逼</w>
储 备
偶 像
健 在</w>
健 全
健 儿</w>
停 飞</w>
停 水</w>
做 错事</w>
做 广告</w>
做 客</w>
做 完作业</w>
偏 重</w>
假面 舞</w>
值 班
债 务
倭 寇</w>
借 酒
借 以</w>
候 补</w>
倒 霉事</w>
倒 置</w>
倒 影</w>
倒 地</w>
倍 增</w>
修改 案</w>
修 道</w>
修 辞</w>
修 路</w>
保龄 球</w>
保质 期</w>
保护 法</w>
保守 主义</w>
保 证书</w>
俊 秀</w>
俄罗 斯
俄 语</w>
便 服</w>
便 携式</w>
依 稀</w>
依 我
供 养</w>
使 不得</w>
作品 展</w>
作 贡献</w>
作 罢</w>
佛 祖</w>
佛 堂</w>
何 必
何 以</w>
体育 项目</w>
低 矮</w>
低 声</w>
但 会</w>
伸 手
伶 俐</w>
伪 装成</w>
传统 服装</w>
传 奇</w>
传 人</w>
会 话</w>
会 后</w>
会 到</w>
伙 食费</w>
伙 食</w>
优越 感</w>
优 胜者</w>
众 议院</w>
伏 天</w>
伍 兹</w>
企 鹅</w>
企 划
仿 造</w>
令人 作呕</w>
代理 人</w>
代 代</w>
仙 境</w>
付 费</w>
付 清</w>
他 法</w>
他 办</w>
他 净</w>
仔细 细</w>
仔细 听</w>
仔 仔细细</w>
从业 人员</w>
从 长
从 那
从 简</w>
从 梦中</w>
从 容
今年 年底</w>
今 夜</w>
仅 为</w>
仁 义
人民 解放军</w>
人心 弦</w>
人工 费</w>
人工 呼吸</w>
人员 名单</w>
人事 安排</w>
人 材</w>
人 太
人 到</w>
亲和 力</w>
亲 眼</w>
亲 家</w>
亮 儿</w>
亮 亮
产品 开发</w>
交 配</w>
亡 羊补牢</w>
些 许</w>
井 里</w>
井 然有序</w>
井 水</w>
五 彩</w>
五 彩
五 四运动</w>
五 六岁</w>
互助 会</w>
云 霄</w>
云 散</w>
亏 本</w>
二十 几岁</w>
二 重
二 等兵</w>
事实 证明</w>
事 理</w>
事 变</w>
事 办</w>
乱 来</w>
乱 作一团</w>
买 下</w>
书 面
九牛二 虎之力</w>
乘 飞机</w>
乘 以</w>
乎 其
乌 克兰</w>
之 马</w>
之 痛</w>
之 王</w>
之 爱</w>
之 灾</w>
之 恨</w>
之 大
之 久</w>
义 士</w>
义 卖</w>
久 等</w>
久 病</w>
举 手
主导 作用</w>
主 编</w>
为时 尚早</w>
为 宜</w>
为 妻</w>
临 行</w>
中国 共产党</w>
中华 人民共和国</w>
中 餐馆</w>
中 餐</w>
中 队</w>
中 立
中 山</w>
中 小学</w>
中 叶</w>
中 受</w>
中 午饭</w>
个人 资料</w>
个 面</w>
丧 礼</w>
严重 破坏</w>
严格 管理</w>
严厉 批评</w>
两 道</w>
两 艘</w>
两 棵</w>
两 手
两 性</w>
两 届</w>
两 大类</w>
两 千元</w>
丢 开</w>
丢 三
丢三 落四</w>
丝 带</w>
东 道
东 方式</w>
东 方
东 学
东 奔西
世界 舞台</w>
世界 杯赛</w>
专 题</w>
与会 者</w>
与会 代表</w>
不论 什么</w>
不能 自拔</w>
不相 往来</w>
不成 问题</w>
不分 胜负</w>
不 遇</w>
不 远处</w>
不 转</w>
不 羁</w>
不 显</w>
不 差</w>
不 富</w>
不 宁</w>
不 多
不 体面</w>
不 以</w>
不 亮</w>
不 为</w>
下 课</w>
下 狠心</w>
下 有
下 发</w>
下 不
上海 市</w>
上 装</w>
上 流</w>
上 有
上 岸</w>
上 千</w>
上 前</w>
上 八下</w>
三 遍</w>
三 个
万众 一心</w>
万人 次</w>
万 辆</w>
万 民</w>
七 日</w>
七 分</w>
七 上八下</w>
一把 汗</w>
一心一 意</w>
一席 话</w>
一对 一</w>
一个 多月</w>
一下子 把</w>
一 转</w>
一 跤</w>
一 落千丈</w>
一 色</w>
一 绝</w>
一 章</w>
一 秒钟</w>
一 知
一 清早</w>
一 洗</w>
一 朵花</w>
一 是</w>
一 时期</w>
一 女</w>
一 夕</w>
一 壶</w>
一 壶
一 变</w>
一 十</w>
一 列</w>
一 代人</w>
一 两次</w>
一 上</w>
一 丁点儿</w>
o o
e r</w>
d o
9. 11</w>
8 3</w>
7 3</w>
6 2</w>
5 0
198 7</w>
19 80</w>
19 5</w>
17 00</w>
1 60</w>
1 40</w>
1 2
1 19</w>
齐 鸣</w>
鼻子 有
黯 然
默 认</w>
黑板 擦</w>
黑 黑
黑黑 的</w>
黑 影</w>
黑 乎乎</w>
黄金 周</w>
黄 铜</w>
黄 色
黄 腾
黄腾 达</w>
麻木 不
麻木不 仁</w>
麻 酥酥</w>
鹅 毛</w>
鹅 毛
鸣 叫</w>
鸡 犬
鸟 笼</w>
鸟 巢</w>
鸟 叫声</w>
鳟 鱼</w>
鱼 虾</w>
鱼 竿</w>
鱼 刺</w>
鬼 门
鬼 神</w>
高档 商品</w>
高层 人士</w>
高 铁</w>
高 照</w>
高 峰期</w>
高 唱</w>
高 压
骨头 架子</w>
骑 士</w>
驾驶 者</w>
马格 利</w>
马拉松 赛</w>
马克 思</w>
马克 思
马 达</w>
马 桶</w>
香 皂</w>
香 槟</w>
饭 团</w>
餐饮 业</w>
食 宿</w>
食 其
飞 黄腾达</w>
飞 过去</w>
飞 得</w>
飘 逸</w>
飘 浮</w>
风风 火火</w>
风吹 雨
风吹雨 打</w>
风 邪气</w>
风 尚</w>
风 太大</w>
风 口</w>
颠 倒
颗 粒
颈 鹿</w>
颇 受</w>
领土 问题</w>
顿 下来</w>
顾 不上</w>
顺 心</w>
顺 势</w>
顶 部</w>
顶 棚</w>
顶 不住</w>
韩 食</w>
韩 华</w>
韩 亚</w>
面 额</w>
面 面</w>
靡 不振</w>
靠 不住</w>
非常 容易</w>
青 龙</w>
青 铜</w>
青 菜</w>
青 天</w>
霉 素</w>
震 耳
震耳 欲
震耳欲 聋</w>
雷 同</w>
零 活儿</w>
零 分</w>
零 上</w>
雕 饰</w>
雌 雄</w>
雇 佣
集中 力量</w>
集 团
难以 想象</w>
难 收</w>
障 眼
障眼 法</w>
隔 膜</w>
隐 情</w>
隐 性</w>
随身 带</w>
随便 便</w>
随 随便便</w>
随 波
随波 逐
随波逐 流</w>
陷 落</w>
陶 瓷器</w>
降 至</w>
附 会</w>
阻 隔</w>
阵 线</w>
阴 郁</w>
阴 天</w>
阳 伞</w>
防 腐
防腐 剂</w>
防 空</w>
防 潮</w>
防 治</w>
队 精神</w>
阅 读
闹 市</w>
闷 气</w>
闲 话少说</w>
闲 杂
闯 将</w>
问 题
问 答</w>
问 心无愧</w>
问 号</w>
闭 幕式</w>
门 经理</w>
门 牌</w>
门 框</w>
门 柱</w>
门 徒</w>
门 帘</w>
长 鼓</w>
长 颈鹿</w>
长 白山</w>
锦 湖</w>
锥 子</w>
锤 炼</w>
锣 鼓</w>
错 车</w>
错 字</w>
锐 气</w>
锅 里
锅 台</w>
锁 定</w>
锁 国</w>
销 毁</w>
铺 平</w>
铸 就</w>
银杏 叶</w>
银 针</w>
银 盘</w>
铭 刻</w>
铡 刀</w>
铜 色</w>
铜 牌</w>
铁 锤</w>
铁 皮</w>
铁 栅栏</w>
钱 花</w>
钱 物</w>
钱 买</w>
钟 路</w>
钟 情</w>
针 线</w>
针 刺
针刺 麻醉</w>
金 总
金 弘
金 将军</w>
量 一下</w>
野 马</w>
重大 事故</w>
重 镇</w>
重 金</w>
重 申</w>
重 用</w>
重 生</w>
重 温</w>
重 播</w>
采取 行动</w>
醺 醺</w>
醉 醺醺</w>
醉 意</w>
酸 雨</w>
酸 性</w>
酷 爱</w>
酱 料</w>
酒精 中毒</w>
酒 类</w>
酒 劲</w>
酌 一下</w>
部 门经理</w>
部 就
部就 班</w>
郎 君</w>
那 门</w>
那 起</w>
邂 逅</w>
避 讳</w>
避 孕
遮 蔽</w>
遥控 器</w>
遗 落</w>
道 树</w>
道 奇</w>
道 别</w>
遍 布</w>
逻辑 思维</w>
造 田</w>
造 反</w>
速 滑</w>
逝 者</w>
逛 逛</w>
通 融</w>
通 用
通 关</w>
通 一声</w>
逗 我</w>
逗 乐</w>
递 到</w>
透 着</w>
选择 性</w>
选择 地</w>
选 题</w>
选 美</w>
逆 贼</w>
逆 流
逆流 而上</w>
退 票</w>
退 堂
退堂 鼓</w>
退 位</w>
追 悼
追悼 会</w>
迷 迷
迷迷 糊糊</w>
迷 糊</w>
迷 离</w>
迷 彩</w>
迷 失</w>
迪斯 尼</w>
迟 疑</w>
迟 延</w>
迟 到
连 绵
连 根
连 带
违 约</w>
远 行</w>
远 海</w>
远 洋
远 征
进行 谈判</w>
进口 额</w>
进口 量</w>
进口 车</w>
进 贡</w>
进 派</w>
进 场</w>
进 京</w>
这 船</w>
这 盒</w>
这 步
这步 田地</w>
返 了</w>
近在 咫尺</w>
近些 年</w>
运 期间</w>
迎 头</w>
过节 儿</w>
过 门</w>
过 家家</w>
过 多地</w>
迂 腐</w>
达 斯</w>
边 天</w>
辣 酱</w>
输 血</w>
辐 射
较 长</w>
载 体</w>
轻重 缓急</w>
轻 飘飘</w>
轻 举
轻举 妄动</w>
轱 辘</w>
轰 隆隆</w>
软 弱
软 和</w>
转让 权</w>
转 给</w>
转 机</w>
转 手</w>
转 发</w>
转 包</w>
转 交</w>
轩 昂</w>
轨 迹</w>
车 马</w>
车 前
躲藏 在</w>
躲 到</w>
躬 屈膝</w>
身材 苗条</w>
身居 高位</w>
身 姿</w>
身 在</w>
身 儿</w>
身 作
身作 则</w>
踏 着</w>
踊 跃
跳 绳</w>
跨国 公司</w>
跨国 企业</w>
跑 车</w>
跑 腿儿</w>
跌 宕
跌宕 起伏</w>
趴 窝</w>
足球 界</w>
趣 儿</w>
趣 事</w>
越 想</w>
越 往</w>
超额 完成</w>
超 额</w>
超 标</w>
超 大型</w>
起 名</w>
起 个</w>
赶 超</w>
走 火</w>
走 投
走投 无路</w>
走 入</w>
赠 送给</w>
赞助 商</w>
赚 点</w>
赏 花</w>
赏 月</w>
赈 灾</w>
资金 短缺</w>
资金 不足</w>
资料 室</w>
资 排
资排 辈</w>
贼 心虚</w>
贺 卡</w>
贸易 逆差</w>
贴 身</w>
贴 在</w>
购 员</w>
贪 图</w>
贩 子</w>
质 朴</w>
质 教育</w>
货 品</w>
责任 制</w>
财产 权</w>
负 义</w>
貌 不
豪 迈</w>
象 牙
谢 罪</w>
谜 儿</w>
谚 语</w>
谓 之</w>
谋 杀
谈 心</w>
谈 兵</w>
调 教</w>
调 控</w>
请 别</w>
说话 声</w>
说明 会</w>
说不 完</w>
说 着</w>
说 废话</w>
说 不清</w>
诱 骗</w>
诱 使</w>
详 情</w>
详 尽</w>
该 校</w>
诡 异</w>
诞 辰</w>
话 筒</w>
话 不说</w>
诚 挚</w>
诚 心</w>
诚 心
诚心 诚意</w>
诙 谐</w>
试 运行</w>
试 点</w>
诉 状</w>
证 明书</w>
访 客</w>
论 资排辈</w>
许 多种</w>
记 名</w>
训练 有素</w>
认 生</w>
认 死理</w>
订 立</w>
计划 书</w>
计 议</w>
计 策</w>
警 报
言行 举止</w>
言碎 语</w>
触 觉</w>
触 碰</w>
解放 出来</w>
解 不开</w>
角落 落</w>
角 角落落</w>
觊 觎</w>
视 频
规 范
规 章</w>
观 赏
观 摩</w>
见过 面</w>
见 谅</w>
见 惯</w>
见 得</w>
见 习</w>
见 义勇
见义勇 为</w>
覆 地</w>
覆 去</w>
要 饭</w>
要 员</w>
要 件</w>
西班 牙
西 餐厅</w>
西 瓜
西 斜</w>
西 医</w>
褴 褛</w>
褪 去</w>
装 懂</w>
装 帧</w>
被 淹</w>
表演 者</w>
补偿 金</w>
补 选</w>
补 足</w>
补 救</w>
补 上</w>
衣 食
衣 袖</w>
衣 室</w>
衙 门</w>
街 市</w>
街 头
行 道树</w>
血 肉
血 丝</w>
蟒 蛇</w>
螺 旋
融 融</w>
融 为一体</w>
蜷 着</w>
蜡 笔</w>
蜗 牛</w>
蛇 皮</w>
虫 蛀</w>
虚 张
虚张 声势</w>
虎 咽</w>
藏 有</w>
蔬 菜
葱 花</w>
葬 品</w>
葡萄 糖</w>
葛 根</w>
著名 画家</w>
著名 演员</w>
著 述</w>
落 败</w>
营养 元素</w>
营业 部</w>
营 利</w>
获 量</w>
莫 能
荷 包</w>
药 草</w>
药 方</w>
药 丸</w>
荣 耀</w>
荡 不安</w>
荒 诞
草 鞋</w>
茶 淡
茶淡 饭</w>
茶 座</w>
茶 几</w>
茫茫 人海</w>
苹果 公司</w>
英雄 气概</w>
英语 考试</w>
英语 教育</w>
苦 读</w>
苦 日子</w>
苗 条
苗条 身材</w>
苎 麻</w>
苍 天</w>
花 花</w>
花 池</w>
花 心</w>
芭蕾 舞</w>
芬 芳</w>
芥 菜</w>
芒 果</w>
节约 用电</w>
节 前</w>
艺术 节</w>
艺术 团</w>
良 缘</w>
良 心
艄 公</w>
航天 技术</w>
舞 曲</w>
舒适 感</w>
舍 五
舍五 入</w>
舌 尖</w>
致 谢</w>
臭 小子</w>
自 食其
自 知
自 此</w>
自 得</w>
自 取</w>
腿 骨</w>
腾 挪</w>
腼 腆</w>
脾 气
脸皮 厚</w>
脱 身</w>
脱 皮</w>
脱 光</w>
脱 不开</w>
脚 部</w>
脚 气</w>
脖 领</w>
脑 中</w>
脏 乱</w>
能 量
能 言
能 见度</w>
能 耐</w>
胶 片</w>
胶 水</w>
胶 带</w>
胡 思
胡思 乱
胡思乱 想</w>
胡 噜</w>
胜 败</w>
胖 症</w>
胎 教</w>
背 靠</w>
背 得</w>
胆 识</w>
胆 大</w>
胁 迫</w>
育 出</w>
肯 干</w>
肥 胖症</w>
股票 投资</w>
股 民</w>
股 子</w>
股 份
肠 道</w>
肠 寸断</w>
肝 脏</w>
肘 子</w>
肖像 权</w>
肌肉 发达</w>
联 欢</w>
耗 资</w>
耕 作</w>
耐 穿</w>
耐 克</w>
耍 花招</w>
而 非</w>
而 谈</w>
而 栗</w>
而 异</w>
而 建</w>
而 复
而 动</w>
考 究</w>
考 不上</w>
老大 娘</w>
老 牌</w>
老 手</w>
老 姑娘</w>
老 妈</w>
老 同志</w>
老 兄</w>
老 伴</w>
翻来 覆去</w>
翻 脸</w>
翻 盘</w>
翻 版</w>
翻 天
翻天 覆地</w>
翻 墙</w>
羲 之</w>
羞 耻
罪 羊</w>
罩 衫</w>
网络 空间</w>
网络 文学</w>
网 球
缺 水</w>
缩略 语</w>
缘 于</w>
缅 怀</w>
绰 绰
绰绰 有余</w>
续 下去</w>
统计 数据</w>
统计 数字</w>
绝 症</w>
绝 无</w>
绕 行</w>
结构 性</w>
结 帐</w>
结 伴</w>
经济 性</w>
经济 学家</w>
经典 著作</w>
经 联</w>
经 得起</w>
终点 站</w>
终 端</w>
终 年</w>
终 场</w>
细细 地</w>
细 算</w>
细 看</w>
细 枝
细枝 末
细枝末 节</w>
绅 士
绅士 风度</w>
组 委会</w>
纺 织
纸 上
纸上 谈兵</w>
纷 乱</w>
纵 向</w>
纯 白</w>
纪念 塔</w>
纪 纲</w>
约 束力</w>
红了 脸</w>
红 线</w>
红 外线</w>
红 十字
红十字 会</w>
红 包</w>
累 活</w>
紧 贴在</w>
紧 巴巴</w>
紧 密
索 赔</w>
索 要</w>
素 质教育</w>
紊 乱</w>
系 数</w>
系 上</w>
糖 浆</w>
糊 弄</w>
精神 疾病</w>
精打 细算</w>
精力 旺盛</w>
精 选</w>
粘 土</w>
粗 茶淡饭</w>
粗 细</w>
类 别</w>
米 花</w>
米 缸</w>
米 粉</w>
箭 头</w>
管理 局</w>
管弦 乐</w>
管 炎</w>
管 委</w>
管 好</w>
算 账</w>
算 术
算 作</w>
算 什么</w>
算 不了</w>
简 略</w>
签 名
答 对</w>
筋 道</w>
第三 者</w>
第一 号</w>
第一 份</w>
笔 谈</w>
笑 骂</w>
竹 杠</w>
端 的</w>
端 平</w>
竟 有</w>
竟 成</w>
站 长</w>
站 成</w>
立 论</w>
立 交
立交 桥</w>
突 现</w>
空气 质量</w>
空 门</w>
空 运</w>
空 转</w>
空 袭</w>
空 无一人</w>
空 房子</w>
空 中
稿 费</w>
稳 稳</w>
稳 步</w>
稳 健
稳 住</w>
税 务
稍等 一下</w>
称 颂</w>
积 聚</w>
积 满</w>
秦始 皇</w>
科学 技术
科学技术 部</w>
科 室</w>
科 大学</w>
种子 选手</w>
种 上</w>
秋 雨</w>
秋 冬</w>
秃 噜</w>
私 心</w>
秀 气</w>
禾 苗</w>
离 席</w>
离 了婚</w>
禁止 通行</w>
禁 区</w>
祭 坛</w>
神经 系统</w>
神 论</w>
神 舟</w>
神 殿</w>
神 枪手</w>
祝 你们</w>
祖国 统一</w>
祖 宗</w>
社会 舆论</w>
礼 尚
礼尚 往来</w>
示 范
示 牌</w>
示 弱</w>
磨 成</w>
磨 得</w>
磁 场</w>
碱 性</w>
碰 头</w>
碗 碟</w>
确 有</w>
确 凿</w>
硬 硬</w>
硬 盘</w>
硬 实</w>
砸 锅</w>
研究 课题</w>
矿 藏</w>
石 膏</w>
石 榴</w>
石 佛</w>
短 跑</w>
短 见</w>
矢 口
矢口 否认</w>
矛盾 激化</w>
睡 大
睡大 觉</w>
睁开 眼</w>
着 色</w>
着 点</w>
眼 馋</w>
眼 见</w>
眼 皮
眼 病</w>
眼 疾</w>
眼 圈</w>
真实 感</w>
真 诚地</w>
真 人</w>
看 淡</w>
看 准</w>
省 里</w>
省 城</w>
省 去</w>
省 下</w>
相互 作用</w>
相 适应</w>
相 像</w>
直 往</w>
直 冒</w>
直 入</w>
盛 赞</w>
盛 满</w>
盛 宴</w>
盛 名</w>
盘 儿</w>
监 护人</w>
皱 眉头</w>
皎 洁</w>
皇 室</w>
皇 上</w>
的 确
的 人</w>
百分之 五</w>
百 般
百 合</w>
白白 浪费</w>
白天 黑夜</w>
白 跑</w>
白 血
白 瓷</w>
白 热
白热 化</w>
登山 服</w>
痛 恨</w>
病 率</w>
病 榻</w>
病 患者</w>
疾 呼</w>
疯 子</w>
疑 问
疏 松</w>
畜 牧业</w>
男 尊
男尊 女
男尊女 卑</w>
电脑 病毒</w>
电 扇</w>
电 冰箱</w>
田径 运动</w>
用人 单位</w>
用 量</w>
用 笔</w>
用 品
生活 空间</w>
生产 总值</w>
生 问题</w>
生 虫</w>
生 火</w>
生 殖</w>
生 吃</w>
甜 食</w>
甚 感</w>
甚 么</w>
甘 草</w>
瓶 装</w>
琼 斯</w>
理解 能力</w>
球 技</w>
珠 宝
现金 交易</w>
现代 科学</w>
玩 笑话</w>
王 陵</w>
王 羲之</w>
玄 虚</w>
献 丑</w>
猜 出</w>
猛 兽</w>
狼 吞
狼吞 虎咽</w>
独 白</w>
狗 肉</w>
狂 妄</w>
犄 角</w>
特种 部队</w>
特派 记者</w>
特派 员</w>
特 许</w>
特 定
特 使</w>
牵 涉
牵涉 到</w>
牡 丹
牛 马</w>
牛 劲</w>
片 酬</w>
爱国 志士</w>
爱 看</w>
爱 犬</w>
爱 是</w>
爱 国主义</w>
爬 起来</w>
爬 满了</w>
爬 山
爆炸 物</w>
爆 米花</w>
熟 路</w>
熟 习</w>
熏 得</w>
煮 饭</w>
煮 烂</w>
照 面</w>
照 明灯</w>
照 得</w>
煤 油</w>
然大 怒</w>
然 如故</w>
热水 澡</w>
热 身</w>
热 诚</w>
热 气球</w>
热 忱</w>
热 乎</w>
烧 饼</w>
烧 火</w>
烧 水</w>
烤 肉店</w>
烟 酒</w>
烟 筒</w>
烟 气</w>
烘 托</w>
炼 油</w>
点 球</w>
点 前</w>
点 击
炫 耀着</w>
炒 冷饭</w>
灵 验</w>
灵 便</w>
灰 暗</w>
灰 心
灰心 丧气</w>
灯火 通明</w>
灯 片</w>
火 速</w>
火 辣</w>
火 器</w>
灌 木
澈 见底</w>
潜水 艇</w>
潜水 员</w>
潜 心</w>
潜 伏</w>
潜 伏
漱 口</w>
漫 天</w>
演讲 比赛</w>
演艺 圈</w>
滴 落</w>
滨 浴场</w>
满意 足</w>
满意 度</w>
满 腔
满 洲</w>
满 月</w>
满 含</w>
滚 瓜
滑 头</w>
溃 烂</w>
游戏 规则</w>
游 艇</w>
港 湾</w>
温 饱</w>
温 情</w>
温 床</w>
渊 源</w>
清 澈见底</w>
添加 剂</w>
混 血
混 蛋</w>
混 淆</w>
混 日子</w>
混 战</w>
混 合
混 入</w>
深 色</w>
深 圳
淫 乱</w>
淤 青</w>
淡 雅</w>
淡 淡</w>
淋 着</w>
液 化</w>
涨 得</w>
涨 幅</w>
涨 工资</w>
涨 到</w>
涟 漪</w>
涌 来</w>
涌 动</w>
消 闲</w>
消 逝</w>
消 停</w>
海 滨浴场</w>
海 湾</w>
海 湾
海 岛</w>
浮 躁</w>
浮 云</w>
浩 大</w>
浣 熊</w>
浓 重</w>
浇 得</w>
浇 上</w>
浅 色</w>
流动 性</w>
流 鼻涕</w>
流 氓
活动 家</w>
活 络</w>
活 经济</w>
活 受罪</w>
活 像</w>
洗澡 水</w>
洗 过</w>
洗 脚</w>
洗 好</w>
洗 头</w>
洋 酒</w>
泼 水</w>
注 销</w>
注 明</w>
泥 浆</w>
波 澜</w>
泡 面</w>
泛 着</w>
泛 指</w>
法国 队</w>
法 院院长</w>
法 论</w>
法 网</w>
法 学院</w>
沿 途</w>
沾 光</w>
治 疗法</w>
油 油</w>
沥 青</w>
没 错儿</w>
没 脸</w>
没 洗</w>
没 敢</w>
没 人能</w>
没 上</w>
沙滩 排球</w>
沉 静</w>
沉 沉
汽车 集团</w>
汽车 修理</w>
汽 水</w>
汤 面</w>
汤 水</w>
汤 姆</w>
污染 环境</w>
污染 物</w>
污 迹</w>
污 垢</w>
汉 语
汇 率
求 生</w>
永 洙</w>
水 性</w>
水 土</w>
水 器</w>
水 后</w>
气象 预报</w>
气 管炎</w>
气 吞
民 粹主义</w>
民 生问题</w>
民 党</w>
毛 之地</w>
毕 敬</w>
毕 恭
毕恭 毕敬</w>
比较 慢</w>
比赛 规则</w>
比 拟</w>
比 上</w>
母 子</w>
殷 勤</w>
残 局</w>
残 害</w>
殉 国</w>
死 因</w>
死 伤</w>
歪 风邪气</w>
武装 力量</w>
武 官</w>
武 士</w>
步 维艰</w>
此 药</w>
正经 话</w>
正确 认识</w>
正当 性</w>
正人 君子</w>
正 浓</w>
正 中间</w>
歌 舞
歇 会儿</w>
欲 求</w>
欠 安</w>
横 竖</w>
横 祸</w>
横 溢</w>
榨 取</w>
楼 市</w>
棉 质</w>
棉 裤</w>
棉 絮</w>
棉 布</w>
梳 得</w>
梦 寐
梦寐 以求</w>
梁 骨</w>
桑拿 浴</w>
桌 角</w>
格 言</w>
核 扩散</w>
核 化</w>
校 外</w>
栖 息
栖息 地</w>
栏 目</w>
栋 梁</w>
标志 牌</w>
查 收</w>
柔 寡
柔寡 断</w>
枫 树</w>
枪 毙</w>
[...]
