の 110114
は 108319
。 107481
に 100181
を 95910
． 86105
て 83714
た 70873
が 64688
で 45293
し 42830
と 30839
か 28890
ない 26770
ます 26298
私 23189
彼 22318
です 22167
， 21338
も 20736
、 20156
だ 19541
する 19021
な 17486
いる 17043
こと 15568
い 13654
この 12978
ん 12616
ある 12583
から 12515
？ 12408
お 11798
まし 11695
あなた 10842
. 10635
その 10229
それ 8628
人 8023
さ 7609
よ 7324
何 6981
れ 6966
ませ 6236
よう 6177
ば 5787
彼女 5771
たち 5707
ね 5656
ください 5542
たい 5287
これ 5092
ら 4839
なっ 4730
あり 4721
さん 4387
なら 4345
でき 4162
日 4118
とても 4065
まで 4011
君 3900
どう 3782
1 3751
いい 3699
中 3611
時 3554
的 3540
一 3524
今日 3397
って 3334
そう 3315
！ 3287
ご 3250
たら 3227
なく 3172
ため 3151
仕事 3059
「 3053
」 3051
今 3049
へ 3034
来 3003
せ 2981
者 2899
なる 2875
なかっ 2839
家 2816
もう 2810
もの 2809
いつ 2793
見 2779
つ 2608
いう 2581
日本 2580
行っ 2572
2 2568
行き 2524
つい 2502
なり 2408
られ 2403
だっ 2398
年 2371
事 2325
時間 2318
だけ 2278
方 2276
や 2209
できる 2200
自分 2195
くれ 2167
より 2162
ここ 2143
てる 2088
あの 2079
行く 2060
なけれ 2046
前 2045
我々 2038
き 2028
少し 2016
? 1987
度 1948
れる 1933
まだ 1928
好き 1927
また 1909
じゃ 1890
下さい 1885
あっ 1880
気 1878
なん 1874
言っ 1869
でし 1842
よく 1842
思い 1754
でしょう 1744
必要 1740
誰 1722
本 1715
だろう 1647
ところ 1639
やっ 1631
ず 1625
なさい 1620
食べ 1593
本当 1585
皆 1564
考え 1557
英語 1555
けど 1551
問題 1531
3 1519
明日 1514
車 1505
べき 1504
月 1503
後 1476
そこ 1473
どこ 1462
目 1448
子供 1447
持っ 1437
思っ 1435
手 1423
一緒 1418
上 1397
願い 1396
ござい 1393
話 1383
多く 1352
会社 1346
俺 1326
よい 1320
間 1306
そんな 1286
思う 1281
語 1277
教え 1269
ありがとう 1252
金 1247
学校 1245
心 1231
すぐ 1230
予定 1218
もし 1190
ちょっと 1185
こんな 1177
ッ 1169
先生 1164
言う 1163
確認 1154
連絡 1154
しまっ 1150
せる 1143
出 1140
早く 1139
お前 1138
たくさん 1101
ましょう 1100
どの 1097
いけ 1094
あれ 1091
勉強 1075
中国 1054
力 1053
知ら 1030
達 1027
良い 1015
メール 1005
様 979
たり 970
ー 970
部屋 964
顔 957
性 956
国 950
既に 950
所 940
聞い 929
どんな 924
物 924
水 920
友達 918
商品 916
母 916
生活 907
おり 904
言葉 902
ほど 895
書 895
ちゃん 886
み 884
写真 884
新しい 881
入っ 880
二 873
分 866
話し 864
来る 859
とっ 858
昨日 857
数 854
ぞ 849
同じ 844
僕 840
よっ 838
10 830
ずっと 827
電話 826
しれ 820
くらい 807
やる 807
気持ち 800
られる 798
子 796
5 795
料理 792
なんて 784
店 782
知っ 780
ながら 776
あまり 775
体 774
対し 763
敵 762
映画 759
もっと 758
すべて 754
生 754
次 752
毎日 751
わ 750
可能 740
つけ 739
つもり 739
会い 731
かけ 728
おい 727
先輩 724
悪い 720
受け 719
頭 717
しよう 712
一番 704
雨 701
全く 694
楽しみ 694
ぜ 691
会 687
不 686
会議 685
見る 684
世界 683
旅行 677
他 674
大きな 673
口 669
回 669
など 668
出し 667
機 666
やり 659
作っ 656
出来 656
父 656
入れ 655
心配 654
じゃあ 650
労働 648
声 647
いく 646
以上 646
先 644
始め 643
待っ 643
方法 643
参加 642
しか 639
製品 638
品 636
道 636
たく 635
帰っ 635
部 632
たいへん 631
はい 631
場合 628
理解 627
ばかり 626
大 625
山 625
説明 618
大学 615
わけ 614
家族 614
言わ 614
関係 614
元気 613
最近 610
言い 610
とき 609
場所 608
感じ 607
4 603
忘れ 603
状況 600
うち 599
す 596
高い 595
生産 594
っ 592
幸せ 590
いたし 588
くれる 588
男 587
工場 585
人々 582
情報 579
くん 578
今年 578
三 577
送っ 576
まま 574
ねー 573
ただ 571
すぎ 570
嬉しい 570
客 568
計画 566
病気 559
夜 556
寝 556
結果 555
意見 554
一人 553
大変 553
疲れ 553
買っ 553
&quot; 552
歳 548
外 544
意味 544
いや 540
初めて 540
ごめん 537
みんな 532
化 532
服 530
質問 527
欲しい 525
下 524
音 521
見え 520
大丈夫 519
なぜ 517
こう 515
社会 514
結婚 514
すれ 513
風 511
授業 501
通り 501
酒 500
作る 497
省 497
用 495
花 494
朝 490
どれ 489
人間 489
研究 489
足 488
今回 487
使い 486
使っ 486
点 484
ねぇ 483
人民 482
わたし 479
必ず 479
くる 477
名前 477
みたい 476
内容 474
経験 472
別 471
外国 471
わから 469
多い 468
主義 467
送り 466
長い 466
いただき 465
文章 460
名 458
利用 456
色 456
第 454
難しい 453
しまい 452
準備 452
非常 452
円 450
娘 450
山田 450
いただけ 449
駅 449
注文 448
地 447
だろ 443
解決 443
いっ 442
夢 442
資料 442
住ん 441
木 441
終わっ 441
薬 441
川 440
企業 439
長 438
手紙 437
ちょうど 436
重要 436
もらっ 434
件 433
十分 432
女性 432
東京 432
あ 430
海 430
すみ 427
やつ 427
食事 425
あと 424
仗助 424
大切 422
身 422
しかし 421
技術 421
書い 421
申し訳 421
休み 420
昔 420
価格 419
絶対 419
使用 418
夏休み 417
&apos; 415
上手 415
食べる 415
最も 414
楽しい 414
きっと 413
夏 413
伝え 412
よる 411
待ち 410
変更 409
現在 409
試合 409
はっきり 408
帰り 408
どちら 407
うまく 406
元 405
学生 405
6 403
返事 403
いっぱい 402
員 402
決め 402
行か 402
買い 402
注意 401
練習 400
得 399
近く 399
ねえ 398
感謝 398
興味 397
20 396
立て 395
最後 394
そして 392
万 392
ちゃっ 391
やら 391
週間 391
わが 390
来週 390
犬 387
起き 387
女 386
こそ 385
相手 384
互い 382
報告 382
美しい 382
覚え 382
音楽 382
町 380
しっかり 379
よかっ 379
空 379
よろしく 378
飛行 378
あいつ 377
すっかり 377
テレビ 377
こちら 376
ぶり 376
スタンド 376
続け 376
もらえ 375
高校 375
今度 374
努力 374
え 373
ホテル 373
おれ 372
しまう 371
バス 371
北京 370
友人 370
違い 370
責任 369
書類 368
過ごし 367
法 366
荷物 366
革命 366
致し 365
話す 365
着 364
聞き 364
言え 364
試験 364
ああ 362
はず 361
働い 361
理由 361
違う 360
王 359
8 358
出す 358
室 358
作業 357
ちゃんと 356
以前 356
すぎる 355
全て 355
ひどく 354
指導 353
もん 352
二人 352
歌 352
なに 351
予約 350
場 350
ジョン 348
契約 347
強い 347
遅く 347
成功 346
活動 346
販売 346
クラス 345
絵 345
実 343
役 343
使う 342
小さい 342
枚 341
あげ 340
思わ 340
時代 340
遊び 340
取っ 339
担当 339
海外 339
船 339
しばらく 337
知り 337
読ん 337
とも 336
終わり 335
内 334
学 334
礼 333
やっと 332
運動 332
飲み 330
どうぞ 329
さえ 328
アメリカ 328
対する 328
花子 328
チーム 327
対応 326
社 326
経済 326
腹 326
調査 326
ほしい 325
頑張っ 325
・ 324
正しい 323
頃 323
もらい 322
忙しい 322
発生 322
会っ 321
式 320
種 320
ほとんど 319
助け 319
天気 318
有名 318
7 316
大衆 316
教育 316
自動 316
もらう 315
入り 315
生徒 315
見える 314
限り 314
うん 311
太郎 311
能力 311
健康 310
古い 310
将来 310
歴史 310
書く 309
猫 309
魚 309
他人 308
分かっ 308
確か 308
簡単 308
やすい 307
わかっ 307
小 307
市場 307
機械 306
番 306
管理 306
透 306
午後 305
あたし 304
分から 304
素敵 304
なあ 303
全部 303
今後 302
大会 302
嫌い 302
息子 302
春 302
若い 302
いろいろ 301
すごく 301
文化 301
生まれ 301
良く 301
大きい 299
行動 299
まず 298
出る 298
姉 298
買う 298
め 297
答え 297
遅れ 297
信じ 296
年間 296
次第 296
深い 295
館 295
嫌 294
見せ 294
ゆっくり 293
会え 293
分かり 293
原因 293
連れ 293
ぼく 292
立っ 292
検討 291
面 291
データ 290
影響 290
支払い 290
公園 289
取る 289
きれい 288
こいつ 288
作り 288
戻っ 288
死ん 288
決して 288
取引 287
考える 287
兄 286
処理 286
最初 286
細胞 286
高 286
人生 285
受ける 285
困難 285
環境 285
飲ん 285
気分 284
相談 284
帰る 283
大きく 282
持つ 282
行こう 282
見つけ 282
つける 281
協力 281
希望 281
間違い 281
歩い 280
たかっ 279
やめ 279
会う 279
新 279
サービス 278
ドア 278
残念 278
紙 278
期待 277
茶 277
過ぎ 277
康一 276
草 276
ほう 275
到着 275
変化 275
窓 275
休暇 274
土地 274
カード 273
今週 273
発展 273
でしょ 272
乗っ 272
出かけ 272
貴方 272
電車 272
ほか 270
決定 270
与え 269
作品 269
入る 269
線 268
修正 267
動物 267
探し 267
30 266
都合 266
億 265
向かっ 265
幾 265
掛け 265
状態 265
読む 265
事故 264
光 264
屋 264
形 264
機会 264
量 264
ご飯 263
事業 263
いき 262
大好き 262
入れる 261
科学 261
ぬ 260
る 260
わかり 260
態度 260
病院 260
自転 260
高く 260
やっぱり 259
村 259
花火 259
離れ 259
字 258
頂き 258
テスト 257
政府 257
検査 257
聞く 257
下記 256
曲 256
生き 256
自由 256
遠く 256
あんな 255
かかり 255
事件 255
申し上げ 255
取り 254
提案 254
せい 253
ゲーム 253
書き 253
行け 253
不足 252
姿 252
深く 252
靴 252
出来る 251
市 251
突然 251
宿題 250
政治 250
期間 250
なし 249
営業 249
自然 249
関する 249
頑張り 249
おかげ 248
医者 248
回答 248
席 248
バカ 247
利益 247
だめ 246
なれ 246
以外 246
先週 246
出発 246
急 246
鈴木 246
以下 245
効果 245
目的 245
紹介 245
迎え 245
十 244
買い物 244
再 243
暑い 243
知識 243
誕生 243
降っ 243
一部 242
妻 242
実際 242
成長 242
種類 242
美味しい 242
開発 242
まるで 241
世話 241
女の子 241
個 240
条件 240
特別 240
間違っ 240
100 239
小説 239
掃除 239
提出 239
火 239
無理 239
要求 239
購入 239
サッカー 238
危険 237
迷惑 237
工事 236
かかっ 235
さっき 235
台 235
9 234
向け 234
楽しん 234
空気 234
制度 233
無 233
許さ 233
運転 233
開け 233
なかなか 232
無い 232
落ち 232
行なう 232
野崎 232
一生 231
壁 231
添付 231
委員 230
暇 230
痛い 230
良かっ 230
行う 230
過去 230
てん 229
存在 229
弊社 229
精神 229
１ 229
上げ 228
全国 228
失敗 228
時計 228
様子 228
おき 226
らしい 226
胸 226
降り 226
修理 225
個人 225
かかる 224
それぞれ 224
悪く 224
日曜 224
読み 224
部分 224
あんた 223
ダメ 223
事実 223
安心 223
攻撃 223
末 223
流れ 223
特に 223
置い 223
負け 223
おく 222
すばらしい 222
卒業 222
調べ 222
雪 222
馬 222
かける 221
こ 221
つき 221
大事 221
もっ 220
銀行 220
ど 219
機関 219
笑顔 219
組織 219
趣味 219
送る 219
顧客 219
飲む 219
かなり 218
両親 218
手続き 218
楽しかっ 218
用い 218
約束 218
部品 218
A 217
働く 217
最高 217
野球 217
依頼 216
変わっ 216
安全 215
小さな 215
代 214
勝手 214
戦争 214
箱 214
提供 213
止め 213
笑っ 213
重 213
まあ 212
おけ 211
求め 211
滞在 211
演奏 211
苦手 211
いか 210
なぁ 210
作成 210
治療 210
- 209
だし 209
上海 209
人物 209
代表 209
党 209
家庭 209
案内 209
綺麗 209
請求 209
ぐらい 208
けれど 208
ま 208
性格 208
沢山 208
発送 208
選手 208
久し 207
得意 207
感動 207
普通 207
由希 207
立てる 207
髪 207
発表 206
素晴らしい 206
血 206
ぜひ 205
実験 205
面白い 205
風邪 205
優しい 204
国家 204
愛し 204
新聞 204
満足 204
みる 203
仲間 203
建設 203
強く 203
本日 203
間違え 203
か月 202
システム 202
ジェーン 202
変え 202
得る 202
じゅう 201
なんか 201
命 201
学習 201
守る 201
改善 201
途中 201
人気 200
合わせ 200
完成 200
権 200
すごい 199
母親 199
いかが 198
付け 198
喜ん 198
自身 198
血球 198
ヶ月 197
任務 197
会話 197
在庫 197
成績 197
直接 197
貸し 197
50 196
ページ 196
交換 196
全然 196
共 196
出荷 196
弟 196
石 196
耳 196
上手く 195
反対 195
日間 195
番号 195
働き 194
兵士 194
味 194
太陽 194
御 194
用意 194
観 194
返信 194
テーブル 193
夫 193
涙 193
率 193
目標 193
聞か 193
いくら 192
全員 192
昼 192
計算 192
軍 192
いえ 191
出席 191
出張 191
切っ 191
合う 191
大いに 191
熱 191
経営 191
評価 191
願っ 191
じゃん 190
ひと 190
開い 190
～ 190
わかる 189
レストラン 189
夕食 189
足り 189
選ん 189
ちゃう 188
大人 188
夾君 188
実施 188
思想 188
泰 188
詳細 188
ひどい 187
ニュース 187
仲 187
優れ 187
器 187
大阪 187
居 187
逃げ 187
際 187
食べ物 187
やれ 186
ファイル 186
品質 186
３ 186
ほら 185
そ 184
レッスン 184
似 184
使わ 184
分析 184
国際 184
暮らし 184
来年 184
観光 184
今朝 183
午前 183
料 183
調子 183
当社 182
机 182
県 182
穴 182
立つ 182
腰 182
道路 182
長く 182
可愛い 181
地域 181
完全 181
投資 181
携帯 181
近い 181
通っ 181
ちゃ 180
パソコン 180
ボール 180
冬 180
呼ん 180
残っ 180
進ん 180
おいしい 179
受け取っ 179
少ない 179
少年 179
油 179
腕 179
階 179
あろう 178
させ 178
やはり 178
事務 178
手術 178
早い 178
行為 178
いただい 177
型 177
変 177
教室 177
費 177
静か 177
２ 177
与える 176
思い出 176
指示 176
表 176
おまえ 175
きれ 175
しろ 175
つか 175
とおり 175
よろしい 175
スケジュール 175
土曜 175
専門 175
症 175
頂け 175
こっち 174
まさか 174
常 174
座っ 174
建物 174
無事 174
遊ん 174
関し 174
電気 174
15 173
すでに 173
一面 173
後ろ 173
知る 173
訪問 173
話せ 173
部隊 173
ついに 172
コーヒー 172
一言 172
冊 172
四 172
慣れ 172
持ち 172
時期 172
行い 172
距離 172
面倒 172
あたり 171
なきゃ 171
楽しく 171
為 171
終わる 171
続ける 171
苦労 171
送付 171
よー 170
合格 170
困っ 170
感情 170
機能 170
どおり 169
のみ 169
ス 169
感 169
空港 169
話せる 169
調整 169
お腹 168
ますます 168
各 168
幹部 168
歯 168
続い 168
罪 168
肉 168
韓国 168
あげる 167
つく 167
代わり 167
借り 167
半 167
急い 167
祭り 167
認め 167
匹 166
参考 166
業務 166
比較 166
中学 165
価値 165
全体 165
合っ 165
業 165
正確 165
聞こえ 165
あそこ 164
ケーキ 164
別れ 164
極めて 164
歩く 164
決まっ 164
通し 164
いずれ 163
グループ 163
一般 163
不安 163
原稿 163
妹 163
期 163
株 163
若者 163
誠 163
風呂 163
全 162
文字 162
明らか 162
許し 162
非 162
ばあ 161
モデル 161
怒っ 161
料金 161
期限 161
男性 161
約 161
行わ 161
訪れ 161
開始 161
さあ 160
品物 160
士 160
尋ね 160
幾ら 160
採用 160
文 160
朝食 160
材料 160
畑 160
登録 160
背 160
記録 160
進め 160
さま 159
作ら 159
傷 159
地名 159
実現 159
怖い 159
秋 159
農民 159
野菜 159
12 158
半分 158
愛 158
祖国 158
職場 158
部活 158
都市 158
『 157
』 157
ベッド 157
メートル 157
上司 157
意識 157
杯 157
渡し 157
終え 157
そろそろ 156
みな 156
失礼 156
始める 156
感じる 156
散歩 156
是非 156
楽 156
組 156
証明 156
頂い 156
めでとう 155
チェック 155
ボタン 155
局 155
庭 155
忙しく 155
患者 155
格好 155
死ぬ 155
警察 155
費用 155
走っ 155
うまい 154
デザイン 154
交通 154
去年 154
図書 154
街 154
親 154
とる 153
値 153
値段 153
健 153
勇気 153
周り 153
学ぶ 153
故郷 153
表情 153
首 153
あすか 152
五 152
保険 152
加減 152
呼ば 152
恐れ 152
開催 152
仕方 151
具合 151
消費 151
製造 151
園 150
寒い 150
影 150
応援 150
本田 150
毎年 150
禁止 150
解放 150
返し 150
露伴 150
おかしい 149
ごと 149
すい 149
そちら 149
厳しい 149
女子 149
学ん 149
従業 149
息 149
死 149
異なる 149
トイレ 148
パン 148
会える 148
実行 148
捨て 148
旅 148
次回 148
そば 147
判断 147
受け取り 147
工業 147
批判 147
昨年 147
状 147
留学 147
記憶 147
ミス 146
会計 146
大@@ 146
部門 146
青年 146
ころ 145
事柄 145
今月 145
兄弟 145
完了 145
後悔 145
押し 145
設定 145
達成 145
にて 144
ビル 144
ビール 144
側 144
入力 144
出さ 144
汗 144
海崎 144
祈り 144
老人 144
カメラ 143
再び 143
勝利 143
嘘 143
男の子 143
重い 143
たった 142
たばこ 142
とり 142
一方 142
地下 142
起こし 142
選択 142
鍵 142
り 141
テニス 141
低い 141
切れ 141
株式 141
病 141
結局 141
赤 141
遠慮 141
ピアノ 140
一日 140
乗り 140
向上 140
手伝い 140
承太郎 140
父親 140
物事 140
秘密 140
終了 140
結構 140
表現 140
遅い 140
始まっ 139
宇宙 139
少なく 139
政策 139
晩 139
求める 139
玉 139
白 139
菓子 139
記念 139
きちんと 138
ドル 138
上げる 138
単語 138
地面 138
悪 138
我慢 138
描い 138
残し 138
空い 138
緊張 138
貴社 138
週末 138
適切 138
野郎 138
でる 137
よし 137
ビジネス 137
乗る 137
仲良く 137
嬉しかっ 137
引い 137
景色 137
晴れ 137
理論 137
起こっ 137
隊 137
隣 137
食 137
まとめ 136
ヤツ 136
一切 136
位置 136
社員 136
等 136
なー 135
勤務 135
合わ 135
子ども 135
寝る 135
更に 135
現場 135
肩 135
B 134
スポーツ 134
チャンス 134
少女 134
支援 134
泣い 134
真 134
立派 134
翻訳 134
自己 134
許可 134
ち 133
スタッフ 133
信用 133
想像 133
手伝っ 133
手数 133
文書 133
程度 133
難い 133
いいえ 132
げ 132
じい 132
ずいぶん 132
イベント 132
コスト 132
サンプル 132
先日 132
基準 132
方向 132
旧 132
板 132
発行 132
知らせ 132
いったい 131
もちろん 131
予想 131
図 131
集中 131
かわいい 130
ずつ 130
びっくり 130
休日 130
加え 130
怒り 130
書か 130
芸術 130
走る 130
鳥 130
わずか 129
住所 129
分け 129
地方 129
奥 129
来月 129
米 129
自信 129
装置 129
詳しく 129
質 129
うれしい 128
まじめ 128
位 128
動き 128
当たっ 128
手配 128
積極 128
袋 128
裁判 128
追加 128
食糧 128
ギター 127
含ま 127
懸命 127
手段 127
撮っ 127
歓迎 127
議論 127
郵便 127
いれ 126
かつて 126
交渉 126
今夜 126
保護 126
喜び 126
存じ 126
教師 126
文学 126
消え 126
発見 126
資金 126
起こす 126
起こる 126
骨 126
かっこ 125
保証 125
彼氏 125
日程 125
未来 125
親切 125
とっく 124
なくなっ 124
ばか 124
みずから 124
キャンセル 124
上がっ 124
京都 124
地区 124
昼食 124
筆 124
驚い 124
しょっちゅう 123
休ん 123
入り口 123
増え 123
変わら 123
奴 123
帽子 123
広い 123
張 123
橋 123
歩き 123
着い 123
示し 123
移動 123
赤ちゃん 123
農業 123
遠い 123
にくい 122
まっすぐ 122
チケット 122
ペン 122
メンバー 122
主人 122
会場 122
変える 122
大量 122
寂しい 122
最終 122
案 122
法律 122
漫画 122
狩生 122
祝い 122
過ち 122
闘争 122
う 121
しきり 121
しばしば 121
プロジェクト 121
壊れ 121
外出 121
意気 121
正しく 121
発 121
育て 121
過ごす 121
11 120
サイン 120
命令 120
学び 120
官 120
師 120
幸い 120
成果 120
戦略 120
星 120
最大 120
歩 120
民族 120
湖 120
研修 120
記入 120
豊か 120
赤い 120
おめー 119
人材 119
係 119
副 119
取れ 119
大声 119
始まる 119
従っ 119
怒ら 119
未 119
笑い 119
経 119
金曜 119
金額 119
っけ 118
リスト 118
信頼 118
再度 118
当然 118
普段 118
機嫌 118
活躍 118
粉 118
軍隊 118
鉄 118
さらに 117
券 117
島 117
植物 117
段階 117
激しい 117
続く 117
耐え 117
退職 117
雲 117
やろう 116
インターネット 116
キロ 116
タイプ 116
列車 116
初め 116
募集 116
受け取る 116
右 116
土産 116
安い 116
建て 116
思い出し 116
指 116
援助 116
李 116
異常 116
詩 116
辛い 116
速く 116
鼻 116
たる 115
プール 115
レベル 115
始まり 115
殺し 115
泣き 115
税 115
立場 115
筋 115
給料 115
規則 115
言語 115
邪魔 115
額 115
く 114
てめー 114
やがっ 114
サイズ 114
プレゼント 114
人口 114
伸び 114
基本 114
広く 114
応じ 114
横 114
永遠 114
眠っ 114
落ち着い 114
認識 114
降る 114
あー 113
リ@@ 113
分子 113
季節 113
弱い 113
整理 113
日代 113
月曜 113
正直 113
派 113
至る 113
製 113
証拠 113
財産 113
路 113
門 113
階級 113
頼ん 113
いじめ 112
いっそう 112
たぶん 112
一時 112
一致 112
印刷 112
同時 112
咲 112
増加 112
才能 112
物質 112
珍しい 112
用事 112
発言 112
皮 112
眠れ 112
複雑 112
ガラス 111
センター 111
パーティー 111
以内 111
使え 111
例 111
化学 111
印象 111
問い合わせ 111
団 111
届け 111
戦 111
牛 111
発音 111
速い 111
進歩 111
いらっしゃい 110
つまり 110
ァ 110
メーカー 110
優しく 110
地震 110
安定 110
定期 110
対象 110
尽くし 110
待た 110
死に 110
設計 110
諦め 110
一体 109
公 109
列 109
地球 109
大き 109
戦い 109
棒 109
歌う 109
正月 109
水曜 109
現象 109
羽 109
職 109
落とし 109
規模 109
集まっ 109
制 108
売っ 108
変わり 108
就職 108
帰国 108
待つ 108
描く 108
数学 108
混乱 108
無駄 108
界 108
英 108
週 108
えっと 107
ク@@ 107
余り 107
出来事 107
前進 107
卵 107
回復 107
土 107
失っ 107
悲しい 107
打ち合わせ 107
現実 107
直し 107
祖母 107
立ち 107
繰り返し 107
おら 106
とこ 106
フランス 106
住む 106
剤 106
双方 106
同意 106
導入 106
布 106
年寄り 106
引っ越し 106
当時 106
戻り 106
操作 106
改めて 106
相 106
設備 106
雑誌 106
魅力 106
たって 105
シ@@ 105
ダンス 105
デート 105
リンゴ 105
不明 105
中心 105
優勝 105
全身 105
大した 105
対策 105
引く 105
残り 105
洗濯 105
痛み 105
白い 105
置く 105
豊富 105
たび 104
だらけ 104
なお 104
ドラマ 104
マジ 104
事態 104
入院 104
吹い 104
地位 104
年齢 104
広告 104
我が 104
打っ 104
打つ 104
有効 104
甘い 104
穏やか 104
考慮 104
背中 104
見学 104
負担 104
通じ 104
遅刻 104
重大 104
鋭 104
がっ 103
におい 103
わたっ 103
ア@@ 103
サポート 103
多 103
展示 103
承認 103
明るい 103
昨夜 103
正 103
波 103
熱い 103
犯人 103
申請 103
短い 103
神 103
英雄 103
課題 103
述べ 103
障害 103
集団 103
さっ 102
とにかく 102
とりあえず 102
むだ 102
休憩 102
作物 102
入ら 102
出会っ 102
勧め 102
戻る 102
指定 102
楽し 102
構造 102
気づい 102
災害 102
破壊 102
範囲 102
訓練 102
論文 102
起きる 102
開く 102
イギリス 101
パリ 101
プログラム 101
予算 101
傘 101
切り 101
受け入れ 101
怪我 101
栄養 101
物語 101
矢 101
習慣 101
苦しみ 101
かしら 100
つまら 100
ズボン 100
世代 100
倍 100
入学 100
出かける 100
医師 100
回っ 100
放送 100
新た 100
気候 100
湯 100
激しく 100
発揮 100
緑 100
貴重 100
避け 100
配達 100
関心 100
もらえる 99
上昇 99
冷たい 99
喉 99
差 99
招待 99
挑戦 99
望み 99
番組 99
神経 99
終わら 99
角 99
証券 99
辞書 99
％ 99
できれ 98
わざと 98
アップ 98
コピー 98
ト@@ 98
ノート 98
ホント 98
共同 98
基づい 98
安く 98
提示 98
炎 98
無料 98
牛乳 98
虫 98
農村 98
いただける 97
まったく 97
イン 97
ガス 97
ホーム 97
ライン 97
下手 97
伝統 97
優秀 97
太 97
夫婦 97
恋 97
意 97
挙げ 97
撮影 97
改革 97
毎朝 97
確定 97
社長 97
見つける 97
観察 97
記載 97
調べる 97
越し 97
順調 97
鹿島 97
お@@ 96
もと 96
インド 96
ス@@ 96
不思議 96
不良 96
事項 96
冗談 96
加える 96
実家 96
暑く 96
林 96
登っ 96
皿 96
科 96
臭い 96
賛成 96
酸素 96
集め 96
い@@ 95
きらきら 95
さまざま 95
しゃべり 95
ぴったり 95
バイク 95
バンド 95
中央 95
事前 95
吉良 95
回転 95
犯罪 95
祈っ 95
行なっ 95
見積もり 95
運ん 95
遭っ 95
食品 95
驚き 95
いろんな 94
どっち 94
タ@@ 94
両方 94
任せ 94
借金 94
分かる 94
反動 94
取ら 94
合い 94
当て 94
振り 94
決める 94
汽車 94
糸 94
葉 94
逆 94
部長 94
あらゆる 93
アドレス 93
カ@@ 93
ドイツ 93
伝える 93
光栄 93
出勤 93
切る 93
効率 93
厳しく 93
売上 93
寒く 93
帰宅 93
強化 93
歌っ 93
球 93
祖父 93
緊急 93
苦しい 93
訪れる 93
通常 93
連続 93
運命 93
適当 93
選ぶ 93
銃 93
雷 93
飼っ 93
馬鹿 93
オ@@ 92
オフィス 92
クラブ 92
タバコ 92
ファン 92
以来 92
基礎 92
売る 92
常木 92
笑う 92
色々 92
贈り物 92
長期 92
院 92
隠れ 92
40 91
まずい 91
エ@@ 91
ラ@@ 91
ル@@ 91
保管 91
北 91
吉 91
持た 91
望ん 91
枝 91
正式 91
網 91
裏 91
関連 91
雰囲気 91
のんびり 90
ほんの 90
スープ 90
セット 90
ド@@ 90
亡くなっ 90
具体 90
反 90
張っ 90
新しく 90
泳ぎ 90
測定 90
興奮 90
証 90
論 90
達し 90
飲み物 90
あら 89
どんどん 89
まい 89
みよう 89
よォ 89
サイト 89
主張 89
今晩 89
何時 89
兵 89
出身 89
区 89
反応 89
済み 89
温泉 89
芝居 89
表示 89
貿易 89
遊ぶ 89
電子 89
飛ん 89
1000 88
500 88
ざる 88
っす 88
ブランド 88
ルール 88
切符 88
割引 88
小学 88
州 88
庫 88
情勢 88
抜け 88
拡大 88
指摘 88
教える 88
施設 88
獲得 88
男子 88
立た 88
納得 88
続き 88
規定 88
誤り 88
いただく 87
えっ 87
し@@ 87
たっ 87
アイデア 87
コ@@ 87
事情 87
保存 87
傾向 87
収入 87
各種 87
左 87
平和 87
引き起こす 87
歌手 87
現金 87
眺め 87
着る 87
確実 87
聴い 87
詳しい 87
輸送 87
隠し 87
風景 87
まぁ 86
もともと 86
イメージ 86
作家 86
便 86
偶然 86
備え 86
六 86
台湾 86
味方 86
嘉味田 86
守っ 86
寿司 86
明確 86
来い 86
泥 86
現われ 86
発注 86
競技 86
舞台 86
討論 86
貨物 86
運ぶ 86
釣り 86
鏡 86
T 85
たとえ 85
スター 85
偉大 85
勝っ 85
口座 85
宜しく 85
尽くす 85
届い 85
床 85
恨み 85
戦闘 85
教科 85
早め 85
明るく 85
歌声 85
決まり 85
痛く 85
着き 85
知り合い 85
親戚 85
言 85
誇り 85
読書 85
輸入 85
開ける 85
防止 85
しょう 84
じっと 84
っぽい 84
イ@@ 84
エネルギー 84
オリンピック 84
レポート 84
上着 84
上記 84
以降 84
受験 84
売り 84
夕方 84
天 84
小麦 84
心臓 84
応募 84
所属 84
数字 84
杜 84
楽しむ 84
温度 84
瓶 84
病人 84
美味しかっ 84
職業 84
航空 84
訂正 84
違っ 84
防ぐ 84
階段 84
雇用 84
項目 84
イタリア 83
人形 83
今日子 83
何事 83
何処 83
制限 83
宣伝 83
尊敬 83
幸福 83
払い 83
暑 83
更新 83
最 83
本気 83
狭い 83
生物 83
田舎 83
納期 83
職務 83
衣服 83
被害 83
褒め 83
試し 83
誤解 83
資本 83
迷っ 83
送信 83
速度 83
たまに 82
とうとう 82
なれる 82
よぉ 82
タクシー 82
リスク 82
七 82
付き合っ 82
佐倉 82
供給 82
全力 82
内部 82
動作 82
区別 82
危機 82
台風 82
嫁 82
守り 82
払う 82
権利 82
比べ 82
泳い 82
派遣 82
着く 82
超 82
近所 82
顔色 82
がる 81
きり 81
せっかく 81
ちまっ 81
はるか 81
もはや 81
よそ 81
ウ@@ 81
マーケティング 81
ラジオ 81
世 81
倒れ 81
優先 81
出せ 81
参り 81
宮前 81
役割 81
待て 81
心中 81
忙しかっ 81
捜し 81
根 81
桜 81
演技 81
矛盾 81
維持 81
見れ 81
訪ね 81
誤っ 81
財布 81
近づい 81
逮捕 81
面接 81
飲ま 81
駄目 81
５ 81
あれこれ 80
おはよう 80
しかも 80
そっ 80
だら 80
ども 80
ふり 80
ぶつかっ 80
ネット 80
パスポート 80
フ@@ 80
ポイント 80
マ@@ 80
ミーティング 80
世間 80
作用 80
前回 80
勝つ 80
取得 80
墓参り 80
大雨 80
平均 80
建築 80
引き受け 80
措置 80
最低 80
殺す 80
注目 80
策 80
表面 80
霧 80
非難 80
食堂 80
飯 80
４ 80
あふれ 79
おか 79
くせ 79
まさに 79
アルバイト 79
クレジット 79
ン 79
上がる 79
両国 79
中止 79
余計 79
号 79
図面 79
恥 79
手@@ 79
摩君 79
支え 79
支払う 79
支配 79
日常 79
果物 79
株価 79
洪水 79
細菌 79
若く 79
行なわ 79
触れ 79
課 79
身体 79
軒 79
通 79
道具 79
道理 79
顔つき 79
せよう 78
スーパー 78
トラブル 78
ビデオ 78
人事 78
先月 78
冷蔵 78
出版 78
勢い 78
収穫 78
呼び 78
地元 78
家具 78
対処 78
届き 78
届く 78
引き続き 78
弾 78
当 78
性質 78
故障 78
構い 78
構成 78
水準 78
深刻 78
生命 78
真剣 78
節 78
系 78
結論 78
記事 78
長年 78
高級 78
18 77
あ@@ 77
さすが 77
そいつ 77
ようやく 77
アジア 77
バ@@ 77
便利 77
八 77
南 77
吸っ 77
変わる 77
嬉しく 77
宿泊 77
寺 77
小@@ 77
徹底 77
必死 77
思え 77
恥ずかしい 77
意外 77
意義 77
扉 77
指揮 77
挨拶 77
最新 77
美術 77
聴き 77
近代 77
か@@ 76
シャツ 76
タイ 76
タイム 76
パーセント 76
レ@@ 76
一家 76
両手 76
付い 76
伺い 76
何故 76
全面 76
共産 76
勤め 76
国内 76
地主 76
太っ 76
布団 76
年度 76
当たる 76
支持 76
教授 76
止まっ 76
水@@ 76
理 76
生き生き 76
知れ 76
聴く 76
言える 76
診断 76
適用 76
限ら 76
黒い 76
200 75
かい 75
け 75
さっさと 75
でたらめ 75
オン 75
キ 75
コース 75
メッセージ 75
上達 75
仕様 75
入手 75
動く 75
勝負 75
向こう 75
商売 75
塀 75
大勢 75
実践 75
底 75
強 75
従う 75
意志 75
抑え 75
暖かい 75
木曜 75
気味 75
汚れ 75
煙 75
特定 75
特徴 75
画 75
継続 75
習っ 75
行 75
要望 75
見かけ 75
計 75
資格 75
資源 75
黙っ 75
１０ 75
および 74
くださっ 74
とい 74
わざわざ 74
アドバイス 74
グ@@ 74
バー 74
体調 74
停止 74
公開 74
共通 74
化粧 74
卓球 74
取り@@ 74
固定 74
学問 74
恋人 74
承知 74
抱え 74
東 74
殺さ 74
生涯 74
真っ赤 74
睡眠 74
肌 74
転ん 74
辺 74
返答 74
述べる 74
郵送 74
いす 73
つつ 73
スピード 73
トラック 73
プロ 73
ワイン 73
一定 73
住宅 73
加工 73
原則 73
同志 73
告白 73
完璧 73
寒 73
悩ん 73
捕まえ 73
撮る 73
期日 73
権力 73
死者 73
毎月 73
版 73
犯し 73
発売 73
級 73
職員 73
胃 73
講演 73
選び 73
鉄道 73
香り 73
香港 73
々 72
いきなり 72
ええ 72
バイト 72
侵入 72
俳優 72
医療 72
向い 72
吹く 72
夾 72
学期 72
封建 72
怖 72
悪事 72
根拠 72
構わ 72
欠席 72
毎週 72
毛 72
水泳 72
流れる 72
生きる 72
申し 72
皮膚 72
節約 72
若干 72
血管 72
見つかっ 72
軽い 72
輪 72
送ら 72
過ぎる 72
部署 72
閉め 72
もっとも 71
キ@@ 71
ゴム 71
スイカ 71
ダ@@ 71
テープ 71
パ@@ 71
丁寧 71
主 71
主要 71
事物 71
代金 71
企画 71
分野 71
助かり 71
地図 71
家事 71
慎重 71
文句 71
早人 71
殺人 71
流行 71
為替 71
爆弾 71
理想 71
真面目 71
社内 71
競争 71
素直 71
腕前 71
至急 71
資産 71
辞め 71
送金 71
頑張る 71
60 70
うるさい 70
えー 70
おば 70
かっ 70
ごみ 70
さっぱり 70
キス 70
キラー 70
クソ 70
コンクール 70
並ん 70
休む 70
余裕 70
勘違い 70
半年 70
婦人 70
小さく 70
幅 70
当たり 70
恐らく 70
悪かっ 70
意地 70
手順 70
扱い 70
正一 70
洗っ 70
消し 70
無視 70
症状 70
知恵 70
示す 70
精 70
老 70
血液 70
説得 70
講義 70
貢献 70
賃金 70
通知 70
選ば 70
髪の毛 70
あいさつ 69
いかなる 69
すら 69
せよ 69
ひとしきり 69
ぼんやり 69
アイス 69
カ 69
クリーム 69
ストレス 69
チ@@ 69
人数 69
人類 69
低く 69
借りる 69
友好 69
周囲 69
大体 69
延期 69
引き@@ 69
引き起こし 69
慌て 69
抱い 69
東方 69
気温 69
生地 69
用いる 69
申し込み 69
盛ん 69
目指し 69
美しく 69
西 69
貧乏 69
買え 69
赤く 69
踊り 69
違反 69
針 69
類 69
24 68
うそ 68
だり 68
てめぇ 68
どっ 68
まこと 68
ゴミ 68
ママ 68
下り 68
下ろし 68
世紀 68
倉庫 68
処分 68
刺激 68
前後 68
劇 68
北海道 68
協議 68
対 68
広場 68
念 68
打ち 68
損失 68
方面 68
模様 68
汁 68
流し 68
滝 68
看護 68
祭 68
紫 68
編集 68
自宅 68
見つめ 68
設置 68
進む 68
進める 68
配送 68
鉛筆 68
! 67
あぁ 67
おじ 67
かつ 67
こんにちは 67
そろっ 67
どうせ 67
やすく 67
ウサギ 67
ェ 67
オレ 67
ケース 67
ペット 67
ラ 67
下@@ 67
不幸 67
勢力 67
原価 67
多分 67
審査 67
教 67
柴 67
港 67
熱心 67
父母 67
産業 67
監督 67
相場 67
統一 67
詫び 67
身分 67
込み 67
運 67
開か 67
鶏 67
25 66
あい 66
おっ 66
かかわら 66
この世 66
すん 66
つ@@ 66
とっても 66
ほぼ 66
ま@@ 66
ウイルス 66
ミ@@ 66
一筋 66
上級 66
侵略 66
傷つけ 66
共有 66
助ける 66
勘定 66
呉 66
多数 66
失う 66
忘れる 66
振っ 66
歌い 66
残業 66
王子 66
瞬間 66
脱い 66
要素 66
見込み 66
返す 66
重ね 66
金持ち 66
高める 66
黄 66
ごらん 65
た@@ 65
な@@ 65
やる気 65
わし 65
ショック 65
ツアー 65
デ@@ 65
ドレス 65
ブドウ 65
メニュー 65
メモ 65
ロンドン 65
ン@@ 65
一杯 65
上@@ 65
下がっ 65
不満 65
充実 65
公演 65
勇敢 65
友情 65
帰ら 65
後れ 65
怖く 65
抜い 65
損 65
斤 65
核 65
泣く 65
石油 65
砂 65
箇所 65
脳 65
設け 65
診察 65
走り 65
軽く 65
迅速 65
通行 65
電源 65
飛ぶ 65
13 64
ぇ 64
だれ 64
ついで 64
むしろ 64
アニメ 64
コンピューター 64
ゴルフ 64
ナ 64
ハ@@ 64
中@@ 64
中隊 64
入場 64
入金 64
動か 64
同様 64
周 64
困ら 64
小屋 64
広がっ 64
弁当 64
弾く 64
悪人 64
有 64
杞紗 64
校 64
正常 64
気付い 64
爆発 64
物価 64
発電 64
紅葉 64
置か 64
見積 64
返品 64
金融 64
こ@@ 63
べ 63
サ@@ 63
スイッチ 63
バッグ 63
ルーム 63
先進 63
同士 63
吸収 63
呼ぶ 63
夕飯 63
大神 63
崎 63
平気 63
張る 63
当たり前 63
形式 63
恐ろしい 63
拍手 63
早速 63
明かり 63
時々 63
暑かっ 63
減っ 63
減少 63
渡っ 63
疑い 63
砂糖 63
美容 63
訳 63
頂く 63
かご 62
き@@ 62
きか 62
ご覧 62
たまら 62
なさ 62
は@@ 62
カー 62
ガキ 62
コンサート 62
セ@@ 62
プラン 62
リーダー 62
一@@ 62
伝わっ 62
使える 62
出産 62
勝ち 62
参照 62
回り 62
団体 62
地帯 62
塩 62
外れ 62
当日 62
後輩 62
志 62
恥ずかしく 62
服装 62
果てし 62
民 62
気軽 62
程 62
製作 62
軍事 62
配置 62
離婚 62
騒ぎ 62
あちこち 61
いとこ 61
いら 61
かね 61
こめ 61
の@@ 61
み@@ 61
やめろ 61
わかん 61
ガ@@ 61
コート 61
スト 61
ニ@@ 61
ユーザー 61
丈夫 61
二十 61
人柄 61
出@@ 61
同僚 61
否定 61
吸う 61
喧嘩 61
噂 61
夢中 61
姫 61
工 61
幼い 61
形成 61
役所 61
悲しみ 61
投げ 61
描き 61
新規 61
暗く 61
有難う 61
欠点 61
民主 61
物資 61
現れ 61
眠り 61
米国 61
終える 61
群れ 61
育てる 61
行ける 61
誠実 61
講習 61
重視 61
間に合わ 61
集める 61
頼み 61
% 60
かく 60
きつい 60
なるべく 60
やめる 60
らしく 60
カナダ 60
コ 60
スカート 60
タ 60
トップ 60
トン 60
ハワイ 60
ビ@@ 60
ブ@@ 60
モ@@ 60
ロ@@ 60
一種 60
了承 60
余地 60
作文 60
出会い 60
医 60
合わせる 60
合宿 60
喫煙 60
困る 60
多田 60
妙 60
孫 60
展開 60
差別 60
弓 60
恋愛 60
所有 60
揺れ 60
新鮮 60
暗い 60
有り 60
本人 60
武器 60
氷 60
汚染 60
泳ぐ 60
済ま 60
焼き 60
素材 60
総 60
縁 60
羊 60
落ちる 60
行ない 60
見つから 60
超え 60
避ける 60
里 60
長江 60
陰 60
； 60
あきらめ 59
かばん 59
がり 59
つらい 59
ひげ 59
まっ 59
む 59
め@@ 59
コメント 59
トマト 59
ナ@@ 59
ロ 59
予防 59
交流 59
促進 59
具 59
冷静 59
削減 59
削除 59
向き 59
大地 59
打ち@@ 59
把握 59
招い 59
探す 59
昨晩 59
本物 59
校長 59
楽器 59
火曜 59
着物 59
筋肉 59
組合 59
絶え 59
通信 59
通勤 59
遭う 59
金銭 59
難しく 59
頼む 59
魂 59
70 58
おそらく 58
おなか 58
させる 58
まだまだ 58
ろう 58
ア 58
トレーニング 58
ピン 58
マンガ 58
ロープ 58
ー@@ 58
下げ 58
依然 58
動い 58
単純 58
受付 58
商店 58
問合せ 58
四方 58
変動 58
天下 58
好み 58
定め 58
家畜 58
希美 58
帯 58
恐縮 58
慊人 58
手元 58
承諾 58
新太 58
方針 58
旗 58
日々 58
早急 58
残さ 58
決心 58
決断 58
泊まっ 58
漏れ 58
犠牲 58
犯 58
独立 58
生じ 58
痛 58
相当 58
義務 58
買収 58
追っ 58
集合 58
鮮やか 58
け@@ 57
こら 57
しゃべっ 57
だんだん 57
っス 57
やむ 57
イン@@ 57
カバー 57
コミュニケーション 57
スタイル 57
ソフトウェア 57
パスワード 57
パワー 57
リ 57
付き 57
代理 57
体育 57
作戦 57
傷口 57
児童 57
単位 57
古代 57
叫ん 57
各地 57
回る 57
回収 57
夜中 57
家屋 57
寄せ 57
左右 57
幸運 57
延長 57
強制 57
御子 57
性能 57
推測 57
果て 57
柄 57
栽培 57
沖縄 57
治し 57
沿っ 57
疑問 57
眼鏡 57
納品 57
組み立て 57
著作 57
話し合い 57
賞 57
輸出 57
込め 57
選挙 57
16 56
ごく 56
す@@ 56
ただいま 56
り@@ 56
イ 56
セミナー 56
バランス 56
マーク 56
体験 56
出会え 56
切手 56
反省 56
合計 56
呼吸 56
怒る 56
恐怖 56
愛情 56
撮り 56
支出 56
教員 56
数量 56
日記 56
時点 56
椅子 56
様々 56
洗う 56
涼しい 56
漢字 56
班 56
生え 56
田中 56
画像 56
真理 56
管 56
細かい 56
置き 56
背景 56
見解 56
親友 56
読め 56
豚 56
車両 56
込ん 56
逃げる 56
運営 56
青い 56
預金 56
頻繁 56
飛ばし 56
14 55
E 55
うっかり 55
ける 55
じゃま 55
そりゃ 55
づけ 55
とれ 55
なべ 55
カラオケ 55
カレー 55
ケンゾー 55
コラ 55
ジ@@ 55
ダム 55
ベスト 55
ポケット 55
マン 55
マーケット 55
中間 55
似合っ 55
作 55
克服 55
制御 55
喜ぶ 55
回し 55
図る 55
城 55
岩 55
差し上げ 55
幼稚 55
広々 55
引き 55
役人 55
思い@@ 55
明後日 55
本来 55
来れ 55
標準 55
横浜 55
機構 55
止める 55
満ち 55
焼く 55
現地 55
生まれる 55
用心 55
真実 55
眠く 55
確かめ 55
端 55
薄い 55
詰まっ 55
過程 55
配慮 55
高齢 55
う@@ 54
うわさ 54
える 54
きっ 54
しゃべる 54
ち@@ 54
やせ 54
アレルギー 54
ショー 54
ソフト 54
ダイヤモンド 54
バック 54
低 54
信号 54
割っ 54
功績 54
古 54
合意 54
向かう 54
団結 54
国民 54
堪え 54
塗っ 54
役立つ 54
感覚 54
掲載 54
摩 54
支 54
森 54
植え 54
機器 54
正面 54
汚い 54
洋服 54
火事 54
点検 54
片づけ 54
画面 54
留守 54
秒 54
笑わ 54
落ち着か 54
行方 54
見渡す 54
観点 54
話さ 54
話題 54
進捗 54
重く 54
飲め 54
あんまり 53
おもちゃ 53
およそ 53
お陰 53
くださる 53
こもっ 53
こん 53
っつー 53
なめ 53
りん 53
エリ 53
クリスマス 53
ケ@@ 53
タイミング 53
テーマ 53
デパート 53
ノ@@ 53
パパ 53
メ@@ 53
ラーメン 53
上手い 53
仕方ない 53
住み 53
信じる 53
割れ 53
取り除く 53
名声 53
国境 53
堂々 53
外し 53
奇妙 53
幕 53
年金 53
感染 53
押す 53
捨てる 53
推薦 53
敵軍 53
日@@ 53
業績 53
残す 53
泊 53
物理 53
石炭 53
確保 53
脚 53
越え 53
退屈 53
限 53
頼り 53
鳴っ 53
８ 53
あるいは 52
いささか 52
ご@@ 52
っと 52
なくし 52
にぎやか 52
まなざし 52
みろ 52
オーバー 52
クイーン 52
スキル 52
スペイン 52
トラ 52
ランチ 52
並べ 52
乾燥 52
人工 52
伸ばし 52
候補 52
値引き 52
公共 52
凶悪 52
基づき 52
塾 52
壊し 52
屋根 52
山東 52
思い出す 52
我 52
戦う 52
抱く 52
支払 52
方式 52
明 52
未だ 52
果たす 52
泊まり 52
災い 52
田 52
癌 52
眉 52
県名 52
礼儀 52
科目 52
穀物 52
経過 52
美人 52
菌 52
落とす 52
衛生 52
規制 52
路線 52
身長 52
載っ 52
避難 52
鋭い 52
離れる 52
電波 52
順 52
魯迅 52
麦 52
７ 52
300 51
A@@ 51
ありがたい 51
しかっ 51
ちゃあ 51
とく 51
とけ 51
なるほど 51
ゆらゆら 51
わたる 51
アパート 51
コンビニ 51
スキー 51
トウモロコシ 51
ル 51
ワン 51
付き合い 51
似合う 51
体制 51
免疫 51
入荷 51
収益 51
告げ 51
大通り 51
守ら 51
容赦 51
寄付 51
弁護 51
快適 51
悩み 51
意図 51
戸 51
捜査 51
数え 51
方々 51
最悪 51
柔らかい 51
柱 51
柳 51
根本 51
榊原 51
池 51
減らす 51
温かい 51
現状 51
異動 51
答える 51
経ち 51
綿 51
聞こえる 51
腐っ 51
苗 51
被災 51
見せる 51
見舞い 51
視 51
誘っ 51
負傷 51
買わ 51
電報 51
鼠 51
80 50
おお 50
か所 50
がっかり 50
そっち 50
てっ 50
はじめ 50
ぶらぶら 50
カバン 50
カラー 50
カーテン 50
キー 50
シャワー 50
デマ 50
ヒ@@ 50
ホール 50
ボ@@ 50
マスター 50
主に 50
予報 50
人員 50
分類 50
制服 50
動かし 50
千 50
去っ 50
及ば 50
収集 50
叔父 50
唇 50
器用 50
奇跡 50
感想 50
憧れ 50
払っ 50
抑える 50
昼ご飯 50
書物 50
服用 50
望む 50
本体 50
果たし 50
棚 50
検証 50
模範 50
欠け 50
派手 50
流 50
涼しく 50
渋滞 50
登場 50
称賛 50
署名 50
落ち込ん 50
衣装 50
設立 50
話しかけ 50
調達 50
財務 50
込む 50
遊園 50
願う 50
驚く 50
2000 49
きっかけ 49
ぎ@@ 49
くそ 49
こい 49
さぁ 49
さて 49
すすめ 49
たっぷり 49
っ@@ 49
とら 49
ひい 49
ほこり 49
もらおう 49
アフリカ 49
エアコン 49
ゴール 49
ソ@@ 49
タイヤ 49
テ@@ 49
バレ 49
ピ@@ 49
プ@@ 49
ホ@@ 49
下し 49
不正 49
二言 49
像 49
優し 49
内@@ 49
分かん 49
初 49
割 49
売れ 49
夏期 49
外交 49
天候 49
害 49
岸辺 49
巣 49
師匠 49
店舗 49
恥ずかし 49
接続 49
改良 49
教会 49
暖かく 49
最中 49
最適 49
有利 49
株主 49
正体 49
洗い 49
活用 49
濃い 49
熱中 49
痩せ 49
癖 49
竹 49
萌 49
複数 49
要因 49
評判 49
該当 49
賢い 49
過ごせ 49
開き 49
く@@ 48
ぶつけ 48
やっぱ 48
カフェ 48
キャリア 48
コン@@ 48
スピーチ 48
ディ@@ 48
バ 48
ベル 48
ム 48
ロック 48
一応 48
一瞬 48
久美子 48
典型 48
出場 48
動かす 48
収め 48
取り組ん 48
合理 48
唯一 48
増やす 48
売り上げ 48
大胆 48
姿勢 48
小僧 48
居る 48
展覧 48
山@@ 48
手当 48
抜く 48
抵抗 48
損害 48
昼寝 48
曲がっ 48
書記 48
案件 48
植える 48
武装 48
死亡 48
残る 48
民間 48
気づか 48
済む 48
男女 48
発明 48
直ちに 48
相互 48
真っ白 48
給与 48
続けざま 48
育成 48
荒れ 48
読ま 48
謙虚 48
赤ん坊 48
通過 48
速やか 48
進行 48
遅れる 48
順番 48
飾り 48
いたずら 47
いま 47
いまだ 47
が@@ 47
こっ 47
さ@@ 47
すき 47
ばらばら 47
ほんと 47
やたら 47
やん 47
わがまま 47
エンジン 47
クラスメート 47
ショップ 47
ッ@@ 47
ツ@@ 47
ニューヨーク 47
ネ@@ 47
ミルク 47
ラン 47
ワ@@ 47
一昨 47
世の中 47
丸 47
主な 47
予測 47
代わっ 47
倒し 47
入社 47
出演 47
取り出し 47
口@@ 47
売買 47
外部 47
尋ねる 47
小切手 47
干渉 47
広げ 47
心理 47
愛さ 47
愛する 47
戻し 47
控え 47
支給 47
源 47
烈士 47
率直 47
現代 47
細い 47
羅 47
美し 47
肥料 47
覆っ 47
見@@ 47
見ろ 47
読者 47
近年 47
電力 47
面白く 47
うんざり 46
おやじ 46
がん 46
がんばっ 46
てろ 46
ど@@ 46
まとも 46
りんご 46
ろ 46
われわれ 46
クレイジー 46
コード 46
ジュース 46
ストーブ 46
セール 46
ポスト 46
マミコ 46
ヤ 46
ライブ 46
一人一人 46
一貫 46
中華 46
中身 46
値打ち 46
傍 46
先ほど 46
免許 46
初期 46
受け入れる 46
大空 46
容易 46
尊重 46
帰れ 46
年代 46
当店 46
後日 46
悪口 46
愉快 46
族 46
気まま 46
永久 46
法則 46
注射 46
渡る 46
焼い 46
神社 46
立ち上がっ 46
編 46
肺 46
血圧 46
見直し 46
規律 46
解除 46
起こり 46
超える 46
輝い 46
近ごろ 46
部下 46
陣地 46
青 46
青春 46
預け 46
食っ 46
鳴い 46
） 46
あちら 45
うれしく 45
ごろ 45
つれ 45
できよう 45
どころ 45
ふざけ 45
ふるまい 45
みこ 45
やや 45
ク 45
タオル 45
ット 45
ナイフ 45
ペ@@ 45
レース 45
人前 45
会員 45
刀 45
切り@@ 45
危ない 45
否 45
巻い 45
循環 45
情 45
戦っ 45
手法 45
断固 45
松 45
欄 45
正義 45
段 45
治っ 45
火災 45
無数 45
照らし 45
特許 45
真心 45
確信 45
票 45
習い 45
茶わん 45
訴え 45
警戒 45
豊作 45
辛抱 45
辞典 45
返済 45
道徳 45
震え 45
頼っ 45
, 44
あくまで 44
がら 44
ごまかし 44
すっ 44
ちょ 44
ひそか 44
まあまあ 44
めった 44
もたらす 44
らし 44
ィ 44
エコーズ 44
エラー 44
カッコ 44
キャンペーン 44
コップ 44
チリ 44
ム@@ 44
ムー 44
両 44
交差 44
仮 44
休息 44
含め 44
寂しく 44
履い 44
幹雄 44
座り 44
座席 44
恩 44
悪化 44
手本 44
押し@@ 44
掘る 44
描か 44
文芸 44
権勢 44
気@@ 44
溝 44
片 44
目下 44
真ん中 44
真相 44
眠い 44
砂漠 44
経費 44
融通 44
術 44
表わし 44
覚える 44
触れる 44
貧しい 44
跡 44
転換 44
転送 44
返却 44
通訳 44
達する 44
遺伝 44
郊外 44
都 44
限定 44
頑張れ 44
鶴 44
－ 44
６ 44
ぁ 43
あッ 43
いかに 43
おとなしく 43
ぐずぐず 43
しく 43
そー 43
どっと 43
ふた 43
や@@ 43
ガソリン 43
ザ@@ 43
シカ 43
シート 43
シーン 43
スタート 43
ダ 43
ネズミ 43
メダル 43
ローマ 43
一群 43
上がり 43
不@@ 43
不要 43
乗れ 43
予備 43
住民 43
働か 43
児 43
別途 43
刺さ 43
前線 43
協定 43
史 43
器具 43
四川 43
囲ま 43
境界 43
多@@ 43
失わ 43
姉妹 43
宅 43
宴会 43
広げる 43
弾き 43
待ち合わせ 43
応え 43
手形 43
支払っ 43
救急 43
新@@ 43
桃 43
民衆 43
水分 43
深 43
渡す 43
片付け 43
発射 43
直す 43
着け 43
縄 43
聞け 43
腫れ 43
苦しん 43
行政 43
解消 43
豆腐 43
負う 43
赤字 43
身なり 43
転職 43
込ま 43
迎える 43
鉄塔 43
鑑賞 43
需要 43
風格 43
風紀 43
19 42
うれしかっ 42
おう 42
かすか 42
けんか 42
こっそり 42
すま 42
つー 42
と@@ 42
どら 42
ばっかり 42
ふ@@ 42
まー 42
アンケート 42
ウ 42
オ 42
オープン 42
ケガ 42
ゲリラ 42
スパイ 42
ソファー 42
ボク 42
ポーズ 42
マラソン 42
ライト 42
一掃 42
人@@ 42
作れ 42
作者 42
処罰 42
分ける 42
分配 42
分間 42
加入 42
励まし 42
原子 42
取り付け 42
取り組み 42
古く 42
右手 42
同 42
同情 42
名誉 42
吐い 42
品種 42
大嫌い 42
就い 42
層 42
工程 42
巨大 42
帳簿 42
従事 42
忠告 42
悲しく 42
才 42
打撃 42
招く 42
拾っ 42
改め 42
新入 42
最善 42
本@@ 42
構築 42
権限 42
欲しかっ 42
水道 42
法人 42
泣か 42
泥棒 42
田畑 42
皇帝 42
着替え 42
短 42
禁煙 42
秩序 42
空中 42
粒 42
紅茶 42
羨ましい 42
自慢 42
荒木 42
荷 42
要ら 42
解け 42
豆 42
貰っ 42
賢く 42
返金 42
追いかけ 42
進み 42
都会 42
長所 42
関わる 42
隊長 42
鞄 42
頼ま 42
飲食 42
高価 42
鳴く 42
黄色 42
0 41
17 41
あいにく 41
いらいら 41
うえ 41
おこう 41
からかっ 41
かん 41
しも 41
そっくり 41
ひとり 41
ひょっと 41
ぴかぴか 41
ウェブサイト 41
ショッピング 41
ズ@@ 41
チーズ 41
ビザ 41
ファッション 41
ベトナム 41
ボケ 41
マナー 41
マネージャー 41
不法 41
付近 41
例えば 41
保つ 41
公平 41
判決 41
前途 41
勝て 41
及び 41
口調 41
名簿 41
含ん 41
問わ 41
執行 41
堀 41
報酬 41
奴隷 41
学者 41
実力 41
対立 41
山頂 41
工作 41
引用 41
強盗 41
思い出せ 41
情熱 41
指輪 41
握っ 41
早 41
早朝 41
書け 41
替え 41
本社 41
本質 41
殻 41
浪費 41
演じ 41
生じる 41
登山 41
税関 41
空間 41
組ん 41
総合 41
落ち着き 41
豚肉 41
負っ 41
追跡 41
速 41
連合 41
酸 41
酸化 41
関西 41
陥る 41
頼る 41
高め 41
黄河 41
９ 41
· 40
うどん 40
えッ 40
おいしかっ 40
かし 40
がち 40
くれぐれ 40
けが 40
たがる 40
だ@@ 40
っつっ 40
つながる 40
も@@ 40
やれる 40
キャンプ 40
ゴ@@ 40
シ 40
ジム 40
スーツ 40
ド 40
ヘ@@ 40
ベルト 40
ポ@@ 40
マニュアル 40
ヤ@@ 40
レンズ 40
ート 40
主任 40
井戸 40
低下 40
光っ 40
全@@ 40
写っ 40
処方 40
勤勉 40
包囲 40
原料 40
合併 40
吹き 40
吹奏 40
塔 40
増える 40
履歴 40
左側 40
帰省 40
年末 40
思える 40
恐れ入り 40
懐かしい 40
折れ 40
拠点 40
指数 40
政権 40
新人 40
早起き 40
明細 40
札 40
楽しま 40
止まら 40
比べる 40
水着 40
流す 40
理屈 40
産 40
百 40
秋田 40
経っ 40
経理 40
結ん 40
締め切り 40
自覚 40
蚊 40
衛星 40
衣 40
表わす 40
見物 40
見積り 40
調理 40
警官 40
責め 40
追わ 40
運用 40
関わら 40
集まる 40
頭痛 40
食わ 40
髪型 40
黒く 40
C 39
あっち 39
いで 39
かなっ 39
ぐっ 39
じょ 39
たまっ 39
っぽく 39
っぽっち 39
ねじ 39
ぱっ 39
もたらし 39
よせ 39
わっ 39
カップ 39
ダメージ 39
トラクター 39
ハイ 39
バスケットボール 39
バレー 39
バー@@ 39
フィリピン 39
フライト 39
ランプ 39
上品 39
了解 39
付ける 39
休ま 39
体温 39
保育 39
信念 39
先@@ 39
公務 39
公式 39
兵力 39
再会 39
再生 39
医学 39
千和 39
博物 39
印 39
右側 39
同級 39
場面 39
塗る 39
墓 39
大統領 39
始末 39
実績 39
平ら 39
座る 39
後@@ 39
復帰 39
悲惨 39
成立 39
戻す 39
手助け 39
文法 39
日時 39
日焼け 39
昼間 39
暴力 39
条約 39
業界 39
次々 39
氏 39
泊まる 39
海@@ 39
漏らし 39
煮 39
熟練 39
燃料 39
特殊 39
真っ 39
短く 39
箸 39
締め 39
肝心 39
花粉 39
虹 39
行き来 39
表し 39
被験 39
見通し 39
覚悟 39
触っ 39
言おう 39
訴訟 39
誠意 39
警備 39
議事 39
載せ 39
辺り 39
道のり 39
鉢 39
開店 39
電灯 39
青々 39
革新 39
（ 39
5000 38
あげよう 38
かぶっ 38
くぎ 38
ぐっすり 38
しい 38
しわ 38
すき間 38
すっきり 38
ぜー 38
そもそも 38
たたい 38
だまさ 38
つきあい 38
やばい 38
アカウント 38
アン@@ 38
カップル 38
ケーブル 38
スミス 38
チ 38
ニーズ 38
パイプ 38
ブレーキ 38
ボス 38
マントー 38
ヨーロッパ 38
リン 38
リー 38
丘 38
交替 38
仕上げ 38
伝わる 38
債務 38
兄貴 38
兵器 38
処置 38
前方 38
剣 38
創作 38
創造 38
半身 38
堤防 38
大幅 38
存分 38
寄っ 38
小鳥 38
届か 38
帝国 38
弱点 38
強力 38
意思 38
扱っ 38
投稿 38
捜す 38
救う 38
燈 38
発し 38
育っ 38
自殺 38
花島 38
若 38
補助 38
見事 38
視野 38
覚め 38
親しく 38
観る 38
言葉遣い 38
記者 38
語学 38
調節 38
貴女 38
起こさ 38
足取り 38
踊る 38
迫っ 38
過剰 38
銀 38
鍛え 38
闘い 38
集まり 38
駐車 38
高速 38
魔法 38
かた 37
しきたり 37
せ@@ 37
だす 37
だまし 37
っこ 37
とりどり 37
なす 37
ひたすら 37
ほっと 37
まとめる 37
まるまる 37
みぞれ 37
カタログ 37
ガン 37
クッキー 37
グラス 37
セリフ 37
セーター 37
ネジ 37
ネタ 37
ボランティア 37
ポンプ 37
モーター 37
ロケット 37
一斉 37
一気 37
九 37
人手 37
会わ 37
分@@ 37
務め 37
取り組む 37
地上 37
報道 37
外見 37
大型 37
太鼓 37
宴 37
専ら 37
峰 37
平等 37
従い 37
忙し 37
恒一 37
愚か 37
慰め 37
抜き 37
拒絶 37
捕らえ 37
掛ける 37
改造 37
放課 37
救済 37
暮らす 37
木@@ 37
染め 37
検索 37
気象 37
決済 37
決算 37
沈ん 37
清潔 37
温め 37
災厄 37
爪 37
狭く 37
盗ま 37
監査 37
眠る 37
眼 37
破損 37
税金 37
視線 37
詰め 37
話し合う 37
謝罪 37
警告 37
送料 37
透明 37
連中 37
進展 37
遅延 37
閉じ 37
間に合う 37
隠す 37
飛び出し 37
000 36
21 36
22 36
ABC 36
M 36
あふれる 36
うる 36
うれし 36
おかず 36
かさ 36
そっと 36
たいてい 36
たたく 36
だいたい 36
なくす 36
ひ@@ 36
ひも 36
ぶ 36
ぶっ 36
まり 36
よ@@ 36
アルバム 36
キャラ 36
スト@@ 36
チョコレート 36
デモ 36
ト 36
ノ 36
バナナ 36
フィルム 36
プレゼンテーション 36
マスク 36
リラ 36
丁 36
不在 36
乗せ 36
乾い 36
人種 36
何卒 36
保障 36
冬海 36
切ら 36
利 36
前@@ 36
助かっ 36
匂い 36
化け 36
台所 36
向かい 36
外@@ 36
多少 36
嫌わ 36
容貌 36
小川 36
年上 36
幹線 36
広東 36
引っ張っ 36
後ほど 36
復習 36
思い切っ 36
急速 36
恵まれ 36
悔しい 36
承り 36
断り 36
書き@@ 36
木の葉 36
根性 36
森林 36
欠陥 36
死体 36
毎晩 36
水面 36
浮かん 36
浴び 36
清掃 36
無かっ 36
燃え 36
猿 36
甘え 36
真っ黒 36
突破 36
立 36
粥 36
結 36
結ぶ 36
舌 36
草原 36
葬式 36
行事 36
表彰 36
転勤 36
通す 36
阻止 36
降ら 36
靴下 36
頂ける 36
頂戴 36
領収 36
食物 36
鬼 36
黒 36
３０ 36
/ 35
90 35
いっしょ 35
いわゆる 35
えーと 35
かから 35
じっくり 35
せいぜい 35
のど 35
ひ 35
まとまっ 35
もったい 35
ものすごく 35
れ@@ 35
アイテム 35
イフ 35
エレベーター 35
オフ 35
ザ 35
ジャ@@ 35
ソース 35
タマ 35
ティ@@ 35
ノック 35
フェ@@ 35
ブ 35
プレー 35
ベ@@ 35
ペッパー 35
ペンキ 35
ミサイル 35
上映 35
下す 35
両替 35
中傷 35
些細 35
作動 35
傾い 35
党員 35
助言 35
厳格 35
周年 35
和 35
咲い 35
困り 35
国外 35
埋め 35
増産 35
夜明 35
奮闘 35
嫉妬 35
嬉し 35
定義 35
富士 35
小包 35
少々 35
屋敷 35
幽霊 35
廊下 35
引越し 35
忠実 35
思いやり 35
恐れる 35
悪党 35
成分 35
打た 35
技 35
搾取 35
改める 35
放射 35
整っ 35
日増し 35
早期 35
明け 35
景気 35
有益 35
気づき 35
河南 35
演劇 35
灯 35
災難 35
無効 35
現 35
疲れる 35
病状 35
白く 35
直ぐ 35
看板 35
真似 35
示さ 35
積ん 35
缶 35
美 35
群 35
肉体 35
自ら 35
芽 35
衝撃 35
裏切り 35
試 35
輝く 35
適し 35
遺産 35
隊列 35
面白かっ 35
食う 35
鳴 35
2@@ 34
M@@ 34
S 34
いける 34
いこう 34
かす 34
きく 34
ごとく 34
ごはん 34
さわやか 34
そで 34
たて 34
だいぶ 34
なくなる 34
はー 34
ほお 34
もしくは 34
わ@@ 34
ジョギング 34
ジョースター 34
スペース 34
チョコ 34
ツ 34
パンダ 34
ピンク 34
フード 34
ヘア 34
マ 34
モテ 34
ーン 34
不便 34
乱れ 34
交際 34
任命 34
先祖 34
冷たく 34
初@@ 34
前向き 34
又 34
反撃 34
取り戻し 34
受け付け 34
同じく 34
和@@ 34
喜ば 34
回す 34
土壌 34
地点 34
境遇 34
売れ行き 34
多かっ 34
夜間 34
大臣 34
孤独 34
学ば 34
室内 34
寝坊 34
専攻 34
小遣い 34
尺 34
帰ろう 34
常識 34
弾い 34
当初 34
徒 34
折り返し 34
放っ 34
教訓 34
新年 34
日光 34
映像 34
普及 34
月末 34
木材 34
栄誉 34
機密 34
段取り 34
毎回 34
流通 34
浴衣 34
瀬尾 34
炭素 34
照明 34
独特 34
疲労 34
目指す 34
素早く 34
総会 34
耀 34
自社 34
苦難 34
被っ 34
装備 34
試作 34
論争 34
財政 34
貼っ 34
踊っ 34
通う 34
適応 34
酷い 34
重点 34
金属 34
銅 34
銭 34
閉鎖 34
防衛 34
随分 34
集 34
面積 34
頑張ろう 34
騒い 34
驚か 34
鳴らす 34
鳴る 34
鹿 34
いやいや 33
おいし 33
おにぎり 33
かかわる 33
ぐれ 33
たちまち 33
たまたま 33
ったく 33
つながっ 33
とんでも 33
ふん 33
ほっ 33
ほのか 33
ぽかん 33
まえ 33
れんが 33
ガイド 33
サラダ 33
ゼロ 33
パートナー 33
ブルー 33
プロセス 33
マス 33
マッサージ 33
メガネ 33
下落 33
中断 33
中毒 33
仲裁 33
体重 33
修学 33
兆 33
先頭 33
八方 33
公正 33
公衆 33
出掛け 33
動産 33
友 33
取り入れ 33
取れる 33
同封 33
名古屋 33
咳 33
哲学 33
喫茶 33
回数 33
圏 33
堕落 33
売り@@ 33
女優 33
妊娠 33
少数 33
川尻 33
幼馴染 33
店員 33
往復 33
感激 33
所得 33
手伝う 33
手足 33
批評 33
持ち@@ 33
振り@@ 33
排水 33
控えめ 33
支払わ 33
昇進 33
柔らかく 33
格別 33
概念 33
死刑 33
残酷 33
殴っ 33
気風 33
水中 33
活気 33
浮気 33
済ん 33
演じる 33
漬け 33
点数 33
特性 33
玲奈 33
生まれつき 33
由 33
痛む 33
癒さ 33
登る 33
直面 33
祝う 33
突く 33
笑み 33
細かく 33
経歴 33
統計 33
肺炎 33
臨時 33
裸 33
見よう 33
見山 33
親しみ 33
言い訳 33
誘い 33
謹ん 33
返送 33
迷子 33
過度 33
銃声 33
防御 33
食欲 33
飽き 33
1@@ 32
P@@ 32
S@@ 32
うお 32
えさ 32
おや 32
くさい 32
くっつい 32
ぐるぐる 32
じ 32
ず@@ 32
ちらっ 32
ったら 32
つかん 32
どなた 32
まれ 32
めちゃくちゃ 32
める 32
アルコール 32
インク 32
インタビュー 32
エビ 32
オーストラリア 32
ギ@@ 32
グ 32
ケン 32
シー 32
スギ 32
スマート 32
セックス 32
ダイエット 32
ティ 32
ドキドキ 32
ニ 32
パンツ 32
パーティ 32
ファ@@ 32
ブログ 32
プロ@@ 32
ムカつく 32
メディア 32
ロシア 32
上空 32
下げる 32
下着 32
仕組み 32
他社 32
会長 32
伴う 32
体つき 32
傷つける 32
内心 32
出血 32
分かれ 32
分割 32
分裂 32
初心 32
力強い 32
動揺 32
厳重 32
受講 32
命じ 32
商業 32
坂 32
増やし 32
夏季 32
客観 32
封筒 32
届ける 32
左@@ 32
差し@@ 32
引き出し 32
張り 32
役者 32
心@@ 32
思いがけ 32
悲し 32
意欲 32
扱う 32
持ち上げ 32
接触 32
描写 32
曇り 32
本番 32
束 32
棟 32
楽しめ 32
正当 32
正解 32
死な 32
洋 32
消す 32
湖面 32
溶け 32
無償 32
無敵 32
爆破 32
犯す 32
狂っ 32
生理 32
疑っ 32
盤 32
祝日 32
粗末 32
膝 32
自体 32
自治 32
英国 32
被 32
西洋 32
見張り 32
視点 32
解約 32
解釈 32
計上 32
話し合っ 32
認める 32
説 32
議題 32
豪華 32
財 32
買い上げ 32
貸す 32
農作 32
近づく 32
退院 32
逃れ 32
郁夫 32
酔い 32
開会 32
開拓 32
限界 32
電池 32
食べよう 32
麗奈 32
２０ 32
いざ 31
いただけれ 31
いったん 31
いわ 31
うんと 31
かき@@ 31
きつく 31
こらえ 31
ささげる 31
さし 31
しまえ 31
しゃ@@ 31
ずば抜け 31
たがっ 31
たしか 31
ちゃい 31
て@@ 31
どー 31
なろう 31
に@@ 31
ねェ 31
ぴん 31
まく 31
もしもし 31
わき 31
イライラ 31
エリア 31
コントロール 31
ズ 31
タンク 31
チャ@@ 31
テ 31
テメー 31
テント 31
トンネル 31
ネ 31
フル 31
ラー 31
リズム 31
レ 31
三@@ 31
下品 31
下級 31
仕@@ 31
仲直り 31
体操 31
依存 31
優良 31
凶暴 31
出現 31
利口 31
前世 31
剣道 31
包装 31
協会 31
南京 31
厚い 31
叔母 31
取り扱い 31
名刺 31
味わい 31
商人 31
国語 31
塊 31
売り切れ 31
夕焼け 31
多忙 31
夢野 31
大隊 31
天井 31
天津 31
太く 31
好む 31
好意 31
妥当 31
婦 31
宝 31
宝物 31
宣言 31
富ん 31
寝@@ 31
就く 31
山村 31
市民 31
平素 31
廃棄 31
引き受ける 31
彫刻 31
怖かっ 31
悪@@ 31
担任 31
持て 31
持参 31
挙げる 31
掘っ 31
支える 31
数値 31
文献 31
日照り 31
晩年 31
書籍 31
有@@ 31
本部 31
枯れ 31
栓 31
毒 31
決意 31
注い 31
流暢 31
測量 31
無し 31
無知 31
狩り 31
甘く 31
申告 31
略奪 31
盆 31
短期 31
章 31
精巧 31
素 31
細工 31
絵画 31
続々 31
署 31
美味し 31
能 31
腐敗 31
菜 31
見舞わ 31
観測 31
角度 31
誘惑 31
課長 31
負ける 31
走ら 31
身内 31
輝かしい 31
輝き 31
辺境 31
通い 31
通り過ぎ 31
通る 31
陰謀 31
雄大 31
難 31
難しかっ 31
響き 31
騙さ 31
骨折 31
： 31
400 30
B@@ 30
あいまい 30
ぐ@@ 30
ごろつき 30
ささげ 30
すごし 30
すさまじい 30
だらだら 30
つやつや 30
ひとまず 30
ぶつぶつ 30
ぽち 30
まね 30
やかましい 30
やっつけ 30
ウソ 30
カット 30
カメ 30
キャラクター 30
スクール 30
セメント 30
ック 30
トム 30
ノー 30
バラ 30
バーベキュー 30
プリント 30
モ 30
ヤバい 30
リラックス 30
リング 30
ログ 30
ロボット 30
一連 30
上下 30
不尽 30
不能 30
亡くなり 30
付属 30
代替 30
伺っ 30
体力 30
作り上げ 30
個別 30
充分 30
光景 30
免税 30
凄い 30
判明 30
動画 30
単に 30
反射 30
含む 30
告げる 30
呪い 30
喋れ 30
地べた 30
堂 30
売り場 30
夕日 30
大げさ 30
大使 30
女@@ 30
学年 30
学術 30
宇治 30
宝くじ 30
専用 30
射撃 30
局面 30
広がる 30
強調 30
待ち伏せ 30
待遇 30
急ぎ 30
惜しま 30
手作り 30
手間 30
打合せ 30
投げる 30
折っ 30
拳 30
持ち帰り 30
指標 30
握手 30
損傷 30
改正 30
数十 30
旦那 30
時刻 30
晴れる 30
材 30
果樹 30
樹木 30
歌詞 30
死ね 30
気付か 30
治安 30
津波 30
活性 30
海岸 30
消化 30
清算 30
潜在 30
無実 30
玄関 30
球菌 30
療法 30
発する 30
石けん 30
破っ 30
福岡 30
移転 30
稼ぐ 30
突い 30
窓口 30
細く 30
絶え間 30
絶滅 30
美味しく 30
肢 30
花瓶 30
薄く 30
蛇 30
衝突 30
観客 30
訴える 30
試着 30
語っ 30
谷 30
起こら 30
踏ん 30
追求 30
運び 30
録 30
陥っ 30
陸上 30
顧問 30
餃子 30
鳴らし 30
＝ 30
Ａ 30
あらかじめ 29
いよいよ 29
おめぇ 29
おもしろい 29
かなわ 29
かめ 29
きい 29
くだら 29
ごとき 29
そ@@ 29
たえ 29
ちそう 29
なか 29
ね@@ 29
ふう 29
へ@@ 29
ほ@@ 29
めよう 29
もうけ 29
よお 29
よけれ 29
ら@@ 29
アヒル 29
オプション 29
シュ@@ 29
シーズン 29
ステージ 29
センス 29
センチ 29
タコ 29
ティー 29
テキスト 29
ドライブ 29
ハ 29
バレーボール 29
バン@@ 29
パフォーマンス 29
ビーチ 29
フリー 29
ボート 29
マンション 29
ユーフォ 29
ルート 29
不利 29
不可欠 29
仕掛け 29
付 29
何十 29
修繕 29
備える 29
催促 29
内緒 29
出会う 29
出入り 29
出社 29
劣っ 29
包み 29
参観 29
反映 29
取り囲ん 29
取り替え 29
口論 29
叫ぶ 29
召し上がり 29
吉田 29
吐く 29
呼びかけ 29
固く 29
国@@ 29
天@@ 29
天才 29
奪っ 29
安@@ 29
定員 29
小売 29
尻 29
居住 29
巻き込ま 29
引か 29
引退 29
強大 29
形態 29
悪辣 29
想い 29
慣れる 29
憲法 29
手先 29
手入れ 29
打ち上げ 29
投票 29
折 29
抱きしめ 29
招き 29
振込 29
排除 29
接近 29
整備 29
施し 29
旅客 29
曇っ 29
束縛 29
正規 29
気配 29
油断 29
浮かべ 29
浴 29
涼 29
淋しい 29
深@@ 29
温暖 29
満開 29
漂っ 29
演説 29
澄ん 29
激励 29
灌漑 29
灰色 29
爆竹 29
牛肉 29
物体 29
生@@ 29
生息 29
痛め 29
盛大 29
目つき 29
真っ暗 29
眺める 29
祈る 29
稲 29
系統 29
結末 29
縮小 29
罰 29
背後 29
英文 29
茎 29
薬品 29
視察 29
親子 29
試練 29
詩人 29
謝り 29
貧困 29
足元 29
連隊 29
選抜 29
酔っ 29
重んじる 29
金利 29
銘柄 29
錠 29
閉じ込め 29
閲覧 29
陝西 29
陣 29
難し 29
革 29
飼う 29
駆けつけ 29
高値 29
CD 28
a@@ 28
あっさり 28
ありのまま 28
いらし 28
え@@ 28
おかしく 28
かえって 28
がた 28
くねくね 28
くれれ 28
さも 28
しから 28
たくましい 28
ため息 28
だんな 28
ちょっ 28
つかむ 28
つない 28
つぶし 28
つめ 28
てく 28
てらっしゃい 28
で@@ 28
とりわけ 28
ぬれ 28
まばら 28
まる 28
む@@ 28
もてなし 28
りゃ 28
アウト 28
アンジェロ 28
オー@@ 28
ガ 28
ガソガル 28
キャッシュ 28
クロ@@ 28
グアム 28
コーチ 28
サ 28
スクリーン 28
スライド 28
ダウンロード 28
ツバメ 28
デス 28
ドアー 28
ナシ 28
パー 28
フォン 28
ヘブンズ 28
ペテン 28
マクロファージ 28
マレーシア 28
ミサ 28
リアル 28
リリース 28
レート 28
一人前 28
一声 28
上る 28
不意 28
主催 28
乙 28
争う 28
事例 28
人心 28
仕入れ 28
会合 28
体内 28
体格 28
何曜 28
信仰 28
個性 28
偉い 28
偵察 28
傲慢 28
優雅 28
公表 28
再開 28
切れる 28
刑 28
初めまして 28
努め 28
勝ち取る 28
厚く 28
友だち 28
受信 28
受領 28
口実 28
司令 28
各国 28
咲く 28
回避 28
圧力 28
地形 28
売ら 28
夜明け 28
大陸 28
大雪 28
天然 28
女房 28
好 28
安 28
安らか 28
実感 28
少なから 28
尽き 28
度量 28
座 28
後半 28
怜子 28
悪巧み 28
懸念 28
所定 28
指し 28
排出 28
推進 28
搭乗 28
整え 28
新宿 28
日にち 28
日中 28
暮らし向き 28
本屋 28
梱包 28
歩道 28
殆ど 28
残高 28
気性 28
気楽 28
治る 28
流さ 28
浅い 28
液体 28
混ぜ 28
測る 28
焦っ 28
独自 28
独裁 28
猛烈 28
球技 28
生い茂っ 28
白色 28
着ける 28
確立 28
福建 28
積む 28
立ちこめ 28
立ち去っ 28
簡潔 28
純粋 28
結合 28
繁栄 28
翌日 28
習得 28
腰掛け 28
落ち着く 28
落とさ 28
蒸気 28
見本 28
見送り 28
規格 28
観戦 28
解雇 28
診 28
講師 28
質素 28
購買 28
赴任 28
超過 28
足ら 28
足首 28
軽 28
迫る 28
進化 28
運行 28
運送 28
違法 28
鍛える 28
険しい 28
頑固 28
領域 28
食器 28
飲み会 28
高等 28
魔女 28
黒板 28
あん 27
おとなしい 27
おー 27
かわいそう 27
かわり 27
がんばり 27
けち 27
こまごま 27
さよなら 27
しみ 27
じき 27
ちょっぴり 27
っきり 27
っぱなし 27
ときどき 27
ぶ@@ 27
やす 27
わら 27
アホ 27
インストール 27
インフルエンザ 27
キャ@@ 27
ゲ@@ 27
シャ@@ 27
ハーヴェスト 27
パイロット 27
パス 27
パスタ 27
ビニール 27
ブラック 27
プライド 27
プラスチック 27
プレゼン 27
ベテラン 27
メンテナンス 27
リクエスト 27
リー@@ 27
レー 27
ール 27
一人暮らし 27
一段 27
下ろす 27
不快 27
両側 27
乏しい 27
乗り換え 27
乳 27
争い 27
人力 27
介護 27
以後 27
休業 27
例外 27
偉 27
光る 27
全額 27
再送 27
別荘 27
創業 27
創設 27
劇場 27
博士 27
占領 27
原@@ 27
反乱 27
反抗 27
各自 27
名@@ 27
吸い 27
吹き@@ 27
周辺 27
呼び@@ 27
呼び出し 27
命中 27
咲き 27
基地 27
堅く 27
増し 27
壊さ 27
大根 27
好か 27
妨げ 27
婚約 27
学会 27
安徽 27
宗教 27
官僚 27
実習 27
家@@ 27
尋問 27
小道 27
尽力 27
屈服 27
山道 27
工夫 27
左手 27
巻 27
巻き 27
帳 27
帽 27
平穏 27
廃止 27
弟子 27
強@@ 27
強烈 27
徴収 27
急が 27
想定 27
戦場 27
折れる 27
持ち出し 27
指名 27
振り込み 27
接待 27
推し進める 27
揚げ 27
改修 27
数百 27
整頓 27
文明 27
晩御飯 27
来店 27
枠 27
植民 27
横@@ 27
欠ける 27
治す 27
法廷 27
活発 27
消防 27
深夜 27
湿気 27
炉 27
監視 27
移っ 27
穂 27
空き 27
立ち@@ 27
築く 27
結び 27
綿花 27
総括 27
罰金 27
耕作 27
職人 27
腺 27
至っ 27
良 27
良心 27
華 27
落花 27
薄 27
補充 27
要 27
要件 27
要請 27
見習い 27
許す 27
謝る 27
負え 27
走れ 27
軍人 27
転校 27
軽やか 27
辛く 27
追及 27
逃亡 27
遅かっ 27
遠 27
野 27
鋼 27
録音 27
鍋 27
鐘 27
陰険 27
集会 27
電線 27
静脈 27
頑張ら 27
駅前 27
3000 26
31 26
365 26
ACT 26
C@@ 26
D 26
t@@ 26
あらし 26
おいおい 26
がかっ 26
けれ 26
こなす 26
じ@@ 26
そろえ 26
たびたび 26
つくる 26
つぼ 26
てきぱき 26
ふさわしい 26
ふと 26
ぶる 26
ぼ 26
むち 26
よろしけれ 26
わー 26
アーティスト 26
オレンジ 26
カウンター 26
キリスト 26
クラスメイト 26
クリック 26
コンタクト 26
コール 26
ジャージ 26
ストア 26
セミ 26
タイトル 26
タヌキ 26
ター 26
ハンバーグ 26
バッテリー 26
パネル 26
ヒーロー 26
ボトル 26
マネジメント 26
ヨ@@ 26
レジ 26
ーム 26
一目 26
万事 26
下がる 26
両@@ 26
中古 26
乗客 26
乗車 26
乾杯 26
今ごろ 26
今頃 26
伸ばす 26
余分 26
保健 26
公@@ 26
共和 26
出費 26
分解 26
利潤 26
到達 26
刺し 26
刺す 26
動け 26
包丁 26
単なる 26
去る 26
取り付ける 26
古@@ 26
叫び 26
同@@ 26
向ける 26
啓発 26
変身 26
夏川 26
外す 26
失業 26
好奇 26
妥協 26
子孫 26
孤立 26
学園 26
学業 26
定める 26
定年 26
寛大 26
寮 26
山水 26
己 26
巻き添え 26
広報 26
広瀬 26
引きつけ 26
引き立て 26
引っ@@ 26
引っ張る 26
強情 26
待ち遠しい 26
心遣い 26
急激 26
情景 26
我が家 26
戦士 26
手がかり 26
手当て 26
投降 26
押さえ 26
提唱 26
操縦 26
支店 26
放題 26
斜面 26
旨 26
暴露 26
曲がる 26
月刊 26
本棚 26
梅 26
欲し 26
殴ら 26
法的 26
活かし 26
浮い 26
消息 26
混ん 26
渡り 26
満たす 26
滑らか 26
火山 26
物@@ 26
独占 26
理科 26
画家 26
留め 26
発達 26
着せ 26
破れ 26
祖先 26
祖父母 26
秘書 26
終始 26
編成 26
緩和 26
繰り返す 26
聞き取れ 26
肝 26
腫瘍 26
裕福 26
見つかり 26
証書 26
詐欺 26
誘わ 26
論理 26
踏む 26
農 26
退社 26
送れ 26
通ら 26
連結 26
進ま 26
遊覧 26
運賃 26
遠隔 26
長城 26
開放 26
間に合い 26
除去 26
雄 26
雑草 26
青く 26
面白 26
頂けれ 26
食料 26
魚谷 26
H@@ 25
T@@ 25
m@@ 25
あえて 25
いっそ 25
ううん 25
かゆい 25
かれ 25
きみ 25
ぎゅっ 25
けして 25
こりゃ 25
すらすら 25
ずるい 25
たろ 25
ちまう 25
ちょいと 25
つながり 25
び@@ 25
ほ 25
ほしかっ 25
ぼ@@ 25
ぼろぼろ 25
まき 25
やけど 25
ゆえ 25
わが家 25
わきまえ 25
アクセス 25
イイ 25
エッチ 25
カエル 25
キロメートル 25
グラム 25
グローバル 25
コー@@ 25
ゴロゴロ 25
サーバー 25
シンガポール 25
スケート 25
ゼ@@ 25
デー 25
ネックレス 25
バイ 25
フ 25
ファックス 25
プロポーズ 25
ヘッド 25
ペーパー 25
ホット 25
ポスター 25
マッチ 25
ライセンス 25
リンク 25
ロット 25
上っ 25
世論 25
主@@ 25
乗り越え 25
今晩は 25
代々 25
何者 25
作れる 25
作ろう 25
停電 25
償却 25
再来 25
冷却 25
刺身 25
割り 25
動向 25
单位 25
占める 25
及ぼす 25
双子 25
反@@ 25
取り消し 25
合唱 25
困惑 25
売却 25
多大 25
大手 25
天安門 25
奈良 25
奏者 25
嬢 25
宝石 25
寄せる 25
射程 25
導く 25
小型 25
小野 25
岩瀬 25
工芸 25
巻く 25
干し 25
庁 25
府 25
弱く 25
当てる 25
徐々 25
心がけ 25
愛想 25
感心 25
戸籍 25
払わ 25
担い 25
振り返っ 25
捕虜 25
採る 25
接する 25
揃っ 25
放し 25
斜め 25
日付 25
早@@ 25
昼夜 25
書き上げ 25
書面 25
期末 25
杭州 25
東北 25
様式 25
武術 25
歩か 25
比率 25
気力 25
没収 25
泡 25
浙江 25
海水 25
添え 25
灯火 25
炎症 25
炒め 25
然 25
熱く 25
現われる 25
生き物 25
生態 25
由花 25
申込 25
異 25
異なっ 25
盛り上がっ 25
着実 25
知り合っ 25
納入 25
絆 25
経つ 25
給付 25
編ん 25
義 25
肥え 25
背負っ 25
芸 25
蓄え 25
薬剤 25
行進 25
見識 25
親方 25
評定 25
誓い 25
課税 25
買える 25
買おう 25
赤沢 25
起床 25
軽減 25
載せる 25
農家 25
連休 25
進学 25
醤油 25
重んじ 25
長らく 25
間抜け 25
陽 25
頂上 25
順序 25
領土 25
風習 25
飛ばす 25
食い 25
飼育 25
首都 25
高@@ 25
高らか 25
麻酔 25
2012 24
23 24
o@@ 24
― 24
おろそか 24
かなう 24
から@@ 24
かり 24
ぎ 24
したがっ 24
しん 24
すがすがしい 24
すてき 24
ただし 24
ちなみ 24
つきあっ 24
でっち上げ 24
とう 24
とどめ 24
なくっ 24
なまり 24
はたらい 24
ばっか 24
ひざ 24
べく 24
やま 24
やり遂げ 24
アピール 24
ウリ 24
クラ@@ 24
クロス 24
コンテスト 24
サンドイッチ 24
ジャケット 24
ステーション 24
スローガン 24
ダスト 24
ックス 24
デ 24
トランプ 24
ネクタイ 24
ハンカチ 24
ハンバーガー 24
バター 24
パトロール 24
パート 24
ピザ 24
ブルジョア 24
プレイ 24
ベルリン 24
ポジション 24
マー 24
ミ 24
ライ@@ 24
ライバル 24
レット 24
ロン 24
ロー@@ 24
ーズ 24
ーッ 24
一帯 24
一心 24
万一 24
三神 24
上がら 24
上流 24
上演 24
中途 24
主力 24
乗ら 24
乗り@@ 24
休め 24
保守 24
傾け 24
元手 24
入国 24
再三 24
再発 24
分散 24
切断 24
別々 24
利か 24
割り当て 24
動 24
包ま 24
千代 24
原 24
及ぶ 24
収める 24
収容 24
取ろう 24
取締 24
可愛く 24
同盟 24
含み 24
吹か 24
喋り 24
回路 24
国籍 24
地獄 24
境 24
墨 24
壮大 24
変@@ 24
外科 24
奉仕 24
妄想 24
妨害 24
委託 24
子@@ 24
宿舎 24
寸法 24
寿命 24
将棋 24
属する 24
山々 24
年@@ 24
年月 24
広 24
広大 24
建てる 24
弁解 24
弦 24
後方 24
従来 24
復活 24
悔し 24
感慨 24
戻れ 24
所@@ 24
投じ 24
拝見 24
接し 24
換え 24
支障 24
救っ 24
教材 24
敬意 24
敷い 24
映っ 24
暮れ 24
暴風 24
曲がりくねっ 24
書道 24
有害 24
本格 24
来日 24
枕 24
校正 24
欲 24
江 24
泉 24
消滅 24
湖南 24
湿っ 24
漢 24
炊事 24
焼け 24
照らす 24
狙っ 24
独身 24
珍しく 24
生ん 24
生計 24
申し出 24
目覚め 24
知能 24
神戸 24
禁じ 24
突っ込ん 24
精力 24
綿入れ 24
線香 24
繁殖 24
織物 24
繰り広げ 24
航路 24
色彩 24
草案 24
著者 24
蒸し 24
表す 24
表記 24
補う 24
補償 24
襲わ 24
見なす 24
見分け 24
見当 24
見直す 24
見知り 24
観念 24
解析 24
言いつけ 24
誘導 24
読み書き 24
諸国 24
講座 24
議長 24
譲る 24
譲歩 24
貨幣 24
貯金 24
軸 24
農場 24
迷い 24
通じる 24
遂行 24
過失 24
選べ 24
配る 24
重荷 24
野生 24
金賞 24
閉める 24
関税 24
降りる 24
雌 24
露 24
面目 24
飢え 24
飲酒 24
飾っ 24
餅 24
高度 24
鳴き声 24
35 23
: 23
X 23
d@@ 23
うなずい 23
かまど 23
からかう 23
かんしゃく 23
がやがや 23
こぼし 23
ざ@@ 23
しっぽ 23
しゃべれ 23
じゃっ 23
せろ 23
たー 23
だろー 23
っから 23
っ子 23
つまん 23
つるつる 23
てれ 23
とことん 23
とれる 23
はさみ 23
はじめて 23
はまっ 23
ば@@ 23
ひっそり 23
び 23
ふるい 23
ぶちまけ 23
ぶっ@@ 23
へえ 23
みれ 23
むやみ 23
もち 23
やがる 23
やめよう 23
やり直し 23
ゆ@@ 23
よこし 23
よれ 23
ん@@ 23
イス 23
ォ 23
オーダー 23
カルシウム 23
カワイイ 23
クモ 23
グリーン 23
コン 23
ゴ 23
サンタ 23
シェア 23
シルバー 23
ジャガイモ 23
ジャズ 23
スタ@@ 23
チェーン 23
チン 23
テンション 23
ナンバー 23
ニラ 23
ハエ 23
ハンド 23
ハート 23
バイツ 23
バスケ 23
パー@@ 23
ビタミン 23
ブック 23
ペース 23
ホスト 23
メ 23
リンパ 23
ワ 23
ンド 23
一口 23
万@@ 23
不備 23
中庭 23
中継 23
丸く 23
予感 23
京劇 23
人情 23
会談 23
伝達 23
体系 23
何に 23
作曲 23
便り 23
修行 23
優劣 23
充電 23
先端 23
出世 23
刑務 23
利息 23
制作 23
制定 23
刺繡 23
効き目 23
反し 23
反駁 23
取り急ぎ 23
取り戻す 23
取扱 23
口先 23
叫び声 23
合法 23
合流 23
同一 23
吸わ 23
味わっ 23
器量 23
国防 23
圧倒 23
多様 23
大口 23
奪う 23
奪わ 23
姓 23
宛 23
家賃 23
寂し 23
富む 23
対戦 23
小便 23
就任 23
居眠り 23
履行 23
岸 23
川@@ 23
巡っ 23
引っ張り 23
往々 23
徒歩 23
徹夜 23
心地よい 23
急ぐ 23
悪意 23
憂い 23
成人 23
手洗い 23
抗日 23
抗議 23
振る 23
掛かっ 23
接客 23
掲げ 23
撃っ 23
教養 23
数多く 23
整形 23
敵対 23
旅館 23
日頃 23
時差 23
本音 23
来@@ 23
栄え 23
極力 23
構想 23
横断 23
欲しく 23
正@@ 23
武力 23
歩け 23
歩む 23
歳月 23
殴る 23
毛皮 23
水力 23
決まる 23
沙汰 23
浮かぶ 23
消える 23
液 23
渋谷 23
満たさ 23
満たし 23
溶接 23
潮 23
無@@ 23
無理やり 23
燃える 23
片づける 23
現れる 23
現役 23
産ん 23
異なり 23
百貨 23
盆休み 23
盗ん 23
目玉 23
相続 23
磨き 23
神@@ 23
空け 23
空白 23
立ち入り 23
等級 23
精通 23
級友 23
紛争 23
素晴らしかっ 23
絶望 23
緑色 23
締める 23
繰り広げる 23
翼 23
耐える 23
肉親 23
育児 23
脂肪 23
脅迫 23
自@@ 23
若松 23
苦しく 23
落下 23
蒸し暑い 23
薦め 23
表門 23
被告 23
装飾 23
要点 23
要領 23
見つかる 23
見なし 23
観衆 23
言及 23
設ける 23
詞 23
誇張 23
語句 23
請う 23
警報 23
費やし 23
赴く 23
送別 23
通貨 23
運ば 23
配属 23
配布 23
鋭く 23
間田 23
関わっ 23
防水 23
際し 23
露出 23
音声 23
預かっ 23
預かり 23
顧み 23
飛び込ん 23
食材 23
飲み込ん 23
駆除 23
高かっ 23
鳴り 23
28 22
e@@ 22
いざこざ 22
ぉ 22
おいら 22
おっしゃる 22
おびただしい 22
かっと 22
きっちり 22
くどくど 22
くらくら 22
ぐる 22
げる 22
こだわら 22
すり@@ 22
そりゃあ 22
そろい 22
ためらっ 22
つけろ 22
つぶす 22
つまみ 22
つり 22
ののしっ 22
ひび 22
びくびく 22
ふさい 22
もめごと 22
やみ 22
よけ 22
よしあし 22
イブ 22
エ 22
カル@@ 22
カン@@ 22
カンパニー 22
カーブ 22
カ月 22
キャッチ 22
グラ@@ 22
コンピュータ 22
サイ@@ 22
サイクル 22
サークル 22
ソン 22
タカ 22
タスク 22
ダウン 22
チキン 22
チャレンジ 22
ッチ 22
トランク 22
トリ@@ 22
ネコ 22
ネットワーク 22
ノルマ 22
バイオリン 22
バレエ 22
バージョン 22
フォロー 22
プラス 22
プリ@@ 22
ボックス 22
ボルト 22
マイ 22
ミカン 22
リア 22
レッド 22
ロール 22
ーター 22
一人ぼっち 22
一旦 22
上等 22
不平 22
世辞 22
両足 22
並べる 22
主役 22
乱暴 22
交@@ 22
付き合う 22
付く 22
伝染 22
伝言 22
体裁 22
何百 22
作り出す 22
個々 22
傍ら 22
優美 22
全般 22
写し 22
冷凍 22
出力 22
分別 22
分布 22
刊行 22
別@@ 22
副業 22
功労 22
勤労 22
包ん 22
区域 22
南方 22
厚 22
口出し 22
叶え 22
司会 22
合 22
名所 22
味噌 22
呼べ 22
商標 22
四@@ 22
地@@ 22
報い 22
壊す 22
夏紀 22
外食 22
夜更かし 22
大急ぎ 22
天びん 22
太い 22
好評 22
娯楽 22
字句 22
守備 22
富 22
寒かっ 22
対外 22
対面 22
将軍 22
山脈 22
山西 22
山間 22
巧み 22
差し迫っ 22
巻き@@ 22
帯び 22
平 22
平日 22
広州 22
弱 22
弱っ 22
張り@@ 22
強固 22
強度 22
弾丸 22
形勢 22
形容 22
微妙 22
思いっきり 22
悔い 22
患っ 22
悪習 22
戻ら 22
抽出 22
指図 22
振動 22
損なう 22
支部 22
敏感 22
救わ 22
敗北 22
散っ 22
敷く 22
日ごろ 22
暗やみ 22
曲げ 22
有無 22
果たして 22
果実 22
桶 22
構え 22
死後 22
毛@@ 22
水利 22
水路 22
求人 22
江蘇 22
河北 22
治り 22
洗面 22
派閥 22
混雑 22
湿度 22
澄み 22
濃く 22
無限 22
煙草 22
照れ 22
甚だ 22
発想 22
白@@ 22
磨い 22
移植 22
移民 22
積み上げ 22
積もっ 22
突撃 22
精密 22
紅軍 22
組み合わせ 22
結ば 22
総務 22
締結 22
繊維 22
罪悪 22
膜 22
落ちぶれ 22
蓋 22
薪 22
行使 22
襲っ 22
見守っ 22
規約 22
親密 22
親類 22
言い@@ 22
計略 22
調 22
謝ら 22
谷間 22
象 22
賞味 22
贅沢 22
越える 22
車輪 22
軌道 22
辞める 22
迫力 22
追い詰め 22
通報 22
通学 22
道中 22
遵守 22
配当 22
酔っ払っ 22
重量 22
金@@ 22
長生き 22
開設 22
降下 22
除い 22
雇っ 22
震える 22
風潮 22
馳走 22
駆け 22
騒音 22
高まる 22
高額 22
麻痺 22
19@@ 21
27 21
F 21
I@@ 21
Q 21
e 21
i@@ 21
あたっ 21
ありふれ 21
いつごろ 21
いつ頃 21
うっ 21
うらやましい 21
おふくろ 21
かま 21
かわい 21
かー 21
きさま 21
くわえ 21
けよう 21
こっぴどく 21
こなし 21
こぶし 21
こぼれ 21
ごたごた 21
ごまかす 21
ざっ 21
すべ 21
ずーっと 21
つかめ 21
つけよう 21
つる 21
づい 21
とり@@ 21
ひととなり 21
ふい 21
ほうっ 21
ほしいまま 21
まら 21
みせる 21
みそ 21
もらわ 21
ゆ 21
ゆったり 21
らっぱ 21
れよう 21
わな 21
アプローチ 21
アル@@ 21
イラスト 21
グレート 21
ケ 21
コーリャン 21
シール 21
スズメ 21
ステーキ 21
セクシー 21
セールス 21
ダイビング 21
ダン 21
チェンジ 21
ツリー 21
ネーム 21
パンク 21
ビ 21
ファンド 21
フィ@@ 21
プリン 21
プレッシャー 21
ベース 21
ボーイ 21
マン@@ 21
メリット 21
ライオン 21
ラベル 21
レッテル 21
ロバ 21
ロード 21
ワクチン 21
ーク 21
一員 21
一団 21
一歩 21
主婦 21
久しく 21
乗り越える 21
乱@@ 21
乳@@ 21
人影 21
仮説 21
仲たがい 21
任せる 21
会得 21
伝説 21
伯父 21
何千 21
余る 21
侵害 21
倒産 21
偏見 21
停 21
停車 21
側面 21
偽物 21
債権 21
優遇 21
先程 21
入@@ 21
入試 21
内情 21
再現 21
冷@@ 21
冷え 21
出願 21
別れる 21
前半 21
割る 21
動員 21
化石 21
半ば 21
南北 21
単身 21
占め 21
印鑑 21
厳粛 21
収支 21
受賞 21
吐き気 21
周到 21
商 21
四半 21
回ら 21
団子 21
土@@ 21
圧 21
坊 21
域 21
塚 21
壊滅 21
声明 21
外観 21
外貨 21
大工 21
大抵 21
大目 21
大砲 21
大笑い 21
大金 21
大騒ぎ 21
天国 21
天地 21
存知 21
官@@ 21
宿 21
寄ら 21
寄生 21
密 21
察し 21
尾 21
局長 21
居酒屋 21
年老い 21
幻想 21
広範 21
引きずっ 21
弱み 21
強み 21
後ろ盾 21
心根 21
怪しい 21
情け 21
惚れ 21
愚痴 21
成す 21
戦術 21
手袋 21
抗原 21
披露 21
拒否 21
拷問 21
捕まっ 21
接種 21
損益 21
故意 21
数える 21
敵機 21
施工 21
時機 21
月@@ 21
有機 21
本心 21
杏 21
材質 21
校舎 21
権威 21
横暴 21
歩み 21
残@@ 21
気付く 21
気概 21
気球 21
気立て 21
汚し 21
汽船 21
法令 21
洗わ 21
活力 21
消火 21
減らし 21
滑り 21
滴 21
灰 21
熱烈 21
片方 21
物品 21
物音 21
生む 21
用語 21
用途 21
田んぼ 21
甲 21
短縮 21
稼い 21
窃盗 21
競合 21
答案 21
納め 21
素質 21
紳士 21
絹 21
総理 21
縦 21
繋がっ 21
聞き入れ 21
肥満 21
能率 21
色んな 21
花束 21
落胆 21
表明 21
衰え 21
補修 21
補給 21
要約 21
解い 21
解散 21
言論 21
討議 21
記 21
訪ねる 21
試み 21
調停 21
象徴 21
貴 21
貴様 21
買い付け 21
買い手 21
貸し出し 21
贈る 21
赤@@ 21
足し 21
返さ 21
返っ 21
追い@@ 21
追いつか 21
通用 21
通路 21
運搬 21
野外 21
闘う 21
隻 21
難関 21
顔立ち 21
飲料 21
骨髄 21
鹿児島 21
１日 21
F@@ 20
N@@ 20
P 20
s 20
u@@ 20
ありがたく 20
ありゃ 20
いきさつ 20
いよう 20
えよう 20
おっと 20
おべっか 20
けっこう 20
こだわり 20
このごろ 20
こま 20
しつけ 20
じみ 20
すげー 20
ずれ 20
せん滅 20
ぞっと 20
たくらん 20
たた 20
ちっぽけ 20
てー 20
とっとと 20
とめど 20
ともかく 20
なぞ 20
ねっ 20
のっ 20
はめ 20
はめる 20
まさしく 20
まわり 20
やり@@ 20
やり手 20
よーし 20
れれ 20
アイロン 20
ウェ@@ 20
オイル 20
オンドル 20
ゲーセン 20
コック 20
シリーズ 20
ジョセフ 20
チップ 20
チャット 20
チワワ 20
デビュー 20
ドライバー 20
ドラム 20
ハウス 20
ハス 20
ヒスタミン 20
ヒロイン 20
ファミリー 20
フォーム 20
ブル@@ 20
ホームステイ 20
ボストン 20
ポテト 20
マルクス 20
モチベーション 20
ユダヤ 20
ラン@@ 20
リボン 20
レコーダー 20
ード 20
一刻 20
一環 20
下痢 20
両岸 20
主観 20
乗り物 20
交わし 20
人目 20
他国 20
代@@ 20
任 20
伸びる 20
住居 20
何時頃 20
余 20
保安 20
保持 20
修復 20
倒す 20
健全 20
先人 20
先物 20
光線 20
入り交じっ 20
公民 20
冷やし 20
凍え 20
出せる 20
分隊 20
刑事 20
初日 20
判定 20
利害 20
制約 20
加わっ 20
加算 20
助かる 20
勘弁 20
勧める 20
半@@ 20
厄介 20
厳密 20
取@@ 20
取り寄せ 20
取り扱っ 20
古典 20
合え 20
君主 20
呼応 20
品性 20
喝采 20
国土 20
圧迫 20
塗り 20
外側 20
夜勤 20
大きかっ 20
大気 20
天使 20
太り 20
太平 20
失@@ 20
好ま 20
好ん 20
威風 20
学歴 20
実情 20
実用 20
実質 20
小舟 20
就き 20
屋上 20
屋台 20
山河 20
崩れ 20
工学 20
差し 20
平坦 20
引@@ 20
弱@@ 20
当事 20
当選 20
当面 20
役員 20
役目 20
往来 20
従わ 20
心待ち 20
応じる 20
応用 20
恋しい 20
恐竜 20
悲しむ 20
成 20
戦線 20
手直し 20
扱わ 20
抜かし 20
担っ 20
挑発 20
捕まえる 20
掲示 20
握る 20
撮ら 20
放置 20
救い 20
整える 20
整然 20
文@@ 20
施す 20
日差し 20
昇る 20
晴らす 20
暫く 20
書店 20
有する 20
有給 20
本件 20
本能 20
条 20
極端 20
標識 20
歯科 20
殊 20
殺害 20
毎 20
気遣い 20
水位 20
泣き@@ 20
泳げ 20
流動 20
清@@ 20
湖北 20
満ちあふれ 20
満喫 20
漢方 20
熱帯 20
熱意 20
爆撃 20
特集 20
生死 20
用件 20
異郷 20
登り 20
白菜 20
益 20
目@@ 20
目方 20
目立つ 20
相違 20
瞬く 20
知り合え 20
破る 20
破棄 20
硬い 20
磨く 20
祝賀 20
移す 20
空条 20
筆跡 20
素早い 20
素朴 20
給 20
老@@ 20
股 20
脅威 20
自立 20
舟 20
良けれ 20
芝生 20
苦痛 20
著名 20
薬物 20
蜂起 20
要する 20
覆わ 20
規範 20
覚まし 20
解く 20
解答 20
許容 20
話そう 20
語彙 20
謎 20
賠償 20
赤点 20
走 20
足跡 20
足音 20
身近 20
転@@ 20
軽率 20
辞退 20
連日 20
過 20
遠方 20
金色 20
鎧 20
閉まっ 20
閉店 20
関与 20
関節 20
電流 20
青空 20
響く 20
預ける 20
頻度 20
飛ばさ 20
食べれ 20
養分 20
餌 20
黒々 20
150 19
D@@ 19
DIO 19
L 19
W@@ 19
n 19
〇 19
あたかも 19
あたふた 19
あわせ 19
うわべ 19
おいしく 19
かき 19
きっぱり 19
きょ 19
きる 19
くださり 19
くだされ 19
ぐ 19
こそこそ 19
さようなら 19
しき 19
じる 19
ずる 19
せっかち 19
せめて 19
そろばん 19
ぞー 19
たくらむ 19
ちっ 19
っちゃん 19
どけ 19
なで 19
のこぎり 19
はずし 19
はね 19
ひと@@ 19
まして 19
やあ 19
ゆとり 19
ゆー 19
ろくでなし 19
アクセサリー 19
イカ 19
イスラム 19
キング 19
コレ 19
コーナー 19
サボっ 19
サン@@ 19
シュート 19
ジェット 19
スコア 19
ステ@@ 19
ストック 19
スーツケース 19
ターゲット 19
ダブル 19
ダー 19
チェ@@ 19
チュ@@ 19
ッド 19
テーブルクロス 19
トーチカ 19
ナツメ 19
ナー 19
ニー 19
ヌ@@ 19
パターン 19
パンケーキ 19
ピース 19
フラッシュ 19
ブラシ 19
ボード 19
ミツバチ 19
ミュージカル 19
メイン 19
ユ@@ 19
レンタル 19
レーション 19
ローン 19
一息 19
一手 19
一括 19
一族 19
万が一 19
万里 19
丈 19
下がり 19
下さっ 19
並ぶ 19
中旬 19
九州 19
争っ 19
亡くし 19
交配 19
仙台 19
代行 19
伝票 19
佳 19
例え 19
保全 19
偽り 19
債 19
免れ 19
入会 19
入札 19
全う 19
八@@ 19
内側 19
冒険 19
凄く 19
凝っ 19
出し物 19
出そう 19
出任せ 19
出口 19
刃 19
創立 19
動機 19
勢 19
原発 19
厳か 19
参入 19
取材 19
合図 19
名詞 19
哀悼 19
問 19
善良 19
回@@ 19
固め 19
国慶 19
地味 19
塗装 19
売り手 19
変態 19
夏バテ 19
外務 19
多額 19
夜@@ 19
夜ご飯 19
大分 19
大小 19
大戦 19
大豆 19
夫人 19
失い 19
好調 19
学位 19
守れ 19
実物 19
宮 19
家計 19
容量 19
密接 19
寒風 19
寝れ 19
審判 19
対照 19
封鎖 19
小銭 19
小隊 19
就業 19
崩壊 19
巡回 19
差額 19
幅広い 19
平凡 19
引き止め 19
徳 19
必然 19
恵み 19
悲しん 19
成田 19
戦@@ 19
戦車 19
押さ 19
持ち出す 19
指す 19
撤退 19
改訂 19
放せ 19
政党 19
敬慕 19
断っ 19
新興 19
日の出 19
時@@ 19
景観 19
暗記 19
有能 19
服従 19
木陰 19
本題 19
柔軟 19
横領 19
止まる 19
残ら 19
残忍 19
段々 19
気づく 19
決勝 19
決議 19
油@@ 19
洗剤 19
流出 19
海上 19
消極 19
消耗 19
混合 19
清らか 19
温かく 19
滑っ 19
濡れ 19
無邪気 19
牧場 19
獣 19
甘やかし 19
由来 19
申し分 19
疑う 19
疾患 19
痛かっ 19
療養 19
癒し 19
白髪 19
盲目 19
真っ青 19
祝っ 19
福祉 19
称号 19
種々 19
空想 19
等しい 19
筋道 19
築い 19
籍 19
紙幣 19
紛失 19
給食 19
緩める 19
美しかっ 19
背丈 19
腎臓 19
臆病 19
航海 19
航行 19
花嫁 19
苦情 19
落ち着け 19
装い 19
見聞 19
視力 19
計測 19
認知 19
認証 19
譲っ 19
負荷 19
転 19
追う 19
逃れる 19
逆らう 19
途上 19
途端 19
遅 19
運勢 19
遠回し 19
遮る 19
長@@ 19
除く 19
隠さ 19
集計 19
離陸 19
電球 19
頑丈 19
飛び@@ 19
香織 19
高々 19
高まっ 19
麗しい 19
１００ 19
１１ 19
２人 19
&amp; 18
8@@ 18
G@@ 18
IT 18
O@@ 18
c@@ 18
l@@ 18
r@@ 18
ありがと 18
ありったけ 18
いじめる 18
いちいち 18
いらっしゃる 18
うっとり 18
おっしゃっ 18
からかわ 18
がけ 18
げ@@ 18
こみ 18
さい 18
じじい 18
すぐれ 18
すげぇ 18
だらしない 18
ちがい 18
つなぐ 18
なかろう 18
なさっ 18
にくく 18
ぬ@@ 18
ぬれぎぬ 18
はっ 18
ひく 18
ひそひそ 18
ひらひら 18
ひんやり 18
びんた 18
ふく 18
ふらふら 18
ぷんぷん 18
ほしく 18
ほったらかし 18
ぽ@@ 18
まいり 18
まめ 18
みなさ 18
めまい 18
もつ 18
もの@@ 18
やか 18
やがれ 18
やりがい 18
やりとり 18
やり遂げる 18
よさ 18
らす 18
わたり 18
んな 18
アリ 18
イケメン 18
イナゴ 18
ウィ@@ 18
カスタマー 18
カビ 18
ギリシャ 18
クレ@@ 18
クレーム 18
ゲ 18
コンクリート 18
サイ 18
サー 18
ザー 18
セン@@ 18
ゾウ 18
チベット 18
チラシ 18
ッシュ 18
ツール 18
トロ@@ 18
ドン 18
ハイ@@ 18
バイ@@ 18
バッカ 18
バレンタイン 18
フロント 18
ブチ 18
ブラジル 18
ベランダ 18
モー@@ 18
モード 18
ヤバイ 18
ユーモア 18
ラッキー 18
ラブ 18
ランニング 18
リットル 18
リーグ 18
ルト 18
レモン 18
レーザー 18
ヲ 18
一流 18
三角 18
上位 18
上回っ 18
上部 18
両者 18
並び 18
中年 18
主題 18
乙女 18
予告 18
交え 18
今更 18
付き添っ 18
休@@ 18
会見 18
似合い 18
保有 18
信託 18
公金 18
共感 18
内外 18
再編 18
冷酷 18
分離 18
切除 18
制裁 18
前提 18
割り@@ 18
割合 18
劉 18
劣化 18
効く 18
勘 18
務 18
千里 18
半日 18
原文 18
取り上げ 18
受け@@ 18
受取 18
受注 18
口ぶり 18
叶える 18
司法 18
合コン 18
同い年 18
同期 18
同窓 18
名義 18
向かい合っ 18
告発 18
周波 18
善人 18
喋っ 18
地理 18
均等 18
埋める 18
報 18
増@@ 18
増殖 18
夏祭り 18
外れる 18
夜景 18
大して 18
大半 18
大海 18
奥深い 18
好感 18
好酸 18
姑 18
嫌悪 18
子猫 18
寝室 18
寸 18
専念 18
小売り 18
展望 18
師団 18
帰@@ 18
平@@ 18
平方 18
年下 18
度胸 18
弁償 18
式典 18
引き分け 18
引き継ぎ 18
引っ越す 18
当たら 18
当番 18
復旧 18
復興 18
微 18
応急 18
思い出さ 18
急行 18
怯え 18
恥じ 18
悔しかっ 18
悪者 18
憎しみ 18
懐 18
懐かしく 18
懲役 18
所在 18
手前 18
手口 18
手帳 18
手柄 18
打破 18
抜ける 18
持ち込み 18
持てる 18
指@@ 18
挟む 18
振ら 18
振り向い 18
振り回し 18
振る舞い 18
探査 18
推定 18
揺れ動い 18
揺れ動く 18
撃つ 18
操る 18
操業 18
放@@ 18
放棄 18
救援 18
教@@ 18
敷地 18
既存 18
旺盛 18
明ける 18
昼ごはん 18
昼休み 18
暗黒 18
有力 18
望ましい 18
朝鮮 18
未@@ 18
未熟 18
本文 18
染まっ 18
栞 18
概要 18
構っ 18
機種 18
欠かせ 18
殴り@@ 18
段落 18
殿 18
比 18
河 18
海辺 18
海面 18
消毒 18
滅亡 18
潔白 18
潜ん 18
無人 18
物件 18
独り 18
独創 18
独断 18
率い 18
理事 18
用紙 18
畜生 18
皮肉 18
知的 18
短所 18
硬く 18
空@@ 18
突き@@ 18
突き進む 18
窮屈 18
算出 18
素人 18
終日 18
組む 18
経路 18
縁談 18
肝臓 18
育ち 18
腹痛 18
自主 18
至るところ 18
艦 18
良好 18
花見 18
草花 18
荒い 18
荷馬 18
華僑 18
蘇州 18
蝶 18
表紙 18
装 18
言えよ 18
記述 18
誓っ 18
誘う 18
誤差 18
読み物 18
諸 18
負債 18
貰い 18
買い@@ 18
資材 18
賛同 18
賭け 18
贈っ 18
起動 18
転載 18
軽々しく 18
近づけ 18
近況 18
迫害 18
逃げ出し 18
造り 18
進出 18
遂げ 18
遊ば 18
過ぎ去っ 18
達者 18
遠大 18
遭わ 18
長野 18
開@@ 18
間柄 18
雑 18
難題 18
雷雨 18
電圧 18
面会 18
類似 18
風見 18
養成 18
馬車 18
高尚 18
高熱 18
2010 17
37 17
4@@ 17
800 17
O 17
a 17
g@@ 17
h@@ 17
w@@ 17
うかがっ 17
うるせー 17
おおむね 17
おこし 17
おしゃれ 17
おる 17
かかれ 17
かわら 17
がっしり 17
きせる 17
くっ 17
ぐるっ 17
こそ泥 17
こね 17
さらなる 17
しなやか 17
しびれ 17
じゃ@@ 17
ぜんぜん 17
そよ風 17
たけ 17
たつ 17
たゆま 17
ちゃ@@ 17
っつ 17
っぽ 17
てぇ 17
とらわれ 17
なき 17
なんざ 17
にっこり 17
にゃ 17
ぬいぐるみ 17
ばたばた 17
ばれ 17
ひき@@ 17
ひきだし 17
ひっ@@ 17
ひっきり 17
ぶつかる 17
またもや 17
まとい 17
まとっ 17
みつけ 17
むさぼる 17
めい 17
めいめい 17
やかん 17
やり口 17
ろうそく 17
ろっ 17
わり 17
アクション 17
インボイス 17
ゥ 17
オラ 17
カニ 17
カヌー 17
カー@@ 17
キュウリ 17
クリーニング 17
ケンカ 17
ゲート 17
コミマ 17
サイクリング 17
サーフィン 17
シフト 17
シューズ 17
ショート 17
シルク 17
シン@@ 17
シングル 17
シンデレラ 17
ジ 17
ジェ@@ 17
ジュ@@ 17
ジー 17
スゲー 17
セキュリティ 17
ソ 17
ソウル 17
ソロ 17
タッチ 17
ター@@ 17
ダンサー 17
チョウ 17
ップ 17
ティング 17
ディ 17
デジタル 17
データベース 17
トル@@ 17
ノー@@ 17
バン 17
パンチ 17
ヒント 17
ピクニック 17
フィギュア 17
フィードバック 17
フラ@@ 17
フライ 17
フロー 17
ブーム 17
プラチナ 17
プル 17
プロフィール 17
ベビー 17
ベンチ 17
ホワイト 17
マイ@@ 17
マイナス 17
マシ 17
メイド 17
ユニット 17
リハビリ 17
リハーサル 17
レイ 17
レンジ 17
レーニン 17
レール 17
ロー 17
ント 17
一人々々 17
一同 17
一身 17
下心 17
世帯 17
並み 17
久々 17
乗じ 17
乱れる 17
人家 17
人格 17
今期 17
付着 17
任意 17
伐採 17
住まい 17
使命 17
供する 17
侮辱 17
保っ 17
保留 17
保養 17
値下げ 17
催し 17
働け 17
兆し 17
先方 17
免除 17
入れよう 17
公然 17
共@@ 17
処刑 17
出資 17
分泌 17
初回 17
到底 17
削っ 17
前倒し 17
割@@ 17
励む 17
効か 17
勇猛 17
半端 17
南@@ 17
単@@ 17
厚生 17
取り出す 17
取り扱う 17
取り除い 17
受@@ 17
各級 17
合成 17
同性 17
同等 17
吐き出し 17
君子 17
哀れ 17
唱える 17
喋れる 17
囲ん 17
固める 17
境地 17
墓地 17
士気 17
大国 17
大木 17
婚姻 17
嫌う 17
嫌っ 17
子弟 17
安楽 17
実@@ 17
家電 17
容器 17
密輸 17
寝よう 17
導い 17
小板 17
屋外 17
崩し 17
差し支え 17
帰り道 17
平行 17
幹 17
幼なじみ 17
幼児 17
広@@ 17
広める 17
店頭 17
弁 17
引き上げ 17
当@@ 17
征服 17
待ち望ん 17
微笑ん 17
忍び 17
応える 17
応対 17
応答 17
恭しく 17
愛国 17
成@@ 17
成り行き 17
戦友 17
手渡し 17
打ち立て 17
払い戻し 17
技師 17
抑えつけ 17
抑圧 17
抱か 17
押し寄せ 17
担う 17
担ぐ 17
拝@@ 17
拡張 17
挟ん 17
挫折 17
振り返る 17
排斥 17
掛かり 17
採@@ 17
推し進め 17
推奨 17
提げ 17
揺れる 17
放つ 17
文物 17
新婚 17
旅費 17
日数 17
明@@ 17
暗号 17
更なる 17
最小 17
未満 17
札幌 17
来場 17
来客 17
来賓 17
染み 17
柔らか 17
柔道 17
業者 17
模型 17
横たわっ 17
欠く 17
止まり 17
正午 17
歩行 17
歯車 17
死@@ 17
氏名 17
気の毒 17
気迫 17
水害 17
水浸し 17
沸かし 17
治@@ 17
治ら 17
沿い 17
注ぐ 17
浴びる 17
海原 17
浸透 17
減@@ 17
準 17
溢れ 17
火@@ 17
無く 17
無用 17
焼酎 17
物静か 17
特技 17
生かし 17
異国 17
異性 17
発掘 17
発症 17
発車 17
登校 17
百姓 17
目覚まし 17
直 17
直さ 17
直前 17
眼前 17
着用 17
石灰 17
砲弾 17
破片 17
福利 17
秘め 17
種子 17
空腹 17
立案 17
端末 17
笑い声 17
笛 17
粉々 17
細心 17
組み立てる 17
経由 17
綾 17
緩ん 17
縁起 17
繊細 17
繰り上げ 17
老いぼれ 17
脈 17
舞う 17
艇 17
苦い 17
苦しめ 17
華やか 17
落伍 17
被る 17
補習 17
見せかけ 17
見覚え 17
見逃し 17
親族 17
触ら 17
触る 17
記号 17
説教 17
読 17
課程 17
調味 17
諦める 17
講じ 17
識別 17
谷川 17
負わ 17
貯水 17
軽べつ 17
辛かっ 17
農薬 17
近 17
近づか 17
迷う 17
追い出し 17
逆@@ 17
通関 17
連携 17
連邦 17
進路 17
運輸 17
遭遇 17
選出 17
郷 17
釈放 17
重@@ 17
重なっ 17
重複 17
野心 17
金魚 17
針金 17
鈍い 17
録画 17
間@@ 17
間接 17
闇 17
陽気 17
隅 17
青@@ 17
青少年 17
静 17
革靴 17
頭髪 17
題 17
顕微 17
願 17
飛躍 17
飾ら 17
飾る 17
騒動 17
骨董 17
黒@@ 17
Ｂ 17
00 16
あか抜け 16
あけ 16
いやー 16
うるさく 16
うるせぇ 16
えぇ 16
おまけ 16
かき氷 16
かけら 16
かねて 16
かんかん 16
きゅうす 16
こすっ 16
ことごとく 16
こやつ 16
さび 16
さらさ 16
しっ 16
しゃべら 16
しりごみ 16
すっごい 16
せん 16
そこそこ 16
たがら 16
たん 16
ちょうちん 16
つば 16
とげ 16
どんより 16
にらん 16
のう 16
はずれ 16
ひか 16
ひけらかす 16
ひな 16
びしょぬれ 16
びっしょり 16
ぶるぶる 16
へり 16
ぼうっと 16
ぼけ 16
まくり 16
みっ 16
むき出し 16
むけ 16
むちゃ 16
もうろう 16
もてなす 16
ゆく 16
よりどころ 16
らららららら 16
わい 16
アイ@@ 16
アプリケーション 16
アン 16
ウォーター 16
エステ 16
エン@@ 16
エンジニア 16
オオカミ 16
オス 16
カモ 16
カラス 16
キシ@@ 16
ギョーザ 16
クライアント 16
クリ@@ 16
グラフ 16
コイツ 16
コイン 16
サイコロ 16
サン 16
サングラス 16
ショ@@ 16
ジジイ 16
ジャンケン 16
スゴイ 16
スポット 16
ゼ 16
タン 16
チャンピオン 16
ドッキリ 16
ニュー@@ 16
ニンニク 16
ネイティブ 16
ネパール 16
バーカ 16
パ 16
パンフレット 16
パーツ 16
ファイト 16
フルーツ 16
ブロック 16
プラ@@ 16
プレーヤー 16
ボ 16
ポジティブ 16
マクロ 16
ミリ 16
メント 16
メーター 16
ランク 16
レシピ 16
レーダー 16
ワーク 16
ング 16
ンス 16
一挙 16
一覧 16
上層 16
下っ 16
下ら 16
下劣 16
乗り換える 16
予め 16
予習 16
五@@ 16
井 16
交歓 16
仲介 16
仲良し 16
会おう 16
伴い 16
伺う 16
余っ 16
作法 16
便所 16
促す 16
保た 16
修 16
倒れる 16
優子 16
全校 16
公社 16
兵隊 16
冤罪 16
冬休み 16
冷め 16
冷ややか 16
出れ 16
出展 16
出生 16
切に 16
利く 16
力強く 16
北@@ 16
卒 16
博し 16
占い 16
原本 16
厳し 16
収縮 16
取り合い 16
取り除か 16
受け止め 16
口元 16
召し上がっ 16
台無し 16
右@@ 16
各人 16
合同 16
同行 16
呪わ 16
味わう 16
唐 16
喜ばしい 16
図っ 16
固まっ 16
固執 16
執り行なう 16
執筆 16
基 16
基づく 16
基金 16
堪能 16
変革 16
多年 16
大水 16
太極 16
好物 16
好転 16
如何 16
始めよう 16
子犬 16
学識 16
定@@ 16
宛て 16
宜しい 16
寂しかっ 16
対抗 16
射 16
届 16
山登り 16
左目 16
常@@ 16
平生 16
広まっ 16
広島 16
庭園 16
延べ 16
建造 16
引きずり 16
引き出す 16
弱々しい 16
当局 16
後ろ姿 16
後任 16
後退 16
得点 16
心身 16
必須 16
忘れ物 16
思考 16
悩む 16
意向 16
愛顧 16
慣例 16
憂うつ 16
憂鬱 16
憤り 16
我先 16
手当たり 16
投げ出し 16
抜か 16
担保 16
拘留 16
招聘 16
拾い 16
持ちこたえ 16
持ち主 16
持続 16
授与 16
提携 16
支度 16
敗 16
教わっ 16
教示 16
散々 16
斬新 16
新華 16
施行 16
日用 16
早々 16
昇っ 16
明け方 16
暖か 16
暗@@ 16
書き直し 16
書留 16
朗読 16
朝@@ 16
朝ごはん 16
東西 16
松永 16
板@@ 16
根@@ 16
梅雨 16
植木 16
楽しめる 16
楽観 16
標本 16
欲求 16
正す 16
歯磨き 16
歴代 16
死傷 16
比例 16
気圧 16
水素 16
決着 16
没頭 16
泊り 16
泰山 16
流浪 16
深め 16
添削 16
清廉 16
減価 16
温厚 16
測っ 16
湯@@ 16
溺れ 16
滑る 16
漂う 16
漏らす 16
演出 16
潜水 16
激@@ 16
点灯 16
無くなっ 16
焼き@@ 16
焼肉 16
熟し 16
熱狂 16
狡猾 16
琴 16
生存 16
生成 16
生長 16
由貴恵 16
申しあげ 16
申し上げる 16
申し込む 16
町内 16
異議 16
発信 16
盗む 16
盗賊 16
相性 16
真珠 16
着陸 16
矯正 16
破裂 16
神秘 16
私心 16
移行 16
種まき 16
窒息 16
立ち寄っ 16
競走 16
簿 16
糖 16
納豆 16
紡績 16
細長い 16
結びつけ 16
統治 16
総額 16
編入 16
缶詰 16
罠 16
義理 16
習う 16
聡明 16
聴衆 16
背負う 16
胸元 16
脅し 16
脱出 16
脱穀 16
腸 16
舞っ 16
花@@ 16
葉月 16
蓄積 16
薄暗い 16
虫歯 16
行き届い 16
裕也 16
複製 16
覆う 16
見知ら 16
見落とし 16
見送っ 16
親しい 16
計り知れ 16
診療 16
証人 16
詰まる 16
誌 16
語る 16
読める 16
諸君 16
謀反 16
謝っ 16
議会 16
責める 16
貯蔵 16
買い入れ 16
赤み 16
踏まえ 16
踏み入れ 16
身の回り 16
辞 16
返せ 16
追いつい 16
逃がす 16
逃走 16
造詣 16
遺跡 16
配信 16
配分 16
醜い 16
金品 16
釣っ 16
鈴美 16
銃剣 16
鋼鉄 16
長男 16
開墾 16
開封 16
際立っ 16
隣人 16
雑貨 16
離せ 16
霊 16
霜 16
題材 16
風俗 16
風船 16
風雨 16
飛び込み 16
食らっ 16
首@@ 16
騒が 16
骨身 16
高地 16
高温 16
魅了 16
鶏肉 16
麺 16
麻 16
黄金色 16
3@@ 15
45 15
I 15
K@@ 15
URL 15
b@@ 15
y 15
y@@ 15
〔 15
〕 15
ああー 15
いた@@ 15
いとわ 15
いびき 15
いろ 15
うなり声 15
うぬぼれ 15
うわ 15
おお@@ 15
おかしな 15
おろし 15
かたくな 15
かねる 15
かぶる 15
げんか 15
こたえる 15
こだわる 15
しょ 15
しら 15
そい 15
たか 15
たこ 15
たたき@@ 15
たまえ 15
だます 15
だー 15
つか@@ 15
つまずい 15
つら 15
なじみ 15
ならし 15
にこにこ 15
ねらい 15
ねん 15
はっと 15
はやく 15
ふざける 15
ぶら下がっ 15
べから 15
ぼろ 15
まずまず 15
まばゆい 15
まぶた 15
みかん 15
みすみす 15
むら 15
めちゃめちゃ 15
やがて 15
よき 15
よら 15
ららら 15
われ 15
アク@@ 15
アシスタント 15
アタック 15
アップデート 15
アップロード 15
イモ 15
イル 15
インテリア 15
オランダ 15
オリジナル 15
オートバイ 15
カクテル 15
カラ@@ 15
カリ 15
ガー 15
キッチン 15
グマ 15
グランド 15
コネ 15
ゴールデン 15
サツマ 15
サー@@ 15
シェ@@ 15
シャトル 15
ススメ 15
スタンプ 15
ステップ 15
ストップ 15
ストレート 15
ストーリー 15
スーパーマーケット 15
ディナー 15
ニア 15
ノブ 15
ヒット 15
ビア 15
ビックリ 15
フラ 15
フリ 15
プライベート 15
ヘッジ 15
ボブ 15
ボロボロ 15
ポルノ 15
ミックス 15
ミツケタゾ 15
モン 15
ヤロー 15
ロッ@@ 15
ロング 15
ローラー 15
ワールド 15
ヵ月 15
一とおり 15
一塊 15
一層 15
一撃 15
三十 15
上り 15
上場 15
下さ 15
下部 15
不審 15
不当 15
両面 15
主導 15
主席 15
乗馬 15
了 15
人体 15
仏 15
仕え 15
仕上げる 15
令 15
仰ぐ 15
会@@ 15
伴っ 15
例年 15
便宜 15
係員 15
促し 15
俗 15
倹約 15
偽 15
傷つい 15
元どおり 15
内定 15
出よう 15
出国 15
判 15
前兆 15
前日 15
前野 15
功 15
千葉 15
即 15
即座 15
原始 15
友誼 15
反逆 15
取り入れる 15
受け取れ 15
味見 15
喋る 15
四季 15
在職 15
地雷 15
均衡 15
垂れ 15
塗料 15
売り出す 15
売春 15
夢@@ 15
大家 15
太@@ 15
失くし 15
奨学 15
奮い立た 15
好中 15
妨げる 15
孔子 15
季 15
学費 15
実証 15
家柄 15
寄り 15
寝台 15
尊厳 15
居@@ 15
巡査 15
差す 15
布地 15
平原 15
年じゅう 15
幾分 15
引きつける 15
引っ張ら 15
強かっ 15
弾け 15
当直 15
思い切り 15
急落 15
怪@@ 15
悲劇 15
情けない 15
惜しい 15
愛@@ 15
感服 15
感銘 15
慈善 15
懐@@ 15
房 15
所持 15
手ごわい 15
手厚い 15
打 15
打ち勝っ 15
打ち明ける 15
打ち立てる 15
抗体 15
折り 15
挟ま 15
捜し当て 15
捧げ 15
掛け@@ 15
探る 15
探検 15
揚げる 15
放浪 15
政 15
散髪 15
数千 15
敷き 15
文房 15
新車 15
旧@@ 15
旱魃 15
昆虫 15
明白 15
春風 15
暖房 15
暴く 15
更生 15
書画 15
替える 15
最短 15
朝焼け 15
木製 15
末@@ 15
末期 15
末端 15
本意 15
東@@ 15
根源 15
格 15
棺 15
楼 15
構う 15
模倣 15
欠損 15
歌え 15
止@@ 15
武@@ 15
歩調 15
毛糸 15
気がかり 15
気勢 15
水平 15
汚水 15
沈む 15
油田 15
泳げる 15
洗浄 15
流行っ 15
海底 15
海洋 15
消沈 15
混ぜる 15
清朝 15
渇い 15
済 15
湖水 15
溶解 15
滅多 15
濁っ 15
濃厚 15
濃度 15
火傷 15
火力 15
火花 15
点火 15
無口 15
焼ける 15
照らさ 15
熊 15
物寂しい 15
特色 15
甘んじ 15
生気 15
用水 15
田植え 15
甲板 15
留める 15
痰 15
発作 15
登記 15
白状 15
目立た 15
直り 15
相対 15
相応 15
真@@ 15
砂浜 15
砕け 15
砲 15
碁 15
確かめる 15
礼拝 15
神聖 15
移し 15
移る 15
税務 15
稼働 15
空っぽ 15
立ち上がる 15
立ち止まっ 15
立て続け 15
竜 15
笠 15
精算 15
紀律 15
紅 15
終生 15
絵本 15
緻密 15
老け 15
耕し 15
耕地 15
職権 15
肯定 15
育つ 15
背く 15
脱落 15
臨床 15
自発 15
自給 15
苗木 15
蓄える 15
薬局 15
虐待 15
融資 15
行き届き 15
行儀 15
装っ 15
褒める 15
見回し 15
規程 15
親父 15
解明 15
言い伝え 15
計器 15
訳す 15
詩歌 15
話しかける 15
負い 15
貧しく 15
貸借 15
購読 15
赤色 15
起伏 15
趣 15
路上 15
路地 15
踏み@@ 15
蹴っ 15
身動き 15
軽はずみ 15
辞儀 15
農具 15
辺ぴ 15
近道 15
追放 15
逃げろ 15
逆らっ 15
通話 15
造っ 15
進 15
道端 15
違え 15
適度 15
酔っぱらっ 15
重なり合っ 15
野@@ 15
野蛮 15
量っ 15
鉱山 15
鎖 15
間に合っ 15
間隔 15
闘っ 15
限りない 15
隔離 15
離れ離れ 15
雨水 15
項 15
飛び 15
飛び降り 15
養子 15
騒ぎ立てる 15
麻薬 15
鼻水 15
6@@ 14
ID 14
L@@ 14
No 14
an@@ 14
l 14
t 14
あくどい 14
あだ名 14
えれ 14
おおよそ 14
おでん 14
かき集め 14
かすん 14
かみ@@ 14
かん@@ 14
きりっ 14
ぎっしり 14
くくっ 14
くみ@@ 14
こじ@@ 14
こだわっ 14
こつ 14
ささやか 14
さらす 14
さー 14
しかりつけ 14
すぐさま 14
たこ焼き 14
たとえば 14
たろう 14
だだ 14
だるく 14
ちがう 14
ちょうだい 14
っつう 14
つけ@@ 14
つたない 14
つっ 14
つるし上げ 14
づける 14
づらい 14
てけ 14
てっきり 14
てっぺん 14
てりゃ 14
でこぼこ 14
どん 14
なおし 14
なさら 14
なめる 14
ぬかるみ 14
はあ 14
はり 14
ひき 14
ひっくり返し 14
ふさぐ 14
ふざけん 14
ふもと 14
ぶっ殺す 14
ぷ@@ 14
べ@@ 14
ほほえみ 14
ぽかぽか 14
まねる 14
まみれ 14
みせ 14
みなし 14
もたれ 14
ものすごい 14
やから 14
やさしい 14
やすみ 14
より@@ 14
れよ 14
ろく 14
わる 14
アイツ 14
アナリスト 14
アレ 14
アワ 14
アンテナ 14
アー@@ 14
イヤリング 14
インドネシア 14
エンド 14
オール 14
カブトムシ 14
キズ 14
キツネ 14
キレイ 14
キン 14
ギ 14
グル@@ 14
グー 14
コッチ 14
サンキュー 14
ショット 14
ジョ@@ 14
スムーズ 14
ゼリー 14
チャンネル 14
デザート 14
トーク 14
ナイーブ 14
ハイウェイ 14
ハンマー 14
バグ 14
バスケット 14
バリュー 14
パジャマ 14
ピンポン 14
ピー 14
ファースト 14
フェア 14
フォ@@ 14
ブル 14
ブレ@@ 14
プライス 14
ベ 14
ベアリング 14
ベタ 14
ペア 14
ホラー 14
ホルモン 14
ポット 14
マフラー 14
マー@@ 14
ムシ 14
メキシコ 14
メー@@ 14
モノ 14
ヤンキー 14
ユニーク 14
ラケット 14
リビング 14
ルー@@ 14
レコード 14
レンタカー 14
ワクワク 14
ワタシ 14
一々 14
一味 14
万能 14
上回る 14
下層 14
両目 14
中核 14
乗 14
乾かし 14
乾かす 14
交互 14
享受 14
亭主 14
今し方 14
仕切り 14
付か 14
付き@@ 14
休 14
伝 14
伝@@ 14
伝わり 14
伺え 14
余儀 14
値上げ 14
停滞 14
健やか 14
優位 14
先導 14
光り輝く 14
入り込ん 14
全滅 14
兼ね 14
再婚 14
処する 14
処女 14
出動 14
出港 14
分担 14
切り開く 14
列挙 14
刻ん 14
割い 14
劇団 14
力学 14
加@@ 14
励ます 14
効力 14
動かさ 14
勝 14
勝ち取っ 14
勧告 14
北方 14
卑劣 14
占拠 14
却下 14
原理 14
原野 14
厳守 14
厳禁 14
及ん 14
取り入る 14
取り立て 14
取り調べ 14
受け取ら 14
受給 14
叶う 14
各@@ 14
合致 14
名称 14
唆し 14
商い 14
嘔吐 14
在住 14
坊主 14
埋葬 14
執@@ 14
堅い 14
報いる 14
塩@@ 14
増す 14
増大 14
売れる 14
売店 14
変数 14
多彩 14
大橋 14
大河 14
大波 14
失望 14
奇怪 14
威力 14
婆 14
婚 14
媒体 14
字幕 14
学@@ 14
学部 14
安価 14
安値 14
官職 14
宛先 14
害虫 14
家財 14
封 14
小声 14
屋内 14
展 14
属し 14
履き 14
山奥 14
山形 14
崇拝 14
嵐 14
巻き上げ 14
市長 14
帰れる 14
平静 14
年々 14
座談 14
庶民 14
廃@@ 14
引き換え 14
引き起こさ 14
引っかかっ 14
張り上げ 14
強引 14
強風 14
弾@@ 14
役職 14
御座い 14
復讐 14
心得 14
心血 14
思いつい 14
思いつか 14
思い込ん 14
性的 14
恐ろしく 14
恥辱 14
悩まさ 14
悪名 14
悪徳 14
悪質 14
悪魔 14
感傷 14
感性 14
慈悲 14
憤慨 14
成熟 14
戦わ 14
戻さ 14
扇子 14
打@@ 14
抑制 14
投書 14
投機 14
抗 14
抜き@@ 14
抵当 14
拍子 14
指紋 14
掛け声 14
採っ 14
採掘 14
探っ 14
推移 14
換気 14
摂取 14
改札 14
敗@@ 14
敗れ 14
散らかっ 14
散文 14
敬服 14
敷か 14
敷設 14
文人 14
断わり 14
断定 14
新卒 14
新型 14
新婦 14
方言 14
旅人 14
旋回 14
旧暦 14
明治 14
映え 14
春@@ 14
普遍 14
晴らし 14
暗唱 14
暫定 14
書@@ 14
最寄り 14
有料 14
服@@ 14
望月 14
木々 14
東南 14
枝葉 14
校門 14
格差 14
梨 14
極 14
横目 14
欲望 14
殺 14
民兵 14
気さく 14
気体 14
気前 14
水族 14
水田 14
水稲 14
汚@@ 14
汚職 14
江西 14
法定 14
流れ@@ 14
浮つい 14
深める 14
渡@@ 14
満 14
満席 14
満面 14
演壇 14
瀕し 14
炭 14
無線 14
焦ら 14
煮る 14
片手 14
物産 14
特有 14
特産 14
現像 14
理津子 14
瓦 14
甘 14
異物 14
病室 14
発散 14
発酵 14
的確 14
盗み 14
目上 14
相@@ 14
眠 14
知事 14
破産 14
碑 14
社交 14
私立 14
秦 14
移さ 14
積載 14
立ち去る 14
立ち寄り 14
競馬 14
筆記 14
管轄 14
箱根 14
節操 14
精@@ 14
糊 14
糖尿 14
純 14
純真 14
素子 14
細部 14
結晶 14
結核 14
絞っ 14
統合 14
綿密 14
編む 14
置き場 14
耳元 14
聞き@@ 14
脱ぐ 14
臣 14
自国 14
自白 14
舎 14
舐め 14
色@@ 14
芯 14
花園 14
苦し 14
苦心 14
茫々 14
藍色 14
融合 14
街灯 14
裏面 14
襟 14
要る 14
見捨て 14
視聴 14
覚ます 14
託児 14
訳し 14
詰める 14
認定 14
誹謗 14
調和 14
貝 14
貧農 14
賢明 14
走行 14
起源 14
足手 14
足腰 14
路面 14
輸血 14
辛 14
辱め 14
込める 14
退治 14
逃し 14
逆さま 14
逆転 14
通さ 14
連想 14
過大 14
適任 14
適正 14
遭い 14
選 14
遺体 14
遺言 14
部室 14
郷土 14
郷里 14
配り 14
重ねる 14
金型 14
釣る 14
鉱物 14
鍛練 14
鎮圧 14
開示 14
間違える 14
降ろし 14
隔たり 14
障壁 14
離し 14
難癖 14
露店 14
静寂 14
音色 14
顕著 14
飲める 14
飼い犬 14
首脳 14
騙し 14
高騰 14
黄色い 14
１５ 14
18@@ 13
600 13
65 13
7@@ 13
DVD 13
J@@ 13
U 13
cm 13
n@@ 13
s@@ 13
≦ 13
❤ 13
あう 13
あがっ 13
あくび 13
あっ@@ 13
あて 13
あでやか 13
あの世 13
いっぺん 13
いわれ 13
うっとうしい 13
うなぎ 13
おやつ 13
かしこまり 13
かぶせ 13
かむ 13
かァ 13
がい 13
がたい 13
きまり 13
くじ 13
くず 13
くら@@ 13
くわ 13
ぐったり 13
こー 13
ごろごろ 13
さし@@ 13
さらば 13
ざま 13
しかた 13
しぐさ 13
しでかし 13
しとしと 13
じり 13
すこし 13
すこぶる 13
ずばり 13
せき 13
せれ 13
そん 13
ぞんざい 13
たいした 13
たたえ 13
たたえる 13
たたき 13
たてる 13
ちっちゃい 13
ちらちら 13
つかみ 13
つくっ 13
つり@@ 13
でかい 13
でっち上げる 13
とがめる 13
とっさ 13
とどまる 13
とぼけ 13
なくなり 13
なだめ 13
にわか雨 13
ねがい 13
びっしり 13
ふたり 13
ぶち@@ 13
ぶつかり 13
べる 13
ほんっと 13
まくる 13
まとまり 13
みだり 13
みっともない 13
むい 13
もた 13
もてあそぶ 13
もめ 13
やけ 13
やつれ 13
やり取り 13
ゆかり 13
ゆがん 13
ゆる@@ 13
よしみ 13
よだれ 13
わくわく 13
わさ 13
わび 13
アイディア 13
アイドル 13
アスファルト 13
アトラクション 13
アニ@@ 13
アー 13
イト 13
ウェブ 13
ウム 13
エイ@@ 13
オーナー 13
カキ 13
カン 13
ガード 13
キノコ 13
キャプテン 13
ギリギリ 13
クレーン 13
クール 13
グッズ 13
ケア 13
コスプレ 13
ゴミ箱 13
ゴメン 13
サマ 13
サマー 13
シス 13
シャイ 13
シャンプー 13
シンプル 13
シンポジウム 13
シー@@ 13
ジャム 13
ジョーク 13
ジン 13
スイミング 13
ストライキ 13
スプレー 13
センサー 13
ソーセージ 13
ゾ@@ 13
タンパク 13
チェックアウト 13
チャン 13
チャージ 13
ット@@ 13
ッパー 13
ツイン 13
ティッシュ 13
ディー 13
ドライヤー 13
ナット 13
ナンパ 13
ハイキング 13
ハト 13
ハム 13
ハレルヤ 13
ハンサム 13
ハンドル 13
バッ@@ 13
バット 13
バーン 13
パイ 13
パンパン 13
ヒヨコ 13
ビビっ 13
ピストル 13
ピッチャー 13
ファー 13
フィブリン 13
フン 13
ブラ@@ 13
プ 13
プレ@@ 13
ペン@@ 13
ポンド 13
マイク 13
マイクロ 13
メイク 13
メロディー 13
モテる 13
ヤギ 13
ユ 13
ライス 13
ラクダ 13
ラスト 13
リン@@ 13
リース 13
リーダーシップ 13
リード 13
レシート 13
レター 13
レバー 13
レン@@ 13
ロス 13
ロッカー 13
ロビー 13
ース 13
ータ 13
一見 13
一途 13
丁度 13
万全 13
下流 13
不乱 13
不断 13
並 13
中性 13
丸@@ 13
主権 13
予期 13
仏像 13
仕返し 13
付@@ 13
付加 13
休養 13
伝えよう 13
体@@ 13
何@@ 13
余暇 13
作り@@ 13
価 13
便器 13
保ち 13
修業 13
偏@@ 13
傀儡 13
傾ける 13
儀 13
儀式 13
優 13
優待 13
元来 13
先駆 13
入れ替え 13
入口 13
入浴 13
入隊 13
公定 13
兵@@ 13
内戦 13
凍結 13
出品 13
出迎え 13
切ない 13
切り抜け 13
切り替え 13
切り盛り 13
初恋 13
別人 13
前払い 13
力@@ 13
加熱 13
劣ら 13
助手 13
努める 13
勅使河原 13
動@@ 13
動力 13
動脈 13
務める 13
包む 13
化合 13
北側 13
半生 13
南部 13
卸売 13
反響 13
収@@ 13
収録 13
取り返し 13
受診 13
口紅 13
古今 13
句 13
召集 13
可愛かっ 13
合わす 13
吉報 13
同居 13
名人 13
商@@ 13
器官 13
噴上 13
回さ 13
図@@ 13
国会 13
圧縮 13
垢 13
埋蔵 13
城壁 13
増資 13
売りさばく 13
夕@@ 13
外来 13
夜空 13
夜食 13
夢見 13
失恋 13
奇@@ 13
奨め 13
始終 13
威厳 13
婿 13
完@@ 13
完遂 13
定 13
実務 13
実態 13
宮殿 13
容疑 13
寄@@ 13
射@@ 13
小石 13
尽きる 13
尾行 13
山並み 13
岡山 13
崇高 13
巨額 13
差異 13
師範 13
常務 13
常用 13
座@@ 13
康 13
弁証 13
引き渡し 13
引き継い 13
引き継ぐ 13
引け 13
弱音 13
強要 13
強豪 13
当方 13
彩 13
従属 13
心地 13
心地よく 13
志望 13
応変 13
快く 13
怠け者 13
急所 13
恨ん 13
悔やみ 13
悲しま 13
情緒 13
惜しく 13
惹か 13
愛好 13
慌てる 13
慰める 13
懸け 13
戒め 13
戦火 13
扇風 13
手動 13
打ち勝つ 13
打て 13
投げ@@ 13
投与 13
抱き 13
押し開け 13
拾う 13
振@@ 13
振るう 13
振込み 13
挽回 13
挿入 13
掘り@@ 13
掛@@ 13
探り 13
控除 13
描ける 13
携わっ 13
摩擦 13
改@@ 13
改築 13
攻略 13
救助 13
敵@@ 13
文語 13
断@@ 13
断る 13
新旧 13
施策 13
日夜 13
早かっ 13
旬 13
易しい 13
星@@ 13
暴@@ 13
更け 13
書棚 13
最良 13
有用 13
朝廷 13
本家 13
本性 13
条項 13
来れる 13
来訪 13
松@@ 13
染色 13
校庭 13
根気 13
検出 13
極度 13
様相 13
横丁 13
樹立 13
機材 13
欠い 13
欠勤 13
歓呼 13
歓声 13
毒@@ 13
民謡 13
気まぐれ 13
気兼ね 13
気絶 13
気質 13
気違い 13
水たまり 13
水滴 13
江戸 13
沈黙 13
没落 13
沿海 13
法@@ 13
洞窟 13
活 13
流@@ 13
浮@@ 13
海軍 13
浸っ 13
淡い 13
混じっ 13
減り 13
満載 13
滞貨 13
演習 13
漫才 13
無くし 13
焼きそば 13
熟睡 13
熱情 13
燃焼 13
狙い 13
猟師 13
現物 13
生まれ育っ 13
申し付け 13
疎通 13
疑わ 13
発熱 13
目がけ 13
目先 13
目前 13
目安 13
直せ 13
直感 13
直線 13
真摯 13
眼中 13
着手 13
短@@ 13
砲火 13
磁器 13
磁気 13
社債 13
神話 13
積み重ね 13
突っ@@ 13
立体 13
竣工 13
箋 13
簡素 13
粒子 13
粗悪 13
粘膜 13
精進 13
精鋭 13
細やか 13
絞る 13
線路 13
緩やか 13
罪名 13
罪状 13
考えれ 13
聞 13
聞き取り 13
職種 13
肥沃 13
脱水 13
脳裏 13
腐り 13
膨らん 13
自家 13
自衛 13
致命 13
芸人 13
若@@ 13
茶@@ 13
荷車 13
蒸発 13
薄@@ 13
薬@@ 13
蛙 13
衰える 13
補佐 13
襲撃 13
西@@ 13
要り 13
見かける 13
見当たら 13
見抜い 13
見抜く 13
見習う 13
親指 13
解き 13
解り 13
言い争っ 13
言い分 13
言動 13
評論 13
詰まら 13
詰まり 13
調印 13
談 13
談笑 13
論点 13
議員 13
譲ら 13
譲り 13
象牙 13
貸付 13
賄賂 13
賑やか 13
賜り 13
賞金 13
赴い 13
足@@ 13
跡形 13
踏襲 13
転び 13
転倒 13
辞職 13
農産 13
近づき 13
近日 13
迫ら 13
迷信 13
追い 13
逃す 13
通@@ 13
連@@ 13
遊べ 13
遍 13
過分 13
過酷 13
遣わ 13
遮っ 13
遮ら 13
遮断 13
選別 13
部員 13
酢 13
酸っぱく 13
釣合 13
鉄鋼 13
長持ち 13
閉じる 13
開幕 13
阿 13
陥れる 13
陳 13
陶器 13
隆盛 13
雑菌 13
需給 13
青白い 13
面し 13
面談 13
響い 13
頂点 13
順位 13
頭上 13
顔面 13
風刺 13
風采 13
食え 13
食用 13
養う 13
饼 13
首相 13
駆動 13
魚釣り 13
鮮明 13
黒字 13
１人 13
１２ 13
2013 12
20@@ 12
32 12
9@@ 12
FAX 12
H 12
Web 12
en@@ 12
er@@ 12
m 12
o 12
々しい 12
あご 12
あちらこちら 12
あら@@ 12
ありさま 12
あんま 12
うま 12
えろ 12
おごっ 12
おごり 12
おしっこ 12
おっしゃい 12
おーい 12
お洒落 12
お袋 12
かえり 12
かげん 12
かっか 12
かぶり 12
かまい 12
かみ 12
がき 12
きき 12
くそっ 12
くり 12
けん 12
げんこつ 12
こども 12
この頃 12
こりゃあ 12
ごとし 12
ごま 12
さほど 12
さんざん 12
ざっくばらん 12
ざらざら 12
しかる 12
しし 12
しとやか 12
しみ@@ 12
しゃ 12
しょ@@ 12
しよっ 12
すき焼き 12
すそ 12
すっごく 12
すり 12
そり 12
たいまつ 12
たき 12
たた@@ 12
ただ@@ 12
たどっ 12
たま@@ 12
たれ 12
ちっとも 12
つえ 12
つくり 12
つなぎ 12
つぶれ 12
つま先 12
つや 12
とかく 12
とこしえ 12
なんぞ 12
にわか 12
ぬらし 12
のぼせ 12
はぁ 12
はたらく 12
はつらつ 12
ばったり 12
ばり 12
ばん 12
ひいき 12
ひと時 12
ひねくれ 12
ほうだい 12
ほとり 12
ほんとう 12
まくら 12
まっしぐら 12
みなぎっ 12
めっちゃ 12
めれ 12
めん 12
もうける 12
もや 12
やきもき 12
やっつける 12
らい 12
らっ 12
らん 12
わあ 12
わす 12
わだかまり 12
わめい 12
アキ 12
アフター 12
アレルゲン 12
アンズ 12
アーチ 12
ィ@@ 12
イオン 12
イク 12
イチゴ 12
ウィーク 12
ウン@@ 12
エジプト 12
オシャレ 12
カリ@@ 12
ガイドライン 12
ガム 12
ガン@@ 12
キャット 12
キャベツ 12
キログラム 12
ギフト 12
ギャップ 12
クター 12
クーポン 12
グラウンド 12
ケー@@ 12
コンサルタント 12
コンセプト 12
コンテナ 12
コンペ 12
ゴマ 12
サイド 12
サカキ 12
サラリーマン 12
シドニー 12
シナリオ 12
シン 12
ジャスミン 12
ジャンプ 12
スケッチ 12
スノーボード 12
スリップ 12
スロー 12
セル 12
ターン 12
チャート 12
チョ@@ 12
テレ@@ 12
テロ 12
テンポ 12
ディスク 12
デザイナー 12
トイレット 12
トコ 12
トラ@@ 12
トリック 12
トレーラー 12
ドラ@@ 12
ドライ 12
ナイス 12
ニュー 12
ニンジン 12
ノン 12
ハナコ 12
ハリウッド 12
ハン@@ 12
バケツ 12
バルブ 12
バース 12
パック 12
パッケージ 12
パフェ 12
パン@@ 12
ヒール 12
ピアス 12
ファイ@@ 12
ファン@@ 12
フィクション 12
フィルター 12
フェイス 12
フォルダ 12
フレーズ 12
ブリッジ 12
プラント 12
プロレタリア 12
ヘルパー 12
ボウル 12
ボン 12
マシン 12
ミー 12
メス 12
モン@@ 12
リス 12
リレー 12
レイアウト 12
レッ@@ 12
ヴァ@@ 12
ーっ 12
一大 12
一足 12
下る 12
下座 12
下等 12
不純 12
中立 12
乗用 12
乱す 12
交わす 12
人的 12
人質 12
人道 12
仏教 12
仕入 12
他郷 12
仮定 12
仮面 12
件数 12
休学 12
会食 12
低@@ 12
住人 12
体面 12
何人 12
余す 12
作@@ 12
作り出し 12
作男 12
作詞 12
信 12
信者 12
借入 12
倫理 12
債券 12
傷@@ 12
傷跡 12
働ける 12
兆候 12
先々 12
入 12
公募 12
公安 12
内在 12
凝固 12
処せ 12
出かけよう 12
出くわし 12
出土 12
出来れ 12
切@@ 12
切り替える 12
切実 12
利@@ 12
制止 12
刺さっ 12
刻苦 12
加盟 12
動乱 12
動詞 12
勝る 12
募金 12
包帯 12
北米 12
北風 12
匪賊 12
十字 12
半額 12
単独 12
危うく 12
危害 12
厚意 12
去り 12
双 12
取り消す 12
取り除き 12
口頭 12
可 12
同社 12
同胞 12
同郷 12
名目 12
吸い@@ 12
吹き出し 12
告知 12
周知 12
命懸け 12
品行 12
唐辛子 12
善意 12
噛ま 12
四角 12
囲い 12
在籍 12
地勢 12
地質 12
型@@ 12
堅固 12
堅持 12
報わ 12
塗ら 12
壮観 12
売国 12
夕べ 12
外人 12
多め 12
多量 12
大局 12
大志 12
好き嫌い 12
妊婦 12
妙@@ 12
始 12
始業 12
姪 12
子豚 12
字典 12
孝行 12
孤児 12
学院 12
定食 12
実況 12
客@@ 12
密@@ 12
対@@ 12
小さ 12
小児 12
小娘 12
小指 12
少なかっ 12
屈辱 12
山岸 12
山梨 12
布告 12
常軌 12
広め 12
延ばす 12
引き上げる 12
強奪 12
弾ける 12
当て@@ 12
彫っ 12
役立た 12
役立ち 12
往事 12
従兄弟 12
心当たり 12
忍耐 12
思いきり 12
思案 12
怠け 12
性別 12
恩恵 12
息吹 12
恵 12
悠々 12
惑わす 12
惜しむ 12
惨め 12
愚弄 12
慣習 12
成し 12
成し遂げ 12
成年 12
所存 12
手放し 12
払え 12
投@@ 12
抜け出す 12
抜擢 12
押さえる 12
押し寄せる 12
拭い 12
持ち合わせ 12
捉え 12
捜索 12
捧げる 12
捨て@@ 12
捺印 12
掘り 12
採点 12
接着 12
控える 12
提起 12
握ら 12
摩@@ 12
摩家 12
攪乱 12
放牧 12
散り散り 12
新作 12
新品 12
旋盤 12
日取り 12
旧友 12
明示 12
春秋 12
是正 12
景 12
曲線 12
曲芸 12
書き換え 12
書ける 12
書簡 12
有し 12
朗らか 12
望 12
朝日 12
未払い 12
村人 12
来社 12
杭 12
桁 12
桂林 12
検品 12
極@@ 12
極悪 12
模索 12
樹脂 12
欠乏 12
次元 12
歌わ 12
止めろ 12
止ん 12
正し 12
正統 12
歩き回っ 12
歯@@ 12
母@@ 12
母国 12
毒性 12
民@@ 12
気晴らし 12
気管 12
水源 12
水漏れ 12
水野 12
汽笛 12
河川 12
治め 12
治水 12
泣け 12
洋@@ 12
洞穴 12
活@@ 12
流失 12
浅く 12
浮かべる 12
淡水 12
混@@ 12
温@@ 12
温和 12
湯飲み 12
溢れる 12
滅@@ 12
滑ら 12
滑走 12
滔々 12
滞り 12
漁師 12
焦る 12
焦点 12
煙突 12
照りつけ 12
特典 12
玄人 12
率先 12
玉美 12
現わし 12
生前 12
生殖 12
産まれ 12
産む 12
甲斐 12
盛り 12
監獄 12
直通 12
盾 12
真っ先 12
真っ直ぐ 12
真夏 12
眼科 12
着せる 12
知 12
短編 12
石鹸 12
破滅 12
硬化 12
碗 12
確率 12
磁石 12
祝福 12
私服 12
移り変わり 12
移住 12
種目 12
稼動 12
積み上げる 12
空席 12
空手 12
空調 12
空論 12
立@@ 12
立ち上げ 12
立ち向かう 12
立ち昇る 12
立方 12
筒 12
管制 12
節句 12
簡易 12
簡略 12
粉砕 12
精製 12
紐 12
終われ 12
結成 12
総@@ 12
緒 12
緩め 12
縫っ 12
繁盛 12
繊 12
繋ぎ 12
織り 12
罪人 12
美@@ 12
羨ましく 12
習性 12
考察 12
聴覚 12
肖像 12
背広 12
胸中 12
腫 12
腰痛 12
腹筋 12
臨機 12
自任 12
自在 12
臭 12
船積み 12
苦 12
苦しむ 12
茫然 12
落札 12
蒸留 12
虚偽 12
血@@ 12
血の気 12
行程 12
行軍 12
裏庭 12
要員 12
見なさ 12
見分ける 12
見合わせ 12
見送る 12
言い逃れ 12
誤 12
読み@@ 12
課外 12
請け負う 12
講堂 12
譲渡 12
護送 12
貰え 12
貴殿 12
賊 12
贈り 12
赤旗 12
起 12
越 12
趙 12
足りる 12
足労 12
踏みつけ 12
躊躇 12
軍備 12
転移 12
軽快 12
迎合 12
近づける 12
追いつく 12
追いつけ 12
追試 12
退場 12
退学 12
送り状 12
送迎 12
逃げよう 12
逃げ出す 12
逆巻く 12
造る 12
逢い 12
過ごさ 12
過労 12
遠足 12
適合 12
遺憾 12
邪悪 12
配っ 12
重症 12
野原 12
野獣 12
野良仕事 12
金庫 12
釘 12
鉄砲 12
鉱石 12
鍼 12
長編 12
長靴 12
間近 12
関わり 12
闘志 12
限りなく 12
限度 12
陣営 12
陥れ 12
陳列 12
陶芸 12
隅々 12
随時 12
隙 12
集い 12
集約 12
雑然 12
雑用 12
難民 12
雲南 12
電 12
音@@ 12
頬 12
頭部 12
頼ら 12
顎 12
食い@@ 12
飾りつけ 12
養殖 12
香 12
香水 12
駐在 12
騒ぐ 12
高利 12
高圧 12
魔 12
魔王 12
鼓動 12
鼓舞 12
1500 11
1960 11
29 11
33 11
48 11
AAA 11
E@@ 11
JOJO 11
Y@@ 11
p@@ 11
~ 11
あずま 11
あだ 11
あふれ出る 11
あめ 11
いかがわしい 11
いかだ 11
いちばん 11
うけ 11
うちわ 11
うつ@@ 11
おんぶ 11
かぁ 11
かあ 11
かかわり 11
かがめ 11
かぎり 11
かしく 11
かる 11
きけ 11
くたくた 11
くつろい 11
くむ 11
けり 11
こく 11
こむ 11
こんばんは 11
ごちゃごちゃ 11
さらっ 11
しつこく 11
しまわ 11
しみる 11
しょうゆ 11
しり 11
じゅうたん 11
すくすく 11
すっくと 11
すっぽり 11
すてん 11
すばらしく 11
すりゃ 11
ずっしり 11
ずんぐり 11
せいろう 11
そそり立っ 11
そびえ立っ 11
たくましく 11
たくらみ 11
たとえる 11
たどる 11
だって 11
だるい 11
つかさどる 11
つき@@ 11
つじつま 11
つらかっ 11
とがめ 11
とたん 11
どい 11
どのみち 11
なだらか 11
なまぐさい 11
ねね 11
のぞい 11
ののしる 11
はいり 11
はしご 11
はだし 11
ばっ 11
ぱらぱら 11
ひっくり返っ 11
びる 11
ぴ@@ 11
ふら 11
ふり@@ 11
ふるまう 11
ふわふわ 11
ぶた 11
ぶどう 11
へぇ 11
へん 11
ぺ@@ 11
ほえる 11
ほし 11
ほっそり 11
ほほえん 11
ほめ 11
ほー 11
まん 11
みずみずしい 11
みだら 11
むっと 11
やった 11
ゆで 11
よろよろ 11
る@@ 11
ろ@@ 11
んと 11
アクセル 11
アプリ 11
アルファベット 11
アンド 11
アート 11
イタチ 11
インター@@ 11
ウォーキング 11
ウール 11
エプロン 11
オファー 11
オペラ 11
オヤジ 11
オルガン 11
オーボエ 11
カス 11
カネ 11
カメラマン 11
カレンダー 11
カンボジア 11
クス 11
クマ 11
クラシック 11
クリア 11
クローゼット 11
クーラー 11
コマーシャル 11
コンテンツ 11
サム 11
サラサラ 11
サーバ 11
シャッター 11
シーツ 11
ジャンル 11
ジーンズ 11
スカイ 11
スキャン 11
スタジオ 11
スピ@@ 11
スペル 11
スリー 11
ズム 11
セー@@ 11
ソファ 11
ソフトボール 11
ソーシャル 11
タイル 11
タワー 11
タール 11
ダック 11
チッ 11
チビ 11
チャー 11
チャーハン 11
チョーク 11
チン@@ 11
テクニック 11
トル 11
トー@@ 11
トースト 11
トーン 11
ノズル 11
ハズ 11
バジル 11
パニック 11
ヒト 11
ビスケット 11
フットボール 11
フルート 11
プリンター 11
プレート 11
プロダクト 11
ヘアー 11
ヘイ 11
ペ 11
ホウレン 11
ホン@@ 11
ポ 11
ポストカード 11
ポン 11
マイル 11
マジック 11
マスコット 11
マスト 11
ミクロ 11
ミシン 11
ムカつい 11
メン@@ 11
モノ@@ 11
モール 11
ユー 11
ユーモラス 11
ヨ 11
ヨガ 11
リセット 11
レス 11
ロマンチック 11
ローレライ 11
ワイシャツ 11
ワード 11
ヴィ@@ 11
一律 11
下さり 11
不可 11
不屈 11
並行 11
中世 11
中腹 11
丼 11
乗せる 11
乗り場 11
亀裂 11
予言 11
予選 11
交代 11
京 11
人命 11
人選 11
今@@ 11
仕方なく 11
付き添い 11
付けろ 11
企ん 11
伏せ 11
伝わら 11
何色 11
余@@ 11
作柄 11
使い@@ 11
侍 11
供 11
供述 11
保@@ 11
信服 11
修練 11
倉 11
値上がり 11
偽善 11
傑作 11
備品 11
優しかっ 11
光り 11
光学 11
党派 11
全局 11
公用 11
兵役 11
円高 11
再@@ 11
再建 11
冠 11
冷える 11
凍っ 11
切り開い 11
刈る 11
利い 11
利子 11
利点 11
前例 11
力仕事 11
加わる 11
募る 11
匹敵 11
卑しい 11
南向き 11
単一 11
単球 11
博多 11
占っ 11
危惧 11
原作 11
厳正 11
反発 11
取り上げる 11
受け持っ 11
受け渡し 11
受理 11
叙述 11
古本 11
可哀想 11
叱責 11
名づけ 11
名利 11
吐か 11
吐き 11
周@@ 11
和やか 11
唱え 11
商法 11
商談 11
問い詰め 11
回線 11
因果 11
団らん 11
図形 11
国交 11
園@@ 11
土匪 11
土台 11
土砂 11
在@@ 11
執り@@ 11
堆積 11
塑像 11
増 11
増水 11
声楽 11
変えよう 11
夏@@ 11
外界 11
外資 11
多角 11
大便 11
大股 11
奏@@ 11
威信 11
子羊 11
学べ 11
守@@ 11
定着 11
定規 11
実権 11
実直 11
宣告 11
害毒 11
家出 11
容姿 11
宿@@ 11
寄せ集め 11
富山 11
富貴 11
寝返り 11
審理 11
寸前 11
寺院 11
対比 11
導か 11
小林 11
屈@@ 11
履く 11
山本 11
岩@@ 11
巡り 11
工具 11
巨@@ 11
帆 11
常々 11
干@@ 11
年始 11
底@@ 11
店内 11
度重なる 11
座れ 11
延@@ 11
弄する 11
引き取っ 11
引き取る 11
引っかかる 11
強気 11
弾薬 11
当てはまる 11
待ち@@ 11
後ずさり 11
後回し 11
御@@ 11
微笑 11
心行く 11
志願 11
忠誠 11
快@@ 11
念頭 11
怠っ 11
惜しみ 11
態 11
慌ただしく 11
慢性 11
憎む 11
憶え 11
懐かし 11
懐中 11
戦乱 11
手すり 11
手だて 11
手抜かり 11
手続 11
打ち解け 11
承っ 11
投合 11
折り@@ 11
折る 11
抜け出し 11
抱える 11
抱き@@ 11
押し付け 11
抽選 11
持ち上げる 11
指令 11
排気 11
採択 11
探@@ 11
接合 11
描け 11
換える 11
換金 11
援護 11
揺り動かし 11
搭載 11
搾@@ 11
摘発 11
支@@ 11
支柱 11
支社 11
改定 11
攻め落とし 11
放映 11
放火 11
故 11
故宮 11
救命 11
散@@ 11
散策 11
敬虔 11
数々 11
敵陣 11
文壇 11
文才 11
断わる 11
新任 11
新疆 11
新郎 11
方角 11
旅程 11
既@@ 11
日報 11
昆布 11
昇格 11
明瞭 11
易い 11
是 11
時価 11
時速 11
景品 11
晴れ晴れ 11
暗証 11
暮れる 11
暴れ 11
曜日 11
有る 11
望遠 11
朝っぱら 11
木綿 11
未定 11
本名 11
李白 11
村落 11
松本 11
果 11
根元 11
格闘 11
梅干し 11
槍 11
橋本 11
櫛 11
欧州 11
欧米 11
武漢 11
歩ける 11
歩哨 11
毅然 11
気付き 11
水増し 11
水彩 11
水門 11
治せ 11
治まっ 11
波@@ 11
波止場 11
注釈 11
洋々 11
洋楽 11
流入 11
浜辺 11
消さ 11
混ぜ@@ 11
淹れ 11
清新 11
清聴 11
減速 11
渡さ 11
渡せ 11
渦 11
渦巻き 11
温 11
温まる 11
温める 11
満々 11
溜まっ 11
溶かし 11
漏洩 11
漢@@ 11
激烈 11
瀬戸際 11
無力 11
無名 11
無能 11
無論 11
焼 11
焼却 11
照合 11
照射 11
燃え盛る 11
片@@ 11
物流 11
猛 11
献血 11
現行 11
甚だしい 11
生やし 11
産み 11
産地 11
疑わしい 11
症候 11
痕跡 11
痛めつけ 11
盛り上がり 11
直後 11
相撲 11
看病 11
眠気 11
眼帯 11
着席 11
着弾 11
瞳 11
知名 11
知覚 11
短気 11
砂@@ 11
祭日 11
私情 11
私用 11
秋篠 11
秋風 11
稼ぎ 11
積み 11
空欄 11
空軍 11
突入 11
立ちこめる 11
節電 11
粗捜し 11
系列 11
納税 11
紙くず 11
細め 11
組み 11
経緯 11
絶 11
綱 11
編纂 11
縮める 11
繋がり 11
繕っ 11
繭 11
義@@ 11
耐久 11
耳障り 11
联合 11
聴か 11
肝っ玉 11
肺胞 11
背@@ 11
腕力 11
腹黒い 11
自習 11
臭く 11
至ら 11
至り 11
興 11
舞い上がっ 11
良さ 11
艱難 11
色合い 11
苦悩 11
英明 11
草木 11
草稿 11
荷造り 11
菊 11
著しい 11
薄切り 11
薄情 11
薬草 11
蛇口 11
蛍光 11
衆 11
衣類 11
表われ 11
袖 11
裕 11
補強 11
褒美 11
西側 11
西部 11
見せろ 11
見合っ 11
見苦しい 11
視覚 11
覚める 11
言@@ 11
言い争い 11
言行 11
計る 11
託し 11
証言 11
試用 11
詩文 11
誤字 11
調合 11
論断 11
論述 11
豪雨 11
貫い 11
買@@ 11
賃貸 11
走り回っ 11
足す 11
跳ん 11
踏ま 11
踏み外し 11
身の程 11
軟らかく 11
転がっ 11
転がり落ち 11
転覆 11
軽視 11
轢か 11
辛苦 11
返る 11
返還 11
追いかける 11
追撃 11
送れる 11
途絶え 11
通り過ぎる 11
造ら 11
連なっ 11
進呈 11
進攻 11
逸し 11
過ごせる 11
道筋 11
違和 11
遣う 11
酵素 11
酸性 11
重傷 11
重慶 11
量産 11
鉄@@ 11
閉じこもっ 11
開業 11
陰気 11
陸 11
隠蔽 11
雑@@ 11
離職 11
電化 11
電柱 11
露天 11
静まり返っ 11
音響 11
音頭 11
頑強 11
額面 11
願え 11
風情 11
飛び上がっ 11
食らわし 11
食らわす 11
飼料 11
飾り気 11
養生 11
養育 11
館内 11
騒々しい 11
高まり 11
高原 11
高官 11
黄金 11
黒ずん 11
黒雲 11
黙れ 11
鼻血 11
＋ 11
１@@ 11
002 10
120 10
1200 10
1980 10
2007 10
250 10
26 10
38 10
4000 10
; 10
CC 10
FREEZE 10
NK 10
OK 10
PC 10
R 10
Y 10
d 10
h 10
ng@@ 10
r 10
zh@@ 10
℃ 10
あこがれ 10
あまねく 10
ありゃあ 10
いえる 10
いたたまれ 10
いでたち 10
いり 10
いん 10
うかつ 10
うつつ 10
ええと 10
えらい 10
おおっぴら 10
おし 10
おずおず 10
おもい 10
お下げ 10
お好み焼き 10
かか 10
かかせる 10
かじ 10
かなた 10
からから 10
かわ@@ 10
かわいかっ 10
かわいく 10
か国 10
きょろきょろ 10
きらびやか 10
きらめく 10
きれる 10
くさ 10
くしゃみ 10
くそったれ 10
くたびれ 10
くっ@@ 10
くるくる 10
くるっ 10
けろ 10
こずえ 10
こと@@ 10
ことわざ 10
こねる 10
こぶ 10
ささ 10
さし込ん 10
さておき 10
さながら 10
しまおう 10
しめ 10
じか 10
じゃう 10
じゃがいも 10
じろじろ 10
すく 10
すごかっ 10
すっ@@ 10
すなわち 10
すれすれ 10
そびえ 10
たぐい 10
たちどころ 10
たまり 10
たんぱく 10
だるま 10
ちび 10
ちゃおう 10
ちょ@@ 10
ちょろい 10
つかま 10
つなが 10
つながら 10
つぶ@@ 10
つぶさに 10
つるし 10
てのひら 10
てめえ 10
でーす 10
とやかく 10
なおさら 10
なおす 10
なにとぞ 10
なになに 10
にゃあ 10
ねじ@@ 10
のろのろ 10
はがき 10
はまる 10
ばい 10
ばつ 10
ぱ@@ 10
ひまわり 10
ぶちまける 10
ぶつから 10
べつ 10
ほうり出し 10
ぼう 10
ぼっち 10
ぼら 10
ましい 10
まじ 10
まばたき 10
みじん 10
みやげ 10
むずむず 10
めくっ 10
めし 10
めろ 10
もい 10
もう@@ 10
もて 10
もとより 10
やおや 10
やかましく 10
やすかっ 10
やせこけ 10
やむなく 10
ゆがめ 10
ゆで卵 10
よこしま 10
よっしゃ 10
よもやま話 10
わめき立てる 10
アイ 10
アシ 10
アナ@@ 10
アナウンサー 10
アナタ 10
アメリカン 10
アラビア 10
イヤ 10
イルカ 10
インフレ 10
ウォ@@ 10
エク@@ 10
エニ 10
エリート 10
エロ 10
エンジェル 10
オリ@@ 10
オークション 10
オーバー@@ 10
カイ 10
カギ 10
カッ@@ 10
カッター 10
カトリック 10
カ国 10
ガイドブック 10
ガタン 10
ガールフレンド 10
キュ@@ 10
キラ 10
キレ 10
クイズ 10
クジラ 10
クッション 10
グーグー 10
ゲージ 10
コア 10
コオロギ 10
コミ@@ 10
コミュニケ 10
コンセント 10
コンビニエンス 10
コーン 10
ゴキブリ 10
ゴー@@ 10
サックス 10
サンダル 10
サーカス 10
シア 10
スイス 10
スタジアム 10
スピーカー 10
スリッパ 10
ズレ 10
セクション 10
セラー 10
ゾ 10
タイ@@ 10
タル 10
タン@@ 10
ダイ@@ 10
ダイジェスト 10
チャ 10
チュー 10
ック@@ 10
ツル 10
ツー 10
ティー@@ 10
テン@@ 10
テー@@ 10
テーション 10
デッキ 10
トリー 10
トレー@@ 10
トンボ 10
ドリンク 10
ドント 10
ドーム 10
ナス 10
ナン@@ 10
ニック 10
ニャ@@ 10
ニング 10
ニート 10
ネガティブ 10
ノリ 10
ハッキリ 10
ハマっ 10
ハー@@ 10
バイオ 10
バドミントン 10
バリ 10
バルコニー 10
バーゲン 10
パイナップル 10
パッ 10
パレード 10
ビッグ 10
ビデオテープ 10
ビュ@@ 10
ビン 10
ピー@@ 10
ピーク 10
ピーナッツ 10
ファシスト 10
ファスナー 10
フライパン 10
フロア 10
ブッ 10
プライバシー 10
プリンセス 10
プロモーション 10
ヘリコプター 10
ヘルメット 10
ホン 10
ポート 10
マウス 10
マッ@@ 10
ミッション 10
ミニ 10
メジャー 10
メロン 10
メー 10
モンゴル 10
ヨン 10
ラッシュ 10
ラバ 10
ラー@@ 10
リサイクル 10
リスニング 10
リゾート 10
ルド 10
ルーズ 10
レン 10
ワーワー 10
ーい 10
一休み 10
一眠り 10
万引き 10
万歳 10
上限 10
上陸 10
下降 10
不滅 10
両立 10
両腕 10
並々 10
中等 10
中級 10
丸い 10
乗@@ 10
乗り切っ 10
乗れる 10
乗務 10
乳製 10
乾く 10
事跡 10
二@@ 10
亜 10
亡命 10
仁@@ 10
今時 10
仕事場 10
伝来 10
低かっ 10
低俗 10
住 10
作風 10
佳@@ 10
使い道 10
便@@ 10
俗@@ 10
信@@ 10
借@@ 10
借用 10
停留 10
偽造 10
傷つき 10
傾@@ 10
僧 10
優勢 10
元々 10
元素 10
先住 10
先入 10
免じ 10
免れる 10
党内 10
入り組ん 10
入部 10
八つ当たり 10
内政 10
内輪 10
冷たかっ 10
冷淡 10
凍@@ 10
凝らし 10
出し@@ 10
出向い 10
出掛ける 10
出来上がっ 10
出没 10
分かれる 10
刊 10
初日の出 10
初歩 10
刺繍 10
前触れ 10
前髪 10
創始 10
助力 10
助成 10
励み 10
労力 10
効い 10
勉学 10
動悸 10
勝てる 10
勲章 10
包括 10
化膿 10
千@@ 10
半島 10
卑怯 10
協同 10
危急 10
危難 10
即死 10
去勢 10
参@@ 10
反する 10
収まっ 10
収納 10
取り外し 10
取り揃え 10
受けとっ 10
受話 10
口語 10
叩き@@ 10
台なし 10
叱ら 10
叶わ 10
合金 10
吉@@ 10
吊@@ 10
同然 10
名付け 10
否認 10
含める 10
吸引 10
吹きつけ 10
吹き込ん 10
告げ口 10
呪文 10
哀@@ 10
哀れみ 10
品格 10
唱 10
商社 10
善 10
善い 10
営 10
噛ん 10
囚人 10
四肢 10
因子 10
国債 10
国務 10
国立 10
国連 10
在 10
垂れ@@ 10
埋め合わせ 10
塞@@ 10
墜落 10
壊れる 10
声優 10
変換 10
夕ご飯 10
多用 10
大喜び 10
大火 10
大理 10
大脳 10
天文 10
奇数 10
好@@ 10
如才 10
妖怪 10
婦女 10
媒介 10
学力 10
学科 10
学級 10
実地 10
客室 10
宴席 10
家内 10
寄り添っ 10
寄る 10
密度 10
対岸 10
尊大 10
少な 10
就か 10
尽くせ 10
屈し 10
山地 10
山林 10
岩石 10
峡谷 10
峰々 10
巡らす 10
巡り@@ 10
左足 10
巻き込ん 10
市内 10
市名 10
市街 10
帝 10
帰還 10
帰郷 10
常連 10
平衡 10
平野 10
年長 10
幸せ者 10
幻 10
幼年 10
床板 10
店主 10
座ら 10
廟 10
延安 10
建っ 10
建国 10
弁舌 10
弊害 10
張ら 10
強硬 10
当分 10
形状 10
役立っ 10
後継 10
従@@ 10
得失 10
徴兵 10
心情 10
忌@@ 10
念入り 10
怒@@ 10
急げ 10
急用 10
恥ず 10
悟っ 10
悲しかっ 10
悲鳴 10
惜しん 10
愚昧 10
愛しい 10
慰問 10
慶び 10
憎ん 10
懇親 10
成し遂げる 10
成約 10
扇動 10
手はず 10
手品 10
打ち破る 10
打開 10
払い@@ 10
抜け目 10
抹茶 10
抽象 10
招集 10
持ち場 10
挙動 10
振り向か 10
振り回す 10
振替 10
捕らえる 10
採集 10
探せ 10
探究 10
推し@@ 10
推理 10
掲げる 10
揃い 10
換算 10
握り締め 10
損ない 10
撃た 10
撮れ 10
攻 10
攻め 10
放す 10
放任 10
放出 10
敏捷 10
教わり 10
敢然 10
散る 10
敬語 10
敵わ 10
敵兵 10
斜@@ 10
断 10
新兵 10
新橋 10
新築 10
日当たり 10
日系 10
日陰 10
早かれ 10
早退 10
明々 10
明記 10
暖@@ 10
暗示 10
暗闇 10
暴動 10
書き込む 10
書こう 10
月日 10
有望 10
有罪 10
有頂天 10
望ま 10
末路 10
杉本 10
条例 10
来期 10
果たさ 10
果てる 10
査定 10
格付け 10
極め 10
楽しもう 10
楽譜 10
標的 10
横切っ 10
樹 10
機内 10
欠員 10
次@@ 10
欲@@ 10
欺く 10
正門 10
歩ん 10
歪曲 10
歴 10
殴り 10
殺せ 10
民法 10
気流 10
氷@@ 10
永@@ 10
氾濫 10
汗@@ 10
池袋 10
決 10
決めよう 10
沈着 10
油絵 10
治癒 10
洗い@@ 10
浅薄 10
浮き@@ 10
海賊 10
涼し 10
添える 10
清い 10
渡ら 10
渡航 10
温か 10
温室 10
満員 10
溶@@ 10
溶ける 10
溶液 10
漁業 10
演芸 10
潤い 10
潮流 10
炊く 10
点々 10
無味 10
無職 10
無茶 10
無言 10
焦げ 10
焼か 10
焼き肉 10
照会 10
煮@@ 10
煮え 10
煮込み 10
熱愛 10
父方 10
爽やか 10
片思い 10
牧畜 10
物腰 10
特売 10
牽引 10
犯さ 10
独学 10
猥褻 10
現わす 10
理念 10
生まれ変わっ 10
生み 10
生み出す 10
産出 10
甲子 10
甲状 10
申し込ん 10
画鋲 10
畔 10
異@@ 10
異変 10
疑念 10
疾駆 10
病床 10
痛ましい 10
痛み止め 10
白人 10
白衣 10
盛り@@ 10
盛り上がる 10
目撃 10
目線 10
目隠し 10
直射 10
直立 10
相棒 10
真新しい 10
眠かっ 10
眠ら 10
眠り込ん 10
眼差し 10
着@@ 10
着か 10
着飾っ 10
石@@ 10
石ころ 10
砲撃 10
確固 10
確証 10
磨か 10
神奈川 10
禁物 10
私利 10
私有 10
称 10
移り 10
稿 10
積ま 10
空前 10
突き 10
突き破っ 10
窮まりない 10
窮地 10
立ち上がり 10
立証 10
端数 10
符 10
符号 10
算数 10
節回し 10
粉末 10
粗野 10
精度 10
納 10
純潔 10
終@@ 10
経る 10
給油 10
絶縁 10
継ぎ 10
継承 10
綱領 10
緑化 10
締切 10
縫う 10
繋がる 10
美味い 10
羽目 10
考案 10
肝炎 10
肩こり 10
胃腸 10
背か 10
胡 10
脱ぎ 10
脱獄 10
腕白 10
腹ばい 10
膨張 10
致死 10
興す 10
色白 10
色鮮やか 10
芋 10
花びら 10
芳しい 10
芸能 10
若手 10
苦境 10
茶道 10
草むら 10
荒@@ 10
荒く 10
落 10
落ち込む 10
蔵 10
虐殺 10
蜂 10
血栓 10
行き@@ 10
表する 10
装う 10
装着 10
裏切っ 10
襲う 10
西湖 10
要害 10
覆い 10
覆す 10
見上げ 10
視界 10
言い触らし 10
討伐 10
記し 10
許せ 10
試算 10
認可 10
誓う 10
語ら 10
誤ら 10
請負 10
論戦 10
買い入れる 10
賞品 10
賞賛 10
起き上がっ 10
起立 10
趣旨 10
身元 10
身寄り 10
車内 10
軍服 10
転ぶ 10
軽食 10
輝 10
辛辣 10
農地 10
辻 10
迄 10
近視 10
近郊 10
述 10
追いつめ 10
追い払っ 10
途切れ 10
通り抜け 10
連なる 10
連係 10
連盟 10
遂げる 10
遅かれ 10
遊ぼう 10
遊撃 10
適宜 10
都度 10
配線 10
酔う 10
酷く 10
重なる 10
重病 10
量る 10
釣り合っ 10
鉄板 10
鉄棒 10
銀色 10
錠前 10
長じ 10
閉@@ 10
開花 10
防ぎ 10
防災 10
阻む 10
降ろす 10
降雨 10
限っ 10
陸揚げ 10
隠そう 10
隠れる 10
隠滅 10
雄弁 10
雇い 10
雇う 10
雇わ 10
離@@ 10
雨天 10
雨量 10
電動 10
震災 10
霧雨 10
靴ひも 10
鞍 10
音痴 10
頂 10
順応 10
頑張れよ 10
頑張れる 10
願望 10
風@@ 10
風味 10
風土 10
食@@ 10
食後 10
飢饉 10
餡 10
首尾 10
騒がしい 10
騒がしく 10
驚かさ 10
高坂 10
高所 10
鳴り響い 10
麻雀 10
黄@@ 10
５０ 10
６０ 10
5@@ 9
8000 9
R@@ 9
X@@ 9
Z 9
i 9
in@@ 9
kg 9
x@@ 9
々しく 9
あいだ 9
あがり 9
あがる 9
あける 9
あたる 9
あわ 9
いかん 9
いさかい 9
いと@@ 9
いとま 9
うい 9
うかがう 9
うがい 9
うさぎ 9
うつ 9
うるせえ 9
うわー 9
うーん 9
えよ 9
おおらか 9
おじけ 9
おのおの 9
お手上げ 9
かいつまん 9
かえっ 9
かき立て 9
かけがえ 9
かしい 9
かしこ 9
かすみ 9
かせ 9
かそう 9
かばっ 9
がむしゃら 9
きのう 9
きびきび 9
きまっ 9
ぎりぎり 9
くず@@ 9
くつろぎ 9
くよくよ 9
くり@@ 9
けちん坊 9
けよ 9
こま@@ 9
こらえる 9
こり 9
さお 9
さくさく 9
ささやい 9
しおれ 9
しっくり 9
しのぶ 9
しめる 9
しょんぼり 9
しり@@ 9
すき@@ 9
すくっ 9
すすぐ 9
すべすべ 9
ずく 9
そそる 9
そば@@ 9
そびえる 9
そびえ立つ 9
たるん 9
ちくしょう 9
っちゃ 9
つきあう 9
つつい 9
つゆ 9
つらく 9
づくり 9
とがっ 9
とどまっ 9
とどめる 9
とどろく 9
とん 9
なまめかしい 9
なみ 9
ならず者 9
なり@@ 9
なァ 9
にくかっ 9
ねる 9
のける 9
ののしら 9
のり 9
のォ 9
のー 9
はだけ 9
はにかん 9
はやっ 9
ばかげ 9
ばらし 9
ぱんぱん 9
ひざまずい 9
ひび割れ 9
ふかふか 9
ふけっ 9
ふさわしく 9
ふっ 9
ふ化 9
ぶち 9
ぶつ 9
へい 9
ほえ 9
ほおづえ 9
ほどけ 9
ほんのり 9
まいっ 9
まけ 9
まずく 9
みえ 9
みくじ 9
むだ話 9
むだ骨 9
もた@@ 9
もつれ 9
もののけ 9
もれ 9
やく 9
やましい 9
やみ討ち 9
ややこしい 9
やらかし 9
やりくり 9
やり直す 9
よから 9
よどみ 9
よろ@@ 9
らさ 9
り出し 9
るい 9
わき起こっ 9
わく 9
わたくし 9
ァ@@ 9
アップル 9
アヘン 9
アマ 9
アルカリ 9
アレンジ 9
アンダー 9
イエ@@ 9
イヌ 9
イング 9
インスタント 9
インテリ 9
イー 9
イー@@ 9
ウス 9
ウン 9
エア@@ 9
エクササイズ 9
オタク 9
オメー 9
オリーブ 9
オー 9
オーケストラ 9
カササギ 9
カセット 9
カル 9
カロリー 9
カート 9
カーペット 9
カール 9
ガチョウ 9
キビ 9
キャップ 9
クラゲ 9
ケン@@ 9
ゲスト 9
ゲル 9
コイ 9
コウ@@ 9
コツ 9
コマ 9
コラ@@ 9
ゴー 9
サイパン 9
サケ 9
サトウ 9
サブ 9
サロン 9
ザーザー 9
シェフ 9
シカゴ 9
シップ 9
シミュレーション 9
シンボル 9
ジェスチャー 9
ジャック 9
ジャー 9
ジョブ 9
スカ 9
スチーム 9
ステキ 9
ストロ@@ 9
スポ@@ 9
スリ 9
セン 9
ソー 9
ソーダ 9
ゾーン 9
タイピング 9
タービン 9
ダイヤル 9
ダッ 9
ダン@@ 9
チクショウ 9
チュー@@ 9
チューブ 9
チームワーク 9
ッカー 9
ッチ@@ 9
テラス 9
テン 9
テール 9
ディスカウント 9
ディーラー 9
デスク 9
トランペット 9
トレ@@ 9
ドリ 9
ナイ@@ 9
ニン 9
ノール 9
ハイテク 9
ハッピー 9
ハロー 9
バトル 9
バル 9
パチパチ 9
パラ@@ 9
パーマ 9
ビー@@ 9
ビーフ 9
ピアニスト 9
ファイバー 9
フェスティバル 9
フェリー 9
フォー@@ 9
フライド 9
ブランコ 9
ブリーフ 9
ブーツ 9
プレス 9
ベンチャー 9
ベーコン 9
ボイラー 9
ボクシング 9
ボディー 9
ボリューム 9
ボン@@ 9
ボー@@ 9
ポップ 9
ポリシー 9
マイケル 9
マスコミ 9
マヌケ 9
マネ 9
マリ@@ 9
マージャン 9
ミステリー 9
ミネラル 9
ミング 9
メカニズム 9
メモリー 9
メル@@ 9
モモ 9
モーターボート 9
ユニ@@ 9
ライター 9
ラップ 9
レイ@@ 9
レスラー 9
レンガ 9
ワイヤー 9
ワシントン 9
ワナ 9
ワー@@ 9
ヶ国 9
ーん 9
一丸 9
一人っ子 9
一向 9
一堂 9
一新 9
一服 9
一縷 9
丁重 9
上げよう 9
下りる 9
下水 9
不作 9
不吉 9
不慣れ 9
両家 9
並外れ 9
中山 9
中日 9
中枢 9
乗り込ん 9
乞食 9
乱 9
乱し 9
了見 9
亡@@ 9
交わり 9
交番 9
人参 9
人権 9
人混み 9
人為 9
人相 9
介さ 9
代謝 9
仰い 9
仰る 9
任期 9
任用 9
企て 9
伊東 9
伺えれ 9
低迷 9
体型 9
何語 9
使おう 9
使節 9
供し 9
係@@ 9
保 9
個体 9
個数 9
倒せ 9
借り@@ 9
偏っ 9
偏屈 9
偶数 9
偽っ 9
傑出 9
催す 9
働き者 9
元@@ 9
入り込む 9
公布 9
共生 9
典故 9
内科 9
円盤 9
冊子 9
写@@ 9
冥福 9
冬@@ 9
冷 9
冷水 9
凡庸 9
出向 9
出店 9
出来上がる 9
出題 9
分け前 9
分化 9
刑法 9
刑罰 9
列@@ 9
初旬 9
初級 9
初頭 9
別紙 9
利己 9
刻ま 9
削る 9
剥@@ 9
副@@ 9
割り当てる 9
創@@ 9
助 9
助け合う 9
励まさ 9
労災 9
効き 9
動植物 9
勝@@ 9
勝た 9
勝ち負け 9
区分 9
医科 9
半月 9
単価 9
単調 9
印@@ 9
危なかっ 9
即@@ 9
即売 9
原油 9
参謀 9
取り締まる 9
受け止める 9
受け継い 9
口汚く 9
古文 9
古書 9
古着 9
叩い 9
只今 9
台数 9
台詞 9
各位 9
各界 9
吉日 9
同類 9
名士 9
名高い 9
向き合う 9
向く 9
吸おう 9
吹かす 9
和平 9
和解 9
和食 9
品@@ 9
唐@@ 9
唯物 9
啓蒙 9
喜び勇ん 9
喪失 9
嗅覚 9
回り道 9
団地 9
困窮 9
囲む 9
囲碁 9
図案 9
固い 9
国旗 9
国有 9
国歌 9
土木 9
地中 9
坂上 9
均一 9
垂らし 9
垂直 9
埋@@ 9
埠頭 9
執っ 9
堅実 9
堤 9
報復 9
塗@@ 9
塹壕 9
増やさ 9
壮麗 9
売@@ 9
夕暮れ 9
外敵 9
多けれ 9
夜更け 9
大物 9
大腸 9
大軍 9
天体 9
太刀打ち 9
失神 9
奇抜 9
奇襲 9
奥@@ 9
奪い取る 9
奪取 9
女装 9
如@@ 9
妾 9
委任 9
威張っ 9
嫁入り 9
嫌がらせ 9
子女 9
存亡 9
学説 9
学食 9
安否 9
安売り 9
安静 9
宗@@ 9
客先 9
容態 9
寄宿 9
寛容 9
寝込ん 9
対話 9
封印 9
専業 9
尊@@ 9
尻@@ 9
居心地 9
属性 9
山中 9
崖 9
巡らし 9
左派 9
帰し 9
帳面 9
干す 9
平手 9
平易 9
平然 9
平面 9
年がら 9
年収 9
年季 9
庇護 9
延々 9
延ばし 9
延び 9
弁明 9
弊 9
引き締め 9
引き裂い 9
引き込ま 9
引っ込み 9
引っ込め 9
張@@ 9
張り切っ 9
弾力 9
当期 9
後世 9
怒 9
怒濤 9
怒鳴っ 9
思い起こす 9
思い込み 9
思春 9
急@@ 9
急増 9
怪物 9
恋@@ 9
恋しく 9
恥ずかしかっ 9
恨ま 9
恨み言 9
息切れ 9
悔やん 9
悪用 9
悪行 9
悲@@ 9
悲観 9
惑星 9
感化 9
態勢 9
慎み 9
憂慮 9
憑き 9
成り立た 9
戦死 9
戸惑っ 9
手づる 9
手出し 9
手間取っ 9
手首 9
才@@ 9
才気 9
打ち負かす 9
打てる 9
扶養 9
技能 9
抑えつける 9
投げかけ 9
抗@@ 9
抜け@@ 9
押@@ 9
拘禁 9
招か 9
招き@@ 9
拳銃 9
持ち帰っ 9
持ち物 9
持ち込む 9
持病 9
挑む 9
挟まっ 9
振り回さ 9
振るっ 9
振興 9
捕@@ 9
捕っ 9
捜し求め 9
掘り出し 9
採り 9
掴@@ 9
掴ん 9
揉@@ 9
描き出し 9
描こう 9
損なっ 9
携わる 9
撃ち@@ 9
撤回 9
撲滅 9
支払え 9
改装 9
放さ 9
政界 9
教学 9
散らし 9
整@@ 9
敷@@ 9
斬首 9
断片 9
断言 9
新山 9
新潟 9
方形 9
施さ 9
日和見 9
日東 9
昇給 9
明日香 9
昔話 9
映る 9
春休み 9
春雨 9
時おり 9
曲折 9
替わり 9
最寄 9
朗々 9
未練 9
本位 9
来よう 9
来ん 9
枝@@ 9
架け橋 9
染まる 9
柵 9
査収 9
栄光 9
栄転 9
校則 9
森下 9
植樹 9
業種 9
楽団 9
槽 9
横柄 9
橋渡し 9
欠かさ 9
次男 9
止む 9
正しかっ 9
殴り合い 9
母方 9
毛布 9
気遣っ 9
気高い 9
水かさ 9
水上 9
水産 9
永く 9
求@@ 9
汝 9
決めつけ 9
沈@@ 9
沢 9
沸い 9
沸かす 9
治せる 9
法規 9
波紋 9
洗練 9
洞 9
津 9
流量 9
浄化 9
浅草 9
浩 9
海関 9
浸@@ 9
消去 9
涼風 9
添@@ 9
湿@@ 9
漁船 9
漠然 9
潑春 9
潜@@ 9
潜っ 9
潜り込ん 9
灰皿 9
炭酸 9
点滴 9
無断 9
無私 9
無鉄砲 9
煙霧 9
熱@@ 9
熱気 9
牙 9
物語っ 9
特@@ 9
特大 9
特権 9
狂う 9
独り言 9
狭 9
狼 9
王朝 9
理知 9
甘やかさ 9
生育 9
生臭い 9
産物 9
申し立て 9
畳 9
畳む 9
疎い 9
病ん 9
病後 9
痛める 9
発@@ 9
発つ 9
発揚 9
発育 9
白雲 9
皿洗い 9
盆地 9
盗品 9
目ざし 9
目盛り 9
目立ち 9
目障り 9
直径 9
眉毛 9
真偽 9
眼球 9
知らさ 9
知人 9
知力 9
石碑 9
砕い 9
砕く 9
砲声 9
示 9
社屋 9
禍根 9
秀麗 9
秋@@ 9
移管 9
稲妻 9
稽古 9
究明 9
空き地 9
空ける 9
空洞 9
突飛 9
立ち回る 9
立て替え 9
立法 9
競う 9
笑える 9
筆箱 9
筋金 9
策定 9
算 9
節介 9
粋 9
納める 9
紙@@ 9
素晴しい 9
素晴らしく 9
索引 9
組立 9
結び目 9
結託 9
絞り 9
統制 9
絵の具 9
緑豆 9
練 9
練る 9
縛っ 9
縛ら 9
縦横 9
繁華 9
繋い 9
置け 9
羊毛 9
羊飼い 9
美女 9
羽毛 9
翌月 9
習字 9
老後 9
考え込ん 9
耕す 9
聖書 9
聞き取る 9
聞こう 9
肥やし 9
肴 9
背き 9
胸@@ 9
脚本 9
脱し 9
脱走 9
腎 9
腹@@ 9
膨れ上がっ 9
膨大 9
自力 9
自演 9
舞 9
航 9
船員 9
良き 9
芽生え 9
苦しかっ 9
茂っ 9
華北 9
華麗 9
落ち度 9
著しく 9
葬儀 9
薄暗く 9
行き先 9
行く手 9
衝動 9
表決 9
衰弱 9
裂け目 9
裏@@ 9
裏返し 9
複合 9
要し 9
要綱 9
見やる 9
見れる 9
見出し 9
見向き 9
見積もる 9
見込ま 9
見逃さ 9
見逃す 9
見開い 9
規準 9
親@@ 9
親し 9
親愛 9
観覧 9
観賞 9
解か 9
解ら 9
解説 9
言い争う 9
言い張っ 9
言い掛かり 9
評 9
試供 9
語り 9
語気 9
誤る 9
論じ 9
論じる 9
諸表 9
謙遜 9
講じる 9
貧血 9
責 9
貯める 9
貶す 9
貸@@ 9
費やす 9
貼る 9
賜わり 9
起訴 9
起隆 9
足並み 9
跡継ぎ 9
跳び 9
跳びはね 9
蹴@@ 9
躍進 9
車@@ 9
軍閥 9
転じ 9
軽@@ 9
輝@@ 9
輩 9
辛酸 9
辞めよう 9
近@@ 9
近隣 9
近頃 9
迷わ 9
追い求める 9
追い越し 9
追究 9
追記 9
退@@ 9
退い 9
退く 9
退勤 9
退却 9
送ろう 9
逃げ@@ 9
逃さ 9
途方 9
通帳 9
連 9
連れ合い 9
連動 9
連載 9
連鎖 9
進級 9
過ぎれ 9
過多 9
違わ 9
遠出 9
選び出し 9
配管 9
酒席 9
重み 9
重力 9
野良 9
鈴 9
鉱 9
銀座 9
長かっ 9
長崎 9
長引い 9
長征 9
閉館 9
開閉 9
防犯 9
防護 9
降伏 9
陥り 9
陰口 9
陵 9
険しく 9
隊員 9
随行 9
際立た 9
雄々しく 9
雄鶏 9
雅 9
雌@@ 9
雑多 9
離散 9
難@@ 9
雨@@ 9
雪かき 9
電信 9
震わせ 9
青森 9
青海 9
青筋 9
青色 9
面影 9
鞭撻 9
音符 9
音量 9
頑迷 9
題名 9
顔向け 9
願い事 9
風力 9
食いしばっ 9
食卓 9
食感 9
飼い 9
飽き飽き 9
香料 9
馬力 9
駆け@@ 9
駆けずり 9
駐屯 9
高林 9
高遠 9
髭 9
魚介 9
麦畑 9
麻子 9
麻美子 9
黙認 9
鼻息 9
４０ 9
ＣＤ 9
17@@ 8
196@@ 8
72 8
IgE 8
LED 8
PDF 8
SNS 8
V 8
al@@ 8
er 8
f@@ 8
g 8
k 8
k@@ 8
km 8
sh@@ 8
≡ 8
あお@@ 8
あきらめる 8
あざけり 8
あっけ 8
あふれ出 8
あや@@ 8
いそ@@ 8
いただか 8
いちご 8
いっつ 8
いらだっ 8
いれる 8
ぅ 8
うつむい 8
うら@@ 8
うろこ 8
おか@@ 8
おさ@@ 8
おじゃん 8
おぼろ 8
おむつ 8
かかえ 8
かかと 8
かき乱す 8
かこつけ 8
かすめ 8
かぶれ 8
かま@@ 8
かわす 8
かんぬき 8
がたがた 8
きめ 8
きらい 8
くすくす 8
くたばっ 8
くどい 8
くら 8
くらます 8
くる@@ 8
くーん 8
ぐい 8
ぐちゃぐちゃ 8
こぎ 8
こしらえ 8
こすり@@ 8
こちら側 8
こつこつ 8
こぼす 8
こよう 8
こわばら 8
ごっこ 8
ささ@@ 8
さざ波 8
さめ 8
さらけ出し 8
さらさら 8
しか@@ 8
しかめ 8
しこり 8
しのぎ 8
しま 8
しむ 8
しゃがん 8
しゃくし 8
しゃべれる 8
しゃれ 8
しゃんと 8
じりじり 8
すくい 8
すげえ 8
すだれ 8
すね 8
すむ 8
ずらし 8
そびれ 8
そらし 8
そらす 8
たいそう 8
たく@@ 8
たの@@ 8
たまる 8
ためし 8
ためらう 8
たもと 8
たんす 8
ださ 8
だらし 8
ちと 8
ちゃえ 8
っくり 8
つなぎ@@ 8
つなぎ合わせ 8
つる@@ 8
づ@@ 8
てんてこ舞い 8
とくに 8
とけよ 8
とばり 8
ともしび 8
どしゃ降り 8
なな 8
なにがし 8
ならび 8
にじみ出 8
のせ 8
のっぽ 8
はぐれ 8
はせる 8
はばかる 8
はやら 8
はやり 8
はやる 8
はーい 8
ぱちぱち 8
ひしゃく 8
ひそめ 8
ひづめ 8
ひとえ 8
ひとえに 8
びっこ 8
ふ 8
ふける 8
ふぞろい 8
ふろしき 8
ふーん 8
ぶっ通し 8
ぶつける 8
ぶらつく 8
ぷ 8
ぺちゃくちゃ 8
ほど@@ 8
ほろ酔い 8
ぽん 8
ましく 8
またがっ 8
またがる 8
またまた 8
まぶしい 8
まんじゅう 8
まんま 8
みてぇ 8
むかむか 8
むく 8
むくん 8
むしゃくしゃ 8
めかし 8
めく 8
めそめそ 8
めっき 8
めでたし 8
めど 8
めんど 8
ものわかり 8
もむ 8
やみくも 8
ょ 8
よいしょ 8
よっぽど 8
よーく 8
り合う 8
れん 8
わせ 8
わり@@ 8
アイルランド 8
アド@@ 8
アナ 8
アマ@@ 8
アマチュア 8
イエス 8
イタリアン 8
イデオロギー 8
イラ@@ 8
インターンシップ 8
ウイスキー 8
ウェイ 8
ウグイス 8
エア 8
エロ@@ 8
エール 8
オムレツ 8
オリエンテーション 8
オーストリア 8
カズ 8
カンニング 8
カーニバル 8
ガレージ 8
ガール 8
キャンパス 8
キューバ 8
ギャラリー 8
クビ 8
クリップ 8
クルミ 8
グリ@@ 8
ゲイ 8
ゲートル 8
コツコツ 8
コント 8
コンパス 8
コンベヤー 8
コー 8
コースター 8
コーティング 8
ゴルファー 8
ゴーゴー 8
サイダー 8
サブ@@ 8
サボる 8
シミ 8
シャ 8
シャー 8
シュー 8
シルエット 8
シロップ 8
シング 8
ジア 8
ジカ 8
ジャン 8
ジャン@@ 8
スウェーデン 8
スカ@@ 8
スキャンダル 8
スキン 8
スク@@ 8
スズメバチ 8
スッ 8
スティ@@ 8
ステロイド 8
ストラ@@ 8
ストラップ 8
スニーカー 8
スパ@@ 8
スポンジ 8
スラ@@ 8
スリ@@ 8
スリル 8
スーパー@@ 8
セ 8
セント 8
ソクラテス 8
ソング 8
タイト 8
タレント 8
ターミナル 8
ダチ 8
ダーク 8
チク@@ 8
ッと 8
ティック 8
テイ@@ 8
テクニカル 8
テクノロジー 8
テロ@@ 8
デイ 8
デッド 8
デリー 8
トルコ 8
トロンボーン 8
ドジ 8
ドリル 8
ナル@@ 8
ニスト 8
ニズム 8
ニャ 8
ニュアンス 8
ネギ 8
ノル@@ 8
ハガキ 8
ハッ@@ 8
ハラ 8
ハンガー 8
ハード 8
ハーブ 8
バイヤー 8
バタバタ 8
バンク 8
バンクーバー 8
パチンコ 8
パーン 8
ヒマ 8
ヒマラヤ 8
ヒート 8
ビキニ 8
ビジョン 8
ビス 8
ビュー 8
ビリティ 8
ピ 8
フィールド 8
フォーク 8
フラン@@ 8
フリ@@ 8
フル@@ 8
フレ@@ 8
フレンド 8
フー 8
ブス 8
ブタ 8
ブラウザ 8
ブリキ 8
プロット 8
ヘッドホン 8
ベット 8
ベルギー 8
ペルー 8
ホイ 8
ホワイトボード 8
ボー 8
ボーナス 8
ボーリング 8
ポリ@@ 8
ポーカー 8
マガジン 8
マップ 8
マニキュア 8
マネー 8
ミック 8
ミッシェル 8
ミニ@@ 8
ミリウサ 8
ミン 8
ムード 8
メンツ 8
モクセイ 8
モニター 8
ユキ 8
ユニフォーム 8
ユー@@ 8
ユーロ 8
ライフル 8
ラック 8
ランキング 8
リアリティ 8
リッ@@ 8
リフト 8
リモコン 8
レイン 8
ローソク 8
ワイ 8
ワシ 8
ンド@@ 8
ヴェ@@ 8
一報 8
一山 8
一握り 8
一筆 8
一行 8
一読 8
万物 8
三重 8
上長 8
下り坂 8
下図 8
下放 8
下旬 8
不全 8
不動 8
不朽 8
不運 8
両端 8
両翼 8
並べ立て 8
中川 8
中期 8
中秋 8
中編 8
中農 8
主語 8
久しい 8
乱用 8
乳首 8
予@@ 8
予知 8
事績 8
亡くなら 8
交わる 8
交付 8
人士 8
仕上がり 8
付与 8
代える 8
代物 8
任@@ 8
休止 8
伸び伸び 8
似合わ 8
似通っ 8
住@@ 8
佐藤 8
体積 8
何もの 8
余剰 8
余興 8
侵犯 8
保母 8
値@@ 8
停戦 8
健勝 8
側@@ 8
傷病 8
働きかけ 8
儲け 8
充満 8
充血 8
先延ばし 8
先行 8
先鋒 8
免 8
免職 8
入り@@ 8
入れ@@ 8
入団 8
入居 8
入念 8
入港 8
入獄 8
入門 8
公害 8
公文 8
典 8
内臓 8
内訳 8
内閣 8
内陸 8
内面 8
円@@ 8
円形 8
再起 8
冬季 8
冷や汗 8
几帳面 8
凶作 8
出くわす 8
出ろ 8
出会える 8
出前 8
出欠 8
出稼ぎ 8
刃物 8
切 8
切なく 8
切り出し 8
刈り@@ 8
初代 8
初戦 8
別名 8
到来 8
刺@@ 8
刻印 8
削@@ 8
剥奪 8
劇的 8
劣等 8
助け合い 8
励ん 8
勇@@ 8
勾配 8
包み@@ 8
包み隠さ 8
北部 8
医薬 8
千曳 8
千鶴 8
卓越 8
南側 8
危@@ 8
即時 8
原告 8
原爆 8
原紙 8
参っ 8
友田 8
反論 8
収拾 8
取 8
取り入っ 8
取り合っ 8
取り外す 8
取り引き 8
取り消さ 8
受け持つ 8
受動 8
口当たり 8
口答え 8
古人 8
古参 8
召さ 8
可@@ 8
叱っ 8
右翼 8
合@@ 8
合間 8
同調 8
名乗っ 8
名門 8
向@@ 8
吹っ飛ん 8
吹雪 8
味付け 8
呼びかける 8
呼び出さ 8
命じる 8
和らい 8
品切れ 8
品番 8
喜 8
喜@@ 8
噛み@@ 8
噛む 8
噴@@ 8
四十 8
回顧 8
因 8
図ら 8
図表 8
国営 8
在宅 8
坊や 8
坑道 8
埋まっ 8
培養 8
増減 8
壁画 8
壁紙 8
壮烈 8
声@@ 8
変形 8
外さ 8
多佳子 8
夜道 8
大みそか 8
大慶 8
大西 8
天子 8
天性 8
夫妻 8
奢っ 8
奪い 8
始@@ 8
威@@ 8
婉曲 8
子育て 8
学長 8
孫@@ 8
宋 8
完備 8
宗 8
定まら 8
実っ 8
実り 8
実在 8
実装 8
客船 8
害する 8
寄せ@@ 8
寄りかかっ 8
寄り道 8
富@@ 8
寒@@ 8
寝ぼけ 8
審 8
対等 8
小さかっ 8
小雨 8
少量 8
尿 8
居合わせ 8
居間 8
屈折 8
屋久 8
山川 8
山積み 8
岐阜 8
崩れる 8
差@@ 8
差し引い 8
差し込む 8
巻き起こし 8
市@@ 8
市販 8
帝王 8
帰す 8
平安 8
平常 8
年数 8
幾何 8
床屋 8
店@@ 8
座り込ん 8
廃品 8
廃物 8
弁公 8
弄し 8
引き揚げ 8
引き連れ 8
引受 8
引当 8
弱かっ 8
弱気 8
強行 8
当てこすり 8
当惑 8
当該 8
彫る 8
律@@ 8
後押し 8
微@@ 8
微笑み 8
心ゆく 8
心強い 8
心構え 8
忍@@ 8
応@@ 8
思いやる 8
思惟 8
急場 8
急変 8
急性 8
急遽 8
性分 8
恥じる 8
恨む 8
悟る 8
悪性 8
情@@ 8
想っ 8
愚 8
愚鈍 8
慈愛 8
慌ただしい 8
慣@@ 8
慰@@ 8
憎らしい 8
憧れる 8
懇ろ 8
戒める 8
所帯 8
扁桃 8
手中 8
手伝わ 8
手堅い 8
手探り 8
手提げ 8
手放す 8
手遅れ 8
手違い 8
打ちつけ 8
打ち明け 8
打ち込ん 8
打ち鳴らす 8
打倒 8
打席 8
技巧 8
投げ売り 8
投げ捨て 8
投下 8
折り紙 8
抜@@ 8
抱き合っ 8
押しつけ 8
押し合い 8
拇印 8
招請 8
拝聴 8
拡散 8
拾い上げ 8
持@@ 8
持ち歩い 8
持ち込ん 8
振舞う 8
捉える 8
捕る 8
捜し出し 8
授@@ 8
授ける 8
掘り下げ 8
揺りかご 8
搬送 8
携え 8
搾る 8
摂っ 8
摂氏 8
摘出 8
擁護 8
擦りむい 8
擬人 8
攻め@@ 8
散らす 8
散らばっ 8
敬礼 8
敷 8
文脈 8
文言 8
斉 8
断じ 8
断わっ 8
断絶 8
新株 8
方程 8
旅団 8
日照 8
日経 8
日課 8
早寝 8
明かし 8
星雲 8
時事 8
時局 8
時折 8
時節 8
晩餐 8
景勝 8
暖 8
暗殺 8
暦 8
暴利 8
暴走 8
曖昧 8
曲げる 8
更衣 8
書き込み 8
書生 8
月経 8
月見 8
有価 8
有限 8
朝ご飯 8
未知 8
材木 8
果敢 8
架空 8
某@@ 8
柔順 8
柿 8
校@@ 8
根絶 8
案外 8
棒@@ 8
棚卸 8
検定 8
極左 8
楽@@ 8
概算 8
檻 8
櫓 8
歌曲 8
止まれ 8
止血 8
正真 8
正銘 8
武芸 8
歩兵 8
歯ぎしり 8
歯切れ 8
死に@@ 8
死去 8
残存 8
気取っ 8
気合 8
水晶 8
水槽 8
水陸 8
永沢 8
求職 8
汚さ 8
汚す 8
汚点 8
江南 8
決まら 8
決裁 8
沿岸 8
波乱 8
波瀾 8
波長 8
注 8
注ぎ 8
活かす 8
派生 8
浪 8
浮かび上がっ 8
浮き浮き 8
浴びせ 8
浸し 8
消えろ 8
淡@@ 8
深まっ 8
淵 8
混ぜ合わせ 8
清 8
渇き 8
渇望 8
渉外 8
渋@@ 8
減る 8
湧き水 8
湯船 8
湾 8
湿布 8
満ち足り 8
満了 8
満月 8
滅ぼす 8
潤@@ 8
潰し 8
潰れ 8
瀬 8
火星 8
炒め物 8
炭鉱 8
点@@ 8
無くなり 8
無性 8
無礼 8
煙@@ 8
爺 8
爽快 8
牌 8
牛飼い 8
牛馬 8
物言い 8
特化 8
特恵 8
特注 8
犬飼 8
狂 8
献立 8
献身 8
猶予 8
獰猛 8
獲物 8
玩具 8
理学 8
瓦解 8
甘かっ 8
甘肅 8
生まれ変わり 8
甥 8
用法 8
田園 8
甲@@ 8
留 8
留年 8
畳ん 8
疎遠 8
疫病 8
症例 8
痕 8
痛感 8
痛撃 8
痩せる 8
発動 8
発砲 8
白血 8
白話 8
白鳥 8
白黒 8
百出 8
益々 8
盛り上げ 8
盛り上げる 8
目印 8
目配せ 8
目録 8
直属 8
相関 8
省略 8
眉間 8
県長 8
真っ向 8
真空 8
着払い 8
着替える 8
着目 8
督促 8
瞑想 8
矛先 8
知ったか 8
研ぐ 8
研磨 8
破れる 8
社外 8
福@@ 8
福島 8
秘訣 8
突き合わせ 8
突進 8
立たさ 8
立ち寄る 8
立ち直る 8
立て直す 8
端午 8
竹ざお 8
笑え 8
筍 8
粗 8
粘り強い 8
粘土 8
紙切れ 8
素晴らし 8
紫外 8
終値 8
結びつい 8
絞め 8
絶@@ 8
絶つ 8
絶大 8
緊迫 8
総称 8
縁故 8
縫い目 8
縮ん 8
繁雑 8
織 8
繰り@@ 8
繰り返さ 8
置き去り 8
罰せ 8
羅針 8
羽@@ 8
翻し 8
老い 8
老化 8
考え@@ 8
考え出し 8
考古 8
耐@@ 8
耐性 8
耳目 8
耳鳴り 8
肉まん 8
背徳 8
胸部 8
能動 8
脂身 8
脅かす 8
脱@@ 8
脱する 8
腰@@ 8
臨む 8
臨ん 8
自明 8
舞踊 8
船室 8
船長 8
船頭 8
花輪 8
芳 8
芳香 8
草取り 8
荒れ狂う 8
荘厳 8
荷@@ 8
荷重 8
莫大 8
落ち葉 8
落第 8
蔵書 8
薬屋 8
蘭 8
虚弱 8
蚕 8
蝉 8
血糖 8
街並み 8
衰退 8
裏切ら 8
裏表 8
製錬 8
複 8
複写 8
褒めそやす 8
褒めたたえる 8
要衝 8
覆い隠し 8
覇権 8
見つめる 8
見失っ 8
見守る 8
見破る 8
親善 8
解 8
解読 8
言づけ 8
計っ 8
討ち 8
訳文 8
評語 8
試行 8
詩@@ 8
詩句 8
詮索 8
誇る 8
誇大 8
誘拐 8
説く 8
読み上げる 8
調え 8
論@@ 8
豪放 8
財団 8
貧民 8
貪欲 8
責務 8
貯蓄 8
貰う 8
貴い 8
貴族 8
買い求め 8
資質 8
賑わう 8
賛嘆 8
起きろ 8
起ころう 8
起工 8
跳ね 8
踏み込ん 8
蹴り 8
蹴る 8
身@@ 8
身震い 8
軍民 8
軒下 8
転売 8
転用 8
軽度 8
軽重 8
輪郭 8
農@@ 8
近々 8
近寄っ 8
追い出さ 8
追い込ま 8
追悼 8
退部 8
送致 8
送電 8
逃げ道 8
途切れ途切れ 8
通称 8
通達 8
逝去 8
速達 8
造林 8
連れ@@ 8
進@@ 8
進度 8
逸@@ 8
遂に 8
遅らせ 8
遊 8
遊牧 8
過ごそう 8
過激 8
道管 8
遠@@ 8
遠征 8
選べる 8
選考 8
遺族 8
還元 8
部外 8
郭 8
配ら 8
配偶 8
醸造 8
量り 8
金もうけ 8
金髪 8
釣り@@ 8
釣れ 8
鈍く 8
鈍感 8
鉄条 8
鉄橋 8
鉢植え 8
銃口 8
銅貨 8
鋭敏 8
長兄 8
長寿 8
長引く 8
閉ざし 8
開通 8
間違わ 8
防@@ 8
防が 8
防塵 8
降@@ 8
除け 8
除外 8
陰干し 8
隅っこ 8
随意 8
障る 8
隣り 8
雑談 8
離さ 8
離す 8
難問 8
青ざめ 8
非凡 8
非行 8
非道 8
面@@ 8
順次 8
頼もしい 8
頼りない 8
願わ 8
風向き 8
風水 8
風浪 8
飛び立っ 8
飲み込め 8
飲み食い 8
飴 8
飾り立て 8
養っ 8
馬@@ 8
駆けつける 8
駆け込ん 8
騎兵 8
騒ぎ立て 8
骨@@ 8
骨折り 8
高層 8
高山 8
高揚 8
鳥獣 8
鳴き 8
鳴り響く 8
麦わら 8
黄色く 8
黒人 8
黒光り 8
黒竜江 8
１３ 8
Ｅ 8
Ｐ@@ 8
Ｔ 8
0@@ 7
1146 7
160 7
195@@ 7
1999 7
2011 7
2015 7
6000 7
CEO 7
CO 7
J 7
K 7
OS 7
SF 7
SG 7
and 7
en 7
ic@@ 7
u 7
z@@ 7
〖 7
〗 7
あか 7
あきれ 7
あざ@@ 7
あした 7
あて@@ 7
あて先 7
あや 7
あやふや 7
あれー 7
あわ@@ 7
あんかけ 7
ぃ 7
いじ@@ 7
いじくる 7
いたる 7
いまいち 7
いや@@ 7
いやぁ 7
いら@@ 7
うかがい 7
うそ偽り 7
うっすら 7
うなだれ 7
うららか 7
うわっ 7
えこ 7
おうよう 7
おおせ 7
おさえ 7
おしろい 7
おそれ 7
おだて 7
おっ@@ 7
おっとり 7
おと@@ 7
おどおど 7
おどけ 7
おびえ 7
おぼれる 7
おもしろ 7
おもっ 7
おろか 7
お蔭 7
かい@@ 7
かえ 7
かかわっ 7
かがり火 7
かき分け 7
かき集める 7
かぎ 7
かく@@ 7
かけよう 7
かじっ 7
かす@@ 7
かちかち 7
かなえ 7
かなめ 7
かぶ@@ 7
かぶせる 7
かまわ 7
かみしめ 7
かゆ 7
かんな 7
か年 7
がかり 7
がさ 7
がな 7
がれ 7
がんばろう 7
きょう 7
きわめて 7
くさく 7
くじい 7
くだり 7
くっつく 7
くどく 7
くぼみ 7
くらむ 7
くらん 7
くれ@@ 7
ぐらぐら 7
ぐり 7
げよう 7
こけ 7
こびりつい 7
こみ上げ 7
さす 7
さすらう 7
させよう 7
さびしい 7
さぼっ 7
さらい 7
さらけ出す 7
さらし 7
さわっ 7
ざた 7
しがみ@@ 7
しく@@ 7
しげしげ 7
しだい 7
しっとり 7
しばし 7
しぶしぶ 7
しぼん 7
しみ込ん 7
しゃぶしゃぶ 7
しょせん 7
しんと 7
しー 7
しーっ 7
じろっ 7
すく@@ 7
すご@@ 7
すする 7
すばしこい 7
すらっ 7
ずっ 7
せき止め 7
せりふ 7
せんべい 7
ぜ@@ 7
そで口 7
そよそよ 7
そろえる 7
たけれ 7
たべ 7
たん@@ 7
だまし取る 7
だる 7
ちまき 7
っこい 7
っぱ@@ 7
つかまっ 7
つけよ 7
つっかい 7
つら@@ 7
つり銭 7
つるはし 7
づか 7
づきあい 7
てい 7
てえ 7
てらっしゃる 7
てん@@ 7
でっかい 7
とある 7
ともあれ 7
とらえ 7
とりこ 7
とりとめ 7
とんだ 7
ないし 7
なすりつける 7
なぞなぞ 7
なでる 7
なめらか 7
ならす 7
なりゃ 7
なんちゃって 7
にじん 7
にら@@ 7
にらみつけ 7
にらむ 7
ねずみ 7
ねだる 7
ののしり 7
のろし 7
はかりごと 7
はげ 7
はちみつ 7
はな 7
はねつけ 7
はるばる 7
ばし 7
ひき臼 7
ひけ 7
ひさし 7
ひっぱ@@ 7
ひとところ 7
ひとみ 7
ひもじい 7
ひょう 7
びら 7
ぴくぴく 7
ふさが 7
ふるまっ 7
ぶどうヶ丘 7
ほどほど 7
ほの 7
ほれ 7
ぼやけ 7
ぼれ 7
ぼーっと 7
まかせ 7
まくっ 7
まだら 7
まとまら 7
みぞおち 7
みつ 7
むごい 7
むざむざ 7
むせ 7
めがね 7
めげ 7
めで@@ 7
めよ 7
めらめら 7
もしもーし 7
もたれかかっ 7
もて@@ 7
もとる 7
もんちゃく 7
やさしく 7
やし 7
やっかい 7
やぼったい 7
やり残し 7
やー 7
よかろう 7
らえ 7
られよう 7
りりしい 7
ろくな 7
ろくに 7
わか 7
わき@@ 7
わき目 7
わりと 7
んで 7
アジェンダ 7
アム 7
アラブ 7
アリ@@ 7
アルミ 7
アロ@@ 7
アンタ 7
アンペラ 7
イエッサー 7
イキナリ 7
イスラエル 7
イヤ@@ 7
インストラクター 7
インスピレーション 7
インデックス 7
ウェア 7
ウチ 7
ウー 7
エクイティ 7
エサ 7
エス@@ 7
エスカレート 7
エピソード 7
エレク@@ 7
エントリー 7
エンドウ 7
エース 7
オイ 7
オン@@ 7
カテゴリー 7
カリキュラム 7
カルチャー 7
カートリッジ 7
ガチャン 7
ガラ@@ 7
ガンガン 7
ガー@@ 7
ガーデン 7
キョン 7
キヨ 7
キラキラ 7
キレる 7
ギャ@@ 7
ギャンブル 7
ギャーギャー 7
ギリシア 7
クト 7
クラウド 7
クロ 7
クー@@ 7
クーデター 7
グッド 7
グレー 7
グローブ 7
ケット 7
ゲー 7
コケ 7
ココア 7
コミュニティ 7
コル@@ 7
コレクション 7
コンプレックス 7
コーポレート 7
ゴスペル 7
ゴールド 7
サイレン 7
サウ@@ 7
サボり 7
サボテン 7
サル 7
サル@@ 7
サーブ 7
シャープ 7
ショウ 7
ション 7
シリアル 7
シンク 7
ジャーナリスト 7
ジュ 7
ジン@@ 7
スイ@@ 7
スケ@@ 7
スコ@@ 7
スティック 7
ストレッチ 7
スノ@@ 7
スピン 7
スプーン 7
スペ@@ 7
スミ 7
セラミックス 7
セル@@ 7
セーラー 7
セールスマン 7
ゼル 7
ソウ 7
ソニー 7
ソ連 7
タコ@@ 7
タージュ 7
ダイアモンド 7
ダブルス 7
チアリーダー 7
チェス 7
チャリティー 7
ッグ 7
ツツジ 7
テル 7
ディング 7
デッサン 7
デバイス 7
デメリット 7
デル 7
トナカイ 7
トレンド 7
トレード 7
ドキュメンタリー 7
ドシン 7
ドンドン 7
ドー 7
ナショナル 7
ニス 7
ニュージーランド 7
ニー@@ 7
ネス 7
ネック 7
ノア 7
バイト先 7
バカ@@ 7
バッ 7
バック@@ 7
バッジ 7
バッド 7
バーニング 7
パッ@@ 7
ヒアリング 7
ヒステリック 7
ビリヤード 7
ファスト 7
フィンランド 7
フト 7
フレンドリー 7
フレーム 7
フロ@@ 7
ブリ@@ 7
ブレスレット 7
ブー@@ 7
プス 7
プライ@@ 7
プラットホーム 7
プリ 7
プレ 7
プー 7
ヘルプ 7
ベジタリアン 7
ベン 7
ベンダー 7
ベー@@ 7
ホ 7
ホッ@@ 7
ホルダー 7
ホームシック 7
ホーン 7
ボクサー 7
ポエム 7
ポッ@@ 7
ポートフォリオ 7
マイクロフィルム 7
マジ@@ 7
マス@@ 7
マット 7
マツ 7
ミュージック 7
ミラー 7
ムキ 7
メアリー 7
メタ 7
メタン 7
モスクワ 7
モダン 7
ュ 7
ラル 7
ランド 7
ラード 7
リストラ 7
リズミカル 7
リターン 7
リティ 7
リフォーム 7
リュ@@ 7
ルス 7
レセプション 7
レビュー 7
レー@@ 7
レーター 7
ロイヤル 7
ロゴ 7
ロサンゼルス 7
ワイ@@ 7
ワックス 7
ワンゲル 7
ワンワン 7
ンな 7
ング@@ 7
ーカー 7
ージ 7
ール@@ 7
一人@@ 7
一利 7
一命 7
一存 7
一式 7
一様 7
七千 7
万年 7
上書き 7
上納 7
上野 7
下がら 7
下山 7
下車 7
下駄 7
不信 7
不倫 7
不可解 7
不向き 7
不和 7
不慮 7
不発 7
不確か 7
世@@ 7
並び@@ 7
並木 7
中東 7
中流 7
丸薬 7
主演 7
主管 7
乗り気 7
事@@ 7
二者 7
交 7
人身 7
今さら 7
介入 7
仏@@ 7
仕立て 7
付き合える 7
付帯 7
付託 7
代わる代わる 7
以@@ 7
任さ 7
伊藤 7
伏@@ 7
伝っ 7
伯母 7
伸ばさ 7
伸び@@ 7
伸縮 7
低級 7
住み@@ 7
住め 7
佐伯 7
体質 7
作り上げる 7
作り笑い 7
併用 7
使 7
使@@ 7
例@@ 7
例文 7
供養 7
信奉 7
修め 7
修了 7
修士 7
修道 7
俳句 7
倉@@ 7
倍増 7
倒 7
借款 7
停泊 7
健診 7
健闘 7
傍@@ 7
傍観 7
備わっ 7
傾く 7
働き手 7
儒家 7
償還 7
優等 7
儿 7
先代 7
先着 7
光@@ 7
光明 7
光来 7
光臨 7
光芒 7
入り乱れ 7
入れ替える 7
入ろう 7
入党 7
全快 7
全権 7
全集 7
公債 7
共存 7
具@@ 7
典@@ 7
兼 7
兼@@ 7
内線 7
円満 7
円筒 7
写 7
写す 7
冷え冷え 7
冷や@@ 7
冷やす 7
冷房 7
凍ら 7
凍りつい 7
凝視 7
処し 7
凱旋 7
出来合い 7
出番 7
出納 7
出航 7
分厚い 7
分岐 7
切らし 7
切り取っ 7
切り抜ける 7
切り株 7
初耳 7
判@@ 7
判子 7
利率 7
制@@ 7
則 7
削り 7
前任 7
前年 7
前月 7
前期 7
前歯 7
前非 7
剛直 7
剥い 7
剥がれ 7
副次 7
割安 7
加藤 7
加速 7
劣悪 7
助@@ 7
助け@@ 7
労農 7
勃発 7
募っ 7
勤める 7
勧誘 7
区画 7
区間 7
半数 7
半期 7
卓 7
協@@ 7
占う 7
厚@@ 7
原動 7
厳@@ 7
厳罰 7
双眼 7
反感 7
反故 7
収まら 7
取り入ろう 7
取り替える 7
取り残さ 7
取扱い 7
受 7
受けよう 7
受け継が 7
受け継ぐ 7
口々 7
口下手 7
召使 7
可愛らしい 7
台本 7
史@@ 7
右派 7
右足 7
各省 7
合える 7
吉林 7
同棲 7
名字 7
名曲 7
名残 7
名残惜し 7
名物 7
名画 7
向き合っ 7
向こう側 7
含有 7
吸い殻 7
吸い込ま 7
吸い込ん 7
吹こう 7
吹聴 7
呑気 7
呼@@ 7
呼び止め 7
命@@ 7
和歌山 7
品評 7
問いただす 7
営ん 7
営利 7
嘆願 7
嘘つき 7
嘲笑 7
器材 7
噴出 7
噴射 7
噴火 7
回りくどい 7
団員 7
図り 7
国々 7
国内外 7
土日 7
圧@@ 7
在留 7
地毛 7
地道 7
垂れ下がっ 7
埃 7
基@@ 7
基板 7
基盤 7
堪える 7
塗り@@ 7
塗炭 7
塩分 7
境目 7
墓@@ 7
墨@@ 7
声望 7
売り出し 7
売り渡す 7
夢想 7
大ざっぱ 7
大人しく 7
大病 7
大風 7
天ぷら 7
天災 7
天皇 7
天真 7
失態 7
奇 7
奇遇 7
奔走 7
奥歯 7
奥深く 7
奨励 7
奪@@ 7
奪い@@ 7
奮起 7
好ましく 7
妖精 7
妻子 7
委 7
姿かたち 7
嫁い 7
存@@ 7
学派 7
守ろう 7
安堵 7
安逸 7
定住 7
定時 7
定番 7
客間 7
室温 7
宮廷 7
宿命 7
寄り@@ 7
寄贈 7
密封 7
寒波 7
寝つけ 7
寝言 7
寝起き 7
対聯 7
封じ 7
専任 7
専属 7
将 7
将校 7
導@@ 7
導き 7
導体 7
小数 7
小柄 7
小物 7
小犬 7
小生 7
小銃 7
小魚 7
少@@ 7
少なめ 7
尺度 7
尽くさ 7
屋根裏 7
山上 7
岡田 7
峠 7
崩す 7
崩れ落ち 7
川崎 7
工@@ 7
工房 7
工科 7
差し上げる 7
差し替え 7
差し込ん 7
巻き起こっ 7
帯@@ 7
帰属 7
常勤 7
年次 7
幸 7
幹事 7
幻覚 7
広漠 7
広西 7
店先 7
度々 7
建@@ 7
建て@@ 7
弁@@ 7
引き下げ 7
引き伸ばし 7
引き合い 7
引き延ばし 7
引き渡す 7
引き返し 7
引ける 7
引っかけ 7
弱まっ 7
強める 7
強国 7
強姦 7
強敵 7
当座 7
当館 7
彗星 7
形象 7
役柄 7
待ち望む 7
待合 7
待機 7
後家 7
後期 7
従軍 7
得@@ 7
得よう 7
得体 7
復員 7
微細 7
徴@@ 7
心房 7
心掛け 7
必需 7
応接 7
快い 7
思いつき 7
思い浮かべ 7
思い知ら 7
思惑 7
思慮 7
怠惰 7
性交 7
性欲 7
恩師 7
悩ま 7
悪ぃ 7
悪夢 7
悲痛 7
惹きつけ 7
愚@@ 7
愛護 7
感@@ 7
感じ取っ 7
感嘆 7
感度 7
慌てふためい 7
憑か 7
憤っ 7
憤激 7
懇願 7
懲らしめ 7
成就 7
戦機 7
戸@@ 7
戻ろう 7
手ぬぐい 7
手りゅう 7
手伝える 7
手厚く 7
手慣れ 7
手持ち 7
手掛かり 7
手書き 7
手綱 7
手落ち 7
打ち破っ 7
打ち鳴らし 7
抑揚 7
投げ出す 7
抗生 7
折衷 7
抜き取り 7
抜け落ち 7
抱き抱え 7
抹消 7
押し倒し 7
押し流し 7
押し黙っ 7
拘@@ 7
拘束 7
拝読 7
拭@@ 7
拳法 7
拾@@ 7
持ち出さ 7
指さし 7
挙@@ 7
振り込ん 7
振り返ら 7
振る舞う 7
挿し 7
捕獲 7
掃く 7
掃討 7
掘り起こす 7
掛かる 7
採算 7
採血 7
探偵 7
探索 7
推挙 7
掴め 7
揃え 7
損じ 7
損得 7
摂り 7
摘む 7
撃 7
撃て 7
播種 7
操っ 7
擦り切れ 7
改心 7
改竄 7
攻める 7
攻勢 7
放電 7
政@@ 7
政務 7
救い出し 7
敗戦 7
教えろ 7
教え子 7
教え導く 7
散 7
敬@@ 7
数@@ 7
整 7
整列 7
断つ 7
断崖 7
新手 7
新曲 7
新生 7
新米 7
新語 7
旅立ち 7
日没 7
早める 7
明る 7
明るみ 7
明朝 7
昼飯 7
時勢 7
時限 7
暇つぶし 7
暑中 7
暑気 7
暫時 7
暴か 7
暴徒 7
曲がり 7
曾祖母 7
最@@ 7
最長 7
月間 7
有り@@ 7
有償 7
木目 7
末っ子 7
末節 7
本場 7
本籍 7
東側 7
林業 7
林立 7
枚数 7
果汁 7
果肉 7
枯れる 7
染@@ 7
格@@ 7
棚上げ 7
棚卸し 7
植林 7
検@@ 7
横切る 7
横道 7
橋脚 7
機@@ 7
機転 7
欄干 7
次官 7
欺瞞 7
歌える 7
歓談 7
歩ま 7
歩み寄っ 7
歯ごたえ 7
残虐 7
殴@@ 7
段違い 7
比べれ 7
気まずい 7
気取り 7
気持 7
気色 7
水文 7
水没 7
水筒 7
水質 7
水車 7
水銀 7
汚く 7
決@@ 7
決め事 7
決壊 7
沈没 7
沸き@@ 7
油圧 7
泊め 7
波風 7
泣き叫ん 7
泣き声 7
泥沼 7
注が 7
注入 7
注視 7
洗い流し 7
洗礼 7
洞察 7
流し@@ 7
流れ出 7
流れ星 7
流れ込む 7
浅はか 7
浮き沈み 7
浮遊 7
浴室 7
浸水 7
浸食 7
消@@ 7
消え去っ 7
深かっ 7
深遠 7
混み 7
清涼 7
済@@ 7
済南 7
湧い 7
湯気 7
湿り気 7
湿地 7
満@@ 7
満期 7
溜@@ 7
溶かす 7
溶け@@ 7
溺死 7
滑り台 7
滴り落ち 7
滴り落ちる 7
漆 7
漏れる 7
演 7
漬ける 7
潜伏 7
激怒 7
瀬戸 7
火気 7
火薬 7
災禍 7
炒める 7
点滅 7
無形 7
無我 7
無機 7
無罪 7
無量 7
無駄遣い 7
焼けつく 7
煩わしい 7
熊手 7
熱し 7
燃やし 7
燃やす 7
燐酸 7
爆笑 7
片付い 7
片側 7
片時 7
片面 7
牢獄 7
物干し 7
特等 7
特製 7
犂 7
狂気 7
狙撃 7
独り占め 7
狼狽 7
猛@@ 7
猟犬 7
率いる 7
理性 7
理髪 7
甚大 7
生え@@ 7
生える 7
生かす 7
生き@@ 7
生き残っ 7
生き残る 7
生まれ@@ 7
生まれ変わる 7
生み出さ 7
生彩 7
生後 7
生臭 7
用@@ 7
用命 7
用量 7
田野 7
申し@@ 7
町@@ 7
画期 7
留置 7
畝 7
略 7
略@@ 7
異様 7
疑惑 7
病@@ 7
痛@@ 7
癒す 7
発ち 7
発汗 7
登れ 7
的外れ 7
盗難 7
監禁 7
目当て 7
直@@ 7
直っ 7
直系 7
直角 7
省く 7
省エネ 7
眠れる 7
眼光 7
着込ん 7
石橋 7
石膏 7
破ら 7
破り 7
硫酸 7
示唆 7
礼@@ 7
礼砲 7
祝い事 7
祝辞 7
祝電 7
私的 7
秤 7
称し 7
移入 7
稈 7
程々 7
税込み 7
積 7
積み@@ 7
積荷 7
究極 7
空き缶 7
空輸 7
突 7
突き当たり 7
突き破る 7
突発 7
窯 7
立ち上がら 7
端子 7
竹やぶ 7
笑いもの 7
筆力 7
筆者 7
筆致 7
答 7
策略 7
算段 7
粕漬 7
粗暴 7
粘り強く 7
糧 7
糸口 7
紅白 7
純度 7
紗 7
素姓 7
細 7
細@@ 7
細か 7
紺碧 7
終 7
組ま 7
組み@@ 7
結っ 7
結びつける 7
結集 7
絵巻 7
絶命 7
絶壁 7
綱渡り 7
綿布 7
練れ 7
縁組み 7
縛る 7
縫い 7
縫い@@ 7
繁忙 7
繋げ 7
羊肉 7
羽根 7
羽田 7
翻っ 7
老眼 7
老齢 7
考えよう 7
考えろ 7
耳打ち 7
耳鼻 7
聞ける 7
聴取 7
肘 7
肥@@ 7
肥大 7
育種 7
背筋 7
胎児 7
胡弓 7
脅かし 7
脱 7
脱退 7
腐ら 7
腕章 7
腫物 7
腹立ち 7
膠着 7
臨界 7
自供 7
自尊 7
自愛 7
自炊 7
自適 7
臼 7
興し 7
舞い落ち 7
舞い降り 7
舞踏 7
舵 7
船体 7
艶 7
花壇 7
苦戦 7
苦闘 7
茶色 7
草@@ 7
草地 7
荒波 7
落@@ 7
落ちくぼん 7
落ち込み 7
落とし物 7
落書き 7
著 7
葡萄 7
蒸し暑かっ 7
蒸し暑く 7
蕎麦 7
薄れ 7
薄味 7
薦める 7
薬用 7
虎 7
蠟 7
行き止まり 7
行列 7
行商 7
街中 7
街頭 7
衛 7
衣料 7
表皮 7
被@@ 7
裁く 7
裁定 7
裂く 7
裂け 7
装丁 7
裏地 7
補足 7
製本 7
製薬 7
製鉄 7
西南 7
要職 7
覆い隠す 7
見下し 7
見合い 7
見失う 7
見据え 7
見積もっ 7
覚まさ 7
覧 7
角@@ 7
解@@ 7
解剖 7
計らい 7
計り 7
託 7
記帳 7
評議 7
試す 7
試みる 7
試食 7
話し声 7
誇示 7
誓約 7
語り@@ 7
語り合っ 7
誠心 7
読み取る 7
談話 7
請け合い 7
論評 7
論調 7
諸@@ 7
諸葛 7
識字 7
豆乳 7
豪勢 7
財貨 7
貨車 7
販促 7
販路 7
貪 7
貴@@ 7
買い得 7
買い替え 7
貸し@@ 7
貸し出す 7
貼り 7
賓客 7
賞与 7
賢 7
賢かっ 7
賭博 7
贈呈 7
赤らめ 7
走り回る 7
起業 7
起草 7
超越 7
越冬 7
足る 7
足場 7
踏み出し 7
踏切 7
車軸 7
軟らかい 7
転げ落ち 7
転任 7
転嫁 7
軽んじる 7
軽量 7
載 7
輪@@ 7
辞任 7
農園 7
農夫 7
農繁 7
込もう 7
迂回 7
近寄る 7
追いはぎ 7
追い払う 7
退廃 7
退路 7
送り先 7
送り届け 7
送還 7
逃がさ 7
逆らえ 7
逆流 7
途切れる 7
通れ 7
通わ 7
通院 7
速かっ 7
造形 7
造船 7
連れ立っ 7
逸する 7
運び出し 7
運河 7
過@@ 7
道順 7
違 7
遣っ 7
遮蔽 7
選集 7
遺失 7
避暑 7
邁進 7
郷鎮 7
配 7
配@@ 7
配合 7
配給 7
酒@@ 7
酒食 7
酒飲み 7
酸っぱい 7
重なり 7
重苦しい 7
野ウサギ 7
金目 7
針仕事 7
針路 7
銀賞 7
鋳造 7
長旅 7
長続き 7
閉まり 7
閉会 7
関 7
関@@ 7
防空 7
阿@@ 7
降水 7
陣痛 7
陥れよう 7
陰@@ 7
陳情 7
陳腐 7
階層 7
隔て 7
隠@@ 7
隠し立て 7
隣接 7
隣町 7
雀 7
集積 7
雌鶏 7
雑文 7
雛 7
離脱 7
雨上がり 7
雨粒 7
雷鳴 7
青葉 7
静め 7
非番 7
面持ち 7
面識 7
靴@@ 7
音節 7
韻 7
響か 7
領事 7
頭数 7
頭脳 7
顔かたち 7
顧みる 7
風通し 7
風邪薬 7
飛び越え 7
食い物 7
飢餓 7
飼い主 7
飼い葉 7
駆け出し 7
骨組み 7
髄 7
高けれ 7
高低 7
高貴 7
高跳び 7
鬢 7
魚@@ 7
魯 7
鮮血 7
鳥肌 7
鳥類 7
黒山 7
黙禱 7
鼻@@ 7
２０１２ 7
( 6
10000 6
110 6
123 6
180 6
1970 6
1990 6
199@@ 6
350 6
42 6
55 6
82 6
85 6
99 6
Bradford 6
EU 6
Health 6
Holman 6
Phil 6
Rollins 6
V@@ 6
burning 6
com 6
ir@@ 6
is@@ 6
j@@ 6
la@@ 6
re@@ 6
ri@@ 6
ve 6
z 6
あい@@ 6
あえい 6
あおぐ 6
あかぎれ 6
あがき 6
あごひげ 6
あずかり 6
あせ@@ 6
あぶねー 6
あやし 6
ありさ 6
あれっ 6
いか@@ 6
いじ 6
いずこ 6
いちず 6
いでよ 6
いまさら 6
いやらしい 6
うしろ 6
うせろ 6
うたた寝 6
うっ@@ 6
うっそう 6
うめ 6
うろたえる 6
うろつい 6
うんこ 6
えげつない 6
えと 6
えんえん 6
おこす 6
おさめる 6
おだ 6
おの 6
おもしろく 6
おッ 6
かか@@ 6
かき立てる 6
かくまっ 6
かぐわしい 6
かけ@@ 6
かし@@ 6
かしこまっ 6
かた@@ 6
かちんかちん 6
かな@@ 6
かぶと 6
からし 6
かり@@ 6
かわいらしい 6
がし 6
がら@@ 6
がらん 6
がんばる 6
きつ 6
きまり悪 6
きゃあ 6
きょとん 6
きら 6
き出し 6
くしゃくしゃ 6
くじ@@ 6
くす@@ 6
くせえ 6
くたばり 6
くださ 6
くっそ 6
くっつけ 6
くどくどしい 6
くまなく 6
くるり 6
ぐるり 6
けなす 6
けば@@ 6
げいこ 6
こうむる 6
こき@@ 6
こじつけ 6
こた@@ 6
こびへつらう 6
こまめ 6
こもごも 6
ころころ 6
こんろ 6
ごうごう 6
さい@@ 6
さいころ 6
さき 6
さしあげ 6
さた 6
さっそく 6
さぼ@@ 6
さまよっ 6
さら 6
さり 6
さわる 6
ざ 6
しつこい 6
しば@@ 6
しぼ@@ 6
しゃく 6
しゃべ@@ 6
しょうしゃ 6
しら@@ 6
しるし 6
しわがれ 6
しん@@ 6
しんどかっ 6
じだんだ 6
すくい@@ 6
すず 6
すっからかん 6
すれ違っ 6
すわっ 6
ずうずうしい 6
ずぶぬれ 6
ずら@@ 6
ずるく 6
せがん 6
せっ@@ 6
せんじ薬 6
ぜん 6
そぎ@@ 6
そそくさ 6
そそぐ 6
そそっかしい 6
そる 6
それ@@ 6
それる 6
そわそわ 6
たし 6
たたり 6
たどり@@ 6
たどり着い 6
たな 6
たま 6
たまげ 6
たまり水 6
たわわ 6
だあ 6
だまし取っ 6
だんらん 6
ちっこい 6
ちなん 6
ちらほら 6
っちり 6
ってぇ 6
つかっ 6
つかみ@@ 6
つかみどころ 6
つきまとう 6
つくし 6
つぶやい 6
つま@@ 6
つり上げ 6
つんざく 6
づらく 6
てこ 6
てんぷら 6
でかし 6
でこ 6
でん 6
とか 6
とてつ 6
とどろい 6
とまっ 6
ともし 6
ともす 6
とらわれる 6
とろ火 6
どうこう 6
どもり 6
どーぞ 6
なかれ 6
なく@@ 6
なけりゃ 6
なじま 6
なすりつけ 6
なで@@ 6
にきび 6
にんにく 6
ぬい 6
ぬき 6
ぬぐっ 6
ぬるま湯 6
ねたむ 6
ねだり 6
のぅ 6
のけ 6
のこ 6
のち 6
のどか 6
のろま 6
はいっ 6
はがし 6
はぎ@@ 6
はく 6
はさん 6
はし 6
はしゃい 6
はじ@@ 6
はじく 6
はためい 6
はて 6
はねる 6
はは 6
はめ込ん 6
はらはら 6
ばくち 6
ばら@@ 6
ぱったり 6
ひけらかし 6
ひじ 6
ひっかき 6
ひど 6
ひどかっ 6
ひょ@@ 6
ひょっこり 6
びり 6
びれ 6
ふき 6
ふけり 6
ふさ@@ 6
ふさがっ 6
ふしだら 6
ふつう 6
ふる 6
ふる@@ 6
ふるっ 6
ぶち壊し 6
ぶっきらぼう 6
ぶっ放し 6
ぶっ飛ばす 6
ぶら@@ 6
ぶらつい 6
ぶり返し 6
へっ 6
へとへと 6
へなへな 6
へー 6
ぺ 6
ほうき 6
ほくろ 6
ほぐし 6
ほころび 6
ほっぺた 6
ほどい 6
ほほえむ 6
ほーら 6
ぼろ@@ 6
ぽつぽつ 6
まき散らす 6
まげて 6
まち 6
まちがい 6
まっ@@ 6
まつげ 6
まと@@ 6
まぶし 6
まぶしく 6
まろやか 6
みつける 6
むか@@ 6
むかつく 6
むき 6
むだ遣い 6
むちゃくちゃ 6
むなしく 6
めで 6
めでたい 6
めん@@ 6
もがい 6
もがく 6
もくろみ 6
もくろむ 6
もじもじ 6
もたらさ 6
もど@@ 6
もらい@@ 6
もり 6
もろ 6
もー 6
やき 6
やじ 6
ょ@@ 6
よじ登る 6
よそ見 6
よもや 6
らしかっ 6
らせ 6
られれ 6
り合っ 6
ろくろ 6
わさび 6
んこ 6
んー 6
アイコン 6
アカ@@ 6
アスリート 6
アップグレード 6
アパレル 6
アラ@@ 6
アラーム 6
アルプス 6
アレ@@ 6
アーノルド 6
イカ@@ 6
イケ 6
イコール 6
イド 6
イノシシ 6
イヤー 6
イラン 6
インター 6
インチ 6
インディアン 6
インパクト 6
インフォメーション 6
インフレーション 6
ウィルス 6
ウイグル 6
ウェー 6
ウェーブ 6
ウォン 6
ウシ 6
エコ 6
エスカレーター 6
エル@@ 6
エレベータ 6
エンジニアリング 6
エンヤ 6
オペレーション 6
オムライス 6
オーブン 6
オーラ 6
カイ@@ 6
カジュアル 6
カタツムリ 6
カボチャ 6
カリフォルニア 6
カント 6
カーディガン 6
ガタガタ 6
ガラガラ 6
ガル 6
キチッと 6
キック 6
キムチ 6
キャシー 6
キャビア 6
キャンディー 6
キャンドル 6
キリ@@ 6
キロワット 6
ギャグ 6
ギャング 6
クジャク 6
クソッ 6
クレープ 6
クローズ 6
クー 6
グラ 6
グリ 6
グルメ 6
グレード 6
ゲット 6
ゲン 6
ゲーマー 6
コウ 6
コレステロール 6
コンサルティング 6
コンビ 6
コンプライアンス 6
コンベア 6
コンロ 6
ゴン 6
サッ 6
サプリメント 6
サンタクロース 6
サンド 6
サンドウィッチ 6
シア@@ 6
シアトル 6
シティ 6
シャル 6
シャン@@ 6
シュッシュッ 6
シード 6
ジェーソン 6
ジャー@@ 6
ジョンソン 6
スカウト 6
スキ@@ 6
スキャナー 6
スキューバ 6
スクリ@@ 6
スケートボード 6
スタ 6
ストッキング 6
ストーカー 6
スポンサー 6
スマ@@ 6
スライダー 6
スルー 6
セクハラ 6
セッション 6
ゼーション 6
ソックス 6
ソビエト 6
ゾッと 6
タイド 6
タイムリー 6
タグ 6
タダ 6
タヒチ 6
タブー 6
タロウ 6
タンス 6
ターボ@@ 6
チア@@ 6
チック 6
チッチッ 6
チャック 6
チャネル 6
チャー@@ 6
チラッ 6
チワン 6
チームメイト 6
ッシュ@@ 6
ッシング 6
ッス 6
ツイ@@ 6
ツーリング 6
テイクアウト 6
テナー 6
ディズニー 6
ディッシュ 6
トゥ@@ 6
トニオ 6
トピック 6
ドウ 6
ドカン 6
ドッグ 6
ドロ@@ 6
ドン@@ 6
ナイロン 6
ナトリウム 6
ナル 6
ニヤ@@ 6
ヌー@@ 6
ヌード 6
ノン@@ 6
ハイジャック 6
ハラスメント 6
ハードル 6
ハーフ 6
バイオ@@ 6
バイキング 6
バクテリア 6
バグり 6
バタ 6
バチ 6
バックアップ 6
バニラ 6
ババ@@ 6
バラバラ 6
バル@@ 6
バレリーナ 6
バンパー 6
パタパタ 6
パティシエ 6
パニ@@ 6
パノ@@ 6
ヒ 6
ヒマワリ 6
ヒューヒュー 6
ヒーター 6
ビシ@@ 6
ビジネスマン 6
ビビ@@ 6
ビルディング 6
ビン@@ 6
ビー 6
ピア 6
ピオネール 6
ピストン 6
ピック 6
ファイター 6
ファイナンス 6
ファー@@ 6
フィン 6
フォト 6
フォード 6
フフフ 6
フランチャイズ 6
フリーター 6
ブチ@@ 6
ブローカー 6
ブン 6
プラグ 6
プラズマ 6
プラネタリウム 6
プラン@@ 6
プル@@ 6
プレイヤー 6
ヘビー 6
ヘル@@ 6
ヘン 6
ベル@@ 6
ベン@@ 6
ベー 6
ベール 6
ペンギン 6
ペンチ 6
ペースト 6
ホイール 6
ホッと 6
ホモ 6
ホラ 6
ホー@@ 6
ボイス 6
ボディ 6
ボル@@ 6
ポテンシャル 6
ポプラ 6
マイクロ@@ 6
マグロ 6
マニ@@ 6
マニア 6
ミスター 6
メガ@@ 6
メシ 6
モットー 6
モテカワ 6
モヤモヤ 6
モル@@ 6
ヤキモチ 6
ヤー 6
ヤード 6
ュー 6
ユウコ 6
ョ 6
ラジ@@ 6
ラッピング 6
ラテン 6
ラマ 6
ラーニング 6
リア@@ 6
リアクション 6
リアン 6
リニューアル 6
リフレッシュ 6
リーフ 6
ルン@@ 6
レントゲン 6
レーン 6
ロイド 6
ロマンス 6
ローカル 6
ローション 6
ワイルド 6
ワーキング 6
ンク 6
ーく 6
ーション 6
ージ@@ 6
ーブ 6
ーム@@ 6
一わたり 6
一人娘 6
一介 6
一夜 6
一揆 6
一節 6
一続き 6
一郎 6
万端 6
三味 6
三条 6
上がれ 6
上っ面 6
上り下り 6
上役 6
上書 6
上述 6
下方 6
下書き 6
不振 6
不治 6
不況 6
不遜 6
丑 6
世事 6
世渡り 6
丘陵 6
両開き 6
並@@ 6
並ば 6
中ごろ 6
中二 6
中和 6
中尾 6
中高 6
串 6
丸め 6
丸太 6
主宰 6
主治 6
主流 6
乗り出し 6
乗組 6
乗船 6
九@@ 6
乱雑 6
乳房 6
乳母車 6
乾@@ 6
二の次 6
二千 6
二股 6
五入 6
亜美 6
亡き 6
交響 6
亭 6
人だかり 6
人望 6
人殺し 6
人込み 6
人違い 6
仁 6
仕える 6
仕事探し 6
仕入れる 6
仕打ち 6
仕掛ける 6
仕留め 6
仕留める 6
付す 6
付する 6
仙人 6
代価 6
仮想 6
仮病 6
仰天 6
仲むつまじい 6
仲むつまじく 6
件名 6
会堂 6
伝え@@ 6
伝導 6
伝送 6
低減 6
住みつい 6
佐賀 6
余波 6
余白 6
作り直し 6
作為 6
併せ 6
供える 6
依@@ 6
侵す 6
便秘 6
信心 6
信望 6
信義 6
修養 6
倒壊 6
値下がり 6
値札 6
偏差 6
停@@ 6
停まっ 6
偽@@ 6
備@@ 6
備え付け 6
催さ 6
傭兵 6
傾斜 6
儀礼 6
優生 6
元旦 6
元金 6
兄嫁 6
先例 6
先駆け 6
光彩 6
党@@ 6
入れろ 6
入営 6
入館 6
全社 6
公明 6
公有 6
公的 6
公立 6
共謀 6
内装 6
円安 6
再考 6
冗長 6
冥@@ 6
冷やかし 6
凝らす 6
凝集 6
出向く 6
出回っ 6
出庫 6
出撃 6
分かち合う 6
分け隔て 6
分業 6
切り札 6
切ろう 6
切迫 6
刑場 6
判別 6
別便 6
制圧 6
券売 6
刺青 6
刻みつけ 6
刻む 6
削り取っ 6
前夜 6
前島 6
前足 6
剪定 6
剰余 6
割りふり 6
割れる 6
割当 6
劇中 6
力添え 6
劣る 6
助けよう 6
助っ人 6
励まし@@ 6
労 6
労@@ 6
効 6
勇 6
勇ましい 6
勇壮 6
動ける 6
動こう 6
勝ち@@ 6
勝者 6
勤 6
包@@ 6
包容 6
化@@ 6
十@@ 6
千々 6
千古 6
半人 6
半角 6
卑屈 6
協業 6
博学 6
印字 6
卵@@ 6
卵焼き 6
卸し売り 6
厚情 6
原生 6
厳冬 6
厳寒 6
参上 6
及ぼし 6
収まる 6
収量 6
取っ手 6
取っ組み 6
取りそろえ 6
取りつか 6
取り乱し 6
取り壊し 6
取り巻い 6
取り持っ 6
取り換え 6
取り決め 6
取り直し 6
取り込ん 6
取り返す 6
取消 6
受かっ 6
受かる 6
受け身 6
叙情 6
口ひげ 6
口過ぎ 6
叩き 6
可否 6
可愛 6
可愛@@ 6
台北 6
台帳 6
台車 6
叱る 6
叱正 6
史書 6
右目 6
右腕 6
号令 6
合わせれ 6
合点 6
合衆 6
同名 6
同席 6
名まえ 6
名手 6
名産 6
吐露 6
向かい側 6
吟味 6
否決 6
吸着 6
吹きつける 6
吹き飛ばさ 6
吹け 6
吹っ@@ 6
告 6
告訴 6
员会 6
周忌 6
味覚 6
呼び捨て 6
呼ぼう 6
命日 6
和らげ 6
和服 6
和紙 6
咲き誇っ 6
咲子 6
哺乳 6
唐詩 6
問い 6
問い@@ 6
問い合わせる 6
問い詰める 6
問う 6
善悪 6
善行 6
喉元 6
喘息 6
喜劇 6
喪 6
嘆い 6
噴き出し 6
四捨 6
四角い 6
回りくどく 6
回想 6
回虫 6
因縁 6
固有 6
国勢 6
国王 6
国産 6
土壇場 6
土産話 6
土砂降り 6
在来 6
埋め@@ 6
執りなし 6
堅@@ 6
堆肥 6
堪忍 6
塁 6
塞い 6
塞ぐ 6
塩素 6
塵 6
墓前 6
増強 6
増援 6
増設 6
売 6
変異 6
変色 6
変装 6
外せ 6
外回り 6
多発 6
夜半 6
夜行 6
大いなる 6
大まか 6
大将 6
大差 6
大当たり 6
大晦日 6
大盛り 6
大賞 6
大道 6
天山 6
太ら 6
太刀 6
失念 6
失言 6
夾も 6
奇形 6
奔放 6
奥ゆかしい 6
奥底 6
奥義 6
奪い合い 6
奮い立っ 6
奮い立つ 6
奮い起こし 6
奮っ 6
奸@@ 6
好き勝手 6
好ましい 6
好機 6
妖@@ 6
威張り 6
婚礼 6
嫌気 6
子守 6
孔 6
存 6
学ぼう 6
学友 6
学芸 6
完治 6
完済 6
官吏 6
宙 6
定休 6
定例 6
定刻 6
定数 6
定額 6
実体 6
実業 6
宮@@ 6
家主 6
宿屋 6
寂れ 6
寄稿 6
密林 6
密閉 6
富豪 6
寝かせ 6
寝ろ 6
察 6
寸分 6
対価 6
対峙 6
対称 6
射る 6
小山 6
小猫 6
小船 6
少子 6
就労 6
就学 6
就寝 6
屁 6
居候 6
居留 6
屈原 6
属 6
履修 6
山腹 6
島国 6
崩@@ 6
川岸 6
川底 6
巡り会い 6
巡り会う 6
巡る 6
巣@@ 6
巣窟 6
工員 6
巨人 6
差し伸べ 6
差し出す 6
差し引き 6
巻か 6
巻き起こす 6
帝@@ 6
師@@ 6
席順 6
帰り@@ 6
帰れよ 6
常時 6
幕@@ 6
干 6
干し草 6
干ばつ 6
平価 6
平地 6
平板 6
年ごろ 6
年賀 6
幸甚 6
幼@@ 6
幼少 6
幽@@ 6
幾多 6
広がり 6
床@@ 6
廃墟 6
建 6
引きこもり 6
引き取り 6
引き回し 6
引き渡さ 6
引き立た 6
引き継が 6
引き続い 6
引き落とし 6
引き金 6
引き離し 6
強まっ 6
強運 6
当たり@@ 6
当てはめる 6
形@@ 6
形相 6
彩り 6
彩雲 6
役@@ 6
役立て 6
往診 6
待@@ 6
待たさ 6
後味 6
後尾 6
従姉妹 6
復元 6
微力 6
徴集 6
心がける 6
心づもり 6
心底 6
必修 6
忍び込ん 6
志向 6
志士 6
忘れ去ら 6
応 6
忠@@ 6
怒鳴りつける 6
怒鳴る 6
思い当たる 6
思い起こし 6
思い込む 6
思索 6
怪し 6
怪しく 6
恐る 6
恐慌 6
恒例 6
恒星 6
恥じ入っ 6
恩@@ 6
恩返し 6
恫喝 6
息@@ 6
息抜き 6
悔い改める 6
悠然 6
悩ます 6
悩み事 6
悪ふざけ 6
悪役 6
悪態 6
悪運 6
情実 6
情感 6
情操 6
情理 6
惑わさ 6
想 6
愁傷 6
愚か者 6
愛す 6
愛人 6
愛犬 6
愛知 6
感知 6
憎ま 6
憤然 6
懇談 6
懇請 6
成っ 6
成る 6
成都 6
戒 6
戦利 6
戦力 6
戦国 6
戦局 6
戦況 6
戸棚 6
扇 6
手ぶり 6
手伝@@ 6
手工 6
手管 6
手軽 6
打ち上げる 6
打ち負かし 6
打算 6
払@@ 6
技@@ 6
技法 6
投げつけ 6
投げ出さ 6
投棄 6
折り合い 6
折れ曲がっ 6
抜群 6
抱きしめる 6
抱きつい 6
抱きつか 6
抱き締め 6
抱擁 6
押さえつける 6
押しつける 6
押しつぶさ 6
押し流さ 6
押し通す 6
押印 6
拉致 6
拒ん 6
拡充 6
拭き 6
拭き@@ 6
持ち株 6
持久 6
指折り 6
挑ん 6
挙 6
挙手 6
挟み 6
振り返り 6
捜さ 6
捜し@@ 6
捜し出せ 6
捜し求める 6
据え 6
捻挫 6
掌 6
掘削 6
採取 6
探求 6
接@@ 6
接収 6
掴む 6
揃う 6
描き@@ 6
揺@@ 6
揺さぶっ 6
揺すっ 6
搾り取る 6
撤去 6
撤廃 6
撫@@ 6
擦り傷 6
擦れ 6
改まっ 6
放熱 6
救え 6
救護 6
教え@@ 6
教条 6
教練 6
敬い 6
敬愛 6
整合 6
敵意 6
文科 6
斗 6
断ち切っ 6
断ち切ら 6
断ら 6
新刊 6
新劇 6
新式 6
旅券 6
旅立つ 6
早けれ 6
早熟 6
昇@@ 6
昇降 6
明媚 6
明晰 6
明月 6
昨 6
時たま 6
時宜 6
時給 6
晦@@ 6
晩@@ 6
晩ご飯 6
晩婚 6
晴@@ 6
暗 6
暗澹 6
暴行 6
曇ら 6
曲@@ 6
更@@ 6
書き写し 6
書き留め 6
書き留める 6
書式 6
書斎 6
替わっ 6
最上 6
最強 6
最期 6
最盛 6
月初め 6
月給 6
月面 6
月食 6
有り難う 6
有為 6
服し 6
服務 6
朝地 6
朝夕 6
朝晩 6
朝礼 6
朝霧 6
木造 6
杉浦 6
李@@ 6
村々 6
杖 6
来院 6
枕元 6
枝垂れ柳 6
架@@ 6
某 6
柳絮 6
栄える 6
校内 6
根付い 6
格段 6
桃@@ 6
桜@@ 6
梁 6
植@@ 6
検収 6
検死 6
検知 6
検診 6
楚 6
極まる 6
極める 6
極秘 6
楷書 6
楽勝 6
楽屋 6
概観 6
構@@ 6
権謀 6
横たわり 6
樹@@ 6
櫂 6
欠@@ 6
次い 6
次期 6
歌謡 6
正さ 6
正しけれ 6
正大 6
武 6
歯並び 6
歴@@ 6
死人 6
死力 6
死因 6
殊勲 6
殺し屋 6
殺せる 6
殺気 6
母乳 6
毎度 6
毎食 6
比重 6
毛細 6
民家 6
気付け 6
気安く 6
気心 6
気脈 6
水ぶくれ 6
水遊び 6
氷河 6
永続 6
汚名 6
江@@ 6
沖 6
没 6
河@@ 6
河口 6
沸@@ 6
沸き立っ 6
沸騰 6
治まら 6
治める 6
泉美 6
法事 6
波濤 6
泣@@ 6
泳ぎ@@ 6
洒落 6
洗え 6
洗脳 6
洗車 6
流星 6
流水 6
流産 6
流用 6
流石 6
流血 6
浅 6
浅@@ 6
浮か 6
浮かば 6
浮き輪 6
海峡 6
消灯 6
液@@ 6
涼しかっ 6
淮河 6
混ざ@@ 6
混む 6
混在 6
混紡 6
清く 6
清代 6
清水 6
減 6
減量 6
渡河 6
測@@ 6
測り 6
湯水 6
満ちあふれる 6
満場 6
満室 6
源泉 6
滅ぼし 6
滑らし 6
滴@@ 6
漂白 6
漕@@ 6
漬物 6
潤滑 6
激し 6
激高 6
濃 6
火種 6
灯@@ 6
炭火 6
烧饼 6
無害 6
無欠 6
無稽 6
無縁 6
焼@@ 6
焼き付け 6
煎じ 6
照@@ 6
煩わ 6
煩わさ 6
煮込ん 6
熟 6
熱々 6
燃え@@ 6
爆薬 6
爛漫 6
片付ける 6
牛@@ 6
物思い 6
物悲しい 6
特長 6
狂い 6
狂人 6
独力 6
獣医 6
玉@@ 6
王@@ 6
王国 6
王家 6
珍 6
現し 6
琵琶 6
瑕疵 6
瓦ぶき 6
瓶詰め 6
生体 6
生水 6
産休 6
産児 6
産卵 6
田@@ 6
申 6
申し出る 6
男@@ 6
男前 6
画数 6
画策 6
異論 6
病みつき 6
病原 6
病死 6
痛ん 6
発声 6
発現 6
白地 6
皆@@ 6
皮@@ 6
皮質 6
盗聴 6
盛り合わせ 6
盛況 6
目じり 6
目処 6
目新しく 6
目立っ 6
目薬 6
盲腸 6
直せる 6
相殺 6
省@@ 6
真っ盛り 6
真ん丸く 6
眠たい 6
眺望 6
着工 6
睨@@ 6
瞼 6
知育 6
石材 6
破@@ 6
破綻 6
硝煙 6
硬 6
硬@@ 6
硬度 6
硬直 6
碑文 6
礁 6
社説 6
祝祭 6
祥 6
秀才 6
移@@ 6
税理 6
種付け 6
積み出し 6
積み荷 6
積み重ねる 6
積もり 6
穏当 6
空き家 6
突っ込み 6
突っ込む 6
窓側 6
立ち入る 6
立ち去り 6
立ち向かっ 6
立ち回り 6
立ち居 6
立憲 6
端正 6
競@@ 6
竹刀 6
笑@@ 6
等しく 6
筋トレ 6
答礼 6
築 6
築地 6
米@@ 6
粗@@ 6
粘り 6
粘着 6
精華 6
糾弾 6
紛れ 6
素っ裸 6
素性 6
素振り 6
素養 6
細々 6
終点 6
組み合わせる 6
組み版 6
結@@ 6
絹糸 6
続か 6
続行 6
網戸 6
綿@@ 6
緑@@ 6
緑茶 6
締@@ 6
締めつけ 6
編み 6
縁日 6
縫いつけ 6
縫いつける 6
縮め 6
繕う 6
繰@@ 6
繰り 6
置 6
罰則 6
美徳 6
群がっ 6
群山 6
習い事 6
考え出せ 6
考証 6
考課 6
聖 6
聖人 6
聖地 6
聞かさ 6
聞き取れる 6
聞き飽き 6
聴 6
職責 6
肉@@ 6
肉汁 6
肉食 6
肥 6
育た 6
育て上げ 6
胃壁 6
背け 6
背伸び 6
背骨 6
胎 6
脂っこい 6
脱が 6
脳@@ 6
腕@@ 6
腕立て 6
腕輪 6
腰抜け 6
腹心 6
膏 6
膏薬 6
膨れ 6
膳 6
自 6
自作 6
自問 6
自重 6
至上 6
船積 6
船舶 6
船荷 6
色情 6
色調 6
花屋 6
花柄 6
芳しく 6
若かっ 6
英訳 6
茫漠 6
茶店 6
荒 6
荒っぽい 6
荒唐 6
荒地 6
荒野 6
荘 6
菜園 6
萎縮 6
落し 6
落とし穴 6
落とせ 6
落選 6
葵 6
蒙昧 6
蒸す 6
薄ら寒い 6
薫 6
虐げ 6
虚ろ 6
虚心 6
蚊帳 6
融 6
血流 6
血肉 6
行@@ 6
行き詰まる 6
袁 6
裁き 6
裁断 6
裏側 6
裏切る 6
裏口 6
補 6
補@@ 6
補正 6
製@@ 6
製図 6
複線 6
褐色 6
褒賞 6
襲 6
襲いかかっ 6
西北 6
西安 6
要塞 6
見とれ 6
見回す 6
見守り 6
見極める 6
見習っ 6
見込ん 6
視聴覚 6
解ける 6
解毒 6
解熱 6
言い聞かせる 6
訃報 6
訪ねよう 6
許 6
訴 6
詭弁 6
詰め込ん 6
該博 6
誘い@@ 6
語り合う 6
読み上げ 6
読み込み 6
課し 6
課せ 6
請け負っ 6
論証 6
謁見 6
講 6
謹厳 6
識 6
議 6
議決 6
護衛 6
读 6
豊年 6
貝殻 6
貞操 6
財力 6
貧 6
貧窮 6
貪食 6
貫く 6
貯め 6
貴下 6
貴賓 6
貶し 6
買い取っ 6
買物 6
貸さ 6
貸与 6
貸出 6
貼り付け 6
賀 6
賄い 6
赴き 6
起@@ 6
起きれ 6
起因 6
越さ 6
跳ねる 6
踏み入れる 6
躍起 6
身の上 6
身勝手 6
身辺 6
車体 6
車掌 6
車線 6
軍@@ 6
軍国 6
軍艦 6
軒昂 6
軟@@ 6
軟膏 6
転じる 6
軽薄 6
輸出入 6
辛亥 6
辱める 6
込み上げ 6
近寄ら 6
近寄り 6
近辺 6
返上 6
迫 6
追い出す 6
追え 6
退け 6
退会 6
退去 6
退役 6
退避 6
送 6
送り返す 6
逃がし 6
逃げ場 6
逃避 6
逆上 6
逆境 6
逆巻い 6
透析 6
通り@@ 6
通り抜ける 6
通販 6
造 6
造作 6
連ね 6
連れ出し 6
連発 6
進軍 6
逸脱 6
遅@@ 6
遊@@ 6
遊び場 6
遊歴 6
遊走 6
遊離 6
過敏 6
道@@ 6
道ばた 6
道場 6
道楽 6
達人 6
違約 6
遠回り 6
遣い 6
適齢 6
遭わさ 6
遭難 6
選任 6
選定 6
遺@@ 6
都内 6
酒屋 6
醜態 6
重任 6
重用 6
野党 6
野草 6
野鳥 6
針@@ 6
鉄筋 6
銃器 6
銃弾 6
銘じ 6
錫 6
錯覚 6
鍛え上げ 6
鎌 6
鎌倉 6
鎮 6
鎮め 6
鑑定 6
長髪 6
門@@ 6
門前 6
閃光 6
閉ざさ 6
閉じ@@ 6
開こう 6
閑散 6
関数 6
関東 6
閣下 6
防具 6
附属 6
降りれ 6
陛下 6
院生 6
院長 6
除@@ 6
除か 6
陸路 6
陸軍 6
隊形 6
随@@ 6
隔たっ 6
隙間 6
隠し事 6
隠匿 6
隣家 6
集客 6
集結 6
集落 6
集金 6
雌雄 6
雑費 6
雑音 6
離島 6
難航 6
雪@@ 6
雪山 6
雲@@ 6
雲海 6
雲行き 6
雲間 6
零 6
電@@ 6
青二才 6
青島 6
青白く 6
静けさ 6
静岡 6
静止 6
静養 6
非核 6
面前 6
靴底 6
領 6
頼み込む 6
風変わり 6
風貌 6
飛@@ 6
飛び出す 6
飛び回っ 6
飛び散っ 6
飛び込む 6
食おう 6
飲み@@ 6
飲み込む 6
飲もう 6
餓死 6
首謀 6
駆け回っ 6
駆け引き 6
駆逐 6
髄膜 6
高ぶっ 6
高慢 6
高知 6
鬱々 6
黄山 6
黒幕 6
黒色 6
黙々 6
１８ 6
２００ 6
２０１１ 6
３@@ 6
５００ 6
Ｃ@@ 6
ｍ 6
) 5
121314 5
1900 5
1995 5
2002 5
2006 5
36 5
39 5
44 5
525 5
61 5
63 5
78 5
HTML 5
JK 5
MD 5
TV 5
U@@ 5
Wi@@ 5
as@@ 5
ay 5
ch@@ 5
de 5
fighting 5
gu@@ 5
ke 5
le 5
li@@ 5
ll@@ 5
mi@@ 5
ng 5
on 5
on@@ 5
os@@ 5
ra@@ 5
st 5
um 5
wifi 5
× 5
è@@ 5
ī 5
ǎ@@ 5
☆ 5
ああっ 5
あえもの 5
あおむけ 5
あがい 5
あぐら 5
あげ@@ 5
あげく 5
あげよっ 5
あこがれる 5
あざ笑っ 5
あずかる 5
あせ 5
あどけな 5
あぶっ 5
あやまる 5
あらわれ 5
ありあり 5
あん@@ 5
あんまし 5
あーあ 5
あーっ 5
いかめしい 5
いさめる 5
いじくっ 5
いじる 5
いたい 5
いたずら@@ 5
いち@@ 5
いちゃいちゃ 5
いぶ@@ 5
いやあ 5
いらっ 5
いんちき 5
うかがえる 5
うず@@ 5
うだつ 5
うつ伏せ 5
うつ病 5
うな@@ 5
うねり 5
うのみ 5
うま@@ 5
うめき声 5
うらやまし 5
うろたえ 5
うー 5
えせ 5
おい@@ 5
おおげさ 5
おおー 5
おごる 5
おび@@ 5
おぼれ 5
おもいっきり 5
おもう 5
おろ@@ 5
おわり 5
おんぼろ 5
かえ@@ 5
かがめる 5
かき回し 5
かき混ぜ 5
かぐ 5
かじかん 5
かすめ取っ 5
かすめ取る 5
かすれ 5
かたづけ 5
かつ@@ 5
かば@@ 5
かぼちゃ 5
かみ締め 5
かゆく 5
からかい 5
からだ 5
かろうじて 5
かわし 5
かんざし 5
がう 5
がたみ 5
がつがつ 5
がま 5
がらくた 5
きつかっ 5
きめ細かく 5
きゅうり 5
きらめき 5
ぎゃ 5
ぎる 5
くい違い 5
くう 5
くくる 5
くさる 5
くたびれもうけ 5
くつろぐ 5
くぼん 5
くま 5
ぐう@@ 5
ぐら 5
ぐらつい 5
けいこ 5
けいれん 5
けしかけ 5
けしかける 5
けたたましい 5
けなし 5
けりゃ 5
こい@@ 5
こう@@ 5
こうむっ 5
こぎ@@ 5
こたえ 5
こなせる 5
こぼれる 5
こわい 5
こん@@ 5
こん棒 5
ごう 5
ごっちゃ 5
さえずっ 5
さくらんぼ 5
さしあたり 5
さじ 5
さば 5
さば@@ 5
さばく 5
さみしい 5
さら@@ 5
さる 5
さん@@ 5
さーん 5
ざお 5
ざわざわ 5
しおり 5
しかりつける 5
しけ 5
して 5
しな@@ 5
しのい 5
しのぐ 5
しぶき 5
しる 5
じぎ 5
じゃー 5
じょう@@ 5
すえ 5
すす@@ 5
すすり泣く 5
すずり 5
すばやい 5
すばらし 5
すばらしかっ 5
すり減っ 5
する@@ 5
ずる賢い 5
せき払い 5
せき立て 5
ぜっ 5
ぜんまい 5
そうこう 5
そうそう 5
そそり立つ 5
そっけなく 5
ぞ@@ 5
ぞう 5
ぞうきん 5
ぞくぞく 5
ぞろ@@ 5
たあ 5
たい@@ 5
たくっ 5
たずね 5
ただただ 5
たどたどしく 5
たどり着く 5
ためらい 5
ためる 5
たやすく 5
たら@@ 5
たらし 5
たらたら 5
たわい 5
たわごと 5
だぁ 5
だいじょうぶ 5
だか 5
だしぬけ 5
だに 5
ちょい 5
ちり@@ 5
ちんぴら 5
っぱ 5
っぷり 5
っ張り 5
っ腹 5
つかえ 5
つかまり 5
つかれ 5
つくら 5
つくり@@ 5
つけ込む 5
つけ込ん 5
つづ@@ 5
つづり 5
つとめ 5
つな@@ 5
つね 5
つぼみ 5
つま 5
つまっ 5
つむじ 5
つめ@@ 5
つややか 5
つり上げる 5
つるさ 5
づく 5
づつ 5
てか 5
てこっ 5
てんで 5
てんやわんや 5
でかけ 5
でき@@ 5
でん@@ 5
とが@@ 5
ときゃ 5
とて 5
とどけ 5
とどまら 5
とどろき 5
とめる 5
とりで 5
とん@@ 5
どきどき 5
どり 5
どる 5
なくさ 5
なくなら 5
なくなれ 5
なた 5
なま@@ 5
なめ@@ 5
なん@@ 5
なーん 5
にぎ@@ 5
にぎわっ 5
にく 5
にやにや 5
ぬかるん 5
ぬぐう 5
ぬるく 5
のぞか 5
のぞき@@ 5
はきはき 5
はけ口 5
はげ@@ 5
はさま 5
はし@@ 5
はしか 5
はしっぽ 5
はしゃぎ 5
はじき@@ 5
はず@@ 5
はずせ 5
はたい 5
はたして 5
はなはだ 5
はばから 5
はびこっ 5
はめ込ま 5
はら@@ 5
はらん 5
ばかし 5
ばっさり 5
ばっちり 5
ばら 5
ばらつき 5
ばら売り 5
ばる 5
ぱっぱっ 5
ひざ@@ 5
ひしめき合っ 5
ひそめる 5
ひたむき 5
ひっ 5
ひっくり返る 5
ひとり@@ 5
ひねっ 5
ひやっ 5
ひりひり 5
ひるむ 5
びき 5
びしょびしょ 5
びしょ濡れ 5
びた 5
びっ 5
ふき@@ 5
ふきん 5
ふさがり 5
ふさぎ@@ 5
ふっかけ 5
ふっくら 5
ふっ飛ばし 5
ふんだ@@ 5
ふんまん 5
ふー 5
ぶざま 5
ぶら下げ 5
ぶん@@ 5
ぶん殴る 5
へこん 5
へそくり 5
へつらい 5
へど 5
へばりつい 5
べったり 5
ほい 5
ほうり@@ 5
ほうろう 5
ほころ@@ 5
ほじ@@ 5
ほじくる 5
ほどく 5
ぼうぜん 5
ぼっ 5
ぼろもうけ 5
ぽつん 5
まき@@ 5
まくり上げ 5
まくり上げる 5
ましょ 5
またい 5
まちまち 5
まり@@ 5
まろう 5
まんまと 5
みえる 5
みたらし 5
みどり 5
み合っ 5
むき@@ 5
むこう 5
むだ口 5
むち打ち 5
むつまじい 5
もえ 5
もぎ@@ 5
もち米 5
もの狂い 5
もみ@@ 5
もみ洗い 5
もも 5
もらし 5
もろ@@ 5
もんどり 5
ゃ 5
やきもち 5
やくざ 5
やさし 5
やすやす 5
やすり 5
やわら@@ 5
やんちゃ 5
やんわり 5
ゅ@@ 5
ゆうべ 5
ゆら@@ 5
ゆるさ 5
よう@@ 5
よじ登っ 5
よろけ 5
よろめき 5
らい@@ 5
らう 5
らし@@ 5
りっぱ 5
りつい 5
れ込ん 5
ろう@@ 5
ろん 5
わいわい 5
わき出 5
わそう 5
わっしょい 5
わなわな 5
わびる 5
わら@@ 5
わるい 5
われる 5
わんぱく 5
わんわん 5
アウトソーシング 5
アクティブ 5
アジ@@ 5
アス 5
アスベスト 5
アッ@@ 5
アデ@@ 5
アニサキス 5
アポ 5
アポイント 5
アメ@@ 5
アメリ@@ 5
アラスカ 5
アル 5
アルデヒド 5
アングル 5
アンチ 5
アンティーク 5
アーモンド 5
イニシャル 5
イネ 5
イルミネーション 5
イングランド 5
インターナショナル 5
インフラ 5
インプット 5
イ族 5
ゥ@@ 5
ウィン@@ 5
ウェル@@ 5
ウォー@@ 5
ウォーク 5
ウオ 5
ウルグアイ 5
ウロウロ 5
ウー@@ 5
ェ@@ 5
エキ@@ 5
エコノミスト 5
エステティシャン 5
エネルギッシュ 5
エラ@@ 5
エンターテイメント 5
オオ@@ 5
オッ 5
オル@@ 5
オーディオ 5
カウンセラー 5
カシワ 5
カスタマイズ 5
カタ@@ 5
カツオ 5
カナ@@ 5
カブ 5
カヤック 5
カラ 5
カラフル 5
カリウム 5
カレ@@ 5
カワイ 5
カントリー 5
カーボン 5
ガソック 5
ガタ 5
ガッカリ 5
ガラ 5
キム 5
キメ@@ 5
キャスト 5
キャッ@@ 5
キャッチャー 5
キャビネット 5
キャンキャン 5
キュー 5
キョ@@ 5
キン@@ 5
ギス 5
ギヤ 5
ギー 5
クション 5
クセ 5
クッソ 5
クラ 5
クライ@@ 5
クラクション 5
クリエイター 5
クリン 5
クリーン 5
クローバー 5
グロ 5
グワ@@ 5
ケチャップ 5
ケーション 5
ケージ 5
ゲス 5
コアラ 5
コク 5
コソコソ 5
コマンド 5
コマース 5
コミュニティー 5
コラーゲン 5
コロンブス 5
コントラスト 5
ゴクン 5
ゴビ 5
ゴホン 5
ゴールキーパー 5
サウジアラビア 5
サク 5
サナトリウム 5
サボ@@ 5
サーチライト 5
ザクロ 5
ザメ 5
ザリガニ 5
シアン 5
シアー 5
シガ@@ 5
シナ 5
シナ@@ 5
シマ 5
シマウマ 5
シャフト 5
シャベル 5
シュタイン 5
ショウガ 5
ショー@@ 5
シリ@@ 5
シワ 5
ジェル 5
ジスト 5
ジャ 5
ジャングル 5
ジャージャー 5
ジング 5
ジーパン 5
スカーフ 5
スガ@@ 5
スクラップ 5
スケベ 5
スケール 5
スゲェ 5
スコープ 5
ステー@@ 5
ストリ@@ 5
スパート 5
スプリング 5
スペア 5
スマホ 5
スモ@@ 5
スモッグ 5
ズルズル 5
ズー@@ 5
セクト 5
セリング 5
セレ@@ 5
セレブ 5
セロリ 5
センチメートル 5
ゼネラル 5
ゼン@@ 5
ソロー 5
ゾン 5
タイプライター 5
タイマー 5
タマネギ 5
タンカー 5
ダイナマイト 5
ダイナミック 5
ダイレクト 5
ダッ@@ 5
ダボ 5
ダンピング 5
ダーウィン 5
チカン 5
チャイナ 5
チャラ 5
チュ 5
チュン 5
チョ 5
チョウチョウ 5
チョモランマ 5
チング 5
チー 5
ッて 5
ッグ@@ 5
ッド@@ 5
ツイッター 5
ツケ 5
ツバ 5
ヅ@@ 5
ティブ 5
テイク 5
テキ@@ 5
テキサス 5
テレ 5
ディスカッション 5
デカ@@ 5
デュ@@ 5
デルタ 5
デンマーク 5
トナー 5
トマ@@ 5
トラン@@ 5
トランス 5
トレッキング 5
トロ 5
ドゥ@@ 5
ドキ@@ 5
ドクター 5
ドック 5
ドラ 5
ドラッグストア 5
ドラフト 5
ドリブル 5
ドレッシング 5
ドロップ 5
ドー@@ 5
ドーナッツ 5
ナイト 5
ナー@@ 5
ニックネーム 5
ニャン 5
ヌ 5
ネオン 5
ネーション 5
ノイズ 5
ノウハウ 5
ノミ 5
ハアハア 5
ハイウェー 5
ハイパー 5
ハエたたき 5
ハズレ 5
ハチ 5
ハハ@@ 5
ハミ 5
ハロウィーン 5
ハンド@@ 5
ハー 5
ハードウェア 5
ハーバード 5
バエ 5
バカンス 5
バシ@@ 5
バタン 5
バッタ 5
バトミントン 5
バラ@@ 5
バラード 5
バリケード 5
バリバリ 5
バレる 5
バーガー 5
パオズ 5
パス@@ 5
パタン 5
パッド 5
パトカー 5
パラパラ 5
パラメーター 5
パル@@ 5
パーク 5
パーマン 5
ヒヒ 5
ヒュ@@ 5
ヒューマン 5
ビビら 5
ビラ 5
ビーム 5
ピチャピチャ 5
ピッタリ 5
ピュ@@ 5
ピューピュー 5
ピング 5
ピンチ 5
ファイ 5
ファシズム 5
フィットネス 5
フィナーレ 5
フィラ@@ 5
フェン@@ 5
フェース 5
フォーマット 5
フクロウ 5
フジ 5
フラスコ 5
フラフラ 5
フレー 5
ブッ@@ 5
ブラ 5
ブラウス 5
ブラックリスト 5
ブラン@@ 5
ブレイク 5
ブレス 5
ブーケ 5
ブーブー 5
プサン 5
プシー 5
プター 5
プッシュ 5
プライシング 5
プラカード 5
プリンタ 5
プレミアム 5
プンプン 5
ヘ 5
ヘリウム 5
ベア 5
ベネズエラ 5
ペダル 5
ペニス 5
ホイッスル 5
ホットケーキ 5
ホル@@ 5
ホルン 5
ホース 5
ホームルーム 5
ボイコット 5
ボケ@@ 5
ボンベ 5
ボーッと 5
ポタポタ 5
ポルトガル 5
ポロ 5
ポロポロ 5
ポータブル 5
ポール 5
マイナー 5
マカオ 5
マクドナルド 5
マック 5
マッシュ 5
マネージメント 5
マフィア 5
マブダチ 5
マリファナ 5
マリン 5
マル@@ 5
ミドル 5
ミュンヘン 5
ミラノ 5
ミリリットル 5
ミル@@ 5
ムズ 5
メン 5
メンタル 5
メーカ 5
モバイル 5
モヤシ 5
モリ@@ 5
モータ 5
モーニング 5
ヤダ 5
ヤッ@@ 5
ヤバ 5
ヤロウ 5
ユウキ 5
ヨット 5
ライ 5
ライフ 5
ライフスタイル 5
ライン@@ 5
ラウンド 5
ラグビー 5
ラジコン 5
ラス 5
ラテ 5
ラテンアメリカ 5
ランダム 5
ランドリー 5
リアリズム 5
リカ 5
リソース 5
リティー 5
リベ@@ 5
リムジン 5
リューマチ 5
リンス 5
リーディング 5
ルドルフ 5
ルフ 5
レア 5
レクリエーション 5
ロケ 5
ロジック 5
ロビ@@ 5
ワイヤ 5
ワイン@@ 5
ワガママ 5
ワザと 5
ワークショップ 5
ンズ 5
ーサー 5
ーマ@@ 5
ーマン 5
一くだり 5
一まとめ 5
一人ひとり 5
一席 5
一端 5
一緒くた 5
一肌 5
一躍 5
一風 5
万丈 5
三峡 5
三振 5
上げろ 5
上り坂 5
上旬 5
上薬 5
上訴 5
下々 5
下がれ 5
下げ@@ 5
下さる 5
下ろさ 5
下ろせ 5
下唇 5
下回っ 5
下調べ 5
不可@@ 5
不味い 5
不憫 5
不手際 5
不敵 5
不潔 5
不肖 5
不調 5
不遇 5
与@@ 5
与党 5
両性 5
両用 5
両眼 5
中型 5
中堅 5
中天 5
丸出し 5
丸印 5
丸顔 5
丹念 5
主体 5
主旨 5
之 5
乗り継ぎ 5
乗換 5
乳牛 5
亀 5
予断 5
二の足 5
二三 5
二口 5
亡霊 5
享楽 5
人ごみ 5
人でなし 5
人件 5
人払い 5
人造 5
人馬 5
仇 5
介し 5
仏壇 5
仏頂 5
仕事帰り 5
仕業 5
他@@ 5
他者 5
他言 5
付き従っ 5
付け@@ 5
代弁 5
仮@@ 5
仮設 5
仰せ 5
伏し 5
休会 5
休眠 5
休職 5
会費 5
伝授 5
伴 5
伴わ 5
伸@@ 5
伸びやか 5
似顔 5
但し 5
低温 5
住みか 5
住める 5
佐々木 5
余韻 5
作り直す 5
作料 5
使い分け 5
供与 5
侮れ 5
侵し 5
俗世 5
俗物 5
保釈 5
信任 5
修飾 5
俯@@ 5
個室 5
個展 5
倍率 5
倒れ込ん 5
候 5
値動き 5
偉業 5
停め 5
停職 5
健在 5
偶に 5
備蓄 5
傷つく 5
傷ん 5
傷付け 5
傷害 5
傷痍 5
働かす 5
僭越 5
償い 5
優越 5
元日 5
先ず 5
先天 5
先見 5
先覚 5
克@@ 5
免@@ 5
党籍 5
入れよ 5
入ん 5
入籍 5
全文 5
全軍 5
全隊 5
八卦 5
公営 5
公認 5
公費 5
共用 5
兵站 5
兼任 5
兼用 5
内幕 5
内気 5
円滑 5
再四 5
冒し 5
冒頭 5
写生 5
冠水 5
冷た 5
冷まし 5
冷める 5
凝@@ 5
凡人 5
処 5
処す 5
凶@@ 5
凹@@ 5
出し合っ 5
出兵 5
出回る 5
出家 5
出所 5
出来上がり 5
出獄 5
分かり@@ 5
分け@@ 5
分娩 5
分量 5
切り立っ 5
切り落とす 5
切り開き 5
切り離す 5
切れ目 5
切望 5
切開 5
刈り 5
列席 5
判り 5
別れ@@ 5
別居 5
利回り 5
利発 5
制覇 5
刷り 5
刺し@@ 5
刻み 5
剃@@ 5
削り取る 5
前人 5
前列 5
前庭 5
前田 5
剛 5
割と 5
割ら 5
割りふる 5
割れ目 5
力持ち 5
助長 5
励@@ 5
労動 5
労務 5
動態 5
勘案 5
務@@ 5
勿体 5
包 5
化けの皮 5
化し 5
北上 5
北極 5
北西 5
区切り 5
半休 5
半殺し 5
华全 5
卑@@ 5
卒中 5
卒倒 5
卓@@ 5
南下 5
南極 5
単 5
博@@ 5
博覧 5
危篤 5
即刻 5
厚かましい 5
厚着 5
原案 5
原点 5
原田 5
参る 5
参会 5
双@@ 5
取りかかる 5
取りやめ 5
取り仕切っ 5
取り合わ 5
取り囲ま 5
取り巻く 5
取り柄 5
取り次ぎ 5
取り留め 5
取り組ま 5
取り込む 5
取付 5
受け答え 5
受益 5
受諾 5
口コミ 5
口数 5
口笛 5
古来 5
句読点 5
叩か 5
召@@ 5
召し上がれ 5
召喚 5
可哀そう 5
可燃 5
台@@ 5
右上 5
右心 5
右折 5
右肩 5
司祭 5
合わ@@ 5
合わさ 5
合わせよう 5
合作 5
合奏 5
合弁 5
合鍵 5
吉凶 5
同族 5
同額 5
名札 5
名案 5
向かい風 5
吸い取る 5
吸える 5
吸虫 5
吸血 5
吹きだし 5
吹き抜ける 5
吹っ飛ばす 5
吹部 5
呈し 5
呈する 5
员 5
呪@@ 5
呼び声 5
呼び起こし 5
命名 5
咲か 5
咽頭 5
品位 5
品揃え 5
哲@@ 5
唐代 5
問答 5
善@@ 5
善処 5
善後 5
喉頭 5
喰らっ 5
営@@ 5
嗅@@ 5
嗅ぐ 5
噴い 5
回り@@ 5
回れ 5
囲み 5
図ろう 5
図柄 5
固@@ 5
国力 5
国宝 5
国難 5
土塀 5
土質 5
在り 5
地平 5
坑 5
坑内 5
執る 5
報@@ 5
塗りつぶす 5
塗り替え 5
塩水 5
塩焼き 5
塩酸 5
増幅 5
増額 5
墨汁 5
壁@@ 5
壁面 5
壇 5
壇上 5
壕 5
士官 5
声援 5
売り込み 5
売り込む 5
売場 5
変われ 5
変幻 5
外債 5
外形 5
多岐 5
多種 5
夜通し 5
大きめ 5
大もうけ 5
大五郎 5
大損 5
大概 5
大漁 5
大王 5
大麻 5
大黒 5
天命 5
天道 5
失 5
失敬 5
失調 5
奉@@ 5
奉公 5
奏 5
奪い取っ 5
女中 5
女王 5
女神 5
女色 5
好き好き 5
如意 5
始まら 5
始動 5
始発 5
姓名 5
委ね 5
威光 5
威勢 5
婿入り 5
嫁ぎ先 5
嫌疑 5
孔明 5
字@@ 5
存続 5
孤島 5
学籍 5
学風 5
守勢 5
安危 5
完売 5
完結 5
定価 5
定性 5
定理 5
定評 5
宛名 5
宝庫 5
実例 5
実演 5
宣誓 5
宮崎 5
家々 5
家系 5
容 5
容認 5
宿願 5
密告 5
密集 5
富強 5
富裕 5
富農 5
寒け 5
寒気 5
寝かせる 5
寝そべっ 5
寝入り 5
寝過ごし 5
察知 5
寡黙 5
対人 5
対局 5
封@@ 5
専務 5
専売 5
尋ね@@ 5
導き出す 5
小事 5
小旗 5
小箱 5
小羊 5
小腸 5
小豆 5
小躍り 5
少 5
尖@@ 5
尽 5
尽@@ 5
尾部 5
屈伏 5
届@@ 5
届け先 5
届出 5
屋@@ 5
履け 5
山あい 5
山口 5
岸部 5
峡 5
島根 5
崩さ 5
嶺 5
川島 5
川辺 5
巡り会っ 5
左翼 5
左耳 5
差し入れ 5
差し出し 5
差し引く 5
差し押さえ 5
巻@@ 5
巻きつい 5
巻きつける 5
巻き込み 5
巻き込む 5
师 5
帯びる 5
帰路 5
帰順 5
帳票 5
常套 5
常習 5
幅広く 5
干からび 5
平底 5
平時 5
年中 5
年俸 5
年越し 5
広まる 5
広義 5
序@@ 5
店長 5
度合い 5
度外 5
座標 5
座礁 5
座視 5
廃部 5
式@@ 5
式場 5
引 5
引きちぎっ 5
引き出さ 5
引き合う 5
引き延ばす 5
引き返す 5
引っ込ん 5
弱め 5
弱体 5
弱小 5
弱火 5
弱者 5
張り合っ 5
強いて 5
弾き語り 5
弾ま 5
当たり散らす 5
当てはまら 5
当て字 5
当人 5
当代 5
当地 5
形跡 5
影印 5
往生 5
待ち受け 5
後ろ手 5
後先 5
後援 5
後続 5
後藤 5
後見 5
後進 5
徐 5
従え 5
従順 5
復@@ 5
微塵 5
微小 5
徹 5
心拍 5
心苦しい 5
心配り 5
志す 5
忠義 5
快晴 5
念願 5
思い上がっ 5
思い浮かば 5
思い浮かべる 5
思い煩@@ 5
思い起こさ 5
思潮 5
怠@@ 5
急進 5
性@@ 5
怨@@ 5
恐喝 5
息の根 5
息苦しい 5
悔しく 5
悟空 5
患う 5
情誼 5
意匠 5
意訳 5
愛し合う 5
愛せ 5
愛媛 5
感づい 5
慈@@ 5
慌てふためき 5
慕っ 5
慚愧 5
慶@@ 5
憎@@ 5
憲 5
憲@@ 5
懲り 5
懸@@ 5
懸かり 5
成り立っ 5
成り立つ 5
戒厳 5
戦え 5
戦地 5
戦時 5
戯曲 5
戸口 5
戸締り 5
戻 5
所長 5
手ぶら 5
手分け 5
手厳しい 5
手厳しく 5
手引き 5
手心 5
手放さ 5
手放せ 5
手渡す 5
手痛い 5
手編み 5
手腕 5
手話 5
打ちどころ 5
打ち寄せ 5
打ち捨て 5
打ち解ける 5
打ち込む 5
払暁 5
扮装 5
扱え 5
扼@@ 5
技量 5
投げかける 5
折@@ 5
折りたた@@ 5
折り畳み 5
折り返す 5
折衝 5
抜き取っ 5
抜粋 5
抱え込ん 5
押しとどめ 5
押し込ん 5
担@@ 5
担ぎ 5
拒む 5
拙宅 5
招き入れ 5
拝受 5
拝啓 5
持ちかけ 5
指先 5
指向 5
挙行 5
振りまく 5
振り向く 5
振り絞っ 5
振り込ま 5
振る舞っ 5
振出 5
挿絵 5
捏造 5
捕まえよう 5
捕らえどころ 5
捜そう 5
掃き 5
授乳 5
排泄 5
掘ら 5
掛け値 5
採ら 5
採決 5
探さ 5
探し@@ 5
探そう 5
接戦 5
推@@ 5
推論 5
推量 5
掻@@ 5
掻き@@ 5
提@@ 5
提げる 5
揚@@ 5
揚げ@@ 5
換@@ 5
握り 5
援兵 5
損@@ 5
損なわ 5
損ね 5
摂る 5
撃退 5
撫で 5
操 5
操@@ 5
擦っ 5
攪拌 5
改悛 5
放た 5
放蕩 5
救@@ 5
救出 5
救国 5
散ら@@ 5
散らかし 5
散り 5
散布 5
数え@@ 5
敷き@@ 5
敷き詰め 5
文体 5
文面 5
斑 5
斥候 5
断わら 5
新居 5
新薬 5
新設 5
新鋭 5
旅立っ 5
旋 5
日づけ 5
日めくり 5
日よけ 5
日帰り 5
日干し 5
日雇い 5
旧式 5
旧跡 5
早産 5
昂然 5
昆明 5
昇り 5
昌 5
明かす 5
明快 5
昔@@ 5
昔々 5
星空 5
映@@ 5
映える 5
映ら 5
映写 5
春先 5
春夏 5
春節 5
春耕 5
昨今 5
昼@@ 5
時効 5
晴れ上がっ 5
暗かっ 5
暮@@ 5
暮らせ 5
暮色 5
暴飲 5
書き付け 5
書き写す 5
書き取り 5
書き込ん 5
書士 5
替え玉 5
替わる 5
有形 5
服する 5
朗唱 5
望@@ 5
朝風 5
朝飯 5
末尾 5
本堂 5
本書 5
杉 5
束ね 5
来春 5
東照 5
松林 5
林@@ 5
果断 5
枯れ葉 5
架 5
染める 5
染料 5
柱@@ 5
査 5
栃木 5
校訂 5
根こそぎ 5
根回し 5
格子 5
格納 5
案ずる 5
案の定 5
梅@@ 5
梗塞 5
棒引き 5
棒線 5
植えつけ 5
検察 5
検疫 5
楊 5
業@@ 5
極上 5
極楽 5
楽園 5
概ね 5
概略 5
構図 5
標 5
標@@ 5
模擬 5
横っ面 5
横取り 5
横行 5
橋@@ 5
機敏 5
機雷 5
欠かす 5
欠如 5
歌唱 5
歓待 5
歓心 5
歓楽 5
止 5
止み 5
正味 5
正座 5
正気 5
此処 5
武官 5
歩@@ 5
歩み寄る 5
歩もう 5
歯茎 5
死す 5
殉じる 5
残 5
残照 5
殺@@ 5
殺そう 5
母校 5
母音 5
比類 5
民国 5
気合い 5
気品 5
気宇 5
気後れ 5
気泡 5
気炎 5
気落ち 5
気遣う 5
気難しい 5
気骨 5
水の泡 5
水仙 5
水域 5
水夫 5
水溶 5
水色 5
水虫 5
水辺 5
汲み@@ 5
決し 5
決め@@ 5
決めろ 5
決行 5
決裂 5
沈下 5
沈殿 5
没する 5
沢東 5
沸き立つ 5
油井 5
沿う 5
泊@@ 5
法務 5
泡@@ 5
波動 5
波形 5
波打つ 5
泥@@ 5
注@@ 5
泳が 5
洋子 5
洗 5
洗@@ 5
津々 5
活字 5
活路 5
流れ出る 5
浚渫 5
浜 5
浮浪 5
浴@@ 5
浴びせる 5
浴槽 5
海苔 5
海運 5
浸け 5
浸す 5
消え@@ 5
消え去る 5
消し@@ 5
液化 5
液晶 5
涼み 5
涼む 5
淑女 5
深まる 5
混じりけ 5
混み合っ 5
混入 5
混同 5
清書 5
清栄 5
渡れ 5
湖@@ 5
湿 5
満州 5
溜まる 5
溜め 5
溶岩 5
滅ぼさ 5
滋養 5
滑@@ 5
滑り@@ 5
滑稽 5
滞@@ 5
滞ら 5
滴る 5
漁 5
漁@@ 5
漁場 5
漁夫 5
漆器 5
演@@ 5
演目 5
演算 5
漫@@ 5
潔癖 5
潜め 5
潜り 5
潜り込む 5
潜入 5
潰@@ 5
潰す 5
濁す 5
濾過 5
瀋陽 5
瀕する 5
灌木 5
火葬 5
灯ろう 5
灯台 5
炊い 5
炊き 5
炊煙 5
烈火 5
無くす 5
無けれ 5
無学 5
無援 5
煎餅 5
煙幕 5
照りつける 5
照れ隠し 5
照準 5
煩わし 5
煮沸 5
煮物 5
熟れ 5
熟読 5
熱血 5
燃費 5
燕 5
燻製 5
爵 5
片言 5
片道 5
片隅 5
版本 5
牛車 5
牧師 5
牧草 5
物ごい 5
物心 5
物書き 5
物的 5
特効 5
特約 5
牽制 5
犯行 5
狙わ 5
狩人 5
狩猟 5
狭@@ 5
猛暑 5
猪 5
猿人 5
獄 5
玉ねぎ 5
王位 5
現@@ 5
球形 5
琴線 5
瓦礫 5
甘@@ 5
生み出し 5
生卵 5
生業 5
生誕 5
産@@ 5
産後 5
用務 5
甲高い 5
申@@ 5
申し立てる 5
申し開き 5
畏敬 5
留保 5
留意 5
略称 5
異音 5
疎@@ 5
疹 5
疾走 5
病棟 5
病理 5
病魔 5
痔 5
痛え 5
発光 5
発火 5
発破 5
登@@ 5
白兵 5
白旗 5
白昼 5
皆勤 5
皇@@ 5
皮革 5
盗@@ 5
盗人 5
盛@@ 5
盛る 5
目ざす 5
目鼻 5
盲 5
盲従 5
相応しい 5
盾突い 5
盾突く 5
省都 5
真ん丸 5
真冬 5
着任 5
睡魔 5
瞬い 5
知@@ 5
知り合う 5
知己 5
知謀 5
石段 5
石頭 5
砂丘 5
研い 5
砲丸 5
砲兵 5
破格 5
硫化 5
礼節 5
社@@ 5
社名 5
祈祷 5
祖 5
祝し 5
祭っ 5
祭る 5
祭祀 5
福 5
秀で 5
秋冬 5
秋葉原 5
秋雨 5
秋頃 5
科挙 5
秘 5
秘方 5
稀 5
税制 5
稚魚 5
種@@ 5
稼げ 5
稼げる 5
積@@ 5
積み替え 5
積み木 5
積み込み 5
積立 5
積雪 5
穴蔵 5
空室 5
突き出し 5
突き進ん 5
突っ立っ 5
突如 5
窓際 5
窮@@ 5
立ち上がれ 5
立ち入っ 5
立ち昇っ 5
立とう 5
立替 5
立脚 5
童話 5
竹林 5
竿 5
笑いかけ 5
筆@@ 5
筆先 5
筆遣い 5
筋合い 5
筋書き 5
答えろ 5
算定 5
管@@ 5
簡便 5
粗い 5
粘り気 5
粛清 5
精油 5
精緻 5
精霊 5
紀 5
紀元 5
紅@@ 5
紅楼 5
紋様 5
納棺 5
純情 5
純朴 5
紛らわしい 5
素手 5
紫色 5
累積 5
紹興 5
紺色 5
終結 5
終身 5
終電 5
組め 5
経常 5
結束 5
結納 5
結露 5
絞首 5
給@@ 5
給仕 5
絵@@ 5
絶交 5
絶体 5
絶景 5
継ぎ@@ 5
継ぎ合わせる 5
網袋 5
綿々 5
綿毛 5
綿糸 5
緊密 5
総体 5
締まる 5
締めくくり 5
緩 5
緩衝 5
緯度 5
練っ 5
練ら 5
縄跳び 5
縛りつけ 5
縛り上げ 5
縦@@ 5
縫製 5
縮@@ 5
縮こまっ 5
縮む 5
繋がら 5
織@@ 5
繰延 5
纏め 5
置換 5
置物 5
罵倒 5
美緒 5
美酒 5
羨まし 5
羨ましかっ 5
義俠 5
義姉 5
義母 5
考えごと 5
考え事 5
耐水 5
耐火 5
耐熱 5
耐震 5
耳@@ 5
聖歌 5
聞きつけ 5
聞きつける 5
聞き出し 5
聞き耳 5
聴診 5
職能 5
肌着 5
背い 5
胴@@ 5
脂質 5
脅かさ 5
脈拍 5
脊柱 5
脱税 5
脱線 5
腐れ縁 5
腐食 5
腔 5
腫れる 5
腱 5
腹立たしい 5
膨脹 5
臨終 5
自制 5
自失 5
自得 5
自業 5
自滅 5
自称 5
自筆 5
自販 5
自足 5
至@@ 5
至極 5
舅 5
舗装 5
舞い 5
舞い上がる 5
舶来 5
船便 5
船酔い 5
良家 5
良種 5
良薬 5
色あせ 5
花々 5
花かご 5
花婿 5
花弁 5
芽球 5
苗字 5
若き 5
英知 5
茂る 5
草ぶき 5
草書 5
荒々しく 5
荒涼 5
荘重 5
菜食 5
落ち@@ 5
落ちつい 5
落ち着けよ 5
落ち着ける 5
葛藤 5
葬ら 5
薄着 5
薬学 5
薬液 5
藁 5
藉 5
藍 5
藤岡 5
虚@@ 5
虚名 5
虚無 5
虞 5
蜂の巣 5
蜜 5
血縁 5
血色 5
行え 5
行き届か 5
行き違い 5
街路 5
街道 5
衡 5
表さ 5
表わさ 5
表われる 5
表題 5
裁 5
裏づけ 5
補完 5
裸足 5
製法 5
複@@ 5
褒めたたえ 5
褒め言葉 5
要@@ 5
要所 5
覆さ 5
覇 5
見い@@ 5
見え隠れ 5
見せしめ 5
見せびらかす 5
見る見る 5
見下ろす 5
見張っ 5
見張る 5
見放さ 5
見渡し 5
見計らっ 5
見開く 5
覗い 5
親近 5
角刈り 5
触発 5
言いがかり 5
言い表せ 5
言い触らす 5
言葉数 5
討つ 5
託送 5
記さ 5
証文 5
評@@ 5
試さ 5
試飲 5
詰め込む 5
詰問 5
話し合おう 5
話し合わ 5
誇らしく 5
誘発 5
語@@ 5
語法 5
読解 5
課さ 5
課す 5
調教 5
論議 5
諭す 5
講和 5
謝@@ 5
謝れ 5
謹慎 5
譜面 5
警護 5
譲り合う 5
譲ろう 5
豆@@ 5
象眼 5
豪@@ 5
豪傑 5
負かす 5
販 5
貴国 5
買い上げる 5
買い付ける 5
貸 5
貼ら 5
賛美 5
質屋 5
質朴 5
質疑 5
質量 5
賭ける 5
赤身 5
起き上がり 5
起き上がる 5
起用 5
越す 5
足かせ 5
足踏み 5
跳ね@@ 5
踊れ 5
踏まえる 5
踏み 5
踏みにじる 5
踏み出す 5
踏み込ま 5
踏査 5
身の毛 5
身障 5
車夫 5
軍用 5
軟らか 5
軟弱 5
転々 5
転ば 5
転化 5
軽傷 5
軽微 5
軽蔑 5
輿 5
込み入っ 5
辿っ 5
迫り 5
追い出そう 5
追い求め 5
退出 5
退化 5
退席 5
送@@ 5
送り迎え 5
逆さ 5
透き通っ 5
透視 5
逐次 5
通りかかっ 5
通りすがり 5
通告 5
通暁 5
通気 5
速める 5
速力 5
造@@ 5
連帯 5
連綿 5
逼迫 5
遅らせる 5
遊べる 5
遊戯 5
遊泳 5
運べ 5
過ぎ去り 5
過小 5
過少 5
過渡 5
道程 5
道連れ 5
違背 5
遠ざかっ 5
遠縁 5
適格 5
適量 5
遺 5
遼寧 5
避けよう 5
避妊 5
部数 5
都心 5
配備 5
酒場 5
酔っ払う 5
酷暑 5
酸味 5
里帰り 5
重々しい 5
重々しく 5
重き 5
野営 5
量り売り 5
量販 5
金沢 5
金銀 5
釘付け 5
釣り針 5
鈍@@ 5
鉱産 5
銀白 5
銅@@ 5
銑鉄 5
鋭利 5
鋭気 5
鋳 5
鋳@@ 5
鋳型 5
鋼材 5
鋼板 5
鎮@@ 5
鎮痛 5
長安 5
長引か 5
長者 5
開 5
開けよう 5
開廷 5
開演 5
開講 5
間中 5
間違う 5
間食 5
関の山 5
閲兵 5
闘 5
防 5
防げ 5
防げる 5
防寒 5
防除 5
防音 5
阻害 5
降り@@ 5
陣容 5
除 5
除き 5
除名 5
陥没 5
陰陽 5
陸地 5
陽光 5
隔週 5
際限 5
障っ 5
隣り合っ 5
隣国 5
隷属 5
雄@@ 5
雑巾 5
雑念 5
雑種 5
雑食 5
離れよう 5
離れろ 5
難く 5
難点 5
難解 5
雨季 5
雪原 5
雲霧 5
電極 5
震動 5
震撼 5
霊@@ 5
露見 5
青銅 5
面構え 5
面白味 5
順@@ 5
頑 5
頤和 5
頭蓋 5
頭角 5
頼め 5
題目 5
顔@@ 5
顕示 5
願い出る 5
類人 5
風化 5
風流 5
風雅 5
飛 5
飛び去っ 5
飛び回る 5
飛び抜け 5
食い止める 5
食べ@@ 5
食べれる 5
食べろ 5
食らう 5
飲み下し 5
飲み水 5
飲み込ま 5
飼いならし 5
飾 5
飾り立てる 5
養@@ 5
香川 5
駆@@ 5
駆け寄っ 5
駆け足 5
駆り立て 5
駐 5
駒 5
騒々しく 5
騒然 5
騙@@ 5
驚かし 5
高ぶる 5
高めよう 5
高三 5
高位 5
高潮 5
鬼ごっこ 5
魅惑 5
魚雷 5
鳴ら 5
鳴り物 5
鶏@@ 5
鷲 5
鷹 5
麗 5
麗しく 5
麻婆 5
麻縄 5
麻袋 5
黄土 5
黄浦 5
黄身 5
黙@@ 5
鼻先 5
鼻腔 5
齢 5
０ 5
１０００ 5
１９@@ 5
２００８ 5
２１ 5
６５ 5
ＩＤ 5
Ｓ 5
# 4
* 4
001 4
105 4
12@@ 4
1800 4
1946 4
1949 4
1987 4
198@@ 4
2001 4
2005 4
2008 4
2009 4
200@@ 4
2014 4
35@@ 4
43 4
57 4
59 4
75 4
79 4
95 4
AF@@ 4
Baron 4
CV 4
DNA 4
EC@@ 4
Ernesto 4
Fashion 4
G 4
GEL 4
Gl@@ 4
Glenn 4
Goo@@ 4
HIV 4
Hotels 4
Howard 4
IC 4
KY 4
Kate 4
LP 4
Lo@@ 4
MEGA 4
Monica 4
N 4
NG 4
None 4
ON 4
Outlet 4
Patio 4
PayPal 4
Pete 4
Powers 4
QC 4
Radio 4
SPW 4
Ste@@ 4
TA 4
TM 4
TOEIC 4
USB 4
Whi@@ 4
ar@@ 4
au@@ 4
ce 4
ds 4
el@@ 4
es 4
fighter 4
hi@@ 4
ji@@ 4
odi@@ 4
ol@@ 4
oo@@ 4
ow 4
ow@@ 4
qu@@ 4
rg@@ 4
st@@ 4
ter 4
th 4
v@@ 4
x 4
yī 4
zài 4
é@@ 4
í@@ 4
ó@@ 4
ā@@ 4
ē@@ 4
① 4
② 4
○ 4
〆切 4
あいくち 4
あいづち 4
あえ 4
あおり立て 4
あか@@ 4
あく@@ 4
あさって 4
あさる 4
あざ 4
あざけっ 4
あしらっ 4
あず@@ 4
あったかい 4
あてる 4
あと@@ 4
あな 4
あぶ@@ 4
あまっ 4
あやうく 4
あらあら 4
あられ 4
あらわ 4
ありが@@ 4
ありきたり 4
ありつこう 4
いかめしく 4
いくばく 4
いけにえ 4
いさめ 4
いし 4
いじっ 4
いたっ 4
いたん 4
いちゃ@@ 4
いちゃつい 4
いちゃつく 4
いち早く 4
いっ@@ 4
いとも 4
いな 4
いま@@ 4
いやはや 4
いらだつ 4
いらっしゃら 4
いー 4
うかがい知る 4
うがっ 4
うす 4
うす暗く 4
うそうそ 4
うっぷん 4
うとうと 4
うなぎ登り 4
うむ 4
うやむや 4
うらぶれ 4
うらやむ 4
うり二つ 4
うる@@ 4
うろつき 4
うわぁ 4
うんち 4
うーむ 4
えいっ 4
えぐら 4
えぐり@@ 4
えつける 4
えらく 4
おおかた 4
おおっ 4
おくっ 4
おこ@@ 4
おしい 4
おち 4
おてんば 4
おととい 4
おとり 4
おぼ@@ 4
おもに 4
おわっ 4
お早う 4
かえし 4
かかわり合い 4
かき込ん 4
かぎ@@ 4
かぎ裂き 4
かけれ 4
かけ離れ 4
かこう 4
かさばっ 4
かさぶた 4
かさむ 4
かせる 4
かたち 4
かたり 4
かち@@ 4
かっ@@ 4
かど@@ 4
かない 4
かならず 4
かぶら 4
かまし 4
かまち 4
かみつく 4
かゆみ 4
かりかり 4
かわいら@@ 4
がえ 4
がっくり 4
がみがみ 4
がり@@ 4
がん首 4
きげん 4
きこう 4
きざ 4
きし 4
きちっと 4
きび 4
きまじめ 4
きめ細か 4
きめ細かい 4
きゃ 4
きり@@ 4
きりきり 4
き声 4
ぎこちない 4
ぎこちなく 4
ぎっ 4
ぎゃ@@ 4
くい@@ 4
くい違っ 4
くくり@@ 4
くぐる 4
くじけ 4
くすぐったい 4
くすぐる 4
くすぶっ 4
くすん 4
くそ@@ 4
くだ 4
くちばし 4
くつろ@@ 4
くべ 4
くぼ地 4
くみ上げる 4
くわ入れ 4
ぐいっ 4
ぐしゃっ 4
ぐち 4
ぐら@@ 4
ぐらつか 4
ぐり@@ 4
けげん 4
けずり@@ 4
けだる 4
けちけち 4
けっ 4
けん@@ 4
けんまく 4
げす 4
げろ 4
こき使わ 4
こし 4
こし@@ 4
こじれ 4
こじ開け 4
こせこせ 4
こたあ 4
こち 4
こっ@@ 4
こてん@@ 4
こな@@ 4
こないだ 4
この方 4
こまねい 4
こめる 4
ころり 4
こわし 4
こわれ 4
ござ 4
ごし 4
ごしごし 4
ごち 4
ごっそり 4
ごまかさ 4
ごまかせ 4
ごみ箱 4
さいなま 4
さい銭 4
さえずり 4
ささい 4
さしあたっ 4
さぞ 4
さつま 4
さなか 4
さばき 4
さまよう 4
さみしく 4
さらし@@ 4
ざら 4
ざれ 4
しあわせ 4
しくじっ 4
しけれ 4
しつらえ 4
しの@@ 4
しみったれ 4
しょっぱい 4
しょぼしょぼ 4
しよ 4
しろう 4
しわくちゃ 4
しんみり 4
じく 4
じめじめ 4
じゃら 4
じゃれ 4
じゃろう 4
じゅ@@ 4
じろり 4
すか 4
すがる 4
すごーい 4
すす 4
すすり泣き 4
すらり 4
すりむい 4
すんで 4
ずきずき 4
ずたずた 4
ずり 4
せかし 4
せかせか 4
せこい 4
せせら@@ 4
せっせと 4
せまっ 4
そうめん 4
そこなっ 4
そそ@@ 4
そそが 4
そそっ@@ 4
そっけ 4
そっちのけ 4
そっぽ 4
そで@@ 4
そなえ 4
そびやかし 4
そろわ 4
たぁ 4
たがり 4
たじろ@@ 4
ただれ 4
たと@@ 4
たない 4
たのむ 4
たまもの 4
たもっ 4
だせ 4
だて 4
だまそう 4
ちぇっ 4
ちぎっ 4
ちぎれ 4
ちまえ 4
ちゃく 4
ちょう 4
ちょくちょく 4
ちょっ@@ 4
ちよ 4
ちら@@ 4
ちらり 4
ちり 4
ちりばめ 4
ちる 4
ちんたら 4
ぢ@@ 4
っこく 4
っしょ 4
った 4
っちい 4
ってー 4
っとり 4
っぷち 4
っぽ@@ 4
っ放し 4
つい@@ 4
ついばむ 4
つかまえ 4
つが 4
つきあわ 4
つきもの 4
つく@@ 4
つくす 4
つぐ 4
つぐ@@ 4
つぐん 4
つけ加え 4
つけ加える 4
つけ根 4
つっ@@ 4
つっ立っ 4
つづる 4
つぶせ 4
つぶて 4
つまむ 4
つめる 4
つり革 4
つるん 4
つれない 4
つんざ@@ 4
づかみ 4
づち 4
づめ 4
てき@@ 4
てこ入れ 4
てら 4
てら@@ 4
できもの 4
でぶ 4
でろ 4
とう@@ 4
とがら 4
とき@@ 4
とく@@ 4
とこう 4
とじ@@ 4
とっつき 4
とっぷり 4
とど@@ 4
とどまり 4
とどろ@@ 4
となり 4
とぼ@@ 4
とまる 4
とめ 4
ともっ 4
ともども 4
とろ 4
とろ@@ 4
とんとん 4
とんぼ 4
とんぼ返り 4
どいつ 4
どっさり 4
どもる 4
どや@@ 4
どら@@ 4
どろどろ 4
なあ@@ 4
ないがしろ 4
なう 4
なおさ 4
なおざり 4
なおっ 4
なくする 4
なさる 4
なせ 4
なでつける 4
なに@@ 4
なべ@@ 4
なよなよ 4
なりすまし 4
におう 4
にかわ 4
にぎわい 4
にじみ 4
にゃん 4
にー 4
ぬかし 4
ぬく 4
ぬるい 4
ねじれ 4
ねむ@@ 4
ねらっ 4
のさばっ 4
のさばる 4
のぞ@@ 4
のぞき 4
のぞき見 4
のほか 4
はい@@ 4
はい上がっ 4
はがす 4
はがれ落ち 4
はぐ 4
はぐ@@ 4
はけ 4
はずす 4
はせ 4
はた 4
はためく 4
はち@@ 4
はったり 4
はね@@ 4
はまり込ん 4
はみ出し 4
はら 4
はらっ 4
ばい菌 4
ばさばさ 4
ばせ 4
ばたつか 4
ばね 4
ぱたぱた 4
ひきつけ 4
ひざまずき 4
ひじ鉄 4
ひだ 4
ひっかか 4
ひで@@ 4
ひとしお 4
ひとたび 4
ひととき 4
ひともうけ 4
ひね@@ 4
ひねる 4
ひゃ@@ 4
ひょうたん 4
ひらめい 4
びくと 4
ぴくっ 4
ぴちぴち 4
ぴょん 4
ぴりぴり 4
ふがいない 4
ふくらはぎ 4
ふくれ面 4
ふけ 4
ふさがら 4
ふやけ 4
ふれ 4
ふんわり 4
ぶちのめす 4
ぶっかけ 4
ぶっ倒れ 4
ぶっ壊し 4
ぶらつき 4
ぶらり 4
ぶるっ 4
ぶれ 4
ぶろしき 4
ぶん 4
ぶん殴っ 4
ぶー 4
ぷっ 4
ぷりぷり 4
へこみ 4
へし折っ 4
へそ 4
へっちゃら 4
へぼ 4
へま 4
べちゃくちゃ 4
べと@@ 4
べよ 4
ぺこぺこ 4
ほう@@ 4
ほうほう 4
ほえ@@ 4
ほご 4
ほぞ 4
ほぞ穴 4
ほったらかす 4
ほとば@@ 4
ほろ 4
ほん 4
ぼう@@ 4
ぼた@@ 4
ぼちぼち 4
ぼり 4
ぽかり 4
ぽっかり 4
ぽつんぽつん 4
まぁまぁ 4
まき散らし 4
まげ 4
まさっ 4
まじない 4
まず@@ 4
まっぴら 4
まつわりつい 4
まつ毛 4
まとう 4
まとまる 4
まとわりつい 4
まないた 4
まれる 4
まわし 4
まわっ 4
みが@@ 4
みすぼらしい 4
みみっちい 4
みや@@ 4
み合い 4
むかっ 4
むかっ腹 4
むき身 4
むくみ 4
むさぼり@@ 4
むせ@@ 4
むやみやたら 4
めいっ 4
めえ 4
めき 4
めす 4
めっきり 4
めまぐるしく 4
もぐもぐ 4
もち@@ 4
もてあそん 4
もどかしい 4
もま 4
もみくちゃ 4
もやし 4
もらえれ 4
もろい 4
やい 4
やさ 4
やじ馬 4
やせ@@ 4
やせ細っ 4
やっ@@ 4
やぶ 4
やべえ 4
やり繰り 4
やろ 4
ゅっ 4
ゆだねる 4
ゆでる 4
ゆる 4
ゆるがせ 4
ようっ 4
よぎっ 4
よこせ 4
よそう 4
よそよそしい 4
よだつ 4
らせん 4
らみ 4
り上げ 4
り上げる 4
り物 4
り込む 4
れー 4
れ込む 4
わぁ 4
わあわあ 4
わき上がっ 4
わき起こる 4
わき道 4
わしい 4
わしく 4
わめき 4
わめく 4
わッ 4
゜ 4
アウトレット 4
アオサ 4
アカデミー 4
アクリル 4
アグ@@ 4
アス@@ 4
アスパラガス 4
アセチレン 4
アダ@@ 4
アドバイザー 4
アノ@@ 4
アパ@@ 4
アブラ@@ 4
アベック 4
アメ 4
アユ 4
アリゾナ 4
アルミニウム 4
アルミ製 4
アワー 4
アンカー 4
アンダー@@ 4
アンニョンハセヨ 4
アンモニア 4
アーク 4
イイ@@ 4
イエロー 4
イエーイ 4
イクラ 4
イジ 4
イソ@@ 4
イタ@@ 4
イチ@@ 4
イチロー 4
イナ@@ 4
インターン 4
インパ@@ 4
インフォーマル 4
インベストメント 4
ウイン@@ 4
ウインチ 4
ウェイト 4
ウェディング 4
ウエスト 4
ウォッチ 4
ウォール 4
ウケる 4
ウジ 4
ウソつき 4
ウナギ 4
ウマ 4
ウマイ 4
ウラン 4
ウンド 4
エイズ 4
エキストラ 4
エクステンション 4
エゴ 4
エックス 4
エッセイ 4
エッセンス 4
エット 4
エドワード 4
エピ@@ 4
エヘン 4
エメラルド 4
エレガント 4
エンジョイ 4
ォ@@ 4
オアシス 4
オオ 4
オギャー 4
オッケー 4
オバマ 4
オフ@@ 4
オプ@@ 4
オペレーター 4
オモチャ 4
オラ@@ 4
オリバー 4
オレゴン 4
オーガ 4
オーディション 4
オート 4
オーメン 4
カイロ 4
カウン@@ 4
カウント 4
カサ@@ 4
カシ@@ 4
カジ@@ 4
カタカタ 4
カタカナ 4
カチカチ 4
カッと 4
カツ 4
カフェイン 4
カフェテリア 4
カラッ 4
カラメル 4
カルガリー 4
カルボ@@ 4
カレント 4
カロ@@ 4
カワ@@ 4
カーキ 4
カーン 4
ガチャガチャ 4
ガリレオ 4
ガーゼ 4
キックオフ 4
キャッチ@@ 4
キャンデー 4
キャンプファイア 4
キュリー 4
キュー@@ 4
キリ 4
キルト 4
キロ@@ 4
キープ 4
キーボード 4
ギシギシ 4
ギタリスト 4
ギーギー 4
クアラルンプール 4
クイ@@ 4
クサ 4
クズ 4
クソ@@ 4
クライマックス 4
クライミング 4
クラッチ 4
クリス@@ 4
クリムゾン 4
クル@@ 4
クローク 4
クローズド 4
グッピー 4
グライダー 4
グラフィ@@ 4
グラフィック 4
グロ@@ 4
グローバリゼーション 4
ゲッ 4
ゲラ 4
コウシンバラ 4
コショウ 4
コッ@@ 4
コペイカ 4
コメディアン 4
コリー 4
コロ@@ 4
コロンビア 4
コンソ@@ 4
コンダ@@ 4
コンド@@ 4
コンプレッサー 4
コークス 4
コーディネート 4
コーディング 4
コーラ 4
コーラス 4
ゴット 4
ゴミ拾い 4
ゴミ捨て 4
ゴリラ 4
ゴロ@@ 4
ゴンドラ 4
サドル 4
サバ 4
サバ@@ 4
サファイア 4
サプライズ 4
サプライヤー 4
サモ@@ 4
サラ@@ 4
サンザシ 4
サンショウ 4
サンジェルメン 4
サンフランシスコ 4
サンプリング 4
サーキット 4
ザイ 4
ザイ@@ 4
ザマ 4
ザン 4
シェ 4
シェル 4
シチュー 4
シッ@@ 4
シフォン 4
シャットダウン 4
シャボン 4
シャンパン 4
シュ 4
シュミ@@ 4
ショナル 4
ション@@ 4
シリン 4
シル 4
シーズ 4
シーソー 4
ジェニー 4
ジャイロ@@ 4
ジャンク 4
ジャンボ 4
ジュエリー 4
ジュー@@ 4
ジョ 4
スっ 4
スウィ@@ 4
スカイプ 4
スキャ@@ 4
スク 4
スケジュ 4
スケー@@ 4
スコップ 4
スタディ 4
スタン@@ 4
スターター 4
スチ@@ 4
スチュ@@ 4
スッ@@ 4
スッキリ 4
スティ 4
スティン 4
ステッキ 4
ステレオ 4
ステンレス 4
ストライク 4
ストライプ 4
ストラテ@@ 4
ストロボ 4
ストン 4
スナック 4
スパゲッティー 4
スパナ 4
スピー@@ 4
スプリンクラー 4
スペアリブ 4
スペシャル 4
スペック 4
スボン 4
スマ 4
スラム 4
スル 4
スン 4
ズック 4
ズラ 4
セイ 4
セグメンテーション 4
セラミック 4
セルフサービス 4
セレウス 4
セレモニー 4
ゼッケン 4
ゼータ 4
ソテー 4
ソナタ 4
ゾール 4
タク 4
タッ@@ 4
タップ 4
タトゥー 4
タナ 4
タブロイド 4
タラップ 4
タリ 4
タリー 4
タンザニア 4
ダイバー 4
ダサい 4
ダッシュ 4
ダニ 4
ダブ@@ 4
ダル@@ 4
ダー@@ 4
チェ 4
チェッ 4
チクっ 4
チクショー 4
チナ 4
チャイム 4
チャッ 4
チュード 4
チョッキ 4
チンケ 4
チンチロリン 4
ックス@@ 4
ックリ 4
ックル 4
ッジ 4
ッター 4
ッチング 4
ップ@@ 4
ツグ@@ 4
ツバキ 4
ツラ 4
テク@@ 4
テノール 4
テラ@@ 4
テル@@ 4
テンダー 4
テー 4
テージ 4
ディスコ 4
ディスプレイ 4
ディーゼル 4
デコ 4
デリ@@ 4
デリバティブ 4
デル@@ 4
デー@@ 4
トウ 4
トウ@@ 4
トカゲ 4
トキ@@ 4
トゲ@@ 4
トコ@@ 4
トス 4
トダウン 4
トッピング 4
トドメ 4
トヨタ 4
トライアスロン 4
トライアル 4
トラウマ 4
トラップ 4
トランジスター 4
トリオ 4
トレーナー 4
トロン 4
トン@@ 4
トントン 4
トータル 4
トーチ 4
ドキ 4
ドキュメント 4
ドスン 4
ドメイン 4
ドラマチック 4
ドラララララララララ@@ 4
ドリ@@ 4
ドリブン 4
ドロボー 4
ドードー 4
ドーピング 4
ナッツ 4
ナノ 4
ナポリ 4
ナメ 4
ナーゼ 4
ニヤニヤ 4
ニュ@@ 4
ニュースレター 4
ニョ@@ 4
ニレ 4
ヌートリア 4
ネイ@@ 4
ネイル 4
ネル 4
ノックアウト 4
ハイブリッド 4
ハウンド 4
ハサミ 4
ハチ@@ 4
ハチの巣 4
ハナ@@ 4
ハハハハ 4
ハプニング 4
ハン 4
ハングル 4
ハンドボール 4
ハーイ 4
ハード@@ 4
ハーハー 4
バイオリニスト 4
バイオレンス 4
バク 4
バザー 4
バタフライ 4
バックト 4
バッチ 4
バッチリ 4
バナ 4
バラし 4
バリ@@ 4
バリア 4
バロ@@ 4
バンジー 4
バースデー 4
バート 4
パイ@@ 4
パウダー 4
パカパカ 4
パズル 4
パテ 4
パテント 4
パナマ 4
パブ 4
パラシュート 4
パル 4
パレオ 4
パーキング 4
パーソナル 4
パートナーシップ 4
パール 4
ヒグマ 4
ヒゲ 4
ヒトラー 4
ヒメ@@ 4
ヒューズ 4
ヒューマ@@ 4
ヒョウ 4
ビリ@@ 4
ビング 4
ビーズ 4
ビートルズ 4
ピカピカ 4
ピケ 4
ピスト 4
ピッチ 4
ピリピリ 4
ピル 4
ピーター 4
ファクシミリ 4
ファッショ 4
ファンタジー 4
フィア 4
フィス 4
フィン@@ 4
フィート 4
フェイク 4
フェラチオ 4
フェル@@ 4
フォア 4
フォル@@ 4
フォワード 4
フォント 4
フォース 4
フッ@@ 4
フフ 4
フライス 4
フランジ 4
フリー@@ 4
フローリング 4
ブイ 4
ブチ殺し 4
ブツ 4
ブラウン 4
ブラック@@ 4
ブルク 4
ブルース 4
ブレ 4
ブレーカー 4
ブロー@@ 4
ブー 4
ブーメラン 4
プション 4
プチブル 4
プッツン 4
プランクトン 4
プリクラ 4
プリン@@ 4
プリンス 4
プロジェクター 4
プロデュ@@ 4
プロバイ@@ 4
プロパン 4
プロペラ 4
プロレス 4
ヘクタール 4
ヘッド@@ 4
ヘルス 4
ヘルニア 4
ヘンリー 4
ベイ@@ 4
ベイビー 4
ベッ@@ 4
ベラ@@ 4
ベラベラ 4
ベリ@@ 4
ベリー 4
ベータ 4
ペイ 4
ペイ@@ 4
ホーチミン 4
ホームレス 4
ボウリング 4
ボキャブラリー 4
ボルダリングジム 4
ボーン 4
ポリ 4
ポリマー 4
ポリープ 4
ポル@@ 4
ポン@@ 4
ポーク 4
ポーター 4
ポートランド 4
マイシン 4
マインド 4
マク@@ 4
マグ@@ 4
マザー 4
マシタ 4
マジシャン 4
マスタード 4
マズ@@ 4
マセン 4
マダガスカル 4
マットレス 4
マネ@@ 4
マヨネーズ 4
マラ@@ 4
マラリア 4
マリナーズ 4
マル 4
マルチ 4
マンモス 4
マーガリン 4
マーケ@@ 4
マージン 4
マーチャンダイジング 4
ミア 4
ミコ 4
ミシシッピー 4
ミス@@ 4
ミット 4
ミニスカート 4
ミネ@@ 4
ミミズ 4
ミャ@@ 4
ミン@@ 4
ミール 4
ムカデ 4
ムダ 4
ムッティ 4
ムリ 4
ムービー 4
ムーン 4
メイ@@ 4
メタ@@ 4
メモリ 4
メラ@@ 4
メリヤス 4
メル 4
メンタ@@ 4
メーション 4
モジュール 4
モトカノ 4
モノホン 4
モミ 4
モリ 4
モルタル 4
モー 4
モーション 4
ヤシ 4
ヤッホー 4
ヤマ 4
ヤモリ 4
ヤン 4
ヤンキース 4
ヤンコ 4
ユイ 4
ユル 4
ユーザ 4
ョー@@ 4
ヨルダン 4
ヨーグルト 4
ライム 4
ラク@@ 4
ラジカセ 4
ラッ@@ 4
ラッカー 4
ラフ 4
ラブラブ 4
ラム 4
ラム@@ 4
ラリー 4
ランチタイム 4
リウマチ 4
リオ 4
リサーチ 4
リジ@@ 4
リップ 4
リテラシー 4
リベンジ 4
リベート 4
リモート 4
リヤ 4
リュック 4
ルクス 4
ルビー 4
ルーシー 4
ルーブル 4
ループ 4
レイシ 4
レオ@@ 4
レギュラー 4
レジャー 4
レジュメ 4
レセプター 4
レトロ 4
レポーター 4
ロジスティ@@ 4
ロマン@@ 4
ロンジン 4
ロース 4
ロースト 4
ローズ 4
ワケ 4
ワゴン 4
ワザ@@ 4
ワッフル 4
ワン@@ 4
ワー 4
ワーク@@ 4
ワール 4
ンドン 4
ンン 4
ヴ 4
ヴィ 4
ヴォ@@ 4
ヶ@@ 4
ーっと 4
ージュ 4
ーツ 4
ーティング 4
ープ 4
ーラ 4
一くさり 4
一両 4
一倍 4
一句 4
一変 4
一寸 4
一抱え 4
一望 4
一朝 4
一派 4
一物 4
一笑 4
一色 4
一触 4
一陣 4
丁目 4
七@@ 4
七十 4
三毛 4
上げれ 4
上値 4
上向い 4
上奏 4
上官 4
上履き 4
上座 4
上皮 4
上質 4
下働き 4
下界 4
下線 4
下腹 4
下見 4
下賤 4
下顎 4
不倶 4
不可避 4
不変 4
不孝 4
不定 4
不撓 4
不服 4
不渡り 4
不眠 4
不祥 4
不順 4
与信 4
世継ぎ 4
両ほお 4
両極 4
両社 4
両脚 4
並べ立てる 4
中原 4
中坊 4
中絶 4
中耕 4
中耳 4
中部 4
中長期 4
中風 4
中高生 4
丸める 4
主将 4
主食 4
久保寺 4
乗り切る 4
乗り継い 4
也 4
乱さ 4
乱筆 4
乾 4
予科 4
事欠か 4
事理 4
事由 4
事象 4
二人暮らし 4
互恵 4
五十 4
五千 4
五反田 4
五百 4
亜@@ 4
亜鉛 4
交える 4
交じ@@ 4
交じり 4
交わさ 4
交わっ 4
亮 4
人品 4
人声 4
人夫 4
人当たり 4
介抱 4
仕事終わり 4
仕出し 4
仕切っ 4
仕方なかっ 4
仕方ねえ 4
仕立て@@ 4
仕置き 4
他愛 4
他界 4
付随 4
仙@@ 4
代え 4
代償 4
代役 4
令@@ 4
以北 4
仰ぎ見る 4
仰っ 4
仰向け 4
仲@@ 4
仲立ち 4
任す 4
企てる 4
伊@@ 4
伏す 4
休める 4
休もう 4
会釈 4
伴侶 4
伴奏 4
伺わ 4
位@@ 4
低木 4
低音 4
住血 4
体罰 4
体長 4
何とぞ 4
余力 4
余熱 4
余生 4
余談 4
作り話 4
併@@ 4
併設 4
使いもの 4
使役 4
使者 4
例証 4
価額 4
侮り 4
侮る 4
便座 4
係り 4
係数 4
俑 4
信条 4
修羅 4
修訂 4
修辞 4
倒さ 4
倒せる 4
値切る 4
偉く 4
偉人 4
偏向 4
停頓 4
健@@ 4
健気 4
偶発 4
偽る 4
備 4
備考 4
催眠 4
傾き 4
働き@@ 4
働きづめ 4
働き盛り 4
働き詰め 4
働こう 4
儚@@ 4
償う 4
優@@ 4
優性 4
儲かる 4
元値 4
充@@ 4
先刻 4
先手 4
先立ち 4
先約 4
先遣 4
光り輝い 4
光沢 4
入り交@@ 4
入れ墨 4
入れ歯 4
全党 4
全土 4
全巻 4
全席 4
全県 4
全線 4
全角 4
全長 4
全開 4
公司 4
公言 4
六@@ 4
六本木 4
共働き 4
共進 4
兼ね備え 4
内向 4
内密 4
内皮 4
内職 4
内視 4
円柱 4
円陣 4
再版 4
写し取る 4
冬期 4
冬眠 4
冴え 4
冷やか 4
冷麺 4
凛と 4
凡々 4
凶器 4
出くわさ 4
出れる 4
出入国 4
出廷 4
出来高 4
出迎える 4
出頭 4
分けよう 4
分っ 4
分断 4
切々 4
切り上げ 4
切り下げ 4
切り捨てる 4
切り離さ 4
切り離し 4
切り離せ 4
切れ@@ 4
切削 4
切羽詰まっ 4
刈っ 4
刈り入れ 4
刈り入れる 4
刑@@ 4
初任 4
別れよう 4
別れ別れ 4
別表 4
別送 4
利き 4
利ざや 4
利他 4
到 4
制空 4
刷@@ 4
刺 4
刻 4
削ら 4
前代 4
前借り 4
前者 4
剛@@ 4
剛性 4
剣@@ 4
剥離 4
割り勘 4
割拠 4
割賦 4
創っ 4
力量 4
功@@ 4
功徳 4
加 4
加わり 4
劣勢 4
劳改 4
労使 4
効用 4
効能 4
勃@@ 4
勇ましく 4
勇士 4
動き回っ 4
勘@@ 4
勝ち取り 4
勝ち目 4
勝也 4
勝報 4
募@@ 4
募り 4
勤め先 4
勤倹 4
勤続 4
勿論 4
匂@@ 4
包み込ん 4
北海 4
匠 4
区分け 4
医@@ 4
匿名 4
千万 4
千秋 4
千金 4
升 4
半径 4
半熟 4
华@@ 4
卑猥 4
卑賤 4
南国 4
南米 4
単刀 4
占い師 4
占有 4
印章 4
危ねー 4
即し 4
即効 4
即発 4
厚誼 4
厢房 4
去れ 4
去来 4
参列 4
友愛 4
双務 4
双書 4
反党 4
反面 4
収 4
収束 4
収蔵 4
収賄 4
取りかかっ 4
取りつけ 4
取り合う 4
取り合わせ 4
取り囲み 4
取り外さ 4
取り寄せる 4
取り巻き 4
取り憑い 4
取り押さえ 4
取り掛かり 4
取り決める 4
取り立てる 4
取り締まり 4
取り繕う 4
取り込み 4
受入れ 4
受取り 4
受粉 4
口内 4
口径 4
口裏 4
口述 4
古希 4
古都 4
叩@@ 4
可決 4
可笑@@ 4
台場 4
台頭 4
史跡 4
叶い 4
叶っ 4
司@@ 4
司教 4
司書 4
各様 4
各社 4
各項 4
合せ 4
同伴 4
同列 4
同日 4
同梱 4
同業 4
名乗る 4
名作 4
名勝 4
名言 4
吏 4
吐 4
吐き出す 4
向 4
向か 4
向か@@ 4
向かい合う 4
向っ 4
吟遊 4
吠@@ 4
否め 4
含蓄 4
吸@@ 4
吸い取ら 4
吸殻 4
吹き回し 4
吹き荒れ 4
吹き飛ばし 4
呆@@ 4
告@@ 4
呑@@ 4
周期 4
呪う 4
味わえ 4
味気ない 4
呼ばわり 4
命数 4
和らぐ 4
咲き@@ 4
咲き誇る 4
咳止め 4
唐揚げ 4
唯心 4
唱和 4
唾棄 4
問いかけ 4
喉仏 4
喋@@ 4
喜色 4
喩 4
喫し 4
喰@@ 4
営み 4
営む 4
嗚 4
嗟 4
嘆く 4
嚢 4
嚢胞 4
囊 4
囚 4
囚われ 4
回帰 4
回生 4
因@@ 4
囲@@ 4
囲炉裏 4
図太く 4
固まる 4
固体 4
固守 4
国なまり 4
国政 4
国辱 4
園芸 4
土用 4
土足 4
圧延 4
地価 4
地層 4
地表 4
坂@@ 4
垂らす 4
垂れる 4
型番 4
垣根 4
城楼 4
執念 4
執着 4
培@@ 4
基づか 4
基調 4
堅気 4
堅牢 4
堕@@ 4
堰 4
場@@ 4
塩基 4
塩漬け 4
塩辛い 4
墓場 4
増収 4
増補 4
増進 4
増長 4
壊@@ 4
壮 4
壮@@ 4
壮志 4
声かけ 4
声調 4
売り物 4
売り買い 4
売り込ん 4
売れ@@ 4
売主 4
売掛 4
変っ 4
変わん 4
変人 4
変節 4
変質 4
外傷 4
外在 4
外地 4
外壁 4
外寇 4
外注 4
多幸 4
多才 4
夜学 4
夜店 4
夜戦 4
夜色 4
夜風 4
夢見る 4
大っ嫌い 4
大久保 4
大仕事 4
大奥 4
大寨 4
大山田 4
大忙し 4
大慌て 4
大敵 4
大男 4
大粒 4
大計 4
大連 4
大麦 4
天寿 4
天涯 4
天賦 4
天険 4
太る 4
太古 4
央 4
奇行 4
奢る 4
奢侈 4
奥ゆかしく 4
奥行き 4
奪回 4
女流 4
女男 4
好漢 4
妓@@ 4
妬@@ 4
威張り散らす 4
嫌味 4
嫡出 4
子ネコ 4
字数 4
孤高 4
学び@@ 4
学び取っ 4
学び取ら 4
学び取る 4
学べる 4
学界 4
宅配 4
守 4
安ら@@ 4
安らぎ 4
安寧 4
安打 4
安易 4
安物 4
宋代 4
完走 4
官庁 4
官界 4
宙ぶらりん 4
宜しけれ 4
宝@@ 4
実る 4
実入り 4
実弾 4
実戦 4
実費 4
宣戦 4
宮中 4
宮城 4
害し 4
宵@@ 4
家政 4
容@@ 4
容積 4
寂@@ 4
寄せ集める 4
寄り集まっ 4
寄れ 4
寅 4
富み 4
寒冷 4
寝具 4
寝床 4
察する 4
寡婦 4
寵@@ 4
寸@@ 4
対決 4
専@@ 4
射ぬか 4
射出 4
射精 4
尊称 4
尋常 4
導き手 4
導火 4
小一 4
小人 4
小作 4
小分け 4
小口 4
小国 4
小言 4
少額 4
尚 4
就け 4
尻尾 4
尾@@ 4
尾根 4
尿@@ 4
局部 4
居所 4
居残り 4
届け@@ 4
屋根瓦 4
履物 4
山盛り 4
島@@ 4
崖@@ 4
嵌@@ 4
嵩@@ 4
川床 4
巡@@ 4
巡ら 4
巡業 4
巡航 4
工面 4
左利き 4
巧妙 4
巴 4
巴金 4
巻きつけ 4
巻き上げる 4
市況 4
布切れ 4
帆柱 4
帆船 4
希少 4
希薄 4
席上 4
席巻 4
帰する 4
帰納 4
帳@@ 4
常在 4
幕開け 4
幣 4
干害 4
平々 4
平べったい 4
平らげ 4
平定 4
平年 4
年の暮れ 4
年内 4
年少 4
年来 4
年玉 4
年産 4
年端 4
年貢 4
年配 4
年限 4
年頃 4
幻@@ 4
幻滅 4
幼く 4
幼虫 4
広かっ 4
度@@ 4
度数 4
座れる 4
座禅 4
廉@@ 4
延ばせ 4
延伸 4
弁別 4
弊店 4
弔@@ 4
弔う 4
弔問 4
引き下がら 4
引き下げる 4
引き合わ 4
引き抜い 4
引き立てる 4
引き裂か 4
引き込む 4
引け値 4
引っかき 4
引っ掛かっ 4
引換 4
引率 4
引継ぎ 4
引越 4
弥@@ 4
弱々しく 4
弱虫 4
張りつい 4
張りつけ 4
張り切り 4
張り詰め 4
張本 4
強じん 4
強め 4
強健 4
強弁 4
強弱 4
強権 4
強者 4
弾か 4
弾ん 4
弾圧 4
当たり散らし 4
当主 4
当院 4
形作ら 4
形而 4
役場 4
役畜 4
彼岸 4
往 4
征伐 4
征途 4
径 4
待てよ 4
律 4
後ろめ@@ 4
後ろ足 4
後戻り 4
後遺 4
徒手 4
従 4
従妹 4
従姉 4
御す 4
御者 4
御飯 4
復 4
徳@@ 4
徳育 4
徴候 4
徹し 4
心地@@ 4
心境 4
心置き 4
必勝 4
必殺 4
必読 4
忌ま忌ましい 4
志@@ 4
忘@@ 4
忘れよう 4
快哉 4
怒らす 4
怒鳴ら 4
怒鳴り@@ 4
思いきっ 4
思いやら 4
思い起こせ 4
思い違い 4
思念 4
怠ら 4
急かし 4
急ごう 4
急騰 4
性急 4
性癖 4
恐 4
恐@@ 4
恐るる 4
恐る恐る 4
恐れ@@ 4
恐ろし 4
恨め@@ 4
恩義 4
息災 4
息苦しく 4
恵@@ 4
悔いる 4
悔い改め 4
悔やむ 4
悔悟 4
悪寒 4
情状 4
惑@@ 4
惨@@ 4
惨事 4
惨憺 4
惹きつける 4
愚民 4
愛おしく 4
愛し合い 4
愛読 4
感受 4
慈しみ 4
慌てふため@@ 4
慎@@ 4
慕@@ 4
慕わ 4
慢心 4
慣用 4
憂さ 4
憂患 4
憎々し 4
憎悪 4
憤 4
憤@@ 4
懐かし@@ 4
懲罰 4
懸案 4
懸賞 4
成り 4
成虫 4
成語 4
戒律 4
戦功 4
戦後 4
戯れる 4
戴@@ 4
戴天 4
戸惑い 4
戸惑う 4
戻せ 4
所詮 4
手がけ 4
手さげ 4
手つき 4
手の内 4
手の甲 4
手まね 4
手下 4
手付け 4
手合わせ 4
手土産 4
手塩 4
手抜き 4
手押し 4
手招き 4
手相 4
手短 4
手縫い 4
才知 4
打ち下ろし 4
打ち切る 4
打ち破り 4
払い落とす 4
承 4
承服 4
投じる 4
投球 4
抗戦 4
折り曲げ 4
折り目 4
折檻 4
折角 4
抜 4
抜きん@@ 4
抜きんで 4
抜本 4
択 4
抱@@ 4
抱き枕 4
抱っこ 4
抹殺 4
押さえつけ 4
押しかけ 4
押しとどめる 4
押し黙る 4
担 4
担げ 4
担架 4
拒@@ 4
拓本 4
拘る 4
拙劣 4
招@@ 4
拝誦 4
拭く 4
持 4
持ち帰る 4
持ち逃げ 4
指し示し 4
指し示す 4
指針 4
挙句 4
挙式 4
挫@@ 4
挫け 4
振りかざし 4
振りまい 4
振り上げ 4
振り子 4
挺@@ 4
挿す 4
捕まえろ 4
捕まら 4
捕らわれ 4
捕り 4
捗り 4
捜し出す 4
捜せ 4
据@@ 4
掃い 4
掌握 4
排@@ 4
排他 4
排外 4
掘り出す 4
掘り起こし 4
掛 4
掛け軸 4
探し物 4
探知 4
推し量る 4
推戴 4
推敲 4
推賞 4
掲揚 4
揃える 4
揚 4
揚々 4
握り@@ 4
握りこぶし 4
援用 4
援軍 4
揺さぶる 4
揺らい 4
揺り動かす 4
損し 4
損ねる 4
摂@@ 4
摘@@ 4
摘ん 4
撤収 4
撮ろう 4
擁する 4
操ら 4
擦@@ 4
擬@@ 4
支払@@ 4
支払日 4
支流 4
收 4
改めよう 4
改変 4
改組 4
攻@@ 4
放り@@ 4
放水 4
政局 4
教えよう 4
教皇 4
教職員 4
教諭 4
教鞭 4
散らかり 4
散乱 4
散漫 4
散財 4
敬っ 4
敵側 4
敵情 4
敵討ち 4
敷物 4
文士 4
文筆 4
文集 4
斉@@ 4
斎@@ 4
断水 4
断然 4
方位 4
方正 4
方策 4
施@@ 4
施術 4
施錠 4
旅@@ 4
旅路 4
旗@@ 4
旗印 4
无@@ 4
既婚 4
日割り 4
日当 4
日払い 4
日暮れ 4
日月 4
日銀 4
早まる 4
早目 4
早稲 4
昇任 4
明かさ 4
明け暮れ 4
明代 4
明文 4
明朗 4
明清 4
明点 4
昏睡 4
易 4
易く 4
易しく 4
易者 4
昔なじみ 4
映し 4
映し出さ 4
昼前 4
昼過ぎ 4
時世 4
時候 4
時流 4
時短 4
晋 4
晒@@ 4
晩秋 4
晴天 4
智香 4
暁 4
暇@@ 4
暖かかっ 4
暗がり 4
暗然 4
暗礁 4
暗黙 4
暮らせる 4
暴落 4
曇り空 4
曙光 4
曲解 4
更 4
書き入れ 4
書き入れる 4
書き記す 4
書名 4
替えよう 4
月光 4
月夜 4
月餅 4
有性 4
有権 4
有線 4
朗報 4
朝露 4
朝顔 4
期す 4
木下 4
木之下 4
木型 4
木管 4
木霊 4
未婚 4
未曽有 4
未然 4
未遂 4
未開 4
本分 4
本道 4
札入れ 4
札束 4
朱 4
朴訥 4
机上 4
朽ち 4
杏仁 4
村@@ 4
村民 4
杜甫 4
条@@ 4
条文 4
来さ 4
来す 4
松江 4
枯@@ 4
架かっ 4
架ける 4
枷 4
査@@ 4
校風 4
核心 4
根底 4
桜木 4
梅雨@@ 4
梓 4
棄権 4
棘 4
棚引い 4
棺おけ 4
植 4
植字 4
検数 4
検閲 4
極まりない 4
極み 4
楽し@@ 4
概して 4
概括 4
概況 4
榎戸 4
槌 4
様変わり 4
標高 4
模造 4
権@@ 4
横向き 4
横棒 4
横転 4
樹海 4
橋梁 4
機具 4
欠品 4
欠片 4
欠落 4
次兄 4
欧 4
歌舞 4
歓送 4
正々 4
正念 4
正札 4
歩き疲れ 4
歩こう 4
歩み@@ 4
歩幅 4
歪み 4
歯ざわり 4
歯止め 4
歳@@ 4
死神 4
殉難 4
殊に 4
残り@@ 4
残暑 4
残留 4
殴れ 4
殺到 4
殺虫 4
母子 4
母屋 4
毎@@ 4
毒殺 4
毒素 4
毒蛇 4
比@@ 4
比べ@@ 4
比喩 4
毛穴 4
氏族 4
民俗 4
民情 4
気乗り 4
気化 4
気道 4
気配り 4
水先 4
水洗い 4
水流 4
水温 4
水牛 4
水玉 4
水郷 4
水量 4
汚れる 4
決めれ 4
決め手 4
決戦 4
決起 4
沈み込ん 4
沈痛 4
河原 4
油汚れ 4
沿@@ 4
泉@@ 4
泊まれ 4
泌尿 4
法学 4
法師 4
法治 4
泣きじゃ@@ 4
泣き虫 4
泥酔 4
注ぎ@@ 4
泰然 4
洞庭 4
活かせる 4
流れ下る 4
流れ落ち 4
流体 4
流刑 4
流派 4
流行@@ 4
浅かっ 4
浜口 4
浮かび 4
浮かれ 4
浮き上がっ 4
浮き袋 4
浴衣姿 4
海南 4
海路 4
浸る 4
消 4
消し去っ 4
消印 4
涙ぐ@@ 4
涼ん 4
淋@@ 4
淘汰 4
淡々 4
淫@@ 4
混ざっ 4
混ぜ合わせる 4
混沌 4
添乗 4
済まさ 4
済ます 4
渋 4
減資 4
減退 4
渡 4
渡し@@ 4
渦@@ 4
温床 4
測 4
游 4
湘 4
湧@@ 4
満ちる 4
満タン 4
満点 4
満腔 4
溢れ@@ 4
溯@@ 4
溶鉱 4
滅相 4
滋賀 4
滑り降り 4
滞っ 4
漁獲 4
漂い 4
漆喰 4
漉し 4
漏らさ 4
演歌 4
潔し 4
潤す 4
潮@@ 4
潰さ 4
潰瘍 4
澄@@ 4
澄まし 4
激戦 4
濃@@ 4
濃淡 4
濡@@ 4
濫@@ 4
濫用 4
灯り 4
灯る 4
灯油 4
灼熱 4
災 4
炊け 4
炊飯 4
点い 4
烙饼 4
無くなる 4
無情 4
無期 4
無根 4
無残 4
無謀 4
無辜 4
焦げ@@ 4
焦り 4
焦土 4
焼き入れ 4
焼き払っ 4
焼き鳥 4
煎じる 4
照らし合わせ 4
照り焼き 4
煽る 4
熟慮 4
熟考 4
熟語 4
燃え上がる 4
爪切り 4
父兄 4
父祖 4
片づい 4
片づか 4
牢 4
物まね 4
物凄い 4
物凄く 4
物力 4
物寂しく 4
物差し 4
物忘れ 4
物笑い 4
物色 4
物見 4
物議 4
特 4
特攻 4
特異 4
特筆 4
特質 4
犁 4
犬@@ 4
狂@@ 4
狐 4
独@@ 4
独善 4
独習 4
狭苦しい 4
狭隘 4
猟 4
猟銃 4
猫背 4
猫草 4
獅子 4
獲 4
玉門 4
王女 4
珊瑚 4
珍@@ 4
珍し 4
珍味 4
現職 4
球@@ 4
球団 4
球状 4
瓶詰 4
甘える 4
生かせ 4
生き埋め 4
生き延び 4
生き延びる 4
生き残り 4
生き返っ 4
生け 4
生け垣 4
生け花 4
生ま 4
生もの 4
生身 4
生魚 4
産毛 4
産気 4
田地 4
由@@ 4
申しわけ 4
画@@ 4
画材 4
画集 4
畑仕事 4
留@@ 4
畜 4
番@@ 4
番地 4
番線 4
異存 4
疑 4
疑@@ 4
疑わし 4
痒い 4
痘 4
痙攣 4
痛み入り 4
痛めつける 4
痛快 4
痛風 4
痴漢 4
癒え 4
癬 4
発っ 4
発令 4
発布 4
発癌 4
発祥 4
発給 4
発覚 4
発話 4
発起 4
白々 4
白書 4
白毛 4
白熱 4
白目 4
白眼 4
白米 4
百@@ 4
百花 4
皆殺し 4
皮むき 4
盗み取る 4
盗み聞き 4
盛っ 4
盛衰 4
盟約 4
目新しい 4
目覚める 4
目途 4
目黒 4
盲@@ 4
直々 4
直入 4
直撃 4
直球 4
直視 4
直訳 4
真ん丸い 4
眠@@ 4
眠たく 4
眠ろう 4
着ぐるみ 4
着れ 4
着付け 4
着地 4
着心地 4
着色 4
矛 4
短波 4
石器 4
石壁 4
砂ぼこり 4
砂金 4
研ぎ@@ 4
砕@@ 4
砕ける 4
砥石 4
破局 4
硫黄 4
硬貨 4
確@@ 4
磁場 4
磁性 4
礎 4
社用 4
祝@@ 4
祝典 4
神々 4
神論 4
祭壇 4
禁 4
禁ずる 4
禁令 4
禁忌 4
禁輸 4
禁酒 4
禄 4
禿げ 4
私@@ 4
私塾 4
私怨 4
私憤 4
私語 4
秒間 4
秘@@ 4
秘蔵 4
租税 4
秦嶺 4
称え 4
称さ 4
移り住ん 4
移ろい 4
税抜き 4
税込 4
税額 4
種族 4
稲わら 4
稲刈り 4
積み込む 4
積み重なる 4
積もる 4
空回り 4
空売り 4
空振り 4
空疎 4
空虚 4
突き刺し 4
突き止める 4
突っ込め 4
突風 4
窒素 4
窓辺 4
窩 4
立ち上げる 4
立ち去ら 4
立ち合い 4
立ち止まり 4
立て@@ 4
立てこもっ 4
立てよう 4
立て板 4
立て直し 4
立入 4
立華 4
竜巻 4
端@@ 4
端々 4
端的 4
競っ 4
競わ 4
竹井 4
竹製 4
笑い@@ 4
笑いぐさ 4
笑い話 4
笑くぼ 4
筆画 4
筈 4
等分 4
答弁 4
策動 4
箕 4
箱@@ 4
箱詰め 4
節@@ 4
節度 4
範疇 4
篇 4
築き 4
築け 4
築山 4
篤実 4
簿記 4
粉@@ 4
粉塵 4
粉薬 4
粗品 4
粗大 4
粛正 4
粛然 4
精子 4
精査 4
糖@@ 4
糧秣 4
糸@@ 4
約定 4
紅い 4
紆余 4
紋章 4
納@@ 4
納付 4
純正 4
純白 4
純金 4
紙袋 4
級別 4
紛らわし 4
素焼き 4
素顔 4
紡@@ 4
紡い 4
索 4
累計 4
累進 4
終っ 4
組長 4
絆創 4
経@@ 4
経典 4
結石 4
結社 4
結腸 4
結膜 4
絞り@@ 4
絡ん 4
絢爛 4
統括 4
絵はがき 4
絶版 4
絶賛 4
継い 4
続けよう 4
続出 4
網羅 4
総数 4
総計 4
緑肥 4
線@@ 4
線維 4
締まり 4
締め付け 4
締め出さ 4
締め切ら 4
締め切る 4
編み@@ 4
編制 4
緩み 4
縁@@ 4
縛り 4
縛り@@ 4
縦縞 4
縮 4
縮こま 4
繁茂 4
繋ぐ 4
織っ 4
織り@@ 4
繭子 4
纏@@ 4
罗场 4
罪業 4
置き換え 4
罰し 4
罰する 4
罵@@ 4
罷免 4
美化 4
美那子 4
群@@ 4
群島 4
群衆 4
羽織っ 4
翌週 4
翻@@ 4
翼@@ 4
老将 4
老年 4
老木 4
老母 4
老練 4
老舗 4
考 4
考えつか 4
考え直し 4
耐 4
耐寒 4
耕耘 4
聖@@ 4
聖戦 4
聖職 4
聞@@ 4
聞きほれ 4
聞き入る 4
聞き入れる 4
聞き出せ 4
聾啞 4
肉屋 4
肌@@ 4
肛門 4
肩@@ 4
肩幅 4
肩掛け 4
育て上げる 4
胃酸 4
胆 4
背もたれ 4
背負い 4
胚 4
胡@@ 4
胸腺 4
脂 4
脅@@ 4
脇 4
脊椎 4
脚立 4
脱却 4
脱毛 4
脱皮 4
脱稿 4
脱臼 4
腐@@ 4
腐る 4
腑 4
腕利き 4
腫脹 4
腰回り 4
腹腔 4
腹部 4
腿 4
膏血 4
膝@@ 4
臓 4
臣下 4
臨@@ 4
臨み 4
自営 4
自答 4
自負 4
自責 4
至近 4
興信 4
興行 4
興趣 4
舌打ち 4
舞い落ちる 4
舞い込む 4
船@@ 4
良品 4
色気 4
花形 4
花言葉 4
芸@@ 4
芹 4
苛@@ 4
苛立ち 4
若々しい 4
若造 4
苦@@ 4
英@@ 4
英字 4
英才 4
英数字 4
茂み 4
茨城 4
茶目 4
茶碗 4
茶葉 4
草刈り 4
荒々しい 4
荒れ地 4
荒川 4
荷役 4
華@@ 4
華美 4
落差 4
落着 4
落葉 4
葉巻 4
葉書 4
著書 4
著述 4
蒸し@@ 4
蒼白 4
蓑 4
薄っぺら 4
薄め 4
薄型 4
薄汚い 4
薫製 4
薬事 4
薬代 4
藤 4
藻 4
蘇生 4
虎口 4
虐げる 4
虚栄 4
虫@@ 4
虫喰い 4
虫害 4
蝶@@ 4
融解 4
蟹 4
血まみれ 4
血清 4
血漿 4
血相 4
行き詰まっ 4
行き詰まり 4
行楽 4
行間 4
術数 4
表せ 4
表敬 4
表装 4
表通り 4
被覆 4
裁@@ 4
裁い 4
裁縫 4
裁量 4
裂い 4
裂ける 4
装束 4
裏通り 4
補い 4
補わ 4
補欠 4
製材 4
製版 4
製鋼 4
襲来 4
西口 4
西方 4
西暦 4
要地 4
要路 4
覆いかぶさり 4
覆し 4
見せれ 4
見つけろ 4
見下げ 4
見下げる 4
見入っ 4
見受け 4
見合う 4
見合わせる 4
見回り 4
見地 4
見境 4
見定め 4
見舞う 4
見込め 4
見返し 4
見送ら 4
覗き@@ 4
覚えよう 4
覚ませ 4
覚書 4
親和 4
観れ 4
観閲 4
解体 4
触@@ 4
触れ@@ 4
言い切れ 4
言い合う 4
言い回し 4
言い張る 4
言い渡さ 4
言い負かす 4
言い返し 4
言葉@@ 4
計ら 4
訓戒 4
訓話 4
託さ 4
記名 4
設 4
許@@ 4
許諾 4
訳さ 4
試@@ 4
試写 4
詩経 4
詰め@@ 4
話し込ん 4
誇らしい 4
認めよう 4
誘い込ん 4
誘おう 4
誘致 4
誣告 4
誤@@ 4
誤ち 4
誤植 4
誤謬 4
説い 4
調べれ 4
調書 4
請い求める 4
請け 4
請願 4
論拠 4
論破 4
論駁 4
諜報 4
諭し 4
講@@ 4
謳歌 4
警笛 4
譲り@@ 4
譲り合っ 4
譲り渡し 4
護@@ 4
豆炭 4
豊@@ 4
豊満 4
豚@@ 4
豪快 4
貌 4
負 4
負かし 4
貧し 4
貧弱 4
貰わ 4
貴ぶ 4
貴信 4
貴兄 4
貴君 4
貶@@ 4
買い占め 4
買い取り 4
買付 4
買掛 4
貸し付け 4
貸し借り 4
貸し切り 4
貸せ 4
貸倒 4
賃 4
賛助 4
賛歌 4
賜@@ 4
賞状 4
賢人 4
賽銭 4
贈与 4
赤毛 4
走り@@ 4
走り去っ 4
走れる 4
走ろう 4
起き上がれ 4
起き出し 4
起こそう 4
起し 4
超し 4
足止め 4
路@@ 4
路頭 4
跳びはねる 4
跳ぶ 4
踊り@@ 4
蹄鉄 4
蹴ら 4
身ごもっ 4
身じろぎ 4
身代 4
身持ち 4
身柄 4
車窓 4
車酔い 4
軍刀 4
軍務 4
転がる 4
転戦 4
転落 4
軽井沢 4
載る 4
轅 4
辞令 4
辺区 4
迎え入れ 4
迎え撃つ 4
迎撃 4
近海 4
返せる 4
返そう 4
返礼 4
返電 4
这@@ 4
追@@ 4
追いつき 4
追い立て 4
追い込む 4
追い風 4
追っ払っ 4
追尾 4
追突 4
追随 4
退 4
退ける 4
送り出し 4
送り返さ 4
送り返し 4
逃げ回る 4
逃げ惑う 4
逃れよう 4
透@@ 4
透徹 4
途 4
通じ合う 4
通りがかり 4
通俗 4
通商 4
通牒 4
逢う 4
連れ出す 4
連れ去っ 4
連勝 4
週番 4
進み出 4
進めよう 4
進撃 4
遅滞 4
遇 4
遊び@@ 4
遊び心 4
運び出す 4
運び込ま 4
運ぼう 4
運航 4
過不足 4
過熱 4
道学 4
違犯 4
遠ざかる 4
遠洋 4
適する 4
適時 4
選び@@ 4
選ぼう 4
遺志 4
遺書 4
遺物 4
遺風 4
還 4
邪念 4
郎 4
部屋代 4
部落 4
酌 4
配下 4
配賦 4
配転 4
酒類 4
酔っ払い 4
酔わ 4
酵母 4
酷@@ 4
醍醐 4
醜悪 4
重合 4
重圧 4
重度 4
重心 4
野良猫 4
量的 4
金具 4
金物 4
釣り上げ 4
鉄柵 4
鉄製 4
鉛 4
鉱@@ 4
銀河 4
銘記 4
鋒 4
鋭意 4
錦 4
錯 4
錯綜 4
鍵盤 4
鑑 4
長め 4
長女 4
長官 4
長短 4
長老 4
長蛇 4
長袖 4
長身 4
門戸 4
閉 4
閉ざす 4
閉まる 4
開け放し 4
開館 4
間作 4
間取り 4
閣 4
闊達 4
闘わ 4
闘牛 4
闘病 4
防ごう 4
防備 4
阻ま 4
阻ん 4
降りしきる 4
降りやま 4
降り注ぐ 4
降ろう 4
限りなき 4
陜西 4
険悪 4
陽@@ 4
階上 4
隔膜 4
際立つ 4
隠れみの 4
隣@@ 4
雄々しい 4
雄壮 4
雄渾 4
集@@ 4
集う 4
集権 4
雇 4
雇@@ 4
雇え 4
雌豚 4
雑務 4
離着陸 4
離間 4
難なく 4
難病 4
雨雲 4
雨風 4
震 4
震@@ 4
霜焼け 4
露@@ 4
露骨 4
静める 4
静粛 4
靴屋 4
鞘 4
鞭 4
音域 4
音波 4
預@@ 4
預かり所 4
預かる 4
頑健 4
領海 4
頭@@ 4
頭目 4
頼みごと 4
頼み事 4
題@@ 4
顕在 4
類推 4
顧 4
風光 4
風呂場 4
風呂屋 4
風物 4
風車 4
風選 4
飛ば 4
飛び乗っ 4
飛び交っ 4
飛び散る 4
飛び越し 4
飛べる 4
飛翔 4
食い止め 4
食べもの 4
食らわせ 4
食肉 4
食費 4
飲み干し 4
飲み干す 4
飽く 4
養わ 4
養蜂 4
饅頭 4
香気 4
馥郁 4
馬術 4
馬鈴薯 4
馬鹿げ 4
馴染ん 4
駆け巡っ 4
駆け巡る 4
騎士 4
験 4
驚かす 4
驚愕 4
骨抜き 4
骨格 4
骸 4
高ぶら 4
高ぶり 4
高み 4
高射 4
高望み 4
高潔 4
高炉 4
高配 4
髪形 4
鬱 4
鬱憤 4
鬱積 4
鬼@@ 4
魂胆 4
魔物 4
魚屋 4
鮭 4
鯨 4
鳥取 4
鳳凰 4
黎明 4
黙りこくっ 4
鼓 4
鼓膜 4
鼻持ち 4
龍@@ 4
＆ 4
／ 4
００ 4
１番 4
１４ 4
１６ 4
１９８３ 4
２@@ 4
２００@@ 4
２２ 4
２３ 4
２４ 4
２５ 4
３１ 4
３５ 4
３９ 4
４５ 4
９０ 4
Ｃ 4
Ｎ@@ 4
ｇ 4
&lt; 3
.@@ 3
10@@ 3
130 3
15@@ 3
190 3
1919 3
1947 3
1950 3
1958 3
1984 3
1986 3
1989 3
1993 3
1994 3
1996 3
1998 3
303 3
34 3
46 3
47 3
49 3
4989 3
50@@ 3
53 3
54 3
62 3
650 3
700 3
81 3
900 3
96 3
AD@@ 3
AID@@ 3
BBB 3
BC 3
Brook@@ 3
Bu@@ 3
CA 3
CG 3
CLOSETS 3
CO@@ 3
CUSTOM 3
Carla 3
Co@@ 3
Cream 3
Da@@ 3
Dante 3
Direct 3
Driscoll 3
EA 3
EG@@ 3
EKME 3
FBI 3
FM 3
FOB 3
Facebook 3
Fit 3
HP 3
HS 3
Industries 3
Jac@@ 3
John 3
KA 3
LIME 3
LINE 3
LL 3
LS 3
Lite 3
Ma@@ 3
Marketing 3
Mo@@ 3
NY 3
Nice 3
OEM 3
OFF 3
OPEC 3
Pe@@ 3
RO@@ 3
Regis 3
Rhonda 3
SE 3
SO 3
SO@@ 3
Sophistication 3
Stark 3
TO 3
TO@@ 3
TOPIX 3
UV 3
XXX 3
YBK 3
ac@@ 3
ak@@ 3
b 3
bi@@ 3
biā@@ 3
ce@@ 3
da 3
de@@ 3
del 3
enn 3
ess@@ 3
ff@@ 3
for 3
ge@@ 3
ham@@ 3
hat 3
il 3
ine 3
ing 3
kson 3
le@@ 3
less 3
man 3
me@@ 3
mm 3
ne 3
oh 3
olu@@ 3
om@@ 3
omm@@ 3
ona 3
or 3
p 3
poin@@ 3
rigor 3
schon 3
sey 3
sin@@ 3
son 3
tanto 3
te 3
te@@ 3
ten 3
th@@ 3
ti@@ 3
tion@@ 3
ton 3
tra@@ 3
ts 3
up@@ 3
view 3
ville 3
wi@@ 3
yp@@ 3
à@@ 3
àn 3
áng@@ 3
ì 3
ì@@ 3
òu@@ 3
ǎnfúhào 3
ǔ@@ 3
β 3
《 3
》 3
〜 3
ああぁ 3
あああ 3
あえ@@ 3
あおい 3
あがなっ 3
あがら 3
あき 3
あきら@@ 3
あし@@ 3
あしざま 3
あす 3
あせら 3
あた@@ 3
あたたかい 3
あたり@@ 3
あっちこっち 3
あな@@ 3
あのー 3
あはは 3
あば@@ 3
あばよ 3
あばら 3
あばら@@ 3
あひる 3
あぶない 3
あぶなかっ 3
あぶみ 3
あぶる 3
あべこべ 3
あほ 3
あやつ 3
あらすじ 3
あらまし 3
あらら 3
あり@@ 3
ありつい 3
ありつく 3
あるじ 3
あわて 3
あんばい 3
いかれ 3
いがみ@@ 3
いき@@ 3
いきおい 3
いさり火 3
いじくり回す 3
いたす 3
いっし 3
いつ@@ 3
いつく 3
いて 3
いななき 3
いななく 3
いぶかし 3
いも 3
いらだち 3
いらっしゃっ 3
いりゃ 3
いわば 3
いー@@ 3
い込ん 3
ううう 3
うきうき 3
うける 3
うさ 3
うさん 3
うす@@ 3
うすい 3
うずい 3
うずくまっ 3
うずめ 3
うせ 3
うそつき 3
うっせ 3
うつす 3
うなされ 3
うなっ 3
うまみ 3
うらやましく 3
うるさかっ 3
うろうろ 3
うわ@@ 3
うわごと 3
えくぼ 3
えつけ 3
えへ 3
えら 3
えり@@ 3
えー@@ 3
えーっと 3
おおわ 3
おかしかっ 3
おかみ 3
おくれ 3
おこなう 3
おこる 3
おご@@ 3
おごり@@ 3
おごり高ぶっ 3
おごり高ぶる 3
おさげ 3
おさななじみ 3
おさまら 3
おしえ 3
おせち 3
おそ@@ 3
おぞ@@ 3
おだて@@ 3
おだてる 3
おっぱ@@ 3
おっぱい 3
おど@@ 3
おどかし 3
おどかす 3
おな@@ 3
おの@@ 3
おびき出し 3
おぼれ死ん 3
おめえ 3
おも@@ 3
おもしろかっ 3
おもちゃ箱 3
おもねる 3
おもらし 3
おりる 3
おろ 3
おろす 3
おん 3
お上 3
お巡り 3
かえる 3
かかし 3
かき上げる 3
かき出す 3
かき回す 3
かき消さ 3
かけ金 3
かさかさ 3
かざし 3
かざす 3
かじ@@ 3
かじら 3
かじり 3
かじる 3
かじ屋 3
かせ@@ 3
かぜ 3
かたい 3
かたぎ 3
かたじけなく 3
かっきり 3
かな 3
かねがね 3
かの 3
かばう 3
かび 3
かび@@ 3
かまけ 3
かまっ 3
かみそり 3
かみ切れ 3
かやぶき 3
からっ 3
からむ 3
かろう 3
かわ 3
かわい@@ 3
かわっ 3
かんば@@ 3
か細い 3
か細く 3
がく 3
がくぜん 3
がしい 3
がぶ@@ 3
がぶっ 3
がまん 3
がみ 3
がらめ 3
がり版 3
がれき 3
がんこ 3
がんじ 3
がんば@@ 3
がんばれ 3
きこえ 3
きこり 3
きたし 3
きっ@@ 3
きな粉 3
きび@@ 3
きまり@@ 3
きゃしゃ 3
きゅう 3
きゅん 3
きょう@@ 3
きら@@ 3
ぎくしゃく 3
ぎっくり腰 3
ぎゅ 3
ぎらぎら 3
ぎり 3
ぎれい 3
くぐっ 3
くぐり 3
くさくさ 3
くさっ 3
くさび 3
くし 3
くじく 3
くすぐっ 3
くすぐった 3
くたばれ 3
くだ@@ 3
くだけ 3
くだす 3
くっそおー 3
くつ 3
くねら 3
くみ上げ 3
くらし 3
くらべ 3
くらまし 3
くりくり 3
くるしい 3
くるめ 3
くるッ 3
ぐず 3
ぐず@@ 3
ぐにゃぐにゃ 3
ぐらっ 3
ぐん@@ 3
けい 3
けしからん 3
けじめ 3
けだるい 3
けな 3
けない 3
けら 3
げっ 3
こうじ 3
こきおろし 3
こぐ 3
こころ 3
こしょう 3
こすい 3
こすれ 3
こそぎ@@ 3
こぞっ 3
こたつ 3
ことば 3
こなせ 3
こなれ 3
この@@ 3
こびる 3
こぼさ 3
こぼれ落ち 3
こぼれ落ちる 3
こみ@@ 3
こめかみ 3
こより 3
こらしめ 3
これ@@ 3
ころ@@ 3
ころあい 3
ころん 3
こわ@@ 3
こわばっ 3
こんがら@@ 3
こんにちはー 3
こんもり 3
ごしらえ 3
ごった返し 3
ごね 3
ごま@@ 3
ごみ@@ 3
ごめ 3
ごり 3
さえずる 3
さおばかり 3
さかのぼ@@ 3
さかのぼっ 3
さくら 3
さけ 3
さげ 3
さげ@@ 3
ささっ 3
さす@@ 3
さすっ 3
さっそう 3
さてさて 3
さなぎ 3
さまよい 3
さみ 3
さや 3
さらわ 3
さりげなく 3
される 3
さわぎ 3
さわり 3
さーっ 3
さーて 3
ざい 3
ざらし 3
ざん@@ 3
しあう 3
しいたけ 3
しかばね 3
しかめ@@ 3
しかり 3
しがない 3
しくしく 3
しこ 3
した@@ 3
したたる 3
しだし 3
しつける 3
しでかす 3
しびれる 3
しぼり@@ 3
しみじみ 3
しみと@@ 3
しも@@ 3
しゃい 3
しゃがむ 3
しんどい 3
しんどく 3
じぁ 3
じまっ 3
じめ 3
じゃい 3
じゃろ 3
じゃんけん 3
じゅうりん 3
じょ@@ 3
じわじわ 3
じん 3
じん@@ 3
じーっと 3
じーんと 3
すいすい 3
すう 3
すかさず 3
すが@@ 3
すがすが@@ 3
すがっ 3
すくい上げ 3
すくう 3
すくえ 3
すぐっ 3
すご 3
すごす 3
すすす 3
すっげえ 3
すっぱ抜い 3
すとん 3
すばし@@ 3
すべ@@ 3
すぼ@@ 3
すぼめ 3
すみれ 3
すやすや 3
すりゃあ 3
すれ違い 3
ずさん 3
ずば@@ 3
ずみ 3
ずらさ 3
ずらっ 3
ずるがしこい 3
ずるずる 3
ずん 3
せがれ 3
せき止める 3
せき立てる 3
せく 3
せつ 3
せみ 3
せわしく 3
せ台 3
ぜったい 3
ぜんそく 3
そう@@ 3
そえ 3
そぐ 3
そぐわ 3
そこ@@ 3
そこない 3
そこなう 3
そそっ 3
そその@@ 3
そそり 3
そっ@@ 3
そつ 3
そらんじる 3
そろう 3
そん@@ 3
ぞぉ 3
ぞり 3
ぞろ 3
ぞォ 3
たかし 3
たがわ 3
たき火 3
たくり 3
たくる 3
たけなわ 3
たけり狂っ 3
たすけ 3
たそがれ 3
たたか 3
たたきつけ 3
たたき込ん 3
たたずまい 3
たたた 3
たたっ 3
たたみ 3
たたん 3
ただちに 3
たてがみ 3
たな@@ 3
たなびく 3
たまーに 3
ため@@ 3
たやすい 3
たらい 3
たり@@ 3
たわ@@ 3
だし@@ 3
だだ@@ 3
だてら 3
だまし取ら 3
だませ 3
だらし@@ 3
だんす 3
だァ 3
だー@@ 3
ちかちか 3
ちくし 3
ちくりん 3
ちっ@@ 3
ちっと 3
ちび@@ 3
ちま@@ 3
ちゃーん 3
ちやほや 3
ちょろ 3
ちょん 3
ちりあくた 3
ちん@@ 3
っしゃ@@ 3
った@@ 3
ったい 3
っち@@ 3
っちょ 3
っつ@@ 3
っつり 3
っぱし 3
っぱり 3
っぷ@@ 3
っ端 3
つう 3
つかの間 3
つきっきり 3
つきまとっ 3
つぎ 3
つぎ@@ 3
つけれ 3
つづけ 3
つづける 3
つなぎ合わせる 3
つなげ 3
つぶ 3
つましい 3
つまみ@@ 3
つまる 3
つむ@@ 3
つむじ曲がり 3
つらら 3
つるす 3
つれ@@ 3
つれる 3
つわもの 3
つん 3
づえ 3
づて 3
ていたらく 3
てかてか 3
てこ@@ 3
てひどい 3
とうもろこし 3
とぉ 3
とさか 3
とっておき 3
とばし 3
とばっちり 3
とも@@ 3
とらえる 3
とりあい 3
とろく 3
とろみ 3
とわ 3
とんがり 3
とォ 3
とー 3
どうり 3
どき 3
どきっ 3
どさくさ 3
どしどし 3
どたばた 3
どっしり 3
どっちみち 3
どぶん 3
どよめき 3
どん@@ 3
どんちゃん 3
どんぶり 3
どん底 3
なあなあ 3
なげ@@ 3
なげうっ 3
なじっ 3
なぞ@@ 3
なだ@@ 3
なっつ 3
なでつけ 3
なびか 3
なぶり@@ 3
なめし 3
なめん 3
なんと 3
にい 3
におわ 3
にこやか 3
にじ 3
にじ@@ 3
にべ 3
にらみ 3
ぬか@@ 3
ぬくもり 3
ぬぐい 3
ぬぐい@@ 3
ぬけ 3
ねい 3
ねじけ 3
ねじっ 3
ねたま 3
ねばねば 3
のし@@ 3
のしかかっ 3
のっけ 3
のび 3
のびる 3
のぼ@@ 3
のぼせ上がっ 3
のぼり 3
のめ@@ 3
のる 3
のれん 3
のろ 3
のろい 3
のん 3
のん@@ 3
の下 3
の手 3
の目 3
の神 3
の間 3
はう 3
はえ 3
はか@@ 3
はかく 3
はかない 3
はかり 3
はがれる 3
はぎ取る 3
はぐくま 3
はしゃぐ 3
はじい 3
はじき 3
はじけ 3
はじまり 3
はじめる 3
はす 3
はたき 3
はたき@@ 3
はたき落とし 3
はたく 3
はたら@@ 3
はだける 3
はちきれ 3
はな@@ 3
はははは 3
はば@@ 3
はび@@ 3
はびこる 3
はまり 3
はまり@@ 3
はやしたて 3
はれ@@ 3
はんだ 3
ばえ 3
ばそう 3
ばっ@@ 3
ばーか 3
ぱ 3
ぱくぱく 3
ぱりぱり 3
ひきこもり 3
ひき肉 3
ひげ@@ 3
ひし@@ 3
ひしひし 3
ひすい 3
ひた@@ 3
ひっくり返す 3
ひっこん 3
ひっぱたく 3
ひとっ飛び 3
ひとりひとり 3
ひと雨 3
ひなたぼっこ 3
ひな祭り 3
ひな鳥 3
ひま 3
ひやひや 3
ひょうきん 3
ひょろ@@ 3
ひょろ長い 3
ひよこ 3
ひら 3
ひらがな 3
ひらり 3
ひれ 3
ひれ伏し 3
ひ弱 3
びびっ 3
ぴかっ 3
ぴたり 3
ぴりっ 3
ぴーん 3
ふいご 3
ふく@@ 3
ふさ 3
ふさぎ込む 3
ふだん 3
ふっ@@ 3
ふっ飛ん 3
ふて@@ 3
ふら@@ 3
ふらっ 3
ふらつい 3
ふわり 3
ふん@@ 3
ふんだん 3
ぶき 3
ぶくぶく 3
ぶし 3
ぶぜん 3
ぶちのめし 3
ぶち壊す 3
ぶっちゃけ 3
ぶっ壊す 3
ぶっ殺し 3
ぶっ飛ば 3
ぶっ飛ばし 3
ぶっ飛ん 3
ぶつかり合う 3
ぶつかり合っ 3
ぶらさげ 3
ぶらんこ 3
ぶんどっ 3
ぷり 3
へこま 3
へし合い 3
へし折る 3
へた 3
へつらう 3
べた@@ 3
べたべた 3
べっ 3
べら 3
ぺしゃんこ 3
ぺちゃんこ 3
ほうらつ 3
ほうれん 3
ほお@@ 3
ほおずり 3
ほかほか 3
ほこ@@ 3
ほころん 3
ほっ@@ 3
ほっつき歩い 3
ほてっ 3
ほとばしり出 3
ほとほと 3
ほのめかし 3
ほろ苦い 3
ぼうぼう 3
ぼかし 3
ぼかん 3
ぼそぼそ 3
ぼったい 3
ぼれる 3
ぼろ靴 3
ぽたぽた 3
ぽっち 3
ぽつり 3
ぽん@@ 3
まか 3
まくし@@ 3
まぐ@@ 3
まぐさ 3
まさ 3
まし@@ 3
まじか 3
また@@ 3
またぐ 3
まち@@ 3
まったり 3
まっとう 3
まつ@@ 3
まて 3
まとめ@@ 3
まな板 3
まぬけ 3
ままごと 3
まめ@@ 3
まる@@ 3
まわる 3
まんこ 3
みこし 3
みせろ 3
みつかり 3
みな@@ 3
みなぎる 3
みはっ 3
みはる 3
みるみる 3
み出る 3
み合う 3
むく@@ 3
むさぼっ 3
むさぼり 3
むさぼろう 3
むしば@@ 3
むしばむ 3
むしゃむしゃ 3
むち@@ 3
むち打っ 3
むつまじく 3
むら@@ 3
むりやり 3
むんむん 3
めくる 3
めくれ 3
めぐ@@ 3
めぐみ 3
めぐり 3
めぐり会え 3
めざましい 3
めずらしい 3
めっぽう 3
めでたく 3
めりはり 3
めりゃ 3
めり込ん 3
めんどく 3
もがき 3
もぎたて 3
もたせ@@ 3
もっか 3
もつれる 3
もどし 3
ものぐさ 3
もめる 3
もろく 3
ゃあ 3
やいのやいの 3
やっとこさ 3
やに 3
やば@@ 3
やぶ@@ 3
やぶれ 3
やぼ@@ 3
やみ夜 3
ややこしく 3
やらし 3
やりゃ 3
やり合う 3
やり合っ 3
やり直せ 3
やり直せれ 3
やり込め 3
やり過ごし 3
やろー 3
ゅ 3
ゅう 3
ゆう 3
ゆう@@ 3
ゆえん 3
ゆき 3
ゆけ 3
ゆすい 3
ゆすり 3
ゆすり@@ 3
ゆする 3
ゆだね 3
ゆるせん 3
ゆん 3
ょう 3
ようじ 3
よけい 3
よけりゃ 3
よこ@@ 3
よしゃ 3
よじ登り 3
よそっ 3
よそよそしく 3
よそ者 3
よちよち 3
よどん 3
よほど 3
よみがえっ 3
よみがえる 3
よも 3
より好み 3
よろい 3
よろこぶ 3
よろめい 3
よん 3
らあ 3
らえる 3
らく 3
らしき 3
らそう 3
らめ 3
りつく 3
りりしく 3
りん@@ 3
り立てる 3
り込ん 3
るま 3
るん 3
れっき 3
れ目 3
ろい 3
ろり 3
わき出る 3
わき役 3
わび@@ 3
わらじ 3
わら束 3
わりぃ 3
わーい 3
んじゃ 3
ァァ@@ 3
アア@@ 3
アイヌ 3
アイランド 3
アウ@@ 3
アウト@@ 3
アウトプット 3
アキ@@ 3
アキシ 3
アケミ 3
アコーディオン 3
アザラシ 3
アジ 3
アジト 3
アッ 3
アック 3
アット 3
アド 3
アドリブ 3
アドレナリン 3
アニ 3
アハハ 3
アバ@@ 3
アパルトヘイト 3
アフ@@ 3
アポイントメント 3
アミノ 3
アヤ 3
アライグマ 3
アラバマ 3
アリング 3
アルゴリズム 3
アルジェリア 3
アルゼンチン 3
アロハ 3
アンコール 3
アンドロ@@ 3
アーチスト 3
アーム 3
イイイイ@@ 3
イグサ 3
イシガ@@ 3
イタズラ 3
イチャ@@ 3
イッカク 3
イヌ@@ 3
イノベーション 3
イマイチ 3
イミ@@ 3
イラっ 3
インカム 3
インコ 3
インタ@@ 3
インテリジェント 3
インディ@@ 3
イント 3
インドア 3
ウィリアム 3
ウィン 3
ウィンドウ 3
ウィンドー 3
ウイ@@ 3
ウインド@@ 3
ウインドー 3
ウェイター 3
ウェイトレス 3
ウェー@@ 3
ウエディング 3
ウォッチング 3
ウォン@@ 3
ウオー@@ 3
ウキウキ 3
ウケ 3
ウダ@@ 3
ウッド 3
ウル@@ 3
ウワ@@ 3
ウーファー 3
ウーマン 3
ェー 3
エイト 3
エキジビション 3
エキゾチック 3
エグゼクティブ 3
エコロ@@ 3
エジ@@ 3
エスプレッ@@ 3
エタノール 3
エチレン 3
エッジ 3
エライ 3
エレ@@ 3
エン 3
エンジェルフィッシュ 3
エンス 3
エンパ@@ 3
エー 3
エー@@ 3
エージェント 3
エーター 3
エード 3
オイオイ 3
オウ@@ 3
オカ@@ 3
オコ@@ 3
オジ 3
オタマ 3
オナ@@ 3
オハイオ 3
オピニオン 3
オブザーバー 3
オブラート 3
オペ@@ 3
オペレータ 3
オリジナリティ 3
オル 3
オルド@@ 3
オングストローム 3
オンリー 3
オーガ@@ 3
オーケー 3
オーソン 3
オート@@ 3
オートメーション 3
オーロラ 3
カウボーイ 3
カエ@@ 3
カキ氷 3
カサコソ 3
カスタム 3
カスト 3
カタ 3
カチンカチン 3
カッコウ 3
カツレツ 3
カツ丼 3
カテ 3
カナ 3
カプセル 3
カプチーノ 3
カム 3
カムフラージュ 3
カモ@@ 3
カモメ 3
カリスマ 3
カルテル 3
カルビ 3
カルピス 3
カレンシー 3
カワ 3
カワイ@@ 3
カンガルー 3
カンザス 3
カンテラ 3
カンバス 3
カンブリア 3
カーカー 3
ガイ@@ 3
ガエル 3
ガモ 3
ガラク@@ 3
ガラン 3
ガリ@@ 3
ガンジー 3
ガーガー 3
キア 3
キサンチン 3
キシー 3
キジ 3
キッ@@ 3
キツ@@ 3
キツい 3
キツイ 3
キビ@@ 3
キャピ@@ 3
キャミソール 3
キャラ@@ 3
キャラバン 3
キャラメル 3
キャン@@ 3
キャンバス 3
キュン 3
キューブ 3
キロカロリー 3
キーキー 3
ギク 3
ギブ 3
ギュ@@ 3
ギング 3
クォー@@ 3
クォーク 3
クソッタレ 3
クッ 3
クツ 3
クトル 3
クラクラ 3
クラッカー 3
クラリネット 3
クラー@@ 3
クリ 3
クリケット 3
クリティカル 3
クリーク 3
クル 3
クルー@@ 3
クルーズ 3
クレヨン 3
クレージー 3
クレーター 3
クロー 3
クロー@@ 3
クロール 3
クーリング 3
グザ@@ 3
グチ 3
グッ 3
グラン@@ 3
グー@@ 3
グーグル 3
ケイパ@@ 3
ケセラセラ 3
ケチ 3
ケッ 3
ケラ 3
ケ月 3
ゲイン 3
ゲロゲロ 3
ゲン@@ 3
ゲー@@ 3
コア@@ 3
コイ@@ 3
コウイ@@ 3
コカイン 3
コケ@@ 3
ココナッツ 3
コスモス 3
コネクタ 3
コノテガシワ 3
コミニュケーション 3
コメ@@ 3
コラム 3
コルク 3
コレクター 3
コロコロ 3
コロッ@@ 3
コロラド 3
コンサー@@ 3
コンシェ@@ 3
コンディショナー 3
コンディション 3
コンパクト 3
コンビネーション 3
コンピ@@ 3
コンベンション 3
コンペティション 3
コーディネーター 3
コーポレーション 3
コールド 3
ゴク@@ 3
ゴシップ 3
ゴス@@ 3
ゴミ出し 3
ゴージャス 3
サイクロ@@ 3
サイバー 3
サウンド 3
サキ 3
サクサク 3
サクランボ 3
サッパリ 3
サディ@@ 3
サバンナ 3
サビ 3
サプライ 3
サポーター 3
サラ 3
サリー 3
サワ@@ 3
サンダー 3
サンディ@@ 3
サーッ 3
サーベイ 3
サーモン 3
サール 3
ザー@@ 3
シェイ@@ 3
シェー@@ 3
シェークスピア 3
シグナル 3
システ@@ 3
シズム 3
シチュエーション 3
シック 3
シテクダサイ 3
シト@@ 3
シニ@@ 3
シニョール 3
シベリア 3
シャリ 3
シュッ 3
シュレッダー 3
ショウ@@ 3
ショルダー 3
ショール@@ 3
シリンダー 3
シロ 3
シングルス 3
シーバー 3
ジェイ@@ 3
ジェンダー 3
ジット 3
ジメジメ 3
ジャイアント 3
ジャクシ 3
ジャグ@@ 3
ジャスト 3
ジャパン 3
ジャマ 3
ジャマイカ 3
ジャンジャン 3
ジュネーブ 3
ジュー 3
ジョイント 3
ジョー@@ 3
ジロジロ 3
ジープ 3
スイカ割り 3
スイーツ 3
スウェ@@ 3
スカイダイビング 3
スカタン 3
スキ 3
スキー@@ 3
スクス 3
スクーター 3
スコア@@ 3
スコットランド 3
スジ 3
スタンス 3
スタント 3
スター@@ 3
スチ 3
ステ 3
ステア 3
ステッチ 3
ステリア 3
ステータス 3
ストイック 3
ストリート 3
ストー@@ 3
ストーク 3
ストーップ 3
スノー 3
スパ 3
スパイ@@ 3
スパイク 3
スパイス 3
スパゲッティ 3
スパン@@ 3
スパンコール 3
スピードアップ 3
スプリ@@ 3
スペクトル 3
スペシャ@@ 3
スペシャリスト 3
スポー@@ 3
スポーツマン 3
スミマセン 3
スメ@@ 3
スモーク 3
スライス 3
スリム 3
スロット 3
スロープ 3
スワ@@ 3
スワップ 3
スースー 3
スーパーマン 3
ズデー 3
ズリ 3
ズル 3
セカンド 3
セキュリティー 3
セク@@ 3
セグ@@ 3
セス@@ 3
セチン 3
セッティング 3
セミ@@ 3
セミプロ 3
セラ@@ 3
セラピー 3
セリ 3
セルフ 3
センサ 3
センサス 3
センセーション 3
センテンス 3
セントラル 3
ゼッ@@ 3
ゼネスト 3
ゼミ 3
ソス 3
ソレ 3
ソー@@ 3
ソープ 3
ソーラー 3
ゾン@@ 3
タオルケット 3
タチ 3
タチ@@ 3
タバ@@ 3
タフ 3
タブ@@ 3
タミ@@ 3
タミン 3
タメ 3
タレ 3
タンポ@@ 3
タード 3
ダイア@@ 3
ダイオード 3
ダイナ@@ 3
ダウ 3
ダジャレ 3
ダビング 3
ダブ 3
ダンゴ 3
ダンプ 3
ダース 3
ダーツ 3
チア 3
チェロ 3
チク 3
チコ 3
チップス 3
チフス 3
チャクチャ 3
チャラい 3
チャンピ@@ 3
チュア 3
チュロス 3
チューインガム 3
チューター 3
チューリップ 3
チョキ 3
チラ@@ 3
チームメート 3
ッキ 3
ッキング 3
ッキー 3
ックッ 3
ッケル 3
ッツ 3
ッツァ@@ 3
ッテ 3
ッペ 3
ツァ@@ 3
ツァー 3
ツイード 3
ツォ 3
ツキ 3
ツタ 3
ツチ@@ 3
ツナ 3
ツンツン 3
ティンパニ 3
ティータイム 3
テイン@@ 3
テッ@@ 3
テックス 3
テナント 3
テメ@@ 3
テリ@@ 3
テリーヌ 3
テレフォン 3
ディアマンテ 3
ディオ 3
ディスクロージャー 3
ディン 3
ディン@@ 3
デカイ 3
デキ@@ 3
デコレーション 3
デシ@@ 3
デスク@@ 3
デトロイト 3
デニム 3
デパ 3
デブ 3
デモンストレーション 3
デュー 3
デリジェンス 3
デリバリー 3
デン@@ 3
デント 3
トピックス 3
トライ 3
トライン 3
トランス@@ 3
トレ 3
トレイ 3
トレンディー 3
トレーダー 3
トロイ 3
トロニクス 3
トロフィー 3
トロリーバス 3
トロール 3
トー 3
トース 3
トーナメント 3
トープ 3
ドス黒い 3
ドタキャン 3
ドナー 3
ドバイ 3
ドブック 3
ドラグーン 3
ドラッグ 3
ドラマー 3
ドララララララララ@@ 3
ドリフト 3
ドレッド 3
ドロドロ 3
ドーナツ 3
ドーラン 3
ドール 3
ナイ 3
ナイトクラブ 3
ナガ 3
ナス@@ 3
ナチ@@ 3
ナツ@@ 3
ナノ@@ 3
ナパーム 3
ナポレオン 3
ナマ@@ 3
ナメクジ 3
ナルシ@@ 3
ナン 3
ナンシャル 3
ナース 3
ナード 3
ニオイ 3
ニカ 3
ニキビ 3
ニコ@@ 3
ニコニコ 3
ニシン 3
ニャー 3
ニューギニア 3
ニューロン 3
ニワトリ 3
ニング@@ 3
ネオ 3
ネッカチーフ 3
ネバダ 3
ネード 3
ノイド 3
ノスタル@@ 3
ノック@@ 3
ノーベル 3
ハイエナ 3
ハイドロ 3
ハイヤー 3
ハウ@@ 3
ハゲ@@ 3
ハダ@@ 3
ハッと 3
ハット 3
ハッピ 3
ハナ 3
ハニー 3
ハネ@@ 3
ハネムーン 3
ハマ@@ 3
ハムスター 3
ハリ 3
ハル 3
ハレー 3
ハロウィン 3
ハングリー 3
ハンティング 3
ハンデ 3
ハンドバッグ 3
ハンパ 3
ハードカバー 3
ハープ 3
ハーモニカ 3
ハーモニー 3
ハーレム 3
バイド 3
バイバ@@ 3
バウ@@ 3
バグ@@ 3
バコ 3
バシッ 3
バスルーム 3
バッター 3
バッチ@@ 3
ババ 3
バブル 3
バラさ 3
バラエティ 3
バラツキ 3
バリウム 3
バリエーション 3
バリカン 3
バルーン 3
バレッ@@ 3
バンコク 3
バント 3
バンド@@ 3
バース@@ 3
バースディ 3
バード 3
バーナー 3
バール 3
パイプライン 3
パエリア 3
パシャ 3
パシー 3
パステル 3
パチ 3
パチン 3
パニール 3
パピ@@ 3
パラグアイ 3
パラスコ 3
パラダイム 3
パルス 3
パレート 3
パンティー 3
パーカッション 3
ヒステ@@ 3
ヒット@@ 3
ヒップ 3
ヒトコブラクダ 3
ヒモ 3
ヒヤ@@ 3
ヒュー 3
ヒラ 3
ヒラ@@ 3
ヒラヒラ 3
ヒンドゥー 3
ヒンヒン 3
ヒー@@ 3
ビク@@ 3
ビショ@@ 3
ビジュアル 3
ビズ 3
ビッ 3
ビット 3
ビュッフェ 3
ビリ 3
ビーカー 3
ピア@@ 3
ピカ@@ 3
ピク@@ 3
ピチ 3
ピックアップ 3
ピット 3
ピュー@@ 3
ピョ@@ 3
ピラ 3
ピラミッド 3
ピンセット 3
ピント 3
ファ 3
ファイブ 3
ファイヤー 3
ファウル 3
ファミレス 3
ファレンス 3
ファンデーション 3
ファーム 3
フィアンセ 3
フィッ@@ 3
フィック 3
フィル@@ 3
フィレンツェ 3
フェイ@@ 3
フェザー 3
フェチ 3
フェニ@@ 3
フェル 3
フェルト 3
フォトグラファー 3
フォルダー 3
フォルティッシモ 3
フォロワー 3
フォー 3
フォーラム 3
フットサル 3
フツー 3
フフ@@ 3
フラッグシップ 3
フランチャイザー 3
フレ 3
フロ 3
フロリダ 3
フーッ 3
フール 3
ブクブク 3
ブダ@@ 3
ブック@@ 3
ブッシュ 3
ブッ殺し 3
ブツ@@ 3
ブブ 3
ブラコン 3
ブラッド 3
ブランケット 3
ブリ 3
ブリック 3
ブリン 3
ブリー@@ 3
ブルドーザー 3
ブルーベリー 3
ブレー@@ 3
ブロ@@ 3
ブロッ@@ 3
ブローチ 3
ブース 3
プキン 3
プラトン 3
プラモデル 3
プリズム 3
プリペイド 3
プレッ@@ 3
プレナー 3
プレハブ 3
プレミア 3
プレーン 3
プログラマー 3
プログラミング 3
プロダクション 3
プロテ@@ 3
プロレタリアート 3
プー@@ 3
プードル 3
ヘアピン 3
ヘタレ 3
ヘチマ 3
ヘテロ 3
ヘビ 3
ヘビ@@ 3
ヘブライ 3
ヘラ@@ 3
ヘレ@@ 3
ヘー@@ 3
ベイ 3
ベス 3
ベネチア 3
ベラ 3
ベルサイユ 3
ベーグル 3
ベーター 3
ペコペコ 3
ペスト 3
ペプ@@ 3
ペプチド 3
ペラ 3
ペンシル 3
ペンス 3
ペーパーバック 3
ホウ@@ 3
ホカ@@ 3
ホス@@ 3
ホステス 3
ホタテ 3
ホチキス 3
ホック 3
ホッケー 3
ホップ 3
ホノルル 3
ホリデー 3
ホロ 3
ホンット 3
ホー 3
ホーズ 3
ホーミング 3
ボイ@@ 3
ボカ@@ 3
ボギー 3
ボゲ 3
ボコボコ 3
ボッポ 3
ボディーガード 3
ボブキャット 3
ボヨ@@ 3
ボンバヘー 3
ボーカル 3
ボーダー 3
ポイ捨て 3
ポキ@@ 3
ポキッ 3
ポコポコ 3
ポッ 3
ポップコーン 3
ポツ@@ 3
ポリス 3
ポリタン 3
ポロン 3
ポンポン 3
ポン酢 3
ポー@@ 3
ポーランド 3
マイコン 3
マウンテン 3
マエ 3
マグニ@@ 3
マグネシウム 3
マサ 3
マサキ 3
マザコン 3
マジメ 3
マスカラ 3
マズロー 3
マゼ@@ 3
マッチング 3
マトリ@@ 3
マトン 3
マドリード 3
マナティー 3
マネタリー 3
マネージャ 3
マヒ 3
マミ 3
マヤ 3
マラ 3
マリア 3
マリー 3
マルチタスク 3
マンガン 3
マンゴー 3
マンデー 3
マント 3
マンハッタン 3
マーキング 3
ミイラ 3
ミクロネシア 3
ミシガン 3
ミジン 3
ミソ 3
ミツヨ 3
ミナ@@ 3
ミリ@@ 3
ミリオン 3
ミリメートル 3
ミル 3
ムカ@@ 3
ムチャ 3
ムッと 3
ムー@@ 3
メイチュウ 3
メガ 3
メモ@@ 3
メロ@@ 3
メロディ 3
メロメロ 3
メータ 3
メーリング 3
モゲ 3
モコモコ 3
モザイク 3
モスク 3
モチ 3
モチーフ 3
モック 3
モテ@@ 3
モテル 3
モナカ 3
モニ@@ 3
モノクロ 3
モブ 3
モラル 3
モーターズ 3
ャ 3
ヤケ 3
ヤス 3
ヤニ 3
ユニクロ 3
ユネスコ 3
ユリ 3
ユーザ@@ 3
ユーフォニアム 3
ョン 3
ヨウ 3
ヨシ@@ 3
ヨー 3
ヨー@@ 3
ライザー 3
ライナ 3
ラインナップ 3
ラウドスピーカー 3
ラオ 3
ラオラオラオラオ@@ 3
ラス@@ 3
ラスク 3
ラボ 3
ララ@@ 3
ララララ@@ 3
ランチェスター 3
ラーゼ 3
リエ 3
リクルート 3
リケ@@ 3
リサ 3
リス@@ 3
リスボン 3
リゼ 3
リチ@@ 3
リッター 3
リッパー 3
リバ@@ 3
リビア 3
リピ@@ 3
リフ 3
リベット 3
リボ 3
リボ@@ 3
リュックサック 3
リンカーン 3
リンジャー 3
リーガー 3
リーナ 3
リール 3
ルイ 3
ルク 3
ルコ@@ 3
ルタ 3
ルックス 3
ルト@@ 3
ルーク 3
ルーツ 3
ルームメイト 3
レる 3
レイコ 3
レク@@ 3
レシ@@ 3
レシオ 3
レス@@ 3
レスト 3
レタス 3
レチ@@ 3
レッツ 3
レト@@ 3
レム 3
レリーフ 3
レル 3
レーキ 3
レーショ@@ 3
レーションズ 3
レーシング 3
レーン@@ 3
ロイコトリエン 3
ロウ 3
ロウソク 3
ログラム 3
ロジ@@ 3
ロチョロ 3
ロッ 3
ロッド 3
ロデオ 3
ロモン 3
ロリ@@ 3
ロータリー 3
ローディング 3
ロード@@ 3
ロープウェー 3
ワイキキ 3
ワイド 3
ワッ@@ 3
ワット 3
ワッハッハ 3
ワラント 3
ワロン 3
ワーイ 3
ワーッ 3
ワープ 3
ンソン 3
ンヒ@@ 3
ヴ@@ 3
ヴァ 3
ヴァイオ@@ 3
ヴィー@@ 3
ヴォル@@ 3
ヶ所 3
ーんと 3
ーゼ 3
ーチ 3
ード@@ 3
ーニング 3
ーミング 3
ールド 3
一世 3
一元 3
一動 3
一夕 3
一巡 3
一房 3
一概 3
一理 3
一睡 3
一矢 3
一線 3
一群れ 3
一臂 3
一豊 3
一退 3
一進 3
一際 3
一髪 3
七夕祭り 3
万人 3
万博 3
万障 3
三々 3
三が日 3
三つ@@ 3
三国 3
三百 3
上がろう 3
上り@@ 3
上向き 3
上巻 3
上帝 3
上文 3
上方 3
下され 3
下せ 3
下位 3
下回る 3
下女 3
下宿 3
下弦 3
下手くそ 3
下院 3
不ぞろい 3
不まじめ 3
不可分 3
不徳 3
不死身 3
不省 3
不義 3
不老 3
不覚 3
不通 3
不逞 3
不適 3
不随 3
世俗 3
世情 3
世故 3
业@@ 3
両人 3
両地 3
严打 3
並列 3
个@@ 3
中外 3
中島 3
中庸 3
中文 3
中細 3
中野 3
丸々 3
丸め@@ 3
丸刈り 3
丸焼き 3
丸裸 3
丸見え 3
丹 3
主菜 3
乃 3
久 3
久@@ 3
乏しく 3
乖離 3
乗っ取っ 3
乗り上げ 3
乗り出す 3
乗り込む 3
乗ん 3
乙@@ 3
九十 3
乞い 3
乱闘 3
乳幼児 3
乳白 3
乾か 3
予見 3
争 3
争わ 3
争奪 3
争議 3
事大 3
事後 3
事案 3
事欠い 3
事欠く 3
事細か 3
二心 3
二手 3
二親 3
二鳥 3
互い違い 3
互換 3
五々 3
五六 3
五穀 3
井岡 3
亡くさ 3
交ぜ 3
交ぜる 3
交戦 3
交易 3
享年 3
京@@ 3
人となり 3
人出 3
人文 3
人称 3
人聞き 3
人跡 3
人通り 3
人食い 3
人騒がせ 3
今さっき 3
今どき 3
今夏 3
介@@ 3
仕 3
仕入れ先 3
仕入先 3
仕掛 3
仕込み 3
仕込ん 3
他力 3
他店 3
他方 3
代わる 3
代打 3
代数 3
代用 3
以 3
仮借 3
仮眠 3
仮装 3
仰ぎ 3
仲人 3
仲買 3
任し 3
任せよう 3
伊達 3
伏兵 3
伏線 3
伐 3
伐@@ 3
休耕 3
会する 3
伝い 3
伝えれ 3
伝承 3
伝播 3
似@@ 3
似せ 3
似つ@@ 3
似る 3
低め 3
体刑 3
体外 3
体現 3
体表 3
何々 3
何せ 3
何ぴと 3
何時ごろ 3
余命 3
作り出さ 3
你@@ 3
併呑 3
併発 3
使い古し 3
使い物 3
供@@ 3
供え 3
供出 3
供託 3
侮っ 3
侮蔑 3
侵さ 3
侵食 3
係る 3
促さ 3
保温 3
信じよう 3
信徒 3
修得 3
俸@@ 3
倍@@ 3
倒@@ 3
倒錯 3
借 3
借りよう 3
借り入れ 3
借り手 3
倣い 3
倣っ 3
値踏み 3
偶像 3
偽証 3
傍若 3
傍証 3
傑物 3
催@@ 3
僅か 3
僅少 3
働 3
働@@ 3
働かさ 3
僧@@ 3
僻地 3
儀仗 3
儒@@ 3
儒者 3
償わ 3
優に 3
優柔 3
儲@@ 3
元カ@@ 3
元凶 3
元帳 3
元本 3
元老 3
元首 3
先ごろ 3
先んじ 3
先兵 3
先行き 3
先達 3
光熱 3
兎 3
入り日 3
入り江 3
入れれ 3
入れ換える 3
入れ違い 3
入園 3
入射 3
入庫 3
入用 3
入賞 3
內容 3
全書 3
全治 3
八つ裂き 3
八宝 3
八百 3
八達 3
公使 3
公僕 3
公告 3
公報 3
公益 3
公私 3
公道 3
共学 3
共振 3
共犯 3
兵法 3
兵馬 3
其 3
兼ねる 3
内々 3
内債 3
内障 3
円い 3
円すい 3
冒@@ 3
冒す 3
写し@@ 3
写字 3
冠@@ 3
冬服 3
冴子 3
冷え込み 3
冷笑 3
凄かっ 3
凌@@ 3
凍え@@ 3
凍える 3
凝ら 3
凝り 3
凝結 3
凝縮 3
几 3
処@@ 3
処世 3
凱 3
凹凸 3
出しゃばり 3
出しゃばる 3
出し惜しみ 3
出し抜く 3
出だし 3
出合い 3
出合っ 3
出帆 3
出征 3
出来@@ 3
出来心 3
出逢@@ 3
出逢う 3
出逢え 3
出馬 3
函館 3
刀@@ 3
分か@@ 3
分かた 3
分かち@@ 3
分ら 3
分り 3
分派 3
分譲 3
分際 3
切な 3
切り上げる 3
切り倒し 3
切り傷 3
切り分け 3
切り刻ま 3
切り崩し 3
切り干し 3
切り抜き 3
切り換え 3
切り落とし 3
切り詰め 3
切り詰める 3
切り開か 3
切れ味 3
刈り取る 3
刈り込ん 3
刑期 3
初秋 3
利かし 3
利かす 3
刳@@ 3
制し 3
制す 3
刷っ 3
刻@@ 3
刻み@@ 3
刻みつける 3
剃り 3
則@@ 3
削り盤 3
前々 3
前のめり 3
前彼 3
前癌 3
前科 3
前立 3
前置 3
前置き 3
前職 3
前菜 3
前衛 3
前輪 3
前頭 3
前駆 3
剥がし 3
剥げ 3
副葬 3
副詞 3
割り切れる 3
割り込み 3
割り込む 3
割り込ん 3
割譲 3
創出 3
劇@@ 3
劍 3
力なく 3
力任せ 3
力強 3
功一 3
功罪 3
功臣 3
加えれ 3
加わら 3
加味 3
加圧 3
加護 3
劣@@ 3
劣性 3
助から 3
助け出し 3
助け合っ 3
励 3
励ま 3
労資 3
勇往 3
動議 3
動転 3
勝ち得る 3
勝ち誇っ 3
募ら 3
勤@@ 3
勲功 3
化け物 3
化す 3
化身 3
北国 3
北島 3
北東 3
区@@ 3
医務 3
医術 3
医院 3
十二@@ 3
半裸 3
卑しく 3
卑俗 3
卑近 3
卒@@ 3
協商 3
単元 3
博識 3
印紙 3
危うから 3
即興 3
却 3
卸 3
卸@@ 3
卸業 3
厘 3
厚手 3
原っぱ 3
原宿 3
原形 3
原意 3
原状 3
原画 3
原色 3
厭@@ 3
厳 3
厳然 3
去 3
参 3
参事 3
参拝 3
又@@ 3
及第 3
友軍 3
双極 3
反り 3
反り返っ 3
反則 3
反帝 3
反復 3
取りあえず 3
取りやめる 3
取り下げる 3
取り仕切る 3
取り合おう 3
取り戻さ 3
取り扱わ 3
取り押さえる 3
取り持つ 3
取り換える 3
取り締@@ 3
取り置き 3
取り込ま 3
取り除け 3
取捨 3
取消し 3
取組 3
取組み 3
受から 3
受けとり 3
受け付ける 3
受容 3
口ぐせ 3
口ずさん 3
口づけ 3
口止め 3
口添え 3
口火 3
口癖 3
口臭 3
口説い 3
口説き 3
古墳 3
古寺 3
古物 3
古籍 3
古跡 3
古風 3
句@@ 3
只 3
叫べ 3
可哀相 3
可視 3
台秤 3
史上 3
史料 3
右寄り 3
右投げ 3
号外 3
号砲 3
各々 3
各所 3
合い@@ 3
合い言葉 3
合おう 3
合わさっ 3
合わし 3
合切 3
合戦 3
合算 3
同姓 3
同室 3
同感 3
同種 3
同音 3
名分 3
名医 3
名残惜しく 3
名状 3
名著 3
向かわ 3
向き@@ 3
向き合い 3
向き合わ 3
吟じ 3
吠え@@ 3
吸い上げ 3
吸え 3
吸入 3
吸水 3
吸盤 3
吹@@ 3
吹きすさび 3
吹きすさぶ 3
吹き倒さ 3
吹き抜け 3
吹き替え 3
吹き流し 3
吹き込む 3
吹き飛ん 3
吹き鳴らさ 3
吹ける 3
吹けれ 3
吹っかけ 3
吹っ飛ばさ 3
吹っ飛ばし 3
呂 3
呆然 3
呈@@ 3
告ら 3
告別 3
告示 3
周遊 3
呪縛 3
呱@@ 3
味@@ 3
味けない 3
味わわ 3
呼 3
呼び覚まし 3
呼び起こさ 3
呼び起こす 3
命取り 3
命拾い 3
和え 3
咲き乱れ 3
咽 3
咽@@ 3
哀れむ 3
哀願 3
品定め 3
品川 3
品目 3
哨@@ 3
哲 3
唆@@ 3
唆さ 3
唯@@ 3
唯々 3
唱@@ 3
唾 3
商務 3
商用 3
問@@ 3
問いただし 3
善隣 3
喋ら 3
喚起 3
喜ばしく 3
喧@@ 3
喪服 3
喫@@ 3
嗅い 3
嘆き 3
嘆息 3
嘉@@ 3
嘲@@ 3
噛み 3
器械 3
器物 3
噴き 3
囁く 3
四国 3
回せ 3
回廊 3
回忌 3
回覧 3
団@@ 3
団長 3
困@@ 3
囲 3
囲っ 3
図体 3
図鑑 3
围 3
固まり 3
国名 3
国庫 3
国権 3
国税 3
国費 3
圏外 3
園内 3
土なべ 3
土中 3
土佐 3
土俵 3
土瓶 3
土色 3
在学 3
地峡 3
地引き 3
地歩 3
地殻 3
地蔵 3
均整 3
均質 3
坐@@ 3
坑@@ 3
坦 3
垂れこめ 3
垂範 3
型式 3
埋 3
埋もれ 3
城内 3
城門 3
埒 3
執拗 3
埼玉 3
堅苦しい 3
堅調 3
堡 3
堪え忍@@ 3
堪え忍ん 3
報いよう 3
報じ 3
報奨 3
場内 3
塑 3
塗りたて 3
塗りつぶし 3
塗り薬 3
塞が 3
塞栓 3
塩辛 3
墓穴 3
増刊 3
増税 3
増築 3
墨跡 3
壊れ@@ 3
壊死 3
壮年 3
壮挙 3
声門 3
声高 3
売りさばい 3
売りさばか 3
売り払っ 3
売れ残り 3
売れ筋 3
売上げ 3
変えろ 3
変わ@@ 3
変わり目 3
変わり者 3
変圧 3
夏場 3
夏風邪 3
夕もや 3
夕立 3
外向 3
外套 3
外患 3
外泊 3
外用 3
外的 3
外線 3
多かれ 3
多士 3
多湿 3
多神 3
夜具 3
夜市 3
夢占い 3
夢路 3
大人し 3
大仏 3
大層 3
大意 3
大挙 3
大敗 3
大柄 3
大正 3
大筋 3
大綱 3
大著 3
大酒 3
天上 3
天女 3
天引き 3
天日 3
天界 3
天神 3
夭折 3
失そう 3
失墜 3
失意 3
失明 3
失格 3
失火 3
失脚 3
奇術 3
奇談 3
奇麗 3
奈 3
奈緒 3
奉じ 3
奉納 3
契り 3
奔 3
奢り 3
奪 3
奪い取ろう 3
奮@@ 3
奮い起こす 3
女将 3
好例 3
好戦 3
好運 3
妃 3
妇女 3
妖術 3
始値 3
姐 3
委@@ 3
姿態 3
威嚇 3
威張る 3
娘@@ 3
娼婦 3
媚@@ 3
嫁が 3
嫌々 3
子宮 3
子牛 3
子細 3
子連れ 3
子馬 3
孔@@ 3
字形 3
孝養 3
孟 3
学び取れ 3
学内 3
学制 3
学士 3
学徒 3
孫娘 3
宅@@ 3
宇 3
宇佐 3
宇都宮 3
宇野 3
守れる 3
安っぽい 3
安穏 3
完 3
定か 3
定まっ 3
定格 3
定款 3
定量 3
宜@@ 3
実働 3
実印 3
実測 3
実話 3
客人 3
客好き 3
宣@@ 3
宮古島 3
宮女 3
宰相 3
家屋敷 3
家業 3
家長 3
宿し 3
宿怨 3
宿敵 3
宿直 3
寂 3
寄り添う 3
寄る@@ 3
寒々 3
寒暖 3
寒空 3
寓意 3
寓話 3
寛い 3
寝かさ 3
寝かしつけ 3
寝つい 3
寝入っ 3
寝心地 3
寝足り 3
寝転がっ 3
寡占 3
寡頭 3
寧ろ 3
審議 3
対句 3
対数 3
対空 3
封じ込め 3
封切り 3
専心 3
専行 3
射っ 3
尊名 3
小わき 3
小五 3
小作り 3
小刻み 3
小島 3
小平 3
小心 3
小春 3
小椋 3
小紅 3
小降り 3
小骨 3
小高い 3
少なかれ 3
尚@@ 3
就 3
就活 3
就航 3
尼 3
尽きよう 3
尽くそう 3
尾ひれ 3
尾羽 3
尿毒 3
局@@ 3
居丈 3
屈強 3
届け出 3
届け日 3
屋根@@ 3
属@@ 3
層雲 3
履か 3
履き@@ 3
山すそ 3
山下 3
山岳 3
山崩れ 3
山海 3
山菜 3
山賊 3
山野 3
山陵 3
屹立 3
岐@@ 3
岡 3
岩手 3
峻厳 3
崇敬 3
巍然 3
川べり 3
川沿い 3
川遊び 3
巡 3
巡視 3
左官 3
左腕 3
巨匠 3
差し伸@@ 3
差し押さえる 3
差し止め 3
差し障り 3
差替え 3
差益 3
巳 3
巻き返し 3
布製 3
布靴 3
希 3
希@@ 3
席料 3
席次 3
帮 3
帯電 3
帰さ 3
帰ん 3
帰化 3
帰航 3
帳消し 3
常緑 3
常設 3
幅跳び 3
幕府 3
干し@@ 3
平たく 3
平らか 3
平仮名 3
平屋 3
平民 3
平米 3
年の@@ 3
年功 3
幸@@ 3
幼かっ 3
幼名 3
幾@@ 3
広間 3
庇@@ 3
序幕 3
座り心地 3
座れよ 3
庭@@ 3
庭師 3
廃業 3
廃水 3
廉価 3
廉潔 3
延ばさ 3
延べ棒 3
建て直し 3
建前 3
弄ば 3
弓@@ 3
弓矢 3
弓道 3
弔い 3
引きこもっ 3
引き下がる 3
引き伸ばす 3
引き回す 3
引き船 3
引き落とさ 3
引っぱり 3
引っ張れ 3
引っ掻き 3
引力 3
引渡し 3
張りつめ 3
張り出し 3
張り子 3
張り巡らさ 3
強心 3
強攻 3
強暴 3
強火 3
弾む 3
弾道 3
弾頭 3
当てずっぽう 3
形質 3
彩@@ 3
彩色 3
彫り 3
影@@ 3
役立てる 3
彼の世 3
彼方 3
往時 3
待とう 3
律詩 3
後々 3
後ろ@@ 3
後ろ髪 3
後列 3
後天 3
後妻 3
後程 3
後者 3
後裔 3
徐州 3
徒党 3
徒弟 3
従容 3
御所 3
御身 3
復唱 3
微々 3
微動 3
微笑@@ 3
徳川 3
徽@@ 3
心室 3
心痛 3
心筋 3
心霊 3
忌憚 3
忍び@@ 3
忍者 3
志し 3
志気 3
忘れろ 3
忘年 3
応待 3
忠 3
忠臣 3
快方 3
快楽 3
快諾 3
念@@ 3
念仏 3
怒鳴りつけ 3
怖え 3
怖気 3
思 3
思いつく 3
思い浮かぶ 3
思い返し 3
思わしく 3
思慕 3
怠る 3
怠慢 3
急ぎ足 3
急務 3
急患 3
急流 3
急逝 3
性向 3
性器 3
性悪 3
怪しま 3
恋々 3
恋い@@ 3
恋っ 3
恋心 3
恐い 3
恐れおののい 3
恐ろしかっ 3
恒久 3
恒常 3
恥さらし 3
恥じ@@ 3
恥じ入る 3
恨 3
恨@@ 3
恨み@@ 3
恩人 3
恭@@ 3
恰@@ 3
恵ん 3
悄然 3
悍 3
悔@@ 3
悔い@@ 3
悔やま 3
悟り 3
悠@@ 3
悠久 3
患部 3
悩@@ 3
悪りぃ 3
悪戦 3
悪気 3
悪酔い 3
悲哀 3
悲嘆 3
悼@@ 3
情けなく 3
情っ張り 3
情事 3
情婦 3
惚@@ 3
惜し 3
惜しかっ 3
惜しみ@@ 3
惨敗 3
惨殺 3
惨禍 3
惰@@ 3
想@@ 3
意中 3
愚見 3
愛おしい 3
愛らしい 3
愛嬌 3
愛慕 3
愛用 3
愛衣 3
愛車 3
感じ@@ 3
感じ取る 3
感光 3
感触 3
感電 3
慇懃 3
慈しみ深い 3
慈しむ 3
慎み深い 3
慎ん 3
慕う 3
慣行 3
慰み物 3
慰労 3
慶 3
慶弔 3
慶祝 3
憂@@ 3
憂き目 3
憎い 3
憎く 3
憶測 3
懐かしかっ 3
懐旧 3
懐柔 3
懲@@ 3
懲戒 3
懸かっ 3
懸け離れ 3
懸垂 3
懺悔 3
成り上がり 3
成り下がっ 3
成型 3
成層 3
成形 3
成算 3
戦える 3
戦おう 3
戦わす 3
戦果 3
戦端 3
戯 3
戸外 3
戻@@ 3
戻せる 3
戻そう 3
戻れる 3
戻ん 3
扇@@ 3
扇情 3
手かせ 3
手がける 3
手こ@@ 3
手ごろ 3
手なず@@ 3
手ほどき 3
手伝え 3
手回し 3
手堅く 3
手引 3
手強い 3
手後れ 3
手早い 3
手早く 3
手渡さ 3
手練 3
手触り 3
手詰まり 3
手近 3
手錠 3
手間@@ 3
手際 3
打ちのめさ 3
打ちひしが 3
打ち付け 3
打ち出し 3
打ち切り 3
打ち壊し 3
打ち破ら 3
打ち続き 3
打ち返し 3
打撲 3
打診 3
打電 3
払いのけ 3
払いのける 3
托 3
扬@@ 3
扮する 3
扱@@ 3
扶@@ 3
批准 3
承る 3
抄@@ 3
抑@@ 3
抑え@@ 3
抑えよう 3
投げ入れ 3
投入 3
投宿 3
投手 3
抗がん 3
抗弁 3
折々 3
折返し 3
抜かす 3
抜かり 3
抜き取る 3
抜け出 3
抜け出せ 3
抜け殻 3
抜け道 3
抜こう 3
抱え込む 3
抱き合わせ 3
抱負 3
押しつぶし 3
押しのけ 3
押し出し 3
押し出す 3
押し切っ 3
押し目 3
押し縮め 3
押し込む 3
担ぎ@@ 3
拉@@ 3
拍@@ 3
拗ね 3
拙い 3
拙著 3
拝し 3
拝金 3
拠 3
拠出 3
拡声 3
括弧 3
拱手 3
拾わ 3
持たさ 3
持ち寄り 3
持て余し 3
持分 3
指差し 3
挙兵 3
挟@@ 3
挟み打ち 3
振 3
振りかざす 3
振り乱し 3
振り付け 3
振り切っ 3
振り動かし 3
振り替え 3
振り絞る 3
振り込む 3
振れ 3
振舞え 3
挿@@ 3
挿し@@ 3
捕え 3
捕食 3
捜し当てる 3
捨ておい 3
捨てろ 3
捨て身 3
据える 3
据わっ 3
捺染 3
捻@@ 3
掃@@ 3
授 3
授かっ 3
授かる 3
掘っ@@ 3
掘り出さ 3
探し出し 3
探り@@ 3
探ろう 3
接地 3
接岸 3
接点 3
控@@ 3
控え@@ 3
推 3
推断 3
推計 3
揚がっ 3
揚州 3
換 3
握りしめ 3
握り締める 3
揮毫 3
揮発 3
揺する 3
揺らぐ 3
揺らし 3
揺るが 3
揺るがし 3
揺るがす 3
揺るぎない 3
損耗 3
搬入 3
携@@ 3
搾りかす 3
摘み 3
摘み取っ 3
摩夾 3
摩潑 3
摩由 3
摩訶 3
撃@@ 3
撃ち 3
撃墜 3
撃滅 3
撃破 3
撞着 3
撲@@ 3
操り 3
操行 3
擦れ違う 3
改作 3
改宗 3
改編 3
改行 3
改選 3
攻め落とす 3
攻め込ん 3
放 3
政敵 3
故@@ 3
故事 3
故国 3
敏和 3
救い出す 3
敗勢 3
教えれ 3
教え諭す 3
教え込む 3
教務 3
教書 3
教義 3
教習 3
教職 3
敢え@@ 3
散らさ 3
散在 3
散水 3
散逸 3
敦煌 3
敬い@@ 3
整い 3
整復 3
整骨 3
敵艦 3
敵視 3
文庫 3
文豪 3
文通 3
文革 3
文鳥 3
斎 3
斑点 3
斡旋 3
断た 3
断ち@@ 3
断ち切る 3
断熱 3
斯 3
新し 3
新味 3
新星 3
新春 3
新調 3
新陳 3
新顔 3
方@@ 3
方術 3
施肥 3
旅先 3
旅装 3
旋風 3
旗手 3
既 3
既成 3
日の@@ 3
日付け 3
日和 3
日射 3
日暮らし 3
日覆い 3
日輪 3
日食 3
旧套 3
旧居 3
旧知 3
旧習 3
早口 3
早耳 3
早食い 3
昂@@ 3
昇 3
明星 3
易し 3
昭@@ 3
昼ごろ 3
昼光 3
晩稲 3
晩節 3
景徳鎮 3
晴らさ 3
晴らそう 3
晴れ@@ 3
晴れやか 3
晴れ着 3
智 3
暖め 3
暖める 3
暖炉 3
暗算 3
暗雲 3
暗鬼 3
暮 3
暮らさ 3
暴き@@ 3
暴れ@@ 3
暴れる 3
暴君 3
暴威 3
暴虐 3
暴食 3
曝@@ 3
曰く 3
曲がら 3
曲直 3
書き上げる 3
書き出す 3
書き添え 3
書庫 3
書評 3
最多 3
月数 3
月歩 3
月額 3
有す 3
有り難い 3
有意 3
朋子 3
望め 3
期し 3
期せ 3
朦朧 3
木工 3
木星 3
木炭 3
木立 3
木質 3
木馬 3
未聞 3
末代 3
末娘 3
末日 3
末梢 3
本国 3
本店 3
本末 3
本校 3
本業 3
本箱 3
本職 3
本誌 3
本願 3
朱@@ 3
朱塗り 3
朱色 3
杂@@ 3
村上 3
村田 3
村長 3
来世 3
来意 3
来臨 3
来駕 3
東洋 3
東証 3
東部 3
松葉 3
析出 3
林檎 3
林間 3
枚@@ 3
果@@ 3
果た@@ 3
枠@@ 3
枠組み 3
枢@@ 3
枯らす 3
枯れ木 3
枯れ落ち 3
架橋 3
架設 3
柏 3
染み@@ 3
染み込ま 3
染め@@ 3
柔らかかっ 3
査証 3
栄 3
栄枯 3
标点 3
栓抜き 3
栗色 3
株券 3
株数 3
核@@ 3
核酸 3
根城 3
根掘り 3
根治 3
格安 3
桁数 3
桂@@ 3
桃色 3
梅雨時 3
械闘 3
椀 3
植え@@ 3
植えよう 3
植え付け 3
植生 3
椎 3
椎茸 3
検便 3
検問 3
楡 3
極意 3
極東 3
極限 3
楽天 3
楽曲 3
楽章 3
楽節 3
楽隊 3
概@@ 3
構える 3
槍投げ 3
様態 3
標語 3
模@@ 3
模式 3
模試 3
権臣 3
横たえ 3
横合い 3
横書き 3
横穴 3
横線 3
樹状 3
樹齢 3
機体 3
機知 3
橫 3
欠航 3
次号 3
欣@@ 3
欲張り 3
欲情 3
欺@@ 3
歌@@ 3
歌いだし 3
歌おう 3
歌舞伎 3
歌舞伎町 3
歓送迎 3
止さ 3
止めよう 3
正伝 3
正論 3
武勇 3
武士 3
武将 3
武松 3
歩き@@ 3
歪ん 3
歯が@@ 3
歯槽 3
歯石 3
歳入 3
死守 3
死活 3
死滅 3
殉じ 3
残りかす 3
残党 3
残尿 3
段差 3
殺し@@ 3
殺傷 3
殺菌 3
殿堂 3
殿方 3
毀損 3
母語 3
毎冬 3
毎秒 3
比準 3
毛先 3
毛筆 3
毛色 3
民事 3
民芸 3
民需 3
気づかい 3
気づける 3
気まずく 3
気功 3
水おけ 3
水くみ 3
水撒き 3
水気 3
水洗 3
水深 3
水爆 3
水生 3
水系 3
水草 3
水薬 3
水防 3
氷室 3
求めよう 3
求心 3
汗臭い 3
汚 3
汚らしい 3
汚濁 3
池田 3
決する 3
決別 3
決死 3
沁み 3
沈み 3
沈め 3
沈滞 3
沙 3
沛@@ 3
河道 3
油菜 3
治 3
治さ 3
治ん 3
沼 3
沿え 3
沿道 3
況 3
泊まり@@ 3
法外 3
波しぶき 3
波状 3
波間 3
泣かす 3
泣きわめい 3
泣き言 3
注ぎ込む 3
注ぎ込ん 3
注記 3
泳@@ 3
洗いざらい 3
洗い出す 3
洗い張り 3
活況 3
派出 3
流し込む 3
流れ落ちる 3
流れ込ん 3
流布 3
流砂 3
流線 3
流言 3
流速 3
浄 3
浄水 3
浅緑 3
浜@@ 3
浦@@ 3
浦々 3
浩然 3
浪人 3
浮かび@@ 3
浮かび上がら 3
浮き 3
浮き彫り 3
浮腫 3
海パン 3
海域 3
海抜 3
海沿い 3
海老 3
海鮮 3
浸かっ 3
浸かる 3
消えうせ 3
消えうせろ 3
消し止め 3
消せ 3
消せる 3
消そう 3
消失 3
涙もろい 3
涼もう 3
淡 3
淡青 3
淫ら 3
淫乱 3
淮@@ 3
深圳 3
深奥 3
深山 3
深長 3
混 3
混ざり合っ 3
混血 3
混迷 3
添加 3
清め 3
清良 3
渇@@ 3
渉 3
渋く 3
渓@@ 3
減ら 3
減らさ 3
減産 3
渡し船 3
渡そう 3
渡り歩い 3
渡り歩く 3
渡り鳥 3
渦巻く 3
温もり 3
温帯 3
温水 3
測候 3
港湾 3
渾身 3
湖畔 3
湧水 3
湿け 3
湿っぽい 3
湿ら 3
満た 3
満ち@@ 3
満帆 3
満腹 3
準拠 3
溢@@ 3
溶い 3
溶け込ん 3
溶剤 3
溺@@ 3
溺れる 3
滅 3
滅茶苦茶 3
滑り止め 3
滑車 3
滞納 3
滞船 3
漁村 3
漁民 3
漂@@ 3
漂わ 3
漂流 3
漉す 3
漏 3
漏っ 3
演台 3
演繹 3
演者 3
漕ぎ@@ 3
漠 3
漬かっ 3
漸次 3
漿 3
潅@@ 3
潤 3
潤ん 3
澎湃 3
激辛 3
濁@@ 3
濃い@@ 3
濃縮 3
瀆職 3
火の@@ 3
火ぶた 3
火勢 3
火鉢 3
灯っ 3
灯下 3
灯心 3
灰燼 3
灸 3
炎天 3
炭@@ 3
炭坑 3
炸裂 3
点字 3
点眼 3
点線 3
烈 3
無二 3
無尽 3
無念 3
無煙 3
無益 3
無臭 3
無難 3
無駄@@ 3
無駄使い 3
焦がし 3
焼き印 3
焼き物 3
焼き直し 3
焼き芋 3
焼け付く 3
煎 3
煙っ 3
照らし@@ 3
照り@@ 3
照れる 3
煩@@ 3
煮込む 3
熟知 3
熟達 3
熱せ 3
熱望 3
熱湯 3
熱量 3
熱風 3
燃 3
燃@@ 3
燃え上がっ 3
燃やさ 3
燗 3
爆@@ 3
爆死 3
爬虫 3
片し 3
片っ端 3
片づく 3
片寄っ 3
片足 3
牡@@ 3
牧童 3
物々 3
物作り 3
物売り 3
物憂 3
物証 3
特例 3
特価 3
特務 3
特撮 3
特訓 3
特設 3
狂喜 3
狗 3
狙える 3
狩@@ 3
狩る 3
独り身 3
猫@@ 3
献上 3
獄中 3
玄@@ 3
玉器 3
王公 3
王手 3
王族 3
王明 3
珍重 3
珠 3
珠江 3
現す 3
現に 3
現世 3
理詰め 3
理路 3
瓜 3
甘ったるい 3
甘み 3
甘んじる 3
甘粛 3
甚だしく 3
生々しい 3
生い茂る 3
生きよう 3
生きれ 3
生け@@ 3
生ごみ 3
生っ粋 3
生鮮 3
産前 3
産婆 3
産生 3
用兵 3
田舎@@ 3
申し上げよう 3
申し伝え 3
申し入れ 3
申し合わせ 3
申し込ま 3
申出 3
申込み 3
男優 3
男児 3
町中 3
画一 3
画質 3
畏@@ 3
留まる 3
留め金 3
略し 3
番兵 3
番頭 3
異例 3
異名 3
異教 3
疎開 3
疑い深い 3
疑心 3
疾病 3
病み上がり 3
病名 3
病因 3
病弱 3
病没 3
病的 3
病虫害 3
痛々しい 3
痛ましく 3
痛飲 3
痴@@ 3
瘤 3
発せ 3
発券 3
発奮 3
発泡 3
発疹 3
発病 3
発芽 3
発足 3
発進 3
登ら 3
登頂 3
白む 3
白塗り 3
白湯 3
白玉 3
白身 3
白金 3
白馬 3
百害 3
百戦 3
百獣 3
皆既 3
皇后 3
皇室 3
皮相 3
皮肉@@ 3
盆@@ 3
盆栽 3
盆踊り 3
益虫 3
盗み出し 3
盗撮 3
盗用 3
盛 3
盛り付け 3
盛り返す 3
盟 3
監護 3
盤@@ 3
目の当たり 3
目力 3
目次 3
目覚ましい 3
盲人 3
盲導 3
直ら 3
直る 3
直帰 3
直筆 3
直行 3
直言 3
直轄 3
直近 3
直送 3
相合 3
省け 3
省ける 3
省み 3
眉@@ 3
看@@ 3
県@@ 3
真っ@@ 3
真っ赤っか 3
真価 3
真昼 3
真殿 3
真那 3
眩@@ 3
眩しい 3
眼力 3
着々 3
着服 3
着水 3
着荷 3
着飾る 3
睨ん 3
瞑っ 3
瞑る 3
矢印 3
矢継ぎ 3
知性 3
知見 3
知遇 3
短め 3
短冊 3
短剣 3
石像 3
石垣 3
石川 3
砂利 3
砂地 3
研鑽 3
砕け@@ 3
砲@@ 3
破 3
破い 3
破廉恥 3
硬かっ 3
硯 3
碧@@ 3
磁 3
磁@@ 3
磨き@@ 3
磨け 3
磨耗 3
示せ 3
示談 3
礼教 3
祈念 3
神仙 3
神懸かり 3
禁制 3
禅寺 3
离退 3
私事 3
私欲 3
私見 3
科す 3
科せ 3
秘伝 3
租界 3
称える 3
移し@@ 3
移り@@ 3
移設 3
程よい 3
税@@ 3
稚拙 3
稠密 3
種子島 3
種痘 3
稲田 3
稲穂 3
穀 3
穂先 3
積み下ろし 3
積み込ん 3
積算 3
穏 3
穏@@ 3
穴あけ 3
穴場 3
穴居 3
空か 3
空き@@ 3
空色 3
空襲 3
空言 3
空路 3
穿@@ 3
突@@ 3
突きつけ 3
突き出 3
突き刺@@ 3
突き刺さっ 3
突き刺す 3
突き止め 3
突っ伏し 3
突っ張り 3
突起 3
窓ふき 3
窓紙 3
窮め 3
立ち上る 3
立ち会い 3
立ち去れ 3
立ち回っ 3
立ち後れ 3
立ち止まる 3
立ち込め 3
立てかけ 3
立てれ 3
立てろ 3
立て替える 3
立て札 3
立春 3
竜灯 3
竜王 3
童貞 3
競い 3
競い合っ 3
競歩 3
競泳 3
笑おう 3
笑納 3
笙 3
筆勢 3
筆法 3
筆鋒 3
等@@ 3
等価 3
等身 3
筋骨 3
箏 3
算術 3
節分 3
節目 3
築か 3
築き上げる 3
簡 3
籐 3
籠 3
籠っ 3
米ソ 3
米沢 3
粘@@ 3
粘る 3
精紡 3
精選 3
精錬 3
糊づけ 3
糞 3
糞尿 3
糟粕 3
糾合 3
紅旗 3
紅潮 3
紋切り 3
納会 3
納屋 3
純水 3
紙箱 3
紙面 3
紛 3
紛ら@@ 3
紛らす 3
紛れ込ん 3
素@@ 3
素寒貧 3
紡ぎ 3
紫@@ 3
細分 3
細動 3
細密 3
紺 3
終る 3
終わ@@ 3
終わん 3
終業 3
終止 3
組@@ 3
組み換え 3
組み込む 3
経口 3
経年 3
絎け縫い 3
結び@@ 3
絞め@@ 3
絡@@ 3
給水 3
絶える 3
絶た 3
絶っ 3
絶やさ 3
絶やし 3
絶好 3
継が 3
継ぎ足す 3
継ぐ 3
続 3
綱引き 3
綱紀 3
網棚 3
綾@@ 3
綿繰り 3
綿羊 3
総帥 3
総長 3
線形 3
締まら 3
締め@@ 3
編み機 3
編み物 3
編隊 3
緩む 3
練り@@ 3
練り上げ 3
縁どり 3
縁取り 3
縁結び 3
縛りつける 3
縞 3
縦棒 3
繋@@ 3
織る 3
織布 3
繰り上げる 3
繰り出し 3
繰り合わせ 3
纏足 3
红@@ 3
置き@@ 3
置きどころ 3
置ける 3
罰当たり 3
罵 3
罹@@ 3
罹っ 3
羅列 3
羅漢 3
美味 3
美感 3
美貌 3
美辞 3
羞恥 3
群生 3
羽ぶり 3
羽織る 3
翌 3
習@@ 3
習俗 3
習熟 3
翰 3
翻す 3
翻る 3
翻弄 3
翻然 3
老婆 3
老朽 3
老舎 3
老衰 3
考え出す 3
考査 3
而 3
耐用 3
耕 3
耳かき 3
耳栓 3
联 3
聞き入っ 3
聞き分け 3
聞き覚え 3
聞けよ 3
聴力 3
聴講 3
職位 3
職歴 3
職階 3
肉じゃが 3
肉欲 3
肉眼 3
肌寒い 3
肌寒く 3
肌脱ぎ 3
肝要 3
肥育 3
肩書き 3
育 3
肺癌 3
胃@@ 3
胃液 3
胆石 3
背負わさ 3
胎生 3
胞 3
胡椒 3
胸くそ 3
脆 3
脈@@ 3
脊髄 3
脚@@ 3
脱げ 3
脱ごう 3
脱字 3
脱脂 3
腎炎 3
腕まくり 3
腕相撲 3
腫れ上がっ 3
腹いせ 3
腹案 3
腹黒く 3
膀胱 3
膠 3
膨@@ 3
膨らま 3
膨れ@@ 3
膨れっ面 3
膿 3
臆@@ 3
臆する 3
臆断 3
臓器 3
臓物 3
臨席 3
自惚れ 3
自我 3
自爆 3
自画 3
自粛 3
自腹 3
自費 3
自賛 3
臭気 3
至 3
致す 3
興ざめ 3
舌先 3
舐める 3
舜 3
舞い@@ 3
舞い上がり 3
航@@ 3
航続 3
舷 3
船首 3
艦@@ 3
艦隊 3
良@@ 3
良し 3
良性 3
良田 3
良策 3
良質 3
色つや 3
色柄 3
色違い 3
芝 3
花作り 3
花崗 3
花鳥 3
芽@@ 3
芽生える 3
苛立っ 3
若芽 3
若葉 3
苦しめる 3
茄子 3
茅@@ 3
茶番 3
茶飯 3
茶館 3
草分け 3
草食 3
荒らさ 3
荒れ野 3
荷台 3
荷崩れ 3
荷担 3
荷駄 3
莢膜 3
菜っ葉 3
菜の花 3
菩薩 3
華氏 3
菱 3
落ちつけ 3
落ちぶれる 3
落ち着こう 3
落っ@@ 3
落とし@@ 3
落丁 3
落着い 3
落雷 3
葉っぱ 3
葉掘り 3
葬 3
蒸し暑 3
蒸し返す 3
蒸し風呂 3
蒸らす 3
蒼然 3
蔑視 3
蔓延 3
蕾 3
薄弱 3
薄氷 3
薄絹 3
薫陶 3
薬味 3
薬理 3
蘇 3
蘭州 3
虚 3
虚勢 3
虚構 3
虜 3
蛇@@ 3
蛇行 3
蜘蛛 3
蝋燭 3
蟻 3
血の巡り 3
血みどろ 3
血中 3
血族 3
血痕 3
血筋 3
血統 3
血走っ 3
衆@@ 3
行える 3
行き交う 3
行き帰り 3
行こ 3
行こっ 3
行なえ 3
行脚 3
術@@ 3
術中 3
衣食 3
表@@ 3
表側 3
表音 3
衰亡 3
袋@@ 3
袋詰め 3
袍 3
袖@@ 3
被り 3
被写 3
被服 3
被検 3
被爆 3
裁か 3
裁つ 3
裁可 3
裁決 3
装@@ 3
裏腹 3
補講 3
裸体 3
製剤 3
製紙 3
裾 3
褒めそやし 3
褒章 3
褪@@ 3
襖 3
襲い 3
西村 3
要旨 3
要項 3
見え@@ 3
見くびっ 3
見ごろ 3
見せつける 3
見せびらかし 3
見せよう 3
見つかれ 3
見つけれ 3
見上げる 3
見付け 3
見劣り 3
見回っ 3
見捨てる 3
見栄え 3
見極め 3
見目 3
見習 3
見舞っ 3
見詰め 3
見誤っ 3
見込める 3
見過ごす 3
見過ごせ 3
覗き 3
覚 3
覚ま@@ 3
親しま 3
親しむ 3
親米 3
親鳥 3
角膜 3
解け@@ 3
解け合っ 3
解像 3
触り 3
触れよう 3
触媒 3
触覚 3
言い切っ 3
言い切れる 3
言い合い 3
言い含める 3
言い渡す 3
言い立て 3
言い聞かせ 3
言い表わせ 3
言わさ 3
言言 3
訊問 3
託す 3
記す 3
訪れよう 3
設@@ 3
設営 3
許そう 3
訳せ 3
詠む 3
試乗 3
試問 3
試演 3
試薬 3
詩集 3
詰@@ 3
詰めかけ 3
話し掛け 3
該 3
誇らし 3
認 3
認@@ 3
誘@@ 3
語らい 3
語り合い 3
語り継が 3
語呂 3
語尾 3
語源 3
語録 3
誤審 3
誤診 3
誤魔化し 3
説@@ 3
説き@@ 3
読まし 3
読み取っ 3
読み取り 3
読み返し 3
読めよ 3
読もう 3
調っ 3
調剤 3
調度 3
請け出し 3
請わ 3
論壇 3
論説 3
論難 3
論題 3
諮問 3
諸将 3
諸島 3
諾々 3
謀@@ 3
謀殺 3
講釈 3
謝 3
謝意 3
謝辞 3
謬論 3
譜 3
警鐘 3
議席 3
議案 3
譲 3
譲れ 3
词 3
谷@@ 3
豆粒 3
豊饒 3
豚骨 3
豪 3
豪雪 3
貞@@ 3
負@@ 3
負かさ 3
負け犬 3
財源 3
貧富 3
貨 3
貫か 3
貫禄 3
貫通 3
貴州 3
貴誌 3
買 3
買いもの 3
買い戻し 3
買い込む 3
買取 3
貸そう 3
費やさ 3
費目 3
貼りつけ 3
貼り付ける 3
貼付 3
賃@@ 3
賛 3
賜わる 3
賢@@ 3
質@@ 3
質入れ 3
質的 3
贈@@ 3
贈ら 3
贓品 3
赤らん 3
赤痢 3
赤道 3
赤銅 3
走@@ 3
走り回り 3
走馬 3
起き@@ 3
起きよう 3
起こせ 3
起これ 3
起点 3
起爆 3
起重 3
超す 3
越@@ 3
越せる 3
趣向 3
趨勢 3
跨@@ 3
跳ね上がる 3
跳び@@ 3
跳躍 3
踊ら 3
踊り場 3
踊り手 3
踊れる 3
踏@@ 3
踏みつける 3
踏みにじっ 3
踏み出せ 3
踏み台 3
踏み場 3
踏み鳴らし 3
踏んづけ 3
踏ん張り 3
蹴り@@ 3
躍 3
躍ら 3
躍る 3
躍動 3
身だしなみ 3
身ぶり 3
身代わり 3
身軽 3
躾 3
車引き 3
車検 3
車間 3
車馬 3
軍令 3
軍手 3
軍楽 3
軍歌 3
軍紀 3
軍縮 3
転がし 3
転げ回る 3
転写 3
転出 3
転居 3
転機 3
軸@@ 3
軽んじ 3
軽便 3
輝度 3
輩出 3
轍 3
辞し 3
辞海 3
辞表 3
農工業 3
農期 3
込 3
込@@ 3
込み上げる 3
过@@ 3
迎賓 3
近似 3
近場 3
近眼 3
近藤 3
返し縫い 3
返り 3
迫真 3
述語 3
迷@@ 3
追いつける 3
追いつこう 3
追いやっ 3
追いやる 3
追い付か 3
追い越さ 3
追い越す 3
追い込ん 3
追い返し 3
追従 3
追想 3
追認 3
退き 3
退室 3
送り出す 3
送り込ん 3
逃げ去る 3
逃げ込ん 3
逃げ隠れ 3
逆らわ 3
逆巻き 3
逆戻り 3
逆立っ 3
逆行 3
逆襲 3
透け 3
這い 3
這う 3
這っ 3
通せ 3
通せる 3
通り越し 3
速@@ 3
速報 3
速記 3
造影 3
造成 3
造花 3
造血 3
逢え 3
逢える 3
連なり 3
連れ戻し 3
連れ込む 3
連名 3
連呼 3
連夜 3
連敗 3
連覇 3
週報 3
進もう 3
進取 3
進退 3
逸事 3
逸品 3
遇する 3
遊具 3
遊学 3
遊山 3
運@@ 3
運び出せ 3
運べる 3
運休 3
運試し 3
過ぎ去る 3
過疎 3
過重 3
道すがら 3
道化 3
道士 3
道沿い 3
達@@ 3
遠けれ 3
遠ざける 3
遠来 3
遠見 3
遠路 3
遠近 3
適@@ 3
適材 3
遮り 3
遷 3
選び出す 3
遺品 3
遺恨 3
遺贈 3
避@@ 3
邦 3
邪説 3
邸 3
邸宅 3
郊 3
部位 3
部族 3
部材 3
部類 3
郵政 3
郷@@ 3
都@@ 3
鄭 3
配車 3
酒色 3
酒量 3
酔っぱらい 3
酢@@ 3
酥 3
酪農 3
酷使 3
醜 3
醜聞 3
醸し 3
醸し出し 3
釈迦 3
里@@ 3
重たい 3
重なり合う 3
重ね@@ 3
重体 3
重厚 3
重囲 3
重役 3
野戦 3
野放図 3
野良犬 3
量@@ 3
量れ 3
量子 3
金遣い 3
釜 3
釜山 3
針灸 3
釣 3
釣@@ 3
釣り合い 3
釣り合わ 3
鈍 3
鈴なり 3
鉄さび 3
鉄分 3
鉄環 3
鉄線 3
鉄鉱 3
鉢合わせ 3
銀@@ 3
銀貨 3
銃床 3
銃後 3
銃殺 3
銘 3
銘@@ 3
鋤 3
鋤@@ 3
鋳物 3
鋼@@ 3
錆 3
錆@@ 3
錠剤 3
錯誤 3
鍛@@ 3
鍼療 3
鍾乳 3
鎖骨 3
鎮守 3
鑑別 3
長々 3
長居 3
長押 3
長文 3
長谷川 3
長雨 3
門出 3
門口 3
門番 3
閉じ込める 3
閉幕 3
開き@@ 3
開け@@ 3
開けっ広げ 3
開けろ 3
閑静 3
間に合わせ 3
間隙 3
間際 3
関門 3
閨閥 3
阪上 3
防ぎ@@ 3
防弾 3
防潮 3
防火 3
防疫 3
际@@ 3
降りかかる 3
降りしきり 3
降り注い 3
降り立っ 3
降れ 3
降参 3
降服 3
限る 3
除籍 3
除草 3
除隊 3
除雪 3
陥ら 3
陥落 3
陳述 3
陵墓 3
陶磁器 3
陸@@ 3
陸棚 3
陽性 3
隊旗 3
隋 3
随員 3
隔世 3
隕石 3
障子 3
隠 3
隠れん坊 3
隠元 3
雄叫び 3
雄性 3
雄牛 3
雅三 3
集まれ 3
集荷 3
雑事 3
雑居 3
雑役 3
雑煮 3
離 3
離反 3
離縁 3
難儀 3
難易 3
雨後 3
雨期 3
雨漏り 3
雨足 3
雨降り 3
雨靴 3
雨音 3
雪線 3
電光 3
電器 3
電機 3
電磁 3
電解 3
需 3
震え@@ 3
震源 3
霊園 3
霊感 3
露呈 3
露点 3
露顕 3
青山 3
青木 3
静@@ 3
静まっ 3
静まりかえっ 3
静香 3
非情 3
面の皮 3
面白@@ 3
靴墨 3
靴箱 3
鞍山 3
韓 3
音読 3
音速 3
音階 3
頂@@ 3
項羽 3
順々 3
順風 3
預かり@@ 3
預託 3
頓着 3
領主 3
領空 3
頬@@ 3
頭打ち 3
頭金 3
頻発 3
頼@@ 3
頼もう 3
頼れ 3
顆粒 3
額縁 3
顔なじみ 3
顔合わせ 3
顔料 3
願いで 3
願書 3
顚末 3
類@@ 3
類型 3
風袋 3
風鈴 3
風靡 3
飛び上がら 3
飛び交う 3
飛び越える 3
飛び降りる 3
飛べ 3
飛散 3
食いしん坊 3
食える 3
食べごろ 3
食らえ 3
食わす 3
食前 3
飢え死に 3
飯@@ 3
飲み屋 3
飲み干せ 3
飲み込み 3
飼え 3
飽きる 3
飽和 3
飾り@@ 3
飾り付け 3
養老 3
餐 3
首位 3
首長 3
首領 3
香山 3
香炉 3
馬蹄 3
馴れ馴れしく 3
馴染み 3
馴染む 3
駅伝 3
駅員 3
駆けだし 3
駆け回る 3
駕 3
騎 3
騎馬 3
騒 3
騒がし 3
騒乱 3
騙す 3
騰 3
騰貴 3
驚け 3
驚喜 3
驚異 3
马@@ 3
验方 3
骨肉 3
高空 3
高鳴り 3
高麗 3
髪飾り 3
髭剃り 3
魔@@ 3
魔よけ 3
魚類 3
鯉 3
鳥@@ 3
鳥海 3
鳩 3
鳴らさ 3
鳴りやま 3
鴻 3
鹵獲 3
鹿肉 3
麗句 3
麦@@ 3
麦茶 3
麻@@ 3
黒点 3
黒焦げ 3
黒煙 3
黙り 3
黙り込ん 3
鼓吹 3
鼻づまり 3
鼻歌 3
鼻筋 3
１５０ 3
１９ 3
１９８@@ 3
２００４ 3
２０１３ 3
２７ 3
２８ 3
３２ 3
５@@ 3
６０００ 3
６６ 3
７@@ 3
８０ 3
Ｄ@@ 3
ＤＶＤ 3
Ｇ 3
Ｉ@@ 3
Ｍ@@ 3
Ｏ 3
Ｏ@@ 3
ＯＫ 3
Ｔ@@ 3
Ｖ 3
ｍ@@ 3
&gt; 2
1930 2
1982 2
40@@ 2
64 2
84 2
89 2
@ 2
Br@@ 2
CSR 2
CT 2
Contee 2
EC 2
FA@@ 2
FR@@ 2
HI@@ 2
Hol@@ 2
Hope 2
Hu@@ 2
IX 2
LA 2
Learn 2
Li@@ 2
OB 2
OS@@ 2
PD@@ 2
PR 2
Q@@ 2
Ra@@ 2
Sch@@ 2
St@@ 2
US@@ 2
W 2
Win@@ 2
XX@@ 2
XXXX@@ 2
an 2
ark 2
ation 2
c 2
dio 2
eb 2
eg@@ 2
ers 2
est@@ 2
ha@@ 2
hùkǒu 2
ice 2
is 2
nd@@ 2
og@@ 2
one 2
op@@ 2
or@@ 2
q@@ 2
rn@@ 2
rning 2
se@@ 2
tion 2
to 2
ul@@ 2
un@@ 2
ut@@ 2
w 2
yì 2
è 2
ù@@ 2
ān@@ 2
ě@@ 2
ī@@ 2
ō@@ 2
ǐ@@ 2
‐ 2
Ⅰ 2
≧ 2
□ 2
● 2
々し 2
々しかっ 2
々木 2
ぁ@@ 2
あかんべえ 2
あがめ 2
あご@@ 2
あさ@@ 2
あしらう 2
あそ@@ 2
あだ@@ 2
あどけない 2
あまた 2
あめ@@ 2
あめ玉 2
あれ@@ 2
いかが@@ 2
いかさま師 2
いさ@@ 2
いじくり@@ 2
いただ@@ 2
いと 2
いは 2
いぼ 2
うう 2
うか@@ 2
うつろ 2
うぬ@@ 2
うまかっ 2
うり@@ 2
ぇ@@ 2
おけよ 2
おざなり 2
おどし 2
おは@@ 2
おぼえ 2
おむ@@ 2
おもし@@ 2
おわ 2
かかあ 2
かかわり@@ 2
かがみ 2
かぐ@@ 2
かしかっ 2
かね@@ 2
かゆ@@ 2
からくり 2
がい@@ 2
がえる 2
がす 2
がつ 2
がない 2
がなり立て 2
がばっ 2
がみ@@ 2
がむ 2
がり勉 2
がわ 2
きず@@ 2
きっつい 2
きな@@ 2
きめ@@ 2
きゃ@@ 2
きゅーん 2
きょ@@ 2
きらめい 2
きん 2
ぎれ 2
くし@@ 2
くだくだ 2
くださら 2
くつわ 2
くどくどしく 2
くみ 2
くも 2
くらっ 2
くらみ 2
くわ@@ 2
ぐさっ 2
ぐし 2
けず@@ 2
けち@@ 2
けっ@@ 2
けなく 2
け者 2
げん 2
げん@@ 2
こざ@@ 2
こざかし 2
こず@@ 2
こち@@ 2
こつ@@ 2
こぼれ@@ 2
こも@@ 2
こもる 2
ごたえ 2
ごった@@ 2
ごろ@@ 2
さえ@@ 2
さか 2
さか@@ 2
さき@@ 2
さっち 2
さびつい 2
さま@@ 2
さらけ@@ 2
さらり 2
さり@@ 2
され 2
ざく 2
ざら@@ 2
ざり 2
しあ@@ 2
しご@@ 2
した 2
したたか 2
しっ@@ 2
しぶ@@ 2
しぼま 2
しゃくり@@ 2
しゃっ 2
しゃにむに 2
しゃり 2
しゃり@@ 2
しる@@ 2
じっ 2
じま 2
じまい 2
じゃん@@ 2
じり@@ 2
じろぎ 2
じわ 2
すげ@@ 2
すさま@@ 2
すすむ 2
すすり@@ 2
すっぱ@@ 2
すっぽ@@ 2
すば@@ 2
すり傷 2
すり替わっ 2
すんなり 2
ずうずう@@ 2
ずばっ 2
ずらす 2
せい@@ 2
せえ 2
せき込ん 2
せり@@ 2
せんじ 2
そばかす 2
そぼ@@ 2
ぞろい 2
たが 2
たき@@ 2
たけだけ@@ 2
たす@@ 2
たず@@ 2
たまり@@ 2
ためらわ 2
だい 2
だい@@ 2
だつ 2
だぶだぶ 2
だん 2
ちゃくちゃ 2
ちん 2
っか 2
っかり 2
っち 2
っぱい 2
っ面 2
つがい 2
つぶさ 2
つぼ@@ 2
つむじ@@ 2
つや@@ 2
つわり 2
づき 2
でしょー 2
でに 2
でー 2
とぐろ 2
とこ@@ 2
とば@@ 2
とび@@ 2
とんち 2
どう@@ 2
どうし 2
どしゃ@@ 2
どろ@@ 2
どー@@ 2
なお@@ 2
なか@@ 2
なだめる 2
なび@@ 2
なびく 2
なま 2
なまっ 2
なら@@ 2
なれなれしい 2
にっち 2
にゃ@@ 2
にんじん 2
ぬか 2
ぬる@@ 2
ぬれ@@ 2
ねぎ 2
ねたみ 2
のひら 2
の子 2
はが@@ 2
はき@@ 2
はぎ 2
はげ山 2
ははは 2
はめ@@ 2
はや@@ 2
はやし@@ 2
はる 2
はん 2
はん@@ 2
ばかばかしい 2
ばさ 2
ばさみ 2
ばす 2
ばた 2
ばち 2
ばむ 2
ぱち@@ 2
ぱん 2
ひきつっ 2
ひそ@@ 2
ひっくり@@ 2
ひっくり返り 2
ひっつい 2
ひも@@ 2
ひれ@@ 2
びく 2
びやか 2
ぴか 2
ふか 2
ふくら@@ 2
ふさふさ 2
ふざけ@@ 2
ふるさと 2
ふろ 2
ぶしつけ 2
ぶちのめ@@ 2
ぶつ@@ 2
ぶつかり@@ 2
ぶら 2
ぶる@@ 2
ぷん 2
べこべ 2
べし 2
べた 2
ぺがす 2
ぺらぺら 2
ぺん 2
ほくほく 2
ほださ 2
ほどよく 2
ほろ@@ 2
ぼこり 2
ぽ 2
ぽっちゃり 2
ぽろぽろ 2
まう 2
まえる 2
まくり@@ 2
まぐれ 2
まぐろ 2
まさ@@ 2
まじ@@ 2
まそう 2
まつ 2
まね@@ 2
まま@@ 2
みき 2
み出 2
むず@@ 2
むせび@@ 2
むっつり 2
めき@@ 2
めくり 2
めぐり@@ 2
めず@@ 2
めちゃ 2
めて 2
もく@@ 2
もぐ 2
もたれ@@ 2
もっ@@ 2
もと@@ 2
もみ 2
もめ@@ 2
もやる 2
もら@@ 2
もり立てる 2
もん@@ 2
やかし 2
やさ@@ 2
やす@@ 2
やせ細@@ 2
やに@@ 2
やや@@ 2
やる@@ 2
ゅう@@ 2
ゅー 2
ゆい 2
ゆすっ 2
よいとまけ 2
よくよく 2
よみが@@ 2
らか 2
らかし 2
らせる 2
られん 2
らわ 2
りつけ 2
り立て 2
るく 2
れい 2
わい@@ 2
わが@@ 2
わき上がる 2
わず@@ 2
わせる 2
わだか@@ 2
わめき@@ 2
わん 2
を@@ 2
んざ@@ 2
んざい 2
んば@@ 2
んぼ 2
アイデ@@ 2
アカデ@@ 2
アクセ@@ 2
アシ@@ 2
アセ@@ 2
アテネ 2
アベ@@ 2
アポ@@ 2
アム@@ 2
アリストテレス 2
アワ@@ 2
アンス 2
アンティ@@ 2
アンド@@ 2
ィィ@@ 2
ィィィィ@@ 2
イェ@@ 2
イオ@@ 2
イグ@@ 2
イズ 2
イチ 2
イテ@@ 2
イデ@@ 2
イニ@@ 2
イラつく 2
イラストレーター 2
イル@@ 2
インスト@@ 2
インチキ 2
インフォ@@ 2
ウエ@@ 2
ウエア 2
ウント 2
エイター 2
エコノ@@ 2
エッ@@ 2
エド@@ 2
エマ 2
エラ 2
エル 2
エルサレム 2
エロ本 2
エンゲ@@ 2
エーション 2
ォォ@@ 2
オイ@@ 2
オク@@ 2
オスカー 2
オチ 2
オペレー@@ 2
オム@@ 2
オメ@@ 2
オリエン@@ 2
オーソドックス 2
オーバーコート 2
カウ@@ 2
カオ 2
カク@@ 2
カスタ@@ 2
カタルシス 2
カチ@@ 2
カチン 2
カツアゲ 2
カニ@@ 2
カブ@@ 2
カメ@@ 2
カンカン@@ 2
カンファレンス 2
カ所 2
ガタ@@ 2
ガッ@@ 2
ガニ 2
ガマン 2
ガラシ 2
ガリー 2
ガレイ 2
キット 2
キティ 2
キノ@@ 2
キャスティング 2
キュア 2
キラ@@ 2
キラヨシカゲ 2
キーパー 2
ギニア 2
ギリス 2
クシー 2
クジ 2
クスピア 2
クランク 2
クリス 2
クレイ@@ 2
クロム 2
クロワッサン 2
グラッツ@@ 2
グランプリ 2
グリー@@ 2
グル 2
グルコース 2
ケイ@@ 2
ゲロ 2
コットン 2
コツ@@ 2
コペルニクス 2
コマ@@ 2
コミュニ@@ 2
コモ@@ 2
コリ 2
コレ@@ 2
コロナ 2
コンサ@@ 2
コンセ@@ 2
コンビ@@ 2
コンピュ@@ 2
コーダー 2
ゴミ袋 2
ゴロ 2
ゴン@@ 2
サス 2
サソリ 2
サック 2
サツ 2
サンプ@@ 2
サーチ 2
ザラ@@ 2
シウム 2
シエ 2
シカ@@ 2
シャク@@ 2
ショッキング 2
ショナ@@ 2
シル@@ 2
シロ@@ 2
ジェリア 2
ジェロ 2
ジェン@@ 2
ジビ@@ 2
ジャク@@ 2
ジョッキー 2
ジョー 2
ジル 2
スカル 2
スクラ@@ 2
スチュワーデス 2
ステッカー 2
スニ@@ 2
スパゲティー 2
スプ@@ 2
スベ@@ 2
スポークスマン 2
スメ 2
スラブ 2
スラング 2
スー@@ 2
セロ@@ 2
センセ@@ 2
ゼット 2
ソナ 2
ソフト@@ 2
ゾー 2
タイム@@ 2
タクト 2
タス 2
ダイヤ 2
ダル 2
チェスター 2
チェリー 2
チオ 2
チカ 2
チスト 2
チベ@@ 2
チャルメラ 2
チョウ@@ 2
チンキ 2
チープ 2
ッカ@@ 2
ッティ 2
ッポ 2
ティア 2
ティスト 2
テイク@@ 2
テス 2
テム 2
テリア 2
ディアン 2
ディスカ@@ 2
ディフェンス 2
ディー@@ 2
デジ@@ 2
デックス 2
デヒ@@ 2
デモンスト@@ 2
デュアル 2
デリケート 2
デン 2
トゥー 2
トタン 2
トメント 2
トラスト 2
トラベラーズ 2
トランポリン 2
トリア 2
トレー 2
ドキュメン@@ 2
ドリーム 2
ドロ 2
ナッ@@ 2
ナマ 2
ナリ 2
ニク 2
ニン@@ 2
ヌキ 2
ネシア 2
ネズ@@ 2
ネッ@@ 2
ネーズ 2
ネール 2
ノンアルコール 2
ハウジング 2
ハセヨ 2
ハッ 2
ハム@@ 2
ハレル@@ 2
ハロ@@ 2
ハンガリー 2
ハンター 2
バイオリ@@ 2
バイザー 2
バイト@@ 2
バク@@ 2
バス@@ 2
バスタ@@ 2
バッテ@@ 2
バテ 2
バド@@ 2
バネ 2
バリゼーション 2
バリッ 2
バレ@@ 2
バージニア 2
パイア 2
パク@@ 2
パクチー 2
パタ 2
パラダイ@@ 2
パラフィン 2
パワ@@ 2
ヒト@@ 2
ヒュー@@ 2
ヒョウ柄 2
ヒヨ@@ 2
ヒル 2
ヒー 2
ビニ@@ 2
ビニル 2
ビブリオ 2
ピチャ@@ 2
ピッ@@ 2
ピュー 2
ファク@@ 2
ファス@@ 2
フィッシュ 2
フィリ@@ 2
フィー 2
フィード@@ 2
フェンス 2
フォ 2
フット@@ 2
フライ@@ 2
フランチャイ@@ 2
フレッシュ 2
フレン@@ 2
フレー@@ 2
フー@@ 2
ブルジョアジー 2
ブルン 2
ブン@@ 2
プト 2
プラ 2
プラウ 2
プラット@@ 2
プロフィ@@ 2
ヘリ@@ 2
ヘルシンキ 2
ヘルツ 2
ベネフィット 2
ベロ@@ 2
ベンツ 2
ベント 2
ベース@@ 2
ペナル@@ 2
ペナルティー 2
ペル@@ 2
ホバ 2
ホリ@@ 2
ホール@@ 2
ボケー@@ 2
ボコ@@ 2
ボラン@@ 2
ボリュ@@ 2
ボレー 2
ポテ@@ 2
ポロ@@ 2
ポート@@ 2
マガ@@ 2
マスカ@@ 2
マックス 2
マド 2
マニュ@@ 2
マネジ@@ 2
マルチ@@ 2
マーシャル 2
マーチャンダイ@@ 2
ミカル 2
ミキ@@ 2
ミクロ@@ 2
ミシ@@ 2
ミシシッ@@ 2
ミステ@@ 2
ミュ@@ 2
ミュージシャン 2
ムチ 2
ムリン 2
メチ@@ 2
メッ@@ 2
メッカ 2
モチ@@ 2
モテカワ@@ 2
モテモテ 2
モフモフ 2
モロッコ 2
ヤバ@@ 2
ュ@@ 2
ョ@@ 2
ヨシカゲ 2
ライダー 2
ラオ@@ 2
ラオス 2
ラオラオ@@ 2
ラグ@@ 2
ラサ 2
ラッパ 2
ララ 2
ランディー 2
ランドセル 2
リウム 2
リク@@ 2
リズ@@ 2
リゾ@@ 2
リック 2
リハ@@ 2
リモ@@ 2
リラ@@ 2
リンピック 2
リート 2
リーブ 2
リーマン 2
ルー 2
レンタ@@ 2
ロイヤ@@ 2
ロジー 2
ロブスター 2
ロボ@@ 2
ロン@@ 2
ワク 2
ワタ@@ 2
ンジ 2
ンドゥ@@ 2
ヵ@@ 2
ーら 2
ーリング 2
ーー@@ 2
㎏ 2
㎝ 2
一別 2
一目散 2
丁@@ 2
万化 2
上げ@@ 2
上の@@ 2
上手@@ 2
下がろう 2
下り@@ 2
下値 2
下剤 2
不毛 2
不燃 2
与 2
与えよう 2
与太者 2
丑@@ 2
且@@ 2
世襲 2
丙 2
东 2
东@@ 2
並べ@@ 2
中共 2
中肉 2
中背 2
串@@ 2
丹@@ 2
义 2
乏 2
乗っ@@ 2
乗り降り 2
习@@ 2
乡 2
书 2
乳酸 2
争@@ 2
事典 2
二の@@ 2
二人@@ 2
二人組 2
云@@ 2
互 2
互@@ 2
五右衛門 2
井@@ 2
亘@@ 2
亡く@@ 2
交ぜ@@ 2
交雑 2
产党 2
产合 2
人け 2
人脈 2
介 2
仕事@@ 2
他意 2
付き添う 2
仙 2
仮住まい 2
仮名 2
仰@@ 2
企@@ 2
伊 2
伏せる 2
休す 2
休み明け 2
伯 2
伯@@ 2
伸 2
余人 2
你 2
併存 2
依 2
侨 2
侯 2
侯@@ 2
侵 2
便通 2
信じ@@ 2
修@@ 2
個@@ 2
倖 2
倣@@ 2
値ごろ 2
倦@@ 2
倶@@ 2
假@@ 2
偏 2
偏り 2
偶々 2
傍系 2
傘@@ 2
催 2
傷付く 2
傾 2
僣@@ 2
僥@@ 2
僻遠 2
儀@@ 2
億@@ 2
儘 2
償@@ 2
兀 2
元宵 2
兄@@ 2
充 2
光ら 2
克 2
兌@@ 2
入選 2
全村 2
全霊 2
公印 2
其@@ 2
兼ね@@ 2
内服 2
冒 2
冗@@ 2
军@@ 2
农@@ 2
冠婚 2
冶@@ 2
凄 2
准 2
凋@@ 2
凸 2
出陣 2
刁@@ 2
刃@@ 2
分詞 2
分身 2
切り取ら 2
切り換える 2
刈り込む 2
判読 2
利便 2
制海 2
刹 2
剂@@ 2
削り@@ 2
前哨 2
割り切る 2
創刊 2
創建 2
剽@@ 2
剽窃 2
劉@@ 2
办@@ 2
加奈 2
劣 2
助産 2
劫 2
労役 2
劾 2
勉@@ 2
勒@@ 2
動き@@ 2
勝ち気 2
勝敗 2
勢@@ 2
勾@@ 2
匪@@ 2
匹@@ 2
千変 2
半信 2
半疑 2
卑 2
協 2
单 2
博 2
博する 2
占 2
占@@ 2
卤@@ 2
卸し 2
卿 2
厚か@@ 2
原産 2
原籍 2
厩@@ 2
去ら 2
去ろう 2
及ぼ@@ 2
友@@ 2
发@@ 2
取っ@@ 2
取り組@@ 2
受けれ 2
叙@@ 2
口説@@ 2
古めかしい 2
只@@ 2
叫@@ 2
叱り 2
号@@ 2
号泣 2
各階 2
吉岡 2
同好 2
同年 2
名家 2
名残@@ 2
吐き@@ 2
向こう岸 2
吗 2
吝@@ 2
吟 2
吟@@ 2
否@@ 2
吧 2
含 2
含@@ 2
吸い取り 2
吸い口 2
吹き消し 2
吹き荒れる 2
呆れ 2
呈 2
呉@@ 2
呑み 2
呱 2
味つけ 2
味わえる 2
呵 2
呻@@ 2
呼び寄せ 2
呼称 2
命題 2
咄@@ 2
咆@@ 2
和ら@@ 2
咥@@ 2
咳@@ 2
品名 2
品薄 2
哄@@ 2
哨 2
哮 2
唄@@ 2
唆 2
唾@@ 2
商工 2
問屋 2
啓@@ 2
啖@@ 2
喉@@ 2
喊@@ 2
喜び勇@@ 2
喝@@ 2
嗇 2
嗚@@ 2
嗜@@ 2
嗜好 2
嘉 2
嘱@@ 2
噂@@ 2
噛@@ 2
器@@ 2
噪 2
噴 2
噴き@@ 2
噴煙 2
嚶 2
嚶@@ 2
囁@@ 2
囍 2
团@@ 2
囮 2
困 2
困苦 2
固 2
国道 2
圏@@ 2
均@@ 2
垣@@ 2
埋没 2
城@@ 2
執 2
堀@@ 2
堅 2
堅苦しく 2
堯 2
塚@@ 2
塩化 2
填@@ 2
壊 2
声帯 2
声掛け 2
売り渡し 2
変わり@@ 2
外箱 2
大人しい 2
大蛇 2
天の@@ 2
太行 2
契@@ 2
奔@@ 2
奢 2
奢@@ 2
奪い合っ 2
女心 2
奴@@ 2
好い 2
妊 2
妻@@ 2
妾@@ 2
姉@@ 2
姜 2
威張り@@ 2
婦@@ 2
嫁@@ 2
嫂 2
嫋@@ 2
嫌@@ 2
嫌らしい 2
嬉@@ 2
嬰@@ 2
孟@@ 2
孤 2
学び合う 2
官公庁 2
定見 2
实@@ 2
実名 2
客層 2
室@@ 2
宥@@ 2
宦@@ 2
宰@@ 2
容喙 2
宿る 2
寄れる 2
寄与 2
密偵 2
寓@@ 2
寛@@ 2
寝ぐせ 2
寝つか 2
寝泊まり 2
寝袋 2
寡 2
寧@@ 2
寧波 2
寮@@ 2
对@@ 2
寿 2
寿@@ 2
射ぬけ 2
尉 2
尊 2
尋 2
導 2
小皿 2
小路 2
就@@ 2
尽く 2
局外 2
局所 2
屈 2
届け物 2
屑 2
屠@@ 2
層@@ 2
履き口 2
岬 2
岳@@ 2
岸@@ 2
峨@@ 2
峪 2
峻 2
巧@@ 2
巫@@ 2
差し向け 2
己@@ 2
巾 2
布@@ 2
师@@ 2
帙 2
带 2
席@@ 2
帰 2
帷@@ 2
常任 2
常備 2
帽@@ 2
年鑑 2
床用 2
座り@@ 2
庶@@ 2
康介 2
廃 2
廊 2
廬@@ 2
延 2
延びる 2
建て直さ 2
开@@ 2
弄@@ 2
弑@@ 2
引きずる 2
引き寄せ 2
引き綱 2
引き裂く 2
引け目 2
弘@@ 2
弛@@ 2
弟@@ 2
弧 2
弯 2
弱き 2
弱まる 2
張り合い 2
当ては@@ 2
当り 2
录@@ 2
彦 2
彫 2
彫@@ 2
往年 2
征@@ 2
待 2
待ち合わせる 2
待ち遠@@ 2
後塵 2
徒@@ 2
御中 2
德@@ 2
徹@@ 2
心地良い 2
心変わり 2
心服 2
心細い 2
必@@ 2
忍 2
忘 2
忘れ@@ 2
忘却 2
快 2
思い知る 2
怠 2
急襲 2
怯@@ 2
总@@ 2
恒@@ 2
恕 2
恤 2
恥@@ 2
恥じらい 2
恬@@ 2
悍@@ 2
悟@@ 2
患 2
患@@ 2
您 2
悪けれ 2
悪霊 2
悲 2
悴 2
惜 2
惜@@ 2
想う 2
意@@ 2
愕@@ 2
愛し合っ 2
愛着 2
慌@@ 2
慌ただ@@ 2
慕 2
慣れよ 2
慨 2
慨嘆 2
憂 2
憐@@ 2
憑@@ 2
憑い 2
憔@@ 2
憫 2
懇@@ 2
戌@@ 2
成り@@ 2
我@@ 2
戒@@ 2
或@@ 2
戦勝 2
戦災 2
戦禍 2
戯れ 2
户口 2
手ご@@ 2
手始め 2
手裏 2
手間賃 2
手頃 2
払 2
扮し 2
投函 2
折れ@@ 2
披@@ 2
抵@@ 2
押 2
押し付ける 2
押し切り 2
拌 2
拓@@ 2
拗@@ 2
拙@@ 2
拜 2
拭 2
拳@@ 2
持ち運び 2
持て@@ 2
挑@@ 2
挑み 2
挟み@@ 2
振る@@ 2
挺 2
挽 2
挽@@ 2
挾@@ 2
捉@@ 2
捕ら@@ 2
捜し集める 2
捧@@ 2
捨て去ら 2
掃射 2
掌@@ 2
掘 2
掛け売り 2
採 2
接 2
接ぎ 2
推し 2
掩蔽 2
揄 2
握れ 2
揶@@ 2
揺ら@@ 2
揺り@@ 2
揺る@@ 2
揺るぎ@@ 2
揺れ@@ 2
搖 2
摘み@@ 2
摺@@ 2
撒@@ 2
播 2
撮れる 2
撹@@ 2
擁@@ 2
擦り@@ 2
攫@@ 2
攬 2
放て 2
敏@@ 2
救い@@ 2
教頭 2
敬 2
数珠 2
文武 2
文盲 2
文鎮 2
斟@@ 2
斧 2
斬@@ 2
断層 2
断念 2
断面 2
新種 2
方案 2
旋@@ 2
族@@ 2
旧来 2
旨@@ 2
早春 2
昆 2
明け@@ 2
明り 2
明るかっ 2
映 2
映し@@ 2
昧 2
昨@@ 2
晏@@ 2
普@@ 2
智@@ 2
暈 2
暑@@ 2
暖かみ 2
暖まる 2
曲がり@@ 2
曳@@ 2
曹操 2
曾@@ 2
替@@ 2
最愛 2
有数 2
朔@@ 2
朝市 2
期@@ 2
期首 2
木の@@ 2
本土 2
朽@@ 2
束@@ 2
来し 2
杼 2
板書 2
果たせ 2
果報 2
染 2
查 2
栄辱 2
栄達 2
栗 2
桂 2
案じ 2
桎@@ 2
桐 2
桐@@ 2
桜島 2
梁山 2
梅子 2
梏 2
梨@@ 2
梨子 2
梨狩り 2
梱 2
棄損 2
棋@@ 2
棟@@ 2
棲@@ 2
棺@@ 2
椎@@ 2
検 2
検挙 2
楕@@ 2
楚@@ 2
楼@@ 2
樋 2
模写 2
横た@@ 2
横たわる 2
横ばい 2
横額 2
樽 2
檀@@ 2
檄@@ 2
欠 2
欧化 2
款 2
歆 2
歌い@@ 2
歓@@ 2
正書 2
此@@ 2
死地 2
殉@@ 2
殷 2
殺し合う 2
殺戮 2
殿@@ 2
比べよう 2
比べ物 2
毫 2
毽@@ 2
気づ@@ 2
気休め 2
水やり 2
水鳥 2
氷山 2
汁@@ 2
汆@@ 2
汎@@ 2
汤 2
汪 2
汲@@ 2
決め付け 2
沃@@ 2
沈 2
沖@@ 2
沙江 2
没@@ 2
沸き上がる 2
沸き返る 2
油層 2
沼@@ 2
況して 2
泊る 2
法制 2
波及 2
泣きわめく 2
泰@@ 2
洋式 2
洒@@ 2
洗い流さ 2
洗い落とさ 2
洗顔 2
洩@@ 2
洪@@ 2
洲 2
派@@ 2
浄@@ 2
浙@@ 2
浩@@ 2
浮か@@ 2
浮動 2
消し去る 2
消却 2
涎 2
涙@@ 2
涼@@ 2
淑 2
淞 2
淫 2
深み 2
混じる 2
添 2
渉@@ 2
渓 2
減額 2
渤@@ 2
温まら 2
渭@@ 2
港町 2
湘@@ 2
湾@@ 2
満ち溢れ 2
源氏 2
準@@ 2
溜め@@ 2
溜め息 2
溢 2
溶かさ 2
溶血 2
滔 2
滔@@ 2
滞 2
滸 2
漂泊 2
漫遊 2
漬 2
漬@@ 2
漱@@ 2
漳@@ 2
漸進 2
潔 2
潔@@ 2
潜 2
澎@@ 2
激化 2
激情 2
激減 2
濁し 2
濃緑 2
濃霧 2
濾@@ 2
瀉 2
瀕@@ 2
火の粉 2
火皿 2
火鍋 2
灯光 2
炉@@ 2
炉辺 2
炎@@ 2
炎上 2
炒めもの 2
炙@@ 2
点け 2
点在 2
点心 2
為す 2
烂摊 2
烈日 2
烈風 2
烏合 2
烏江 2
烙印 2
烧 2
焙@@ 2
無き 2
無く@@ 2
無さ 2
無一文 2
無上 2
無地 2
無垢 2
無届け 2
無常 2
無帽 2
無心 2
無恥 2
無惨 2
無法 2
無為 2
無理矢理 2
無産 2
無茶苦茶 2
無道 2
無頼 2
無風 2
焦@@ 2
焦がす 2
焦がれ 2
焦がれる 2
焦げる 2
焦げ臭い 2
焼きあがっ 2
焼きつい 2
焼き付い 2
焼き捨て 2
焼き殺す 2
焼き焦がし 2
焼け@@ 2
焼夷 2
焼身 2
煉瓦 2
煌く 2
煎@@ 2
煎り 2
煎る 2
煙たい 2
煙たく 2
照 2
照っ 2
照り 2
照度 2
煩い 2
煩わしく 2
煩瑣 2
煬帝 2
煮え@@ 2
煮えくり 2
煮え返る 2
煮立っ 2
熊本 2
熟@@ 2
熟女 2
熟成 2
熟柿 2
熨斗 2
熱力 2
熾烈 2
燃え上がら 2
燃え尽きる 2
燃え残り 2
燃え盛っ 2
燥 2
燭台 2
爆圧 2
爆睡 2
爆音 2
爛 2
父子 2
父系 2
爷 2
爾 2
片付き 2
片桐 2
片田舎 2
牛後 2
牛脂 2
牝@@ 2
牢屋 2
牧 2
牧民 2
物おじ 2
物悲し 2
物悲しく 2
物権 2
物知り 2
物覚え 2
物陰 2
物騒 2
特上 2
特急 2
特派 2
特級 2
特電 2
犀 2
犬種 2
犯@@ 2
状@@ 2
狂わ 2
狂わさ 2
狂暴 2
狙う 2
狙え 2
独り@@ 2
独り歩き 2
独り立ち 2
独り者 2
独奏 2
独房 2
独歩 2
狭かっ 2
狭し 2
狭義 2
狭量 2
狼狽える 2
狼男 2
猖獗 2
猛威 2
猛獣 2
猛虎 2
猫目 2
献@@ 2
献じる 2
献策 2
献納 2
献金 2
獲@@ 2
玉子 2
玉石 2
王侯 2
王宮 2
王府井 2
王座 2
王立 2
玩味 2
珈琲 2
珍奇 2
珠@@ 2
現わさ 2
現われ@@ 2
現下 2
現品 2
理@@ 2
理系 2
琉@@ 2
瑞 2
瑞雪 2
瑠@@ 2
瑣末 2
璃 2
環 2
環状 2
瓜子 2
甘えん坊 2
甘っ@@ 2
甘ったれ 2
甘やかす 2
甘美 2
甘言 2
甘酢 2
甘酸っぱい 2
生い立ち 2
生かせる 2
生きろ 2
生き写し 2
生き別れ 2
生き延@@ 2
生き延びれ 2
生き様 2
生き残れ 2
生き長@@ 2
生まれれ 2
生まれ持っ 2
生み@@ 2
生ゴミ 2
生半可 2
生煮え 2
生粋 2
生臭く 2
生薬 2
産まれる 2
産品 2
産院 2
甥っ子 2
甦@@ 2
用便 2
用船 2
田町 2
田舎暮らし 2
田舎町 2
田舎者 2
田舎育ち 2
由々しき 2
甲地 2
甲斐性 2
甲羅 2
甲高く 2
申し上げれ 2
申し入れる 2
申し越し 2
申上げ 2
申年 2
电 2
电@@ 2
电视 2
男尊 2
男役 2
男気 2
男湯 2
男衆 2
男装 2
町並み 2
町外れ 2
画する 2
画定 2
画廊 2
画法 2
画用 2
界面 2
留まり 2
留め置く 2
留任 2
畜力 2
畜産 2
畢竟 2
略号 2
略式 2
番人 2
番犬 2
異なれ 2
異体 2
異彩 2
異端 2
異能 2
異質 2
異邦 2
畳@@ 2
疎 2
疎ら 2
疎密 2
疑い深く 2
疑似 2
疑義 2
疔 2
疫学 2
疱瘡 2
疲弊 2
疲憊 2
疾風 2
痂 2
病ま 2
病む 2
病欠 2
病歴 2
病症 2
病者 2
病質 2
病身 2
痒 2
痒@@ 2
痛恨 2
痛烈 2
痛罵 2
痩@@ 2
痰つぼ 2
痴話 2
癌腫 2
癒@@ 2
癒やさ 2
癪 2
発効 2
発情 2
発端 2
登 2
登り詰める 2
登ろう 2
白々しい 2
白け 2
白川 2
白描 2
白日 2
白樺 2
白檀 2
白波 2
白石 2
白紙 2
白絹 2
白酒 2
白雪 2
白髪@@ 2
百家 2
百科 2
皆々 2
皆川 2
皇居 2
皮下 2
皮肉っ 2
皿@@ 2
益@@ 2
益する 2
盗っ 2
盗み見 2
盗み食い 2
盛ら 2
盛岡 2
盛装 2
監 2
目さ 2
目ざ@@ 2
目の敵 2
目まぐるしく 2
目やに 2
目元 2
目指@@ 2
目白 2
目白押し 2
目立て 2
目腐れ 2
目視 2
目覚@@ 2
目覚ましく 2
盲信 2
直そう 2
直結 2
直腸 2
直航 2
直販 2
相づち 2
相応しく 2
省き 2
省庁 2
看貫 2
県境 2
県外 2
県庁 2
県民 2
真ちゅう 2
真上 2
真奈 2
真新しく 2
真皮 2
真紅 2
真綿 2
真逆 2
眺め@@ 2
眺め渡す 2
眼@@ 2
眼圧 2
眼底 2
着こなし 2
着し 2
着れる 2
着信 2
着古し 2
着果 2
着眼 2
着込み 2
督 2
督@@ 2
睨ま 2
瞥 2
瞬き 2
瞰 2
瞿塘 2
矢@@ 2
矢面 2
知らせ合う 2
知略 2
短かっ 2
短大 2
短文 2
短絡 2
短観 2
短髪 2
矮@@ 2
石うす 2
石井 2
石切り 2
石刻 2
石印 2
石板 2
石柱 2
石綿 2
石造り 2
砂礫 2
砂肝 2
研 2
研@@ 2
研ぎ澄@@ 2
研鑚 2
砕けろ 2
砕石 2
砦 2
砲艦 2
破け 2
破り捨て 2
破砕 2
破算 2
破線 2
硝石 2
硬え 2
硼@@ 2
碍 2
磨@@ 2
磨こう 2
磨損 2
示@@ 2
示し@@ 2
示威 2
社歌 2
祇園 2
祈@@ 2
祈禱 2
祈願 2
祝え 2
祝儀 2
神威 2
神宮 2
神棚 2
神業 2
神殿 2
神父 2
神輿 2
祟り 2
祥子 2
祥寺 2
祭@@ 2
祭服 2
禁@@ 2
禁じる 2
禁固 2
禁断 2
禍 2
禍@@ 2
福井 2
福音 2
禹 2
禽 2
秀 2
秀一 2
秀逸 2
私人 2
私刑 2
私営 2
私書 2
私腹 2
私鉄 2
秋元 2
秋分 2
秋祭り 2
科@@ 2
科さ 2
科長 2
秒@@ 2
秘話 2
租 2
秦@@ 2
秦国 2
秦檜 2
移し換え 2
移し替え 2
移せ 2
移そう 2
移ら 2
移り住む 2
移り気 2
移譲 2
移送 2
程よく 2
程遠い 2
税収 2
種もみ 2
種本 2
種苗 2
種違い 2
稲作 2
稲光 2
稼@@ 2
稼が 2
穂@@ 2
穂軸 2
積み卸し 2
積み替える 2
積み重なっ 2
積め 2
積層 2
穢れ 2
穴ぼこ 2
穴埋め 2
穴子 2
究める 2
空き部屋 2
空く 2
空城 2
空威張り 2
空所 2
空揚げ 2
空母 2
空爆 2
空豆 2
空騒ぎ 2
突き上げ 2
突き刺さ 2
突き当たっ 2
突き当り 2
突き抜け 2
突き指 2
突き放す 2
突き破ら 2
突き落とさ 2
突き落とし 2
突き詰め 2
突き通し 2
突っかかる 2
突っ張っ 2
突っ込ま 2
突出 2
突貫 2
窓べ 2
窓枠 2
窓越し 2
窟 2
窮する 2
窮まる 2
窮める 2
窮迫 2
立ちあがっ 2
立ちくらみ 2
立ちはだかる 2
立ち上げよう 2
立ち並ぶ 2
立ち並ん 2
立ち会う 2
立ち会え 2
立ち会っ 2
立ち入ら 2
立ち去ろう 2
立ち寄れる 2
立ち止まら 2
立ち止り 2
立ち直っ 2
立ち話 2
立ち退き 2
立てかける 2
立会い 2
立地 2
立秋 2
立者 2
立腹 2
立身 2
竜@@ 2
章句 2
童@@ 2
童顔 2
端切れ 2
端座 2
端麗 2
競い合う 2
競り@@ 2
競り合い 2
競漕 2
竹@@ 2
竹いかだ 2
竹かご 2
竹ぐし 2
竹べら 2
竹簡 2
竹馬 2
笑いこけ 2
笑いさざめく 2
笑い興じ 2
笑い興じる 2
笑い転げ 2
笑い転げる 2
笑い顔 2
笑わそう 2
笠原 2
第一 2
笹 2
筆立て 2
筆端 2
筆調 2
筆談 2
等々 2
等外 2
等式 2
等閑 2
筋@@ 2
筋力 2
筋向かい 2
筋目 2
筋膜 2
筋電 2
答@@ 2
答えれ 2
答辞 2
策士 2
箇条 2
箔 2
管内 2
節制 2
節穴 2
築き上げ 2
築ける 2
篩 2
篭 2
篭っ 2
簡体 2
籃 2
米粉 2
米粒 2
粉ひき 2
粉飾 2
粗びき 2
粗熱 2
粗相 2
粗筋 2
粗製 2
粗酒 2
粗雑 2
粗食 2
粗鬆 2
粘っ 2
粘液 2
粟 2
精々 2
精彩 2
精細 2
糕 2
糖衣 2
糞便 2
糞土 2
糸のこ 2
糸繰り 2
系図 2
紀行 2
約@@ 2
約分 2
約款 2
紅梅 2
紋 2
納車 2
純化 2
純愛 2
純米 2
紙包み 2
紙幅 2
級長 2
紛@@ 2
紛々 2
紛れ込む 2
素地 2
素描 2
素早 2
素晴しかっ 2
素知らぬ 2
素肌 2
素行 2
素足 2
索敵 2
細かっ 2
細事 2
細君 2
細字 2
細腕 2
細身 2
終り 2
終審 2
終戦 2
終焉 2
終盤 2
組み付け 2
組み付ける 2
組み入れ 2
組み入れる 2
組み立てよう 2
組み込ま 2
組閣 2
経度 2
経書 2
経綸 2
結う 2
結びつか 2
結びつき 2
結びつく 2
結び直し 2
結べ 2
結べる 2
結わえつけ 2
絞める 2
絞め殺し 2
絞ら 2
絞り出し 2
絞り込む 2
絡まっ 2
絡み 2
絡みつい 2
絡み合っ 2
絡む 2
給電 2
絨毯 2
統@@ 2
統率 2
統覚 2
統語 2
統轄 2
絵描き 2
絵葉書 2
絶え絶え 2
絶世 2
絶叫 2
絶品 2
絶妙 2
絶後 2
絶頂 2
絹布 2
継 2
継ぎ目 2
継ぎ足し 2
継母 2
続@@ 2
続伸 2
続編 2
維新 2
網焼き 2
網膜 2
綴@@ 2
綴り 2
綴る 2
綾野 2
総じて 2
総収 2
総和 2
総統 2
総裁 2
緑膿 2
締まっ 2
締めくくる 2
締めつける 2
締り 2
締付 2
編@@ 2
緩@@ 2
緩い 2
緩ま 2
緩めよう 2
緩急 2
緩慢 2
練@@ 2
練り 2
練り込ん 2
練兵 2
練磨 2
緻 2
縄@@ 2
縛 2
縛り上げろ 2
縫い合わせ 2
縫い合わせる 2
縫い物 2
縮こまる 2
縮ま 2
縮み上がっ 2
縮れ毛 2
縮刷 2
縮合 2
縮減 2
縮約 2
繁簡 2
繊毛 2
繋がん 2
繋げる 2
織り込ん 2
織女 2
繕い 2
繕え 2
繰っ 2
繰り延べ 2
繰り延べる 2
繰り越し 2
繰上げ 2
红 2
纸钱 2
经@@ 2
缶@@ 2
罪@@ 2
罪滅ぼし 2
置き土産 2
置場 2
罹り 2
羊@@ 2
美名 2
美奈代 2
美田 2
美男 2
美的 2
美称 2
美談 2
美醜 2
美香 2
群がり 2
群がる 2
群体 2
群雄 2
群馬 2
羨望 2
義和 2
義憤 2
義捐 2
義歯 2
義父 2
羽ば@@ 2
羽ばたき 2
羽島 2
翁 2
翅 2
翌@@ 2
翌々 2
習 2
習おう 2
習作 2
翻刻 2
耀っ 2
老い@@ 2
老いる 2
老廃 2
老熟 2
老生 2
考えつい 2
考え直す 2
考え込む 2
考え違い 2
[...]
