. 258176
이 187930
하 171663
을 122365
는 118060
다 107561
어 86732
ㄴ 82275
은 81832
의 74422
가 74250
에 69128
를 65986
었다 61782
고 47309
그 46551
지 45700
있 41088
아 39672
ㄹ 35653
ㄴ다 34354
나 30363
되 30033
, 27654
게 25968
것 24990
으로 22790
로 21012
기 19359
도 19092
에서 18013
수 16131
않 15815
아다 15502
없 14528
들 14424
말 13502
보 12935
사람 12700
ㅁ 11546
어서 11489
오 11367
과 11207
일 11028
면 10100
주 9556
우리 9306
내 8909
? 8867
하고 8769
요 8148
에게 8138
라 7860
어야 7699
만 7618
자 7477
많 7354
와 7342
그녀 6720
에는 6548
좋 6418
ㅂ니다 6401
때 5946
두 5705
너 5658
받 5646
안 5448
대 5362
서 5349
니 5205
크 4934
못하 4902
위하 4895
사 4710
며 4605
는다 4566
같 4352
아니 4236
쓰 4152
알 4110
모두 3885
잘 3689
적 3677
이번 3656
집 3648
먹 3647
세 3506
길 3217
차 3195
&quot; 3138
전 3127
저 3093
한 3071
까지 3042
생각 3038
너무 2975
보이 2962
시키 2890
더 2886
좀 2854
물 2841
아주 2830
면서 2826
문제 2806
속 2785
놓 2779
마음 2739
야 2715
! 2679
대하 2658
습니다 2640
등 2636
돌 2631
중 2631
이미 2596
으면 2580
정말 2576
시간 2557
만들 2555
회사 2530
시작 2477
&apos; 2468
때문 2452
도록 2422
보다 2413
살 2405
따르 2394
아이 2386
매우 2366
버리 2361
입 2313
몇 2284
데 2277
늘 2254
자신 2241
위 2230
눈 2209
책 2195
ㄴ데 2185
남 2160
오늘 2153
지금 2136
어도 2134
아직 2124
모르 2120
후 2089
에서는 2087
찾 2069
부터 2066
줄 2064
다르 2040
리 2031
이런 2027
치 2022
앞 2018
돈 1997
스럽 1993
비 1989
던 1985
내리 1969
모든 1929
그렇 1923
어렵 1917
당신 1916
바라 1905
이나 1880
타 1866
라는 1840
배 1830
번 1830
처럼 1825
었습니다 1818
가장 1810
소리 1810
없이 1770
맞 1763
정부 1763
필요 1759
달 1757
뜨 1742
시 1715
이렇 1692
불 1681
오르 1660
또 1642
곳 1625
다시 1616
개 1613
네 1610
몸 1605
친구 1602
중국 1599
하나 1588
다니 1579
지만 1573
었던 1572
열 1567
겠다 1554
얼굴 1541
마르 1536
손 1506
에도 1505
가지 1498
잡 1489
높 1476
작 1474
지나 1474
날 1463
해 1462
그러 1453
선생님 1447
다는 1445
생기 1439
학교 1438
정도 1432
새 1431
만나 1429
옷 1427
뒤 1418
싶 1418
서로 1411
죽 1409
여러 1408
생활 1404
어머니 1401
ㄴ지 1398
명 1398
벌 1397
사랑 1392
려고 1387
느끼 1381
누구 1380
통하 1377
여기 1366
사회 1356
어떤 1349
뿐 1340
보내 1335
어떻 1334
영화 1329
못 1316
화 1313
새롭 1310
동안 1307
한국 1300
자기 1285
아버지 1281
함께 1274
었어 1270
마다 1261
쉽 1248
으니 1243
이야기 1240
경기 1237
당하 1233
계속 1231
빠지 1230
듣 1229
이루 1229
원 1226
떨 1225
거 1214
머리 1204
반드시 1202
어리 1201
이상 1200
듯 1191
세계 1188
었는데 1186
셨다 1178
넣 1175
아이들 1173
참 1169
넘 1168
요즘 1164
뛰 1162
부르 1162
다른 1160
간 1159
배우 1144
사람들 1131
피 1128
모습 1119
상황 1115
들이 1112
었지만 1102
사용 1091
사건 1090
방법 1089
사이 1089
ㄴ다는 1087
어라 1085
신 1078
막 1076
시ㄴ 1076
병 1074
힘 1068
바로 1067
달리 1063
민호 1061
팀 1055
얻 1051
다가 1043
이제 1036
지역 1029
중요 1028
성 1027
년 1020
무슨 1020
잃 1018
경제 1012
법 1012
러 1009
처리 1009
최근 1007
려 1003
팔 999
사업 997
점 997
발전 989
시험 988
조금 987
그리 976
자리 975
걷 972
풀 969
공부 959
술 952
앉 949
일어나 949
대학 946
아름답 942
끝 941
물건 939
음식 933
방 930
멀 928
· 921
미국 919
학생들 919
국민 916
기업 916
장 913
나무 910
읽 910
올해 908
처음 907
경찰 906
노력 904
뜻 904
곧 899
거리 892
마 888
이것 888
ㄹ까 887
항상 886
식 885
사실 881
제 881
었을 876
문 875
하늘 875
밥 873
심하 873
행동 871
그러나 868
감 865
어디 865
지키 864
기다리 861
글 857
아침 854
잘못 853
기술 847
다음 842
날씨 839
걸리 838
관계 838
계획 837
믿 837
왜 835
결과 832
쪽 831
작품 830
먼저 829
나쁘 828
울 828
더욱 827
마치 826
밖 825
갑자기 822
밤 822
무엇 819
벗 818
여자 815
국 813
산 812
힘들 810
마시 809
아들 807
그것 805
밖에 803
밝히 800
운동 799
려면 798
세우 796
어느 796
밀 793
흐르 792
대로 789
시장 788
부 787
묻 784
정신 783
아프 781
이@@ 780
트 778
갖 777
성공 776
십시오 773
걸 772
결혼 770
바 770
형 770
이곳 769
오래 767
경우 764
세상 764
알리 763
교육 762
대@@ 762
ㄴ가 760
다리 760
나라 756
가득 753
해결 749
약 744
하루 744
발 742
해서 741
든 740
거나 738
꼭 734
맛 733
여 732
빨리 731
아무 731
끌 730
떠나 730
돕 729
가격 728
마을 728
결정 723
롭 723
제품 723
나누 722
학생 721
의견 720
이름 719
현재 716
회의 715
ㄹ수록 712
깊 712
강하 710
군 710
이용 710
걱정 709
일본 709
어제 708
내용 706
모이 704
짓 701
마련 700
이르 700
인간 700
편 699
채 698
국가 696
바꾸 694
어다 694
뭐 693
결국 691
땅 690
상 688
건강 687
사@@ 687
준비 687
판 685
각 682
만큼 680
놀 675
었다는 675
자주 674
굴 673
니까 673
시대 672
겠습니다 671
아내 669
피하 669
엔 666
연구 666
분 664
열심히 663
자동차 663
끝나 662
여전히 662
싸우 660
소식 659
업무 659
높이 658
아아 658
맡 657
빠르 656
쉬 656
드리 655
시ㄹ 655
일부 654
건 653
꽃 650
요구 649
매일 648
었으니 647
깨 646
인터넷 644
이해 642
잊 642
ㄴ다면 637
인하 637
환경 637
가족 636
대회 636
시@@ 634
음 633
과정 632
나타나 632
정책 631
태도 631
외국 629
ㄹ지 628
남자 628
단 628
여행 627
전혀 626
소설 625
전쟁 623
가슴 621
성격 621
반 619
분위기 617
기대 613
는지 612
담 612
웃 612
고@@ 611
대부분 609
능력 608
는데 607
집안 607
엄마 606
올리 606
도시 603
려는 603
상품 600
준기 600
새로 599
얼마나 598
관리 597
젊 597
공장 596
개발 595
무@@ 595
더니 593
기쁘 592
권 589
아무리 589
한번 588
바쁘 586
기@@ 585
맞추 584
바람 581
발표 581
의하 581
냐 580
수@@ 578
나오 575
모으 574
삶 574
의사 574
건물 573
늦 573
삼 573
이유 571
지내 571
양 569
나서 568
눈물 568
상대 568
으로는 567
문화 566
언제나 565
ㅂ시다 564
남편 564
아래 564
낮 562
인사 562
발생 561
사장 560
절 560
추 560
거의 558
놀라 558
: 557
부분 557
얼마 557
널 556
부@@ 556
돌리 554
컴퓨터 552
께 551
가능 549
상태 546
ㅂ니까 545
부모 543
투 543
활동 542
나가 540
잠 540
조사 540
둘 539
혼자 538
몹시 534
향하 534
소 533
으며 533
전하 533
미@@ 531
행사 531
지@@ 529
꿈 525
생산 525
께서 524
부족 524
었는지 524
관련 522
관심 522
손님 522
그들 521
가@@ 520
할아버지 520
작업 519
직접 519
강 516
애 516
그리고 515
정보 515
비@@ 514
기록 512
취하 512
공사 511
귀 510
지원 510
할머니 509
환자 509
끼 508
떨어지 508
유 508
유명 508
효과 508
싫 507
기르 506
고향 505
도착 505
일으키 505
저녁 505
이후 503
행위 503
구하 502
목 502
아ㅂ니다 502
잘하 502
현상 502
별 501
도움 500
선 500
설명 500
가리 499
진행 499
끄 498
갖추 497
나이 497
줄곧 497
초 497
스스로 496
음악 496
잠시 496
절대 496
최고 496
기회 494
방안 494
펴 494
만약 493
친구들 493
들리 492
열리 492
부리 491
부모님 491
심 490
경험 489
차례 489
숨 488
자르 488
예정 487
연기 486
이기 486
기간 485
다하 485
완전히 485
선물 483
신문 483
인기 483
통 483
벌써 482
역사 482
감독 480
더라도 480
다면 477
변화 477
아ㄴ데 477
한테 477
훈련 477
빼 476
주@@ 476
었더니 475
밝 474
주장 474
도@@ 473
비행기 473
예쁘 473
었고 472
설치 471
3@@ 469
천 469
여성 468
공 467
정@@ 467
다@@ 466
에서도 466
유@@ 466
잇 466
현장 466
대표 465
행복 465
표 464
맑 463
에게는 463
인정 463
빛 462
끝내 461
동@@ 461
성적 461
벽 460
소@@ 460
반대 459
소재 459
기억 458
병원 457
상@@ 457
선수들 456
옮기 456
결코 454
아기 454
시절 453
실패 453
특히 453
넓 452
모양 452
바다 452
시ㅁ 450
제대로 450
버스 449
어야지 448
・ 447
약속 447
서울 446
오히려 446
자마자 446
여름 445
판매 445
약간 444
성@@ 443
시오 443
아@@ 443
피부 443
모 442
박 442
쏟 441
의미 441
찍 441
건설 440
구@@ 440
재 440
매 439
정 439
표현 439
피우 439
자@@ 438
확인 438
노래 437
우선 437
표정 437
며칠 436
조심 436
축구 435
정치 434
조 434
지나치 434
방식 433
춥 431
었으나 430
자연 430
점점 430
사고 429
조@@ 429
견디 428
동생 428
실수 428
위험 428
즐기 428
지방 428
라면 427
부드럽 427
사과 427
이익 426
재@@ 426
리@@ 425
움직이 424
전@@ 424
주의 424
요리 422
관하 421
국내 421
기분 421
쥐 421
훌륭 421
께서는 420
수업 420
전체 420
가르치 419
가운데 419
당 419
실력 419
각종 418
남기 418
수준 418
어찌 418
우리들 418
이란 418
씩 417
공연 415
인생 415
당시 414
중@@ 414
겠어 413
대상 413
바르 413
부부 413
째 413
불@@ 412
거두 411
평소 411
원래 410
펼치 409
을까 408
목소리 406
및 406
오@@ 406
가정 405
붙 405
비하 405
전화 405
고생 404
끊 404
시ㄴ다 404
비록 403
냄새 402
로는 402
선@@ 402
히 402
겪 401
예상 401
왕 401
파 401
곤 400
용 400
은행 400
주변 400
느냐 399
첫 399
고르 398
보@@ 398
정하 398
모@@ 397
발견 397
영향 397
장@@ 397
하@@ 395
가치 394
예전 394
패 394
가깝 393
공@@ 393
서@@ 393
미치 392
민족 392
변하 392
빌리 392
이전 392
종 392
겨울 391
정리 391
출발 391
기계 390
보다는 390
보호 390
놈 389
재산 389
현실 389
로부터 388
무척 387
시원 386
인물 386
고치 385
단지 385
담배 385
식당 385
평가 384
2@@ 383
외 383
죠 383
프로그램 383
괜찮 382
사진 382
선거 382
정확 382
수입 380
순간 380
자식 380
경쟁 379
대단히 379
지식 379
털 379
뜨겁 378
란 378
바닥 378
깨끗 377
따 377
어@@ 377
가볍 376
사상 375
선택 375
합격 375
든지 374
반@@ 374
신@@ 374
여러분 374
감정 373
짜 373
물@@ 372
성장 372
었기 372
제@@ 372
즐겁 372
몰 371
사라지 371
역시 371
옛날 371
과거 370
어울리 370
오후 370
일@@ 370
마@@ 369
울리 369
자유 369
올림픽 368
겨우 367
마침내 367
신경 367
노인 366
빚 366
뽑 365
산업 365
임무 365
짧 365
공격 364
4@@ 363
분명 363
인 363
붙이 362
뿌리 362
어는 362
연@@ 362
흘리 362
감사 360
지연 360
총 360
한@@ 360
닦 359
문장 359
심각 359
우승 359
조건 359
비판 358
개혁 357
내@@ 357
언제 357
인상 357
참가 357
방@@ 356
원하 356
척 356
승리 355
아파트 355
의식 355
차리 355
옆 354
우 354
방송 352
어둡 351
1 350
키우 350
미 349
전국 349
새벽 348
제도 348
주위 348
할 348
호 348
고급 347
딸 347
잔 347
죄 347
직장 346
마리 345
마지막 345
입장 345
자금 345
조직 345
갈 344
값 344
공기 344
꺼내 344
리어 344
실 344
가능성 343
어려움 343
동 342
분야 342
젖 342
과학 341
므로 340
백 340
싸 340
질 340
고통 339
과일 339
녀석 339
단체 339
검사 338
동네 338
드러나 338
무섭 338
아마 338
오랫동안 338
우@@ 338
전망 338
ㄴ들 337
역할 337
치료 337
함부로 337
예 336
인@@ 336
떼 334
계시 333
구나 333
살리 333
판단 333
개@@ 332
지구 332
과는 330
국회 330
슬프 330
주로 330
겠다는 329
산@@ 329
장사 329
하지만 329
깊이 328
사태 328
서비스 328
온통 328
일찍 328
제공 328
만한 327
미래 327
서두르 327
유행 326
맛있 325
목표 325
5@@ 324
실시 324
원@@ 324
말씀 323
살피 323
습관 323
아ㄹ 323
에만 323
원인 323
1@@ 322
겠는가 322
사전 322
협상 322
스@@ 321
식사 321
진@@ 321
넘치 320
쌓이 320
어깨 320
자료 320
화@@ 320
칭찬 319
기관 318
대답 318
정상 318
라고 317
문@@ 317
생명 317
약하 317
해외 317
던지 316
듯하 316
발@@ 316
증가 316
차이 316
책상 316
거@@ 315
검찰 315
는가 315
동물 315
시설 315
하기 315
헤어지 315
그냥 314
랑 314
목숨 314
물론 314
세력 314
존재 314
주요 314
양@@ 313
영어 313
직원 313
칼 313
한국의 313
훨씬 313
경@@ 312
비교적 312
쌓 311
아ㄴ 311
언론 310
금 309
단@@ 309
일정 309
해@@ 309
놓이 308
얘 308
인재 308
대중 307
정권 307
제일 307
고서 306
골 306
노@@ 306
느라 306
졸업 306
교@@ 305
낡 305
눕 305
백@@ 305
진 305
마음속 304
상처 304
습니까 304
지적 304
품 304
강화 303
라도 303
발언 303
명령 302
어쩌 302
자세 302
작년 302
희망 302
세월 301
소문 301
가게 300
고개 300
방향 300
안@@ 300
완성 299
구조 298
그때 297
급하 297
기울이 297
덥 297
바뀌 297
영@@ 297
주말 297
주택 297
회 297
농촌 296
거짓말 295
다투 295
역 295
규모 294
대화 294
비싸 294
같이 293
교수 293
명@@ 293
무대 293
방문 293
베이징 293
욕 293
전부 293
파악 293
풀리 293
거칠 292
반응 292
수사 292
임금 292
갑 291
두렵 291
부담 291
불리 291
성과 291
시기 291
자꾸 291
온갖 290
주인 290
치르 290
공원 289
그곳 289
금지 289
에너지 289
조국 289
구 288
낳 288
멈추 288
문학 288
지난해 288
짙 288
모두들 287
이날 287
초@@ 287
계약 286
또한 286
범인 286
아지만 286
언니 286
희 286
･ 286
극복 285
분명히 285
씨 285
지치 285
광고 284
내년 284
떠오르 284
편하 284
함 284
3 283
금@@ 283
끊임없이 283
나@@ 283
무 283
오전 283
이러하 283
간@@ 282
남@@ 282
마디 282
셈 282
여@@ 282
연락 282
잡히 282
7@@ 281
계산 281
관 281
그대로 281
기능 281
거치 280
그릇 280
자전거 280
화하 280
근거 279
금방 279
쓰이 279
전통 279
참여 279
강조 278
고양이 278
드러내 278
색 278
소개 278
텔레비전 278
풍부 278
무겁 277
부탁 277
일반적 277
권력 276
카드 276
평화 276
포함 276
구름 275
논문 275
분@@ 275
선생 275
국제 274
세@@ 274
오빠 274
공개 273
오해 273
조치 273
치@@ 273
태어나 273
경영 271
비용 271
사정 271
아무런 271
에요 271
채우 271
양국 270
좁 270
호@@ 270
% 269
발달 269
발휘 269
한참 269
후@@ 269
고대 268
졸 268
피@@ 268
기차 267
밑 267
운동장 267
이끌 267
중국어 267
성실 266
자랑 266
시계 265
시선 265
장소 265
계 264
내부 264
도서관 264
연습 264
왕칭 264
운영 264
조차 264
집중 264
막히 263
만@@ 263
커피 263
현대 263
감@@ 262
단계 262
복잡 262
생@@ 262
드라마 261
방금 261
상대방 261
상사 261
수단 261
언어 261
한창 261
들어서 260
무너지 260
솜씨 260
었지 260
예술 260
측 260
평생 260
고는 259
땀 259
로@@ 259
몰리 259
무릎 259
일반 259
청소 259
축하 259
긴장 258
녹 258
먹이 258
분석 258
삼@@ 258
속도 258
2 257
고객 257
구성 257
범죄 257
파견 257
10년 256
강@@ 256
건너 256
경 256
굳 256
근무 256
기사 256
답 256
더라 256
붉 256
앞서 256
우리나라 256
의자 256
의지 256
태풍 256
멀리 255
수많 255
춤 255
격 254
교사 254
이론 254
저지르 254
중심 254
충분히 254
곱 253
묘사 253
무리 253
부대 253
사항 253
실제 253
고요 252
공간 252
기준 252
었다가 252
유럽 252
인류 252
가는 251
게임 251
규정 251
꾸미 251
죽음 251
통과 251
혐의 251
10 250
널리 250
그래서 249
나타내 249
딱 249
불법 249
앞두 249
없애 249
테 249
6@@ 248
도는 248
만족 248
열차 248
이불 248
인구 248
투자 248
평 248
호텔 248
구체적 247
내일 247
동의 247
시위 247
저@@ 247
축 247
하시 247
제시 246
종이 246
추진 246
가방 245
개선 245
라서 245
신청 245
오랜 245
피곤 245
군@@ 244
그립 244
장면 244
전문 244
주식 244
틈 244
혹시 244
고자 243
군대 243
다섯 243
보통 243
비난 243
안정 243
확실 243
후보 243
가죽 242
눈앞 242
배@@ 242
불과 242
씻 242
점차 242
진실 242
참석 242
협력 242
고장 241
남녀 241
낯설 241
덮 241
으려고 241
파@@ 241
푸르 241
허리 241
확보 241
권리 240
명절 240
밟 240
별로 240
상하 240
우주 240
재능 240
극 239
더하 239
무기 239
온몸 239
했다 239
그대 238
불안 238
석 238
아끼 238
짝 238
자들 237
증 237
터 237
1년 236
다치 236
맡기 236
비밀 236
우수 236
장점 236
절대로 236
중시 236
토론 236
형편 236
광장 235
옛 235
작가 235
눈빛 234
설 234
실@@ 234
표시 234
당국 233
등장 233
서는 233
자는 233
제거 233
진짜 233
폭 233
3년 232
거절 232
광@@ 232
넘기 232
대형 232
사무실 232
용서 232
틀 232
방해 231
상자 231
신중 231
외@@ 231
질문 231
바지 230
시합 230
어른 230
글자 229
모델 229
빵 229
연출 229
회복 229
날리 228
전기 228
조정 228
지하철 228
직업 228
다가오 227
동시에 227
연주 227
위@@ 227
으면서 227
입술 227
종류 227
층 227
확대 227
각자 226
국@@ 226
스타 226
창 226
푸 226
갚 225
구두 225
독 225
래 225
에선 225
유학 225
이웃 225
차량 225
창문 225
챙기 225
다루 224
밀리 224
스 224
직원들 224
촬영 224
하여금 224
확실히 224
도둑 223
업계 223
오염 223
으로부터 223
의원 223
점심 223
지니 223
특징 223
햇빛 223
귀엽 222
수학 222
구멍 221
낫 221
디자인 221
매년 221
미리 221
입@@ 221
즉시 221
감추 220
그림 220
다양 220
수리 220
얼 220
용@@ 220
웬웬 220
저희 220
조절 220
대책 219
지르 219
곡 218
그동안 218
듯이 218
떠들 218
맺 218
명예 218
옳 218
자라 218
절약 218
지경 218
당@@ 217
력 217
무시 217
복 217
비슷 217
이사 217
익 217
종@@ 217
청@@ 217
코 217
화장실 217
구매 216
말@@ 216
무역 216
수박 216
재미있 216
최대 216
품질 216
5 215
경치 215
부끄럽 215
앓 215
야@@ 215
엄격 215
영원히 215
으로써 215
장관 215
풍경 215
한마디 215
흥분 215
교통 214
도대체 214
들@@ 214
따로 214
무르 214
붓 214
휴가 214
그만두 213
놓치 213
바치 213
업체 213
예산 213
용기 213
그래도 212
부치 212
시골 212
유리 212
자체 212
천천히 212
총@@ 212
ㄴ단 211
고민 211
공급 211
두르 211
망 211
박@@ 211
시스템 211
었으면 211
포@@ 211
가수 210
돌보 210
수술 210
숲 210
찌 210
처지 210
최선 210
가난 209
관@@ 209
맵 209
부동산 209
부인 209
실현 209
쌍방 209
야지 209
잠기 209
통@@ 209
희정 209
가끔 208
라디오 208
베 208
병@@ 208
시어서 208
신부 208
키 208
꽉 207
농담 207
물리 207
신발 207
아는지 207
원칙 207
으니까 207
의혹 207
커다랗 207
핵심 207
혀 207
개인 206
결론 206
교 206
기본 206
요청 206
주제 206
회장 206
겉 205
목@@ 205
벌이 205
싣 205
위치 205
쯤 205
처하 205
현 205
과@@ 204
관점 204
구입 204
누르 204
동작 204
론 204
부정 204
실천 204
여론 204
우유 204
적절 204
제작 204
후회 204
가을 203
다만 203
덕분 203
방지 203
밭 203
버릇 203
복@@ 203
십 203
젊은이 203
주문 203
택시 203
견해 202
디@@ 202
민@@ 202
비로소 202
세금 202
역@@ 202
웃음 202
위원회 202
유난히 202
철 202
치마 202
침대 202
나중 201
단속 201
달러 201
지출 201
채소 201
철저히 201
학기 201
환영 201
회@@ 201
흔들 201
거기 200
공항 200
노동 200
드@@ 200
바@@ 200
손가락 200
손해 200
포 200
부딪치 199
썩 199
안개 199
얼른 199
연 199
운명 199
조각 199
진상 199
편안 199
가리키 198
공동 198
깎 198
꼴 198
끓이 198
라@@ 198
수영 198
시달리 198
쌀 198
적@@ 198
지진 198
현금 198
현지 198
10@@ 197
굽 197
냉장고 197
아예 197
우리집 197
의@@ 197
풍기 197
결혼식 196
너희 196
눈길 196
문자 196
어린이 196
일단 196
전달 196
한편 196
회담 196
8@@ 195
로서 195
목적 195
보도 195
양보 195
잎 195
찌르 195
천@@ 195
체 195
추구 195
태양 195
거울 194
곳곳 194
교통사고 194
근 194
뚫 194
연결 194
집단 194
차@@ 194
기구 193
날짜 193
모집 193
몰래 193
불만 193
비추 193
소금 193
시는 193
연극 193
절차 193
형태 193
담기 192
독립 192
배치 192
스타일 192
승부 192
으나 192
전략 192
정원 192
특별 192
피해 192
희생 192
2년 191
9@@ 191
검증 191
뉴스 191
대단 191
모시 191
반복 191
부장 191
사방 191
사이즈 191
속담 191
영 191
예요 191
족 191
중단 191
그저 190
기존 190
상승 190
수출 190
지도 190
하자 190
활용 190
경제@@ 189
눈치 189
단어 189
대우 189
드 189
뻗 189
아무렇 189
잠깐 189
죽이 189
홍수 189
계@@ 188
귀@@ 188
매@@ 188
미안 188
비치 188
뼈 188
상관 188
생일 188
순서 188
제때 188
포기 188
두@@ 187
레@@ 187
시민들 187
식@@ 187
안되 187
월급 187
월드컵 187
착하 187
방면 186
색깔 186
숨기 186
아무것 186
열@@ 186
작성 186
화제 186
감히 185
독특 185
마당 185
멋지 185
상점 185
업 185
와는 185
왕@@ 185
재미 185
전력 185
주먹 185
타@@ 185
폐 185
그@@ 184
끼치 184
난@@ 184
낭비 184
누군가 184
당연 184
대통령 184
독@@ 184
백화점 184
제기 184
주민들 184
지위 184
추억 184
겠니 183
구경 183
기초 183
는구나 183
북 183
불편 183
선발 183
일자리 183
자신감 183
진출 183
학습 183
노랗 182
무료 182
밤새 182
불구 182
영국 182
증거 182
지시 182
출@@ 182
취미 182
한다 182
덜 181
또는 181
석유 181
에서의 181
열쇠 181
예@@ 181
요@@ 181
처벌 181
탁자 181
파괴 181
한바탕 181
형제 181
날개 180
설립 180
아나 180
에게서 180
출근 180
투표 180
학문 180
향상 180
거래 179
과장 179
교실 179
매장 179
사귀 179
서류 179
얇 179
여부 179
요소 179
젊은이들 179
정의 179
종교 179
출장 179
친하 179
규제 178
급 178
농업 178
살@@ 178
아군 178
아시아 178
엄청나 178
운행 178
유혹 178
자원 178
추세 178
학 178
과의 177
깔 177
따위 177
물질 177
반영 177
접 177
조용히 177
창@@ 177
탓 177
토@@ 177
특정 177
기적 176
놀리 176
단련 176
세대 176
시행 176
외부 176
원고 176
장비 176
전문가 176
절@@ 176
가구 175
고맙 175
꽤 175
도로 175
마구 175
보험 175
소비 175
이혼 175
장애 175
제출 175
지도자 175
체면 175
푹 175
힘쓰 175
리는 174
백성 174
세계적 174
양식 174
인력 174
적극적 174
정치적 174
추@@ 174
트@@ 174
트럭 174
햇볕 174
고도 173
곤란 173
나머지 173
누나 173
닫 173
사회적 173
스트레스 173
예방 173
의심 173
체제 173
틀리 173
헌법 173
공무원 172
교류 172
덕 172
따뜻 172
버티 172
생 172
셔츠 172
인원 172
장식 172
편리 172
향기 172
형성 172
형식 172
김 171
늙 171
당연히 171
대응 171
아다는 171
얘기 171
중간 171
직@@ 171
청년 171
청소년 171
파도 171
고집 170
글씨 170
닿 170
모자 170
민간 170
부서 170
뻔하 170
사막 170
순@@ 170
운 170
이미지 170
잡@@ 170
허락 170
겠지 169
만은 169
미루 169
성질 169
손자 169
수요 169
외모 169
이치 169
추위 169
군사 168
급히 168
데리 168
부상 168
신뢰 168
아빠 168
체@@ 168
학@@ 168
한국@@ 168
경계 167
기념 167
누리 167
때리 167
재료 167
진정한 167
하얗 167
경향 166
대출 166
동료 166
뚜렷 166
매력 166
실망 166
아쉽 166
위안 166
인도 166
자세히 166
한동안 166
환율 166
거지 165
계절 165
농사 165
도입 165
심@@ 165
쓰러지 165
아가씨 165
애@@ 165
와의 165
줄어들 165
책임지 165
취소 165
화재 165
가르 164
거세 164
결심 164
드물 164
떡 164
띄 164
몇몇 164
묶 164
실험 164
쓰레기 164
었으며 164
용감 164
재배 164
주머니 164
담당 163
대량 163
돌아다니 163
보장 163
시도 163
식품 163
은@@ 163
장기 163
정식 163
제안 163
카메라 163
해석 163
흔들리 163
각각 162
거듭 162
규칙 162
그룹 162
까지는 162
뒤집 162
따뜻한 162
류 162
자녀 162
투쟁 162
평범 162
혼 162
확정 162
훔치 162
경제적 161
과자 161
너무나 161
다지 161
등@@ 161
망치 161
물고기 161
보급 161
사물 161
설@@ 161
안경 161
온종일 161
치열 161
해당 161
허용 161
건@@ 160
바위 160
박수 160
법원 160
본@@ 160
속하 160
위반 160
잖아 160
팔리 160
노동자 159
단순 159
마비 159
맥주 159
보다도 159
상부 159
어떠하 159
에야 159
예의 159
일주일 159
재판 159
철저 159
학자 159
개최 158
검토 158
과연 158
관념 158
내밀 158
대비 158
두드리 158
띠 158
부풀 158
석@@ 158
소용 158
시면 158
실제로 158
억울 158
음@@ 158
카@@ 158
허가 158
공업 157
국제@@ 157
그야말로 157
논의 157
농민 157
더럽 157
돌@@ 157
량 157
마저 157
비교 157
시비 157
약@@ 157
영광 157
장치 157
제외 157
줍 157
지를 157
진지 157
건조 156
결@@ 156
괴롭 156
기세 156
달하 156
도리 156
맨 156
변@@ 156
본래 156
어서야 156
었음 156
입구 156
자격 156
자네 156
전문가들 156
컬러 156
특별히 156
4 155
간부 155
교훈 155
눈부시 155
니@@ 155
다양한 155
몸매 155
박사 155
법률 155
상당히 155
시각 155
여동생 155
연필 155
이하 155
죄송 155
， 155
게으르 154
낮추 154
법@@ 154
소비자 154
아깝 154
아서 154
었구나 154
오랜만 154
외출 154
적당 154
컵 154
투@@ 154
그날 153
그치 153
기후 153
나비 153
마찬가지 153
배경 153
연속 153
영혼 153
오늘날 153
태@@ 153
교환 152
귀하 152
농민들 152
다이어트 152
돌파 152
박물관 152
방침 152
빨갛 152
설비 152
소년 152
위로 152
제한 152
지혜 152
최@@ 152
치우 152
태우 152
활발 152
것들 151
고추 151
기울 151
꾸 151
다들 151
대접 151
메 151
사이트 151
새@@ 151
직 151
청바지 151
침묵 151
통신 151
튼튼 151
각@@ 150
감소 150
개념 150
밀@@ 150
북@@ 150
송@@ 150
종사 150
통제 150
향 150
관찰 149
근@@ 149
끓 149
농@@ 149
도전 149
뛰어들 149
사례 149
식물 149
일부러 149
적용 149
지정 149
집@@ 149
철@@ 149
코@@ 149
톤 149
강물 148
개방 148
국민들 148
급@@ 148
닥치 148
반면 148
빌 148
연애 148
잘못된 148
주목 148
폭력 148
5년 147
걸치 147
괴롭히 147
기업들 147
달@@ 147
따라서 147
뜯 147
미소 147
불러일으키 147
사망 147
창고 147
채용 147
초래 147
혁명 147
20@@ 146
가까이 146
거대 146
결점 146
근심 146
수행 146
신분 146
어린아이 146
완화 146
우정 146
지불 146
촉진 146
화물 146
100 145
가족들 145
근처 145
마무리 145
망@@ 145
생선 145
쇼핑 145
시내 145
에어컨 145
작용 145
전개 145
조화 145
찢 145
합 145
협조 145
강아지 144
김@@ 144
돼지 144
뒷@@ 144
서명 144
손상 144
심판 144
쏘 144
왜곡 144
으로도 144
으로서 144
익히 144
일대 144
주인공 144
지급 144
처 144
행정 144
노조 143
바탕 143
방학 143
보수 143
새끼 143
새우 143
순 143
아지 143
악화 143
유지 143
으려 143
자극 143
진정 143
권위 142
는다는 142
빌딩 142
속@@ 142
수법 142
숙제 142
식량 142
암@@ 142
우산 142
임신 142
전공 142
판결 142
피로 142
허@@ 142
거예요 141
곧바로 141
기자 141
노 141
동료들 141
만화 141
보관 141
소녀 141
소중 141
솟 141
신화 141
외치 141
유산 141
전시 141
조선 141
주민 141
지각 141
청 141
출신 141
친@@ 141
너희들 140
밉 140
버@@ 140
소파 140
순조 140
실리 140
어기 140
적군 140
적합 140
6 139
공포 139
근육 139
깨닫 139
달아나 139
드디어 139
부정적 139
빨 139
삼촌 139
스포츠 139
압박 139
우체국 139
운전 139
이동 139
증상 139
체계 139
현@@ 139
휴식 139
갓 138
루@@ 138
물들 138
승진 138
양심 138
억지로 138
었네 138
에@@ 138
여기저기 138
임명 138
증명 138
지는 138
큰일 138
평균 138
포장 138
호수 138
흐리 138
흔히 138
감당 137
과제 137
동정 137
바이러스 137
바퀴 137
병사들 137
양말 137
었다면 137
우려 137
으셨다 137
진심 137
차라리 137
침체 137
행@@ 137
환 137
20 136
개성 136
골목 136
과목 136
기침 136
놀랍 136
두껍 136
맞이 136
선보이 136
야당 136
점수 136
주사 136
중앙 136
체하 136
추정 136
탕 136
프로젝트 136
겸손 135
그런데 135
다소 135
면@@ 135
시즌 135
심사 135
썰 135
어긋나 135
외교 135
음모 135
쫓 135
구속 134
대사 134
마땅히 134
미술 134
번역 134
볶 134
수익 134
위협 134
정성 134
초청 134
풍속 134
당장 133
대기업 133
살짝 133
상징 133
서의 133
성분 133
수집 133
옆집 133
으므로 133
일종 133
임@@ 133
잦 133
적응 133
프랑스 133
혼란 133
확산 133
황@@ 133
가만히 132
그루 132
기도 132
기운 132
꺾 132
노리 132
마침 132
변 132
부자 132
에다 132
여유 132
온도 132
옷차림 132
정당 132
질@@ 132
포인트 132
해소 132
논란 131
등산 131
만지 131
보고 131
볼 131
부럽 131
부문 131
사원 131
생산량 131
손@@ 131
열정 131
의무 131
작@@ 131
재주 131
조성 131
차원 131
티@@ 131
감격 130
강제 130
겠습니까 130
교장 130
권하 130
남북 130
는다면 130
동원 130
떨리 130
떨어뜨리 130
묵 130
벌금 130
사장님 130
성명 130
실행 130
심리 130
이윤 130
잔뜩 130
잘되 130
장난 130
종종 130
질병 130
창작 130
탑 130
12@@ 129
〔 129
〕 129
공주 129
굵 129
매달리 129
문화재 129
묻히 129
방송국 129
사회@@ 129
선정 129
수용 129
수확 129
응 129
점검 129
조상 129
지갑 129
효과적 129
간호사 128
금년 128
명성 128
봉@@ 128
사무 128
서도 128
섞 128
역대 128
완수 128
유통 128
입학 128
천재 128
축제 128
티 128
파업 128
항@@ 128
휴대 128
거부 127
공정 127
뒤지 127
모자라 127
산책 127
센터 127
신체 127
알@@ 127
얼음 127
영업 127
위원 127
이젠 127
이틀 127
한데 127
가입 126
강요 126
객관적 126
거짓 126
구분 126
그래 126
더위 126
말리 126
면하 126
박히 126
발행 126
불가능 126
소음 126
수십 126
어젯밤 126
육@@ 126
이상한 126
잠들 126
주의해 126
취업 126
풀이 126
프로 126
해치 126
호소 126
곁 125
골@@ 125
관중 125
교제 125
그다지 125
기원 125
끈 125
남성 125
논 125
보충 125
설계 125
아저씨 125
알맞 125
애쓰 125
업종 125
에게도 125
연장 125
완전 125
원망 125
율 125
조약 125
좌석 125
줄이 125
청춘 125
총리 125
충격 125
특@@ 125
합치 125
협의 125
눈@@ 124
물품 124
상식 124
승@@ 124
여권 124
예측 124
임시 124
점@@ 124
조금씩 124
청와대 124
호랑이 124
희정이 124
농작물 123
단결 123
막@@ 123
모임 123
바라보 123
복지 123
봉 123
시다 123
시민 123
싹 123
악 123
양쪽 123
전환 123
존중 123
친절 123
가스 122
까지도 122
대신 122
부패 122
빨래 122
소득 122
신호 122
약점 122
연말 122
완벽 122
원단 122
조심해 122
편@@ 122
호흡 122
거행 121
격@@ 121
고정 121
교육@@ 121
난 121
남쪽 121
노동자들 121
대문 121
매번 121
백성들 121
분노 121
세트 121
실내 121
언젠가 121
외지 121
정확히 121
증@@ 121
측은 121
합리적 121
홍콩 121
나는 120
느리 120
단단히 120
매달 120
생물 120
선언 120
수건 120
실종 120
잡지 120
조그맣 120
지속 120
진주 120
차갑 120
추천 120
충분 120
감동 119
관광 119
극장 119
끊이 119
나날 119
등록 119
물가 119
부엌 119
브랜드 119
비롯 119
상호 119
손님들 119
손실 119
신랑 119
액 119
었@@ 119
영토 119
작전 119
장군 119
절반 119
접근 119
좌우 119
지난달 119
진보 119
체력 119
취재 119
통일 119
거든 118
구역 118
귀찮 118
꾸리 118
대표적 118
더@@ 118
똑똑하 118
선명 118
숫자 118
엄하 118
욕심 118
접시 118
지붕 118
피아노 118
1위 117
강도 117
건드리 117
날카롭 117
닭 117
르@@ 117
분하 117
불행 117
쓸데없 117
엔진 117
요금 117
장래 117
정상적 117
짚 117
합의 117
환@@ 117
가뭄 116
감각 116
경쟁력 116
궁금 116
기본적 116
누@@ 116
대규모 116
면적 116
별@@ 116
부하 116
신용 116
악@@ 116
어야겠다 116
어쨌든 116
었나 116
재난 116
정복 116
집행 116
충돌 116
평@@ 116
풍@@ 116
30 115
가짜 115
각국 115
간장 115
갈@@ 115
내세우 115
늦추 115
률 115
미국은 115
범위 115
소통 115
스승 115
승 115
어리석 115
어선 115
에겐 115
오직 115
요인 115
월@@ 115
이리 115
잔@@ 115
적극 115
탈 115
평등 115
핑계 115
확신 115
간단 114
검@@ 114
고용 114
다스리 114
답답 114
라인 114
며느리 114
밖에도 114
분쟁 114
신세 114
열매 114
으라 114
일상 114
질서 114
찬성 114
판@@ 114
편견 114
학원 114
휴대전화 114
각지 113
겁 113
경비 113
꽃@@ 113
대사관 113
상실 113
심지어 113
안타깝 113
압력 113
역사적 113
옥@@ 113
외국어 113
외국인 113
운@@ 113
원숭이 113
음식점 113
의존 113
자국 113
조리 113
지대 113
체결 113
터뜨리 113
테니스 113
튀 113
거실 112
겠느냐 112
고하 112
그림자 112
기온 112
남동생 112
논쟁 112
님 112
둘러싸 112
막대 112
맹@@ 112
머무르 112
생존 112
서적 112
안심 112
억제 112
연설 112
완@@ 112
요즈음 112
유출 112
최대한 112
팔@@ 112
회원 112
고전 111
고프 111
교재 111
교체 111
논리 111
뒤@@ 111
목욕 111
문명 111
바보 111
배출 111
새기 111
스런 111
승낙 111
실적 111
심장 111
으려면 111
이행 111
조급 111
청하 111
틀림없이 111
폐@@ 111
풍조 111
활짝 111
... 110
고등학교 110
권@@ 110
깔리 110
깜짝 110
보존 110
빛나 110
사적 110
설득 110
설사 110
시끄럽 110
신비 110
어른들 110
인민 110
일요일 110
전자 110
정신적 110
정치@@ 110
제의 110
차별 110
쳐다보 110
침략 110
침착 110
한국어 110
홀로 110
확장 110
계기 109
교과서 109
농구 109
다며 109
말투 109
맞@@ 109
멋 109
밤낮 109
번호 109
변경 109
부근 109
비리 109
상상 109
술집 109
어느새 109
엉덩이 109
여인 109
입맛 109
장수 109
전면적 109
주가 109
주방 109
천하 109
체육 109
체포 109
최초 109
추측 109
콩 109
탁월 109
글@@ 108
김치 108
디 108
만일 108
맛보 108
머리카락 108
몫 108
반찬 108
본 108
생생하 108
서양 108
소송 108
쓸 108
영역 108
이마 108
제법 108
채@@ 108
총명 108
토지 108
퇴근 108
합@@ 108
헤아리 108
홍@@ 108
.... 107
광 107
깃발 107
꼬리 107
꽂 107
뇌물 107
달래 107
당신들 107
대처 107
댁 107
도구 107
도중 107
동쪽 107
되@@ 107
비유 107
비율 107
소란 107
숙이 107
슬 107
양측 107
워낙 107
이라크 107
재정 107
적어도 107
정비 107
촌 107
테러 107
토 107
한계 107
허물 107
힘껏 107
4년 106
강의 106
경기장 106
경력 106
그리움 106
기둥 106
달걀 106
마약 106
메우 106
명단 106
아다가 106
애정 106
위엔 106
은혜 106
전시회 106
접대 106
초등학교 106
투입 106
헛되 106
9월 105
결합 105
고속도로 105
공식 105
공중 105
관객 105
기자들 105
다운 105
령 105
명품 105
뭉치 105
방울 105
부처 105
빼앗 105
소모 105
소장 105
아름다움 105
아이템 105
억 105
올바르 105
요새 105
위험한 105
이자 105
협회 105
혜택 105
황제 105
흙 105
감싸 104
과도 104
균형 104
더러 104
도망가 104
두부 104
마주 104
만이 104
바둑 104
발굴 104
불길 104
뿐만 104
세차 104
수립 104
시체 104
아는 104
었었다 104
연합 104
월 104
이별 104
인격 104
자산 104
저축 104
전통적 104
중국@@ 104
지점 104
퍼@@ 104
햇살 104
확 104
황금 104
겠지만 103
곡식 103
관객들 103
구르 103
까다롭 103
단점 103
담@@ 103
마라톤 103
명확 103
미끄러지 103
벗기 103
빈곤 103
사탕 103
선진국 103
선호 103
소홀히 103
소화 103
신념 103
실례 103
이거 103
이리저리 103
자본 103
정력 103
관중들 102
끼리 102
똑같 102
맞서 102
모순 102
무게 102
벌@@ 102
색상 102
씌우 102
아면 102
야구 102
었니 102
여지 102
정치권 102
제재 102
착용 102
출입 102
푼 102
학위 102
환상 102
건의 101
국가@@ 101
기상 101
기타 101
당기 101
대략 101
되찾 101
둘째 101
리었다 101
먹@@ 101
문화@@ 101
바로잡 101
봉투 101
분배 101
불평 101
빈@@ 101
사소한 101
사실상 101
생활@@ 101
소매 101
솥 101
수상 101
신문사 101
어둠 101
여당 101
여성들 101
오토바이 101
욕망 101
일어서 101
저렇 101
젓가락 101
조용 101
초대 101
파티 101
폭발 101
한숨 101
항 101
훼손 101
구별 100
금융 100
기한 100
긴급 100
길이 100
꾸준히 100
나르 100
녀 100
닮 100
대체로 100
메@@ 100
무조건 100
범@@ 100
벽돌 100
부딪히 100
불빛 100
서쪽 100
설탕 100
솔직히 100
수정 100
신기 100
신제품 100
엄금 100
에이 100
연못 100
예외 100
으@@ 100
의도 100
장부 100
즐거움 100
취급 100
카 100
패@@ 100
휘두르 100
흥 100
곡@@ 99
랍니다 99
민준 99
반짝이 99
보증 99
생각나 99
성숙 99
시ㅂ니다 99
식구 99
앞뒤 99
양해 99
원리 99
유물 99
이라도 99
인형 99
일치 99
자연@@ 99
전적 99
주최 99
친척 99
칠하 99
케이크 99
크@@ 99
한가 99
형사 99
100@@ 98
19@@ 98
강연 98
거라 98
거품 98
계단 98
고의 98
국면 98
굶 98
극@@ 98
금메달 98
기차역 98
꺼지 98
눈썹 98
늘리 98
동지 98
똥@@ 98
무장 98
밀가루 98
발음 98
법안 98
본인 98
사양 98
서예 98
선두 98
소홀 98
아이@@ 98
안전 98
여섯 98
영상 98
이내 98
이념 98
잘나 98
타인 98
탈@@ 98
한층 98
흥미 98
8 97
8월 97
가량 97
감상 97
개정 97
광경 97
기부 97
대대적 97
들르 97
매체 97
민 97
민주주의 97
발급 97
배제 97
베개 97
병사 97
부족한 97
사리 97
석탄 97
손톱 97
수속 97
아주머니 97
언덕 97
연이 97
을수록 97
일생 97
정면 97
존경 97
중소기업 97
짐작 97
짜리 97
측면 97
필@@ 97
핸드폰 97
향@@ 97
혹은 97
화장 97
6월 96
결승전 96
과학적 96
단정 96
라며 96
마찰 96
멍하 96
모범 96
무늬 96
믿음 96
번@@ 96
베풀 96
보편적 96
부두 96
부산 96
붙잡 96
생동감 96
성사 96
수비 96
시고 96
어지럽 96
언급 96
연하 96
영원 96
위성 96
으러 96
이래 96
일관 96
전선 96
전제 96
접어들 96
주관 96
타협 96
풍 96
현명 96
희@@ 96
감시 95
개설 95
건네 95
결정적 95
금액 95
나뭇가지 95
넓히 95
농산물 95
당부 95
당황 95
미터 95
받치 95
사격 95
사들 95
선박 95
섭취 95
소포 95
신선 95
신선한 95
아고 95
업적 95
역량 95
유치 95
일곱 95
전문적 95
접촉 95
조작 95
지표 95
충분한 95
통화 95
협정 95
5월 94
광범위 94
담그 94
셨습니다 94
안팎 94
알아듣 94
오리 94
왕왕 94
우울 94
저장 94
적시 94
점잖 94
정직 94
쭉 94
책임자 94
최종 94
추석 94
클럽 94
턱 94
특수 94
페이지 94
풍습 94
하락 94
핵 94
행 94
형@@ 94
급증 93
깨끗이 93
네@@ 93
논@@ 93
다행히 93
달성 93
대체 93
모욕 93
무렵 93
발사 93
별도 93
보유 93
봉사 93
상가 93
성공적 93
오차 93
용돈 93
이야 93
잇따르 93
재촉 93
제멋대로 93
종목 93
지배 93
철수 93
축@@ 93
출판 93
충@@ 93
침해 93
파고들 93
프@@ 93
헤매 93
강력 92
구축 92
기하 92
깔끔 92
껍질 92
놀이 92
느낌 92
도무지 92
도박 92
두루 92
디지털 92
물결 92
바늘 92
순수 92
시ㅂ니까 92
신용카드 92
실질적 92
아동 92
염려 92
이른바 92
일정한 92
일제 92
접수 92
정보@@ 92
종업원 92
중대한 92
직면 92
직위 92
참@@ 92
처녀 92
탄생 92
표면 92
표준 92
항의 92
3월 91
50 91
까닭 91
난처 91
당당 91
도달 91
러시아 91
만두 91
무덥 91
부탁드리 91
북쪽 91
아르바이트 91
외우 91
원한 91
으로만 91
응시 91
인터뷰 91
잇달 91
정지 91
정치인 91
죽@@ 91
증세 91
집안일 91
창조 91
청소년들 91
침@@ 91
행하 91
활약 91
가라앉 90
계란 90
근본적 90
낙@@ 90
냉정 90
노릇 90
노출 90
대선 90
되돌 90
락 90
마감 90
법정 90
불교 90
비비 90
빠뜨리 90
산소 90
상금 90
소비자들 90
쇼 90
순식간 90
양복 90
온@@ 90
유일한 90
의문 90
인근 90
인체 90
자루 90
저런 90
정세 90
채택 90
칸 90
텐데 90
한미 90
흔적 90
7월 89
구호 89
깨뜨리 89
는@@ 89
당분간 89
대폭 89
독자 89
레 89
리라 89
못되 89
묘 89
반갑 89
번영 89
보완 89
붐비 89
사납 89
삼성 89
속이 89
솔직 89
숙@@ 89
시멘트 89
쓸쓸 89
엄격히 89
외롭 89
위대한 89
이성 89
익숙 89
재물 89
전술 89
지난날 89
지하 89
충실 89
할인 89
18@@ 88
7 88
객 88
규율 88
긁 88
금속 88
기색 88
까@@ 88
꿈꾸 88
끼우 88
날@@ 88
동영상 88
마음씨 88
머릿속 88
북방 88
세탁 88
시집 88
어쩌면 88
영감 88
육성 88
육지 88
응하 88
저자 88
중학교 88
집착 88
착실 88
처분 88
측정 88
탁구 88
탕@@ 88
파랗 88
항구 88
해방 88
화면 88
회전 88
200@@ 87
30@@ 87
갇히 87
감옥 87
교묘 87
꼼꼼하 87
남방 87
노트북 87
려@@ 87
맥 87
무사히 87
삼키 87
섞이 87
소원 87
시야 87
쌍둥이 87
어차피 87
오가 87
왼쪽 87
즉각 87
지민 87
타격 87
투명 87
트이 87
페인트 87
푸@@ 87
2명 86
견@@ 86
관건 86
느라고 86
닳 86
도자 86
돋보이 86
두드러지 86
배추 86
비준 86
앞당기 86
양성 86
영웅 86
의외 86
자발적 86
전파 86
정경 86
좀처럼 86
종일 86
지우 86
진입 86
진작 86
체험 86
추가 86
20년 85
30분 85
공평 85
관계자 85
기질 85
녹음 85
다이아몬드 85
대다수 85
대충 85
돈@@ 85
매주 85
미군 85
민주 85
반발 85
병력 85
부채 85
사고방식 85
생계 85
안전@@ 85
얼@@ 85
염@@ 85
옷감 85
외투 85
원피스 85
인질 85
주도 85
준@@ 85
지체 85
착수 85
최소한 85
출연 85
킬로미터 85
탄@@ 85
터널 85
통증 85
패션 85
퍼붓 85
풍격 85
하지 85
학설 85
회계 85
50@@ 84
가루 84
가축 84
개미 84
견제 84
굴복 84
그분 84
근면 84
단독 84
동전 84
마루 84
만을 84
문예 84
범하 84
보살피 84
상대적 84
세련 84
쇠 84
시인 84
식민지 84
의학 84
자니 84
장난감 84
전설 84
지속적 84
착@@ 84
채널 84
탐구 84
토끼 84
하찮 84
호랑 84
3개월 83
3명 83
감염 83
갑작 83
갖가지 83
격려 83
고소 83
구석 83
굽히 83
난관 83
다듬 83
대립 83
덧붙이 83
랑@@ 83
모험 83
범 83
법칙 83
색@@ 83
석방 83
순위 83
승객 83
아이디어 83
앙@@ 83
용의자 83
위원장 83
임하 83
적발 83
정기 83
중독 83
직무 83
집회 83
짜증 83
채권 83
출산 83
택하 83
터@@ 83
포도 83
하고는 83
허위 83
혈@@ 83
경고 82
고백 82
국수 82
나무라 82
날씬 82
대학생 82
둥글 82
란@@ 82
말다툼 82
몰@@ 82
바닷가 82
발효 82
밧줄 82
변명 82
복도 82
붕괴 82
사치 82
수도 82
술@@ 82
스치 82
어린이들 82
우주@@ 82
원수 82
유도 82
음료 82
이것저것 82
이랑 82
입원 82
자면 82
잠자 82
징수 82
출국 82
충고 82
탄 82
패턴 82
협@@ 82
4월 81
거스르 81
과시 81
구단 81
국물 81
근로자 81
끌리 81
내다보 81
단위 81
딱딱하 81
러@@ 81
로만 81
변호사 81
본격적 81
비우 81
사흘 81
세포 81
심정 81
에서부터 81
올@@ 81
용모 81
우습 81
입사 81
입히 81
저리 81
좌@@ 81
좌절 81
주권 81
초과 81
초콜릿 81
학대 81
학업 81
9 80
개편 80
게다가 80
근대 80
금하 80
동화 80
마주치 80
메시지 80
모래 80
문물 80
보고서 80
부위 80
부터는 80
서서히 80
선진 80
소나무 80
수습 80
스마트폰 80
언@@ 80
엘리베이터 80
연간 80
예약 80
이때 80
전반 80
접@@ 80
정착 80
제목 80
지난번 80
처@@ 80
출시 80
티셔츠 80
한강 80
한지 80
홍보 80
화장품 80
화학 80
0 79
13@@ 79
1일 79
거르 79
곤충 79
괴@@ 79
국정 79
근본 79
금리 79
긴 79
꺼리 79
달빛 79
대가 79
대지 79
도장 79
동기 79
되풀이 79
따@@ 79
루 79
매력적 79
맴돌 79
물리치 79
보석 79
북경 79
비행 79
서리 79
와@@ 79
유독 79
인권 79
자제 79
적자 79
전후 79
제발 79
치안 79
투수 79
표@@ 79
걸@@ 78
겠네 78
격차 78
긋 78
길가 78
꾼 78
달려들 78
대비해 78
대학교 78
대한민국 78
데@@ 78
도망치 78
떨치 78
머물 78
미끄럽 78
밀접 78
발걸음 78
발목 78
방영 78
부과 78
불황 78
비누 78
뽐내 78
선배 78
설마 78
성향 78
속임수 78
시어 78
신입생 78
안보 78
여름철 78
요란 78
울@@ 78
응원 78
일처리 78
잠자리 78
저항 78
정통 78
제사 78
조카 78
종합 78
창업 78
총장 78
칠@@ 78
키@@ 78
토양 78
통계 78
파리 78
퍼지 78
해지 78
검 77
결승 77
고무 77
긍정적 77
노인들 77
다정 77
대개 77
도리어 77
모처럼 77
묘@@ 77
부합 77
식히 77
었을까 77
엎드리 77
여자들 77
연구@@ 77
연예인 77
열풍 77
오로지 77
유머 77
유형 77
인사들 77
인쇄 77
일일 77
장마 77
접하 77
정월 77
취@@ 77
타이어 77
가꾸 76
가사 76
겠@@ 76
계약서 76
공적 76
공헌 76
관광객 76
꼽 76
낙관적 76
넘어서 76
다가가 76
다수 76
당초 76
도모 76
로도 76
말하기 76
몰려들 76
바나나 76
배열 76
브@@ 76
사로잡 76
상당한 76
서술 76
손짓 76
수량 76
시력 76
심혈 76
언행 76
옥 76
온라인 76
의상 76
인사@@ 76
인연 76
일깨우 76
일찍이 76
자살 76
자존심 76
전원 76
정체 76
조차도 76
지방@@ 76
총알 76
칠 76
통치 76
파손 76
패배 76
폭우 76
풀@@ 76
학계 76
할@@ 76
함@@ 76
함정 76
회상 76
효율 76
4명 75
계층 75
교정 75
교회 75
귀국 75
나뉘 75
납@@ 75
너@@ 75
노예 75
능@@ 75
단호 75
당선 75
들추 75
료 75
매끄럽 75
맺히 75
반지 75
배달 75
범행 75
복사 75
분리 75
산문 75
삼림 75
서울@@ 75
쇠@@ 75
시들 75
아까 75
온화 75
운반 75
이달 75
이라이 75
자식들 75
재수 75
저버리 75
적진 75
주름 75
주유소 75
진단 75
활기 75
25@@ 74
개입 74
고비 74
고상 74
구절 74
기반 74
꼽히 74
노선 74
다름없 74
다행 74
덕@@ 74
돋 74
득@@ 74
록 74
림 74
매사 74
멸망 74
무력 74
무성 74
바람직하 74
배고프 74
베@@ 74
벽@@ 74
복권 74
사안 74
사직 74
생산@@ 74
셋 74
송이 74
스키 74
스타들 74
실은 74
액체 74
여자친구 74
외면 74
유능 74
육 74
이요 74
자질 74
질환 74
철학 74
특성 74
학력 74
한결 74
합법적 74
혁신 74
휴대폰 74
흔하 74
흠뻑 74
희미 74
각오 73
결 73
구제 73
기개 73
노사 73
더듬 73
데이트 73
돌이키 73
락@@ 73
리그 73
멋있 73
복용 73
부작용 73
부지런히 73
북한 73
비상 73
서이 73
소프트웨어 73
습격 73
승용차 73
시위대 73
안목 73
액수 73
야채 73
어머님 73
억압 73
연대 73
원화 73
정서 73
졸@@ 73
중점 73
출동 73
탈락 73
터지 73
판정 73
학년 73
한두 73
항목 73
30년 72
3일 72
40 72
가시 72
계곡 72
고발 72
골프 72
구상 72
귀중 72
그러면 72
그르치 72
금융@@ 72
기꺼이 72
꾸짖 72
낚시 72
냉@@ 72
녹이 72
단장 72
당사자 72
대전 72
도저히 72
두텁 72
리ㄴ 72
마땅 72
모금 72
문득 72
문지르 72
번지 72
선고 72
세계@@ 72
소박 72
수백 72
씹 72
아이돌 72
아프리카 72
양념 72
얕 72
었으므로 72
엉뚱 72
은은 72
은퇴 72
일류 72
일할 72
일해 72
입시 72
중앙@@ 72
지껄이 72
지루 72
차단 72
첫째 72
취직 72
코치 72
큰@@ 72
탁 72
틀림없 72
하고도 72
-@@ 71
간직 71
결말 71
길@@ 71
느니 71
는군 71
대목 71
대열 71
더이상 71
둥@@ 71
말썽 71
맹렬 71
맹목적 71
바짝 71
보상 71
사원들 71
세균 71
신사 71
싱싱 71
쓸모 71
에서만 71
열렬한 71
왕래 71
위주 71
유엔 71
작물 71
조그마하 71
죄인 71
지휘 71
참신 71
하천 71
항해 71
헤@@ 71
횡령 71
휴일 71
10월 70
11@@ 70
15@@ 70
40@@ 70
강좌 70
건립 70
결함 70
경지 70
공약 70
깨우 70
나름 70
다물 70
대들 70
동포 70
두려움 70
든든 70
등급 70
떠들썩하 70
뚱뚱하 70
뛰어다니 70
맨@@ 70
면모 70
무릅쓰 70
무지개 70
묶이 70
벌레 70
부지런 70
비평 70
상대편 70
수분 70
습@@ 70
앞날 70
에까지 70
연구소 70
영양 70
원만 70
위축 70
일등 70
일시적 70
조만간 70
즈@@ 70
지극히 70
진귀 70
첨단 70
초빙 70
춤추 70
타오르 70
탓하 70
텐트 70
파산 70
폭@@ 70
회피 70
ㄴ다며 69
가로막 69
각기 69
게재 69
고속 69
고수 69
그러하 69
끊기 69
나란히 69
농 69
누설 69
느@@ 69
더미 69
덮이 69
동굴 69
띄우 69
링 69
면접 69
배상 69
배우들 69
병세 69
복구 69
볼@@ 69
부수 69
부유 69
빙 69
성냥 69
솜 69
수송 69
수치 69
신속 69
쌍 69
여태껏 69
요원 69
워@@ 69
은가 69
의논 69
재앙 69
전용 69
전자@@ 69
주전자 69
지탱 69
짐승 69
쫓기 69
찍히 69
천장 69
천지 69
최소 69
추적 69
통합 69
풍자 69
피해자 69
한눈 69
혼@@ 69
가늘 68
가동 68
가위 68
개월 68
겹치 68
고사 68
곰 68
규@@ 68
그늘 68
기선 68
녹@@ 68
단단 68
답@@ 68
도덕 68
뚜껑 68
라니 68
류@@ 68
마음껏 68
만회 68
뭔가 68
빙@@ 68
삐@@ 68
사소 68
상쾌 68
서가 68
승인 68
시신 68
식탁 68
신고 68
싸@@ 68
쏠리 68
쑤 68
알아차리 68
압@@ 68
야근 68
야기 68
영예 68
우표 68
의료 68
의욕 68
이완 68
인내 68
입금 68
자유@@ 68
장기간 68
재빨리 68
전등 68
절대적 68
정당한 68
조르 68
조명 68
즉 68
창밖 68
천국 68
최후 68
치솟 68
침범 68
하구 68
하길 68
형세 68
호의 68
훑 68
간절히 67
견 67
경주 67
고려 67
관람 67
구실 67
궁@@ 67
기지 67
내막 67
독자들 67
무례 67
무한 67
밤늦 67
밤하늘 67
번쩍 67
복장 67
부주의 67
상담 67
색채 67
성행 67
세심 67
섹시 67
소속 67
손발 67
수시로 67
슈퍼마켓 67
습기 67
십@@ 67
싱겁 67
여덟 67
우물 67
우연히 67
육상 67
의원들 67
자기@@ 67
자동 67
적당히 67
전면 67
즈 67
직전 67
착 67
처방 67
최 67
취 67
카페 67
클래식 67
타이르 67
탄탄 67
팬 67
필 67
하마터면 67
화나 67
5일 66
7년 66
TV 66
가공 66
가닥 66
간섭 66
거꾸로 66
결제 66
경로 66
경솔 66
관리@@ 66
교양 66
그만하 66
기술@@ 66
기풍 66
뇌 66
대륙 66
도덕적 66
뒤떨어지 66
등불 66
딸아이 66
땅콩 66
똑똑히 66
로써 66
마음먹 66
모방 66
몸집 66
못@@ 66
묵묵히 66
바가지 66
보잘것없 66
본질 66
성취 66
소수 66
시지 66
어린애 66
엄@@ 66
업체들 66
엔@@ 66
역사상 66
열악 66
음료수 66
응@@ 66
이웃집 66
인들 66
일체 66
있@@ 66
잔소리 66
장미 66
장차 66
전반적 66
전투 66
정답 66
정박 66
제정 66
제치 66
주류 66
텅 66
퍼뜨리 66
품종 66
한평생 66
해안 66
행정@@ 66
호되 66
호응 66
회의장 66
흠 66
히@@ 66
12월 65
1억 65
20세 65
가들 65
간신히 65
게@@ 65
게시판 65
괜히 65
국장 65
군인 65
그토록 65
글로벌 65
꼼짝 65
도처 65
때때로 65
리ㄴ다 65
마케팅 65
막내 65
목걸이 65
미련 65
바깥 65
반장 65
비결 65
사법 65
서점 65
성인 65
손질 65
수수 65
시세 65
아네 65
암 65
어째서 65
연회 65
위력 65
이륙 65
이외 65
이쪽 65
일제히 65
전체적 65
좇 65
주년 65
진동 65
청년들 65
출세 65
충성 65
칭@@ 65
코끼리 65
타파 65
프 65
학자들 65
한꺼번에 65
했@@ 65
확립 65
휩싸이 65
힘차 65
개국 64
개발@@ 64
겨루 64
과감 64
꼬 64
꼼꼼히 64
농부 64
력@@ 64
리듬 64
모질 64
무언가 64
상세 64
상업 64
세일 64
소리치 64
손길 64
시니 64
시범 64
아니하 64
안내 64
알레르기 64
야간 64
야외 64
약물 64
연인 64
연휴 64
용품 64
우뚝 64
우의 64
운송 64
유쾌 64
이야말로 64
인심 64
일삼 64
저쪽 64
적막 64
제하 64
주력 64
직접적 64
진영 64
최신 64
축적 64
출현 64
침투 64
케 64
퇴직 64
편집 64
평평 64
폭로 64
학과 64
함께하 64
합작 64
헛@@ 64
현대@@ 64
홀 64
흡수 64
10분 63
갑@@ 63
개막 63
거론 63
결성 63
고유 63
공책 63
교활 63
극히 63
끝났다 63
낯 63
단락 63
답변 63
대조 63
대학@@ 63
둥 63
뒤섞이 63
뛰어넘 63
만연 63
물체 63
밤@@ 63
보장하 63
부친 63
분투 63
불량 63
사발 63
산뜻 63
산맥 63
설날 63
시점 63
안녕 63
약화 63
언 63
업자 63
엔이 63
요령 63
이가 63
이슬 63
입니 63
입증 63
자세한 63
장만 63
전형적 63
정기적 63
준비해 63
중지 63
지독 63
진하 63
차마 63
책@@ 63
천연 63
취득 63
큰소리 63
타결 63
편성 63
폐쇄 63
한잔 63
한차례 63
6시 62
간판 62
개업 62
거주 62
경영@@ 62
골고루 62
공공 62
관측 62
교외 62
구리 62
궁리 62
규명 62
기금 62
나무들 62
나뭇잎 62
네트워크 62
능하 62
대중들 62
덮치 62
독일 62
돌아서 62
만원 62
무술 62
복습 62
봄@@ 62
분류 62
삭제 62
선수 62
설령 62
섬 62
성하 62
수염 62
신앙 62
신입 62
악기 62
약탈 62
얽매이 62
업신여기 62
엉망 62
연료 62
유감 62
으리어는 62
의류 62
의회 62
인색 62
인식 62
일시 62
장학금 62
전국적 62
정신@@ 62
정자 62
주도하 62
착륙 62
취지 62
침 62
하룻밤 62
함유 62
핵@@ 62
16@@ 61
3개 61
강렬한 61
고난 61
구성원 61
굳이 61
꼬@@ 61
꼬마 61
끝없이 61
납부 61
내보내 61
냄비 61
달콤한 61
담장 61
답니다 61
대원 61
되돌리 61
둔하 61
또다시 61
래@@ 61
랴 61
로의 61
면제 61
모색 61
목재 61
무너뜨리 61
미움 61
방대 61
방어 61
복원 61
부도 61
부진 61
비단 61
비바람 61
빼앗기 61
사생활 61
산길 61
삼가 61
서투르 61
성미 61
손바닥 61
수도권 61
슈@@ 61
시급 61
시중 61
시청 61
않았다 61
어휘 61
억지 61
여태 61
오류 61
을@@ 61
임대 61
저절로 61
전도 61
전세 61
전염병 61
조용한 61
집값 61
처량 61
초반 61
칠판 61
코트 61
탄복 61
특별@@ 61
파일 61
품목 61
학술 61
한껏 61
활력 61
17@@ 60
1명 60
2위 60
A 60
개척 60
겉@@ 60
국가들 60
기량 60
기획 60
남자들 60
남자친구 60
넋 60
다짐 60
단번 60
대로이 60
독재 60
로서는 60
룩 60
맞은편 60
매진 60
멍청 60
모여들 60
목적지 60
무더기 60
무역@@ 60
묵@@ 60
문서 60
민심 60
민주화 60
방송@@ 60
번창 60
상당 60
샹하이 60
서민 60
선출 60
세수 60
소유 60
소중히 60
안건 60
안부 60
얹 60
업@@ 60
여야 60
연루 60
열거 60
운용 60
운전사 60
운전자 60
위생 60
유리한 60
유전자 60
으 60
응당 60
재해 60
전보 60
정취 60
주차 60
중대 60
징@@ 60
차분 60
찬물 60
찰@@ 60
청산 60
추궁 60
코스 60
콩@@ 60
퇴@@ 60
합격자 60
험하 60
흩 60
흩어지 60
간단히 59
고장나 59
과학@@ 59
교만 59
그런대 59
그지없 59
급여 59
기숙사 59
기장 59
낙엽 59
날뛰 59
노랫소리 59
단호히 59
대나무 59
덩어리 59
동력 59
동맹 59
똑같이 59
면화 59
무덤 59
민감한 59
분발 59
브 59
상류 59
상해 59
수천 59
승객들 59
심화 59
아구나 59
안기 59
안주 59
엄숙 59
연맹 59
연예 59
왕자 59
용어 59
원활 59
유창 59
이득 59
작별 59
잠그 59
재킷 59
전날 59
정전 59
제주 59
조항 59
주저앉 59
줄거리 59
지명 59
진학 59
체조 59
쳐들 59
초조 59
치장 59
탁@@ 59
통보 59
투항 59
학비 59
한가운데 59
한국인 59
한글 59
한복 59
활성화 59
회화 59
효력 59
5분 58
8년 58
고되 58
국경 58
국민@@ 58
군사@@ 58
금세 58
기상청 58
누명 58
는커녕 58
단서 58
단순히 58
뜻밖 58
림@@ 58
만리장성 58
말없이 58
맞히 58
맥@@ 58
머@@ 58
미처 58
바람@@ 58
발송 58
보조 58
불꽃 58
빈번 58
생태계 58
세밀 58
소질 58
송 58
신기록 58
실마리 58
실정 58
아이스크림 58
야단 58
영향력 58
예절 58
옥수수 58
운동@@ 58
울타리 58
인가 58
인용 58
일손 58
자수 58
전진 58
접속 58
정교 58
쪼개 58
척@@ 58
총선 58
축소 58
토요일 58
품@@ 58
품위 58
해롭 58
해양 58
행운 58
헐 58
화분 58
1등 57
2월 57
3분 57
가로 57
가옥 57
간절 57
개봉 57
개의치 57
거느리 57
거슬리 57
건강@@ 57
건축@@ 57
건축물 57
계급 57
공자 57
궁 57
극도 57
넉넉 57
농가 57
더불 57
떠돌 57
레이스 57
렴 57
만물 57
무용 57
미신 57
배역 57
부쩍 57
불의 57
빗물 57
사유 57
사찰 57
삼십 57
상영 57
상환 57
소독 57
쇠고기 57
수위 57
시사 57
신축성 57
실속 57
쑤시 57
아우르 57
안색 57
어떡하 57
어미 57
어쩐지 57
예민 57
예보 57
우세 57
우호적 57
유전 57
윤@@ 57
음악@@ 57
이롭 57
전기@@ 57
초원 57
캐릭터 57
탐사 57
토마토 57
투자자 57
페@@ 57
폭탄 57
표지 57
해명 57
혹 57
홈페이지 57
환자들 57
4개 56
감동적 56
개인@@ 56
걸핏하면 56
계좌 56
고시 56
과학자 56
관습 56
귀신 56
귤 56
그러자 56
기일 56
답안 56
당대 56
대장 56
대표팀 56
독촉 56
려던 56
로이 56
롱@@ 56
망가지 56
무더위 56
민생 56
바닷물 56
반하 56
배부르 56
보호@@ 56
분열 56
분포 56
불합격 56
뽑히 56
뿜 56
사기꾼 56
사업@@ 56
상급 56
샤@@ 56
석양 56
성품 56
수록 56
수중 56
순환 56
슬@@ 56
어째 56
억누르 56
었다며 56
었죠 56
예금 56
용납 56
윤 56
윤곽 56
이해관계 56
입력 56
입찰 56
저작 56
전사 56
조합 56
주시길 56
주택@@ 56
줄@@ 56
질책 56
찐빵 56
착오 56
출범 56
침입 56
캐@@ 56
커튼 56
태 56
판매@@ 56
폭풍 56
프로@@ 56
항공 56
해치우 56
헤치 56
흉악 56
5명 55
거닐 55
거액 55
경극 55
계열 55
교대 55
교수님 55
굴@@ 55
기름지 55
길거리 55
날마다 55
내걸 55
녹색 55
뇌@@ 55
눈짓 55
도도 55
땅@@ 55
라이@@ 55
량@@ 55
무수한 55
문학@@ 55
미국@@ 55
민감 55
번거 55
본사 55
부각 55
부서지 55
부정부패 55
비자 55
비타민 55
사퇴 55
선거@@ 55
선율 55
손목시계 55
수명 55
시겠습니까 55
시리즈 55
실업 55
심심 55
쌍@@ 55
쑥 55
압축 55
어때 55
어서ㄴ 55
에나 55
연령 55
영문 55
예리 55
완공 55
외교@@ 55
외국@@ 55
웅장 55
원조 55
원천 55
윗@@ 55
융통성 55
으시@@ 55
의거 55
이식 55
일찌감치 55
자만 55
자자 55
재단 55
전장 55
절벽 55
제압 55
조립 55
조수 55
주소 55
진료 55
진압 55
찌개 55
창출 55
출간 55
폭포 55
필연적 55
하나씩 55
허 55
화폐 55
1월 54
60@@ 54
가이드 54
감사드리 54
개통 54
겨@@ 54
견지 54
곧장 54
교통@@ 54
기법 54
기소 54
기업@@ 54
낙후 54
눈초리 54
단숨에 54
닫히 54
대학생들 54
동물원 54
동반 54
뒤집히 54
들여다보 54
떠올리 54
마중 54
막론 54
망설이 54
목격 54
몽땅 54
문제점 54
문화유산 54
바삐 54
반죽 54
발길 54
발령 54
방치 54
배송 54
배정 54
배척 54
변신 54
보답 54
보전 54
부임 54
부추기 54
비즈니스 54
빙빙 54
산속 54
새것 54
새해 54
설정 54
속박 54
속속 54
수당 54
수해 54
실로 54
심리적 54
애석 54
역전 54
연관 54
왕림 54
유용 54
음력 54
잡담 54
장가 54
전신 54
조류 54
주석 54
줄줄 54
증언 54
지장 54
진화 54
집집 54
철강 54
체중 54
추락 54
특색 54
특유 54
헌 54
헤 54
혈압 54
효@@ 54
훈@@ 54
- 53
200 53
가물 53
가져다주 53
개별 53
개조 53
격렬한 53
경시 53
고교 53
골치 53
공로 53
공용 53
공짜 53
과학기술 53
그물 53
나무@@ 53
노트 53
단추 53
대학원 53
덧@@ 53
동요 53
둘레 53
때우 53
마누라 53
말씀드리 53
몸@@ 53
무상 53
무지 53
박차 53
발명 53
부정행위 53
비밀번호 53
삼성전자 53
상기 53
샤워 53
선포 53
설레 53
성립 53
셨어 53
소집 53
소풍 53
수호 53
스무 53
시겠어 53
시집가 53
식초 53
씨@@ 53
씨름 53
아홉 53
앞장서 53
애인 53
었는가 53
오락 53
오래전 53
원장 53
유발 53
음식물 53
이중 53
자태 53
장려 53
적히 53
정돈 53
제조 53
족@@ 53
증권 53
지사 53
지수 53
진흙 53
집주인 53
집합 53
첩 53
촌@@ 53
킬로그램 53
타자 53
테이프 53
투자하 53
파이프 53
한순간 53
한자리 53
향후 53
협박 53
호화 53
화상 53
활기차 53
회사들 53
획득 53
휴@@ 53
15 52
감돌 52
객@@ 52
건지 52
검거 52
겠나 52
결승점 52
고문 52
곤경 52
공연히 52
과도한 52
과외 52
굉장히 52
구사 52
국왕 52
기밀 52
기습 52
기이 52
깨달았다 52
깨물 52
꽂히 52
꾸중 52
꿀 52
냐는 52
더욱더 52
드나들 52
딱지 52
떠@@ 52
명분 52
모함 52
몰아치 52
문구 52
배양 52
법규 52
별다르 52
보름 52
볶음 52
본보 52
뺨 52
사명 52
사연 52
사자 52
산보 52
생각지도 52
성화 52
수다 52
수면 52
스트 52
신나 52
아라 52
아버님 52
안배 52
옅 52
왜냐하면 52
욕구 52
웅@@ 52
원들 52
원시 52
위엄 52
유달리 52
의장 52
작동 52
장단 52
전염 52
제자 52
주시 52
지도부 52
초점 52
촛불 52
출판사 52
탐@@ 52
테@@ 52
통장 52
판사 52
하다 52
하물며 52
헌@@ 52
홍 52
화살 52
활@@ 52
후보자 52
훈장 52
흡연 52
2개 51
500 51
6명 51
가까스로 51
가슴속 51
갈증 51
강경 51
걔 51
검색 51
경선 51
고객들 51
공고 51
교역 51
국어 51
군데 51
군은 51
극심한 51
급격히 51
기왕 51
까 51
나마 51
느슨 51
닥@@ 51
도발 51
들뜨 51
디디 51
마냥 51
망정 51
매매 51
매출 51
문화적 51
물들이 51
민첩 51
발전소 51
불쌍 51
불필요한 51
비웃 51
산물 51
상당수 51
상인 51
생태 51
서민들 51
성능 51
소감 51
수색 51
수양 51
수줍 51
수표 51
숟가락 51
스님 51
시어야 51
식구들 51
신형 51
실패한 51
얽히 51
엇갈리 51
었느냐 51
여건 51
영화@@ 51
위해 51
의료@@ 51
이는 51
이제야 51
인내심 51
인파 51
일상적 51
임 51
자질구레 51
정밀 51
주간 51
주체 51
증후군 51
지배하 51
지주 51
쬐 51
추모 51
커@@ 51
켜 51
평원 51
폰 51
핏 51
항공기 51
해변 51
해체 51
환경@@ 51
흰색 51
14@@ 50
3대 50
3시 50
6개월 50
간주 50
감안 50
감탄 50
강구 50
개막식 50
건설@@ 50
경위 50
고인 50
공문 50
광활한 50
구기 50
권한 50
규정하 50
그리스 50
그윽 50
꾸@@ 50
끈기 50
논밭 50
능숙 50
달아오르 50
달콤 50
대금 50
대항 50
동양 50
떼@@ 50
려다 50
로서의 50
린@@ 50
메뉴 50
명문 50
몰두 50
몽@@ 50
물씬 50
발탁 50
비료 50
비위 50
비중 50
사용자 50
상반기 50
상의 50
샹하 50
소주 50
시련 50
실컷 50
어서다 50
었습니까 50
여자@@ 50
예선 50
요약 50
우주선 50
원료 50
응용 50
이를 50
이름나 50
인품 50
자매 50
장성 50
저기 50
저수지 50
적합한 50
젓 50
좋@@ 50
지면 50
창피 50
최고@@ 50
타당 50
탄압 50
통지 50
투자@@ 50
퍼센트 50
펀드 50
표명 50
플@@ 50
한국에서 50
한반 50
한없이 50
행렬 50
확@@ 50
후반 50
10시 49
2차 49
300 49
각별히 49
간부들 49
감축 49
강변 49
거리@@ 49
거린다 49
겨울철 49
경화 49
고루 49
고리 49
국내외 49
국제적 49
국토 49
기재 49
껴안 49
넥타이 49
단풍 49
담판 49
더군 49
뒷받침 49
등록금 49
만의 49
명칭 49
문헌 49
배우자 49
브라질 49
사로잡히 49
사료 49
생활비 49
서른 49
수도꼭지 49
수석 49
수하 49
숙 49
신장 49
엄청 49
었다니 49
에게나 49
엮 49
연계 49
연기자 49
영리 49
예술적 49
왠지 49
우편 49
윤기 49
이사회 49
일꾼 49
일반인 49
일한 49
잔디 49
전복 49
존@@ 49
주스 49
중국인 49
지폐 49
지향 49
직후 49
질기 49
질리 49
쪽@@ 49
태극기 49
퍽 49
피어오르 49
필름 49
행인 49
형님 49
환경오염 49
획 49
15일 48
21세 48
4강 48
80 48
가라앉히 48
강가 48
겠다며 48
결실 48
경사 48
고구마 48
고약 48
관직 48
구비 48
구출 48
군중들 48
그럴듯하 48
그중 48
기미 48
꾸지람 48
끔찍 48
낚 48
내외 48
노동력 48
당첨 48
대낮 48
대담 48
대안 48
데님 48
돋우 48
땅바닥 48
똥 48
르르 48
리ㅁ 48
린 48
링@@ 48
머리@@ 48
모퉁이 48
무르익 48
바구니 48
변동 48
사용@@ 48
사이버 48
서너 48
소요 48
수영장 48
순찰 48
시정 48
신상품 48
쓰레기통 48
씨앗 48
아랑곳 48
아시아@@ 48
앞다투 48
여물 48
여우 48
연상 48
예술@@ 48
와도 48
우아 48
은폐 48
음성 48
의는 48
일상생활 48
일쑤 48
장기적 48
저번 48
전담 48
점령하 48
정규직 48
조달 48
조종 48
중계 48
중동 48
질질 48
찬바람 48
참견 48
책장 48
축복 48
탐욕 48
테스트 48
통행 48
틈타 48
평상시 48
포착 48
플레이 48
핑 48
한밤중 48
현대인 48
혈액 48
화해 48
흑@@ 48
흥@@ 48
12시 47
7시 47
C@@ 47
가족@@ 47
강력한 47
개구리 47
결의 47
고기@@ 47
고서야 47
곱@@ 47
공금 47
공장장 47
권유 47
권익 47
금연 47
나돌 47
나사 47
난로 47
너그럽 47
노르 47
단절 47
대강 47
독자적 47
디테일 47
따갑 47
똑바로 47
뚝 47
마취 47
마트 47
못지않 47
무선 47
문법 47
바래 47
반박 47
범죄자 47
벼락 47
병들 47
본부 47
부당한 47
분별 47
비키 47
빛깔 47
빠@@ 47
산업@@ 47
생김새 47
생신 47
서부 47
서툴 47
성어 47
소비@@ 47
소위 47
소형 47
쇠퇴 47
시끌벅적하 47
십여 47
약품 47
양반 47
양상 47
어르신 47
얼어붙 47
여성@@ 47
연봉 47
엿 47
왕성 47
웬만하 47
윗사람 47
의뢰 47
의의 47
입국 47
잡다 47
전문@@ 47
정규 47
제주도 47
졸리 47
종자 47
주자 47
준수 47
짜@@ 47
천막 47
청사 47
체류 47
체크 47
촉촉하 47
출마 47
출석 47
측이 47
펜 47
포로 47
표창 47
핑@@ 47
하긴 47
한마음 47
행진 47
호주머니 47
홀@@ 47
화내 47
황 47
황하 47
흥행 47
흩날리 47
28@@ 46
8시 46
가산 46
간혹 46
갈망 46
강철 46
거렸다 46
결산 46
고이 46
과태료 46
관광@@ 46
국방부 46
국외 46
권세 46
그렇다면 46
꺼@@ 46
꽁꽁 46
꿇 46
꿰뚫 46
남다르 46
다음주 46
대결 46
대변 46
대표단 46
더구나 46
도약 46
동물들 46
뒷산 46
마술 46
무려 46
물러서 46
미인 46
발전@@ 46
밥@@ 46
벼르 46
보따리 46
본선 46
분주 46
붙잡히 46
산골 46
새까맣 46
생들 46
서구 46
수능 46
스커트 46
시리 46
신분증 46
실직 46
안면 46
았@@ 46
역경 46
오늘따라 46
위기 46
위장 46
유명한 46
으로서의 46
의사소통 46
이상적 46
자백 46
자재 46
재간 46
재고 46
점거 46
제복 46
조언 46
지능 46
지옥 46
질주 46
체육@@ 46
테이블 46
튀기 46
팽팽하 46
폭죽 46
필사적 46
필요성 46
하나님 46
하이@@ 46
향수 46
현실적 46
현안 46
호전 46
활 46
후배 46
흉내 46
25 45
5개 45
9명 45
가다듬 45
가문 45
가정@@ 45
강사 45
객실 45
건장 45
경멸 45
골동품 45
국적 45
국회의원 45
귀가 45
규칙적 45
균 45
그럭저럭 45
기들 45
기증 45
꼭대기 45
끝없 45
낙관 45
남짓 45
내뱉 45
논리적 45
니트 45
더럽히 45
뒤흔들 45
무관심 45
무사 45
미덕 45
밑천 45
반성 45
벼슬 45
비극 45
사나이 45
사람@@ 45
사회주의 45
수레 45
수령 45
수수께끼 45
순하 45
슈퍼 45
시어머니 45
시종 45
신중히 45
쏙 45
쓸데없이 45
아자 45
애완동물 45
액@@ 45
양도 45
어조 45
없@@ 45
었군 45
영수증 45
영화관 45
우상 45
워 45
유치원 45
으리라 45
으세요 45
음반 45
이력서 45
이민 45
인상적 45
일선 45
작자 45
잠@@ 45
장르 45
장벽 45
적잖 45
전사들 45
제약 45
조짐 45
증오 45
지팡이 45
징역 45
청구 45
충 45
타이@@ 45
타입 45
터득 45
평론 45
포위 45
폭행 45
혼인 45
화가 45
화목 45
화초 45
확충 45
훌쩍 45
10일 44
1초 44
2002년 44
24시간 44
6년 44
가락 44
갈아입 44
공동@@ 44
과실 44
교섭 44
구석구석 44
구타 44
국기 44
국정원 44
나물 44
난징 44
너라 44
노동@@ 44
달라 44
대교 44
대북 44
대외 44
대원들 44
대출금 44
도적 44
도태 44
독하 44
두어 44
뒤늦 44
뒤덮 44
뒤덮이 44
득점 44
뜰 44
려니 44
련@@ 44
망신 44
문건 44
물질적 44
밥상 44
법관 44
불우 44
블라우스 44
비관적 44
사절 44
산꼭대기 44
살찌 44
솔@@ 44
스크린 44
식욕 44
실업자 44
실용적 44
아ㅁ 44
알코올 44
암석 44
여관 44
여자아이 44
여행@@ 44
올라서 44
완료 44
유력 44
유리창 44
유익 44
으시ㄴ 44
이십 44
이왕 44
일반@@ 44
자신들 44
잘@@ 44
젊음 44
정오 44
정화 44
제국주의 44
조상들 44
존엄 44
증인 44
지상 44
진열 44
창립 44
챔피언 44
천연가스 44
촉구 44
총각 44
총소리 44
최악 44
축구팀 44
출전 44
친환경 44
커 44
콘서트 44
트집 44
파병 44
파종 44
패스 44
필수적 44
하루아침 44
합동 44
허약 44
혐오 44
확고 44
흑자 44
흥겹 44
1학년 43
2010년 43
500@@ 43
갈색 43
겁쟁이 43
겨냥 43
견고 43
겸 43
고용@@ 43
고위 43
관례 43
근래 43
기억력 43
나들이 43
낭독 43
년@@ 43
농사일 43
늦@@ 43
단조 43
당직 43
대수 43
더없이 43
떡@@ 43
뚫리 43
례 43
매섭 43
맹세 43
멀쩡 43
모친 43
몸소 43
무관 43
무죄 43
바싹 43
반전 43
보안 43
보태 43
복제 43
부상자 43
부정@@ 43
부축 43
비행장 43
사람됨 43
사위 43
사진@@ 43
사형 43
산하 43
서랍 43
서방 43
섬@@ 43
성의 43
손목 43
솟아오르 43
수사@@ 43
시원시원하 43
실상 43
아니@@ 43
앉히 43
에서나 43
연마 43
예년 43
옹@@ 43
요점 43
울음소리 43
움@@ 43
원치 43
음주 43
이대 43
이도 43
인공 43
인명 43
작정 43
장마철 43
전념 43
전람회 43
절실 43
절제 43
정부@@ 43
정치인들 43
제창 43
조회 43
중요성 43
증시 43
지역@@ 43
직책 43
창구 43
책임감 43
천성 43
춘@@ 43
측@@ 43
치밀 43
탐색 43
토대 43
툭 43
폭풍우 43
학급 43
학회 43
항복 43
허풍 43
환기 43
휘 43
휘날리 43
.. 42
10명 42
24@@ 42
60 42
7명 42
P@@ 42
ㄴ답니다 42
강탈 42
거들 42
거북 42
경관 42
계승 42
고귀 42
골짜기 42
공존 42
관세 42
관심사 42
구슬 42
군을 42
권고 42
그놈 42
금품 42
기독교 42
기백 42
꺾이 42
끝@@ 42
남자@@ 42
내리쬐 42
노을 42
노화 42
농약 42
뉴욕 42
대형@@ 42
도취 42
둑 42
뒤따르 42
드리우 42
등지 42
딱하 42
또렷하 42
레이@@ 42
마흔 42
말끔히 42
말하자면 42
매월 42
멎 42
메달 42
무산 42
미녀 42
미모 42
민주@@ 42
반짝반짝 42
받@@ 42
보물 42
분수 42
불합리 42
뻔뻔 42
사기@@ 42
사진기 42
살아남 42
새파랗 42
서늘 42
서재 42
소매치기 42
소문나 42
송금 42
수축 42
슛 42
슬쩍 42
실감 42
싱 42
쓰@@ 42
아첨 42
약자 42
엎 42
여객기 42
온난화 42
왕조 42
왜@@ 42
용량 42
우렁차 42
운항 42
으로의 42
이럴 42
이룩 42
이탈 42
일각 42
일부분 42
입대 42
작은@@ 42
잡초 42
장거리 42
재생 42
쟁취 42
전통@@ 42
점원 42
정작 42
종합@@ 42
죄수 42
주되 42
중도 42
지리 42
지저분 42
징 42
짬 42
찬@@ 42
천사 42
청결 42
체질 42
치명적 42
캐 42
코너 42
퀄리티 42
태세 42
통신@@ 42
파문 42
평안 42
학식 42
헌재 42
협약 42
호감 42
흙@@ 42
1시간 41
2008년 41
7일 41
9시 41
가로지르 41
가스@@ 41
건너편 41
견학 41
결핍 41
계통 41
곰팡이 41
공감 41
공공@@ 41
공교 41
공세 41
과세 41
광고@@ 41
구도 41
구먼 41
군사적 41
궤도 41
그걸 41
근로자들 41
기본@@ 41
꼬박 41
꾹 41
내려앉 41
노라 41
논하 41
다림질 41
답안지 41
대법원 41
덩이 41
도산 41
동아리 41
떠돌아다니 41
령@@ 41
름 41
마늘 41
만에 41
맞대 41
매혹적 41
머금 41
머지않아 41
먹구름 41
모형 41
무리한 41
박스 41
복수 41
복지@@ 41
본문 41
분담 41
브레이크 41
비서 41
뾰족하 41
사냥 41
사령관 41
살살 41
상공 41
상반 41
상상력 41
생사 41
성대 41
성장@@ 41
셨@@ 41
소나기 41
소외 41
솔 41
수장 41
숙소 41
숨지 41
시험지 41
신속히 41
싸이 41
쌀@@ 41
아랫사람 41
앨범 41
야말로 41
야심 41
어야겠어 41
여전 41
연구원 41
연예계 41
오르내리 41
오리@@ 41
오묘 41
오줌 41
완비 41
외로움 41
유통@@ 41
이놈 41
이라 41
인공@@ 41
인성 41
일련 41
작문 41
잔돈 41
잘생기 41
재개 41
저고리 41
절감 41
제비 41
지름길 41
진흥 41
짊 41
찧 41
착취 41
창장 41
척결 41
체계적 41
체구 41
취향 41
치미 41
치수 41
침몰 41
탄알 41
태산 41
토론회 41
톱 41
통상 41
파워 41
포부 41
폭넓 41
하반기 41
한류 41
한사코 41
허점 41
형상 41
흑 41
11월 40
m 40
가치관 40
간행물 40
갈래 40
겠구나 40
결여 40
결혼@@ 40
경과 40
경기@@ 40
고조 40
공군 40
공기업 40
관대 40
관문 40
국산 40
그르 40
근원 40
기념일 40
꽃밭 40
나팔 40
날아다니 40
남용 40
내려다보 40
다년간 40
대거 40
댄스 40
덩@@ 40
도다 40
도매 40
독창적 40
동참 40
뒤집어쓰 40
따라다니 40
따스 40
딸기 40
로맨틱 40
립@@ 40
막상 40
매치 40
메마르 40
멸시 40
명의 40
무분별한 40
문외한 40
민족@@ 40
민준이 40
베끼 40
별명 40
보험@@ 40
복귀 40
부끄러움 40
블랙 40
비관 40
뻔히 40
사이@@ 40
삭 40
석유@@ 40
섭씨 40
성대한 40
수배 40
술잔 40
싸늘 40
쌀밥 40
쐬 40
않@@ 40
았다 40
액션 40
어질 40
업무@@ 40
역사@@ 40
외할머니 40
용하 40
우연 40
운동회 40
원소 40
위상 40
유럽@@ 40
유입 40
이들 40
인부들 40
일방적 40
자욱 40
장례 40
전례 40
전방 40
전역 40
전형 40
정반대 40
정수 40
정책@@ 40
제방 40
졌다 40
종교적 40
주범 40
주의적 40
주차장 40
중재 40
증정 40
지난주 40
지문 40
지형 40
차근차근 40
찬란한 40
청중 40
축구@@ 40
출생 40
충족 40
컷 40
코드 40
크림 40
큰돈 40
토막 40
파운드 40
폼 40
표준어 40
학적 40
한곳 40
행성 40
험담 40
현대적 40
호주 40
후원 40
2009년 39
30일 39
8명 39
A@@ 39
S@@ 39
a@@ 39
가늠 39
가전제품 39
감성 39
거들뜨 39
건국 39
겨를 39
경찰@@ 39
계획하 39
고지 39
고층 39
공구 39
공백 39
관료 39
교차 39
극단적 39
기록@@ 39
기호 39
깃 39
꽃잎 39
꿀벌 39
남자아이 39
낭만적 39
눌리 39
당뇨병 39
대도시 39
대입 39
대통령의 39
독점 39
돌진 39
동지들 39
들키 39
등등 39
등반 39
떡볶이 39
떳떳 39
뜨@@ 39
렌즈 39
로봇 39
만발 39
매료 39
멀@@ 39
메이저리그 39
무릇 39
문제들 39
바이올린 39
받들 39
발랄 39
발상 39
발하 39
배불리 39
배신 39
뱉 39
벌리 39
보람 39
보리 39
본능 39
부닥치 39
부모들 39
부활 39
붉히 39
비방 39
빈틈 39
빗 39
사법@@ 39
사육 39
사인 39
새하얗 39
생소 39
생전 39
선반 39
섬기 39
성금 39
성별 39
세뱃돈 39
세제 39
셋째 39
소지 39
술자리 39
슨 39
슬그머니 39
시공 39
신성한 39
쓰리 39
압도 39
액세서리 39
양고기 39
어느덧 39
얼마간 39
에이즈 39
여배우 39
영하 39
예언 39
요리@@ 39
우선적 39
운전기사 39
웅장한 39
원작 39
유의 39
유지하기 39
유하 39
으시오 39
인선 39
인천 39
임기 39
임원 39
입각 39
자격증 39
장강 39
장애인 39
장작 39
재정@@ 39
재질 39
절망 39
조용해지 39
졸업생 39
즙 39
집계 39
차츰 39
착용감 39
찬 39
첫@@ 39
체증 39
초월 39
추산 39
칼@@ 39
캄캄하 39
클@@ 39
타락 39
탈출 39
팅@@ 39
파묻히 39
폭설 39
하루하루 39
해제 39
효율적 39
휩쓸 39
흉@@ 39
힘겹 39
1차 38
2배 38
6개 38
가설 38
가중 38
가혹 38
각도 38
강남 38
개장 38
개혁개방 38
경찰관 38
고무@@ 38
공모 38
공연장 38
관련해 38
구토 38
귀사 38
그나마 38
기강 38
기술자 38
까불 38
깜짝하 38
꼬집 38
네티즌 38
누비 38
눈동자 38
뉴@@ 38
더욱이 38
도끼 38
딴@@ 38
때@@ 38
렁 38
례@@ 38
록@@ 38
매각 38
며칠째 38
멸종 38
명함 38
몸살 38
무디 38
문제@@ 38
반기 38
방바닥 38
배회 38
번뇌 38
벌벌 38
변형 38
봉건 38
불타 38
산불 38
살이 38
상심 38
새삼 38
섬세 38
소동 38
소방@@ 38
소스 38
수납 38
스트@@ 38
습득 38
시아오@@ 38
시험@@ 38
신하 38
실하 38
아줌마 38
앞길 38
얌전 38
어딜 38
어르 38
얼룩 38
었던가 38
었어도 38
열대 38
영수 38
옴@@ 38
외환 38
우호 38
웃음거리 38
위신 38
위원들 38
유권자들 38
이상@@ 38
익@@ 38
인민@@ 38
인위적 38
인종 38
일본@@ 38
자물쇠 38
작가들 38
작업@@ 38
잔혹 38
장담 38
저렴 38
저물 38
전략적 38
전쟁터 38
정계 38
정립 38
정문 38
정연 38
제1@@ 38
제3@@ 38
조사해 38
조직@@ 38
존 38
종합적 38
주둔 38
중복 38
쥐@@ 38
즈음 38
증발 38
직업@@ 38
질하 38
참관하 38
체육관 38
총기 38
최우선 38
치약 38
침실 38
큰길 38
킹 38
토의 38
퇴장 38
팅 38
파트너 38
프린트 38
합류 38
해산 38
혹독 38
혼잡 38
홈런 38
회수 38
훈계 38
훗날 38
훤하 38
휴지 38
흐릿 38
2005년 37
20일 37
21일 37
27@@ 37
3위 37
9년 37
간호 37
강당 37
겹 37
고야 37
공사장 37
공통 37
관들 37
교란 37
구간 37
구두@@ 37
규탄 37
그만이 37
극단 37
기술적 37
기초@@ 37
긴@@ 37
깔보 37
꿈속 37
남색 37
너머 37
넘@@ 37
눅눅하 37
는게 37
늘어서 37
늪 37
다시피 37
단백질 37
단원 37
단행 37
덩치 37
도맡 37
동호회 37
득 37
들녘 37
따돌리 37
라운드 37
만년 37
만성 37
만여 37
만지작거리 37
매끈하 37
못나 37
무단 37
문턱 37
민간@@ 37
방송사 37
방심 37
배분 37
배후 37
뱃속 37
번갈아 37
번개 37
베이 37
보너스 37
보조금 37
봄날 37
뵈 37
부당 37
부디 37
부족해 37
붙@@ 37
비상@@ 37
비판적 37
사의 37
산행 37
살인범 37
상승세 37
상표 37
섬유 37
성나 37
소가죽 37
속마음 37
속셈 37
손잡이 37
수저 37
스며들 37
시ㄴ다면 37
시름 37
시적 37
신용@@ 37
신입사원 37
실종자 37
싱@@ 37
악취 37
안정적 37
약국 37
어색 37
었거든 37
여간 37
여행객 37
연달 37
연소 37
열정적 37
염 37
영업@@ 37
영화제 37
오래도록 37
옮 37
욕@@ 37
용지 37
원유 37
월요일 37
유니크한 37
이례적 37
이목 37
이주 37
일년 37
일률적 37
자상 37
작품들 37
장갑 37
장내 37
쟁반 37
전락 37
점령 37
정상회담 37
제국 37
제자들 37
조선@@ 37
좌파 37
주일 37
주재 37
중요시 37
증진 37
지휘관 37
짓@@ 37
착각 37
처리@@ 37
청중들 37
쳐@@ 37
총회 37
칭 37
케@@ 37
터무니없 37
통통하 37
특기 37
파장 37
팽창 37
펄럭이 37
편히 37
평온 37
폐수 37
폭격 37
품격 37
하필 37
한테서 37
할부 37
항공편 37
허벅지 37
헤엄치 37
혈 37
혈관 37
혼나 37
화물선 37
황금@@ 37
휘말리 37
흡사 37
&gt; 36
&lt; 36
0@@ 36
20분 36
80@@ 36
km 36
각계 36
감기 36
감행 36
개운 36
개헌 36
건전지 36
겠죠 36
겸허 36
경보 36
경영권 36
경청 36
고달프 36
고스란히 36
고춧가루 36
곤@@ 36
곧잘 36
공개적 36
공식적 36
공예 36
광산 36
괴 36
구걸 36
구조@@ 36
굴리 36
금전 36
기교 36
기어오르 36
기획@@ 36
꼬이 36
꾼들 36
끈질기 36
납치 36
낮잠 36
내각 36
내려@@ 36
내키 36
녹화 36
논증 36
농부들 36
농업@@ 36
누 36
누적 36
닝 36
다그치 36
대구 36
독립@@ 36
돌아@@ 36
동경 36
동서 36
동창 36
돼지고기 36
둘러싸이 36
들이키 36
따뜻해지 36
리더십 36
만터우 36
말고 36
말씨 36
매기 36
매몰 36
먹고 36
모래사장 36
무성한 36
물거품 36
뭉@@ 36
바이@@ 36
반환 36
배드민턴 36
병행 36
복종 36
부득이 36
부채질 36
불가피하 36
불법@@ 36
불쾌 36
불편한 36
브라운 36
비틀 36
빗나가 36
뿔 36
사설 36
사표 36
삭@@ 36
산비탈 36
석사 36
성원 36
션 36
솔직한 36
쇠약 36
스레 36
스타@@ 36
스토리 36
시장@@ 36
시차 36
시청자 36
신문@@ 36
신상 36
신설 36
신조어 36
신호등 36
압수 36
어수선 36
여왕 36
열흘 36
예비 36
온 36
우대 36
우편물 36
웃기 36
웃음소리 36
원가 36
위배 36
유적 36
유효 36
익숙해지 36
잉@@ 36
잡아당기 36
장난치 36
저것 36
전액 36
점프 36
정보화 36
제각기 36
조롱 36
조장 36
족히 36
주의자 36
준공 36
준비@@ 36
준우승 36
중년 36
지겹 36
지성 36
지식인 36
진찰 36
집권 36
집중적 36
창가 36
책임 36
첫날 36
총애 36
추방 36
치아 36
치중 36
칭송 36
큰비 36
탑승 36
털@@ 36
퇴 36
투성이 36
파헤치 36
편찬 36
평정 36
품들 36
품성 36
하류 36
하시길 36
해상 36
허덕이 36
험난 36
헛소문 36
회견 36
1개 35
B@@ 35
가급적 35
가담 35
가득차 35
가로채 35
감자 35
거드름 35
검은색 35
겉치레 35
결단 35
경전 35
경축 35
곡물 35
골머리 35
곰@@ 35
관계자들 35
관청 35
구조조정 35
국가적 35
국방 35
군사력 35
규범 35
근절 35
급속히 35
긍정 35
기입 35
납득 35
녹차 35
농성 35
농장 35
누락 35
닭@@ 35
도둑질 35
도서 35
독감 35
들어맞 35
또@@ 35
뚝뚝 35
름@@ 35
막막 35
만사 35
명소 35
목화 35
몰수 35
무능 35
무작정 35
무턱대고 35
문단 35
미술@@ 35
박람회 35
박하 35
반격 35
반듯하 35
발산 35
번화 35
복숭아 35
봉급 35
불경기 35
불쑥 35
불평등 35
사람만 35
샘 35
생물@@ 35
생장 35
선비 35
선생님들 35
선수단 35
선진적 35
세탁기 35
소규모 35
수작 35
스캔들 35
습관적 35
습하 35
승무원 35
승패 35
신규 35
싫증 35
심상치 35
심신 35
아쉬움 35
악랄 35
악수 35
어우러지 35
었는 35
었어야 35
에서@@ 35
엔지니어 35
여리 35
여보 35
연세 35
영어@@ 35
외세 35
욕설 35
용도 35
우스갯소리 35
으론 35
음미 35
응접실 35
의기소침 35
일행 35
임용 35
자부심 35
자외선 35
자유로운 35
자칫 35
잘못한 35
잡아먹 35
장착 35
재빠르 35
쟁 35
종적 35
좌 35
주부 35
지도@@ 35
지들 35
지우개 35
짐@@ 35
참되 35
참새 35
찾아다니 35
채취 35
천성적 35
철도 35
축축하 35
출구 35
출제 35
케이스 35
코미디 35
택 35
톡톡 35
판매량 35
포대 35
포럼 35
폴리 35
하리 35
한결같이 35
핵무기 35
행방 35
향긋 35
헛소리 35
호박 35
호칭 35
혹@@ 35
화단 35
확률 35
환호 35
후보들 35
휘@@ 35
희생자 35
15분 34
20대 34
25일 34
2억 34
300@@ 34
36@@ 34
70 34
80년대 34
G@@ 34
가망 34
가장자리 34
각고 34
각별 34
값지 34
개별적 34
거니 34
걸맞 34
격식 34
고모 34
골목길 34
과학자들 34
관행 34
교육부 34
구애 34
구원 34
국세청 34
국익 34
굴하 34
그쪽 34
깃들 34
깜빡 34
끊임없 34
난간 34
날조 34
남북@@ 34
내리치 34
냉담 34
논평 34
놔두 34
다더니 34
단기 34
담보 34
대상자 34
대요 34
대중교통 34
대표@@ 34
도망 34
도주 34
돈독 34
되살 34
된장 34
딩 34
따라잡 34
뛰치 34
롱 34
만년필 34
매수 34
맨발 34
모니터 34
목록 34
몸무게 34
묘하 34
문예@@ 34
미숙 34
밀어붙이 34
방비 34
방황 34
배터리 34
백신 34
밴드 34
베이@@ 34
베이징@@ 34
보편화 34
봉쇄 34
부차적 34
부착 34
분장 34
불거지 34
빚지 34
빠짐없이 34
삐 34
사냥꾼 34
사병 34
사이좋 34
사칭 34
살갗 34
선사 34
선수권 34
선행 34
성급 34
소망 34
소멸 34
소인 34
수상자 34
수업시간 34
순결 34
시속 34
시자 34
심기 34
심오한 34
아득 34
아부 34
악마 34
알뜰 34
앞세우 34
얕보 34
어리@@ 34
어음 34
얼버무리 34
었으니까 34
에게만 34
여느 34
여학생 34
열두 34
열렬히 34
옛일 34
완 34
우여곡절 34
유망 34
으랴 34
음악회 34
이토록 34
이트 34
입안 34
자그마하 34
자락 34
자연히 34
자유무역협정 34
잔잔한 34
장교 34
장기@@ 34
전송 34
전철 34
전화기 34
점포 34
정국 34
정신력 34
정중 34
제2 34
제자리 34
제철 34
좁히 34
주연 34
주입 34
주저 34
중간@@ 34
중립 34
지탄 34
찌@@ 34
찌푸리 34
차림새 34
채무 34
챵지앙 34
처리해 34
철거 34
최저 34
추태 34
출퇴근 34
츠 34
치하 34
친 34
키스 34
태권도 34
틀어박혀 34
팬츠 34
핀 34
학부모 34
학우들 34
한탄 34
함성 34
항로 34
해외@@ 34
행적 34
현대화 34
현황 34
혜@@ 34
호황 34
혼례 34
혼방 34
황허 34
획기적 34
후련 34
훤히 34
10대 33
28일 33
4시 33
5시 33
가계 33
가상 33
갈리 33
강산 33
개울 33
격렬 33
계발 33
계열사 33
고혈압 33
골드 33
공정한 33
관광객들 33
교량 33
구현 33
국력 33
국방@@ 33
국제사회 33
그간 33
그해 33
근성 33
기나긴 33
기념@@ 33
기상@@ 33
긴장감 33
길들이 33
까지만 33
꾀 33
끄@@ 33
나부끼 33
난감 33
낭@@ 33
내쉬 33
다이@@ 33
단골 33
단체들 33
데우 33
도청 33
동반자 33
동행 33
돼지@@ 33
되기 33
뒤엎 33
뒤쪽 33
뒷모습 33
듬뿍 33
떠다니 33
르 33
막강한 33
만화책 33
먼@@ 33
명확히 33
모조리 33
문자메시지 33
물량 33
미끼 33
민요 33
민주적 33
반항 33
발동 33
발자국 33
배당 33
배반 33
배색 33
버섯 33
벨 33
봄 33
불공평 33
불규칙 33
비열 33
빈부 33
빈약 33
사고@@ 33
사춘기 33
산더미 33
산봉우리 33
상세한 33
상세히 33
샘물 33
생각@@ 33
생동적 33
생략 33
서럽 33
선전 33
소생 33
소유자 33
속삭이 33
손수 33
수입@@ 33
수험생 33
순간적 33
순전히 33
시게 33
시동 33
시시각각 33
씀씀이 33
악당 33
애도 33
얻어맞 33
여객선 33
연쇄 33
예민한 33
오이 33
와이셔츠 33
외관 33
요건 33
요지 33
용인 33
우르르 33
우리@@ 33
운동화 33
월말 33
위조 33
유래 33
유포 33
이나마 33
이런저런 33
이재민 33
인간@@ 33
인간성 33
읽히 33
자본주 33
자취 33
재원 33
전수 33
전화@@ 33
절묘 33
절박 33
정각 33
정류장 33
제도적 33
종래 33
종족 33
주둥이 33
주무르 33
지극 33
지리적 33
집단@@ 33
짖 33
쩍 33
차질 33
참가자들 33
참사 33
책임@@ 33
천둥 33
청렴 33
총탄 33
최강 33
추수 33
출토 33
치우치 33
탱크 33
토로 33
특집 33
틈새 33
하나하나 33
해수욕장 33
해외여행 33
행태 33
허리띠 33
혼사 33
홈 33
회색 33
1000 32
16일 32
5000 32
D@@ 32
I@@ 32
가로@@ 32
강력히 32
개교 32
거래@@ 32
건성 32
걸상 32
겠는데 32
겨울@@ 32
격하 32
결재 32
결정해 32
경찰들 32
곁들이 32
공해 32
괴로움 32
교통경찰 32
구매@@ 32
구역질 32
국립@@ 32
권총 32
근데 32
금요일 32
급등 32
기만 32
기어코 32
까지나 32
깨우치 32
냉각 32
녀@@ 32
노년 32
놀이터 32
누렇 32
늑대 32
다음달 32
단편적 32
담당자 32
더더욱 32
덕택 32
데뷔 32
데이터 32
동그랗 32
동향 32
드문드문 32
들어@@ 32
딛 32
론@@ 32
리하 32
마구잡이 32
마이크 32
막판 32
만도 32
만만 32
만만치 32
며칠간 32
면전 32
멸@@ 32
뭇 32
밑바닥 32
반사 32
밤중 32
밥그릇 32
방도 32
배합 32
벽지 32
부녀자 32
부류 32
부잣집 32
부조리 32
분산 32
분실 32
붉은색 32
블@@ 32
블로그 32
비기 32
비전 32
뿌리치 32
사가 32
사상자 32
사이버@@ 32
사후 32
삭감 32
상냥 32
상속 32
상장 32
생산성 32
생수 32
생애 32
서부터 32
선동 32
선회 32
섭섭 32
쇼@@ 32
수놓 32
시간@@ 32
식기 32
신랑감 32
신음 32
실장 32
실증 32
씩씩 32
아물 32
안절부절 32
암시 32
애매 32
야생 32
어이 32
엄 32
었더라 32
었듯이 32
에서야 32
에워싸 32
엔의 32
여행사 32
연금 32
연히 32
염원 32
염치 32
엽@@ 32
엿보 32
영장 32
오너 32
오만 32
오십 32
옹호 32
요법 32
워싱 32
원대한 32
웬 32
유가 32
유권자 32
융합 32
으시ㄹ 32
응급 32
이걸 32
이곳저곳 32
이따금 32
이로써 32
이벤트 32
이제껏 32
이탈리아 32
입학@@ 32
자못 32
자손 32
자연적 32
잠재력 32
장롱 32
장병들 32
장시간 32
장중 32
저금 32
적절히 32
전국@@ 32
제보 32
종전 32
종점 32
주관적 32
주도면밀 32
주시하 32
중심@@ 32
중점적 32
중화 32
지류 32
지하@@ 32
짱@@ 32
차차 32
첫사랑 32
초라 32
총액 32
출가 32
캠퍼스 32
통지서 32
판단력 32
판자 32
팬@@ 32
폰@@ 32
폴@@ 32
프로야구 32
플라스틱 32
학부모들 32
한복판 32
핥 32
행동거지 32
허비 32
허황 32
화사 32
화학@@ 32
휘발유 32
휘젓 32
흘@@ 32
흥미진진 32
/ 31
1,000@@ 31
1,@@ 31
2006년 31
2층 31
30대 31
70@@ 31
가속 31
가엾 31
가전 31
가파르 31
강의실 31
강점 31
개정안 31
겉보기 31
결석 31
결제@@ 31
겸@@ 31
경영자 31
관광지 31
관여 31
그다음 31
그러@@ 31
금치 31
기력 31
깎이 31
꽁무니 31
끼@@ 31
낙심 31
난방 31
냉혹 31
넘어뜨리 31
늦잠 31
다급 31
다량 31
단조로운 31
달력 31
당내 31
대꾸 31
대세 31
덤비 31
도시락 31
동떨어지 31
돛 31
두뇌 31
두통 31
뒤돌 31
뒤엉키 31
뒷면 31
드넓 31
또래 31
로비 31
막연 31
말단 31
말랑말랑하 31
말미암 31
말솜씨 31
망가뜨리 31
망상 31
맞물리 31
먹다 31
명실상부 31
명심 31
못쓰 31
무책임 31
밟히 31
백사장 31
범람 31
벽화 31
변질 31
보트 31
본뜨 31
본성 31
봄바람 31
봉지 31
부양 31
분기 31
분분 31
불안정 31
블루 31
비꼬 31
비뚤 31
비명 31
빈 31
빠듯 31
빨간색 31
뻣뻣하 31
사랑@@ 31
사투리 31
상급자 31
상들 31
상업@@ 31
상품@@ 31
상품권 31
새빨갛 31
생태@@ 31
선도 31
선하 31
세태 31
셀@@ 31
소탕 31
속히 31
손수건 31
수도관 31
수월 31
슈퍼@@ 31
스타일링 31
승자 31
시가 31
시청률 31
식단 31
신원 31
심문 31
쌀쌀하 31
아가 31
악몽 31
양산 31
억@@ 31
었잖아 31
열띠 31
열의 31
염색 31
예사 31
예술가 31
오죽 31
오징어 31
옷깃 31
옷장 31
왕국 31
왕씨 31
외화 31
용감히 31
용맹 31
우리측 31
우승자 31
우아한 31
울퉁불퉁하 31
웅크리 31
원동력 31
원정 31
원칙적 31
위탁 31
유사 31
유언 31
육군 31
율@@ 31
응답 31
이모 31
인민폐 31
일거리 31
임박 31
입장권 31
자가용 31
자녀들 31
자신만 31
자초 31
작업장 31
잔디밭 31
잡아@@ 31
장님 31
장대 31
장들 31
장신구 31
장황 31
재차 31
전통문화 31
전투기 31
정거장 31
정체성 31
젖@@ 31
조각@@ 31
조이 31
주역 31
주한 31
지금껏 31
지목 31
지세 31
지요 31
지지 31
직종 31
진도 31
집어넣 31
창의성 31
체격 31
총괄 31
추출 31
출중 31
충만 31
침수 31
칼날 31
칼라 31
캠페인 31
코디 31
클 31
탄력 31
탄성 31
태연 31
톡 31
투자자들 31
특성상 31
파이@@ 31
팔짱 31
펄펄 31
풍년 31
풍토 31
하루빨리 31
하소연 31
한기 31
한방 31
한적 31
할게요 31
헛수고 31
현혹 31
홀가분 31
홍보@@ 31
활활 31
후방 31
후하 31
흉하 31
희귀 31
2000년 30
2시간 30
38@@ 30
3번 30
400 30
40대 30
50명 30
6자 30
7개 30
8일 30
E@@ 30
S 30
가쁘 30
각박 30
간첩 30
갈비 30
감수 30
갓난아기 30
강제@@ 30
객차 30
건전 30
겹겹 30
경매 30
경찰서 30
고갈 30
고지식 30
공인 30
공학 30
과잉 30
광복 30
교내 30
구미 30
국무총리 30
굳세 30
굴뚝 30
귀빈 30
귓가 30
금속@@ 30
급급 30
기묘 30
기승 30
기예 30
기율 30
까맣 30
까지이 30
깡그리 30
깡통 30
깨@@ 30
껏 30
나이@@ 30
난제 30
남극 30
내리@@ 30
내뿜 30
냉철 30
놓@@ 30
뉘우치 30
다음날 30
대두 30
대변인 30
대보름 30
대중@@ 30
대체적 30
도시@@ 30
두들기 30
들었다 30
딸@@ 30
딸리 30
뛰어오르 30
라기 30
로마 30
룩@@ 30
마작 30
마지못하 30
막중 30
만큼은 30
맹 30
메이@@ 30
멜로디 30
모닥불 30
모래@@ 30
목청 30
무장@@ 30
무효 30
바깥@@ 30
반대@@ 30
발등 30
방석 30
방송이 30
배기 30
배포 30
벨@@ 30
벨트 30
보강 30
부장님 30
부호 30
빼@@ 30
뼈다귀 30
사내 30
사무치 30
사병들 30
사색 30
사회자 30
산골짜기 30
산악 30
생명@@ 30
생성 30
선별 30
세계화 30
셨다는 30
속성 30
수없이 30
수증기 30
수필 30
순진 30
스케줄 30
스포츠@@ 30
습 30
시하 30
식별 30
식용 30
신도시 30
신병 30
십상 30
안방 30
알아맞히 30
야만 30
양호한 30
엄밀 30
에스@@ 30
열성 30
영입 30
원자 30
위태 30
유아 30
유언비어 30
육박 30
은근히 30
읍 30
이스라엘 30
이슬람 30
이점 30
인계 30
일주 30
입수 30
입주 30
장애물 30
재개발 30
재발 30
쟝 30
저명 30
전지 30
정황 30
조심조심 30
좀더 30
주도권 30
중고 30
중세 30
중순 30
증명서 30
지원자 30
짜내 30
찌꺼기 30
찬사 30
채찍 30
천년 30
철회 30
체온 30
촉@@ 30
출처 30
충격적 30
취업@@ 30
침식 30
캠프 30
콘크리트 30
쿠@@ 30
택@@ 30
통역 30
파격적 30
판소리 30
팔꿈치 30
평판 30
폭파 30
피차 30
학술@@ 30
한일 30
합병 30
해결책 30
해산물 30
허사 30
화산 30
화시키 30
화원 30
회원들 30
후배들 30
휩쓸리 30
흐느끼 30
흐트러지 30
흡@@ 30
힘입 30
10개 29
13일 29
1분 29
2004년 29
5억 29
6일 29
감사원 29
개혁@@ 29
거리끼 29
거야 29
건달 29
걸림돌 29
검소 29
계략 29
고래 29
곡조 29
공권력 29
공단 29
공동체 29
공유 29
과수원 29
과음 29
관계없이 29
괄@@ 29
괜하 29
군것질 29
그거 29
근무@@ 29
급격 29
기류 29
꽃병 29
끄덕이 29
나위 29
나태 29
낙담 29
남매 29
내구성 29
내장 29
농구@@ 29
눈매 29
눈코 29
다리미 29
당원 29
대국 29
대중적 29
대행 29
대화@@ 29
동상 29
된 29
두세 29
땅속 29
런@@ 29
런던 29
럼@@ 29
릴 29
마는 29
만류 29
말끝 29
맛@@ 29
망원경 29
매입 29
멋대로 29
멍 29
멘@@ 29
모내기 29
목장 29
묘지 29
무식 29
문책 29
물살 29
물의 29
뮤지컬 29
미디어 29
바느질 29
바야흐로 29
반년 29
반도체 29
반짝거리 29
발육 29
발판 29
배탈 29
변수 29
병상 29
볕 29
보류 29
본받 29
부단히 29
부르@@ 29
부적절 29
부하들 29
분량 29
붕@@ 29
비둘기 29
비린내 29
비장 29
빌@@ 29
뺏 29
뻔 29
사악 29
산간 29
산림 29
상여금 29
샷 29
서나 29
서화 29
선량한 29
설득력 29
설화 29
섬세한 29
성가시 29
성실히 29
세계대전 29
세관 29
소견 29
손끝 29
손대 29
수평선 29
숙련 29
스웨터 29
스피드 29
시나 29
실체 29
싸움 29
썰렁 29
아느냐 29
아웃@@ 29
양호 29
얼음@@ 29
에이@@ 29
엠@@ 29
여사 29
여위 29
연명 29
연약 29
열광 29
열성적 29
열심 29
염두 29
완고 29
외적 29
우기 29
우화 29
운송@@ 29
원서 29
원자재 29
원전 29
위쪽 29
유교 29
음향 29
이동@@ 29
일리 29
임의 29
입체적 29
잊히 29
자기들 29
자전 29
자정 29
잠자코 29
장악하 29
저하 29
적성 29
전시장 29
절실히 29
정시 29
정장 29
정적 29
조사@@ 29
조예 29
종교@@ 29
종료 29
종소리 29
죄@@ 29
주전 29
중하 29
증산 29
집필 29
징조 29
짝@@ 29
쭈@@ 29
찜 29
참가자 29
척도 29
청문회 29
체내 29
최종적 29
추상적 29
추하 29
치욕 29
친선 29
칩 29
컨@@ 29
켤레 29
타개 29
택배 29
통신망 29
통용 29
트렌드 29
팩스 29
편의 29
포털 29
풍작 29
한여름 29
해법 29
헐후 29
헛디디 29
혐오감 29
혼내 29
화력 29
화성 29
황급히 29
회답 29
회의실 29
효 29
흐@@ 29
1000@@ 28
100미터 28
2014년 28
4일 28
90@@ 28
ㄹ지언정 28
가누 28
간행 28
갑갑 28
값비싸 28
강자 28
걷히 28
것@@ 28
견문 28
경련 28
경쟁적 28
계집애 28
고삐 28
공조 28
과녁 28
과로 28
과열 28
과오 28
교도소 28
구두쇠 28
구부리 28
구태여 28
굼뜨 28
권장 28
귀띔 28
금지@@ 28
급우들 28
깜찍 28
끝마치 28
끼니 28
나른 28
납 28
내적 28
냥 28
네덜란드 28
네티즌들 28
노란색 28
노점 28
누각 28
다더 28
단연 28
달구 28
대신해 28
대치 28
덤벼들 28
데이 28
도덕성 28
돌멩이 28
동물@@ 28
동해 28
될@@ 28
둥지 28
들다 28
들이닥치 28
등교 28
때론 28
람 28
런 28
렁@@ 28
렁하 28
련 28
리더 28
리라는 28
릿 28
릿@@ 28
말대꾸 28
맞붙 28
매너 28
매연 28
머 28
먹히 28
멀리하 28
메모 28
명시 28
명예@@ 28
명하 28
몇@@ 28
목격자 28
목수 28
몽 28
몽둥이 28
무당 28
문의 28
미래@@ 28
미사 28
밀수품 28
반복적 28
방출 28
버 28
번복 28
번지르르하 28
벌떡 28
벼 28
봉하 28
분간 28
불가피 28
불안감 28
불투명 28
비스듬히 28
뻗치 28
사당 28
사회생활 28
살인 28
새벽@@ 28
새벽녘 28
새색시 28
새싹 28
생각해 28
생리 28
서울대 28
석상 28
선물@@ 28
선조 28
소련 28
소환 28
손꼽 28
손녀 28
수첩 28
순박 28
술수 28
숨결 28
시간대 28
시일 28
시집보내 28
시청자들 28
신인 28
실사구시 28
심의 28
썩이 28
쏘이 28
쑥스럽 28
애완견 28
애타 28
양안 28
어귀 28
언제쯤 28
엉터리 28
엘@@ 28
역하 28
연방 28
엷 28
예상치 28
오지 28
올 28
왁자지껄하 28
욕실 28
우러나 28
우위 28
위세 28
유죄 28
으시면 28
은커녕 28
의도적 28
이사장 28
인간적 28
인데요 28
인도@@ 28
일꾼들 28
일용품 28
입김 28
입양 28
자금난 28
자율 28
자율적 28
재벌 28
재직 28
재치 28
적거리 28
적정 28
절정 28
정사 28
제품들 28
져우 28
조율 28
주도적 28
중시해 28
증서 28
직공 28
집세 28
쫙 28
참혹 28
찾아@@ 28
처마 28
척척 28
천문학적 28
총수 28
취약 28
친밀 28
크리스마스 28
타령 28
탕진 28
톱@@ 28
투지 28
튀김 28
튕기 28
팀장 28
펜@@ 28
평양 28
평화적 28
포즈 28
표적 28
풍선 28
풍족 28
학점 28
한겨울 28
한시 28
한정 28
항공@@ 28
허세 28
허튼소리 28
헹구 28
현관 28
형수 28
환산 28
황폐 28
회식 28
휴가철 28
195@@ 27
23@@ 27
5000@@ 27
5개월 27
90 27
B 27
O 27
e@@ 27
o@@ 27
가마 27
간결 27
간파 27
강국 27
강렬 27
강원 27
같@@ 27
개학 27
갱신 27
건배 27
겠소 27
결과적 27
결의안 27
겸하 27
고국 27
고립 27
고목 27
고작 27
고충 27
공익 27
공직자 27
공채 27
과반수 27
과언 27
광명 27
굳히 27
궁지 27
그름 27
극본 27
근사 27
금물 27
금빛 27
기계적 27
기슭 27
기억나 27
기이한 27
깊숙이 27
꾸물거리 27
꿈@@ 27
꿋꿋하 27
끌어올리 27
끝장 27
나약 27
나지막 27
납품 27
널@@ 27
노예@@ 27
놀@@ 27
높@@ 27
다네 27
닦이 27
담화 27
대부 27
대자연 27
덜렁@@ 27
도난 27
도마 27
독서 27
동식물 27
되살리 27
둘이 27
드레스 27
드릴게요 27
등산@@ 27
등용 27
뜨이 27
랭킹 27
레스토랑 27
루트 27
룸 27
리본 27
마음가짐 27
마주@@ 27
만점 27
말소리 27
매출액 27
맥박 27
메이크업 27
목마르 27
못살 27
못생기 27
묘목 27
무럭무럭 27
무안 27
물정 27
미술관 27
미흡 27
민원 27
밑@@ 27
밭@@ 27
베란다 27
보일러 27
보험회사 27
복식 27
부들부들 27
부러움 27
부스러기 27
부실 27
부재 27
부지 27
북부 27
분개 27
분비 27
분양 27
분출 27
분할 27
불균형 27
불량배 27
불면증 27
불법적 27
붓글씨 27
붕대 27
비디오 27
비례 27
비축 27
비통 27
빡빡하 27
사랑해 27
사법부 27
산업화 27
샘플 27
선풍기 27
성장률 27
센티미터 27
소리@@ 27
속력 27
속세 27
손놀림 27
쇼핑몰 27
수출@@ 27
수탈 27
숭@@ 27
스테@@ 27
시냇물 27
시어도 27
식수 27
식장 27
신자 27
신진대사 27
신혼 27
써@@ 27
쓰라리 27
아래층 27
아랫@@ 27
아야 27
앞쪽 27
애플 27
야위 27
어들 27
어지럽히 27
언어@@ 27
었다@@ 27
었단 27
여정 27
연거푸 27
연꽃 27
연해 27
열등감 27
영국@@ 27
예견 27
오렌지 27
외교적 27
외상 27
왼손 27
운동선수 27
위험성 27
유니폼 27
읍내 27
이빨 27
잎사귀 27
자리@@ 27
자비 27
자판 27
장애@@ 27
재계 27
재우 27
쟁@@ 27
쟁점 27
저놈 27
저술 27
전직 27
전화번호 27
절하 27
정상화 27
정정 27
정한 27
제격 27
제조업 27
져 27
조문 27
조부 27
졸이 27
주거 27
주행 27
준 27
중반 27
지퍼 27
지하수 27
직시 27
진급 27
진술 27
창의력 27
천연@@ 27
초등학생 27
추론 27
춘 27
충전 27
츠@@ 27
치닫 27
치부 27
칭호 27
카드@@ 27
커뮤니티 27
컨디션 27
쾌@@ 27
큐@@ 27
태평양 27
톨 27
통화@@ 27
특수@@ 27
티켓 27
판매원 27
퍼 27
편입 27
평가@@ 27
평화@@ 27
폐해 27
프리@@ 27
피의자 27
한반도 27
합성 27
해졌다 27
행보 27
행패 27
허공 27
헌신 27
헬기 27
협 27
형사@@ 27
화합 27
회관 27
횡@@ 27
효도 27
효성 27
휘감 27
휴지통 27
흥정 27
흰@@ 27
힐@@ 27
.@@ 26
10억 26
11시 26
14일 26
15년 26
2001년 26
2003년 26
2학년 26
4대 26
50년 26
O@@ 26
○ 26
가요계 26
각성 26
간소화 26
감면 26
갑작스런 26
값싸 26
거들먹거리 26
검정 26
겨울방학 26
격파 26
결렬 26
겸비 26
경각심 26
경감 26
경박 26
경비@@ 26
경품 26
고물 26
공공장소 26
공무 26
공무원들 26
광주 26
광주리 26
교복 26
교육적 26
구불구불하 26
구장 26
국군 26
군더더기 26
굶주리 26
규 26
균@@ 26
그녀들 26
그라운드 26
금강산 26
금고 26
기름@@ 26
기수 26
기어 26
기품 26
끄집 26
끼얹 26
남부 26
내달 26
내비치 26
너비 26
느긋 26
닝@@ 26
다다르 26
달러화 26
담요 26
답사 26
대명사 26
대장부 26
대출@@ 26
대포 26
대표들 26
대학들 26
더디 26
던@@ 26
덤@@ 26
도금 26
도우미 26
도자기 26
독단적 26
독립적 26
독재자 26
돌입 26
두툼 26
뒤바뀌 26
들이@@ 26
랍@@ 26
럼 26
렸다 26
리스 26
립 26
마우스 26
마차 26
맞먹 26
머리털 26
메스껍 26
멤버 26
면역 26
멸 26
명목 26
명중 26
몇십 26
몰락 26
문밖 26
문학적 26
믿음직하 26
반납 26
반란 26
방화 26
배웅 26
벌겋 26
변변치 26
변천 26
병실 26
보드 26
보복 26
봉건적 26
분규 26
불끈 26
불상 26
불신 26
불허 26
불화 26
붙들 26
빗@@ 26
빗방울 26
사과@@ 26
사관 26
사망자 26
사슴 26
사죄 26
산천 26
살림살이 26
상관없이 26
상응 26
상하이 26
새장 26
서운 26
서울역 26
선서 26
선원들 26
선장 26
세율 26
셔@@ 26
션@@ 26
소유권 26
손색 26
손재주 26
솟구치 26
수련 26
수소 26
수완 26
수입과 26
숲속 26
스터@@ 26
스토@@ 26
습성 26
시퍼렇 26
식견 26
식품@@ 26
신년 26
신통 26
심부름 26
아담 26
아며 26
악성 26
안심해 26
앗 26
앞머리 26
애초 26
액자 26
야단치 26
양자 26
양치질 26
어렴풋이 26
어린아이들 26
엄두 26
엉@@ 26
여보세요 26
여의 26
여행지 26
역력 26
열세 26
옆구리 26
옆방 26
옥상 26
온순 26
올라@@ 26
옷@@ 26
완강 26
완곡 26
외교부 26
외삼촌 26
우박 26
웨 26
웬일 26
위아래 26
유람 26
유리@@ 26
유명@@ 26
이면 26
이집트 26
익살 26
인간관계 26
인출 26
일컫 26
입법 26
자리잡 26
잔인 26
잘리 26
재채기 26
쟝@@ 26
적극성 26
절개 26
조미료 26
조속히 26
조잡 26
졸업@@ 26
주부들 26
주식시장 26
주주 26
주춤 26
준비한 26
중국에서 26
중상 26
중요시하 26
중이 26
증대 26
지구@@ 26
직결 26
진보적 26
집결 26
집들이 26
짱 26
쩍@@ 26
찍@@ 26
찔리 26
창의적 26
채팅 26
처사 26
천리 26
천명 26
촉감 26
취임 26
치즈 26
코앞 26
탄환 26
테러@@ 26
통계@@ 26
통로 26
통속적 26
투박 26
특허 26
팔뚝 26
팔찌 26
팥 26
펑@@ 26
편향 26
포옹 26
표결 26
표류 26
풀밭 26
풍요 26
하염없 26
한단 26
한담 26
한도 26
한테는 26
항공사 26
해양@@ 26
허둥지둥 26
현행 26
호르몬 26
호평 26
환심 26
황혼 26
회의@@ 26
흐뭇 26
흠잡 26
197@@ 25
1주일 25
2007년 25
3억 25
i@@ 25
大@@ 25
가입자 25
각양각색 25
감정적 25
거만 25
게임@@ 25
겨누 25
경중 25
고급@@ 25
고만 25
고분고분하 25
고아 25
고아원 25
고액 25
고온 25
고집불통 25
공개@@ 25
공중@@ 25
공직 25
공통점 25
공휴일 25
관련한 25
관절 25
광택 25
교전 25
구경꾼들 25
구덩이 25
구독 25
구정 25
국정@@ 25
규격 25
글쎄 25
급제 25
기부금 25
기자@@ 25
기절 25
기지개 25
기피 25
긴급@@ 25
까마귀 25
꿰 25
꿰매 25
끈끈하 25
끓어오르 25
나라들 25
남한 25
내면 25
냉면 25
녀들 25
노인@@ 25
노하우 25
논조 25
늘@@ 25
늘이 25
능 25
능히 25
다리@@ 25
다양성 25
단상 25
담담 25
답례 25
댓글 25
독차지 25
돌려보내 25
동결 25
동등 25
동부 25
동창들 25
되새기 25
두말 25
둘러@@ 25
뒷짐 25
들어차 25
들이받 25
따끔 25
따분 25
떠넘기 25
뚜@@ 25
라오@@ 25
륜 25
리허설 25
릴@@ 25
마스크 25
마지않 25
말라@@ 25
말문 25
맞선 25
메일 25
면치 25
명문대 25
모독 25
모서리 25
무심코 25
무용@@ 25
미스 25
박지성 25
받아@@ 25
발각 25
발매 25
방망이 25
배짱 25
벅차 25
번성 25
번잡 25
벽면 25
보배 25
보이@@ 25
보조@@ 25
복무 25
부귀 25
부업 25
부패@@ 25
부피 25
불씨 25
비서관 25
비정상적 25
비참 25
빈틈없이 25
빌붙 25
사거리 25
사단 25
삽입 25
상대@@ 25
새집 25
색감 25
생각해서 25
선수@@ 25
섭@@ 25
성공@@ 25
셨습니까 25
소극적 25
소방 25
속상 25
수영@@ 25
수질 25
순회 25
스위치 25
시국 25
시내버스 25
시대적 25
시상식 25
시집오 25
시찰 25
식생활 25
신문지 25
실무 25
심각성 25
싱가포르 25
싹트 25
암암리 25
암호 25
압도적 25
약재 25
어김없이 25
어법 25
어설프 25
어지 25
엄수 25
여러분들 25
여럿 25
열사 25
영양소 25
예감 25
예비@@ 25
옛@@ 25
옷걸이 25
왕성한 25
요리사 25
움푹 25
웅대 25
원문 25
원형 25
원활한 25
유세 25
유인 25
읊 25
응낙 25
의리 25
이것들 25
이견 25
이기적 25
이백 25
이분 25
이웃과 25
인공위성 25
인물들 25
인사이동 25
일품 25
입장료 25
자동@@ 25
자본@@ 25
자부 25
자빠지 25
자원@@ 25
자치 25
작곡 25
장하 25
재현 25
적금 25
전가 25
전교 25
전단 25
전란 25
전문점 25
전승 25
점퍼 25
정기@@ 25
정년 25
정치가 25
제갈량 25
제작진 25
조난 25
조세 25
조업 25
종이@@ 25
주파수 25
지금까지 25
지력 25
지원@@ 25
지칭 25
지피 25
집중력 25
징벌 25
쪽지 25
쭈그리 25
찬반 25
참을성 25
창백 25
천부적 25
천여 25
철폐 25
첨@@ 25
청장 25
쳤다 25
촉박 25
최고치 25
출발점 25
충심 25
층@@ 25
친목 25
카운터 25
칼럼 25
쿠션 25
쿨@@ 25
타이틀 25
탈북자 25
탈취 25
태국 25
통째로 25
통풍 25
퇴원 25
투정 25
툭툭 25
파멸 25
팔다리 25
페이@@ 25
폐기 25
폐기물 25
폐단 25
폭등 25
표본 25
표출 25
학문적 25
해도 25
헐뜯 25
활성 25
후왕허 25
흉년 25
흥얼거리 25
힐 25
12일 24
18세 24
1998년 24
1인당 24
23일 24
2회 24
37@@ 24
3학년 24
8개 24
90년대 24
M@@ 24
N@@ 24
가끔씩 24
가려@@ 24
가열 24
가지런히 24
가책 24
갈기 24
강대국 24
강세 24
객들 24
갱 24
거저 24
검진 24
검출 24
겁나 24
겉모습 24
게는 24
견고한 24
견실 24
결부 24
경영진 24
경제발전 24
경제학 24
계책 24
고독 24
고려@@ 24
고찰 24
공공기관 24
공상 24
공업@@ 24
공작 24
공전 24
과부 24
과일@@ 24
관철 24
교육과 24
구급차 24
구식 24
국민적 24
권력@@ 24
극대화 24
극성 24
기술력 24
기업가 24
기용 24
깁 24
까먹 24
께@@ 24
낙타 24
날들 24
낯익 24
내력 24
내정 24
냇물 24
냉전 24
넓이 24
논점 24
니깐 24
다간 24
다발 24
다채로운 24
단다 24
단언 24
답지 24
대리@@ 24
대부금 24
대중문화 24
도량 24
도로@@ 24
도쿄 24
되길 24
된장찌개 24
됨됨이 24
등기 24
때마침 24
럭@@ 24
렌@@ 24
로맨스 24
로켓 24
막걸리 24
만으로도 24
매개 24
매화 24
먹었다 24
먼 24
멀미 24
명사 24
모레 24
모종 24
못내 24
무기력 24
무뚝뚝하 24
무승부 24
뭐하 24
미니@@ 24
미성년자 24
민호에 24
바지@@ 24
박력 24
반대편 24
반짝 24
발가락 24
발돋움 24
방문@@ 24
방위 24
백제 24
버무리 24
벅@@ 24
범죄@@ 24
법령 24
변덕 24
변색 24
변함 24
변혁 24
보안@@ 24
볼륨 24
부속품 24
북돋우 24
분단 24
불우이웃 24
블루@@ 24
비밀@@ 24
비참한 24
비현실적 24
빠져@@ 24
빳빳하 24
뻐@@ 24
뿐@@ 24
뿔뿔이 24
사면 24
사무@@ 24
사무소 24
사지 24
산출 24
살결 24
살해 24
상거래 24
상큼 24
샅샅이 24
색다르 24
생각지 24
생방송 24
샤오@@ 24
서비스@@ 24
서야 24
선망 24
선점 24
섣달 24
설거지 24
소박한 24
소방관 24
소양 24
손가락질 24
수로 24
숙녀 24
순응 24
슬슬 24
시며 24
시범@@ 24
시조 24
시한 24
실버 24
심취 24
아궁이 24
아웃 24
안간힘 24
안장 24
안전성 24
암살 24
앞@@ 24
어딘가 24
언론@@ 24
었거나 24
연고 24
연주회 24
영접 24
영화배우 24
예산안 24
오른손 24
올여름 24
외교관 24
외환위 24
우물쭈물하 24
우애 24
운치 24
움켜쥐 24
원본 24
원자력 24
위험@@ 24
유명해지 24
을지언정 24
음란 24
음흉 24
읍시다 24
의사들 24
이발 24
이삿짐 24
이용@@ 24
인삼 24
인수 24
인증 24
인터넷상 24
일컬 24
잉크 24
자금@@ 24
자립 24
자욱한 24
잔업 24
장정 24
전류 24
전학 24
점심시간 24
접전 24
정당@@ 24
정해 24
젖히 24
존엄성 24
종양 24
주시오 24
주야 24
주조 24
즘 24
증폭 24
진기 24
진로 24
집단적 24
찰 24
참기름 24
창호지 24
채집 24
체형 24
초보 24
초안 24
촉각 24
총력 24
총재 24
최우수 24
추격 24
충동 24
치유 24
친정 24
커버 24
콩나물 24
타국 24
타이밍 24
탄광 24
탐정 24
토론@@ 24
토지@@ 24
톡톡히 24
특이한 24
패션쇼 24
펑크 24
포스터 24
플라@@ 24
필요@@ 24
하락세 24
하품 24
학벌 24
학부 24
한어 24
할리우드 24
해고 24
햇@@ 24
행군 24
행여 24
헤어스타일 24
헬스클럽 24
현기증 24
현저 24
협곡 24
호통 24
혼합 24
활자 24
횡포 24
후세 24
후퇴 24
휙 24
흔들거리 24
흘러들 24
00@@ 23
17일 23
1990년대 23
1층 23
1회 23
2013년 23
21@@ 23
2시 23
2일 23
4억 23
70년대 23
H@@ 23
L@@ 23
m@@ 23
ㄴ다니 23
子 23
가도 23
간곡 23
간편 23
감각적 23
감촉 23
강행 23
개량 23
개시 23
객지 23
거미줄 23
거점 23
거침없이 23
걱정거리 23
걷잡 23
검사@@ 23
게시물 23
격전 23
결근 23
결손 23
결정@@ 23
경신 23
경악 23
경직 23
고가 23
고기 23
고령화 23
고원 23
고집@@ 23
곤두세우 23
공격적 23
공방 23
공제 23
구성@@ 23
구청 23
군복 23
군사훈련 23
군주 23
그까짓 23
그램 23
긁히 23
금기 23
금융위 23
급속 23
기복 23
기생 23
기체 23
긴밀 23
깃@@ 23
깜깜하 23
깜박거리 23
꽃무늬 23
꾸러미 23
꿀@@ 23
끌어안 23
납작 23
내수 23
내쫓 23
놀러@@ 23
뇨 23
누차 23
늘씬 23
늙은이 23
능률 23
늦가을 23
다고 23
다방 23
단맛 23
단면 23
단축 23
달달 23
닷새 23
대등 23
대륙@@ 23
대리 23
대야 23
대작 23
대충대충 23
댕@@ 23
덩 23
도랑 23
도사리 23
도피 23
독서@@ 23
돈벌이 23
동산 23
두각 23
두근거리 23
두께 23
뒤섞 23
들꽃 23
들끓 23
들썩이 23
등록@@ 23
딴 23
떠맡 23
람@@ 23
마을@@ 23
만료 23
만세 23
만으로 23
망각 23
매니저 23
매스컴 23
매혹 23
면역@@ 23
면허 23
명쾌 23
명품@@ 23
모델들 23
모바 23
모호 23
목구멍 23
목덜미 23
무의미 23
무장한 23
물놀이 23
미사일 23
민속 23
밋밋하 23
박자 23
반들반들하 23
밥맛 23
백지 23
밴딩 23
뱃@@ 23
번번이 23
병풍 23
보디@@ 23
보수@@ 23
부들 23
부분적 23
부족@@ 23
부추 23
불가 23
불고기 23
불성실 23
불어넣 23
불이익 23
붓@@ 23
블 23
블록 23
비틀거리 23
뻥@@ 23
사상@@ 23
사업자 23
사한 23
살림 23
상정 23
새들 23
색시 23
생산품 23
생중계 23
서글프 23
서비스업 23
서열 23
선뜻 23
선수권대회 23
성패 23
세부 23
소지품 23
수렴 23
수직 23
순종 23
순탄 23
스위스 23
스케이트 23
시급히 23
시던 23
시민@@ 23
시종일관 23
시해 23
신체@@ 23
신체적 23
실명 23
실전 23
심야 23
싸구려 23
쏜살같이 23
아ㄹ까 23
아다면 23
아득히 23
아름 23
아침@@ 23
악보 23
안보@@ 23
안타 23
알차 23
애착 23
야간@@ 23
야구@@ 23
양성@@ 23
어떤지 23
어린이날 23
어마어마 23
어민들 23
어지@@ 23
언짢 23
얹히 23
었더라면 23
여객 23
여행객들 23
역겹 23
역설 23
연일 23
연초 23
연한 23
연합군 23
열량 23
염증 23
영정 23
영화계 23
오솔길 23
온돌 23
온전 23
와인 23
우람 23
우매 23
울적 23
위급한 23
위독 23
위안화 23
위인 23
위층 23
유동 23
유람선 23
유사한 23
유일 23
유적지 23
윤리 23
윤리@@ 23
으시ㄴ다 23
으시어도 23
으쓱@@ 23
음산 23
이웃@@ 23
이해@@ 23
인부 23
인플레이션 23
일구 23
일본군 23
일본어 23
일소 23
입체 23
잇@@ 23
자극적 23
자료들 23
자본주의 23
자연환경 23
자장면 23
자행 23
장례식 23
장물 23
재삼 23
재즈 23
저당 23
전년 23
전략@@ 23
정당화 23
조개 23
조소 23
종잡 23
좌담회 23
주들 23
주한미군 23
중요@@ 23
중학생 23
지각한 23
지구상 23
지도자들 23
지로 23
지혜로운 23
진용 23
진위 23
진찰@@ 23
짐 23
짓밟 23
징계 23
짙푸르 23
창설 23
천만 23
청혼 23
체인 23
촘촘하 23
추리 23
출력 23
출하 23
출혈 23
취재진 23
치료법 23
치키 23
친척들 23
친히 23
칭하 23
커플 23
케케묵 23
콜@@ 23
콧물 23
타향 23
탁하 23
통나무 23
편집@@ 23
포괄 23
포도주 23
표면적 23
품행 23
풋@@ 23
핍박 23
핑크 23
하시오 23
하의 23
학살 23
학생@@ 23
학습@@ 23
한대 23
합당 23
해독 23
핵심@@ 23
행세 23
행실 23
허구 23
헌법@@ 23
현대차 23
형식적 23
혼수 23
화물차 23
화이트 23
환경보호 23
활발히 23
황당 23
황사 23
획@@ 23
횡단 23
효율성 23
후유증 23
훈 23
훈련@@ 23
훈훈 23
흉 23
흠집 23
,@@ 22
..... 22
11 22
196@@ 22
19일 22
1시 22
2012년 22
20명 22
21세기 22
3시간 22
3층 22
400@@ 22
8강 22
W@@ 22
c@@ 22
ㄴ가는 22
ㄴ다니까 22
ㄴ즉 22
가벼이 22
가세 22
가요 22
가지런 22
감복 22
감자@@ 22
강직 22
건축 22
걷어차 22
걸레 22
걸려@@ 22
걸음 22
겁@@ 22
게요 22
격화 22
결백 22
결속 22
경쟁률 22
경적 22
계모 22
고구 22
골칫거리 22
골프장 22
공략 22
공룡 22
공장@@ 22
공정위 22
공하 22
관통 22
구들 22
구수한 22
국한 22
국화 22
군사들 22
굳건 22
권위자 22
귀속 22
금주 22
급선무 22
급식 22
기름기 22
기리 22
기물 22
기점 22
김밥 22
깔@@ 22
꼴@@ 22
꼿꼿하 22
꽁@@ 22
남성들 22
낭만 22
낱낱 22
내포 22
넘쳐흐르 22
노골적 22
노래방 22
노후 22
녹슬 22
다방면 22
닥 22
단아 22
달갑 22
담백 22
담백한 22
당나라 22
대범하 22
대조적 22
대처해 22
대패 22
대학입시 22
더어 22
덧없 22
덮어씌우 22
동봉 22
동의안 22
두부@@ 22
뒹굴 22
들이마시 22
디스크 22
딩@@ 22
딱@@ 22
떵@@ 22
똑 22
뚱@@ 22
라니까 22
러지 22
런민삐 22
레저 22
로구나 22
만능 22
말려@@ 22
먹칠 22
면목 22
모범적 22
모유 22
목표@@ 22
몸짓 22
못마땅 22
무미건조 22
무예 22
무의식적 22
무질서 22
문안 22
물색 22
미달 22
미화 22
민망 22
민속@@ 22
민의 22
민족적 22
민호야 22
밀도 22
밍 22
밑지 22
박박 22
반쯤 22
받이 22
발발 22
밝혀지 22
배꼽 22
백방 22
백여 22
버터 22
버튼 22
번식 22
벚꽃 22
베이스 22
별장 22
병아리 22
보살핌 22
보수적 22
보자기 22
본론 22
본질적 22
봄비 22
봉건@@ 22
뵙 22
뵙@@ 22
부러뜨리 22
부르짖 22
부응 22
부족함 22
부풀리 22
부흥 22
북방@@ 22
불태우 22
브리핑 22
비닐 22
비옥 22
빨@@ 22
사계절 22
사교@@ 22
사다리 22
사령부 22
사십 22
산모 22
상위 22
상적 22
생명체 22
생선@@ 22
서해안 22
선진@@ 22
선진화 22
선천적 22
설악산 22
성인병 22
세로 22
세미나 22
세속 22
셨는데 22
소대 22
소설책 22
소용돌이 22
손등 22
수교 22
수도@@ 22
수들 22
수척 22
수풀 22
숨@@ 22
숫@@ 22
숱하 22
스름하 22
스마트 22
시길 22
시아@@ 22
시죠 22
시커먼 22
신기술 22
신청자 22
실업@@ 22
실제적 22
심리@@ 22
심사@@ 22
심사위원 22
싱글 22
쑤져우 22
쓰다듬 22
아가씨들 22
아낙네들 22
아는가 22
아라면 22
아리 22
아무튼 22
아오@@ 22
악의 22
알아채 22
앙상 22
야무지 22
약삭빠르 22
얌전한 22
양파 22
얕잡 22
어떨까 22
어야@@ 22
어요 22
억세 22
에게@@ 22
여론조사 22
여름방학 22
연단 22
연락@@ 22
연신 22
연탄 22
영웅적 22
예배 22
옛것 22
오디오 22
오색 22
오페라 22
오픈 22
온대 22
완만 22
외식 22
용병 22
용수 22
우쭐대 22
욱 22
운전면허 22
위생@@ 22
유실 22
유학생 22
육아 22
음식@@ 22
의식적 22
의연 22
이성적 22
이씨 22
인맥 22
인재들 22
일과 22
일괄 22
일색 22
임상 22
자구 22
자위 22
잠재 22
잣대 22
장단점 22
장렬 22
장막 22
장인 22
저속한 22
저울 22
적수 22
적지 22
전과 22
전당 22
전무 22
전쟁@@ 22
전투@@ 22
점심때 22
점쟁이 22
정겹 22
정색 22
정성껏 22
제2@@ 22
제동 22
졸업장 22
주름살 22
주문@@ 22
주차@@ 22
줄기 22
중량 22
즐비 22
증강 22
증권@@ 22
지리산 22
지새우 22
지식@@ 22
지저귀 22
지하철역 22
직장인 22
진나라 22
진보@@ 22
진솔 22
짜릿하 22
쫑@@ 22
쫓아다니 22
찜질 22
찻집 22
책가방 22
청년@@ 22
축하@@ 22
측량 22
캐묻 22
컬 22
콘@@ 22
콘텐츠 22
콜 22
쾌적 22
킬@@ 22
탄식 22
탈선 22
탈세 22
태아 22
통일@@ 22
투사 22
투철 22
특검 22
판매가 22
팩 22
평야 22
평탄 22
포켓 22
포크 22
표절 22
표준말 22
필연 22
하려 22
하사 22
한결같 22
한낮 22
한몫 22
한옥 22
할당 22
함락 22
합격@@ 22
항거 22
항아리 22
해결@@ 22
해야 22
핵심적 22
핸드백 22
행동@@ 22
행정부 22
혁신적 22
현금@@ 22
현란한 22
형벌 22
호숫가 22
호적 22
화병 22
화장@@ 22
환불 22
환히 22
후각 22
후회해 22
흑백 22
희박 22
100명 21
16세 21
19세 21
26@@ 21
34@@ 21
60년 21
60주년 21
CD 21
e 21
가로등 21
가수들 21
가슴@@ 21
각광 21
간밤 21
간소 21
간접 21
갈매기 21
갈피 21
감나무 21
강구해 21
강압적 21
같이하 21
개개인 21
개인주의 21
거래처 21
걸음걸이 21
견주 21
결연히 21
경비원 21
경작 21
경쟁@@ 21
경제성장 21
곁@@ 21
계약@@ 21
고속@@ 21
고적 21
고초 21
고추장 21
곤혹 21
골문 21
공격@@ 21
공고히 21
공동성명 21
공석 21
과속 21
과즙 21
관계@@ 21
관람객 21
관장 21
굉장 21
구슬리 21
국민연금 21
궁금증 21
귀환 21
균등 21
그리@@ 21
기계@@ 21
기념식 21
기름 21
기압 21
기여 21
기치 21
깍@@ 21
깜박이 21
꼬박꼬박 21
꼴불견 21
꽃향기 21
끄집어내 21
나그네 21
낙 21
낙제 21
낙천적 21
난무 21
난민 21
날아들 21
남김없이 21
낭패 21
내빈 21
내성적 21
내팽개치 21
냉대 21
냉랭 21
너덜너덜하 21
녘 21
농도 21
농지 21
농후 21
놔 21
뇌리 21
눕히 21
다가서 21
단합 21
대법관 21
대역 21
대오 21
대적 21
댐 21
덕거리 21
독성 21
독주 21
동그라미 21
동성 21
동아@@ 21
동창회 21
동화책 21
두둔 21
뒤집어씌우 21
들지 21
등대 21
디자이너 21
따먹 21
땀@@ 21
때려@@ 21
떠받치 21
떨구 21
똑똑 21
뛰놀 21
라고도 21
락하 21
리다 21
리얼 21
리치 21
린넨 21
마저도 21
막무가내 21
만개 21
매도 21
머리칼 21
머뭇거리 21
먹물 21
멍@@ 21
면접관 21
명부 21
모락모락 21
모면 21
몸부림치 21
무드 21
무모 21
무사@@ 21
무어 21
무엇인가 21
묵직 21
문체 21
물방울 21
묽 21
미묘한 21
밀려들 21
밀치 21
박탈 21
박해 21
반칙 21
발바닥 21
발병 21
밤길 21
방위@@ 21
배낭 21
백년 21
버림받 21
번쩍이 21
벙@@ 21
벤처 21
변론 21
변소 21
별개 21
보도@@ 21
볶음밥 21
본능적 21
봄철 21
봉착 21
부녀 21
부수입 21
부식 21
부총리 21
불결 21
불능 21
불행히 21
브로@@ 21
비대 21
비좁 21
빈말 21
빈자리 21
빛내 21
빠진 21
빽빽하 21
뽀@@ 21
뿌리내리 21
사내아이 21
사도 21
사오@@ 21
사체 21
사하 21
상륙 21
상추 21
생명력 21
샨@@ 21
서버 21
서식 21
서양@@ 21
선임 21
성형 21
세례 21
센티 21
소굴 21
소매@@ 21
소신 21
속출 21
속칭 21
송송 21
수감 21
수거 21
수리@@ 21
수반 21
수수료 21
수익률 21
수지 21
숙박 21
순순히 21
숭배 21
스미 21
스웨덴 21
스페인 21
습도 21
시시 21
시어라 21
신경쓰 21
신당 21
신세대 21
신속한 21
신조 21
신축 21
신혼부부 21
신혼여행 21
실루엣 21
실습 21
실연 21
실책 21
실탄 21
실태 21
썰매 21
아나운서 21
아니까 21
아슬아슬하 21
악물 21
악습 21
안내@@ 21
암초 21
암흑 21
압 21
양면 21
양탄자 21
어민 21
어부 21
었고요 21
여생 21
여쭈 21
역행 21
연안 21
연애@@ 21
연연 21
연체 21
연합@@ 21
였다 21
영구 21
영양분 21
예습 21
오일 21
온기 21
올가미 21
옹 21
왕실 21
요충지 21
용의 21
우울증 21
운송하 21
울부짖 21
웃@@ 21
워싱턴 21
원금 21
월세 21
유성 21
유예 21
유행가 21
융화 21
으뜸 21
으로@@ 21
으십시오 21
음주운전 21
의결 21
의젓 21
의존도 21
이슈 21
이층 21
이틀간 21
인민들 21
인상@@ 21
인어 21
인조 21
일기장 21
일반화 21
일절 21
일화 21
임원들 21
입속 21
입학시험 21
잉글랜드 21
자산@@ 21
자연재해 21
작곡가 21
잔꾀 21
잔잔 21
잔치 21
잠수함 21
장악 21
재롱 21
재봉틀 21
재혼 21
저금통 21
저렴한 21
저서 21
전교조 21
전심전력 21
전차 21
전해 21
점하 21
정의로운 21
제대 21
조마조마하 21
조직적 21
종결 21
종업원들 21
주변국 21
즉@@ 21
지도하 21
직선 21
진땀 21
진열대 21
짐짓 21
쪼@@ 21
쪼그리 21
쭉@@ 21
차이@@ 21
참석자들 21
참패 21
창조적 21
채색 21
채식 21
책꽂이 21
처리해서 21
처신 21
초고 21
초상 21
촬영@@ 21
축원 21
치밀어 21
치사 21
친지들 21
카펫 21
캐주얼 21
코튼 21
콜라 21
클릭 21
킬로 21
탁탁 21
통곡 21
통상적 21
통찰력 21
퇴색 21
투표@@ 21
트로@@ 21
파동 21
편지 21
편찮 21
평지 21
포탄 21
폭동 21
폭력@@ 21
폭력적 21
폭발적 21
표방 21
풀칠 21
풍경화 21
피고인 21
필요도 21
필치 21
하느님 21
하달 21
하여 21
한약 21
한턱 21
한화 21
해물 21
행각 21
행사장 21
허둥대 21
허술 21
허전 21
헝클어지 21
헤프 21
현미경 21
현역 21
호화로운 21
혼탁 21
홈@@ 21
화창 21
환절기 21
환호성 21
활주로 21
황소 21
황홀 21
횟수 21
효능 21
후진 21
휘파람 21
흐리멍덩하 21
흔쾌히 21
00원 20
12 20
18일 20
26일 20
2세 20
2천 20
50주년 20
55@@ 20
9일 20
ㄹ께 20
가가 20
가만있 20
가뿐 20
가죽@@ 20
간청 20
갈이 20
감독@@ 20
감사@@ 20
개관 20
개표 20
개화 20
거려 20
거요 20
겁내 20
것인가 20
게끔 20
겨우내 20
결승선 20
결정짓 20
결판 20
계속해서 20
고마움 20
고심 20
고열 20
고체 20
골격 20
공격수 20
공사@@ 20
공시 20
공정성 20
공직@@ 20
과감히 20
과거사 20
과식 20
관람객들 20
관료주의 20
관리들 20
관망 20
관용 20
광대 20
교수@@ 20
교수들 20
교육비 20
교환@@ 20
구박 20
구슬프 20
국들 20
국사 20
국자 20
군데군데 20
굽이 20
그리하 20
근접 20
급속도 20
기괴 20
기발한 20
기약 20
기억@@ 20
기억할 20
기특 20
길바닥 20
까딱 20
까봐 20
깜박 20
깡패 20
꼭꼭 20
꽝 20
끼어들지 20
낙서 20
낙하산 20
난잡 20
남몰래 20
남발 20
낭송 20
내전 20
냉수 20
넷 20
녀석들 20
노쇠 20
논술 20
농번기 20
누그러지 20
눈보라 20
느닷없이 20
님@@ 20
다니까 20
다부지 20
다잡 20
다큐멘터리 20
닭고기 20
대기 20
대기@@ 20
대비한 20
대외적 20
던가 20
덥석 20
덩달 20
데모 20
도까지 20
도둑놈 20
독립운동 20
독신 20
동동 20
동무 20
동사무소 20
동생들 20
동아일보 20
동업 20
뒤통수 20
든가 20
들에 20
등골 20
란다 20
랄@@ 20
레드 20
레몬 20
리드 20
리아 20
리어라 20
리한 20
마개 20
마크 20
망망한 20
매몰차 20
맨날 20
면담 20
명백히 20
명암 20
모래밭 20
목사 20
목요일 20
목욕탕 20
몰골 20
무난 20
무색 20
무적 20
문신 20
문양 20
뭔지 20
미국인 20
미세 20
민중들 20
밀어@@ 20
반영한 20
반입 20
반품 20
반향 20
발버둥 20
발부 20
발자취 20
발작 20
방언 20
배격 20
백색 20
버드나무 20
범들 20
범벅 20
법무부 20
법인 20
법치 20
변모 20
병마 20
보름달 20
보초 20
보통@@ 20
부스@@ 20
부유층 20
부적 20
부터이 20
분홍색 20
불공정 20
불문 20
브리@@ 20
비굴 20
비서@@ 20
비석 20
비약 20
빅@@ 20
빈둥거리 20
빈손 20
빈틈없 20
빼돌리 20
뻔@@ 20
사범 20
사실@@ 20
사촌 20
상봉 20
상점들 20
상징적 20
새로이 20
샨 20
선량 20
선의 20
선입견 20
성당 20
성문 20
성적표 20
센@@ 20
센스 20
소득세 20
소총 20
수백만 20
수선 20
수시 20
수원 20
수재 20
술술 20
숭고 20
스터 20
승부욕 20
승차 20
시늉 20
시문 20
시사@@ 20
시트 20
신약 20
신임 20
실시간 20
심보 20
심지 20
십분 20
쓴맛 20
아ㅂ니까 20
아동@@ 20
아들@@ 20
아래쪽 20
아무개 20
아비 20
아이스@@ 20
아침저녁 20
아편 20
악영향 20
악천후 20
암벽 20
애원 20
애호 20
애호가 20
양지 20
어디선 20
어버이날 20
언뜻 20
얼핏 20
업소 20
엇@@ 20
었었는데 20
여념 20
여주인공 20
연락처 20
연인들 20
엿@@ 20
영사관 20
예능 20
예물 20
오늘밤 20
왔다갔다하 20
외래 20
외양간 20
용이 20
우리말 20
우선순위 20
운전@@ 20
움츠리 20
원대 20
원주민 20
웹툰 20
위대 20
위헌 20
유조선 20
으레 20
으셨@@ 20
의사@@ 20
의원직 20
의학@@ 20
이러 20
이러쿵저러쿵 20
이론@@ 20
이름@@ 20
이양 20
이처럼 20
이혼@@ 20
인간들 20
인건비 20
인산인해 20
인식하 20
인테리어 20
일가 20
임시@@ 20
입시@@ 20
잎@@ 20
자문 20
자아 20
자연계 20
자처 20
자체적 20
작풍 20
잡음 20
장병 20
장직 20
장판 20
저가 20
저편 20
전공@@ 20
전시@@ 20
전자상거래 20
점진적 20
점치 20
정숙 20
정확성 20
제적 20
제휴 20
조사한 20
조선시대 20
조심스레 20
주방장 20
중기 20
중화@@ 20
증기 20
증식 20
지간 20
지구촌 20
지반 20
지부 20
지자체 20
지조 20
지하실 20
지휘자 20
찡그리 20
차선 20
차창 20
참담 20
참배 20
참조 20
찻잔 20
책망 20
챵@@ 20
처가 20
천당 20
천진 20
철강@@ 20
첩@@ 20
청나라 20
초가집 20
초급 20
초상화 20
최고봉 20
추월 20
축의금 20
춤@@ 20
충당 20
침략자 20
칫솔 20
칼로리 20
쿠 20
타당성 20
태평 20
텐@@ 20
통치@@ 20
퇴치 20
툭하면 20
트렁크 20
특급 20
파렴치 20
판타지 20
팔아먹 20
패딩 20
편집자 20
편파적 20
평형 20
폐허 20
포화 20
표기 20
풀잎 20
풍랑 20
풍성 20
풍채 20
풍파 20
하느냐 20
하루종일 20
학교@@ 20
한다@@ 20
할퀴 20
해저 20
협동 20
형량 20
화석 20
확연히 20
활동적 20
황당무계 20
황산 20
회비 20
획일적 20
후대 20
훨훨 20
힘들이 20
00억 19
100년 19
11일 19
1970년대 19
2개월 19
3000 19
30명 19
35@@ 19
3점 19
3천 19
8시간 19
9개 19
9회 19
C 19
g@@ 19
가격@@ 19
가냘프 19
가득히 19
가만두 19
가식 19
가히 19
갉아먹 19
갑판 19
강습 19
개비 19
개혁안 19
갯벌 19
거창 19
건실 19
검소한 19
겨 19
결집 19
결탁 19
경계선 19
경유 19
경의 19
경제력 19
경호 19
계몽 19
고깃@@ 19
고무줄 19
고생@@ 19
곡절 19
공손 19
공주님 19
과업 19
광채 19
교문 19
교육감 19
교직 19
구조적 19
국고 19
국보 19
군림 19
군부 19
군함 19
굿 19
권자 19
궐@@ 19
귀중한 19
그네 19
근거지 19
기계화 19
기능@@ 19
기득권 19
기억해 19
길목 19
깔끔한 19
끈@@ 19
끌어@@ 19
나열 19
낙하 19
난국 19
난민들 19
난방@@ 19
내겐 19
내딛 19
내색 19
노동조합 19
노련 19
노모 19
노파 19
놀이공원 19
농토 19
놓으세요 19
누리꾼 19
누리꾼들 19
느끼@@ 19
능가 19
다면서 19
다오 19
단도직입적 19
단체@@ 19
당나귀 19
당당히 19
당사자들 19
대가리 19
대기업들 19
대청소 19
대체@@ 19
덜@@ 19
덤 19
덩굴 19
덫 19
데이@@ 19
도수 19
독소 19
독수리 19
독일@@ 19
돋치 19
돌격 19
동여매 19
동태 19
동해안 19
두리번거리 19
둔@@ 19
둥둥 19
뒤쫓 19
득실 19
듬직 19
등판 19
땅값 19
떠돌이 19
떨@@ 19
뜸 19
라던 19
랜드 19
럽@@ 19
로고 19
로선 19
룡@@ 19
륜@@ 19
른@@ 19
리ㄹ 19
리스트 19
리우@@ 19
마카오 19
막바지 19
만해 19
만행 19
말뚝 19
매매@@ 19
맨손 19
머니 19
머리끝 19
먹기 19
먹을래 19
먹음직스럽 19
멋쩍 19
면밀 19
명동 19
모교 19
모범@@ 19
몰입 19
무료@@ 19
무상@@ 19
무지한 19
무차별 19
무치 19
물길 19
물자 19
미비 19
미용 19
미혹 19
민들 19
박사학위 19
반군 19
반반 19
반세기 19
발췌 19
발표@@ 19
방한 19
백발 19
번역@@ 19
범죄자들 19
베일 19
벤치 19
변방 19
변상 19
병역 19
보고@@ 19
보금자리 19
복부 19
본격화 19
본관 19
부득불 19
부산@@ 19
부실@@ 19
북적거리 19
북측 19
분부 19
분석@@ 19
분유 19
불량@@ 19
불명예 19
불참 19
비스킷 19
비약적 19
비자금 19
빈곤@@ 19
빈도 19
빗발치 19
빙하 19
빤히 19
빻 19
뻐근 19
사각 19
사교 19
사기 19
사리사욕 19
살금살금 19
살길 19
상권 19
상담@@ 19
상주 19
새치기 19
생산력 19
서신 19
서커스 19
선글라스 19
설명서 19
성황 19
세계관 19
세기 19
세탁@@ 19
셨으니 19
소고 19
소변 19
소실 19
소프트@@ 19
속옷 19
손때 19
수긍 19
수돗물 19
수력 19
수요일 19
수한 19
쉬@@ 19
시나리오 19
시험장 19
식은땀 19
신경질 19
신도들 19
신들 19
신사적 19
신식 19
실무@@ 19
실패해 19
실험실 19
심사숙고 19
십중팔구 19
싶은데요 19
아마추어 19
아무@@ 19
아므로 19
아우 19
악용 19
안내원 19
알맹이 19
암기 19
애절 19
야단맞 19
야망 19
야외@@ 19
약세 19
양도세 19
양손 19
양육 19
어쩌다 19
얼룩지 19
엄중 19
엄중한 19
엄중히 19
었건 19
엉 19
엉망진창 19
에서이 19
엑스포 19
여가 19
여름날 19
여운 19
여직원 19
여학생들 19
여행자 19
연도 19
연발 19
연승 19
연주자 19
열중 19
엽 19
엿보이 19
예기치 19
옛날이야기 19
오디션 19
요직 19
요하 19
욕조 19
우수@@ 19
우승컵 19
우편@@ 19
운전수 19
움큼 19
원산지 19
유보 19
유연성 19
유연한 19
유전적 19
은거 19
은근한 19
음식들 19
응고 19
의기양양 19
의술 19
의적 19
이기주의 19
이끼 19
이따가 19
이력 19
이바 19
이삭 19
이의 19
이재민들 19
이적 19
인터넷@@ 19
일당 19
일환 19
임금님 19
임자 19
입가 19
입법@@ 19
잉태 19
자살@@ 19
자석 19
잠수 19
장난@@ 19
장편 19
재산@@ 19
재해지역 19
쟁이 19
저항력 19
전력@@ 19
정치계 19
젖소 19
제2차 19
제각각 19
제물 19
제조@@ 19
져@@ 19
조인 19
족하 19
좀도둑 19
종아리 19
주눅 19
주동적 19
주의@@ 19
주인@@ 19
죽지 19
중소 19
지령 19
지배@@ 19
지배인 19
지배적 19
지분 19
지앙 19
지앙@@ 19
지연이 19
직함 19
진부한 19
질색 19
착공 19
찬란 19
찬장 19
참작 19
채찍질 19
책자 19
책정 19
처참 19
철새 19
청첩장 19
청탁 19
쳐 19
쳥뚜 19
초목 19
촌스럽 19
총살 19
최다 19
추악 19
추잡 19
축사 19
축하드리 19
출산@@ 19
충치 19
치료@@ 19
칼슘 19
커닝 19
컬러감 19
코디@@ 19
콧대 19
쾌락 19
퀴즈 19
큰소리치 19
큰일나 19
타임 19
탐지 19
탐험 19
탱@@ 19
터무니 19
터전 19
텃밭 19
테두리 19
퇴출 19
투기 19
투성 19
파란색 19
파벌 19
판명 19
팥@@ 19
패거리 19
팽@@ 19
펑펑 19
페이스 19
편집하 19
편차 19
평일 19
포위망 19
푸른색 19
플 19
하루@@ 19
하오 19
하우스 19
하인 19
학창 19
한민족 19
한의사 19
해역 19
헤어나 19
헬리콥터 19
현직 19
혐의자 19
협력@@ 19
호화@@ 19
홍색 19
홑@@ 19
확고히 19
활달 19
활발해지 19
황량 19
회전@@ 19
횡단보도 19
효자 19
후와@@ 19
훌@@ 19
훌륭히 19
훼방 19
흔@@ 19
100주년 18
10주년 18
120@@ 18
27일 18
29@@ 18
2미터 18
3000@@ 18
3회 18
45@@ 18
F@@ 18
T@@ 18
h@@ 18
~ 18
ⓐ 18
가뜩이나 18
가랑비 18
가상@@ 18
가을@@ 18
간염 18
간지@@ 18
갈림길 18
갈아@@ 18
감미로운 18
갔다 18
개간 18
개천 18
거역 18
건반 18
검열 18
겉모양 18
겨레 18
격리 18
경쾌 18
고궁 18
고대@@ 18
고추@@ 18
고퀄리티 18
곡선 18
곤궁 18
곧이어 18
곰곰이 18
곱씹 18
곱하기 18
공기@@ 18
공명 18
광풍 18
괴담 18
교통수단 18
국경일 18
국채 18
군침 18
궁극적 18
귀여움 18
극진히 18
급기야 18
급성 18
급정거 18
기고만장 18
기관@@ 18
기관총 18
기껏해야 18
기념행사 18
기름값 18
기말고사 18
기사@@ 18
기원전 18
기자회견 18
긴박 18
깃털 18
깡@@ 18
깡충깡충 18
껄@@ 18
껄끄럽 18
꽃가루 18
꽃다발 18
끈적끈적하 18
끌어당기 18
난폭 18
남녀노소 18
남학생 18
낭랑 18
낭비해서 18
내두르 18
내륙 18
내치 18
냇가 18
노부부 18
노상 18
노정 18
놨@@ 18
누이 18
누추 18
눈높이 18
눈살 18
눈시울 18
다시금 18
단기간 18
담력 18
답장 18
당일 18
대신해서 18
대여섯 18
대지진 18
대통령@@ 18
대학원생 18
대합실 18
더라고 18
더라니 18
덕목 18
데굴데굴 18
도덕@@ 18
도들 18
도박@@ 18
도배 18
도서@@ 18
도안 18
도출 18
도톰 18
도통 18
도하 18
동북 18
동양적 18
뒷전 18
드라@@ 18
드러눕 18
드리@@ 18
들고 18
듬@@ 18
땔나무 18
렁거리 18
로가 18
롤@@ 18
룡 18
리비아 18
마법 18
마술사 18
마이너스 18
막노동 18
막심 18
만기 18
만끽 18
만성@@ 18
만인 18
만큼이나 18
말끔 18
망연자실 18
맞벌이 18
먹거리 18
면도 18
모터 18
목들 18
목표물 18
목화@@ 18
몽롱 18
무궁무진 18
무명 18
물건값 18
물류 18
물리@@ 18
뭍 18
미국에서 18
미술품 18
밀봉 18
밀수@@ 18
밀집 18
밀착 18
박사@@ 18
반말 18
반바지 18
반쪽 18
밤새우 18
방어@@ 18
방울@@ 18
방탕 18
배구 18
배수 18
버릇없이 18
벙어리 18
베스트셀러 18
변통 18
병환 18
보드랍 18
보증금 18
보험료 18
복통 18
복합 18
본국 18
봉기 18
봉변 18
봉사@@ 18
부담@@ 18
부대끼 18
부사장 18
부처님 18
부화 18
분쇄 18
분양@@ 18
분화 18
불같 18
불꽃놀이 18
불량배들 18
불변 18
불충분 18
불현듯 18
블랙@@ 18
비주류 18
비탈길 18
빗대 18
빛@@ 18
빽빽이 18
뿌리@@ 18
사립@@ 18
사사로이 18
사스 18
산촌 18
살그머니 18
삽시간 18
상대팀 18
상스럽 18
상품들 18
새우@@ 18
생리적 18
생산적 18
생존@@ 18
샹하이@@ 18
서거 18
서산 18
선거법 18
선관위 18
선배들 18
설교 18
설문 18
성기 18
성벽 18
성조 18
세상사 18
세요 18
세탁소 18
세포@@ 18
셨나 18
소개@@ 18
소년@@ 18
소름 18
소인배 18
손쉽 18
쇄신 18
수강 18
수고 18
수리해 18
수모 18
수산물 18
수용소 18
수익금 18
수익성 18
수정@@ 18
수주 18
수출입 18
슈즈 18
스릴 18
스크@@ 18
스튜디오 18
스트라이프 18
스판 18
스페 18
스피@@ 18
승려 18
승복 18
시위@@ 18
시큼 18
시해서 18
식사@@ 18
식성 18
식습관 18
신고서 18
신랄 18
신봉 18
심성 18
심히 18
싱그럽 18
쑤@@ 18
쓰러뜨리 18
아다며 18
아동들 18
아련 18
아수라장 18
아스팔트 18
악명 18
앙 18
애국 18
애꿎 18
애지중지 18
애틋 18
야경 18
얄@@ 18
양대 18
양심적 18
어부들 18
어서라면 18
어처구니 18
억척 18
업자들 18
었답니다 18
엎치 18
에게로 18
여쭙 18
여파 18
역정 18
연유 18
열망 18
영양@@ 18
영웅들 18
영합 18
예고 18
예수 18
옛말 18
오금 18
오케스트라 18
옵@@ 18
와이@@ 18
완전@@ 18
왕복 18
왕자님 18
외딴 18
용감@@ 18
우두머리 18
우둔 18
우열 18
우월 18
우파 18
우회@@ 18
운영@@ 18
원내 18
원만히 18
원시림 18
원적 18
위기@@ 18
위병 18
위생적 18
위풍 18
유별나 18
유전@@ 18
유행성 18
육체적 18
은빛 18
음악적 18
응어리 18
의류@@ 18
의탁 18
이론적 18
이에게 18
이와 18
이직 18
이튿날 18
인권@@ 18
인력@@ 18
인생@@ 18
인생관 18
인접 18
인지 18
인치 18
일렬 18
임종 18
입문 18
입자 18
입찰@@ 18
있겠소 18
자력갱생 18
자막 18
자잘 18
자형 18
장가들 18
장기화 18
장사꾼 18
장씨 18
장원 18
장터 18
재산권 18
재활용 18
저속 18
저질 18
저해 18
전갈 18
전래 18
전신@@ 18
절충 18
정교한 18
정상@@ 18
제멋 18
져우@@ 18
조깅 18
조끼 18
조리@@ 18
조처 18
조촐 18
좀@@ 18
주자들 18
주점 18
줄기세포 18
중국산 18
중매 18
중화민족 18
지대한 18
지방자치단체 18
지참 18
직하 18
진행@@ 18
진흥@@ 18
집권@@ 18
징후 18
짭짤 18
째@@ 18
쫑긋 18
찌들 18
차관 18
차표 18
찬찬히 18
찬탄 18
참관 18
참답 18
참석자 18
참외 18
창법 18
채점 18
천박 18
천체 18
첫눈 18
첫인상 18
청명 18
청소년기 18
청자 18
초소 18
추진력 18
출렁이 18
출발@@ 18
출입구 18
출중한 18
치기 18
친형제 18
칸@@ 18
커플룩 18
컨테이너 18
컬@@ 18
컴@@ 18
콧@@ 18
쾌활 18
쿠데타 18
쿵@@ 18
타지 18
탐내 18
텔레@@ 18
통쾌 18
퉁@@ 18
튜브 18
트랙 18
특이 18
튼 18
팀@@ 18
파기 18
파릇파릇 18
패드 18
편의점 18
편협 18
평면 18
포도@@ 18
폭음 18
표지판 18
표현@@ 18
프라이버시 18
피고 18
피곤해서 18
필경 18
필기 18
하늘가 18
하릴없 18
한나라 18
한문 18
한발 18
한파 18
할일 18
함량 18
해답 18
해방군 18
해커 18
핸들 18
헐렁 18
험준 18
헬@@ 18
혁@@ 18
현대사회 18
협의회 18
협찬 18
호령 18
호리호리하 18
혹한 18
혼인@@ 18
홍콩@@ 18
화이트칼라 18
화적 18
화풀이 18
환경부 18
활개 18
휘청거리 18
휴대용 18
흉기 18
흉내내 18
흉악범 18
100억 17
13 17
1999년 17
1개월 17
2000 17
2000@@ 17
21 17
24일 17
29일 17
2대 17
3,000@@ 17
3주 17
50대 17
600 17
D 17
V@@ 17
p@@ 17
t@@ 17
ⓑ 17
ㄹ테니 17
一@@ 17
가령 17
가로수 17
가미 17
가발 17
가속화 17
가해자 17
간간이 17
간과 17
간담회 17
갈취 17
감시@@ 17
감회 17
갓난아이 17
강제적 17
강타 17
강팀 17
강풍 17
개구쟁이 17
개성적 17
갯@@ 17
거늘 17
거니와 17
거듭나 17
거머쥐 17
거시적 17
거처 17
걱정@@ 17
걸터앉 17
것이@@ 17
것이요 17
게이 17
겠냐 17
격분 17
격투 17
결별 17
결선 17
경건 17
경리 17
경마 17
경찰청 17
경탄 17
계획적 17
고령 17
고유가 17
고정@@ 17
곧이곧대 17
골대 17
공산@@ 17
공허 17
공화국 17
공황 17
광기 17
교부 17
구경@@ 17
구름@@ 17
구전 17
구제@@ 17
구차 17
구체 17
국교 17
굴레 17
궁전 17
권력자 17
권투 17
귀걸이 17
귓@@ 17
그것들 17
그댈 17
그을리 17
그이 17
근간 17
근거해 17
근거해서 17
근검절약 17
근로@@ 17
글쓰 17
글짓기 17
금융권 17
기기 17
기대감 17
기러기 17
기본권 17
길래 17
김장 17
까우 17
껌 17
꿩 17
나리 17
냉방 17
너무하 17
노끈 17
노약자 17
녹음기 17
농촌@@ 17
눈감 17
눈덩이 17
눈총 17
다름없이 17
다채 17
단념 17
달걀@@ 17
달째 17
담론 17
담배@@ 17
담뱃불 17
당면 17
당번 17
당선인 17
당선자 17
대단@@ 17
대미 17
대북@@ 17
대성 17
대의@@ 17
대한항공 17
더듬거리 17
도용 17
도지 17
독창성 17
돗자리 17
동성@@ 17
동업자 17
동이 17
동일 17
동적 17
동포들 17
동하 17
뒤처지 17
드높 17
듣@@ 17
들먹이 17
들이대 17
들이밀 17
따로따로 17
땋 17
떠벌@@ 17
또박또박 17
뛰어나 17
라이벌 17
래는 17
레하 17
렸@@ 17
로마@@ 17
루쉰 17
룰 17
른 17
리어도 17
마님 17
마른@@ 17
마모 17
만담 17
만장일치 17
만찬 17
만화@@ 17
많@@ 17
맥락 17
맹렬히 17
멀티@@ 17
면밀히 17
면회 17
명료 17
명제 17
명주 17
모국어 17
모스크바 17
모양새 17
모터@@ 17
모피 17
무인@@ 17
무허가 17
문란 17
문명@@ 17
물고기들 17
밍@@ 17
바닷바람 17
바삭바삭하 17
바자회 17
반감 17
반나절 17
반동 17
반점 17
발갛 17
발단 17
발원 17
발톱 17
뱀 17
버르장머리 17
법률적 17
베트남 17
변기 17
변함없이 17
별것 17
별나 17
별빛 17
별세 17
보습 17
보유@@ 17
보험금 17
보호자 17
본디 17
본토 17
부녀자들 17
북극 17
불가@@ 17
불규칙적 17
불붙 17
비빔밥 17
빈번히 17
빗소리 17
빙판 17
빚쟁이 17
빠져들었다 17
빤@@ 17
뻗@@ 17
뻥 17
뽀얗 17
사사로운 17
사업가 17
사은품 17
사주 17
사치@@ 17
산기슭 17
산림@@ 17
산악@@ 17
삼일 17
삽 17
상습적 17
상임@@ 17
상책 17
새끼@@ 17
색안경 17
샐러드 17
샘@@ 17
생기발랄 17
생산자 17
서민@@ 17
서법 17
서성거리 17
서약 17
선심 17
선원 17
성가 17
세간 17
세는 17
셨던 17
소들 17
소량 17
소품 17
손전등 17
쇼핑@@ 17
수년 17
수비수 17
수송@@ 17
수영복 17
숨소리 17
스폰서 17
스피커 17
슬픔 17
승산 17
시간적 17
시아오왕 17
시판 17
식빵 17
식후 17
신경@@ 17
신령 17
신바람 17
신변 17
신생아 17
신종 17
신통치 17
실업률 17
실의 17
실한 17
심금 17
심오 17
심플한 17
싶@@ 17
싹@@ 17
썰물 17
쑥쑥 17
씌 17
아무쪼록 17
아죠 17
안하 17
암세포 17
앞장 17
약초 17
약효 17
어두컴컴하 17
어색한 17
어야죠 17
어쩌다가 17
언론사 17
언저리 17
얼얼하 17
업무상 17
었으@@ 17
엉키 17
에피소드 17
여비 17
연사 17
연산 17
연행 17
열렬 17
엿듣 17
영리@@ 17
영아 17
예컨대 17
오버@@ 17
완전무결 17
왕년 17
왜소 17
외계 17
용해서 17
우선@@ 17
우승@@ 17
욱@@ 17
울창한 17
위선 17
위엔@@ 17
윈@@ 17
유구 17
유리잔 17
유원지 17
유월 17
유치@@ 17
유치한 17
육류 17
육체 17
융자 17
으라는 17
으시다 17
은밀히 17
을게 17
읍@@ 17
의무적 17
의복 17
의식@@ 17
의아 17
이끌리 17
이메일 17
이발소 17
이수 17
이웃나라 17
이지 17
인구@@ 17
인문@@ 17
인정@@ 17
인준 17
인질들 17
인테리 17
일관성 17
일교차 17
일명 17
일보 17
일원 17
일차적 17
일치단결 17
임기응변 17
잉어 17
잉여 17
자동차@@ 17
자사 17
자제@@ 17
자치@@ 17
잠입 17
잠재우 17
장세 17
장실 17
장엄 17
장전 17
재작년 17
쟁탈 17
쟈@@ 17
저온 17
저작권 17
전도@@ 17
전문성 17
전우 17
절이 17
접견 17
접목 17
정곡 17
정리@@ 17
정열 17
정진 17
정품 17
제품@@ 17
조각상 17
조의 17
죄수들 17
죄악 17
주길 17
주렁주렁 17
주시@@ 17
주식@@ 17
주유 17
줄기차 17
쥐구멍 17
즉흥적 17
지뢰 17
직감 17
직물 17
집념 17
짜임새 17
차도 17
차량들 17
차림 17
참관@@ 17
채권@@ 17
천문 17
천자 17
천재적 17
철사 17
첫걸음 17
청춘@@ 17
촉 17
최고급 17
최상 17
추이 17
추첨 17
추호 17
출몰 17
출판@@ 17
충원 17
취업난 17
치들 17
치레 17
친지 17
침울 17
커피@@ 17
커피숍 17
케어 17
켜@@ 17
코리아 17
쾅 17
쿵 17
키보드 17
킹@@ 17
탈모 17
탐관오리 17
털끝 17
털썩 17
텔 17
투기@@ 17
투어 17
틀@@ 17
파면 17
파묻 17
패자 17
팽개치 17
펠@@ 17
평균@@ 17
평안@@ 17
푸대접 17
풍성한 17
프랑스어 17
프린터 17
피땀 17
필시 17
하드@@ 17
하였@@ 17
학부형 17
한구석 17
한나절 17
한해 17
행복@@ 17
헐값 17
헝겊 17
혁명적 17
현실성 17
호흡기 17
화물@@ 17
확성기 17
환상적 17
활동@@ 17
횃불 17
후보@@ 17
후보자들 17
흡연@@ 17
흡입 17
희곡 17
희정아 17
1,000 16
12년 16
150 16
150@@ 16
1995년 16
1미터 16
200명 16
2011년 16
27 16
2번 16
2주 16
31일 16
4학년 16
700 16
N 16
PC 16
ㄴ단다 16
二@@ 16
阿@@ 16
가구들 16
가능@@ 16
가시@@ 16
가장@@ 16
가적 16
가출 16
각본 16
갈비@@ 16
감성적 16
감수성 16
감퇴 16
강호 16
개과천선 16
개나리 16
개방적 16
개체 16
개최국 16
거동 16
건너뛰 16
건더기 16
겁먹 16
겐@@ 16
겠군 16
격앙 16
견지해 16
결전 16
결정한 16
결투 16
결핵 16
겼다 16
경계@@ 16
경계심 16
경작지 16
곁눈질 16
계약금 16
고등학생 16
고을 16
고증 16
고질적 16
고취 16
고통받 16
고풍 16
곡예사 16
곤두서 16
골드@@ 16
골든@@ 16
골인 16
곯 16
공지 16
공천 16
공터 16
공통적 16
공포@@ 16
공표 16
과외@@ 16
관람@@ 16
관리자 16
관상 16
광선 16
괴상 16
괴팍 16
굉음 16
교시 16
교육청 16
교포 16
구김 16
구사회 16
구왕져우 16
구조대 16
국가대표팀 16
국내@@ 16
국립 16
국악 16
국토@@ 16
군기 16
군요 16
굴욕 16
궁둥이 16
권위적 16
궤@@ 16
귀족 16
귀퉁이 16
그때그때 16
그림@@ 16
근해 16
급료 16
급변 16
긋@@ 16
기관차 16
기내 16
기념관 16
기본기 16
기부@@ 16
기업체 16
기조 16
긴요 16
까마득 16
까지의 16
까치 16
깡패들 16
깨달음 16
꼬치꼬치 16
꼴찌 16
꾸준 16
나리@@ 16
나무토막 16
나비@@ 16
난해 16
날아@@ 16
날아오르 16
넉넉히 16
널찍 16
네온사인 16
념 16
녹색@@ 16
놀이동산 16
놈@@ 16
농기구 16
농락 16
농한기 16
눌러@@ 16
능력@@ 16
달리하 16
담뱃@@ 16
당근 16
당파 16
대가족 16
대로의 16
대보름날 16
대인 16
대추 16
대피@@ 16
대해 16
댓@@ 16
더ㄴ데 16
더ㄴ지 16
더블@@ 16
덜하 16
데치 16
도나도 16
돌연 16
돌풍 16
동갑 16
동강 16
동계올림픽 16
동맹@@ 16
동자 16
동조 16
된다 16
뒤적이 16
뒤죽박죽 16
뒤축 16
뒤틀리 16
뒷부분 16
듀@@ 16
득세 16
든@@ 16
들썩거리 16
들어 16
딜@@ 16
따끈따끈하 16
딱히 16
떠밀 16
떠밀리 16
뚜렷이 16
띠@@ 16
라면서 16
라이터 16
랑하 16
러시아@@ 16
러우 16
레스 16
레이저 16
롯데@@ 16
르트 16
리들 16
마라@@ 16
마약@@ 16
마일 16
마지@@ 16
마침표 16
막다르 16
막대한 16
만만찮 16
만만한 16
만큼도 16
맏@@ 16
말꼬리 16
말레이시아 16
매국노 16
매듭 16
머슴 16
멋@@ 16
메이커 16
멕시코 16
멧돼지 16
면역력 16
명령@@ 16
명망 16
명상 16
명승고적 16
모방@@ 16
모범생 16
몰아넣었다 16
몸부림 16
문맹 16
물집 16
미만 16
미스터리 16
민들레 16
민생@@ 16
바리@@ 16
박동 16
박이 16
발끝 16
밥값 16
배급 16
배달@@ 16
배려 16
백년@@ 16
버팀목 16
번민 16
법적 16
베테랑 16
벤@@ 16
벼@@ 16
변고 16
변두리 16
별미 16
보위 16
복잡@@ 16
볼거리 16
부도@@ 16
부자연 16
부족하기 16
부족해서 16
불감증 16
불사 16
불확실 16
비겁 16
비공개 16
비교@@ 16
비극적 16
비밀리 16
비범 16
비법 16
비수 16
비웃음 16
빅 16
빈털터리 16
빨아들이 16
사건@@ 16
사과나무 16
사내@@ 16
사사건건 16
사이드 16
사인@@ 16
사정@@ 16
산다 16
산만 16
살며시 16
삼월 16
상쇄 16
생필품 16
서류@@ 16
서울시 16
선녀 16
선전@@ 16
설계@@ 16
섬멸 16
성인@@ 16
세배 16
세속적 16
소녀시대 16
소득@@ 16
소프트 16
손꼽히 16
송구 16
쇼핑센터 16
수급 16
수리공 16
수목 16
수익@@ 16
수입품 16
수치심 16
숨쉬 16
스러@@ 16
스케이팅 16
스키장 16
슬기 16
슬하 16
습니다만 16
습속 16
시ㄴ데 16
시부모 16
시식 16
시장경제 16
시켰다 16
시크@@ 16
신뢰도 16
신비@@ 16
신비로운 16
신춘문예 16
신흥 16
실눈 16
실용성 16
싯@@ 16
싼값 16
써넣 16
아시 16
아트 16
아하 16
악하 16
안달 16
안락 16
안성맞춤 16
안일 16
안정성 16
암탉 16
압류 16
앞잡이 16
애태우 16
애호가들 16
야구팀 16
야단법석 16
야유회 16
양곡 16
양극화 16
어던 16
어리둥절 16
어머 16
어이구 16
어학 16
억수 16
얼굴빛 16
엇비슷 16
었도다 16
엉기 16
엎@@ 16
여럿이 16
여름휴가 16
연금@@ 16
연료@@ 16
연민 16
연속적 16
연재 16
연평도 16
열강 16
열람 16
엽서 16
영화감독 16
예기 16
예술성 16
오락@@ 16
오래오래 16
오자 16
온천 16
올림픽@@ 16
완성도 16
왔@@ 16
외신 16
외향적 16
용사 16
용서@@ 16
우월한 16
우유@@ 16
우환 16
울창 16
움츠러들 16
웃음@@ 16
웅변 16
웠다 16
웨이터 16
위문하 16
위성@@ 16
유도@@ 16
유족 16
유족들 16
융@@ 16
으려니 16
으로서는 16
으리 16
응집 16
의지력 16
이라@@ 16
이만한 16
이맘때 16
이변 16
이송 16
이정표 16
이중@@ 16
인도적 16
인사말 16
일가견 16
일가족 16
일간 16
일기예보 16
일상@@ 16
일세 16
입건 16
입덧 16
입추 16
자유자재 16
자주적 16
자초지종 16
자회사 16
잔해 16
잠복 16
잠수@@ 16
잠재적 16
잣@@ 16
장사진 16
장안 16
장엄한 16
재건 16
재연 16
적들 16
적합@@ 16
전구 16
전망대 16
전야 16
전용@@ 16
절망적 16
정규리그 16
정제 16
정조 16
정책적 16
제과점 16
제삼자 16
제정신 16
제조업체 16
조만 16
조사하기 16
조연 16
조지 16
족들 16
죄명 16
주검 16
주리 16
주선 16
준하 16
줄행랑 16
중산층 16
중턱 16
중히 16
지각@@ 16
지그시 16
지질 16
직급 16
직성 16
진가 16
진품 16
짓궂 16
짓누르 16
징용 16
짚@@ 16
짝사랑 16
짬뽕 16
차곡차곡 16
차비 16
찮 16
참가@@ 16
처녀들 16
천시 16
첨부 16
청각 16
청정 16
초등 16
초록 16
초인종 16
총체적 16
충성심 16
측근 16
치켜세우 16
침공 16
침상 16
침침하 16
큰불 16
큰형 16
타운 16
태극권 16
터트리 16
템포 16
통합@@ 16
투구 16
투명성 16
특보 16
튼튼히 16
파라@@ 16
파이 16
파출소 16
판로 16
판본 16
팔월 16
팡 16
팥죽 16
편안히 16
평가전 16
폐지 16
폐하 16
표시해 16
푹푹 16
풍광 16
프랑스@@ 16
피해자들 16
핀@@ 16
필리핀 16
핏@@ 16
핏줄 16
하고@@ 16
하반신 16
학사 16
한가로이 16
한국경제 16
한국적 16
한잠 16
한하 16
할인@@ 16
합계 16
합법 16
해달라 16
해병대 16
해안선 16
해이 16
했던 16
행상 16
행인들 16
허름한 16
허리춤 16
허영 16
헌신적 16
험@@ 16
헤엄 16
헷갈리 16
혁명@@ 16
현수막 16
형사처벌 16
형제들 16
호쾌 16
호호 16
혼자만 16
홈쇼핑 16
화요일 16
회동 16
회복@@ 16
회부 16
횡 16
후손 16
후손들 16
후자 16
훤칠 16
훼@@ 16
흉흉하 16
흙먼지 16
흠모 16
흥성 16
희귀@@ 16
희극 16
희망@@ 16
히말라야 16
힐끗 16
,000 15
16 15
16강 15
1980년대 15
1997년 15
1조 15
3배 15
40년 15
46@@ 15
5천 15
IT 15
K 15
R@@ 15
cm 15
kg 15
l@@ 15
ㄴ게 15
ㄴ다는데 15
ㄹ락 15
子@@ 15
小@@ 15
가면 15
가식적 15
가운 15
가치@@ 15
간단명료 15
간략 15
간추리 15
갈등 15
감미 15
감쪽같이 15
강단 15
강도@@ 15
객석 15
거금 15
걱@@ 15
건강식품 15
건대 15
건물들 15
건조@@ 15
검문 15
격상 15
견인차 15
결과물 15
결연 15
겸직 15
경례 15
경사지 15
경색 15
경영학 15
계란@@ 15
고들 15
고별 15
고자질 15
고전적 15
고정관념 15
고참 15
골키퍼 15
공경 15
공관 15
공들이 15
공론 15
공산당 15
공안 15
공작@@ 15
과징금 15
과학연구 15
관개 15
관두 15
관절염 15
관할 15
광물 15
광화문 15
구글 15
구릉 15
구멍@@ 15
구왕똥 15
구이 15
국가대표 15
국무원 15
군민 15
군수@@ 15
굽@@ 15
굽이굽이 15
굿@@ 15
궁궐 15
궁핍 15
궤 15
귀성 15
그늘지 15
근검 15
근력 15
근방 15
금새 15
기념품 15
기아 15
기업인 15
기자재 15
기차표 15
까짓 15
꾀@@ 15
끔@@ 15
나팔꽃 15
낙선 15
낙오 15
낙원 15
난리 15
난이도 15
남녀@@ 15
남북한 15
났@@ 15
났다 15
내던지 15
내려치 15
내역 15
냥@@ 15
너절 15
넘나들 15
노라면 15
노면 15
노새 15
노크 15
놀라움 15
누런 15
눈멀 15
눈사람 15
눈송이 15
눈치채 15
뉴질랜드 15
늘그막 15
늠름 15
니즘 15
다분 15
다양화 15
닥거리 15
닫@@ 15
달그@@ 15
당국자 15
당정 15
당치 15
대견 15
대권 15
대리석 15
대박 15
대용 15
대위 15
대졸 15
대한 15
대한@@ 15
덤벙@@ 15
덮개 15
도래 15
도형 15
돌변 15
돌파구 15
동거 15
동남아 15
동맥 15
동문 15
동반@@ 15
동북아 15
동서고금 15
동시 15
동시@@ 15
동창생 15
되는대로 15
둘러앉 15
뒤척이 15
뒤편 15
들락거리 15
들이치 15
등수 15
땀방울 15
뚝@@ 15
라오왕 15
랄 15
랑거리 15
랑이 15
럴 15
레한 15
려서 15
로군 15
로우 15
론적 15
료@@ 15
루머 15
를@@ 15
릉 15
릉@@ 15
릭@@ 15
링크 15
마음@@ 15
막말 15
말똥@@ 15
말주변 15
말참견 15
맛없 15
맵시 15
멍청이 15
메모리 15
메이저 15
메탈 15
명랑 15
명리 15
명명 15
명백한 15
모르@@ 15
모호한 15
목도리 15
몰아붙이 15
무리@@ 15
무명@@ 15
무엇하 15
무용수 15
무인도 15
묵살 15
문인 15
문자@@ 15
물리적 15
뭇사람 15
뭐@@ 15
미관 15
미련한 15
미안@@ 15
민영화 15
민주노총 15
밀밭 15
밉살 15
밑그림 15
밑단 15
밑창 15
바닥나 15
바로@@ 15
바스@@ 15
바위@@ 15
발레 15
발명품 15
발밑 15
방문객 15
방불케 15
방청@@ 15
배지 15
배타적 15
버젓이 15
벋@@ 15
벌거벗 15
벌금형 15
법도 15
보건대 15
보약 15
보유자 15
보좌 15
보충@@ 15
봉우리 15
부동 15
부동@@ 15
부부싸움 15
부엌@@ 15
부역 15
부자들 15
부츠 15
북소리 15
분가 15
불가사의 15
불법체류 15
불순 15
불티나 15
비들 15
비상한 15
비지@@ 15
비집 15
비호 15
빙자 15
빵집 15
사공 15
사교적 15
사극 15
사돈 15
사선 15
사시 15
사제 15
사학 15
산사 15
산사태 15
살균@@ 15
삼성그룹 15
상생 15
상식적 15
상업적 15
새사람 15
색색 15
생생히 15
샹@@ 15
서슴 15
서양식 15
선상 15
선착순 15
선처 15
섭리 15
성깔 15
세가 15
세무 15
소곤거리 15
소방관들 15
소폭 15
소하 15
속되 15
속살 15
속적 15
송사 15
송편 15
쇄@@ 15
쇠붙이 15
수비@@ 15
수신 15
수집@@ 15
수차례 15
수평 15
수포 15
수확량 15
숙면 15
술안주 15
스물 15
스물@@ 15
스파이 15
시구 15
시민단체 15
식비 15
식중독 15
신고@@ 15
신동 15
신발@@ 15
신성 15
신청서 15
신하들 15
신호@@ 15
실질 15
실추 15
실크 15
심장병 15
심한 15
심해 15
싹싹 15
씁쓸 15
아치 15
악순환 15
안전사고 15
안전한 15
안테나 15
알선 15
앞면 15
앞발 15
애간장 15
애국심 15
애니메이션 15
애당초 15
야구장 15
야생동물 15
약방 15
약속@@ 15
약수터 15
약혼 15
어금니 15
어디론 15
어리석음 15
어투 15
언니들 15
얼음판 15
었냐 15
에너지원 15
여드름 15
여명 15
여미 15
여분 15
여의치 15
역부족 15
연구결과 15
연구팀 15
연기자들 15
연말연시 15
연습@@ 15
연장전 15
염소 15
영공 15
예매 15
예산@@ 15
예술품 15
오곡 15
오리털 15
오만@@ 15
오만한 15
오수 15
오싹 15
오월 15
온실가스 15
옷가지 15
옷자락 15
와르르 15
완강히 15
완연 15
외곽 15
외양 15
요정 15
용법 15
운전면허증 15
울상 15
움 15
웅덩이 15
원군 15
원기 15
원내대표 15
원시@@ 15
원판 15
웨딩 15
웹 15
웹사이트 15
위문 15
위안@@ 15
위치한 15
유대 15
유식 15
유해 15
유화 15
유효기간 15
으스대 15
은밀 15
은밀한 15
은행@@ 15
응대 15
응모@@ 15
이공계 15
이권 15
이러@@ 15
이봐 15
이부자리 15
이색 15
이야기@@ 15
이야기들 15
이웃사람들 15
이쯤 15
익명 15
인기척 15
인류@@ 15
인수위 15
인습 15
인자 15
인프라 15
일순간 15
임신부 15
입춘 15
있긴 15
자각 15
자갈 15
자업자득 15
자연스레 15
자위권 15
자칫하면 15
작작 15
작황 15
잘잘못 15
잡기 15
장남 15
장모 15
장서 15
장식품 15
재건축 15
재검토 15
재경부 15
재무 15
재밌@@ 15
재판관 15
잭 15
쟤 15
저분 15
저우@@ 15
전반전 15
전산 15
전주 15
절절 15
점들 15
점유율 15
접종 15
정갈 15
정규@@ 15
정들 15
정밀@@ 15
정산 15
정찰@@ 15
제5@@ 15
제스처 15
제패 15
젤 15
종지 15
주기적 15
주먹@@ 15
주세요 15
준기@@ 15
준엄 15
줄무늬 15
중문 15
중앙선 15
중앙정부 15
중천 15
쥬@@ 15
즉석 15
지금쯤 15
지능적 15
지상파 15
지지율 15
지하자원 15
직거래 15
진달래 15
진돗개 15
진력 15
진취적 15
질량 15
질박 15
질타 15
짓눌리 15
징검다리 15
쩔쩔매 15
쪼 15
쪼이 15
찐@@ 15
차등 15
차별@@ 15
차분한 15
착안 15
창조성 15
책무 15
천한 15
철도@@ 15
철로 15
철철 15
철판 15
첨단@@ 15
청대 15
청산유수 15
청색 15
체득 15
체험@@ 15
초고속 15
초등학생들 15
초록색 15
초연 15
초췌 15
초하루 15
최첨단 15
추종 15
축구공 15
축구장 15
출품 15
충동적 15
충실히 15
충정 15
치매 15
치안@@ 15
치한 15
칙칙하 15
캐스팅 15
케이블 15
켓 15
코피 15
콤@@ 15
크나크 15
크로스 15
크리@@ 15
큰아들 15
큼직 15
타도 15
탄력적 15
탄산음료 15
탈퇴 15
탈피 15
탐하 15
택지 15
터미널 15
텅텅 15
톤@@ 15
통치하 15
튀@@ 15
트들 15
트로피 15
트리 15
트리@@ 15
특권 15
틀어막 15
티브이 15
팀원들 15
파괴@@ 15
파들 15
파편 15
패러디 15
팽배 15
펀@@ 15
펄 15
펴@@ 15
편들 15
편리함 15
편제 15
폐쇄적 15
폐품 15
폭염 15
폴란드 15
표범 15
표어 15
프리미어리그 15
플래시 15
플래카드 15
피상적 15
피서 15
피자 15
픽 15
하고서야 15
하단 15
하면서 15
하순 15
하체 15
한산@@ 15
한테도 15
한통속 15
할게 15
할머님 15
합심 15
항져우 15
해협 15
허가증 15
허기 15
허영심 15
허울 15
헌법재판소 15
헐@@ 15
헤어@@ 15
헬스 15
현찰 15
혔다 15
형국 15
형용 15
호남 15
호미 15
호우 15
호흡@@ 15
화려 15
환장 15
활로 15
황색 15
후려치 15
후반전 15
후속 15
후원자 15
후진국 15
후환 15
훅 15
휴업 15
흉계 15
흉금 15
희열 15
힘있 15
( 14
,000@@ 14
100원 14
10위 14
17 14
18 14
180@@ 14
19 14
1번 14
1주 14
22일 14
2분 14
3국 14
3조 14
5,000@@ 14
500명 14
5번 14
5위 14
7억 14
800 14
U@@ 14
、 14
가공@@ 14
가구@@ 14
가련 14
가르@@ 14
가마솥 14
가을바람 14
가을철 14
가지@@ 14
각급 14
간사 14
간호원 14
갈라지 14
감독관 14
갓집 14
강력@@ 14
강원도 14
강조@@ 14
강화@@ 14
갖@@ 14
개각 14
개별@@ 14
개선@@ 14
개수 14
거구 14
거인 14
건방지 14
걸이 14
검색@@ 14
검푸르 14
겠다면 14
겠으니 14
겨워 14
격정 14
결혼식장 14
겸허한 14
경연 14
경쟁사 14
경쟁자 14
고등어 14
고명 14
고향@@ 14
곡예 14
곤두박질치 14
공공연히 14
공법 14
공부@@ 14
공산 14
공산품 14
공신 14
공청회 14
과분 14
과소비 14
과소평가 14
관료@@ 14
광범 14
광우병 14
교감 14
교과@@ 14
교사들 14
교육과정 14
구김살 14
구매자 14
국론 14
국무 14
국무부 14
국어@@ 14
군자 14
굴러@@ 14
굶주림 14
권위주의 14
귓전 14
그득 14
그럴싸하 14
근근이 14
근무제 14
근질근질@@ 14
긍지 14
기껏 14
기다랗 14
기름때 14
기쁨 14
기성 14
기식 14
긴장한 14
길잡이 14
김치@@ 14
깍 14
깜@@ 14
깜빡이 14
깨끗해지 14
껴입@@ 14
꼬투리 14
꽃봉오리 14
꾹꾹 14
끄떡없 14
끊이질 14
끔 14
끼어들@@ 14
나귀 14
나라@@ 14
나발 14
나이지리아 14
나일론 14
나침반 14
낙관론 14
낚시@@ 14
난동 14
날벼락 14
남대문 14
남산 14
남하 14
낮@@ 14
낱개 14
내달리 14
내부@@ 14
내재 14
넌지시 14
넘쳐흐른다 14
네모나 14
년도 14
노고 14
노동계 14
노릇하 14
노부인 14
노하 14
녹음@@ 14
놋@@ 14
농간 14
높이뛰기 14
눈꺼풀 14
눈망울 14
눈물@@ 14
눈병 14
눌@@ 14
느냐는 14
느릿느릿 14
늘상 14
늘어뜨리 14
닢 14
다국적 14
다운로드 14
다음번 14
단계적 14
단비 14
단시간 14
담배꽁초 14
담벼락 14
담소 14
답습 14
대군 14
대기록 14
대령 14
대면 14
대변@@ 14
대소 14
대외@@ 14
대의 14
대장@@ 14
대추나무 14
대폭적 14
대학가 14
덜덜 14
덜렁 14
독사 14
돋아나 14
동계 14
동사 14
동아시아 14
동원해 14
동일@@ 14
동정심 14
동체 14
되레 14
된@@ 14
둥이 14
뒷걸음질 14
뒷골목 14
뒷맛 14
뒷문 14
드라이브 14
든다 14
들러리 14
들어가 14
등반@@ 14
디딤돌 14
디저트 14
디지털@@ 14
때맞추 14
땡 14
똘똘 14
뜬소문 14
라구 14
락거리 14
랜@@ 14
랩 14
랬@@ 14
러시 14
레드@@ 14
레이 14
레퍼토리 14
려니와 14
렬@@ 14
로션 14
로운 14
르륵 14
리ㅂ니다 14
리넨 14
리어@@ 14
릭 14
마르@@ 14
마이@@ 14
마침맞 14
막후 14
말씀하시 14
맞춤법 14
매개체 14
매이 14
매점 14
맹인 14
먹지 14
메커니즘 14
면세점 14
멸치 14
명나라 14
명맥 14
명문@@ 14
명백 14
명색 14
명세서 14
명화 14
모가지 14
모녀 14
모드 14
모조품 14
목돈 14
목사님 14
몸놀림 14
몸속 14
못지 14
무감각 14
무공해 14
무력@@ 14
무심 14
무정 14
물질@@ 14
뭉클하 14
뭘까 14
미국산 14
미끄럼 14
미역국 14
미용실 14
민속놀이 14
밀수범 14
바라@@ 14
박사과정 14
박한 14
반미 14
반주 14
반평생 14
발리 14
발악 14
발의 14
방패 14
배구@@ 14
배우@@ 14
뱀@@ 14
버둥거리 14
벅 14
번득이 14
법률@@ 14
벗겨지 14
베스트 14
변화무쌍 14
별안간 14
볏@@ 14
보관@@ 14
보라 14
보리@@ 14
보상@@ 14
보상금 14
보조개 14
보통화 14
본업 14
본연 14
본체 14
볼펜 14
봐 14
부금 14
부도덕 14
부뚜막 14
부르르 14
부시 14
부정확 14
분양가 14
분업 14
분자 14
분해 14
불덩이 14
불분명 14
불안@@ 14
불장난 14
불효 14
붙어 14
비눗물 14
비옷 14
비즈니스@@ 14
비탈 14
비행사 14
빈곤층 14
빗기 14
빨랫줄 14
뿌듯 14
뿌옇 14
뿔@@ 14
사격@@ 14
사나@@ 14
사냥감 14
사대 14
사르 14
사뭇 14
사살 14
사수 14
사업장 14
사오 14
사용자들 14
사일 14
사자성어 14
사진관 14
삭발 14
산산조각 14
삼성@@ 14
상감 14
상승@@ 14
상징@@ 14
상투적 14
상황@@ 14
색연필 14
색출 14
생맥주 14
생식 14
생업 14
생일날 14
생활고 14
서장 14
석차 14
석탄@@ 14
선거철 14
선례 14
선발대회 14
선제 14
선조들 14
설익 14
성경 14
성스럽 14
성탄절 14
세계기록 14
세라 14
세상일 14
세세한 14
세습 14
세안 14
세자 14
셋@@ 14
셨는지 14
소방차 14
소비량 14
소설가 14
소행 14
속눈썹 14
속수무책 14
손뼉 14
손자들 14
손잡 14
송대 14
수구 14
수동 14
수락 14
수렁 14
수레바퀴 14
수렵 14
수뢰 14
수료 14
수상@@ 14
수억 14
수준급 14
수줍음 14
수학@@ 14
수험생들 14
수화 14
숙고 14
숙달 14
숙부 14
숙식 14
순풍 14
술상 14
숨통 14
숭례문 14
숯 14
스카프 14
스탠드 14
스트랩 14
슬피 14
습지 14
승격 14
승하 14
시급한 14
시다니 14
시라 14
시루 14
시원@@ 14
식료품 14
식사량 14
신경전 14
신선도 14
신작 14
실내@@ 14
실물 14
실화 14
심령 14
심판@@ 14
싸매 14
쌩@@ 14
썩히 14
쏙쏙 14
쏟@@ 14
씻기 14
아리@@ 14
아유 14
악독 14
안치 14
앉@@ 14
앞지르 14
앞집 14
앵@@ 14
야수 14
야식 14
야유 14
약해 14
얄팍 14
양식@@ 14
양자@@ 14
어딘지 14
어로 14
어루만지 14
어린이집 14
어물@@ 14
어서@@ 14
어업 14
어엿 14
어찌하여 14
어촌 14
억류 14
언사 14
얻어@@ 14
얼리 14
얼마@@ 14
없소 14
었겠어 14
었더라도 14
엉덩방아 14
엉성 14
엉엉 14
에누리 14
에라도 14
에스 14
엑@@ 14
엔화 14
여러모로 14
여지없이 14
여행가 14
연내 14
연로한 14
연성 14
연속극 14
염색@@ 14
영롱 14
영리한 14
영화들 14
옆@@ 14
예방@@ 14
오물 14
왕관 14
왕따 14
왕비 14
요강 14
요리사가 14
요행 14
용광로 14
용성 14
용솟음치 14
우량 14
우물거리 14
운전석 14
웃어른 14
원만한 14
웠@@ 14
웨이 14
위급 14
위임 14
위조지폐 14
윗도리 14
유동적 14
유리컵 14
유린 14
유망주 14
유배 14
유유히 14
유품 14
유형@@ 14
윤색 14
윤택 14
으냐 14
으시고 14
음지 14
응급실 14
의약품 14
의학적 14
의향 14
이란다 14
이만 14
이만저만 14
이쁘 14
이어폰 14
이익@@ 14
이해득실 14
인솔 14
인수@@ 14
인슐린 14
인자한 14
인재@@ 14
일광욕 14
일말 14
일방 14
일사불란 14
일신 14
일회용 14
임산부 14
입씨름 14
입체감 14
있소 14
자기만 14
자진 14
자투리 14
잔재 14
잖 14
잖@@ 14
잡지사 14
장래성 14
장밋빛 14
재목 14
재무@@ 14
재상 14
저들 14
저변 14
저주 14
적중 14
전경 14
전당포 14
전멸 14
전모 14
전생 14
전술적 14
전시관 14
전자제품 14
전편 14
절단 14
절도 14
절친 14
절호 14
정점 14
정중히 14
정차 14
제1차 14
제왕 14
조림 14
조목조목 14
조사단 14
조심성 14
조적 14
조준 14
족보 14
존속 14
존재@@ 14
졸라매 14
졸속 14
졸업식 14
종속 14
좌우명 14
좌중 14
주도면밀한 14
주문한 14
주요@@ 14
주의자들 14
준기에 14
줄타 14
중간고사 14
중개@@ 14
중대장 14
중립적 14
중소기업들 14
중심적 14
중얼거리 14
지가 14
지근한 14
지능@@ 14
지상주의 14
지원금 14
직설적 14
진공 14
진전 14
진척 14
질서정연 14
집어@@ 14
집요 14
집중@@ 14
징그럽 14
짜장면 14
짜증나 14
짠@@ 14
쨍@@ 14
쪼들리 14
쯔 14
찌그러지 14
차출 14
찮@@ 14
참고 14
찻잎 14
채비 14
처박히 14
처자 14
처자식 14
척추 14
천대 14
천안문 14
철문 14
첨가 14
첫번 14
청력 14
청소@@ 14
체벌 14
첼로 14
초장 14
총결산 14
최저@@ 14
추모@@ 14
추진@@ 14
출산율 14
출생@@ 14
출연료 14
충직 14
치고는 14
코끝 14
쾌청 14
큰아버지 14
타당한 14
탑@@ 14
태양@@ 14
탤런트 14
털모자 14
토너먼트 14
토사 14
통념 14
통제@@ 14
퇴보 14
특혜 14
티끌 14
틴 14
파급 14
파랑 14
판매자 14
패션@@ 14
패전 14
팽이 14
팽팽히 14
퍽퍽 14
펄@@ 14
포근 14
포근한 14
포상금 14
포장마차 14
폭포수 14
푸념 14
풍물 14
피아니스트 14
핀잔 14
핏대 14
하급 14
하필이면 14
학술계 14
한낱 14
한뜻 14
한입 14
한풀 14
합동@@ 14
합리화 14
합성피혁 14
해적 14
향유 14
허허 14
헐떡거리 14
험상궂 14
험악한 14
헬멧 14
혀@@ 14
혁혁 14
현격 14
현저히 14
혜성 14
호명 14
혹사 14
홀리 14
화근 14
화기애애한 14
화신 14
환대 14
황무지 14
홱 14
회원@@ 14
회장님 14
후원금 14
훌쩍거리 14
휠체어 14
휴게실 14
흉작 14
흑색선전 14
흙탕물 14
흡연자 14
희귀한 14
희생양 14
희정이에 14
000@@ 13
100위 13
12개 13
17세 13
1992년 13
1달러 13
1순위 13
1승 13
1점 13
26 13
3가지 13
4000@@ 13
47@@ 13
500원 13
50개 13
5호 13
600@@ 13
G 13
k 13
n 13
n@@ 13
r@@ 13
s 13
u@@ 13
℃ 13
ㄴ@@ 13
老@@ 13
가관 13
가난뱅이 13
가련한 13
가물가물하 13
가엽 13
가이@@ 13
간접@@ 13
간판@@ 13
간편한 13
갈라서 13
갉아 13
감별 13
감옥살이 13
갑절 13
강건 13
강경@@ 13
강구해서 13
강대 13
강습@@ 13
개괄적 13
개미들 13
개인기 13
거뜬히 13
거만한 13
거부@@ 13
걷어붙 13
걸음마 13
걸쭉하 13
걸출 13
게걸@@ 13
게시 13
게으름뱅이 13
게을리 13
결단력 13
결제하 13
경로@@ 13
경이 13
경제계 13
경제지표 13
경쾌한 13
계산서 13
계세요 13
고교@@ 13
고금 13
고리@@ 13
고성능 13
고의적 13
고품질 13
골탕 13
공급@@ 13
공모전 13
공민 13
공산주의 13
공연@@ 13
공예품 13
공정@@ 13
공중전화 13
공직자들 13
공판 13
곶감 13
과격 13
과일나무 13
곽 13
관련@@ 13
관제@@ 13
관할@@ 13
광대한 13
광복절 13
광석 13
광천수 13
괘@@ 13
괴리 13
교학 13
구려 13
구월 13
구적 13
구조되 13
국가원수 13
궂 13
귀결 13
귀금속 13
귀담 13
귀향 13
그래픽 13
그랜드@@ 13
그렁@@ 13
그린벨트 13
그만 13
그저께 13
그제 13
극명 13
극소수 13
근거리 13
근년 13
근신 13
긁어모으 13
금실 13
기관들 13
기립 13
기막히 13
기어@@ 13
기우@@ 13
기척 13
긴급히 13
깊숙 13
꺽 13
꼬마들 13
꽈@@ 13
꾸물@@ 13
나무꾼 13
나앉 13
낙조 13
난징@@ 13
난초 13
날렵 13
납세자 13
낱말 13
내디디 13
내리막길 13
내몰 13
내용물 13
내젓 13
냉이 13
네모 13
년생 13
노니 13
노련한 13
노벨상 13
노처녀 13
녹초 13
논박 13
논의하기 13
농담@@ 13
농사꾼 13
농수산물 13
농협 13
높낮이 13
누님 13
누드 13
누이동생 13
눈곱 13
늑@@ 13
는걸 13
능동적 13
니다 13
닌 13
다람쥐 13
다수결 13
다이빙 13
닦@@ 13
단기적 13
단란 13
단원들 13
달라붙어 13
담임선생님 13
대기권 13
대로만 13
대리인 13
대리점 13
대머리 13
대본 13
대여@@ 13
대우@@ 13
대중가요 13
대처하기 13
대파 13
대피 13
더듬@@ 13
덜커@@ 13
도둑맞 13
도리@@ 13
도사 13
도해 13
도화지 13
독려 13
독선적 13
독재정권 13
독점@@ 13
돌덩이 13
돌발적 13
동학 13
되잖 13
됨 13
두둑 13
두목 13
두산 13
두서없 13
뒤얽히 13
드러@@ 13
드레@@ 13
들거리 13
들볶 13
들어앉 13
들어올렸다 13
땡@@ 13
떠받들 13
뚜 13
뚱보 13
뜨렸다 13
뜨리 13
뜻있 13
라인@@ 13
램프 13
략@@ 13
러닝@@ 13
럭 13
레이더 13
렛 13
렵@@ 13
로까지 13
로하고 13
론자 13
롬 13
름한 13
리얼리티 13
리오 13
립스틱 13
마사 13
마이크로@@ 13
마지기 13
마취@@ 13
만성적 13
만족@@ 13
말쑥 13
말씀@@ 13
망망대해 13
맞닥뜨리 13
맞닿 13
맞잡 13
맨체스터 13
머릿결 13
먹는다 13
먹자 13
메가@@ 13
면접시험 13
명당 13
명대 13
명작 13
명장 13
몇백 13
모나 13
모태 13
모토 13
목공 13
몸가짐 13
몸값 13
몽골 13
무단@@ 13
무리들 13
무마 13
무익 13
무전기 13
무지@@ 13
무침 13
무형 13
문집 13
문화재@@ 13
물꼬 13
물렁@@ 13
물수건 13
뭘 13
뭣 13
미덥 13
미생물 13
미술계 13
미역 13
미팅 13
미혼 13
믹스 13
민간인 13
민속촌 13
밀리@@ 13
밑줄 13
바깥세상 13
바닥@@ 13
바르르 13
바짓가랑이 13
박수갈채 13
반값 13
반대파 13
반영@@ 13
반포 13
발간 13
발굴@@ 13
발기 13
발생@@ 13
발짝 13
밝@@ 13
밤잠 13
방사 13
방사능 13
방수 13
배낭여행 13
배속 13
버선 13
버전 13
번거로운 13
번뜩이 13
번쩍거리 13
벌목 13
벌집 13
범주 13
법석 13
법정@@ 13
법질서 13
법학 13
변비 13
변화@@ 13
보건@@ 13
보온성 13
보좌관 13
보직 13
보채 13
보행 13
복잡한 13
볶음@@ 13
본색 13
봄기운 13
봉사활동 13
부결 13
부끄럼 13
부부간 13
북경@@ 13
북새통 13
북적대 13
불가침 13
불쌍한 13
불편함 13
붉@@ 13
붕 13
붙었다 13
비공식 13
비도덕적 13
비문 13
비속 13
비아냥거리 13
비쩍 13
비판@@ 13
비행@@ 13
빗줄기 13
빵@@ 13
빼곡히 13
뼘 13
뽑@@ 13
사고력 13
사또 13
사법고시 13
사신 13
사이비 13
사임 13
사채 13
사회문제 13
산수화 13
상무 13
상선 13
상시 13
상이 13
새댁 13
색조 13
샌프란시스코 13
생계@@ 13
생화 13
생활수준 13
생활필수품 13
샤 13
서류들 13
석들 13
선택@@ 13
설상가상 13
설움 13
성도 13
성큼 13
성형@@ 13
섶 13
세계인 13
세대@@ 13
세부적 13
세이@@ 13
세입자 13
세트@@ 13
섹시함 13
소고기@@ 13
소녀들 13
소대장 13
소도시 13
소설@@ 13
소식통 13
소한 13
속죄 13
손아귀 13
송나라 13
송장 13
쇄도 13
수년간 13
수두룩 13
수매@@ 13
수면@@ 13
수술@@ 13
수유 13
수학여행 13
수행@@ 13
숙한 13
순번 13
순조로운 13
술기운 13
술주정 13
숫제 13
슈 13
스러운 13
스위@@ 13
스타킹 13
습니 13
승강기 13
시각@@ 13
시드 13
시면서 13
시상 13
시술 13
시시@@ 13
시시비비 13
시아오쟝 13
시안 13
시작해 13
시청@@ 13
시트콤 13
시티 13
시험관 13
시험적 13
식물성 13
식민@@ 13
식하 13
신명 13
신선@@ 13
신신당부 13
신예 13
신용장 13
신의 13
신주 13
신차 13
신혼@@ 13
실없 13
실점 13
심경 13
심술 13
싸움@@ 13
썰@@ 13
쏘다니 13
쓱 13
아가리 13
아거든 13
아래@@ 13
아르@@ 13
아우@@ 13
아이티 13
아찔 13
아프간 13
악단 13
악당들 13
악역 13
악한 13
안내자 13
안도 13
안마 13
안전모 13
안전벨트 13
앉아 13
알록달록한 13
암담 13
앞차 13
앱 13
야만적 13
야영 13
야회 13
약사 13
약수 13
약진 13
약칭 13
양수 13
양자강 13
어렴풋 13
어류 13
어물 13
어제저녁 13
어지간 13
어필 13
어항 13
어휴 13
억양 13
언론들 13
얼굴@@ 13
엄밀히 13
엄벌 13
엄숙히 13
엄지손가락 13
엘리트 13
여간@@ 13
여력 13
여실히 13
역류 13
역전승 13
역효과 13
연구실 13
연구원들 13
연기@@ 13
연례 13
연병장 13
연잎 13
연출자 13
연평균 13
열광적 13
열람실 13
엽기적 13
영결식 13
영농 13
영상@@ 13
옆자리 13
예문 13
예법 13
예술가들 13
예정일 13
오동나무 13
오르@@ 13
오아시스 13
오천 13
온전히 13
올리@@ 13
올케 13
와중 13
완치 13
외톨이 13
외형 13
외환@@ 13
요기 13
요만한 13
요원들 13
요절 13
요컨대 13
욕심@@ 13
욕지거리 13
용역 13
우거진 13
우롱 13
우수리 13
우스꽝 13
우악 13
우주인 13
우쭐거리 13
운동가들 13
운전자들 13
운하 13
웃돌 13
웃음꽃 13
웃통 13
워드 13
원색 13
원시적 13
월남 13
월드 13
웨@@ 13
위문@@ 13
위암 13
위원@@ 13
윙 13
유공자 13
유역 13
유연 13
유정 13
유지해 13
육식 13
육안 13
육체노동 13
을걸 13
음성@@ 13
음침 13
음향@@ 13
응원단 13
의무@@ 13
의문@@ 13
의미심장 13
의욕적 13
의제 13
이긴 13
이라크@@ 13
이사@@ 13
이산 13
이상해 13
이색적 13
이승 13
이야깃거리 13
이에요 13
이용자 13
이웃들 13
이장 13
이태 13
익사 13
인격적 13
인공호흡 13
인기@@ 13
인데 13
인도네시아 13
인륜 13
인사청문회 13
인솔하 13
인원수 13
인조가죽 13
인턴 13
일개 13
일본인 13
일부@@ 13
일차 13
일축 13
일출 13
일탈 13
일평생 13
읽@@ 13
임금@@ 13
자동화 13
자영업자 13
자율@@ 13
자인 13
자청 13
잘살 13
잡념 13
잡화점 13
장가가 13
장바구니 13
재래시장 13
재래식 13
재력 13
재미나 13
재정적 13
재판부 13
재학 13
재회 13
쟁쟁 13
쟁탈전 13
쟈오@@ 13
저녁@@ 13
저녁노을 13
저임금 13
저장@@ 13
저출산 13
저택 13
적기 13
적나라 13
적당량 13
적재 13
적적 13
전근 13
전동차 13
전매 13
전업@@ 13
전전 13
전화벨 13
절대@@ 13
절뚝거리 13
정가 13
정설 13
정쟁 13
정탐 13
정평 13
정형 13
제4@@ 13
제곱 13
제명 13
제철소 13
제청 13
조교 13
조례 13
조립@@ 13
조형물 13
족적 13
좁쌀 13
주문서 13
주의사항 13
주인집 13
주축 13
주택가 13
주해 13
줄다리기 13
중개인 13
중고차 13
중급 13
중력 13
중요한 13
중원 13
쥐뿔 13
증감 13
증원 13
지기 13
지난밤 13
지도력 13
지론 13
지루@@ 13
지병 13
지진@@ 13
지휘@@ 13
직공들 13
진군 13
진담 13
진실로 13
진열장 13
질식 13
집사람 13
집약 13
짝꿍 13
쯔@@ 13
찢기 13
찢어지 13
차분히 13
차장 13
차적 13
차체 13
착실히 13
착착 13
찬미 13
찬양 13
참모@@ 13
창간 13
창자 13
찾@@ 13
찾아뵈 13
천적 13
철학적 13
첩보 13
청계천 13
청소년@@ 13
체류자 13
쳐서 13
촉발 13
총서 13
총화 13
최적 13
추돌 13
추켜세우 13
축구계 13
충혈 13
취임식 13
칙@@ 13
친필 13
카네이션 13
카리스마 13
칼집 13
커녕 13
컴컴하 13
케이@@ 13
콤비 13
쿠키 13
쿠폰 13
쿨 13
쿼@@ 13
큐 13
큰물 13
킥 13
타성 13
타워 13
탁구@@ 13
탈레반 13
탕수육 13
태양계 13
태양열 13
택배비 13
터키 13
통속@@ 13
통치자 13
통칭 13
통화팽창 13
퇴진 13
퇴짜 13
특수성 13
특종 13
특파원 13
튼@@ 13
티브 13
팁 13
파국 13
파내 13
파탄 13
판단해서 13
판사들 13
팔팔 13
패물 13
팽 13
펑 13
페인트칠 13
펜스 13
편애 13
편지봉투 13
평론가 13
평화로운 13
포격 13
포구 13
포르투갈 13
포스트시즌 13
포장도로 13
포퓰리즘 13
포항 13
표시@@ 13
표준화 13
푸르@@ 13
푼돈 13
품팔이 13
풍화 13
픈 13
플레어 13
플레이오프 13
피력 13
피리 13
피스 13
필수품 13
필승 13
필히 13
핏발 13
하강 13
하수 13
하이라이트 13
학연 13
한우 13
할거 13
합의가 13
합창 13
핫@@ 13
항공권 13
항전 13
해군 13
해물@@ 13
해발 13
해설 13
해진다 13
행사@@ 13
향성 13
허망 13
허수아비 13
헐떡이 13
혀끝 13
현실@@ 13
현저한 13
현주소 13
혈기 13
혈색 13
혈안 13
혈액순환 13
협조@@ 13
형식@@ 13
호송 13
혼동 13
화교 13
화로 13
화질 13
화한 13
환원 13
환전 13
황야 13
회계@@ 13
회생 13
회원국 13
후비 13
후천적 13
휴 13
휴양 13
휴전 13
휴학 13
희롱 13
％ 13
+ 12
10원 12
10초 12
13명 12
14명 12
1500@@ 12
15명 12
15세 12
1무 12
1호 12
200원 12
20억 12
20원 12
23 12
24 12
30개 12
30억 12
33@@ 12
35 12
36년 12
4시간 12
4층 12
5,000 12
50원 12
5대 12
60년대 12
800@@ 12
H 12
L 12
X 12
b@@ 12
s@@ 12
ㄴ다던 12
三@@ 12
가까이@@ 12
가래 12
가업 12
가재 12
가정부 12
각서 12
간단@@ 12
간이@@ 12
간접적 12
갈팡질팡하 12
감금 12
감기약 12
감량 12
감방 12
감수해 12
감언이설 12
감전 12
갑작스레 12
강령 12
강성 12
강압 12
강연회 12
강점기 12
개발도상국 12
개회 12
객관성 12
거래소 12
거리낌 12
거미 12
거치적거리 12
거하 12
건강하시 12
건배합시 12
걸그룹 12
검찰@@ 12
것들@@ 12
겨드랑이 12
겨울올림픽 12
겸사겸사 12
경공업 12
경매@@ 12
경미한 12
경찰차 12
경합 12
계산@@ 12
계산대 12
계집 12
계획@@ 12
계획도 12
고객@@ 12
고기잡이 12
고뇌 12
고등 12
고등@@ 12
고려청자 12
고사장 12
고위직 12
고정적 12
고향집 12
골든 12
골프@@ 12
공격력 12
공명@@ 12
공문서 12
공사비 12
공손히 12
공장들 12
과수 12
과학기술@@ 12
관상@@ 12
관제 12
관중석 12
광부 12
괴물 12
교묘히 12
교통비 12
구경꾼 12
구만 12
구부러지 12
구술 12
구요 12
구조물 12
구형 12
구호물자 12
구혼 12
국도 12
국무회의 12
국제공항 12
국제축구연맹 12
국회의원들 12
군벌 12
굵직하 12
궁합 12
권리@@ 12
권법 12
그런 12
그렇@@ 12
그리도 12
그리스@@ 12
그린@@ 12
그림책 12
그믐날 12
그을 12
극력 12
근교 12
금연@@ 12
기공 12
기능성 12
기대@@ 12
기성세대 12
기와 12
기인 12
기저귀 12
기적적 12
기차@@ 12
기회@@ 12
기획안 12
김씨 12
까진 12
까칠 12
깐@@ 12
껍데기 12
껴@@ 12
꼬락서니 12
꼭지 12
꾐 12
꿈쩍 12
꿋꿋이 12
끌@@ 12
끗@@ 12
끼어들어 12
나뒹굴 12
나락 12
나룻배 12
나풀나풀 12
낙양 12
낙태 12
낚아채 12
난장판 12
낟알 12
남녀평등 12
남방@@ 12
남성@@ 12
남향 12
낭비@@ 12
내분 12
냉기 12
냉동실 12
냉엄 12
넣@@ 12
네들 12
넥 12
노곤 12
노력@@ 12
노력해 12
노신 12
노점상 12
노조@@ 12
노총 12
노총각 12
논의@@ 12
농민@@ 12
농악 12
눅 12
눈가 12
눈꽃 12
눈독 12
눈물겹 12
뉘 12
느끼한 12
니들 12
닐@@ 12
다던 12
다리미질 12
다문화 12
다운@@ 12
단돈 12
단말기 12
단속@@ 12
단죄 12
닭장 12
당뇨 12
당도 12
당면한 12
당분 12
당사 12
당차 12
대구@@ 12
대국적 12
대략적 12
대량@@ 12
대법원장 12
대양 12
대중화 12
댔다 12
더냐 12
더우푸 12
더워지 12
덕성 12
덤덤 12
데면@@ 12
뎅@@ 12
도드라지 12
도전자 12
도탄 12
도한 12
돌다리 12
동서@@ 12
동수 12
동양@@ 12
동양인 12
두절 12
둔화 12
둘@@ 12
뒤숭숭하 12
뒤적거리 12
뒷말 12
뒷머리 12
뒷자리 12
드라이@@ 12
득의양양 12
득하 12
들고@@ 12
들먹거리 12
듬성듬성 12
등분 12
딱딱 12
딸애 12
떨어@@ 12
똑@@ 12
똘@@ 12
뛰어@@ 12
뜬@@ 12
뜯어고치 12
라는데 12
략 12
럭거리 12
력자 12
로되이 12
륵 12
리니 12
리스크 12
리적 12
린다 12
마감일 12
마늘@@ 12
마당@@ 12
마땅치 12
마운드 12
막강 12
막염 12
막차 12
만능주의 12
만리 12
만면 12
만반 12
만주 12
만큼의 12
만화가 12
말버릇 12
맑@@ 12
맘@@ 12
맘껏 12
망명 12
맞들 12
맞춤@@ 12
매끈@@ 12
매니큐어 12
매달@@ 12
매립@@ 12
매미 12
매상 12
매질 12
매트 12
맹활약 12
머나멀 12
머리핀 12
먹고살기 12
멜대 12
멜로@@ 12
명기 12
명예훼손 12
모공 12
모란 12
모략 12
모색해 12
모욕@@ 12
모터쇼 12
목별 12
몸조심 12
몸통 12
몽상 12
무기@@ 12
무모한 12
무부 12
무상보육 12
무의식 12
무의식중 12
무찌르 12
무협@@ 12
묶음 12
문간 12
문맥 12
문어 12
문호 12
물리학 12
물줄기 12
뭇@@ 12
뭔데 12
미끈하 12
미수 12
미심쩍 12
미약 12
미온적 12
미적 12
미풍 12
민가 12
민노당 12
민준@@ 12
밀리미터 12
밀매 12
밉@@ 12
바둑@@ 12
박테리아 12
반동@@ 12
반사@@ 12
발뺌 12
발성 12
발소리 12
발양 12
발족 12
발표회 12
방목 12
방법론 12
방울방울 12
방자 12
방파제 12
방해@@ 12
배기@@ 12
백두산 12
백양나무 12
뱅@@ 12
버스@@ 12
베이징시 12
벼슬@@ 12
변호 12
병문안 12
병석 12
병신 12
병역@@ 12
보관소 12
보스 12
보옥 12
보온 12
복고 12
복병 12
복숭아나무 12
복음 12
볶@@ 12
본교 12
본위 12
볼트 12
봉급@@ 12
봐@@ 12
부강 12
부당@@ 12
부동산@@ 12
부상자들 12
부속 12
부장@@ 12
부품 12
분야별 12
불가결 12
불량품 12
불명 12
불발 12
불쌍히 12
불후 12
브라 12
블로@@ 12
비끼 12
비닐봉지 12
비보 12
비슷@@ 12
빈궁 12
빈들 12
빈집 12
빈혈 12
빌어먹 12
빙산 12
빙수 12
빨강 12
뻐기 12
뼈대 12
뼛속 12
사건들 12
사교육비 12
사그라지 12
사대@@ 12
사부 12
사부님 12
사슬 12
사운드 12
사월 12
사조 12
사진첩 12
삭막 12
산간지역 12
산세 12
산소@@ 12
산정 12
산화 12
살아@@ 12
살인@@ 12
삼각형 12
삼국 12
삽@@ 12
상경 12
상관@@ 12
상대국 12
상속@@ 12
상위권 12
상처@@ 12
상체 12
상회 12
새끼손가락 12
새끼줄 12
샛@@ 12
생물체 12
생사람 12
생시 12
생활권 12
생활상 12
생활화 12
서막 12
서사 12
서예@@ 12
석학 12
선량@@ 12
선발@@ 12
선불 12
선은 12
선정적 12
선후배 12
섰다 12
성실성 12
성씨 12
성장기 12
성취감 12
성폭행 12
세상@@ 12
세세히 12
세심한 12
세인 12
세종 12
셋집 12
션젼 12
소금물 12
소독@@ 12
소모량 12
소송@@ 12
소수@@ 12
소재지 12
소중함 12
소화@@ 12
소화해 12
속공 12
속단 12
속사정 12
속어 12
손익 12
솜@@ 12
솜옷 12
솜털 12
송아지 12
수류탄 12
수만 12
수박@@ 12
수발 12
수사관 12
수수@@ 12
수수방관 12
수요자 12
수자원 12
수출액 12
수칙 12
수컷 12
수해서 12
순경 12
순발력 12
순방 12
순시 12
순화 12
술렁거리 12
쉽사리 12
스카@@ 12
스카우트 12
스코@@ 12
스크래치 12
스키@@ 12
스탠@@ 12
스티@@ 12
스틱 12
스팸 12
스포@@ 12
슬리퍼 12
슬립온 12
슬며시 12
승리@@ 12
승점 12
시각적 12
시간문제 12
시고요 12
시되 12
시들해지 12
시디 12
시샘 12
시외 12
시원스레 12
시원히 12
시중들 12
시큰거리 12
시행착오 12
시험공부 12
식량@@ 12
신기한 12
신망 12
신비감 12
신작로 12
신참 12
신체검사 12
신학기 12
신화@@ 12
실권 12
실랑이 12
심리학 12
심원 12
심층 12
십년 12
쌓@@ 12
쏘아붙이 12
쑥@@ 12
쓰기 12
쓰나미 12
쓸리 12
아귀 12
아늑 12
아랫사람들 12
아량 12
아름@@ 12
아아다 12
아테네 12
악대 12
악질 12
악행 12
안무 12
안정감 12
앉았다 12
알력 12
알약 12
암컷 12
았었다 12
앞자리 12
애견 12
애용 12
애정@@ 12
애환 12
액면 12
야산 12
야채@@ 12
약관 12
약한 12
얄밉 12
얌@@ 12
얌전히 12
양궁 12
양도소득세 12
양심@@ 12
양해각서 12
어떨까요 12
어림잡 12
어서ㄴ다 12
어야겠습니다 12
억눌리 12
언변 12
얼떨떨하 12
엄정 12
엄호하 12
었단다 12
에세이 12
엘리@@ 12
여름@@ 12
여백 12
여하 12
여행길 12
역학 12
연령층 12
연장@@ 12
연착 12
연패 12
열대@@ 12
열사들 12
열화 12
영민 12
영사 12
영세@@ 12
영영 12
영지 12
예금@@ 12
예순 12
예식 12
예외적 12
옛사람들 12
옛적 12
오락가락하 12
오래@@ 12
오존층 12
온실 12
올라 12
완쾌 12
왈칵 12
왕위 12
외동딸 12
외래문화 12
외부@@ 12
외부인 12
외식@@ 12
외제 12
요량 12
요망 12
요사이 12
용산 12
우량@@ 12
우즈 12
우체부 12
우측 12
우한 12
운반@@ 12
울긋불긋 12
워킹 12
원고지 12
원성 12
원자@@ 12
월간 12
월등 12
웨딩드레스 12
웬만큼 12
위선적 12
위조@@ 12
유격대 12
유관 12
유괴 12
유기@@ 12
유기적 12
유럽연합 12
유사시 12
유산@@ 12
유창한 12
유학@@ 12
유한 12
유흥가 12
융성 12
으로까지 12
으셨습니다 12
은은히 12
음험 12
응급@@ 12
응석받이 12
응징 12
의대 12
의론 12
의롭 12
의료비 12
의무화 12
의학계 12
의해 12
이기@@ 12
이루@@ 12
이북 12
이산화탄소 12
이야기해 12
이오 12
이체 12
이탈@@ 12
이태@@ 12
이화 12
인과@@ 12
인권침해 12
인내력 12
인문학 12
일간지 12
일기 12
일렁이 12
일면 12
임대@@ 12
임대료 12
임상시험 12
임직원 12
입단 12
입당 12
입출금 12
잊@@ 12
자칭 12
작업실 12
작위 12
잔금 12
잠잠해지 12
잡이 12
잡일 12
장미@@ 12
재기 12
재난지역 12
재자 12
재적 12
재정난 12
재탕 12
재테크 12
재화 12
재활 12
재활용품 12
저곳 12
저녁식사 12
저소득층 12
저축@@ 12
저항@@ 12
적임자 12
적장 12
적절한 12
적하 12
전교생 12
전세금 12
전업 12
전우들 12
전지훈련 12
전집 12
전투력 12
전폭적 12
절경 12
점유 12
점자 12
젓갈 12
정글 12
정리해 12
정의감 12
정찰 12
정처 12
정초 12
정치권력 12
정치자금 12
정함 12
젖먹이 12
제3 12
제고 12
제곱미터 12
제단 12
제비@@ 12
제작자 12
젤리 12
졌@@ 12
조각품 12
조롱@@ 12
조조 12
조카들 12
족자 12
졸렬 12
졸업생들 12
종말 12
종횡 12
좌익 12
좌초 12
주걱 12
주력@@ 12
주의보 12
주의하시 12
주정 12
죽죽 12
줏대 12
중계@@ 12
중심부 12
중심지 12
중책 12
중추 12
쥐꼬리 12
증여 12
지긋지긋하 12
지도해 12
지렁이 12
지망 12
지상@@ 12
지엽적 12
지원서 12
지지자들 12
지표@@ 12
지향적 12
직자들 12
직접@@ 12
진실성 12
진압@@ 12
진퇴양난 12
질투 12
집게 12
징발 12
쩨쩨하 12
차고 12
차익 12
참뜻 12
참상 12
창궐 12
창작@@ 12
창조@@ 12
창틀 12
처녀@@ 12
처우 12
처절 12
척박한 12
천생 12
천주교 12
철없 12
첨예 12
첫머리 12
청렴결백 12
청부 12
청취 12
체감 12
체계화 12
체념 12
체력@@ 12
체조@@ 12
체지방 12
초가 12
초대형 12
초보자 12
초보적 12
초여름 12
촉망 12
촌장 12
최전방 12
춍칭 12
추후 12
축구경기 12
출연진 12
출입@@ 12
출하@@ 12
충만한 12
취사 12
치마@@ 12
칙 12
친구@@ 12
친다 12
친밀한 12
친일 12
친자식 12
친환경적 12
칠순 12
칫@@ 12
칭다오 12
카트 12
컴 12
코스모스 12
콘 12
콤플렉스 12
크로@@ 12
클래식한 12
킨@@ 12
타기 12
타임@@ 12
탄력성 12
탈고 12
탐방 12
탐험@@ 12
터들 12
턱@@ 12
템@@ 12
토마토@@ 12
통상@@ 12
통일부 12
통통 12
퇴직금 12
투병 12
투자가 12
퉁퉁 12
트랜스 12
트렌@@ 12
특출 12
틈틈이 12
틱@@ 12
파키스탄 12
파트너십 12
판국 12
판매점 12
판촉 12
팔십 12
팝@@ 12
패권 12
패망 12
편리해지 12
편법 12
평창 12
평탄한 12
포장@@ 12
포털사이트 12
포획 12
폭발물 12
푸드 12
품속 12
풋내기 12
풍모 12
풍문 12
풍미 12
프레@@ 12
플라워 12
플러그 12
플로@@ 12
피부색 12
피시방 12
피아 12
피터 12
하나만 12
하늘나라 12
하늘색 12
하역 12
하원 12
하청 12
하향 12
한국말 12
한길 12
한라산 12
한술 12
한판 12
한푼 12
함양 12
핫 12
항하 12
핸드@@ 12
햄버거 12
향락 12
허기지 12
허무 12
허심탄회 12
허탈 12
허튼 12
헌혈 12
혈통 12
형광등 12
형제간 12
호두 12
호출 12
호탕 12
혼수상태 12
혼신 12
혼합@@ 12
화염 12
황송 12
회유 12
후계자 12
훈련소 12
휴회 12
흉터 12
흘기 12
희한 12
힌트 12
10미터 11
10점 11
11년 11
14 11
16년 11
194@@ 11
1면 11
1패 11
22 11
250 11
2조 11
31 11
3등 11
3세 11
3차 11
4번 11
4분 11
50년대 11
58@@ 11
5시간 11
65@@ 11
6억 11
8대 11
8억 11
900@@ 11
9개월 11
P 11
V 11
Y 11
d@@ 11
j@@ 11
ㄹ는지 11
不@@ 11
族 11
暗@@ 11
가계부 11
가곡 11
가까이하 11
가라@@ 11
가락@@ 11
가마니 11
가무 11
가소 11
가이 11
가입@@ 11
가정적 11
가혹행위 11
각인 11
각질 11
간고 11
간곡히 11
갈기갈기 11
갈대 11
갈퀴 11
감개무량 11
감격적 11
감내 11
감명 11
감청 11
감칠맛 11
강박 11
강아지들 11
강요해서 11
강적 11
강추위 11
갚@@ 11
개막전 11
개울물 11
개원 11
개축 11
객관 11
거리감 11
거문고 11
거장 11
건달들 11
건망증 11
건조기 11
검경 11
검붉 11
게스트 11
게을리하 11
겐 11
겠노라 11
결석한 11
경시해서 11
경영난 11
경영인 11
경험적 11
경호원 11
계류 11
계집@@ 11
고것 11
고관 11
고구려 11
고꾸라지 11
고립@@ 11
고소@@ 11
고소한 11
고양 11
고위층 11
고해 11
곤두박질 11
곤히 11
곧@@ 11
골수 11
골퍼 11
곱절 11
공갈 11
공과금 11
공급원 11
공덕 11
공력 11
공복 11
공익@@ 11
공직사회 11
공포증 11
과민 11
과장@@ 11
곽@@ 11
관공서 11
관광버스 11
관련하 11
관원 11
괄호 11
괴상한 11
괴한 11
교습 11
교육열 11
교장선생님 11
교칙 11
교황 11
구류 11
구매력 11
구멍가게 11
구명@@ 11
구사할 11
구설수 11
구속력 11
구속영장 11
구수 11
구슬땀 11
구시대 11
구입@@ 11
구직 11
국민경제 11
국세 11
군들 11
군부대 11
군살 11
군용 11
굴곡 11
굴절 11
굵@@ 11
궁중 11
궤변 11
귀감 11
귀국@@ 11
귀국한 11
귀밑머리 11
귀중품 11
규정한 11
균일 11
균형@@ 11
그러지 11
그레이 11
그만@@ 11
그전 11
극찬 11
근대적 11
근육@@ 11
근하 11
글거리 11
글로@@ 11
글썽이 11
글재주 11
금감원 11
기념비 11
기념우표 11
기생@@ 11
기세등등 11
기아@@ 11
기어들@@ 11
기종 11
기준@@ 11
기진맥진 11
기탁 11
기형 11
깎아지른 11
깜짝@@ 11
꼬치 11
꽃나무 11
꽃피 11
꿀맛 11
꿈틀거리 11
꿍@@ 11
꿍꿍이 11
끌려다@@ 11
나라는 11
낙동강 11
난민@@ 11
난쟁이 11
난항 11
날쌔 11
날치 11
남아돌 11
남존여비 11
낫@@ 11
낭 11
내왕 11
내통 11
넘보 11
네이@@ 11
네이비 11
넷@@ 11
노랑 11
노래@@ 11
노르@@ 11
노른자 11
노신사 11
노획 11
녹록@@ 11
녹지 11
놀이@@ 11
놀이기구 11
농산품 11
뇌물수수 11
누구@@ 11
누군지 11
누굴 11
누출 11
눈뜨 11
눈웃음 11
늙@@ 11
능숙한 11
니아 11
다분히 11
다스 11
단결@@ 11
단독@@ 11
단순@@ 11
단신 11
단잠 11
단정히 11
단체전 11
달라붙 11
달라붙@@ 11
달이 11
담수 11
당첨금 11
당혹 11
당황한 11
대범@@ 11
대사@@ 11
대응@@ 11
대판 11
대포@@ 11
대표작 11
대피소 11
댄스@@ 11
더군다나 11
더부룩 11
덕망 11
덜컥 11
덧없이 11
데요 11
데이터@@ 11
도나 11
도쿄@@ 11
독학 11
돌출 11
동남@@ 11
동서양 11
되뇌 11
되묻 11
둘러치 11
뒤치다꺼리 11
뒤틀 11
뒷걸음치 11
뒷날 11
드라이 11
드리워지 11
들썩 11
들통나 11
듬 11
듯@@ 11
등산객 11
등정 11
따귀 11
따끈 11
딴소리 11
딸랑딸랑 11
땅굴 11
때쯤 11
땡볕 11
떫 11
뜨끈뜨끈하 11
뜬구름 11
뜯기 11
라지 11
란한 11
래적 11
러브@@ 11
렴@@ 11
로다 11
로또 11
론자들 11
룩하 11
룩한 11
륙 11
륙@@ 11
르네상스 11
름하 11
리그전 11
리아@@ 11
리터 11
마녀 11
마렵 11
마마 11
마스카라 11
마파두부 11
막상막하 11
막이 11
망측 11
맞춤형 11
매듭짓 11
매장량 11
매콤@@ 11
맥주@@ 11
맹수 11
멈@@ 11
멋쟁이 11
멍들 11
메디@@ 11
메뚜기 11
면도@@ 11
멸하 11
명문대학 11
명물 11
모델@@ 11
모발 11
모험@@ 11
목마 11
목욕@@ 11
목적@@ 11
목전 11
몸담 11
무도회 11
무상급식 11
무선@@ 11
무수히 11
무시해서 11
무원 11
무한대 11
무한정 11
묵히 11
문법@@ 11
문장@@ 11
문틈 11
문학상 11
문화권 11
물류@@ 11
물밑 11
물불 11
미리미리 11
미상 11
미셸 11
미스@@ 11
미얀마 11
미어지 11
미지근하 11
민국 11
민족주의 11
민호@@ 11
밀수 11
밑돌 11
바그다드 11
바깥쪽 11
바닷@@ 11
바른길 11
바리 11
바이어 11
바퀴벌레 11
박해서 11
반등@@ 11
반목 11
반문 11
반작용 11
반지@@ 11
반짝반짝하 11
반찬거리 11
반팔 11
받아쓰 11
받으세요 11
발언권 11
밥솥 11
밥통 11
방구석 11
방귀 11
방문자 11
방사@@ 11
방아 11
방아쇠 11
방어선 11
방지@@ 11
배설물 11
배송@@ 11
배은망덕 11
백만 11
백악관 11
밴@@ 11
뱃살 11
버들 11
버럭 11
번드르르하 11
번듯 11
번쩍하 11
번호@@ 11
벌렁 11
벌하 11
법망 11
법인세 11
법제 11
벗어나 11
베를린 11
벼락부자 11
벼슬길 11
벽난로 11
변장 11
별거 11
병기 11
병원@@ 11
병자 11
병치레 11
보관해 11
보급@@ 11
보내@@ 11
보스턴 11
보슬비 11
보아라 11
보장@@ 11
보탬 11
보편성 11
보풀 11
복사기 11
복역 11
복직 11
복합@@ 11
본점 11
볼모 11
봉양 11
봤@@ 11
부담금 11
부도나 11
부설 11
부조 11
부채@@ 11
북돋 11
북풍 11
분란 11
분분히 11
분사 11
분점 11
분풀이 11
분필 11
불구속 11
불도저 11
불식 11
불안정한 11
불운 11
불치병 11
불편@@ 11
비과학적 11
비늘 11
비닐@@ 11
비닐하우스 11
비단@@ 11
비대@@ 11
비아@@ 11
비양심적 11
빈정거리 11
빈티지 11
빈티지한 11
빌미 11
빠트리 11
빵빵 11
뺏기 11
뻑@@ 11
뻘뻘 11
뼈아프 11
삐걱거리 11
삐죽 11
사각사각 11
사격훈련 11
사교육 11
사람씩 11
사랑하기 11
사력 11
사르르 11
사면@@ 11
사모 11
사물놀이 11
사법시험 11
사법처리 11
사별 11
사용해서 11
사재 11
사정없이 11
산발적 11
산성 11
살뜰 11
살인사건 11
삼국@@ 11
삼삼오오 11
삽화 11
삿@@ 11
상급@@ 11
상급기관 11
상례 11
상상하기 11
상전 11
새콤@@ 11
샛별 11
생동 11
생물학 11
생활용품 11
서만 11
서문 11
서부@@ 11
서슴없이 11
서체 11
석사학위 11
석탑 11
선미 11
선발대 11
선산 11
선선 11
선체 11
선풍적 11
섣불리 11
설계도 11
설렁탕 11
성공률 11
성과급 11
성내 11
성병 11
성수 11
성실@@ 11
성악가 11
성찰 11
성해 11
세대교체 11
세력들 11
소년들 11
소비자@@ 11
소소한 11
소수민족 11
소심 11
소장@@ 11
소장가치 11
소진 11
속설 11
손오공 11
송하 11
송환 11
쇼크 11
숍 11
수금 11
수동적 11
수매 11
수복 11
수비진 11
수성 11
수식 11
수역 11
수온 11
수용@@ 11
수채화 11
수천만 11
수효 11
숙성 11
순리 11
술값 11
숨김없이 11
스님들 11
스럽@@ 11
스마트@@ 11
스산 11
스티로폼 11
스티커 11
슬림한 11
승계 11
승차권 11
승화 11
시ㄴ들 11
시가지 11
시간들 11
시계추 11
시누이 11
시는지 11
시들@@ 11
시부모님 11
시사회 11
시아 11
시아오리 11
시책 11
시커멓 11
시크한 11
시큰 11
시행@@ 11
식목일 11
식민 11
식상 11
식칼 11
식품들 11
신기@@ 11
신록 11
신방 11
신세계 11
신앙@@ 11
신전 11
신중@@ 11
신파 11
실거리 11
실생활 11
실토 11
실형 11
실효성 11
심심@@ 11
심장부 11
심호흡 11
십오 11
싼@@ 11
쌈@@ 11
쏘@@ 11
씩씩거리 11
아교 11
아낙네 11
아냐 11
아랍@@ 11
아래위 11
아랫도리 11
아른거리 11
아무데 11
아사 11
아우성 11
아이스 11
아차 11
아침밥 11
악비 11
악인 11
악조건 11
안면@@ 11
안쓰럽다 11
알칼리성 11
앞부분 11
앞줄 11
애교 11
애국가 11
애로 11
애처 11
애프터서비스 11
야릇 11
야생@@ 11
약력 11
양념장 11
양다리 11
양주 11
어떠냐 11
어린@@ 11
어릿광대 11
어서어서 11
어수룩 11
어스@@ 11
어장 11
어찌되 11
얼굴색 11
얽 11
엄동설한 11
엄연히 11
엄지 11
엄지@@ 11
엄지공주 11
업주 11
업히 11
었길래 11
엉거주춤 11
에두르 11
에어@@ 11
에잇 11
여독 11
여름밤 11
여성용 11
여성적 11
여유@@ 11
역적 11
연관성 11
연구자들 11
연구진 11
연기력 11
연기하기 11
연상케 11
연장자 11
연하장 11
열다섯 11
였@@ 11
영악 11
영업이익 11
영웅@@ 11
영원@@ 11
영해 11
영희 11
예식장 11
오래간만 11
오름세 11
오염@@ 11
오피스텔 11
옥신각신하 11
올가을 11
왁@@ 11
완벽@@ 11
왕궁 11
왕칭@@ 11
외도 11
외할아버지 11
요양 11
용무 11
우거지 11
우송 11
우수한 11
우스@@ 11
우승팀 11
우왕좌왕 11
우호@@ 11
우후죽순 11
운동권 11
운집 11
울렁거리 11
원림 11
원석 11
원어민 11
원천적 11
원활@@ 11
위력적 11
위치해 11
위험천만 11
윈 11
윗옷 11
유급 11
유나이티드 11
유념 11
유령 11
유치하기 11
유통업체 11
유효@@ 11
유흥업소 11
융통 11
으로나 11
으로부터의 11
으쓱하 11
음란물 11
음색 11
음주@@ 11
응급조치 11
응시자 11
의례적 11
의심@@ 11
의안 11
의원@@ 11
의전 11
의한 11
이국 11
이데올로기 11
이듬해 11
이름표 11
이민자 11
이바지하 11
이산가족 11
이상형 11
이순신 11
이슬방울 11
이염 11
이온 11
이윽고 11
이익금 11
이익만 11
이적@@ 11
이천 11
익살@@ 11
인문 11
인민군 11
인종차별 11
인지도 11
인천@@ 11
인천공항 11
인해 11
일등@@ 11
일흔 11
입상 11
입질 11
입체@@ 11
잇몸 11
잉 11
자가@@ 11
자녀들이 11
자들이 11
자랑@@ 11
자랑거리 11
자색 11
자서전 11
자선@@ 11
자성 11
자신만만 11
자원봉사자 11
자의적 11
자이@@ 11
작심 11
작태 11
작품@@ 11
잔칫상 11
잘못해 11
잘못해서 11
잡곡 11
잡동사니 11
장수@@ 11
장족 11
재계약 11
재떨이 11
재산세 11
재잘거리 11
재학생 11
잽싸 11
저금리 11
저러 11
저러지 11
저마다 11
적대적 11
적재량 11
전광판 11
전대 11
전말 11
전문직 11
전봇대 11
전임자 11
전자파 11
전출 11
전환점 11
절교 11
점토 11
접수@@ 11
접히 11
정대 11
정부기관 11
정비@@ 11
정사각형 11
정상들 11
정서적 11
정정당당 11
정중한 11
정치범 11
정통성 11
정통한 11
제1호 11
제1회 11
제련@@ 11
제로 11
제수 11
제약하 11
제어 11
제어@@ 11
제지 11
젤@@ 11
조류독감 11
조심하시 11
조정@@ 11
조종사 11
조직력 11
졸들 11
졸졸 11
종기 11
종신 11
종용 11
좌지우지 11
죄송합니다만 11
주례 11
주막 11
주말@@ 11
주무 11
주무@@ 11
주의력 11
주저@@ 11
주특기 11
죽거리 11
준결승 11
줄넘기 11
중고@@ 11
중국집 11
중부 11
중상모략 11
중앙은행 11
중한 11
쥐덫 11
쥐새끼 11
증거물 11
증권사 11
증설 11
지근하 11
지도층 11
지략 11
지질@@ 11
지혈 11
직능 11
직장@@ 11
직통 11
직행 11
진득 11
질나 11
질치 11
집채 11
집행@@ 11
짓밟히 11
쨍쨍 11
쪼글쪼글@@ 11
쭈그러@@ 11
쭉한 11
쯧쯧 11
찜통 11
차관보 11
차려입@@ 11
차례차례 11
차종 11
차지 11
착상 11
착점 11
참관했다 11
참말 11
참모 11
찻간 11
찻주전자 11
처세 11
처치 11
천금 11
천진난만 11
철통 11
첨 11
청사진 11
청취자 11
체적 11
체크@@ 11
첼시 11
쳐부수 11
쳔@@ 11
초가을 11
초과@@ 11
초기 11
초록빛 11
초석 11
초청장 11
촌티 11
총무과 11
추기경 11
추도식 11
추징 11
출근길 11
출두 11
출연@@ 11
출장@@ 11
출출 11
출항 11
치료비 11
치지 11
칠월 11
칠흑 11
캐주얼한 11
캔 11
커들 11
컨트롤 11
콘센트 11
콜레스테롤 11
콸콸 11
타박 11
타원형 11
타이트 11
탈환 11
탐구@@ 11
탐정@@ 11
탑재 11
털실 11
텍스트 11
토록 11
토론자 11
토박이 11
톨@@ 11
통폐합 11
통한 11
퇴임 11
투숙 11
투옥 11
투표권 11
트랙터 11
트렌디한 11
특근 11
티베트 11
파트 11
판촉@@ 11
펀 11
펌프 11
페이 11
평가해서 11
평년 11
평론가들 11
평이한 11
평점 11
평준화 11
폐업 11
포성 11
포수 11
포스코 11
포악 11
포용 11
폴리@@ 11
푹신 11
품질@@ 11
풍자적 11
풍자한 11
프로농구 11
프린팅 11
플래@@ 11
플랫폼 11
피로@@ 11
픽@@ 11
필생 11
하객들 11
하나둘 11
하는가 11
하숙집 11
하위 11
하이힐 11
학번 11
학생증 11
학생회 11
학수고대 11
학술지 11
학업@@ 11
한걸음 11
한국군 11
한국대사관 11
한시름 11
한심 11
한족 11
할말 11
할인점 11
합의서 11
항간 11
항렬 11
항저우 11
해묵 11
해바라기 11
해부 11
해수 11
해일 11
해적판 11
해직 11
행간 11
행주 11
향진 11
향토 11
허우적거리 11
허위사실 11
현장@@ 11
협상@@ 11
형체 11
혜 11
호루라 11
호조 11
혼전 11
홀딱 11
화두 11
화랑 11
화물연대 11
화법 11
화약 11
화이@@ 11
화자 11
확답 11
확인@@ 11
환희 11
황금빛 11
회사원 11
회신 11
회의적 11
회초리 11
횡설수설 11
효험 11
후덥지근하 11
후문 11
휘둘리 11
휘몰아치 11
휘영청 11
휴전선 11
흐지부지@@ 11
흡족 11
흥청거리 11
희끗희끗하 11
희망적 11
희색 11
희석 11
힘내 11
힘없 11
000명 10
0시 10
100m 10
10시간 10
11개 10
11명 10
120 10
13년 10
1500 10
190@@ 10
1989년 10
198@@ 10
1994년 10
19대 10
19명 10
1가구 10
1백 10
2,000 10
2015년 10
2020년 10
25전쟁 10
2만여 10
2점 10
2호 10
300명 10
3미터 10
3차례 10
40명 10
40분 10
5배 10
5층 10
5톤 10
6대 10
7개월 10
7대 10
99@@ 10
DVD 10
NBA 10
f@@ 10
l 10
․ 10
人 10
가격표 10
가난@@ 10
가드 10
가든 10
가려운 10
가리@@ 10
가맹점 10
가부 10
가스전 10
가위바위보 10
가정용 10
각계각층 10
각하 10
간사한 10
간호사들 10
갈구 10
감상@@ 10
감초 10
감형 10
강경파 10
강둑 10
강우량 10
강정 10
개강 10
개구@@ 10
개런티 10
개미@@ 10
개발한 10
개항 10
개회식 10
거란 10
거무@@ 10
거뭇@@ 10
거사 10
거스름돈 10
거위 10
거추장 10
거품@@ 10
건넌방 10
걷어@@ 10
게이트 10
겨울밤 10
격노 10
격돌 10
격동 10
격조 10
견인 10
결원 10
결정권 10
결정하자 10
겸연쩍 10
겸용 10
경내 10
경복궁 10
경상 10
경질 10
경황 10
계곡물 10
계속적 10
계정 10
고갯짓 10
고단한 10
고동@@ 10
고랑 10
고령@@ 10
고막 10
고무적 10
고산 10
고성 10
고안 10
고압적 10
고위@@ 10
곤욕 10
골자 10
골절 10
곪 10
곯아떨어지 10
곳@@ 10
곳간 10
공감대 10
공공시설 10
공교육 10
공부해 10
공습 10
공업국 10
공중도덕 10
공평@@ 10
공화당 10
과격한 10
과대학 10
과욕 10
과적 10
관군 10
관리인 10
관성 10
관전 10
관찰@@ 10
관찰력 10
광고판 10
광란 10
교들 10
교원 10
교적 10
교통질서 10
교편 10
교화 10
구금 10
구급@@ 10
구내 10
구니 10
구두점 10
구령 10
구불구불 10
구비@@ 10
구습 10
구조대원들 10
국내선 10
국립공원 10
국무@@ 10
국무장관 10
국보급 10
국제결혼 10
국제화 10
군비 10
굽실거리 10
궁색 10
궁하 10
권태 10
귀고리 10
귀염둥이 10
귓속말 10
규약 10
귤@@ 10
그따위 10
그제야 10
극구 10
극복@@ 10
극치 10
근면성 10
근무처 10
근심@@ 10
글귀 10
글하 10
급박 10
급상승 10
급작 10
급파 10
기거 10
기근 10
기념사진 10
기린 10
기말시험 10
기민 10
기억들 10
기왓@@ 10
기웃거리 10
기지@@ 10
기틀 10
기필코 10
기후변화 10
길쭉하 10
김매 10
김연아 10
까끌@@ 10
까무@@ 10
까오@@ 10
까지@@ 10
까치@@ 10
깜빡거리 10
꺼 10
께는 10
꼭@@ 10
꼿꼿이 10
꽃망울 10
꽃송이 10
꾸러 10
꿰@@ 10
끊@@ 10
끌어모으 10
끔찍이 10
낌새 10
나가@@ 10
나긋나긋하 10
나니 10
나와 10
나트륨 10
나폴레옹 10
낚싯대 10
난데없이 10
날갯짓 10
날아올랐다 10
날인 10
남친 10
남해 10
내기 10
내동댕이치 10
내면세계 10
내복 10
내장@@ 10
너저분 10
너클볼 10
넓@@ 10
넘실거리 10
년기 10
노동당 10
노동법 10
노동절 10
노무@@ 10
노심초사 10
노폐물 10
노후@@ 10
논거 10
놀러오 10
농사짓 10
뇌사 10
누그러뜨리 10
누룽지 10
눅@@ 10
눈밭 10
눈알 10
느끼하 10
는다더니 10
니스 10
닌@@ 10
다과 10
다구 10
다는데 10
다독거리 10
다래 10
다이어트@@ 10
단가 10
단골@@ 10
단어들 10
단풍@@ 10
단행본 10
달걀볶음 10
달러당 10
달싹@@ 10
담합 10
닷 10
당연@@ 10
닻 10
대강당 10
대공원 10
대궐 10
대뇌 10
대단하구 10
대들보 10
대란 10
대련 10
대망 10
대비해서 10
대웅전 10
대응책 10
대인관계 10
대처@@ 10
대학수학능력시험 10
대해서 10
더ㄹ 10
더운물 10
덕담 10
덕수궁 10
덕행 10
덜컹 10
덥수@@ 10
데스크 10
델@@ 10
도가니 10
도급 10
도매@@ 10
도살 10
도시화 10
도요타 10
도의 10
도전해 10
도지사 10
도토리 10
독립군 10
독방 10
독살 10
독선 10
독재@@ 10
돋보기 10
돌발 10
동기들 10
동네@@ 10
동메달 10
동심 10
동유럽 10
된장국 10
두꺼비 10
둑@@ 10
둔갑 10
둔치 10
뒤끝 10
뒤바꾸 10
드라이버 10
듣자하 10
들기 10
들먹@@ 10
들짐승 10
들쭉날@@ 10
듯싶다 10
등극 10
등본 10
등산객들 10
등산로 10
등산복 10
등재 10
따뜻@@ 10
따사로운 10
땡땡@@ 10
떼돈 10
뗏목 10
뚝배기 10
뚝하 10
뚱 10
라오 10
라운@@ 10
란은 10
랜드@@ 10
러블@@ 10
러져 10
럴@@ 10
레깅스 10
레이션 10
려고요 10
로그 10
로나 10
롭@@ 10
뢰@@ 10
루즈@@ 10
리드@@ 10
리뷰 10
리지 10
리콜 10
링거 10
마구간 10
마귀 10
마나 10
마들 10
마루@@ 10
마룻바닥 10
마르크스 10
마름@@ 10
마무리짓 10
마술@@ 10
마하 10
막사 10
만나@@ 10
만취 10
만큼@@ 10
말머리 10
말재주 10
말조심 10
망라 10
망해 10
매끌@@ 10
매운맛 10
매일매일 10
매정 10
매체들 10
매표소 10
맹신 10
머리숱 10
머릿@@ 10
먹고사 10
먹어치웠다 10
먼길 10
멓 10
며@@ 10
면바지 10
면상 10
명수 10
명승부 10
모기 10
모델분 10
모조 10
목선 10
몰아세우 10
몸짱 10
몸차림 10
묘안 10
무관@@ 10
무궁@@ 10
무궁화 10
무뢰한 10
무소식 10
무진장 10
무혐의 10
묵념 10
묵인 10
문드러지 10
문병 10
문필 10
묻@@ 10
물결치 10
물난리 10
물소리 10
물어뜯 10
물증 10
미개 10
미끄럼틀 10
미끌@@ 10
미남 10
미시적 10
미용@@ 10
미인@@ 10
미지수 10
미혼@@ 10
민노총 10
민담 10
민사@@ 10
믿음직스럽 10
밀폐 10
밑거름 10
바람둥이 10
바르@@ 10
바이오@@ 10
박스@@ 10
박쥐 10
반가움 10
반생 10
반역 10
반역자 10
반열 10
반응도 10
반질반질하 10
반출 10
받아들 10
받침대 10
발현 10
발화 10
밤거리 10
밤낮없이 10
밥알 10
방공@@ 10
방범@@ 10
방북 10
방사선 10
방화@@ 10
배나무 10
배들 10
백과사전 10
백일하에 10
백화 10
뱃길 10
뱃전 10
뱅이 10
버들@@ 10
버들가지 10
버블 10
번지@@ 10
벌레들 10
범죄행위 10
법상 10
베리 10
벤처기업 10
벼락치 10
변변@@ 10
변이 10
변증@@ 10
변치 10
병균 10
병인 10
병충해 10
보들보들하 10
보라색 10
보리밭 10
보릿@@ 10
보살 10
보육@@ 10
보자 10
보증@@ 10
보편 10
복고풍 10
복선 10
복수@@ 10
복싱 10
복제@@ 10
복지부 10
복합적 10
볼품 10
봇@@ 10
봉건사회 10
봉건시대 10
봉황 10
부가@@ 10
부귀영화 10
부담해 10
부랴부랴 10
부록 10
부식@@ 10
부엌일 10
부연 10
부유@@ 10
부익부 10
북극@@ 10
북상 10
북송 10
분당 10
분대 10
분리수거 10
분신 10
분양권 10
분주히 10
분통 10
불나 10
불룩하 10
불시착 10
붙임성 10
브리지 10
비구름 10
비등 10
비뚤비뚤하 10
비뚤어지 10
비만 10
비염 10
비타민@@ 10
비틀@@ 10
빈둥빈둥 10
빈민 10
빈발 10
빙그레 10
빙글빙글 10
빡 10
빵빵@@ 10
빵점 10
뻐꾸기 10
뼈저리 10
삔 10
사과해 10
사납@@ 10
사대부 10
사례@@ 10
사마@@ 10
사명감 10
사무원 10
사방팔방 10
사뿐@@ 10
사용량 10
사육@@ 10
사이사이 10
사전@@ 10
사천 10
사투 10
산나물 10
산악회 10
산업계 10
산허리 10
살균 10
살상 10
살해한 10
삼겹살 10
삼백 10
삼복 10
상갓집 10
상고 10
상연 10
상원 10
상한 10
상호@@ 10
색칠 10
샌드위치 10
생년월일 10
생리@@ 10
생산물 10
생산비 10
생산지 10
생존권 10
생활방식 10
생후 10
서브 10
서술@@ 10
서슬 10
서양인 10
석기 10
선거전 10
선결 10
선두@@ 10
선봉@@ 10
선악 10
선양 10
선용 10
선적 10
설명@@ 10
설산 10
성냥@@ 10
성명서 10
성함 10
세균@@ 10
세끼 10
세대들 10
셀 10
셈@@ 10
셨을 10
셨지만 10
소개팅 10
소독약 10
소방대원 10
소방대원들 10
소비심리 10
소읍 10
소작 10
소작농 10
소작료 10
소장품 10
소학교 10
소화제 10
속뜻 10
속편 10
손들 10
손맛 10
손버릇 10
수갑 10
수그러들 10
수난 10
수뇌부 10
수배@@ 10
수북이 10
수수밭 10
수재민 10
수정해 10
수조 10
수프 10
수학자 10
수험 10
수혈 10
수확고 10
숙지 10
술책 10
숨바꼭질 10
숭상 10
스리@@ 10
스모@@ 10
스웨이드 10
스코 10
스크랩 10
스트리@@ 10
스팀 10
스펀지 10
슨@@ 10
슬기로운 10
습생 10
습작 10
승강장 10
승부@@ 10
승부조작 10
시간씩 10
시간표 10
시곤 10
시금치 10
시녀 10
시대@@ 10
시럽 10
시스트 10
시월 10
시작하자 10
시치미 10
시험문제 10
식량난 10
신부님 10
신분@@ 10
신붓감 10
신앙심 10
신장@@ 10
실각 10
실사 10
실수한 10
실용@@ 10
실용화 10
실종@@ 10
실험@@ 10
심사위원들 10
심장@@ 10
심증 10
싱글벙글 10
쌀자루 10
쌍꺼풀 10
쏠쏠 10
쓰츄완 10
쓴@@ 10
씨름@@ 10
씻@@ 10
씽씽 10
아ㄴ지 10
아낌없 10
아낌없이 10
아들딸 10
아라@@ 10
아랫목 10
아리랑 10
아면서 10
아시아인 10
아이구 10
아프가니스탄 10
안과 10
안위 10
않을@@ 10
않을래 10
암투 10
압박감 10
압승 10
앗@@ 10
앙숙 10
앞사람 10
애견@@ 10
애국자 10
애증 10
애티 10
액션@@ 10
액정 10
앤 10
앵두 10
야권 10
야심@@ 10
야한 10
약소 10
약소국 10
약정 10
양분 10
양양 10
양옆 10
양질 10
양편 10
얘들아 10
어깨@@ 10
어르신네 10
어른@@ 10
어른거리 10
어린 10
어서었다 10
어이없 10
어적 10
어중간 10
어지러이 10
어질@@ 10
어허 10
억제@@ 10
언더@@ 10
언론인 10
언론자유 10
엄살 10
엄선 10
업그레이드 10
었겠는가 10
었었지 10
에라 10
에베레스트 10
에서든 10
에스컬레이터 10
엘 10
엠보 10
여대생 10
여신 10
역습 10
연결@@ 10
연구개발 10
연구비 10
연날리기 10
연로 10
연방@@ 10
연습장 10
연주@@ 10
연탄불 10
열한 10
염분 10
영상물 10
영세 10
영양가 10
예비군 10
예술계 10
예의범절 10
옐로카드 10
옛사람 10
오도 10
오라@@ 10
오리지널 10
오스트리아 10
오인 10
오퍼 10
오프@@ 10
오한 10
올봄 10
옵션 10
와이드 10
완구 10
완성@@ 10
완숙 10
완주 10
왕릉 10
외과 10
외빈 10
외상값 10
외아들 10
요구르트 10
요동 10
요람 10
용액 10
우러르 10
우수수 10
우스개 10
우유부단 10
우익 10
우주여행 10
우쭐@@ 10
운영자 10
운운 10
운전대 10
움직@@ 10
움켜잡 10
웅 10
워서 10
워크 10
원목 10
원정@@ 10
원초적 10
월동 10
웬웬@@ 10
웬웬에 10
웰@@ 10
위반@@ 10
위태로운 10
위풍당당 10
유가@@ 10
유골 10
유동성 10
유럽에서 10
유로 10
유무 10
유물들 10
유방 10
유비 10
유심히 10
유제 10
유학생들 10
유행@@ 10
육십 10
윤리적 10
윤허 10
율동 10
융단 10
융숭 10
윷놀이 10
으름장 10
은닉 10
은메달 10
은연중 10
은행나무 10
은행들 10
을는지 10
음악계 10
의석 10
의연히 10
이골 10
이구동성 10
이국적 10
이까짓 10
이니 10
이러쿵저러쿵@@ 10
이모@@ 10
이브 10
이승엽 10
이시 10
이월 10
이제@@ 10
이질 10
이차 10
이한 10
인걸 10
인격@@ 10
인류사회 10
인사불성 10
인솔@@ 10
인제 10
인질범 10
일거수일투족 10
일거양득 10
일괄적 10
일러 10
일러@@ 10
일목요연 10
일약 10
일어@@ 10
일월 10
일장 10
일제강점기 10
임원진 10
임플란트 10
입력@@ 10
입맞춤 10
입장@@ 10
입회 10
있으@@ 10
자긍심 10
자립@@ 10
자멸 10
자습 10
자애 10
자원봉사 10
자위대 10
자이툰 10
자전@@ 10
자조 10
자주@@ 10
자판기 10
자화자찬 10
작달막 10
작대기 10
작성@@ 10
잔고 10
잔머리 10
잔액 10
잠꼬대 10
잡비 10
잡화 10
장구 10
장구@@ 10
장날 10
장례식장 10
장미꽃 10
장자 10
장조 10
장한 10
재고품 10
재담 10
재발급 10
재배@@ 10
재정비 10
재정지출 10
재평가 10
잿빛 10
쟁이들 10
저승 10
저울질 10
저작@@ 10
적격 10
적국 10
적외선 10
적출 10
전기적 10
전담자 10
전동@@ 10
전망치 10
전면전 10
전문대 10
전문화 10
전번 10
전심 10
전전긍긍 10
전조 10
전지@@ 10
절약@@ 10
접근@@ 10
젓@@ 10
정련 10
정렬 10
정보기관 10
정보기술 10
정분 10
정석 10
정원@@ 10
정월대보름 10
정정하시 10
제2회 10
제7@@ 10
제반 10
제작@@ 10
젠@@ 10
졍@@ 10
조개@@ 10
조국@@ 10
조급히 10
조리사 10
조명@@ 10
조바심 10
조사할 10
조약돌 10
조용@@ 10
조합@@ 10
조합원 10
족집게 10
좁@@ 10
종교계 10
종묘 10
종부세 10
종종걸음 10
좌우@@ 10
죄상 10
죄책감 10
주간지 10
주견 10
주권@@ 10
주무시 10
주인공들 10
주재@@ 10
주제@@ 10
주지 10
주체적 10
주파 10
주황색 10
죽치 10
준마 10
준비하기 10
준칙 10
중견 10
중공업 10
중국대사관 10
중국팀 10
중매쟁이 10
중압감 10
중형 10
증가@@ 10
지구력 10
지급@@ 10
지방선거 10
지배자 10
지배층 10
지아 10
지양 10
지역별 10
지인 10
지중해 10
직경 10
직권 10
직원@@ 10
진료소 10
진지한 10
진통제 10
진행자 10
진흙탕 10
집어치우 10
징계@@ 10
징크스 10
짜임 10
짝수 10
짝퉁 10
쩡@@ 10
쪼그라@@ 10
쪽빛 10
쭈뼛@@ 10
찡하 10
차려입 10
차액 10
차제 10
착지 10
착화감 10
찬밥 10
찬탈 10
참나무 10
참수 10
참여@@ 10
찹쌀 10
찾아뵙고 10
찾아뵙지 10
채용@@ 10
처박 10
처벌@@ 10
처형 10
천기 10
천원 10
천하@@ 10
철이 10
철조망 10
첩자 10
첫해 10
청동 10
청순한 10
체취 10
쳤@@ 10
초대장 10
초음파 10
촉촉 10
촘촘히 10
총공격 10
총통 10
최루탄 10
최면 10
최장 10
최전선 10
추대 10
추문 10
추스르 10
추앙 10
축산물 10
출발선 10
출전한 10
출항하 10
충신 10
충해 10
취급@@ 10
취미@@ 10
취업자 10
취재@@ 10
층집 10
치료제 10
친근한 10
친숙 10
칠십 10
칠칠@@ 10
칸막이 10
칼질 10
커브 10
커우 10
컬러@@ 10
컬러텔레비전 10
컴퓨터@@ 10
켓@@ 10
켕기 10
코디하 10
코믹@@ 10
콘셉트 10
콧구멍 10
콧날 10
콱 10
쿵쿵 10
큐빅 10
큰 10
큰딸 10
큰코다치 10
큼 10
큼지막 10
킥@@ 10
타점 10
탄창 10
탄탄@@ 10
탈바꿈 10
태극@@ 10
태만 10
태반 10
태연자약 10
태평@@ 10
터치 10
털옷 10
테크@@ 10
텍@@ 10
토스트 10
톱니바퀴 10
통찰 10
통학 10
통행@@ 10
퇴근길 10
퇴학 10
투덜거리 10
투명@@ 10
투쟁@@ 10
투표율 10
트레이닝 10
특별법 10
특사 10
특산물 10
특정인 10
티슈 10
티엔@@ 10
티즌 10
파격 10
파견@@ 10
파스텔 10
팍팍 10
팔방 10
팝 10
팩@@ 10
퍼뜩 10
편벽 10
평화협정 10
폐렴 10
포개 10
포괄적 10
포장지 10
폭력배 10
폭주 10
폭주@@ 10
폭폭 10
표수 10
표준@@ 10
푸르른 10
프리 10
프트 10
플러스 10
플레이션 10
플레이어 10
피트 10
피해액 10
필드 10
핏감 10
핏자국 10
하겠@@ 10
하늘@@ 10
하드웨어 10
하라 10
하버드대 10
하부 10
하소 10
하수도 10
학술적 10
학자금 10
한물가 10
한배 10
한부 10
한일@@ 10
한철 10
한테@@ 10
할애 10
합격선 10
합니 10
합리성 10
합성@@ 10
합의점 10
합장 10
항공모함 10
항행 10
해결해 10
해운 10
해임 10
해자 10
해주시길 10
해충 10
햅쌀 10
햇수 10
행동해 10
향방 10
향불 10
향적 10
허상 10
허옇 10
헉@@ 10
험악 10
헛걸음 10
혁 10
현실주의 10
현지@@ 10
혈액@@ 10
혓바닥 10
형기 10
형제@@ 10
형형색색 10
호가 10
호강 10
호선 10
호위 10
호혜 10
혹평 10
혼란@@ 10
혼미 10
홀아비 10
홀쭉하 10
홍차 10
화가들 10
화백 10
화산재 10
화폭 10
화환 10
환영@@ 10
환율@@ 10
회계사 10
회계원 10
회당 10
회사측 10
횟집 10
횡재 10
후끈 10
후리 10
후회@@ 10
훈련병들 10
훈육 10
휑하 10
휘황찬란 10
휴게소 10
흑인 10
흥망 10
흥망성쇠 10
흥미로운 10
희망자 10
히트 10
힘@@ 10
힘주 10
힘차게 10
1.@@ 9
1000명 9
10개월 9
10리 9
12명 9
130 9
16개 9
16명 9
180 9
1980년 9
1987년 9
1990년 9
199@@ 9
1기 9
1대 9
1부 9
1분기 9
1절 9
2,000@@ 9
2-@@ 9
201@@ 9
20개 9
3000원 9
30년대 9
40세 9
42 9
4가지 9
4개월 9
4회 9
50위 9
55 9
56@@ 9
5회 9
60명 9
64@@ 9
66@@ 9
6회 9
M 9
a 9
k@@ 9
ng 9
oo@@ 9
◇ 9
ㄴ도다 9
ㄹ@@ 9
人@@ 9
儿 9
国@@ 9
土 9
头 9
糟 9
菠萝 9
高@@ 9
가게@@ 9
가공한 9
가녀리 9
가능한 9
가담자 9
가득@@ 9
가렵다 9
가슴팍 9
가시적 9
가자 9
가져@@ 9
가차 9
가창력 9
각색 9
간극 9
간암 9
갉@@ 9
감염@@ 9
감화 9
갔@@ 9
강약 9
강제동원 9
강진 9
개괄 9
개그@@ 9
개명 9
개요 9
개인택시 9
개칭 9
개폐 9
개화기 9
거부감 9
거북@@ 9
건설경기 9
건설비 9
건설업체 9
건성@@ 9
검문소 9
검증@@ 9
겉옷 9
게이@@ 9
게임기 9
겔 9
겠다니 9
격려@@ 9
격언 9
격투기 9
견과류 9
견본 9
결단성 9
결론적 9
결혼생활 9
경각 9
경들 9
경륜 9
경마장 9
경물 9
경상수지 9
경심 9
경연대회 9
경운기 9
경제정책 9
고가@@ 9
고객님 9
고단 9
고등학생들 9
고래고래 9
고리타분 9
고만고만하 9
고물상 9
고서도 9
고속버스 9
고속열차 9
고압 9
고요히 9
고용인 9
고위급 9
고즈넉 9
고철 9
곤란@@ 9
골똘히 9
골몰 9
공간적 9
공고@@ 9
공공요금 9
공놀이 9
공무원@@ 9
공상@@ 9
공소 9
공신력 9
공업화 9
공용어 9
공이 9
공정해 9
과대@@ 9
과도@@ 9
과일들 9
과중한 9
과학계 9
과학원 9
관대히 9
관련성 9
관리비 9
관리사 9
관조 9
광대뼈 9
광야 9
교각 9
교관 9
교리 9
교무실 9
교민 9
교섭@@ 9
교양@@ 9
교육계 9
교육정책 9
교차@@ 9
교차로 9
교통난 9
구경거리 9
구내식당 9
구둣@@ 9
구사일생 9
구상@@ 9
구성원들 9
국가경쟁력 9
국경절 9
국민당 9
국비 9
국유 9
국제선 9
군단 9
군사정권 9
굳건히 9
굶어@@ 9
궁금해지 9
궁벽 9
귀납 9
규합 9
균열 9
그래프 9
그러모으 9
그레@@ 9
그믐 9
그자 9
극심 9
극약 9
근근히 9
근대화 9
근무지 9
근시안적 9
금반지 9
금융회사 9
급강하 9
급사 9
급습 9
급한 9
기각 9
기간@@ 9
기관사 9
기권 9
기념물 9
기모 9
기병 9
기습@@ 9
기정사실 9
기중기 9
기해 9
긴긴 9
긴밀한 9
긴장@@ 9
긴장해서 9
김치찌개 9
깁@@ 9
까마득히 9
깍듯이 9
깨알 9
깨어나 9
꺼림칙 9
꺽@@ 9
껌@@ 9
꼬깃@@ 9
꼬르륵 9
꼬챙이 9
꼼@@ 9
꽃피우 9
끗 9
끙끙거리 9
끝부분 9
끼리@@ 9
나팔@@ 9
낙방 9
낙인 9
낙찰 9
난다 9
난립 9
난색 9
남남 9
남녀들 9
남아공 9
남해안 9
낯가죽 9
낯빛 9
내부적 9
낼 9
냅다 9
냉동 9
냉동@@ 9
너울@@ 9
넓적다리 9
네트 9
넥@@ 9
년대 9
노루 9
노비 9
노사@@ 9
노사간 9
노숙자 9
논단 9
논바닥 9
농어촌 9
농업세 9
농축 9
높다랗 9
누구누구 9
누군@@ 9
누설해서 9
눈사태 9
눈썰미 9
눈여기 9
눈치@@ 9
뉴 9
뉴욕타임스 9
느티나무 9
능률적 9
능사 9
능선 9
능수능란 9
니는 9
니스트 9
닉스 9
다락방 9
다소곳 9
다음@@ 9
단계별 9
단군 9
단발머리 9
단식 9
단일@@ 9
단짝 9
달라붙었다 9
달맞이 9
달싹 9
달짝지근하 9
닷@@ 9
당한 9
당해 9
대검 9
대답@@ 9
대대 9
대대장 9
대뜸 9
대범 9
대비책 9
대소변 9
대왕 9
대자보 9
대장간 9
대접해 9
대주주 9
대초원 9
대피하 9
댄@@ 9
더치@@ 9
덜렁대 9
덜컹@@ 9
덤핑 9
덧대 9
데이션 9
도교 9
도락 9
도착@@ 9
도트 9
도표 9
도화선 9
독기 9
독립성 9
독백 9
독보적 9
독약 9
돋구 9
돌려@@ 9
돌부리 9
동녘 9
동란 9
동료@@ 9
동물성 9
동방 9
동방@@ 9
동분서주 9
동포@@ 9
동호@@ 9
되었@@ 9
두개 9
두건 9
두께감 9
두루마기 9
두리@@ 9
두메산골 9
두번 9
둘만 9
뒤범벅 9
뒤집어엎@@ 9
뒷다리 9
뒷사람 9
드득 9
드세 9
득바득 9
들여보내 9
등기우편 9
등락 9
등잔 9
등장인물 9
등한시 9
디지털카메라 9
따님 9
따라@@ 9
따사 9
때묻 9
떠나@@ 9
떠듬거리 9
떼어@@ 9
뚱하 9
뜨개질 9
뜨끔 9
뜩@@ 9
띄엄띄엄 9
라스 9
라오쟝 9
라인업 9
라지만 9
라켓 9
랍 9
래요 9
랩@@ 9
랭크 9
러닝 9
레드카드 9
레일 9
레포@@ 9
려들 9
렬 9
령들 9
로들 9
로스쿨 9
롤 9
롯@@ 9
룸@@ 9
룸메이트 9
리스@@ 9
리에 9
리즘 9
리티 9
마니 9
마니@@ 9
마당발 9
마력 9
마부 9
마오@@ 9
마음놓 9
마켓 9
만담@@ 9
만연한 9
만이라도 9
만족도 9
만치 9
말갛 9
말미 9
말살 9
말싸움 9
말아@@ 9
맘 9
망사 9
맞대결 9
맞받 9
맞장구 9
맡@@ 9
매만지 9
매시간 9
매장@@ 9
매콤한 9
머리말 9
머리통 9
머뭇@@ 9
머신 9
머쓱 9
먹보 9
먹어@@ 9
먹혀@@ 9
먼지투성이 9
멱살 9
면사포 9
면직 9
명목@@ 9
명산 9
명절날 9
모래성 9
모바일 9
모범수 9
모습들 9
모욕적 9
모의@@ 9
모집@@ 9
모험심 9
목성 9
목욕물 9
몬@@ 9
몸져눕 9
몸조리 9
묘역 9
무대@@ 9
무도 9
무분별 9
무비판적 9
무시무시하 9
무신경 9
무쌍한 9
무지몽매 9
무형@@ 9
묵비권 9
문과 9
문들 9
문방구 9
문의@@ 9
문학계 9
문항 9
문화부 9
물산 9
물샐틈없 9
물위 9
물하 9
미네랄 9
미니스커트 9
미드필더 9
미드필드 9
미미한 9
미아 9
미용사 9
미치광이 9
미풍양속 9
미학적 9
믹@@ 9
밀물 9
밀짚모자 9
바늘@@ 9
바닷속 9
바삭@@ 9
바삭바삭@@ 9
박찬호 9
박함 9
반대쪽 9
반딧불 9
반론 9
반발@@ 9
받침 9
발길질 9
발맞추 9
발버둥치 9
발설 9
발언자 9
발열 9
발전기 9
발짓 9
발차@@ 9
발칵 9
발포 9
밤바람 9
밥물 9
방값 9
방사성 9
방역 9
방음 9
밭일 9
배구팀 9
배럴당 9
배석 9
배어들@@ 9
배추@@ 9
배태 9
배필 9
백배 9
백수 9
백억 9
백정 9
백합 9
밸브 9
뱅뱅 9
버그 9
버선@@ 9
번갈 9
번갯불 9
번호판 9
번화가 9
벌떼 9
벌주 9
벌컥벌컥 9
벗어@@ 9
벙벙하 9
벚@@ 9
베갯@@ 9
베어@@ 9
베이비 9
베이징대학 9
베토벤 9
벼농사 9
벼랑 9
변별 9
변칙 9
변호@@ 9
변호인 9
변화구 9
변환 9
별반 9
별수 9
병폐 9
보름날 9
보리차 9
보수주의 9
보수파 9
보육 9
보초병 9
보푸라 9
보호법 9
복사@@ 9
복숭아꽃 9
복잡해서 9
본부장 9
볼래 9
볼썽사납 9
봄볕 9
봉인 9
뵈@@ 9
부랑@@ 9
부리@@ 9
부문별 9
부부들 9
부분@@ 9
부상병 9
부자@@ 9
부적합 9
부제 9
부지@@ 9
부지기수 9
부지런@@ 9
부턴 9
북미 9
북유럽 9
북한@@ 9
분명@@ 9
분별력 9
분자들 9
불경 9
불교@@ 9
불시 9
불완전 9
불확실성 9
붕붕 9
붕어 9
뷔@@ 9
블라@@ 9
비대화 9
비릿 9
비민주적 9
비상사태 9
비상시 9
비슷하 9
비적 9
비전@@ 9
비치@@ 9
비틀비틀@@ 9
비핵화 9
비화 9
빈부격차 9
빈익빈 9
빌딩@@ 9
빗길 9
빗자루 9
빙판길 9
빡@@ 9
뻐끔@@ 9
뻑 9
뽀뽀 9
뿌리째 9
뿌연 9
사각@@ 9
사경 9
사관@@ 9
사관학교 9
사기꾼들 9
사냥개 9
사냥꾼들 9
사달 9
사립 9
사망@@ 9
사망률 9
사무직 9
사무총장 9
사본 9
사상적 9
사실만 9
사업비 9
사업체 9
사용료 9
사용해 9
사유@@ 9
사이다 9
사인하 9
사자@@ 9
사직@@ 9
사찰@@ 9
사촌@@ 9
사탕수수 9
사형@@ 9
사회과학 9
사회상 9
사회인 9
삭이 9
산란 9
산실 9
산업용 9
산호@@ 9
살코기 9
살포시 9
삼대 9
삼림@@ 9
삿대질 9
상단 9
상소 9
상어 9
상종 9
상쾌해지 9
상판 9
상향 9
상화 9
새소리 9
새카맣 9
새콤한 9
색깔@@ 9
샐러리맨 9
생산액 9
생선회 9
생일선물 9
생일파티 9
생존자 9
생쥐 9
샴푸 9
서당 9
서로서로 9
서른@@ 9
서명@@ 9
서성 9
서해@@ 9
석유화학 9
선로 9
선발전 9
선비들 9
선약 9
선열 9
선잠 9
선호도 9
섣부르 9
설맞 9
설치@@ 9
섭외 9
성공리 9
성과@@ 9
성군 9
성냥불 9
성묘 9
성심성의 9
성안 9
성애 9
성업 9
성욕 9
성장세 9
성지 9
성취도 9
성한 9
성현 9
성형수술 9
성희롱 9
세라믹 9
세분화 9
세일@@ 9
세종대왕 9
섹@@ 9
셋방 9
셔터 9
셰@@ 9
소모@@ 9
소반 9
소방서 9
소서 9
소세 9
소아 9
소치 9
소탈하 9
소화하기 9
손님@@ 9
솔개 9
솔깃 9
솔선수범 9
솔솔 9
솜사탕 9
솨 9
수강생 9
수능시험 9
수리비 9
수숫@@ 9
수습@@ 9
수욕 9
수정안 9
수족 9
수진 9
수탉 9
숙명 9
순두부 9
순례 9
순백 9
순정 9
슈퍼스타 9
스들 9
스르르 9
스승님 9
스키니 9
스톱 9
스티치 9
스팽글 9
스페인@@ 9
스푼 9
슬러 9
승전 9
시간제 9
시계@@ 9
시골집 9
시금@@ 9
시기적 9
시네 9
시마 9
시시콜콜 9
시시한 9
시원찮 9
시작@@ 9
시정부 9
시청각 9
시키@@ 9
식들 9
식물들 9
식물원 9
신교 9
신랄한 9
신뢰성 9
신문들 9
신사@@ 9
신생 9
신용불량자 9
신음소리 9
신자들 9
신중국 9
신중함 9
신진 9
신호탄 9
실력@@ 9
실록 9
실망감 9
실명제 9
실버@@ 9
실업난 9
실천@@ 9
실황 9
싫@@ 9
심란 9
심미적 9
십시요 9
싱글@@ 9
싱크대 9
싸움터 9
써먹 9
쐐기 9
쓴소리 9
씌@@ 9
씨름판 9
아낙들 9
아니꼽 9
아뢰 9
아르헨티나 9
아메리카 9
아몬드 9
아치형 9
아프리카@@ 9
악재 9
안구 9
안녕히 9
안들 9
안심@@ 9
안쓰러@@ 9
안티@@ 9
알갱이 9
알람 9
알랑거리 9
알리바이 9
알밤 9
앎 9
암묵@@ 9
암자 9
압권 9
앞니 9
애국@@ 9
애먹 9
애비 9
앳되 9
앵무새 9
야구공 9
야욕 9
양당 9
양떼 9
양로원 9
양립 9
양모 9
양미간 9
양배추 9
양식업 9
양장 9
양초 9
양치 9
양호@@ 9
얘기해 9
어그러지 9
어들@@ 9
어렵@@ 9
어림없 9
어머@@ 9
어머니들 9
어서ㄹ 9
어선들 9
어슴푸레 9
어슴푸레하 9
어여쁘 9
어오르 9
어정쩡 9
억대 9
언동 9
언론계 9
언성 9
언약 9
언어학 9
언쟁 9
얻어먹@@ 9
얼마쯤 9
얼음장 9
얼토당토않 9
엄마들 9
엄정한 9
엄히 9
업그레이드@@ 9
없다 9
었노라 9
었다면서 9
었든 9
엎어지 9
엎질러진 9
에게까지 9
에서조차 9
엔터테인먼트 9
여금 9
여덟@@ 9
여러@@ 9
여보게 9
여비서 9
여성미 9
여자애 9
역사책 9
역점 9
연두색 9
연령대 9
연세대 9
연쇄@@ 9
연시 9
연어 9
연예@@ 9
연필@@ 9
열대야 9
열애 9
염색체 9
영국인 9
영양제 9
영업부 9
영원토록 9
영위 9
영장실질심사 9
영주 9
예민해 9
예쁘@@ 9
예시 9
예의@@ 9
오누이 9
오른팔 9
오명 9
오백 9
오버 9
오색@@ 9
오순도순 9
오점 9
오피@@ 9
온상 9
올려@@ 9
올려다보 9
올림@@ 9
옵소서 9
옹색 9
와락 9
왁스 9
왁자지껄 9
완급 9
왈가왈부 9
외갓집 9
외곬 9
외교통상부 9
외채 9
왼발 9
요것 9
요놈 9
요동치 9
요염 9
용구 9
용적 9
용접 9
용차 9
우두둑 9
우렁@@ 9
우수성 9
우회 9
운다 9
운동복 9
운동선수들 9
운행@@ 9
울먹이 9
울화 9
웃돈 9
웅성거리 9
원나라 9
원생들 9
원시인 9
원칙@@ 9
원폭 9
월드@@ 9
월병 9
월분 9
월식 9
위도 9
위법 9
위폐 9
위협적 9
윗부분 9
유괴범 9
유기농 9
유기징역 9
유니@@ 9
유동@@ 9
유망@@ 9
유사@@ 9
유약 9
유엔@@ 9
유자 9
유채꽃 9
유흥 9
육상@@ 9
육체@@ 9
으시ㅂ니다 9
으시니 9
으시어서 9
은들 9
은신처 9
을씨년 9
음영 9
음조 9
음치 9
음표 9
음해 9
의료보험 9
의사선생님 9
의식주 9
이고 9
이관 9
이글이글 9
이동통신 9
이따위 9
이랬다저랬다 9
이메 9
이물질 9
이병 9
이사오 9
이상주의 9
이성@@ 9
이슬람@@ 9
이야기꽃 9
이자@@ 9
이지적 9
이채 9
이해서 9
이행@@ 9
인구밀도 9
인디@@ 9
인력난 9
인양 9
인적@@ 9
인질극 9
인터뷰@@ 9
인플레 9
인허가 9
일생동안 9
일언@@ 9
일침 9
임대주택 9
임업 9
입담 9
입하 9
입학식 9
자네@@ 9
자력 9
자만심 9
자매@@ 9
자문@@ 9
자생@@ 9
자손들 9
자신@@ 9
자양분 9
자율성 9
자작@@ 9
자존 9
자중 9
자지러지 9
자축 9
작두 9
작열 9
잠결 9
잠귀 9
잠식 9
잠잠 9
잠정적 9
잣나무 9
장려@@ 9
장례@@ 9
장맛 9
장사꾼들 9
장신 9
장어 9
장학생 9
재고@@ 9
재밌 9
재배치 9
재벌@@ 9
재생@@ 9
재신 9
재정부 9
재투자 9
재판@@ 9
재판소 9
재확인 9
잿더미 9
저기압 9
저널 9
저녁놀 9
저미 9
저촉 9
적대 9
적도 9
적응력 9
적의 9
전격 9
전공한 9
전달@@ 9
전달한 9
전달해 9
전력투구 9
전문의 9
전산망 9
전시품 9
전연 9
전운 9
전원주택 9
전제조건 9
전주@@ 9
전해@@ 9
절차@@ 9
점령한 9
점잔 9
점화 9
정감 9
정당성 9
정독 9
정량 9
정무 9
정무@@ 9
정복자 9
정액 9
정착@@ 9
제1 9
제도@@ 9
제자리걸음 9
제작자들 9
조건@@ 9
조심히 9
조씨 9
조우 9
조퇴 9
조판 9
조한 9
존립 9
졸업논문 9
졸업반 9
종군 9
종파 9
좆 9
좌우간 9
좌측 9
좌판 9
좌표 9
좌회전 9
주거@@ 9
주량 9
주르륵 9
주변국들 9
주안점 9
주워@@ 9
주입식 9
주전부리 9
주주들 9
주춧돌 9
주택가격 9
주택난 9
주택단지 9
줄기@@ 9
중국식 9
중금속 9
중소@@ 9
중수 9
중압 9
중용 9
중풍 9
중해 9
중화인민공화국 9
쥐약 9
쥐어박@@ 9
즉위 9
즐@@ 9
증가세 9
증거@@ 9
증여세 9
증자 9
지게 9
지국 9
지근@@ 9
지단 9
지명도 9
지모 9
지방정부 9
지아@@ 9
지은이 9
지적해 9
지지@@ 9
지척 9
지천 9
지평선 9
지해 9
직격탄 9
직계 9
직속 9
진들 9
진미 9
진시황 9
진의 9
진정성 9
진탕 9
진화론 9
질의 9
집안@@ 9
집약적 9
집요한 9
짓거리 9
징역형 9
짤@@ 9
짤막 9
짬@@ 9
쭈 9
쭉쭉 9
쭉하 9
찝@@ 9
차단@@ 9
차려입고 9
차별화 9
차오@@ 9
착복 9
참전 9
찻물 9
창단 9
창당 9
창호 9
찾아뵙겠습니 9
채권자 9
채소@@ 9
채소밭 9
처단 9
처리하시 9
처제 9
척박 9
천거 9
천둥소리 9
천상 9
천정 9
천직 9
철근 9
철봉 9
철새들 9
철학자 9
청년층 9
청두 9
청명절 9
청천 9
체납@@ 9
체자 9
초대해 9
초밥 9
초보@@ 9
초봄 9
초조@@ 9
초판 9
촌민들 9
촛불시위 9
총생산 9
총성 9
총칭 9
총파업 9
최고위원 9
최신식 9
추상 9
추징금 9
축내 9
축대 9
축이 9
출 9
출고 9
출연자 9
출입문 9
출정 9
충동질 9
충만해 9
충분@@ 9
취객 9
취학 9
치질 9
치켜세@@ 9
치킨 9
친근 9
친숙한 9
친일파 9
침술 9
침통 9
카디건 9
카오@@ 9
캉@@ 9
커미션 9
코드@@ 9
코리안 9
코팅 9
콜록@@ 9
콧등 9
쾌히 9
쿵쾅거리 9
퀴퀴하 9
큰집 9
클럽@@ 9
키위 9
타르 9
타월 9
타일 9
타협@@ 9
탄약 9
탈색 9
탈춤 9
탐문 9
태백산맥 9
택시@@ 9
털어놨다 9
테마 9
텐 9
토끼@@ 9
토성 9
통달 9
통산 9
통화량 9
퉁기 9
트로 9
특가 9
틀어@@ 9
틔우 9
틱 9
팀원 9
파라치 9
파생 9
파열 9
판다 9
팔목 9
팔순 9
팬클럽 9
팬티 9
퍼런 9
펄쩍 9
페인팅 9
펜던트 9
편안@@ 9
편지지 9
평등@@ 9
평생@@ 9
평행 9
폐회 9
포동포동하 9
폭격기 9
폭락@@ 9
폭발력 9
폭소 9
표시한 9
푸근 9
푸른빛 9
푸석푸석@@ 9
푸짐 9
풋고추 9
풍상 9
퓨전 9
프라이팬 9
프로필 9
프리미엄 9
피곤@@ 9
피난@@ 9
피랍 9
피로감 9
피부병 9
피아@@ 9
피혁 9
필수@@ 9
하고야 9
하려거든 9
하룻@@ 9
하마 9
하에서 9
하위권 9
학교장 9
학력@@ 9
학장 9
학창시절 9
학파 9
한국인들 9
한눈팔 9
한바퀴 9
한산하 9
한약재 9
한일관계 9
한집 9
한패 9
함축 9
합의@@ 9
합의문 9
합창단 9
항만 9
해골 9
해면 9
해방@@ 9
해성 9
해어지 9
해요 9
해운@@ 9
해장국 9
해킹 9
행로 9
행방불명 9
행색 9
향기로운 9
향내 9
향료 9
향토@@ 9
허다 9
허둥지둥하 9
허무맹랑 9
헌신짝 9
헬스장 9
현상금 9
현상들 9
현존 9
혈육 9
협공 9
협업 9
형법 9
형사들 9
형상@@ 9
형용사 9
호스 9
혼용 9
홀대 9
화구 9
화기애애하 9
화끈@@ 9
화끈거리 9
화들 9
화문 9
화재@@ 9
활력소 9
황산@@ 9
황토 9
황후 9
회사@@ 9
회사원들 9
회지 9
후다닥 9
후반기 9
후반부 9
후예 9
훈련장 9
휘장 9
휙휙 9
휴가@@ 9
휴업@@ 9
휴직 9
흐름 9
흐물흐물@@ 9
흔 9
흥하 9
희생@@ 9
희생정신 9
흰머리 9
000원 8
100대 8
100일 8
12세 8
1982년 8
1만여 8
1세 8
1주년 8
1천 8
1톤 8
2,000위 8
2,@@ 8
2004 8
200년 8
2018년 8
23명 8
26명 8
28 8
2군 8
2급 8
2단 8
2백 8
30위 8
30주년 8
3곳 8
3자 8
3장 8
3호 8
48@@ 8
4위 8
4차례 8
50세 8
50퍼센트 8
5미터 8
5센티미터 8
5원 8
5점 8
5조 8
5학년 8
6세 8
6위 8
6천 8
6호 8
7000 8
8000 8
81 8
88 8
8개월 8
8할 8
9억 8
K@@ 8
T 8
i 8
le 8
re@@ 8
w@@ 8
。 8
九 8
动@@ 8
四@@ 8
肉@@ 8
蜜 8
西@@ 8
가계@@ 8
가두 8
가랑이 8
가루약 8
가리개 8
가만@@ 8
가물가물 8
가산@@ 8
가성 8
가속@@ 8
가스총 8
가시화 8
가을날 8
가을비 8
가정교육 8
가족계획 8
가지각색 8
가지들 8
가축들 8
각시 8
간꾼 8
간다 8
갈아엎@@ 8
감독들 8
감독하 8
감정@@ 8
감화력 8
값@@ 8
갓난@@ 8
강기슭 8
강남@@ 8
강북 8
강의동 8
강인 8
강재 8
강판 8
개발사업 8
개발업자 8
개방@@ 8
개살구 8
개선안 8
개점 8
개진 8
개탄 8
갸우뚱 8
거뜬@@ 8
거룩 8
거머리 8
거성 8
거주자 8
건강해지 8
건너@@ 8
건널목 8
건배하 8
건전한 8
건축업 8
걸려들었다 8
걸요 8
걸음@@ 8
검수 8
검역 8
검은@@ 8
검찰총장 8
검표 8
겅@@ 8
겉돌@@ 8
게양 8
겨우@@ 8
격자 8
견제@@ 8
결론짓 8
결박 8
결정체 8
경망 8
경영자들 8
경제개발 8
경조사 8
경찰력 8
경축일 8
경하 8
계량기 8
계몽@@ 8
계산기 8
계엄령 8
계획서 8
계획안 8
고갯@@ 8
고견 8
고결 8
고고학 8
고급화 8
고까지 8
고대인 8
고맙@@ 8
고봉 8
고부간 8
고분 8
고소득 8
고시@@ 8
고양@@ 8
고유@@ 8
고졸 8
고주@@ 8
고쳐@@ 8
고파 8
고학 8
고함치 8
곧이듣 8
골반 8
공공연한 8
공과 8
공군@@ 8
공대 8
공론@@ 8
공리 8
공립@@ 8
공무@@ 8
공방전 8
공범 8
공수 8
공시@@ 8
공언 8
공업용 8
공자@@ 8
공정거래위원회 8
공통@@ 8
공항@@ 8
과묵 8
과실@@ 8
과장님 8
과제물 8
과찬 8
관광부 8
관념@@ 8
관련자 8
관련해서 8
관료들 8
관료주의적 8
관리국 8
관리법 8
관심@@ 8
관음@@ 8
관측소 8
광고비 8
광저우 8
광주@@ 8
괘 8
괴상@@ 8
괴한들 8
교단 8
교도@@ 8
교두보 8
교민들 8
교신 8
교육자 8
교통량 8
교통법규 8
교통카드 8
교포들 8
구강 8
구릉@@ 8
구명 8
구색 8
구석지 8
구원@@ 8
구위 8
구치 8
구태 8
구태의연 8
구한 8
국가정보원 8
국난 8
국수@@ 8
국영 8
국위 8
국은 8
국회@@ 8
군고구마 8
군밤 8
군인@@ 8
군장 8
굳@@ 8
굴러다니 8
굴욕적 8
굼@@ 8
굽이치 8
귀납적 8
귀의 8
귀천 8
귀청 8
귀측 8
규칙@@ 8
그라@@ 8
그랑프리 8
그레하 8
그르르 8
그분들 8
극진 8
극진한 8
근거@@ 8
근무자 8
근본@@ 8
근세 8
근질근질하 8
근한 8
글썽@@ 8
글씨체 8
글한 8
긁어모았다 8
금값 8
금색 8
금융기관 8
금융업 8
금전@@ 8
금전적 8
금테 8
급류 8
급조 8
긋하 8
긍@@ 8
기골 8
기관장 8
기구들 8
기념촬영 8
기독@@ 8
기러@@ 8
기말 8
기술혁신 8
기와집 8
기우 8
기적@@ 8
기하급수적 8
기하학 8
기합 8
기후@@ 8
김병@@ 8
김포 8
깊@@ 8
까닥 8
깐깐하 8
깔창 8
깨소금 8
껌벅@@ 8
꼼짝달싹 8
꽹과리 8
꾸불@@ 8
꾸역꾸역 8
끈덕지 8
끙끙 8
끝장나 8
끼어@@ 8
끼어들 8
낑낑거리 8
나뭇@@ 8
나방 8
나자빠지 8
나직@@ 8
나치 8
낙지 8
낚시꾼들 8
난성 8
난이 8
날개@@ 8
날씬@@ 8
날염 8
남극@@ 8
남달리 8
남모르 8
납세 8
낯짝 8
내게로 8
내성 8
내실 8
내용@@ 8
내일@@ 8
내조 8
낸@@ 8
냈다 8
냉방병 8
냐@@ 8
너르 8
너무너무 8
넉 8
널빤지 8
넛 8
년여 8
념@@ 8
노동과 8
노동운동 8
노략질 8
노령화 8
노르웨이 8
노릇@@ 8
노여움 8
노역 8
노인네 8
노즐 8
노호 8
녹두@@ 8
논설 8
논제 8
놀래 8
놀음 8
농경 8
놔@@ 8
뇌졸중 8
느 8
는다며 8
능글맞 8
능청 8
능통 8
늦을@@ 8
니지 8
닉 8
다가@@ 8
다다@@ 8
다릿@@ 8
다면@@ 8
다목적 8
다보 8
다소간 8
다저스 8
다주 8
다한 8
단기@@ 8
단막극 8
단일화 8
단정적 8
단청 8
달구지 8
달음@@ 8
달인 8
달콤@@ 8
달콤함 8
담당자들 8
담뱃대 8
담임@@ 8
담쟁이덩굴 8
당구 8
당돌 8
당들 8
당락 8
당제 8
당황해서 8
대동 8
대롱 8
대비하기 8
대생 8
대서특필 8
대숲 8
대업 8
대잠수함@@ 8
대장장이 8
대책@@ 8
대표자 8
대회장 8
더들 8
덕지덕지 8
덜컹거리 8
덩크 8
덮어쓰 8
데면데면하 8
도가 8
도감 8
도그@@ 8
도둑들 8
도라는 8
도상 8
도선 8
도식 8
도외시 8
도합 8
도회 8
독립운동가 8
독실한 8
돌고래 8
돌부처 8
돌아가 8
동북부 8
동양화 8
동인 8
동정@@ 8
동제 8
동족 8
동트 8
동풍 8
동학@@ 8
동화@@ 8
되돌아오 8
두뇌@@ 8
두루뭉@@ 8
두발 8
두부찌개 8
두산@@ 8
두시 8
둔감 8
둘둘 8
둥우리 8
뒤꼍 8
뒤꿈치 8
뒤뚱뒤뚱 8
뒤뜰 8
뒷발 8
드라마@@ 8
드레 8
드림팀 8
들쑥날쑥하 8
들어오 8
들은 8
들풀 8
듯싶@@ 8
등롱 8
등반하 8
등쌀 8
디자인과 8
디젤 8
디즈니 8
딴마음 8
딴생각 8
땀투성이 8
떡국 8
떨어트@@ 8
또렷이 8
뙈 8
뙤약볕 8
뚝딱 8
뛰어놀@@ 8
뜻깊 8
라마 8
랜 8
랭이 8
러시아가 8
럭셔@@ 8
럭셔리 8
런민@@ 8
레슬링 8
레코드 8
렉@@ 8
렉스 8
렛@@ 8
려달라 8
렬한 8
로니@@ 8
로부터의 8
로서도 8
로즈 8
로프 8
롤러@@ 8
뢰 8
리듬@@ 8
리모컨 8
리베이트 8
리엔@@ 8
리포트 8
리학 8
마니아들 8
마대 8
마스터 8
마시@@ 8
마오쩌똥 8
마음고생 8
마인드 8
만국기 8
만금 8
만남 8
만민 8
만성병 8
만신창이 8
만족한 8
만족해 8
만찬회 8
맏아들 8
말로 8
말이요 8
맞아@@ 8
맞아떨어졌다 8
맞아떨어지 8
매도@@ 8
매물 8
매스@@ 8
매운탕 8
매하 8
맥없이 8
맨살 8
맹자 8
머리채 8
먹고@@ 8
먹먹@@ 8
멀뚱@@ 8
멍에 8
멍청히 8
메달리스트 8
메모지 8
메신저 8
메주 8
멘 8
며느릿감 8
면도기 8
면체 8
명대사 8
명문화 8
명언 8
명예퇴직 8
명찰 8
명창 8
명한 8
모니@@ 8
모래톱 8
모름지기 8
모션 8
모직 8
모호@@ 8
목련 8
목발 8
목욕재계 8
몰아넣@@ 8
몸뚱이 8
몸싸움 8
몹@@ 8
못질 8
몽고 8
무구 8
무료배송 8
무심@@ 8
무언 8
무용단 8
무임승차 8
무자비 8
무좀 8
무차별적 8
무한@@ 8
문무 8
문상 8
문예계 8
문제삼 8
문패 8
문학사 8
물가@@ 8
물개 8
물거리 8
물보라 8
물약 8
뭉개 8
뭉뚱그리 8
뭔가요 8
뮤@@ 8
미간 8
미국과 8
미궁 8
미동 8
미디@@ 8
미련@@ 8
미미 8
미분양 8
미스터 8
미식 8
미안합니다만 8
미지 8
미진 8
민간요법 8
민박집 8
민방위 8
민영 8
민족성 8
믿@@ 8
밀정 8
밀하 8
바꿔@@ 8
바닐@@ 8
바보@@ 8
바오@@ 8
바위들 8
바통 8
박빙 8
박살 8
박살내 8
박진감 8
밖에는 8
반가 8
반경 8
반도@@ 8
반려 8
반려자 8
반복@@ 8
반비례 8
반신반의 8
반신불수 8
반액 8
반짝@@ 8
받아치 8
발가벗 8
발광 8
발굽 8
발끈 8
발렌@@ 8
발병@@ 8
발생률 8
발아 8
발파 8
발표문 8
발표자 8
밤나무 8
방방곡곡 8
방부제 8
방세 8
방앗간 8
방정식 8
방편 8
밭농사 8
배변 8
백기 8
백번 8
백설공주 8
백일@@ 8
백자 8
백팩 8
백혈@@ 8
뱅킹 8
버스터 8
번역서 8
번쩍번쩍 8
번호표 8
범죄인 8
범칙금 8
법관들 8
법사 8
베네@@ 8
베이비@@ 8
베이징어 8
베이징올림픽 8
베틀 8
변화도 8
별일 8
볏짚 8
병약 8
병영 8
병용 8
병음 8
보도블록 8
보루 8
보물@@ 8
보석@@ 8
보카@@ 8
보하 8
복사꽃 8
복안 8
복해서 8
본뜻 8
본보기 8
본시 8
본심 8
볼일 8
봄꽃 8
봉록 8
뵙고 8
부고 8
부녀회 8
부담감 8
부대원들 8
부동산시장 8
부둣가 8
부득 8
부릅뜨 8
부서@@ 8
부여@@ 8
부의금 8
부장관 8
부질없 8
부터가 8
부하@@ 8
부회장 8
북녘 8
북대@@ 8
북받치 8
북적였다 8
분교 8
분실물 8
분주한 8
분파 8
불교계 8
불길한 8
불놀이 8
불러@@ 8
불로@@ 8
불법행위 8
불분명한 8
불안해지 8
불쾌감 8
불한당 8
불협화음 8
불화로 8
불효@@ 8
뷰@@ 8
브랜드@@ 8
브러시 8
비경제적 8
비녀 8
비논리적 8
비누@@ 8
비디오@@ 8
비비드 8
비빔@@ 8
비자면제 8
비즈 8
비틀리 8
비평가 8
빗장 8
빚쟁이들 8
빨리하 8
뺑소니 8
뻘 8
뼛@@ 8
뽕@@ 8
뾰@@ 8
뿌@@ 8
사과드리 8
사기죄 8
사내대장부 8
사무적 8
사복 8
사뿐히 8
사서 8
사설@@ 8
사실주의 8
사야 8
사양@@ 8
사업상 8
사외@@ 8
사우디 8
사주@@ 8
사직서 8
사철 8
사회보장 8
사회성 8
사흘째 8
산간벽지 8
산등성이 8
산성비 8
산아제한 8
산천@@ 8
살벌 8
살충제 8
삼아 8
상견례 8
상공업 8
상대해 8
상사들 8
상수 8
상술 8
상술한 8
상실감 8
상아 8
상영관 8
상용화 8
상통 8
상하이@@ 8
상한선 8
샅@@ 8
새삼스레 8
새신랑 8
색소 8
색한 8
생강@@ 8
생매장 8
생물들 8
생육 8
생채 8
생크림 8
생활력 8
생활환경 8
샤브샤브 8
샤오리 8
샤워@@ 8
서구@@ 8
서남쪽 8
서든 8
서론 8
서방@@ 8
서스 8
서식지 8
서정 8
서정적 8
서해 8
석권 8
석류@@ 8
석박사 8
석연치 8
석하 8
석회 8
선거일 8
선교사 8
선언문 8
선열들 8
선인장 8
선진국들 8
설계가 8
설계사 8
설명회 8
섭 8
섭렵 8
성교육 8
성년 8
성매매 8
성비 8
성수기 8
성숙@@ 8
성심성의껏 8
성원해 8
성큼성큼 8
세계사 8
세무@@ 8
세무조사 8
세비 8
세세 8
세스 8
세적 8
세종@@ 8
섹스 8
센 8
센터@@ 8
셀러 8
셀러@@ 8
셨군 8
소경 8
소고기 8
소기 8
소담 8
소방당국 8
소방대 8
소비세 8
소산 8
소수점 8
소아마비 8
소액 8
소음@@ 8
소재@@ 8
소재감 8
소쿠리 8
소형@@ 8
속도@@ 8
속속들이 8
손금 8
손쓰 8
손안 8
손찌검 8
솔로 8
송년 8
송년회 8
송어 8
쇠사슬 8
쇠하 8
쇳물 8
수급자 8
수다쟁이 8
수련@@ 8
수사팀 8
수산@@ 8
수상작 8
수석@@ 8
수선@@ 8
수술실 8
수양버들 8
수입액 8
수적 8
수제 8
수초 8
수출품 8
수확기 8
숙취 8
순간@@ 8
순수@@ 8
순이익 8
순환@@ 8
숟갈 8
술렁이 8
술맛 8
술병 8
숨막히 8
숨죽이 8
숭늉 8
숭숭 8
숯불 8
쉐@@ 8
쉬쉬하 8
쉰 8
슈퍼컴퓨터 8
슘 8
스낵 8
스럽다 8
스윙 8
스카이@@ 8
스케일 8
스키니@@ 8
스킨 8
스태@@ 8
스태프 8
스텝 8
스트레스@@ 8
스트레칭 8
스트링 8
스펙@@ 8
스포츠카 8
스포트라이트 8
스프 8
슬금슬금 8
슬림 8
슬림해 8
습관화 8
승리자 8
승마 8
시ㄴ가 8
시경 8
시골@@ 8
시공@@ 8
시끌시끌@@ 8
시다시피 8
시려면 8
시리아 8
시비@@ 8
시스@@ 8
시아오밍 8
시즘 8
시추 8
식감 8
식거리 8
식물@@ 8
식용유 8
신간 8
신구 8
신데렐라 8
신물 8
신성@@ 8
신수 8
신심 8
신용대출 8
신용등급 8
신인@@ 8
신임@@ 8
신탁 8
신학 8
실래요 8
실력자 8
실례합니다만 8
실밥 8
실수@@ 8
실언 8
실외 8
실용 8
실패하자 8
심복 8
심심찮 8
심장마비 8
심통 8
심플@@ 8
심해서 8
십자 8
십자@@ 8
십자가 8
싸다니 8
싸움질 8
쌀값 8
쌀독 8
쌈 8
쌍쌍 8
썩@@ 8
쏟아부 8
쓱쓱 8
씽@@ 8
아가미 8
아기들 8
아니란 8
아랫배 8
아메리카노 8
아삭@@ 8
아스@@ 8
아시아경기대회 8
아시안컵 8
아양 8
아이참 8
아이큐 8
아잖아 8
아직껏 8
아티@@ 8
아파트@@ 8
아파트들 8
악담 8
악덕 8
악의적 8
악착 8
악착같이 8
안내소 8
안내인 8
안방극장 8
안착@@ 8
안하무인 8
알몸 8
암울한 8
암호@@ 8
압력@@ 8
앙금 8
앙탈 8
앞마당 8
앞일 8
애걸 8
애수 8
애잔 8
앤드 8
야드 8
야들@@ 8
야밤 8
야성 8
야오밍 8
약용 8
약해서 8
양극 8
양껏 8
양론 8
양민 8
양보@@ 8
양조 8
양지쪽 8
양친 8
양하 8
얘@@ 8
어구 8
어깨끈 8
어눌 8
어느@@ 8
어두@@ 8
어두움 8
어떠@@ 8
어물쩍 8
어야겠네 8
어쩌@@ 8
어찔@@ 8
어휘@@ 8
억측 8
언덕길 8
얼렁뚱땅 8
엄습 8
업데이트 8
었대요 8
엎질@@ 8
에게서는 8
에구 8
에그 8
에어로빅 8
엑스@@ 8
엔트리 8
여가@@ 8
여과 8
여권@@ 8
여기@@ 8
여남은 8
여보@@ 8
여울 8
여편네 8
여하튼 8
역사관 8
역설적 8
역전@@ 8
연극@@ 8
연극계 8
연쇄적 8
연역적 8
연착@@ 8
연탄@@ 8
연필심 8
연합국 8
연합회 8
염불 8
염색한 8
영농@@ 8
영락없 8
영락없이 8
영화사 8
영화표 8
예능@@ 8
예배당 8
예불 8
예상@@ 8
옐로 8
옛친구 8
오곡밥 8
오그라들 8
오길 8
오들오들 8
오른@@ 8
오므리 8
오보 8
오십시 8
오열 8
오염도 8
오지랖 8
온유 8
올림피아드 8
옮겨@@ 8
옵니 8
옷가게 8
옹기종기 8
완벽히 8
완승 8
완패 8
왕들 8
왕칭은 8
외가 8
외래@@ 8
외로이 8
외박 8
외풍 8
요금@@ 8
요리법 8
용건 8
용두@@ 8
용선 8
우거@@ 8
우두커니 8
우라늄 8
우발적 8
우방 8
우언 8
우울@@ 8
우월성 8
운드 8
운송할 8
운영비 8
운항@@ 8
울긋불긋하 8
울컥 8
움키 8
움트 8
워지 8
워하 8
원거리 8
원양 8
원어치 8
원예 8
원자력@@ 8
원점 8
원지 8
월간지 8
월급날 8
월드베이스볼클래식 8
월등히 8
웨어 8
웹@@ 8
위궤양 8
위장병 8
위중 8
위촉 8
위탁@@ 8
위협@@ 8
위화감 8
윙@@ 8
유가족들 8
유기 8
유네스코 8
유능@@ 8
유람객 8
유례 8
유리문 8
유모차 8
유분수 8
유산소 8
유서 8
유선@@ 8
유유자적 8
유제품 8
유파 8
유학파 8
유혈 8
유혹적 8
육교 8
육상경기 8
육중 8
육질 8
으래 8
으려다 8
으로선 8
으리라는 8
으시기 8
은백색 8
은사님 8
은행원 8
읊조리 8
음습 8
음식값 8
음식문화 8
음질 8
음해하 8
응급처치 8
응원@@ 8
의견@@ 8
의구 8
의기투합 8
의문점 8
의병 8
의분 8
의약@@ 8
의정 8
의형제 8
이간질하 8
이글거리 8
이까 8
이남 8
이냐 8
이러지 8
이를테면 8
이미@@ 8
이민@@ 8
이발@@ 8
이방 8
이사가 8
이사한 8
이상야릇 8
이슬비 8
이에 8
이여 8
이유@@ 8
이율 8
이입 8
이지러지 8
이틀째 8
인공적 8
인대 8
인력자원 8
인사성 8
인성교육 8
인쇄@@ 8
인수합병 8
일가친척 8
일거 8
일그러지 8
일류@@ 8
일변 8
일변도 8
일상화 8
일시불 8
일심@@ 8
일조 8
일층 8
일편단심 8
임지 8
임차 8
입버릇 8
있다 8
있으세요 8
자그마치 8
자기편 8
자두 8
자리한 8
자마 8
자명 8
자본가 8
자아@@ 8
자애로운 8
자유로 8
자책 8
작업도 8
작전@@ 8
잔물결 8
잔인함 8
잖니 8
잣 8
장관들 8
장난기 8
장년 8
장맛비 8
장성한 8
장식@@ 8
장작불 8
재난@@ 8
재량@@ 8
재무장 8
재분배 8
재편 8
쟁론 8
저녁때 8
저력 8
저우 8
저장고 8
저지 8
적당치 8
적대@@ 8
적립 8
적법한 8
적재적소 8
적지근하 8
적체 8
전격적 8
전공과목 8
전국시대 8
전당@@ 8
전도사 8
전리품 8
전반부 8
전범 8
전성 8
전역@@ 8
전입 8
절간 8
절대다수 8
절박한 8
절상 8
절적 8
절정기 8
절한 8
점심@@ 8
정거리 8
정관 8
정권교체 8
정론 8
정리해고 8
정벌 8
정법 8
정보력 8
정비례@@ 8
정열적 8
정짓 8
정형@@ 8
제1조 8
제사상 8
제작비 8
제정한 8
제주@@ 8
제출하시 8
제한@@ 8
제해 8
제후 8
조련사 8
조상님 8
조식 8
조심하시오 8
조정하기 8
조정해 8
조직위 8
조형 8
조형@@ 8
조화로운 8
존스 8
졸음@@ 8
종류별 8
종사자 8
종사자들 8
종횡무진 8
주가지수 8
주둔@@ 8
주룩주룩 8
주름@@ 8
주먹질 8
주모자 8
주물@@ 8
주민등록증 8
주변@@ 8
주식회사 8
주어라 8
주의해서 8
주중 8
주창 8
주최국 8
주판 8
주형 8
죽순 8
준기야 8
중개 8
중견@@ 8
중계방송 8
중대형 8
중도적 8
중독성 8
중등 8
중등학교 8
중류 8
중무장 8
중미 8
중병 8
중산 8
중생 8
중소기업@@ 8
중심가 8
중장비 8
중재@@ 8
중점@@ 8
중화학 8
중후 8
증권시장 8
증조할아버지 8
지검 8
지나@@ 8
지당 8
지도원 8
지랄 8
지레 8
지렛대 8
지리@@ 8
지명수배 8
지색 8
지역감정 8
지역구 8
지연@@ 8
지우@@ 8
지저@@ 8
지지리 8
지출액 8
지평 8
지표면 8
직무@@ 8
직분 8
진격 8
진다 8
진달래꽃 8
진부 8
진정제 8
진중 8
진출권 8
진화@@ 8
진흙@@ 8
질끈 8
질문@@ 8
짐승들 8
짐작@@ 8
짐칸 8
집권당 8
집들 8
집무실 8
집행부 8
짚신 8
쫀쫀@@ 8
쫄깃@@ 8
찌릿 8
차량@@ 8
차려입었다 8
차트 8
차편 8
착용하시 8
착화 8
찬조 8
찰과상 8
찰나 8
참고@@ 8
참석@@ 8
창건 8
창창 8
찾아들 8
채굴 8
책상@@ 8
책임제 8
챙 8
처방전 8
천고 8
천만@@ 8
천박한 8
천부 8
천수 8
천식 8
천연자원 8
천자문 8
천재지변 8
천진한 8
철부지 8
철썩 8
철야 8
철제 8
철창 8
청구@@ 8
청산@@ 8
체감@@ 8
체육대회 8
초겨울 8
초급@@ 8
초당 8
초대한 8
초등@@ 8
초롱 8
초롱초롱하 8
초지 8
초청@@ 8
촌수 8
촐@@ 8
촛불집회 8
총계 8
총괄적 8
총대 8
총무 8
총알@@ 8
촬영장 8
추렴하 8
추리@@ 8
추모제 8
추억@@ 8
추진키 8
추천@@ 8
추키 8
축구선수 8
축구하 8
축기 8
축나 8
축출 8
춘추 8
출납 8
출자 8
출판물 8
출항한다 8
출해 8
충전@@ 8
충전기 8
췌@@ 8
취사선택 8
취소@@ 8
취임@@ 8
층계 8
층층 8
치고 8
친절히 8
친족 8
칠레 8
칡@@ 8
침구 8
침략@@ 8
침략군 8
침략전쟁 8
침팬지 8
칭얼거리 8
카르@@ 8
카페@@ 8
캐나다 8
캐주얼하 8
캔@@ 8
캠@@ 8
캠핑 8
캡슐 8
커뮤니케이션 8
커스 8
커트 8
커플링 8
컨트롤@@ 8
컬렉션 8
컴백 8
컴퓨팅 8
코디하셔 8
쿠바 8
쿤@@ 8
쿼터 8
큰어머니 8
큰절 8
클라이@@ 8
클리닉 8
큼@@ 8
키워드 8
킨 8
킬 8
타계 8
타석 8
타율 8
타작 8
타진 8
탄소 8
탈당 8
탈락@@ 8
탈북자들 8
탐관오리들 8
탐사선 8
태동 8
태엽 8
태평양@@ 8
턴 8
털털 8
텅@@ 8
테라@@ 8
테크닉 8
텐데요 8
톈@@ 8
토비 8
통들 8
통조림 8
통틀 8
퇴각 8
퇴사 8
퇴직자 8
퇴화 8
투덜@@ 8
투수들 8
투척 8
투혼 8
튤립 8
트라이@@ 8
트임 8
특공대 8
특산품 8
특징@@ 8
티브@@ 8
팀워크 8
파삭@@ 8
파스 8
파티@@ 8
판가름 8
팔아넘기 8
팔이 8
팔팔하 8
패널 8
패배@@ 8
패스트푸드 8
팬들 8
팻말 8
퍼렇 8
퍼포먼스 8
펀치 8
페 8
페스티벌 8
펭귄 8
편승 8
편집부 8
평가절상 8
평균적 8
평민 8
평방 8
평상심 8
폐기@@ 8
폐막 8
포격하 8
포도당 8
포상 8
포석 8
포스트 8
포진 8
포트 8
폭군 8
폭락 8
폭력성 8
폭발@@ 8
폭증 8
표독 8
표백 8
표상 8
푸드@@ 8
푸틴 8
푼@@ 8
풀숲 8
풋풋 8
풍력 8
풍향 8
퓨@@ 8
프라 8
피겨 8
피난 8
피둥피둥 8
피라미드 8
피부@@ 8
피시 8
피지배@@ 8
피차간 8
피칭 8
피케 8
피크 8
핀란드 8
필기시험 8
필요한 8
필적 8
핏물 8
하건대 8
하계 8
하급@@ 8
하급자 8
하는데 8
하늘빛 8
하더 8
하수구 8
하여튼 8
하중 8
하차 8
학우 8
한가위 8
한계@@ 8
한계선 8
한국계 8
한국팀 8
한글@@ 8
한몸 8
한미관계 8
한없 8
한의학 8
한참@@ 8
할래 8
함대 8
함박눈 8
합병증 8
핫이슈 8
항모 8
항변 8
항소심 8
항일전쟁 8
항쟁 8
해군@@ 8
해돋이 8
해로 8
해맑 8
해수욕 8
해약 8
해열제 8
핵문제 8
핵폐기물 8
핸드 8
핸드메이드 8
핸디캡 8
행장 8
행정수 8
행정적 8
행차 8
허겁지겁 8
허위@@ 8
허장성세 8
헌납 8
헐겁 8
헐벗 8
헤이@@ 8
현관문 8
현대사 8
현대식 8
협동심 8
협력업체 8
형부 8
형언 8
형평 8
형평성 8
호들갑 8
호소력 8
혼담 8
혼선 8
홀시 8
홍보대사 8
홍시 8
화꽃 8
화답 8
화상@@ 8
화장지 8
화젯거리 8
화풍 8
화학비료 8
확산@@ 8
환부 8
환상@@ 8
환성 8
환송 8
환영회 8
환율전쟁 8
환해지 8
활용도 8
황금기 8
회견장 8
회합 8
횡행 8
후기 8
후미지 8
훌륭@@ 8
훌쩍훌쩍 8
훙@@ 8
휘몰 8
휘청@@ 8
휩싸 8
휴양지 8
흐드러지 8
흑판 8
흠칫 8
흥취 8
흩뿌리 8
히트@@ 8
힘세 8
힘줄 8
&#91; 7
1000억 7
100퍼센트 7
119 7
15인치 7
160 7
17명 7
1945년 7
1960년대 7
1988년 7
19년 7
1단 7
1만@@ 7
1할 7
200억 7
20위 7
2건 7
2등 7
3,@@ 7
3.@@ 7
300억 7
300위 7
300위엔 7
30도 7
30세 7
32@@ 7
37년 7
3대@@ 7
3백 7
3사 7
3할 7
4,000 7
40달러 7
4대강 7
4운동 7
500위 7
50달러 7
60세 7
63빌딩 7
6번 7
6학년 7
700@@ 7
70대 7
70세 7
75@@ 7
7천 7
84@@ 7
8위 7
900 7
90세 7
9초 7
; 7
I 7
g 7
in@@ 7
ma@@ 7
≪ 7
≫ 7
ㄴ다고 7
八@@ 7
列车 7
口@@ 7
果 7
波@@ 7
澳@@ 7
生 7
色 7
货 7
间 7
가결 7
가끔@@ 7
가나다순 7
가능케 7
가라는 7
가랑@@ 7
가로젓 7
가망성 7
가물거리 7
가보 7
가보@@ 7
가부장적 7
가사@@ 7
가솔린 7
가스관 7
가습기 7
가야금 7
가위질 7
가인 7
가장한 7
가전@@ 7
가정교사 7
가죽신 7
가죽옷 7
가짜@@ 7
가판@@ 7
가팔@@ 7
각고@@ 7
각막 7
각적 7
간계 7
간부@@ 7
간수 7
간절기 7
간척@@ 7
갈가리 7
갈비뼈 7
감격@@ 7
감기@@ 7
감독상 7
감독자 7
감탄@@ 7
감투 7
감흥 7
갑옷 7
갓@@ 7
강권 7
강도들 7
강박@@ 7
강사들 7
강수량 7
강연자 7
강우 7
강의@@ 7
강행군 7
개교기념일 7
개그 7
개방화 7
개별성 7
개업@@ 7
개울가 7
개전 7
개정판 7
개찰구 7
개척자 7
개최지 7
갤@@ 7
갤러리 7
갸름 7
걔@@ 7
거두@@ 7
거리낌@@ 7
거물급 7
거북선 7
거시@@ 7
거지꼴 7
거짓@@ 7
거침 7
건너다보 7
건두부@@ 7
건설적 7
건재 7
건전성 7
건조증 7
걷@@ 7
걸레질 7
걸머지 7
검소@@ 7
게슴츠@@ 7
겔@@ 7
겟@@ 7
겠느냐는 7
겠다면서 7
겠습니 7
겨울옷 7
격퇴 7
견고@@ 7
견본품 7
견해@@ 7
결리 7
결속력 7
결승@@ 7
결정하기 7
결판@@ 7
결항 7
결혼기념일 7
결히 7
경개 7
경도 7
경부 7
경상@@ 7
경외@@ 7
경의@@ 7
경쟁국 7
경제권 7
경제난 7
경제협력 7
경제협력개발기구 7
경종 7
경찰관들 7
경험@@ 7
경협 7
계명 7
계수 7
계승자 7
계장 7
계절적 7
계절풍 7
계획표 7
곗돈 7
고고@@ 7
고공 7
고기들 7
고깃국 7
고깃덩이 7
고동 7
고래@@ 7
고민거리 7
고발@@ 7
고백성사 7
고산@@ 7
고선 7
고소장 7
고용주 7
고지대 7
고지식@@ 7
고착 7
고투 7
고함@@ 7
고함지르 7
곡괭이 7
곡식들 7
곤드레만드레 7
곤봉 7
곤충들 7
곤하 7
곧추@@ 7
공공부문 7
공공연하 7
공물 7
공소@@ 7
공식화 7
공적@@ 7
공주@@ 7
공천@@ 7
공포감 7
공헌@@ 7
공훈 7
과거@@ 7
과자@@ 7
과해서 7
관광업 7
관념적 7
관세@@ 7
관심거리 7
관왕 7
관우 7
광고주 7
광동 7
광막 7
괘씸 7
괴이 7
괴짜 7
괴팍한 7
교과 7
교권 7
교도 7
교류@@ 7
교분 7
교습@@ 7
교역@@ 7
교육법 7
교향곡 7
교향악단 7
구가 7
구락부 7
구렁텅이 7
구리@@ 7
구보 7
구슬@@ 7
구시대적 7
구인 7
구자 7
구제역 7
구조개혁 7
구조작업 7
구직자 7
구질구@@ 7
구축@@ 7
구치소 7
구호@@ 7
국격 7
국고@@ 7
국권 7
국운 7
국유@@ 7
국장님 7
국정감사 7
군것질거리 7
군경 7
군무 7
군사정부 7
군정 7
굴비 7
궁녀 7
궈@@ 7
귀담아듣 7
귀들 7
귀뚜라미 7
귀성객 7
규모@@ 7
그댄 7
그래@@ 7
그레 7
그새 7
그지없이 7
극악무도 7
극중 7
극하 7
극한 7
극형 7
근대사 7
근시 7
근육통 7
근황 7
글쎄요 7
긁@@ 7
긁어모@@ 7
금광 7
금기@@ 7
금발 7
금상첨화 7
금융시장 7
금융위기 7
금은@@ 7
금호@@ 7
급박한 7
급수 7
급전 7
급진적 7
기겁 7
기계들 7
기관지염 7
기념회 7
기동 7
기립박수 7
기민@@ 7
기밀@@ 7
기본급 7
기사회생 7
기상이변 7
기술상 7
기술자들 7
기웃 7
기제 7
기준치 7
기탄 7
기표 7
기피@@ 7
기혼 7
기획실 7
길일 7
김홍@@ 7
까막@@ 7
까발리 7
깔깔 7
깔깔@@ 7
깔깔거리 7
깡 7
깡마르 7
깨비 7
깨트@@ 7
꺾@@ 7
껑충@@ 7
꼬리표 7
꼼짝없이 7
꽃꽂이 7
꾸러기 7
꾸이린 7
꿀꺽꿀꺽 7
꿈결 7
끌려@@ 7
끼리끼리 7
나날이 7
나노@@ 7
나로@@ 7
나무판자 7
나뭇가지들 7
나불거리 7
나비들 7
나이트클럽 7
나절 7
나팔소리 7
나흘간 7
낙숫물 7
낙찰@@ 7
낚싯줄 7
난사 7
난삽 7
난쟁 7
난치병 7
난파 7
남단 7
남도 7
남부@@ 7
남성적 7
남아 7
납치@@ 7
납치범 7
낭떠러지 7
낭만파 7
낯@@ 7
내과 7
내놔 7
내다보이 7
내면적 7
내무반 7
내부거래 7
내용들 7
내의 7
내정자 7
내지 7
내지르 7
내추럴@@ 7
내피 7
낸 7
냄@@ 7
냅킨 7
냉가슴 7
냉각@@ 7
냉정히 7
너그러 7
너스 7
너트 7
넉@@ 7
널리스트 7
넙@@ 7
넙죽 7
넣었다 7
네거리 7
네거티브 7
네는 7
네이처 7
네크@@ 7
년제 7
념해 7
노닐 7
노른자위 7
노름@@ 7
노름판 7
노리@@ 7
노발대발 7
노벨 7
노조원 7
노트북컴퓨터 7
논두렁 7
논리@@ 7
논문집 7
놀림@@ 7
놀이방 7
농가들 7
농구팀 7
농기계 7
농민공 7
농사철 7
뇌성@@ 7
뇌염 7
뇌중풍 7
누누이 7
누대 7
누르@@ 7
누릇@@ 7
누전 7
눈금 7
눈싸움 7
눈이 7
눌어@@ 7
뉴스@@ 7
느릿느릿하 7
는단 7
는요 7
늘어@@ 7
능력자 7
니어 7
니치 7
닉@@ 7
닛@@ 7
다각@@ 7
다기능 7
다느니 7
다니는 7
다락 7
다반사 7
다보@@ 7
다섯째 7
다수확 7
다시마 7
다오@@ 7
다우 7
다이아 7
다이얼 7
다자 7
다재다@@ 7
다짜고짜 7
다짜고짜로 7
다크호스 7
단들 7
단문 7
단발 7
단순화 7
단편소설 7
단풍잎 7
단호한 7
달리@@ 7
달지 7
닭살 7
담겨지 7
답습해서 7
당론 7
당적 7
당직자 7
당첨@@ 7
당황@@ 7
대공 7
대국민 7
대금@@ 7
대대손손 7
대로@@ 7
대립적 7
대문@@ 7
대번에 7
대범한 7
대선@@ 7
대성통곡 7
대수술 7
대승 7
대승적 7
대이동 7
대장정 7
대저 7
대종 7
대추@@ 7
대타협 7
대평원 7
대표대회 7
대필 7
대학교수 7
대학생활 7
대함 7
대협곡 7
댓 7
댕기 7
더블 7
더없 7
덥@@ 7
덥히 7
덮밥 7
덮히 7
데릴사위 7
데스크@@ 7
데일리룩 7
덴 7
덴마크 7
도널드 7
도래@@ 7
도르@@ 7
도막 7
도면 7
도박장 7
도보 7
도부터 7
도시들 7
도심지 7
도와달라 7
도적들 7
도전@@ 7
도전장 7
도전적 7
독단 7
돌돌 7
돌려세@@ 7
돌잔치 7
돌팔@@ 7
돌팔이 7
동감 7
동구 7
동글동글@@ 7
동급 7
동냥 7
동년배 7
동문서답 7
동북아시아 7
동석 7
동성애 7
동아 7
동원해서 7
동일시 7
동일시하 7
동점 7
동종 7
동진 7
동짓@@ 7
동해서 7
돼지들 7
됐@@ 7
됐다 7
되도록 7
되물 7
되팔 7
두근두근 7
두둑하 7
두문불출 7
두보 7
두피 7
둔중 7
둥실 7
둥하 7
뒈지 7
뒤치 7
뒤탈 7
뒷마당 7
뒷이야기 7
뒷정리 7
드득@@ 7
드라이클리닝 7
드래@@ 7
드리블 7
득의@@ 7
득표 7
든든히 7
들락날@@ 7
들러붙어 7
들씌우 7
들이쉬 7
등급@@ 7
등나무 7
등록증 7
등받이 7
등식 7
등신 7
등잔불 7
디까 7
디브이@@ 7
디자이너들 7
디지털화 7
따뜻해 7
따라 7
따라붙@@ 7
딴청 7
딸기@@ 7
때문@@ 7
땜@@ 7
땜질 7
떠벌리 7
떨떠름 7
떨이 7
떳떳@@ 7
떼먹 7
똑딱 7
뚜벅뚜벅 7
뜨거워지 7
뜯어@@ 7
뜻@@ 7
라든가 7
라스베이거스 7
라이 7
라이브 7
라이트 7
라치 7
라틴 7
라틴어 7
랑은 7
랑의 7
래야 7
램@@ 7
러들 7
러브 7
러스 7
러시아어 7
러우@@ 7
러워 7
런던@@ 7
럽다 7
렀다 7
레이터 7
레인 7
레저@@ 7
려거든 7
려다@@ 7
렷다 7
로드 7
로맨@@ 7
로이드 7
로제 7
로큰롤 7
로키@@ 7
롯 7
료들 7
루수 7
룬 7
르르하 7
리성 7
리프트 7
릭스 7
릿수 7
마ㄹ 7
마그네@@ 7
마사@@ 7
마사지 7
마소 7
마작@@ 7
마진 7
마찰@@ 7
마취제 7
막내아들 7
막일 7
만고 7
만두@@ 7
만둣국 7
만만@@ 7
만무 7
만상 7
만선 7
만평 7
만하 7
만해서 7
많은 7
많이들 7
말괄량이 7
말듣 7
말린@@ 7
말썽꾸러기 7
말짱하 7
맛깔@@ 7
망나니 7
망동 7
망막 7
망아지 7
망언 7
망치질 7
맞바꾸 7
매니@@ 7
매달아 7
매스껍 7
매실 7
매캐한 7
매표@@ 7
매회 7
맥주병 7
맨유 7
맨투@@ 7
맷돌 7
맹아 7
머플러 7
먼저@@ 7
먼트 7
멀티 7
멍석 7
메뉴판 7
메이저리거 7
메카 7
멘트 7
멜@@ 7
멜라@@ 7
멜로 7
멱 7
면박 7
명랑@@ 7
명석한 7
명승지 7
명인 7
명적 7
명절@@ 7
몐 7
모기장 7
모반 7
모색@@ 7
모자@@ 7
모티브 7
목동 7
목메 7
목석 7
목줄 7
목축@@ 7
몰살 7
몰아쉬 7
몸살감기 7
몸수색 7
묘비 7
묘소 7
묘연 7
무공 7
무과 7
무궁무진한 7
무기명 7
무기질 7
무도@@ 7
무력감 7
무료입장 7
무소속 7
무속 7
무쇠 7
무식@@ 7
무신@@ 7
무심결에 7
무원칙 7
무작위 7
무장경찰 7
무제한 7
무참히 7
무협 7
무효@@ 7
문구점 7
문벌 7
문법적 7
문서@@ 7
문어@@ 7
문예반 7
문학예술 7
문화예술 7
물력 7
물먹 7
물설 7
뭉게구름 7
뭉툭하 7
뮤직비디오 7
므@@ 7
미꾸라지 7
미로 7
미명 7
미색 7
미약한 7
미연 7
미학 7
미해결 7
미행 7
민감@@ 7
민감성 7
민사 7
민족문화 7
민중적 7
민호네 7
민화 7
밀림 7
밀반출 7
밉보 7
밑바탕 7
바나나@@ 7
바다@@ 7
바둑돌 7
바람나 7
바램 7
바벨 7
바오 7
바윗돌 7
바이스 7
박대 7
박복 7
박약 7
박주영 7
반구 7
반달@@ 7
반대해 7
반동파 7
반들반들 7
반듯이 7
반송@@ 7
반숙 7
반정부 7
반지르르하 7
반체제 7
반한 7
반항@@ 7
반혁명 7
받아들이 7
발가@@ 7
발명@@ 7
발붙이 7
발생적 7
발전적 7
발주 7
발행@@ 7
밥집 7
방관@@ 7
방랑 7
방만한 7
방정 7
방조 7
방조제 7
방종 7
방책 7
배경@@ 7
배기가스 7
배낭@@ 7
배당금 7
배반@@ 7
배송비 7
배식 7
배출권 7
배편 7
백리 7
백마 7
백미 7
백분@@ 7
백설 7
백원 7
백조 7
백지화 7
백화점들 7
밸런스 7
뱃사공 7
뱅 7
뱅글 7
버금가 7
버터@@ 7
벌꿀 7
벌름거리 7
범선 7
법당 7
벙 7
베갯잇 7
베드 7
베리아 7
베이스@@ 7
베트남@@ 7
벵@@ 7
벼룩 7
변명@@ 7
변사 7
변종 7
변태@@ 7
별관 7
별의별 7
별자리 7
병마개 7
병명 7
병합 7
보검 7
보드@@ 7
보디 7
보랏빛 7
보송보송 7
보시오 7
보여@@ 7
보온병 7
보잘 7
보조원 7
보증서 7
보증인 7
보필 7
보행자 7
보험사 7
보호구역 7
보호주의 7
복귀@@ 7
복받치 7
복지관 7
복창 7
복판 7
복학 7
본거지 7
본드 7
본류 7
본명 7
본서 7
본의 7
볼게 7
볼품없 7
봄나물 7
봄여름 7
봉숭아 7
부가가치 7
부글부글 7
부끄@@ 7
부대@@ 7
부대장 7
부둥켜안 7
부라리 7
부려@@ 7
부모님들 7
부실기업 7
부재@@ 7
부조화 7
부족한데 7
부탁@@ 7
부터@@ 7
부팅 7
부품들 7
북극성 7
분립 7
분명치 7
분배@@ 7
분수령 7
분식집 7
분실한 7
분재 7
분지 7
분지르 7
분향 7
분홍 7
분홍빛 7
불그@@ 7
불그스@@ 7
불똥 7
불면 7
불멸 7
불모지 7
불문@@ 7
불미 7
불손 7
불요불굴 7
불조심 7
불청객 7
불특정 7
불편해 7
불평불만 7
불필요 7
붐 7
붙들리 7
뷔페 7
브라우@@ 7
블록@@ 7
비계 7
비공식적 7
비례@@ 7
비분 7
비상식량 7
비유적 7
비인도적 7
비일비재 7
비자@@ 7
비준@@ 7
비치발리볼 7
비트 7
비평@@ 7
비합법적 7
빔 7
빚더미 7
빠 7
빠져들 7
빠져들다 7
빨간불 7
빨래@@ 7
빨랫감 7
빼닮았다 7
빼먹고 7
빼빼 7
뻑뻑@@ 7
뼈@@ 7
뽕나무 7
쁘@@ 7
삐거@@ 7
삐뚤 7
사각형 7
사냥@@ 7
사랑방 7
사랑한 7
사레 7
사령 7
사령탑 7
사리@@ 7
사범@@ 7
사성 7
사실관계 7
사실들 7
사업권 7
사용법 7
사우나 7
사이렌 7
사이클 7
사장직 7
사채@@ 7
사회단체 7
사회보험 7
사회악 7
삯 7
산대@@ 7
산동 7
산발 7
산부인과 7
산산이 7
산야 7
산업혁명 7
산전수전 7
산줄기 7
산타클로스 7
산하기관 7
산해@@ 7
산후 7
살구 7
살림꾼 7
살얼음 7
살육 7
살포 7
삼각 7
삼각@@ 7
삼경 7
삼자 7
삼중 7
삼진 7
삼천 7
삼투@@ 7
상공@@ 7
상당@@ 7
상대하기 7
상류층 7
상륙@@ 7
상무@@ 7
상벌 7
상서로운 7
상순 7
상습 7
상승폭 7
상업성 7
상자들 7
상충 7
상치 7
상품화 7
상해@@ 7
새겨@@ 7
새록새록 7
생강 7
생강탕 7
생사@@ 7
샨똥 7
서구적 7
서구화 7
서먹@@ 7
서북쪽 7
서사시 7
서성이 7
서언 7
서예가 7
서적들 7
서커스단 7
서핑 7
서한 7
서호 7
석가@@ 7
선경 7
선교 7
선구 7
선구자 7
선단 7
선들 7
선물용 7
선물해 7
선박@@ 7
선봉 7
선생@@ 7
선왕 7
선창 7
선친 7
선택적 7
선택해 7
선후 7
선히 7
설설 7
설욕 7
설원 7
섬유@@ 7
섬유질 7
성공자 7
성대히 7
성루 7
성쇠 7
성역 7
성직자 7
성추@@ 7
성치 7
성탄 7
세계경제 7
세계경제포럼 7
세뇌 7
세력@@ 7
세로줄 7
세목 7
세상물정 7
세월@@ 7
세일즈맨 7
세제@@ 7
세척 7
셉@@ 7
셔츠@@ 7
션젼@@ 7
셨으면 7
셨죠 7
셨지 7
셰이프 7
셰익스피어 7
소각 7
소각장 7
소극장 7
소련@@ 7
소문들 7
소설들 7
소설집 7
소스라치 7
소식@@ 7
소형차 7
속상해 7
손가방 7
손동작 7
손위 7
손톱@@ 7
솔직@@ 7
송골송골 7
송곳 7
송두리째 7
송백 7
송유관 7
송전 7
솥뚜껑 7
쇠고집 7
쇠똥 7
쇳@@ 7
쇼트 7
쇼핑백 7
수공 7
수구@@ 7
수구적 7
수뇌 7
수량@@ 7
수력@@ 7
수북 7
수색@@ 7
수석비서관 7
수양@@ 7
수업@@ 7
수월@@ 7
수의 7
수입원 7
수재민들 7
수전노 7
수절 7
수중@@ 7
수직@@ 7
수차 7
수출량 7
수치@@ 7
수하물 7
수해@@ 7
수호@@ 7
수화기 7
수화물 7
숙박비 7
숙제하 7
숙직 7
숙하 7
순차적 7
순탄치 7
순항 7
순회공연 7
술래 7
숱 7
슈팅 7
스러지 7
스매@@ 7
스미스 7
스스럼없이 7
스케치 7
스턴 7
스팸@@ 7
스펙 7
스프레이 7
슬라이@@ 7
슬라이드 7
슬랙스 7
슬램 7
슬림하 7
슴벅@@ 7
승마@@ 7
승부수 7
승전보 7
승천 7
승합차 7
시개 7
시골길 7
시군 7
시너지 7
시다는 7
시대상 7
시름@@ 7
시리@@ 7
시앙@@ 7
시용 7
시운 7
시제 7
시지는 7
시황 7
시효 7
시후 7
식곤증 7
식순 7
식이요법 7
식적 7
식전 7
식집 7
식탁보 7
식혜 7
식화 7
신경계 7
신경질적 7
신경통 7
신관 7
신들리 7
신뢰감 7
신맛 7
신명나 7
신발장 7
신변@@ 7
신성불가침 7
신세대들 7
신입사원들 7
신지앙 7
신청@@ 7
신해 7
신혼살림 7
신화통신 7
신흥@@ 7
실감나 7
실리콘 7
실무적 7
실실 7
실없이 7
실재 7
실직자 7
실패@@ 7
실해 7
실험용 7
실효 7
심각@@ 7
심각히 7
심야@@ 7
심층@@ 7
싹쓸@@ 7
싼시아댐 7
쌍용차 7
쌩하 7
썩썩 7
쏴@@ 7
쑥덕거리 7
쓰임새 7
쓰츄@@ 7
쓴 7
쓸@@ 7
쓸개 7
쓸쓸히 7
씨네 7
씹히 7
아건 7
아기@@ 7
아기자기한 7
아뇨 7
아단 7
아답니다 7
아드님 7
아들들 7
아랍 7
아랫부분 7
아른@@ 7
아마존 7
아먹 7
아바타 7
아베 7
아뿔싸 7
아이러니 7
아일랜드 7
아주@@ 7
아침식사 7
아토피 7
악곡 7
악질적 7
안광 7
안식처 7
안전보장이사회 7
안정화 7
안주인 7
앉다 7
앉으세요 7
앉은@@ 7
알량 7
알바@@ 7
알아@@ 7
암거래 7
암벽등반 7
암흑@@ 7
압박@@ 7
압송 7
앞바다 7
애국주의 7
애드@@ 7
애매모호 7
애처로운 7
애칭 7
애통 7
앵커 7
야금야금 7
야만인 7
야생마 7
야속 7
야시장 7
야영@@ 7
야학 7
약제 7
약체 7
약혼녀 7
약혼자 7
양가죽 7
양귀비 7
양도@@ 7
양식장 7
양팔 7
양해@@ 7
양화 7
얘기@@ 7
어가 7
어떨지 7
어려@@ 7
어리광 7
어부지리 7
어사 7
어색@@ 7
어순 7
어스 7
어슬렁거리 7
어슬렁어슬렁 7
어슷@@ 7
어안 7
어제오늘 7
어찌@@ 7
어치 7
억울@@ 7
언제@@ 7
얻어먹 7
얻어먹었다 7
얼굴들 7
얼굴형 7
얼대 7
얼룩말 7
얼씨구 7
얼큰하 7
얽어매 7
엄혹 7
없다@@ 7
었으면서 7
엉겁결 7
엉덩@@ 7
엎지른 7
에든 7
에로 7
에서처럼 7
엥@@ 7
여공 7
여색 7
여인@@ 7
여자아이들 7
여진 7
여행기 7
역동적 7
역방향 7
역전패 7
역차별 7
연구자 7
연기해 7
연동 7
연둣빛 7
연락선 7
연립 7
연설문 7
연설자 7
연정 7
연해안 7
열기구 7
열도 7
열등 7
염기 7
염병 7
염색약 7
엽기 7
영명한 7
영양사 7
영업사원 7
영업액 7
영예로운 7
영토@@ 7
영특 7
영화시장 7
예교 7
예단 7
예복 7
예사로 7
예상대로 7
예속 7
예술단 7
예우 7
옌@@ 7
오르간 7
오바 7
오븐 7
오산 7
오찬 7
오프 7
오합지졸 7
옥살이 7
옥수수@@ 7
옥죄 7
온당 7
온데간데@@ 7
온라인상 7
온밤 7
온정 7
올리브유 7
올챙이 7
옹알@@ 7
옻 7
완강한 7
완전치 7
완제품 7
왕군 7
왕희지 7
외계인 7
외국계 7
외국산 7
외설적 7
외자 7
왼팔 7
왼편 7
요가 7
요괴 7
요구도 7
요미@@ 7
요사 7
요식업 7
요원한 7
요체 7
욕보이 7
용사들 7
용암 7
용접@@ 7
우군 7
우드 7
우등 7
우락부락하 7
우물쭈물 7
우상화 7
우아함 7
우유병 7
우절 7
우주왕복선 7
우중충 7
우한시 7
운무 7
운용@@ 7
웃옷 7
웅변대회 7
원격 7
원격@@ 7
원년 7
원력 7
원룸 7
원리@@ 7
원사 7
원소절 7
원용 7
원져우 7
원주 7
원주민들 7
원해 7
월권 7
월급@@ 7
월초 7
월평균 7
웨이@@ 7
웨지힐 7
웰빙 7
위계 7
위권 7
위기의식 7
위령제 7
위반자 7
위압적 7
위염 7
위적 7
위치@@ 7
위풍당당한 7
위헌@@ 7
윈도우 7
윗 7
윗사람들 7
윗자리 7
윙윙거리 7
유가족 7
유격수 7
유교적 7
유년 7
유랑 7
유례없 7
유료 7
유류@@ 7
유리구슬 7
유리알 7
유머러스 7
유머러스한 7
유명세 7
유목 7
유세장 7
유수 7
유아용 7
유엔군 7
유유 7
유지@@ 7
유추 7
유통기한 7
유통업계 7
유해@@ 7
유행어 7
유희 7
육감적 7
육박전 7
으라@@ 7
으렴 7
으리@@ 7
으리오 7
으리으리하 7
으스@@ 7
으슬으슬 7
으시ㄴ가 7
으시길 7
윽박지르 7
은근 7
은덕 7
은데요 7
은사 7
은어 7
은자 7
은하수 7
을래 7
을요 7
음계 7
음대 7
음란@@ 7
음모론 7
음악가 7
음절 7
의견일치 7
의결권 7
의관 7
의례 7
의료법 7
의무교육 7
의미심장한 7
의병들 7
의서 7
의약 7
의장@@ 7
의정서 7
의존해서 7
의중 7
이구먼 7
이념적 7
이동지 7
이등 7
이등@@ 7
이라서 7
이런@@ 7
이룩한 7
이며 7
이모작 7
이모저모 7
이보 7
이솝 7
이십@@ 7
이야기하자 7
이용객 7
이용료 7
이유식 7
이음@@ 7
이자율 7
이종@@ 7
이주민들 7
이지만 7
이착륙 7
이해력 7
인간세상 7
인과 7
인기리 7
인사검증 7
인사동 7
인삼@@ 7
인스턴트 7
인스턴트@@ 7
인신 7
인의 7
인자함 7
인증@@ 7
인지상정 7
인칭 7
인턴@@ 7
인형극 7
인화성 7
일거일동 7
일대일 7
일란성 7
일망@@ 7
일몰 7
일본식 7
일솜씨 7
일순 7
일정량 7
일천 7
일체화 7
일취월장 7
일파 7
입국자 7
입법권 7
입석 7
입소 7
입주자 7
잇속 7
있는가 7
있다@@ 7
잉크병 7
자갈@@ 7
자결 7
자고 7
자극@@ 7
자기소개 7
자기주장 7
자나무 7
자동차들 7
자료@@ 7
자료실 7
자리하 7
자명종 7
자모 7
자유무역 7
자유민주주의 7
자유분방 7
자율화 7
자의 7
자주권 7
자주성 7
자줏빛 7
자탄 7
작들 7
작업복 7
잔말 7
잔악 7
잔칫집 7
잘못@@ 7
잠복근무 7
잠정 7
잡무 7
잡았다 7
장감 7
장거리@@ 7
장관급 7
장난감들 7
장난꾸러기 7
장대@@ 7
장대한 7
장독대 7
장딴지 7
장려금 7
장보 7
장염 7
장작@@ 7
장지 7
재가 7
재구성 7
재단@@ 7
재들 7
재론 7
재료들 7
재료비 7
재방송 7
재정립 7
재조정 7
재한 7
재해@@ 7
재활용하 7
잼 7
저가@@ 7
저거 7
저녁밥 7
저만치 7
저조 7
저지방 7
저희들 7
적반하장 7
적법@@ 7
적색 7
적십자@@ 7
적자생존 7
전군 7
전권 7
전기료 7
전담@@ 7
전대미문 7
전망@@ 7
전문지 7
전서 7
전설적 7
전세계 7
전속 7
전술@@ 7
전시실 7
전시한 7
전신주 7
전열 7
전원@@ 7
전유물 7
전투적 7
전파@@ 7
전화해 7
절규 7
절도@@ 7
절도범 7
절룩거리 7
절름거리 7
절명 7
절해 7
점검@@ 7
점령군 7
점차적 7
접속@@ 7
접이식 7
젓가락질 7
정견 7
정결 7
정구 7
정기국회 7
정나미 7
정략적 7
정물 7
정보국 7
정부군 7
정상인 7
정수리 7
정식@@ 7
정원사 7
정유 7
정육점 7
정파 7
정형화 7
정확도 7
젖꼭지 7
젖줄 7
제값 7
제네@@ 7
제들 7
제본 7
제소 7
제조업자 7
제트 7
젠 7
져서 7
조각들 7
조난자 7
조락 7
조련 7
조리법 7
조목 7
조비 7
조제하 7
조퇴@@ 7
조폭 7
조하 7
조합원들 7
조혼 7
족발 7
족쇄 7
존귀 7
좀먹 7
종가 7
종국 7
종신토록 7
종착역 7
종친 7
종합주가지수 7
좆@@ 7
좋긴 7
좋아@@ 7
좋으냐 7
좌천 7
죄목 7
죵@@ 7
주가@@ 7
주관@@ 7
주르르 7
주모 7
주문해 7
주민@@ 7
주민등록번호 7
주사@@ 7
주사위 7
주시했다 7
주실래요 7
주야@@ 7
주원인 7
주의깊 7
주재원 7
주정@@ 7
주제넘 7
주종 7
주책 7
주체들 7
주춤거리 7
주택지 7
주화 7
준결승전 7
준설 7
준엄한 7
줄담배 7
중간쯤 7
중거리 7
중국어@@ 7
중국화 7
중노동 7
중대성 7
중독증 7
중령 7
중역 7
중엽 7
중진 7
쥐어짜 7
쥔 7
즉각적 7
증언@@ 7
증적 7
증조부 7
증표 7
지글지글 7
지끈거리 7
지나가 7
지난@@ 7
지난여름 7
지느러미 7
지니@@ 7
지도상 7
지불@@ 7
지상군 7
지성인 7
지역민 7
지적@@ 7
지적한 7
지지부진 7
지지자 7
지참@@ 7
지책 7
지체@@ 7
지체해서 7
지푸라기 7
직녀 7
직선적 7
직업상 7
직업적 7
직역 7
직자 7
진경 7
진공@@ 7
진공청소기 7
진눈깨비 7
진범 7
진수성찬 7
진열@@ 7
진일보 7
진주@@ 7
진한 7
질겁 7
질그릇 7
질렀다 7
질적 7
질펀 7
질한 7
질해 7
집배원 7
집안사람 7
집적거리 7
짜여져 7
짠맛 7
쩔@@ 7
쩝@@ 7
쪽쪽 7
쫄딱 7
찌우 7
찍찍 7
찔끔 7
찔끔찔끔 7
찡@@ 7
차관급 7
차단기 7
차단제 7
차바퀴 7
차별적 7
차세대 7
차양 7
차이나타운 7
차이점 7
찬동 7
찬송@@ 7
찬조금 7
찰싹 7
참고인 7
참여도 7
참전용사 7
찻@@ 7
창군 7
창립@@ 7
채광 7
채무@@ 7
채식@@ 7
책동 7
챔피언@@ 7
챗@@ 7
챵 7
처먹 7
처장 7
척수 7
천년고도 7
천도 7
천리마 7
천연두 7
천연적 7
천재@@ 7
천지@@ 7
천추 7
천편일률적 7
천하제일 7
철광 7
철교 7
철도청 7
철두철미 7
철면@@ 7
철썩@@ 7
첨단기술 7
청년실업 7
청량감 7
청록색 7
청빈 7
청정기 7
청주 7
체감경기 7
체들 7
체육계 7
체인@@ 7
체통 7
체포@@ 7
쳇 7
쳐지 7
쳥 7
초고추장 7
초면 7
초상권 7
초순 7
초식 7
초읽기 7
초저녁 7
초코@@ 7
초호화 7
촉진제 7
총각들 7
총격 7
총격전 7
총구 7
총리@@ 7
총리실 7
총무@@ 7
총아 7
총장님 7
총책임자 7
총체 7
총총히 7
최고점 7
최고조 7
최신형 7
최저치 7
추계 7
추상화 7
추석@@ 7
축구대회 7
축구시합 7
축전 7
춘곤증 7
출근@@ 7
출발해 7
출석부 7
출세@@ 7
출소 7
출신@@ 7
출장비 7
출항할 7
충분치 7
취약점 7
취재원 7
취침 7
측근들 7
치밀었다 7
치아@@ 7
치엔@@ 7
치적 7
치통 7
친구들이 7
친목회 7
친밀감 7
친박 7
친북 7
친척집 7
친화력 7
칠석 7
침대@@ 7
침대보 7
침탈 7
침하 7
침해@@ 7
카레 7
카페인 7
칵 7
캔버스 7
캡@@ 7
커리큘럼 7
케어라벨 7
코믹 7
코스트 7
코칭스태프 7
콕 7
콧김 7
콧노래 7
콩깍지 7
콩밥 7
콩팥 7
콰@@ 7
쾅쾅 7
쿡쿡 7
쿨링 7
퀸 7
퀼팅 7
크레@@ 7
큰누나 7
클라@@ 7
클래스 7
클러치 7
클로@@ 7
킁킁@@ 7
키다리 7
킬로@@ 7
타들어 7
타산 7
타살 7
타수 7
타주 7
타향살이 7
탁구공 7
탁아소 7
탄수화물 7
탐탁 7
탕감 7
태두 7
탬@@ 7
탱탱@@ 7
터빈 7
터치감 7
터프 7
텀 7
테니스@@ 7
테러리스트들 7
토목 7
토산물 7
토종 7
토종@@ 7
톡톡하 7
톰@@ 7
통감 7
통기성 7
통신사 7
통역@@ 7
퇴근@@ 7
퇴로 7
퇴비 7
퇴조 7
퇴폐 7
투석 7
투스 7
투톤 7
투표소 7
투피스 7
투하 7
툭@@ 7
툴@@ 7
퉁명 7
트라@@ 7
트랩 7
트러블 7
트럼프 7
트에서 7
특강 7
특구 7
특정@@ 7
특진 7
튼튼@@ 7
티격태격 7
파괴력 7
파닥 7
파랑새 7
파리@@ 7
파우더 7
파이톤 7
파출부 7
파행 7
팍팍@@ 7
판례 7
판매망 7
판별 7
판이 7
판장 7
판지 7
팔자@@ 7
팡@@ 7
패가망신 7
패딩@@ 7
패브릭 7
패션계 7
팬츠입니 7
퍼드 7
퍼즐 7
퍼팅 7
펄럭펄럭 7
페달 7
페미닌한 7
페트병 7
편달 7
평가원 7
평당 7
평면적 7
평하 7
폐쇄@@ 7
폐장 7
포도송이 7
포로들 7
포복@@ 7
포식 7
포유류 7
폭락하 7
폭력배들 7
폭리 7
폭신@@ 7
폭탄@@ 7
폼@@ 7
표면상 7
표면화 7
표차 7
표현력 7
푸르스름하 7
품삯 7
풍경@@ 7
풍속도 7
풍수 7
프라이@@ 7
프로그래머 7
프로듀서 7
플래시@@ 7
피격 7
피랍자 7
피로연 7
피비린내 7
피서@@ 7
피식 7
피신 7
피트니스 7
피팅 7
피폐 7
필기@@ 7
필기도구 7
필연코 7
필요한데 7
필진 7
하객 7
하겠소 7
하고서는 7
하고서도 7
하교 7
하드 7
하등 7
하마@@ 7
하세요 7
하얼@@ 7
하와 7
하와이 7
하이난 7
학교들 7
학교생활 7
학년@@ 7
학생회장 7
학습자 7
한담하 7
한마디씩 7
한미@@ 7
한시적 7
한의원 7
한치 7
한테만 7
할까봐 7
할아버님 7
함몰 7
합격통지서 7
합금 7
합자 7
핫팬츠 7
항공우주국 7
항행하 7
해사 7
해상@@ 7
해저@@ 7
해학적 7
핵폭탄 7
했고 7
했대 7
행위@@ 7
행위자 7
향응 7
허가권 7
허둥@@ 7
허리선 7
허리케인 7
허송세월 7
허우 7
허우대 7
허위적 7
허탕 7
허풍@@ 7
헌병 7
헌장 7
헛걸음@@ 7
헤드 7
헤집@@ 7
혁명가 7
현모양처 7
현자 7
혈당 7
혈전 7
협의서 7
형식주의 7
형적 7
호박@@ 7
호적@@ 7
홀수 7
홍역 7
홍조 7
홍치마 7
화목@@ 7
화목한 7
화보 7
화성@@ 7
화술 7
화염병 7
화이트@@ 7
화이트칼라들 7
화하기 7
화학적 7
화합@@ 7
화훼 7
확대@@ 7
환난 7
환멸 7
환자@@ 7
환전@@ 7
활성@@ 7
홧김 7
황실 7
회갑 7
회로 7
회복세 7
회사일 7
회의석상 7
회한 7
후끈@@ 7
후끈하 7
후덕 7
후들@@ 7
후려@@ 7
후루룩 7
후임자 7
후쿠@@ 7
훈도 7
훈민정음 7
훈시 7
훌훌 7
휘감기 7
휘둥그렇 7
휴강 7
휴대@@ 7
흉보 7
흐 7
흐느적거리 7
흑막 7
흘러@@ 7
흠@@ 7
흠씬 7
희끄무레하 7
히틀러 7
． 7
： 7
1,500 6
1-@@ 6
1000원 6
100점 6
10도 6
10등 6
10배 6
10세 6
10조 6
11개월 6
13개 6
140 6
14k 6
14개 6
14세 6
15억 6
1600@@ 6
1948년 6
1973년 6
1986년 6
1993년 6
1996년 6
1급 6
1단계 6
1심 6
1장 6
1진 6
1차적 6
20-@@ 6
2000억 6
2000원 6
200위 6
20주년 6
21명 6
22@@ 6
22개 6
250@@ 6
27명 6
2세대 6
2주일 6
2초 6
300년 6
30살 6
30킬로미터 6
30퍼센트 6
3단 6
3단계 6
3반 6
400명 6
46명 6
48 6
4편 6
5.@@ 6
5000원 6
51@@ 6
59@@ 6
5백 6
5일제 6
5장 6
5주년 6
5천여 6
6000 6
60대 6
63@@ 6
6주간 6
70퍼센트 6
77 6
7시간 6
7위 6
80세 6
85@@ 6
86@@ 6
8개국 6
8백 6
8번 6
8조 6
8회 6
9000 6
90분 6
90일 6
911테 6
99 6
ATM 6
F 6
GRE 6
J@@ 6
MP@@ 6
Q@@ 6
R 6
W 6
X@@ 6
Y@@ 6
er 6
h 6
o 6
ow@@ 6
t 6
y 6
à@@ 6
ㄴ다든지 6
下@@ 6
中@@ 6
乌 6
和@@ 6
国 6
头@@ 6
字头列车 6
快@@ 6
房 6
水@@ 6
福 6
纸 6
罗@@ 6
耳@@ 6
草 6
錢 6
长 6
鸡@@ 6
가교 6
가금 6
가난해서 6
가느다랗 6
가래@@ 6
가렵@@ 6
가로놓이 6
가로막히 6
가리우 6
가마@@ 6
가면@@ 6
가명 6
가사노동 6
가열@@ 6
가요제 6
가을걷@@ 6
가을빛 6
가자@@ 6
가장들 6
가정주부 6
가정폭력 6
가지가지 6
가짓수 6
가차없이 6
가처분 6
가톨릭 6
가필 6
가하 6
가해@@ 6
각층 6
간신@@ 6
간신문 6
간악 6
간이 6
간장소스 6
간첩@@ 6
간편@@ 6
갈등@@ 6
감감 6
감감무소식 6
감도 6
감독님 6
감미료 6
감봉 6
감상문 6
감응 6
감지덕지 6
감치 6
갑부 6
갓길 6
강구@@ 6
강대국들 6
강도사건 6
강도질 6
강박관념 6
강팀@@ 6
강희@@ 6
같애 6
같은데요 6
개념@@ 6
개략적 6
개봉@@ 6
개성공단 6
개업식 6
개연성 6
개인별 6
개인차 6
개중 6
개지 6
개척@@ 6
개최@@ 6
개편안 6
개표@@ 6
개헌안 6
객관식 6
객관화 6
갱년기 6
갱도 6
갸@@ 6
갸우뚱거리 6
갸웃거리 6
갹출 6
거꾸러졌다 6
거듭@@ 6
거래량 6
거무스름하 6
거무칙칙@@ 6
거물 6
거부한 6
거북이 6
거잖 6
거취 6
건강상 6
건설회사 6
건조대 6
걸어@@ 6
검불 6
검정고시 6
겉핥@@ 6
겉핥기 6
겋 6
게도 6
게릴라 6
게시글 6
겨드랑 6
겨자 6
격문 6
격정적 6
결단@@ 6
결례 6
결사 6
결정하시 6
결핍증 6
결합@@ 6
결혼관 6
결혼반지 6
겸업 6
겹@@ 6
경거@@ 6
경계령 6
경고문 6
경력직 6
경보음 6
경솔@@ 6
경수 6
경쟁자들 6
경제사정 6
경제성 6
경제위 6
경제팀 6
경제효과 6
경주@@ 6
경축@@ 6
경험자 6
경호원들 6
계급장 6
계단식 6
계몽운동 6
계보 6
계선 6
계속@@ 6
계약제 6
계절@@ 6
계파 6
계획성 6
고3 6
고고학자들 6
고군분투 6
고기압 6
고난도 6
고단@@ 6
고대사 6
고도@@ 6
고드름 6
고등교육기관 6
고락 6
고릴라 6
고명한 6
고모부 6
고무신 6
고밀도 6
고배 6
고본 6
고액권 6
고역 6
고요함 6
고우 6
고음 6
고질병 6
고층빌딩 6
고함소리 6
고효율 6
골골@@ 6
골라@@ 6
곯리 6
곱슬@@ 6
공격수들 6
공급량 6
공기밥 6
공동주택 6
공립 6
공생 6
공안@@ 6
공안기관 6
공예@@ 6
공익사업 6
공조@@ 6
공평무사 6
공포탄 6
공포한 6
공항버스 6
공화@@ 6
과거시험 6
과년한 6
과단@@ 6
과민반응 6
과생 6
과신 6
과인 6
과점 6
과정@@ 6
과천 6
과히 6
관개@@ 6
관람석 6
관련자들 6
관리사무소 6
관리실 6
관목 6
관습적 6
관식 6
관영 6
관자놀이 6
관절@@ 6
괄 6
광고지 6
광명정대 6
광업@@ 6
광의 6
광합성 6
광활 6
괴뢰@@ 6
교도관 6
교무 6
교생 6
교육사업 6
교육학 6
교잡 6
교정해 6
교직원 6
교착 6
교탁 6
교태 6
교통안전 6
구두장 6
구름층 6
구릿빛 6
구미@@ 6
구사@@ 6
구성지 6
구세주 6
구속@@ 6
구십 6
구왕져우@@ 6
구워@@ 6
구원병 6
구유 6
구절@@ 6
구정물 6
구제물자 6
구제품 6
구차한 6
구체화 6
구호품 6
국가기관 6
국경@@ 6
국내산 6
국내파 6
국방장관 6
국빈 6
국산품 6
국세@@ 6
국어사전 6
국영기업 6
국정원장 6
국제기구 6
국책@@ 6
국회법 6
국회의장 6
군관 6
군국주의 6
군도 6
군량 6
군말 6
군사기지 6
군청 6
굴착 6
굶@@ 6
권능 6
권위주의적 6
권층 6
궐문 6
궤멸@@ 6
궤적 6
궤짝 6
귀교 6
귀밑 6
규범화 6
규정상 6
규제@@ 6
균형적 6
그깟 6
그날그날 6
그대들 6
그땐 6
그랑 6
그레이@@ 6
그루@@ 6
그루터기 6
그릇들 6
그린 6
그림들 6
그제서야 6
극장표 6
극한@@ 6
근기 6
근대@@ 6
근소한 6
근속 6
근절하기 6
근절해 6
근현대사 6
글감 6
글쓴이 6
글줄 6
금괴 6
금령 6
금붕어 6
금시 6
금융계 6
금지령 6
금후 6
급락 6
급브레이크 6
급우 6
급행 6
긋거리 6
기간제 6
기네스북 6
기념비적 6
기대치 6
기도@@ 6
기동@@ 6
기로 6
기름통 6
기발 6
기별 6
기사님 6
기상대 6
기생충 6
기성복 6
기습적 6
기여@@ 6
기와@@ 6
기우뚱@@ 6
기초적 6
기하@@ 6
기현상 6
기호@@ 6
긴밀히 6
길눈 6
길이길 6
길흉@@ 6
깃대 6
까르르 6
까지로 6
까탈@@ 6
깍쟁이 6
깝@@ 6
깨어지 6
껍@@ 6
껑충 6
꼬부라지 6
꼬불꼬불하 6
꼭두새벽 6
꽥@@ 6
꾸벅꾸벅 6
꿀리 6
꿈틀@@ 6
끄르 6
끄트머리 6
끓@@ 6
끔벅@@ 6
끝맺 6
나길 6
나랏일 6
나무그늘 6
나뭇잎들 6
나서@@ 6
나오질 6
나이키 6
나이프 6
나직 6
나포 6
나흘 6
낙관@@ 6
낙농업 6
낙마 6
낙인@@ 6
낙제점 6
낙지볶음 6
낙향 6
난생 6
날갯@@ 6
날려보내 6
날름 6
남루 6
남미 6
남부럽 6
낭만주의 6
낭설 6
낯가림 6
낱@@ 6
내각제 6
내공 6
내규 6
내란 6
내려다보이 6
내리깔@@ 6
내리막 6
내빼 6
내습 6
내외@@ 6
내용상 6
내주 6
내추럴 6
낼게요 6
냉각수 6
냉소 6
냉소@@ 6
냉큼 6
너구리 6
너나없이 6
너스레 6
너털@@ 6
넉넉@@ 6
넋두리 6
널브@@ 6
넓디넓 6
넘어가 6
넝쿨 6
넣으세요 6
네댓 6
네요 6
네티켓 6
넷째 6
년간 6
녔다 6
노교수 6
노년층 6
노동부 6
노래들 6
노리개 6
노벨@@ 6
노부모 6
노사관계 6
노이@@ 6
노인정 6
노조원들 6
노키아 6
녹스 6
녹취록 6
녹화@@ 6
논리학 6
논술@@ 6
놀림 6
농경지 6
농사@@ 6
농산물@@ 6
농어민 6
농업국 6
농업기술 6
농원 6
높이@@ 6
놔야 6
뇌파 6
뇨@@ 6
누더기 6
누리@@ 6
누에 6
누웠다 6
눈꼴@@ 6
눈두덩 6
눈발 6
눌러쓰 6
뉘@@ 6
뉘앙스 6
뉘엿@@ 6
뉴턴 6
늄 6
는다니까 6
능구렁이 6
능통한 6
늪@@ 6
니다만 6
니코틴 6
다거나 6
다국적@@ 6
다닌다 6
다닥다닥 6
다단계 6
다달 6
다독 6
다산 6
다양@@ 6
다양해 6
다용도 6
다우@@ 6
다정@@ 6
다크 6
다툼 6
다혈질 6
닥터 6
단둘이 6
단물 6
단서@@ 6
단속반 6
단오 6
단체장 6
단초 6
단축@@ 6
단층 6
단칸방 6
단칼 6
단호@@ 6
달밤 6
달았다 6
달팽이 6
담금@@ 6
담벽 6
담보@@ 6
담뿍 6
담해 6
답글 6
당비 6
당상 6
대가들 6
대강대강 6
대걸레 6
대계 6
대관@@ 6
대관절 6
대기실 6
대기오염 6
대단원 6
대단위 6
대도 6
대동@@ 6
대륙붕 6
대마@@ 6
대만 6
대별 6
대선자금 6
대선후보 6
대스타 6
대신@@ 6
대우건설 6
대의원 6
대전@@ 6
대중음악 6
대천 6
대칭 6
대하@@ 6
대학살 6
대행@@ 6
대혁명 6
댁@@ 6
댄다 6
댔@@ 6
더덕 6
더라구 6
더러워지 6
더럭 6
더우@@ 6
덕방 6
던데요 6
덜미 6
덧칠 6
덩그렇 6
덴@@ 6
도공 6
도구들 6
도굴@@ 6
도그 6
도깨비@@ 6
도끼질 6
도라지 6
도료 6
도루 6
도리상 6
도매가격 6
도매상 6
도미노 6
도발@@ 6
도발적 6
도야 6
도어 6
도움말 6
도정 6
도제 6
도착해서 6
독가스 6
독극물 6
독립투사들 6
독자층 6
독후감 6
돌담 6
돌대가리 6
돌이 6
돔 6
동급@@ 6
동났다 6
동력@@ 6
동문회 6
동물적 6
동반한 6
동북@@ 6
동원@@ 6
동월 6
동점골 6
동정적 6
동지애 6
동질@@ 6
동편 6
돛단배 6
돼지우리 6
되려 6
되바라지 6
되요 6
되짚어 6
된서리 6
될 6
두개골 6
두꺼비집 6
두레@@ 6
두루@@ 6
두루두루 6
두리번@@ 6
두바 6
두바이유 6
두부국 6
두수 6
두통@@ 6
둔탁 6
둘러막 6
둥그런 6
둥실둥실 6
뒤뚱거리 6
뒷거래 6
뒷공론 6
뒷돈 6
뒷심 6
뒷일 6
들끼리 6
들들 6
들러붙@@ 6
들먹하 6
들보 6
들쓰 6
들어올@@ 6
들하 6
등급제 6
등단@@ 6
등뒤 6
등세 6
등유 6
등판@@ 6
등한@@ 6
등허리 6
디스@@ 6
디스플레이 6
디에이@@ 6
디오@@ 6
따끔따끔 6
딱거리 6
땅딸막 6
땅콩@@ 6
땡이 6
떡갈나무 6
떡고물 6
떡하 6
똥오줌 6
뚝심 6
뚫@@ 6
뜀틀 6
뜨뜻미지근하 6
뜬눈 6
라벨 6
라야 6
라이프 6
라쿤 6
란드 6
랐@@ 6
랬다 6
랭@@ 6
랴@@ 6
럽 6
렁이 6
렇@@ 6
레몬@@ 6
레인지 6
레임@@ 6
레크리에이션 6
레탄 6
렌 6
렌트@@ 6
렬하 6
렬히 6
렵 6
렷 6
로그@@ 6
로드맵 6
로스앤젤@@ 6
로열티 6
롯데 6
룩거리 6
룰@@ 6
룽@@ 6
륭 6
르르한 6
르륵@@ 6
륵@@ 6
름거리 6
리바@@ 6
리어서 6
리어야 6
리조@@ 6
릴레이 6
립형 6
마가린 6
마고자 6
마그@@ 6
마나@@ 6
마니아 6
마디마디 6
마땅@@ 6
마스코트 6
마스터@@ 6
마스터스 6
마이너@@ 6
마이너리그 6
마케@@ 6
막내딸 6
막돼먹 6
막역 6
막장 6
만국 6
만년@@ 6
만방 6
만삭 6
만족감 6
만큼만 6
만톤 6
많으냐 6
많이 6
맏물 6
말귀 6
말대답 6
말복 6
말일 6
말장난 6
말하길 6
망둥이 6
망발 6
망상@@ 6
망연 6
망태 6
망토 6
맞장구치 6
매개@@ 6
매관매직 6
매뉴얼 6
매립 6
매복 6
매직 6
매춘 6
매표 6
맨몸 6
맹위 6
맹장 6
맹주 6
맺음말 6
머리띠 6
머리맡 6
먹성 6
먹잇감 6
먹통 6
먼지 6
먼지@@ 6
멀리뛰기 6
멋들어지 6
멋모르 6
멍청@@ 6
메꾸 6
메르@@ 6
메스 6
메시 6
멘소리 6
멜빵 6
멤버들 6
며칠씩 6
면면 6
면봉 6
면세 6
면허증 6
멸치@@ 6
명가 6
명멸 6
명사수 6
명실공히 6
명왕성 6
명지 6
명치 6
명퇴@@ 6
몇년 6
몇천 6
모국 6
모더@@ 6
모란꽃 6
모래바람 6
모래판 6
모리@@ 6
모방해서 6
모사 6
모씨 6
모의 6
모정 6
모조@@ 6
모험적 6
목림 6
목축 6
몬 6
몰래카메라 6
몰상식한 6
몰아@@ 6
몰아넣다 6
몰염치 6
몸단장 6
몸서리 6
못마땅@@ 6
못자리 6
몽고@@ 6
몽골@@ 6
묏@@ 6
무게중심 6
무기한 6
무난히 6
무덤덤@@ 6
무뢰@@ 6
무릎@@ 6
무면허 6
무방 6
무법@@ 6
무비 6
무상의료 6
무색@@ 6
무서움 6
무소불 6
무술@@ 6
무시해 6
무언@@ 6
무언지 6
무역주의 6
무의@@ 6
무장세력 6
무전여행 6
무제 6
무조건적 6
무표정 6
무한히 6
묵사발 6
문고 6
문단속 6
문명권 6
문물들 6
문어발 6
문제아 6
문제집 6
문학가 6
문학작품 6
문헌@@ 6
문화생활 6
묻지마 6
물고 6
물구@@ 6
물기둥 6
물끄러미 6
물동이 6
물맛 6
물병 6
물빛 6
물상 6
물웅덩이 6
물장구 6
물질주의 6
뭉게뭉게 6
뭉실@@ 6
뭔 6
뭡니까 6
뮌헨 6
미각 6
미관상 6
미디어@@ 6
미래상 6
미성년 6
미식@@ 6
미안해 6
미정 6
미혼모 6
민간단체 6
민국@@ 6
민권 6
민란 6
민정 6
밀려나 6
밀접히 6
밀한 6
바글@@ 6
바꾸@@ 6
바늘구멍 6
바둑계 6
바들바들 6
바람기 6
바른대로 6
바른말 6
바리케이드 6
바비 6
바싹바싹 6
바캉스 6
박리@@ 6
박멸 6
박지 6
박태환 6
밖@@ 6
반기업 6
반달 6
반대당 6
반들 6
반란군 6
반려동물 6
반성문 6
반증 6
반질반질 6
반찬@@ 6
받쳐@@ 6
받히 6
발견@@ 6
발뒤꿈치 6
발라드 6
발레단 6
발레리나 6
발명가 6
발상지 6
발원지 6
발치 6
발코니 6
방공 6
방과후 6
방관 6
방류 6
방법@@ 6
방재@@ 6
방직@@ 6
방청 6
방콕 6
방콕@@ 6
방풍@@ 6
배기량 6
배꽃 6
배냇@@ 6
배당@@ 6
배부 6
배선 6
배수진 6
배심@@ 6
배심원 6
배출량 6
백가@@ 6
백김치@@ 6
백옥 6
백일 6
백일장 6
백작 6
백주 6
백지@@ 6
백해무익@@ 6
밸런타인데 6
뱃멀미 6
뱅이@@ 6
버거 6
버르@@ 6
번역문 6
번영@@ 6
번쩍번쩍하 6
벌칙 6
범국민적 6
범법 6
범법@@ 6
범법자 6
범용 6
범접 6
법리 6
법사위 6
법안들 6
법조계 6
법치@@ 6
베니스 6
베이직한 6
베이컨 6
벨벳 6
벼루 6
벽돌@@ 6
변경@@ 6
변변 6
변사체 6
변용 6
별문제 6
별칭 6
병가 6
병고 6
병부 6
병장 6
병존 6
보글보글 6
보급품 6
보기 6
보냈다 6
보름@@ 6
보리밥 6
보선 6
보신 6
보신@@ 6
보완@@ 6
보완적 6
보육원 6
보존@@ 6
보좌진 6
보톡스 6
보편@@ 6
복간 6
복구@@ 6
복권@@ 6
복날 6
복지예산 6
본격 6
본고사 6
본대 6
본체만체@@ 6
본토@@ 6
볼게요 6
봇짐 6
부가세 6
부딪 6
부럼 6
부리나케 6
부사 6
부석 6
부속@@ 6
부스 6
부슬부@@ 6
부양@@ 6
부양책 6
부어@@ 6
부어올랐다 6
부언 6
부지불식간 6
부처들 6
부총장 6
부터라도 6
부터의 6
부화뇌@@ 6
북경시 6
북한산 6
분기별 6
분담@@ 6
분들 6
분말 6
분발@@ 6
분수@@ 6
분실@@ 6
분포도 6
분해서 6
붇 6
불가침@@ 6
불과한데 6
불굴 6
불균등 6
불급 6
불륜 6
불리우 6
불명확 6
불모 6
불복 6
불사르 6
불순물 6
불어@@ 6
불유쾌 6
불응 6
불찰 6
불철주야 6
불친@@ 6
불친절 6
불쾌@@ 6
불쾌한 6
불타오르 6
불효자 6
붉으락푸르@@ 6
붕어@@ 6
붙어@@ 6
뷰티 6
브라운관 6
브론@@ 6
브스 6
블랙홀 6
블링 6
비견 6
비관@@ 6
비관론 6
비난@@ 6
비몽사@@ 6
비무장 6
비상구 6
비상금 6
비스@@ 6
비아 6
비애 6
비옥@@ 6
비운 6
비인간적 6
비정상 6
비주얼 6
비지 6
비쭉@@ 6
비취 6
비탈지 6
비통@@ 6
비평가들 6
비합리적 6
비행선 6
비협조적 6
빈대 6
빗속 6
빙벽 6
빙설 6
빠오@@ 6
빨대 6
빳빳이 6
빼기 6
뺑소@@ 6
뺨치 6
뼛골 6
뾰루지 6
뿐이야 6
삐걱삐걱 6
삐딱 6
사각지대 6
사개 6
사고현장 6
사근사@@ 6
사기업 6
사단장 6
사들이 6
사령@@ 6
사막화 6
사멸 6
사모님 6
사무국 6
사무용품 6
사법연수원 6
사생결단 6
사열 6
사우디아라비아 6
사육장 6
사이드@@ 6
사장실 6
사족 6
사직한 6
사취@@ 6
사취하 6
사치품 6
사치하 6
사활 6
사회발전 6
사회복지 6
사회복지@@ 6
사흘간 6
삭스 6
산간@@ 6
산삼 6
산업구조 6
산유국 6
산책@@ 6
산타 6
산토끼 6
산후@@ 6
살구@@ 6
살구꽃 6
살림@@ 6
살상@@ 6
살상력 6
살생 6
살진 6
삼각주 6
삼면 6
삼십@@ 6
삼엄 6
삼엄한 6
삽시 6
삿거리 6
상극 6
상납@@ 6
상납하 6
상담사 6
상당액 6
상대자 6
상반신 6
상복 6
상부상조 6
상속세 6
상수원 6
상승률 6
상액 6
상여 6
상용 6
상의@@ 6
상의해 6
상장하 6
상장회사 6
상존 6
상투 6
상패 6
상한@@ 6
상호작용 6
새끼들 6
새둥지 6
새싹@@ 6
색소폰 6
색종이 6
샌@@ 6
샛길 6
생각들 6
생겼@@ 6
생고생 6
생글 6
생나무 6
생로병사 6
생색 6
생일잔치 6
생태환경 6
생하 6
샤부샤부 6
샤오린 6
샴@@ 6
샴페인 6
서곡 6
서글@@ 6
서까래 6
서로@@ 6
서릿발 6
서먹서먹하 6
서먹서먹해졌다 6
서면 6
서양화 6
서요 6
서울대병원 6
서울중앙@@ 6
서유럽 6
서하 6
석고 6
석굴 6
석굴암 6
석류 6
석사과정 6
석판 6
석회@@ 6
선거관리위원회 6
선거운동 6
선대 6
선명@@ 6
선별적 6
선수촌 6
선수층 6
선우 6
선인 6
선임@@ 6
선입@@ 6
선제@@ 6
선지 6
선착장 6
선책 6
선취@@ 6
선택과목 6
선풍 6
선혈 6
선화 6
설득@@ 6
설들 6
설렁설@@ 6
설립@@ 6
설립자 6
설문지 6
설복 6
설비@@ 6
섬뜩 6
섬진강 6
섭외@@ 6
섭취량 6
성곽 6
성냥개비 6
성년@@ 6
성들 6
성리학 6
성모 6
성문화 6
성전 6
성정 6
성추행 6
성하기 6
성행위 6
세개 6
세계무대 6
세계선수권대회 6
세계정세 6
세공 6
세관@@ 6
세로@@ 6
세론 6
세면대 6
세무서 6
세미 6
세밀히 6
세밑 6
세법 6
세부@@ 6
세한 6
션양 6
션져우@@ 6
셨네 6
소개소 6
소고기볶음 6
소관 6
소꿉놀이 6
소년단 6
소리내 6
소리들 6
소리지르 6
소매상 6
소명 6
소변@@ 6
소복 6
소비재 6
소속@@ 6
소속사 6
소스@@ 6
소액@@ 6
소외감 6
소외계층 6
소용돌이치 6
소작인 6
소중한 6
소지자 6
소홀해서 6
속여@@ 6
속죄@@ 6
솎 6
손쉽게 6
손해@@ 6
솜이불 6
송이송이 6
쇠뿔 6
쇨 6
쇳소리 6
숄더 6
수강료 6
수경 6
수기 6
수납공간 6
수리점 6
수면제 6
수목원 6
수몰@@ 6
수병 6
수비수들 6
수산 6
수세식 6
수소문하 6
수순 6
수업료 6
수요@@ 6
수위@@ 6
수은 6
수입산 6
수작업 6
수제비 6
수종 6
수천억 6
수필@@ 6
수학문제 6
수호신 6
숙녀@@ 6
숙원 6
숙청 6
순금 6
순사 6
순위@@ 6
순찰차 6
술래잡기 6
술사 6
숫기 6
숭 6
숭어 6
숯@@ 6
슛@@ 6
스럽게 6
스릴러 6
스마@@ 6
스족 6
스코어 6
스킨십 6
스턴@@ 6
스테이크 6
스텔@@ 6
스토 6
스트레@@ 6
스틸@@ 6
스파@@ 6
스판기 6
스프링클러 6
스한 6
슥@@ 6
슬래@@ 6
슬러브 6
슬럼프 6
슬로건 6
슴@@ 6
습관성 6
습한 6
승승@@ 6
승자@@ 6
시ㄴ다는 6
시ㄴ지 6
시궁창 6
시기상조 6
시꺼@@ 6
시댁 6
시도록 6
시드@@ 6
시래기 6
시로 6
시리얼 6
시리즈물 6
시민의식 6
시보 6
시설물 6
시스루 6
시시덕거리 6
시시콜콜하 6
시아버지 6
시연 6
시외@@ 6
시정@@ 6
시집@@ 6
시집살이 6
시짱 6
시초 6
시카@@ 6
시켜@@ 6
시큰둥 6
시큰시큰 6
시티@@ 6
시퍼런 6
식탐 6
신권 6
신날 6
신도 6
신문법 6
신분적 6
신생@@ 6
신선미 6
신세@@ 6
신열 6
신입생들 6
신출귀몰 6
신통력 6
신학문 6
신혼집 6
신화적 6
실감@@ 6
실물@@ 6
실물경제 6
실사@@ 6
실사구시적 6
실세 6
실오라기 6
실존 6
실질@@ 6
실패자 6
실해서 6
심각해 6
심산 6
심술궂 6
심적 6
심혈관 6
싱싱@@ 6
싱크 6
싶다 6
싸잡 6
싹수 6
쌀가마니 6
쌉@@ 6
쌍방향 6
쌔@@ 6
쌩쌩 6
썼다 6
쑤성 6
쑤저우 6
쓰레@@ 6
쓰레기@@ 6
씨에 6
아거나 6
아기자기 6
아껴@@ 6
아니라 6
아다니 6
아다니까 6
아동복 6
아둔 6
아드@@ 6
아따 6
아로새기 6
아리송 6
아메리칸@@ 6
아무데@@ 6
아물@@ 6
아바@@ 6
아버지들 6
아부@@ 6
아삭아삭하 6
아세@@ 6
아시안 6
아옹다@@ 6
아요 6
아이섀도 6
아저씨들 6
아지랑이 6
아침나절 6
아트@@ 6
악귀 6
악센트 6
악어 6
악평 6
안경점 6
안고 6
안내문 6
안내서 6
안내판 6
안락사 6
안료 6
안빈낙도 6
안시 6
안약 6
안이 6
안전띠 6
안정@@ 6
않겠소 6
알뜰히 6
알려@@ 6
알루미늄 6
알리@@ 6
알알하 6
알짜 6
알파벳 6
암산 6
암수 6
암약 6
암행@@ 6
압제 6
앙심 6
앞문 6
앞치마 6
애들 6
애송이 6
애완용 6
애자 6
애틀랜타 6
액정@@ 6
액체@@ 6
앨@@ 6
야박 6
야상 6
야심가 6
야자 6
야자@@ 6
야합 6
야후 6
약물@@ 6
약물치료 6
약서 6
약속시간 6
약함 6
얀 6
양가 6
양계장 6
양고기@@ 6
양군 6
양념@@ 6
양력 6
양반@@ 6
양아치 6
양약 6
양어장 6
양옥@@ 6
양육@@ 6
양지바르 6
양쯔장 6
양털 6
어기적@@ 6
어나 6
어다오 6
어둑하 6
어드@@ 6
어떠세요 6
어렵사리 6
어르신들 6
어린애들 6
어링 6
어메이@@ 6
어묵 6
어미@@ 6
어버이 6
어지간히 6
어질어질하 6
어쭙잖 6
어학연수 6
억압적 6
억지@@ 6
얹@@ 6
얼룩덜룩하 6
얼싸안 6
얼씬거리 6
얼음물 6
얼추 6
얽매 6
엄명 6
었겠니 6
었느냐는 6
었더@@ 6
었었습니다 6
엊그제 6
엎지르 6
엎치락뒤치락하 6
에나멜 6
에라야 6
에의 6
에취 6
에티켓 6
에프@@ 6
엔이나 6
엠 6
엣 6
엣@@ 6
여객@@ 6
여관@@ 6
여대 6
여유로운 6
여장 6
여종 6
여지껏 6
여차@@ 6
여타 6
여풍 6
여행용 6
역들 6
역병 6
역자 6
역장 6
역주행 6
연가 6
연기한 6
연년생 6
연녹색 6
연대@@ 6
연대순 6
연락망 6
연륜 6
연말@@ 6
연모 6
연못가 6
연무 6
연분 6
연상@@ 6
연설@@ 6
연설회 6
연수생 6
연습생 6
연월일 6
연주자들 6
연체@@ 6
연회석 6
연회장 6
열병 6
열애설 6
열어젖히 6
열여덟 6
열창 6
염료 6
염하 6
엿새 6
영감님 6
영미@@ 6
영양실조 6
영업소 6
영장@@ 6
영재 6
영전 6
영험 6
예닐곱 6
예들 6
예술작품 6
예언자 6
예정@@ 6
예찬 6
예측@@ 6
옛정 6
오냐오냐@@ 6
오는 6
오늘@@ 6
오니 6
오동@@ 6
오두막집 6
오라 6
오락성 6
오락실 6
오렌지@@ 6
오로라 6
오르막길 6
오른 6
오리발 6
오빠@@ 6
오색찬란한 6
오스트레일리아 6
오이@@ 6
오장 6
오케 6
오케이 6
오토@@ 6
오픈@@ 6
오피스 6
옥색 6
옥토 6
온도계 6
올겨울 6
올려달라 6
올림픽대회 6
올빼미@@ 6
올스타 6
올스타전 6
옭아매 6
옴츠@@ 6
옷매무새 6
옷차림새 6
옹기 6
옹졸하 6
옹호@@ 6
와해 6
완결 6
완곡히 6
완력 6
완장 6
완치@@ 6
완행 6
왈@@ 6
왔다 6
왔다갔다 6
왕겨 6
왕권 6
왕도 6
왕동지 6
왕에 6
왕족 6
왱@@ 6
외교정책 6
외국자본 6
외딴@@ 6
외람 6
외벽 6
외인 6
외형적 6
요거 6
요런 6
요소들 6
요술 6
요양원 6
요염@@ 6
요일 6
요지부동 6
요한 6
욕먹 6
욕해 6
우물@@ 6
우물물 6
우미 6
우비 6
우스 6
우월감 6
우월주의 6
우유팩 6
우익@@ 6
우직하 6
우표@@ 6
욱하 6
운동량 6
운수업 6
운전사들 6
울음@@ 6
울퉁불퉁 6
웃음보 6
웅얼@@ 6
워싱턴@@ 6
워킹@@ 6
워터@@ 6
원근 6
원기왕성 6
원두커피 6
원로들 6
원론 6
원산 6
원상@@ 6
원자로 6
원천@@ 6
원체 6
원통 6
월별 6
웨딩@@ 6
웨이트 6
위계질서 6
위기감 6
위령@@ 6
위법성 6
위선자 6
위스키 6
위안씩 6
위압 6
위약 6
위장@@ 6
위해성 6
위험요소 6
위험해 6
윌@@ 6
윙크 6
유격전 6
유관@@ 6
유기물 6
유기체 6
유도탄 6
유동량 6
유력@@ 6
유로화 6
유리병 6
유민 6
유선 6
유순 6
유아원 6
유언@@ 6
유의@@ 6
유인물 6
유종 6
유한@@ 6
유행병 6
육감 6
육갑 6
육성하기 6
육종 6
육친 6
육회 6
윤나 6
윤락@@ 6
윤활@@ 6
율법 6
윳@@ 6
으르@@ 6
으셨는데 6
으스스 6
으스스하 6
으시ㄴ다면 6
으시ㅂ니까 6
으시어 6
으쓱 6
으쓱거리 6
으음 6
은살 6
은색 6
은신 6
은요 6
은인 6
은행잎 6
을테니 6
음독 6
음부 6
음성적 6
음식점들 6
음역 6
음탕 6
응답@@ 6
응시자들 6
응용@@ 6
의과대학 6
의구심 6
의료관광 6
의문사 6
의사결정 6
의상실 6
의아@@ 6
의인화 6
의존@@ 6
의존증 6
의회정치 6
이간 6
이닝 6
이다음 6
이동해 6
이따금씩 6
이래라저래 6
이래저래 6
이러므 6
이러저러하 6
이룩@@ 6
이발사 6
이방인 6
이사할 6
이어@@ 6
이용자들 6
이재 6
이주@@ 6
이중성 6
이즈@@ 6
이즘 6
이질적 6
이차@@ 6
이코노@@ 6
이편 6
인간미 6
인간애 6
인격자 6
인권문제 6
인단 6
인드@@ 6
인마 6
인민해방군 6
인쇄물 6
인쇄술 6
인식@@ 6
인신@@ 6
인신공격 6
인신매매 6
인용문 6
인절미 6
인접국 6
인정사정 6
인조@@ 6
인출기 6
인터@@ 6
인플루엔자 6
일경 6
일관적 6
일단락 6
일로 6
일률 6
일반직 6
일발 6
일방통행 6
일인칭 6
일자무식 6
일정표 6
일직선 6
일진@@ 6
일처리하 6
일촉즉발 6
일치@@ 6
일확천금 6
일회@@ 6
일회용품 6
임금피크제 6
임상@@ 6
임원@@ 6
임의@@ 6
임직원들 6
입법부 6
입사@@ 6
입성 6
입시제도 6
입신 6
입양@@ 6
입주자들 6
입지 6
입찰제 6
입학생 6
입후보자 6
잇닿 6
있느냐 6
자격@@ 6
자격지심 6
자구책 6
자급자족 6
자꾸나 6
자녀@@ 6
자동판매기 6
자랑하기 6
자민당 6
자비@@ 6
자생 6
자식@@ 6
자신만만한 6
자연경관 6
자연미 6
자연주의 6
자연현상 6
자영업 6
자욱이 6
자원봉사자들 6
자원부 6
자유민주주 6
자의식 6
자이언@@ 6
자작 6
자장가 6
자족 6
자주국방 6
자치구 6
자치단체 6
자폐증 6
자포자기 6
자필 6
작업량 6
작위적 6
작은아버지 6
작은집 6
작품성 6
잔뼈 6
잔여 6
잔주름 6
잔칫날 6
잠바 6
잠실 6
잠재@@ 6
잡문 6
잡아 6
잡아끌@@ 6
잡지들 6
잡탕 6
잡티 6
장관직 6
장년층 6
장대비 6
장도 6
장비@@ 6
장삼 6
장생 6
장수들 6
장애우 6
장외 6
장제 6
장편@@ 6
장품 6
장학 6
장해 6
장형 6
잦아들@@ 6
잦아들다 6
잦히 6
재결합 6
재미@@ 6
재봉 6
재부 6
재선 6
재외@@ 6
재위 6
재입고 6
재정경제부 6
재창출 6
재택@@ 6
재해석 6
재활@@ 6
잿물 6
쟁기 6
쟁의@@ 6
저걸 6
저급 6
저당@@ 6
저멀리 6
저소득 6
저술@@ 6
저작권법 6
저층 6
저칼로리 6
저토록 6
저항세력 6
적개심 6
적당@@ 6
적대시하 6
적령기 6
적이 6
전과자 6
전답 6
전람@@ 6
전람관 6
전문대학 6
전분 6
전산@@ 6
전성기 6
전세방 6
전압 6
전위 6
전위파 6
전율 6
전의 6
전재 6
전조등 6
전처 6
전체회의 6
전통음식 6
전투병 6
전표 6
전화선 6
전화위복 6
전횡 6
절기 6
절반@@ 6
절전 6
점찍 6
접착제 6
정강 6
정교@@ 6
정년퇴직 6
정녕 6
정맥 6
정물화 6
정상급 6
정성스레 6
정신병 6
정예@@ 6
정욕 6
정원수 6
정유@@ 6
정중앙 6
정찰제 6
정치개혁 6
정치학 6
정통@@ 6
정학 6
정히 6
제너@@ 6
제련 6
제빵@@ 6
제약사 6
제언 6
제일선 6
제임스 6
제지공장 6
제휴하 6
져우언@@ 6
젼 6
조각조각 6
조각한 6
조개껍데기 6
조경 6
조기@@ 6
조류@@ 6
조망 6
조문객 6
조별@@ 6
조사결과 6
조석 6
조선소 6
조작@@ 6
조제@@ 6
조종@@ 6
조직원들 6
조카@@ 6
조회장 6
족족 6
존댓말 6
존망 6
존엄사 6
존함 6
졸자 6
좀스럽 6
종대 6
종별 6
종잇@@ 6
종주@@ 6
종지부 6
좋아하 6
좌석@@ 6
좌충우돌 6
좍 6
죄송@@ 6
죄어들@@ 6
주거지 6
주곡 6
주관식 6
주권자 6
주나라 6
주도@@ 6
주동자 6
주름지 6
주먹구구식 6
주문량 6
주문할게요 6
주물 6
주방@@ 6
주성분 6
주식투자 6
주주@@ 6
주체성 6
주치의 6
주택자 6
죽마고우 6
죽었다 6
죽한 6
준거 6
준공식 6
준비물 6
줄임말 6
줌 6
중고등학교 6
중고생 6
중고품 6
중국공산당 6
중도@@ 6
중립성 6
중복@@ 6
중성적 6
중앙박물관 6
중위 6
중의학 6
중저가 6
중첩 6
중퇴 6
중학 6
중학생들 6
중환자 6
중환자실 6
쥐어뜯 6
즉사 6
증가율 6
증권사들 6
증손자 6
증액 6
증오심 6
증축 6
지긋 6
지긋이 6
지나다니 6
지도교수 6
지랄@@ 6
지레짐작 6
지마 6
지망생 6
지물 6
지방세 6
지방자치@@ 6
지법 6
지새 6
지압 6
지압@@ 6
지엄 6
지역사회 6
지원자들 6
지원책 6
지표들 6
지프@@ 6
지하도 6
지휘권 6
지휘부 6
직수입 6
직언 6
직진 6
직통@@ 6
직항 6
진단서 6
진대 6
진배없 6
진저리 6
진정해 6
진학@@ 6
질러 6
질시 6
질정 6
집게@@ 6
집안싸움 6
집적@@ 6
집터 6
집합@@ 6
집행유예 6
짓물@@ 6
징표 6
짝짓 6
짝짝@@ 6
짧@@ 6
쩌@@ 6
쫀@@ 6
쭈글쭈글하 6
찌뿌@@ 6
찔@@ 6
찔끔거리 6
찜@@ 6
찜통더위 6
차오르 6
차우@@ 6
차후 6
착륙@@ 6
착석 6
착잡 6
찬가 6
찬반@@ 6
찬송 6
찬스 6
참가비 6
참극 6
참호 6
참회 6
찻길 6
창녀 6
창살 6
창시자 6
창안 6
창업@@ 6
창의 6
창제 6
찾아뵙@@ 6
채록 6
채색@@ 6
책갈피 6
책략 6
책방 6
책벌레 6
책상위 6
책임론 6
챠오 6
천만에요 6
천벌 6
천생연분 6
천성@@ 6
천신만고 6
천양지차이 6
천억 6
천왕@@ 6
천재성 6
천차만별 6
철광석 6
철리 6
철마 6
철칙 6
첨가제 6
첨예@@ 6
첫발 6
청국장 6
청기 6
청년기 6
청동기 6
청량@@ 6
청약 6
청약@@ 6
청원 6
청정@@ 6
청천벽력 6
청팀 6
체면@@ 6
체면상 6
체전 6
체험장 6
쳥@@ 6
쳥뚜@@ 6
초가@@ 6
초대권 6
초일류 6
초조감 6
초코렛 6
촉수 6
촉진@@ 6
촌지 6
총결 6
총동원 6
총명@@ 6
총칼 6
최고가 6
최대한도 6
최신호 6
최저가 6
추가협상 6
추구해서 6
추리력 6
추적@@ 6
축구팬들 6
축배 6
축재 6
축제일 6
축조 6
축하객 6
춘추@@ 6
춘향@@ 6
출국@@ 6
출생지 6
출어 6
출입국 6
출타 6
출항@@ 6
춧@@ 6
충언 6
측정기 6
치과 6
치기@@ 6
치맛자락 6
치사@@ 6
치열@@ 6
치오 6
치켜@@ 6
치파오 6
칙적 6
친밀@@ 6
친박계 6
친인척 6
친정@@ 6
침대칸 6
침략자들 6
카드놀이 6
카운트 6
카운트다운 6
카타@@ 6
카피 6
칵테일 6
칼국수 6
캄@@ 6
커닝@@ 6
커머스 6
커브@@ 6
커팅 6
컨 6
컨닝 6
컷@@ 6
케익 6
켠 6
코디하기 6
코스@@ 6
콘도 6
콜레라 6
콜록 6
콜리 6
콧방귀 6
콩쿠르 6
쾌거 6
쿤밍 6
쿵쾅쿵쾅 6
쿵후 6
퀴@@ 6
크래@@ 6
크레인 6
크로스백 6
크롬 6
크스@@ 6
크족 6
클래@@ 6
클렌징 6
클로버 6
클로즈업 6
타깃 6
타당@@ 6
타박상 6
타자들 6
타협안 6
탁상공론 6
탁송@@ 6
탄신 6
탈곡 6
탈북@@ 6
탈옥 6
탈옥수 6
탈의실 6
탐닉 6
탐험대 6
탑승권 6
탕추@@ 6
태고 6
태교 6
태그 6
태극 6
태백@@ 6
태생 6
태양광 6
태자 6
태조 6
태풍@@ 6
터링 6
터울 6
터졌다 6
턱없 6
턴@@ 6
털털@@ 6
텀@@ 6
텁텁하 6
테러조직 6
테크 6
텐더 6
토라@@ 6
토마토계란@@ 6
토벌 6
토산품 6
토실토실하 6
토질 6
토플 6
토호 6
톱니 6
통계청 6
통관 6
통근 6
통솔하 6
통행료 6
퇴폐적 6
투신 6
투자액 6
퉁하 6
트랜@@ 6
트레이너 6
트레이드@@ 6
특급호텔 6
특단 6
특별시 6
특선 6
특수부대 6
특질 6
특집@@ 6
특한 6
틈@@ 6
티모르 6
티스 6
티엔진 6
틱한 6
틴@@ 6
팀플레이 6
파괴적 6
파마 6
파산@@ 6
파선 6
파수꾼 6
파스텔@@ 6
파악@@ 6
파오 6
파울 6
파인애플 6
파하 6
팍@@ 6
판결문 6
판단@@ 6
판독 6
판매대 6
판화 6
팔공산@@ 6
팔레스타@@ 6
팝송 6
팝콘 6
팡테@@ 6
패거리들 6
패권주의 6
패러글라이@@ 6
패러디한 6
패션모델 6
패스트푸드@@ 6
패치 6
팬츠@@ 6
팬츠예요 6
퍼들 6
퍼레이드 6
펀칭 6
펄쩍펄쩍 6
펌 6
펌@@ 6
페널@@ 6
페니실린 6
페루 6
페미니즘 6
페이퍼 6
펠 6
편곡 6
편리성 6
편의성 6
편집장 6
편찬@@ 6
폄@@ 6
평방미터 6
평범@@ 6
평사원 6
평생토록 6
평시 6
평형@@ 6
평화공존 6
평화상 6
폐물 6
폐암 6
포고 6
포기하기 6
포스 6
포유동물 6
포지@@ 6
포토 6
폭도들 6
폭력조직 6
폭정 6
폭탄주 6
폴짝폴짝 6
표결하 6
표시하기 6
표절한 6
표제 6
푸드덕거리 6
푸석@@ 6
풀뿌리 6
품만 6
품앗이 6
품절@@ 6
풍격@@ 6
풍로 6
풍만 6
풍속@@ 6
풍토@@ 6
퓨즈 6
프레 6
프로그램@@ 6
프리미@@ 6
프리즘 6
프린@@ 6
프전 6
플라타너스 6
플라톤 6
플레이@@ 6
플리@@ 6
피난민 6
피난처 6
피동적 6
피둥피둥하 6
피부염 6
피살자 6
피습 6
피압박 6
피융 6
필사 6
필요치 6
필체 6
핏기 6
하나@@ 6
하나님@@ 6
하나님께 6
하나하나씩 6
하느 6
하는 6
하더니 6
하더라 6
하도록 6
하루속히 6
하며 6
하면 6
하숙비 6
하십시오 6
하이테크 6
하키 6
학과장 6
학내 6
학들 6
학부형들 6
학사학위 6
학생운동 6
학예회 6
학위논문 6
한가지 6
한가히 6
한국산 6
한국식 6
한글날 6
한달 6
한둘 6
한량 6
한몫했다 6
한밑천 6
한번씩 6
한식당 6
한증막 6
한턱@@ 6
할걸 6
함수 6
합격증 6
합법@@ 6
합법화 6
합선 6
합세 6
합숙 6
합숙소 6
합의안 6
합작@@ 6
합창@@ 6
합해 6
핫한 6
항공업계 6
항들 6
항주 6
해갈 6
해결사 6
해괴 6
해당화 6
해설@@ 6
해외파 6
해진 6
해초 6
해탈 6
해풍 6
해하 6
해학 6
핸@@ 6
햄 6
행범 6
행복하시 6
행정관 6
행한 6
향로 6
향리 6
향배 6
향연 6
향진@@ 6
허가제 6
허난 6
허드렛일 6
허리둘레 6
허파 6
허하 6
허허벌판 6
헌정 6
헌혈@@ 6
헐렁@@ 6
헝@@ 6
현대그룹 6
현대기아자동차 6
현대문명 6
현대의학 6
현대자동차 6
현덕 6
현물 6
현실감 6
현정부 6
현지인 6
혈세 6
혈액형 6
혈연@@ 6
혈족 6
혐의@@ 6
협동조합 6
협상단 6
협소한 6
협의@@ 6
협정문 6
협조적 6
호객 6
호걸 6
호도하 6
호락호락하 6
호리@@ 6
호방한 6
호시탐탐 6
호의적 6
호텔@@ 6
호피 6
혼돈 6
혼잡@@ 6
혼쭐 6
혼하 6
홀로@@ 6
홀몸 6
홈런@@ 6
홈팀 6
홍보물 6
화덕 6
화롯불 6
화물열차 6
화물칸 6
화산@@ 6
화소 6
화음 6
화차 6
화평 6
화할 6
확고부동 6
확연 6
확확 6
환경단체 6
환경적 6
환송@@ 6
환약 6
환전하 6
환전할 6
활동비 6
활동성 6
활용@@ 6
황기 6
황폐화 6
홰 6
홰@@ 6
회개 6
회사채 6
회색@@ 6
회장단 6
회칙 6
횡령@@ 6
후련해지 6
후보위원 6
후사 6
후안무치한 6
후왕@@ 6
후원@@ 6
후지산 6
후진@@ 6
후진적 6
훈령 6
훌쩍@@ 6
휘어잡 6
휘휘 6
휴머@@ 6
휴식시간 6
흉포@@ 6
흑백@@ 6
흔들흔들 6
흔치 6
흘 6
흙덩이 6
흥청망청 6
흥행@@ 6
희극적 6
희로애락 6
희비 6
희정@@ 6
흰자위 6
히딩크 6
000 5
100달러 5
100분 5
15개 5
170@@ 5
1900@@ 5
1920년대 5
1985년 5
1년여 5
1인@@ 5
2000년대 5
200미터 5
20층 5
21개 5
25년 5
3차원 5
3편 5
53@@ 5
5건 5
6000@@ 5
6층 5
70주년 5
8세 5
9층 5
DP 5
FT@@ 5
U 5
US@@ 5
po@@ 5
r 5
zh@@ 5
ī@@ 5
ǎ@@ 5
㎞ 5
㟖 5
件 5
元 5
关@@ 5
制 5
发@@ 5
四风 5
学 5
学@@ 5
家@@ 5
心 5
心@@ 5
性@@ 5
总@@ 5
月@@ 5
海@@ 5
火@@ 5
特@@ 5
白@@ 5
空@@ 5
红@@ 5
解@@ 5
资 5
过@@ 5
酒 5
门 5
隶 5
鱼 5
鱼@@ 5
가공식품 5
가나 5
가뜩 5
가루비누 5
가위@@ 5
가지치 5
가처분@@ 5
각료 5
간결한 5
간교 5
간만 5
간장@@ 5
간호@@ 5
값어치 5
강릉 5
강제성 5
개개 5
개도@@ 5
개들 5
개막@@ 5
개사 5
개찰@@ 5
개헌@@ 5
갱@@ 5
거명 5
거울@@ 5
거적 5
거짓말쟁이 5
거참 5
거푸 5
건강미 5
건국@@ 5
건설교통부 5
건아들 5
건축가 5
겨지 5
격발 5
견장 5
결과@@ 5
결정력 5
결하 5
결혼하자 5
경고등 5
경복@@ 5
경시대회 5
경제부 5
경제활동 5
경품@@ 5
고금리 5
고독@@ 5
고료 5
고루한 5
고백@@ 5
고분고@@ 5
고사리 5
고속철 5
고수들 5
고수익 5
고의@@ 5
고전@@ 5
고전소설 5
고전음악 5
고학년 5
골목@@ 5
곰팡내 5
공갈@@ 5
공들 5
공원@@ 5
공정거래@@ 5
과자들 5
관광공사 5
관권 5
관능적 5
관록 5
관료적 5
관리소 5
관실 5
관측@@ 5
관현@@ 5
관현악단 5
광구 5
괜@@ 5
괜스레 5
괭이 5
괴팍@@ 5
교본 5
교육기관 5
교인 5
구급약 5
구더기 5
구들장 5
구력 5
구멍난 5
구석@@ 5
구역@@ 5
국립묘지 5
국민투표 5
국인 5
국제회의 5
국회의@@ 5
군사기밀 5
군중@@ 5
궂@@ 5
권좌 5
귀순 5
규범@@ 5
규정@@ 5
그놈들 5
그랑@@ 5
그랜드 5
그러뜨리 5
그룹@@ 5
그릇@@ 5
극렬 5
극빈 5
극성@@ 5
극우 5
극장가 5
근위@@ 5
근질@@ 5
근히 5
글라이@@ 5
금목걸이 5
금융거래 5
금줄 5
기마@@ 5
기사들 5
기압@@ 5
기업지배구조 5
기율@@ 5
기행문 5
김치냉장고 5
김포@@ 5
깅@@ 5
까슬까슬한 5
까요 5
깎@@ 5
깨끗@@ 5
깨달@@ 5
깨치 5
깽@@ 5
껴입어 5
꼬불@@ 5
꼭두각시 5
꼽@@ 5
꽃가마 5
꽃놀이 5
꽃씨 5
꾀죄죄하 5
꾸러@@ 5
꾸밈@@ 5
꾸중@@ 5
꾼@@ 5
꿇어@@ 5
꿉@@ 5
꿍꿍@@ 5
뀌 5
끄떡@@ 5
끝끝내 5
끽@@ 5
나무껍질 5
나부@@ 5
나약한 5
나풀거리 5
낙엽@@ 5
남반구 5
남성복 5
남준 5
납품@@ 5
냅 5
냉채 5
널뛰기 5
넣다 5
네트워크@@ 5
념적 5
노다지 5
노래자랑 5
노랫@@ 5
노령 5
노점@@ 5
노천@@ 5
논농사 5
놈들 5
농담한 5
농아 5
뇌종양 5
누에@@ 5
눈물짓 5
눈썰@@ 5
는단다 5
니만 5
닌다 5
다가앉 5
다각도로 5
다리품 5
다사다난 5
다수@@ 5
다시@@ 5
다중 5
다크서클 5
단내 5
단오절 5
달구@@ 5
달리기 5
담당@@ 5
담한 5
당사국 5
대단해 5
대립@@ 5
대마 5
대변해 5
대소사 5
대절 5
대청 5
덖@@ 5
덜거@@ 5
덧나 5
덮@@ 5
델 5
도련님 5
도마뱀 5
도살장 5
도심 5
도와@@ 5
도입@@ 5
독지가 5
독파 5
돌림@@ 5
돌파@@ 5
동그@@ 5
동남 5
동남쪽 5
동량 5
동백꽃 5
동작@@ 5
돛대 5
되질 5
두둑@@ 5
두둥실 5
두리 5
두질 5
둘리 5
뒷걸음@@ 5
뒷바라지 5
드럼 5
든든@@ 5
들러@@ 5
들쑥날@@ 5
들아 5
들여@@ 5
듬거리 5
등줄기 5
딥 5
따끔@@ 5
따르릉 5
땐 5
땜 5
땟@@ 5
떠 5
떨어졌다 5
똬@@ 5
뜨뜻@@ 5
뜸@@ 5
라디오@@ 5
라면@@ 5
랗 5
랙@@ 5
랠@@ 5
러뜨리 5
러브스토리 5
렇 5
레이온 5
레이트 5
력적 5
로드@@ 5
로비@@ 5
롤러 5
롯가 5
루이@@ 5
룬@@ 5
류하 5
르르@@ 5
리더@@ 5
리모델@@ 5
리버@@ 5
리안 5
리얼리즘 5
리우시앙 5
린내 5
마감@@ 5
마네킹 5
마모성 5
마수 5
마요 5
마자 5
막간 5
막내@@ 5
막냇동생 5
막연히 5
만두소 5
만으로는 5
만장@@ 5
말뜻 5
말이다 5
말하@@ 5
맙소사 5
맞고 5
맞바람 5
매개물 5
맨들 5
맨주먹 5
맵@@ 5
맸@@ 5
맹점 5
맺@@ 5
머루 5
머슴@@ 5
먹고살 5
먼산 5
멀쩡@@ 5
멈 5
메뚜@@ 5
메모@@ 5
메밀@@ 5
메밀꽃 5
메쉬 5
메아리 5
메인@@ 5
멕시@@ 5
멤@@ 5
명철 5
모자이크 5
모체 5
목격자들 5
몸서@@ 5
묘수 5
무단결근 5
무용수들 5
무장단체 5
무지막@@ 5
무책 5
문관 5
문답 5
문적 5
문화계 5
문화교류 5
문화산업 5
문화제 5
물러@@ 5
물망 5
물품@@ 5
미납 5
미널 5
미네@@ 5
미들 5
미술사 5
미천 5
믹서 5
민둥@@ 5
민영@@ 5
민주국가 5
바이러@@ 5
바캉@@ 5
바탕@@ 5
바탕색 5
박물@@ 5
박살@@ 5
박수소리 5
박음질 5
박주@@ 5
박질 5
반도 5
반신 5
발대@@ 5
발레@@ 5
발신 5
발전도 5
발진 5
방범 5
배설 5
백화@@ 5
뱃고동 5
번거로우 5
번들번들하 5
번뜩 5
벗@@ 5
벤처@@ 5
벼락@@ 5
벽돌담 5
병증 5
보건복지부 5
보들보@@ 5
보따@@ 5
보병 5
보세요 5
보습제 5
보이질 5
보적 5
보좌@@ 5
보퉁이 5
보호막 5
복용@@ 5
복잡다@@ 5
복제품 5
본말 5
볼록 5
봉사자들 5
봉오리 5
봉제 5
부검 5
부국 5
부녀@@ 5
부드@@ 5
부득@@ 5
부들부들@@ 5
부모@@ 5
부반장 5
부부@@ 5
부수적 5
부스러@@ 5
부작 5
부정선거 5
부처@@ 5
부탁드릴게요 5
북반구 5
분발해 5
분석적 5
분한 5
불가항@@ 5
불그레하 5
불변@@ 5
불복종 5
불요@@ 5
브라@@ 5
브로커 5
비명소리 5
비서실 5
비수기 5
비스듬@@ 5
비정 5
비축@@ 5
비통한 5
비행기장 5
빨아@@ 5
빼곡@@ 5
빼먹@@ 5
뺑 5
뺑@@ 5
뻥뻥 5
뽀 5
뽕 5
뽕잎 5
뿅 5
뿍@@ 5
삐걱 5
사랑이야기 5
사립학교 5
사마귀 5
사막@@ 5
사무처 5
사물함 5
사법기관 5
사분기 5
사비 5
사뿐 5
사생@@ 5
사육사 5
사포 5
사학법 5
사회의식 5
사회학 5
산란@@ 5
산책로 5
산하@@ 5
살랑살랑 5
삼각대 5
삼계탕 5
삼삼 5
상감@@ 5
상국 5
상상@@ 5
상장@@ 5
색적 5
샐@@ 5
샘솟 5
생경 5
생기@@ 5
생이별 5
생지옥 5
생체@@ 5
생포 5
생활태도 5
서먹서먹@@ 5
석사@@ 5
선실 5
선지@@ 5
선형 5
선호@@ 5
섣@@ 5
설렁@@ 5
설명해 5
성공하리 5
성범죄 5
성심@@ 5
성적@@ 5
성차별 5
성찬 5
성해서 5
성황리 5
세계육상@@ 5
세계은행 5
세금@@ 5
세기말 5
세력권 5
세련미 5
세리머니 5
세숫@@ 5
세출 5
세팅 5
세함 5
섹시미 5
센서 5
센치 5
셉 5
셔틀버스 5
션감 5
셜 5
셜@@ 5
셨기 5
셴@@ 5
소강상태 5
소금@@ 5
소나@@ 5
소다 5
소란@@ 5
소림사 5
소맷@@ 5
소모품 5
소비자협회 5
소상 5
소상히 5
소셜네트워크서비스 5
소송법 5
소시민 5
소신껏 5
소원@@ 5
소월 5
소유@@ 5
소유주 5
소일@@ 5
소작인들 5
소절 5
소제 5
소지@@ 5
소출 5
소탈@@ 5
소판 5
소풍@@ 5
소프라노 5
소호@@ 5
소호족 5
속국 5
속도감 5
속물 5
속물@@ 5
속보 5
속시원 5
속신앙 5
속임 5
속화 5
손거울 5
손수레 5
손아래 5
손자국 5
손재간 5
손주 5
손함 5
손해보 5
솔기 5
솔잎 5
솜저고리 5
송고 5
송별@@ 5
송출 5
솥밥 5
쇄 5
쇄국 5
쇠락 5
쇠락@@ 5
숄더@@ 5
수감자 5
수강@@ 5
수개월 5
수공업 5
수관 5
수님 5
수련회 5
수리하기 5
수몰 5
수반@@ 5
수사과 5
수소문 5
수십억 5
수여식 5
수요량 5
수요층 5
수월성 5
수전 5
수정판 5
수정한 5
수제화 5
수지@@ 5
수질오염 5
수집가 5
수출국 5
수취인 5
수해복구 5
수형 5
수확@@ 5
숙덕@@ 5
숙명@@ 5
숙모 5
숙박@@ 5
숙연@@ 5
숙주 5
순교 5
순국 5
순면 5
순산 5
순이 5
순직 5
순찰@@ 5
술김 5
술하 5
숫돌 5
숫자들 5
숭이 5
숲길 5
쉴새없이 5
슈트 5
슈퍼볼 5
슐@@ 5
스노@@ 5
스노보드 5
스리 5
스마 5
스와@@ 5
스카 5
스캔@@ 5
스쿠터 5
스퀘@@ 5
스킨@@ 5
스타벅스 5
스타일리@@ 5
스타일리시한 5
스탈@@ 5
스테인@@ 5
스텔스@@ 5
스톡@@ 5
스트라이커 5
스트레이트 5
스틸 5
스퍼트 5
스폰@@ 5
슬라이더 5
슬로프 5
슴도치 5
슴벅거리 5
습윤 5
승강@@ 5
승들 5
승리감 5
승무원들 5
승소 5
승승장구 5
승전@@ 5
승차감 5
시가전 5
시각장애인 5
시간당 5
시간제한 5
시간쯤 5
시겠지만 5
시골구석 5
시국@@ 5
시내@@ 5
시냇가 5
시달 5
시대정신 5
시대착오적 5
시도해 5
시료 5
시류 5
시무룩하 5
시뮬레이션 5
시발점 5
시사문제 5
시사주간지 5
시사철 5
시설@@ 5
시스 5
시애틀 5
시어야지 5
시운전 5
시원치 5
시위자 5
시인해 5
시작종이 5
시장기 5
시장성 5
시정하기 5
시즌@@ 5
시지만 5
시찰단 5
시켜 5
시폰 5
시피 5
식당가 5
식당들 5
식도 5
식력 5
식사비 5
식솔 5
식용@@ 5
식음 5
식점 5
식품부 5
식해서 5
신거리 5
신경성 5
신년@@ 5
신대륙 5
신드롬 5
신랑@@ 5
신랑신부 5
신문기자 5
신문지상 5
신부@@ 5
신부들 5
신부집 5
신빙 5
신빙성 5
신상@@ 5
신선감 5
신세기 5
신소 5
신속@@ 5
신지요 5
신진@@ 5
신천지 5
신축적 5
신출내기 5
실거래 5
실격 5
실덩실 5
실력파 5
실무자들 5
실비 5
실색 5
실성 5
실언@@ 5
실익 5
실제@@ 5
실존@@ 5
실크로드 5
실팍 5
실향@@ 5
싫증나 5
심리상태 5
심부름꾼 5
심심치 5
심심풀이 5
심의@@ 5
심플하 5
십만 5
십몇 5
십이지@@ 5
싸각@@ 5
싸개 5
싸오@@ 5
싼시아 5
쌀가마 5
쌀쌀맞 5
쌀알 5
쌀죽 5
쌈장 5
쌍심지 5
쌍용@@ 5
쌕@@ 5
써 5
쏠 5
쏭@@ 5
쏸라@@ 5
쑤석@@ 5
쑥대밭 5
쑥불쑥 5
쓰레기들 5
쓸쓸@@ 5
씁@@ 5
씬물씬 5
아ㄴ가 5
아ㄹ지 5
아가@@ 5
아나@@ 5
아낙 5
아날로그 5
아날로그적 5
아내@@ 5
아녀@@ 5
아노라 5
아니냐 5
아달라 5
아도 5
아들아이 5
아디다스 5
아라비아 5
아랍에미리@@ 5
아랑곳없이 5
아랫단 5
아랫물 5
아르바이트하 5
아름드리 5
아메바 5
아뭉개 5
아미노산 5
아미타불 5
아버지@@ 5
아산 5
아세안 5
아슴푸@@ 5
아연 5
아우터 5
아이돌@@ 5
아이라이너 5
아이스하키 5
아이언 5
아이콘 5
아이폰 5
아인슈타인 5
아주머니들 5
아줌@@ 5
아카데@@ 5
아카시아 5
아킬레스건 5
아프리카공화국 5
아플리케 5
아홉@@ 5
악감정 5
악법 5
악사 5
악성@@ 5
악성코드 5
안경알 5
안경테 5
안내도 5
안녕@@ 5
안달복@@ 5
안방@@ 5
안일주의 5
안전거리 5
안전지대 5
안중근 5
안티에이징 5
앉은뱅이 5
않길 5
않았@@ 5
알뜰살뜰 5
알라 5
알록달록하 5
알싸하 5
알알@@ 5
알음@@ 5
알제@@ 5
알칼@@ 5
알코올@@ 5
알프스 5
앓아@@ 5
암매장 5
암송 5
암울 5
압수수색 5
앙모@@ 5
앙증맞 5
앙코르 5
앞다리 5
앞뜰 5
앞산 5
애국지사들 5
애기 5
애꾸@@ 5
애끓 5
애도@@ 5
애먼 5
애모 5
애배추@@ 5
애벌레 5
애창@@ 5
애플@@ 5
액화@@ 5
앰뷸런스 5
앵글 5
야단나 5
야들야들하 5
야료 5
야생화 5
야옹@@ 5
야음 5
야쿠@@ 5
약과 5
약동 5
약성 5
약술 5
약육강식 5
약주 5
약혼식 5
얄궂 5
얌체 5
양국@@ 5
양기 5
양단간 5
양로@@ 5
양면성 5
양목 5
양보해 5
양복바지 5
양산@@ 5
양성적 5
양성종양 5
양양한 5
얗 5
얘길 5
어깃장 5
어깻@@ 5
어둑어둑하 5
어둠@@ 5
어디@@ 5
어떠 5
어떨 5
어련 5
어로@@ 5
어뢰 5
어린시절 5
어린이@@ 5
어림짐작 5
어물거리 5
어물쩡 5
어언@@ 5
어용 5
어의 5
어이@@ 5
어중이떠@@ 5
어체 5
어패류 5
어획@@ 5
억제력 5
언뜻언뜻 5
언해서 5
얻어먹고 5
얻어먹다 5
얼뜨 5
얼렁뚱땅@@ 5
얼룩@@ 5
얼른얼른 5
얼빠지 5
얼어@@ 5
엄벌@@ 5
엄연 5
엄폐 5
엄폐물 5
엄포 5
엄한 5
엄호@@ 5
업무량 5
업무용 5
업무태도 5
업소들 5
없으니깐 5
었거늘 5
었냐는 5
었다고 5
었어야지 5
었었구나 5
었었던 5
엉이 5
엉클@@ 5
에디@@ 5
에로@@ 5
에버@@ 5
에비 5
에서라도 5
에선가 5
에센스 5
에어백 5
에이그 5
에이스 5
에펠탑 5
에프 5
에헴 5
엑스트라 5
엔나 5
엔은 5
엘라 5
엠티 5
엥 5
여러분들께서 5
여로 5
여름내 5
여름용 5
여배우들 5
여봐@@ 5
여세 5
여우@@ 5
여의도 5
여일 5
여자팀 5
여전@@ 5
여친 5
여행업 5
여호와 5
역발상 5
역사박물관 5
역사소설 5
역성@@ 5
역임 5
역작 5
역할극 5
연골 5
연극배우 5
연급 5
연령별 5
연료비 5
연막 5
연못@@ 5
연변 5
연보 5
연보라색 5
연비 5
연서 5
연소@@ 5
연속해서 5
연실 5
연애담 5
연애편지 5
연이어 5
연재소설 5
연차 5
연착하 5
연후 5
열받 5
열변 5
열병@@ 5
열성팬 5
열쇠@@ 5
열어@@ 5
열재 5
염색하 5
엽총 5
엿장수 5
영감@@ 5
영구히 5
영글 5
영내 5
영달 5
영등@@ 5
영리해 5
영속 5
영수@@ 5
영업용 5
영업점 5
영업직 5
영유 5
영향권 5
영화이론 5
옆길 5
옇@@ 5
예고@@ 5
예명 5
예비비 5
예사로운 5
예삿일 5
예선전 5
예술제 5
예언서 5
예하 5
옛날@@ 5
오경 5
오그리 5
오너라 5
오두막 5
오랑캐 5
오륜 5
오르락내리락하 5
오리들 5
오리엔테이션 5
오만방자 5
오물거리 5
오믈@@ 5
오바마 5
오사운동 5
오염물질 5
오염수 5
오염원 5
오장육부 5
오죽@@ 5
오줌@@ 5
오진 5
오징어볶음 5
오키나와 5
오타 5
오판 5
옥돌 5
옥체 5
옥탑@@ 5
온난 5
온다더니 5
온도@@ 5
온스 5
온천욕 5
온풍기 5
온한 5
올게 5
올래 5
올렸다 5
올림픽위원회 5
올무 5
올빼미 5
옴짝@@ 5
옷날 5
옷소매 5
옹립 5
와그르르 5
와글와@@ 5
와일드@@ 5
완자 5
왕림하시 5
왕연 5
왕좌 5
외간 5
외교가 5
외국어@@ 5
외국환 5
외나무다리 5
외동@@ 5
외려 5
외마디 5
외손자 5
외압 5
외연 5
외이@@ 5
외피 5
외화@@ 5
외환보유액 5
왼@@ 5
요구@@ 5
요긴 5
요약@@ 5
요통 5
요트 5
요행@@ 5
요행히 5
욕정 5
용도@@ 5
용서치 5
용의@@ 5
용의자들 5
용정차 5
용케 5
용퇴 5
우거져 5
우격다짐 5
우국@@ 5
우글거리 5
우글우@@ 5
우는소리 5
우두 5
우들 5
우등@@ 5
우뚝우뚝 5
우려@@ 5
우루과 5
우르릉 5
우리팀 5
우마 5
우먼 5
우물가 5
우범@@ 5
우선권 5
우선협상대상자 5
우세@@ 5
우슈 5
우스개소리 5
우스갯@@ 5
우월@@ 5
우전 5
우주비행사 5
우지@@ 5
우지직 5
우쭐하 5
우천 5
우체통 5
우크라 5
우크라이나 5
우편집@@ 5
우회하 5
운동가 5
운동하기 5
운명적 5
운수@@ 5
운영위원 5
운율 5
울고불고 5
울긴 5
울렁 5
울렁@@ 5
울릉도 5
울먹@@ 5
울울한 5
움들 5
움증 5
움찔@@ 5
움츠러지 5
웅장함 5
워크숍 5
원고@@ 5
원고료 5
원님 5
원두막 5
원로 5
원로@@ 5
원만@@ 5
원망@@ 5
원상 5
원숭@@ 5
원작자 5
원재료 5
원저 5
원정대 5
원정팀 5
원흉 5
월가 5
월계@@ 5
월남전 5
월척 5
웨이브 5
웨이트@@ 5
웬웬은 5
웰빙@@ 5
위나라 5
위법행위 5
위용 5
위자료 5
위조품 5
위태@@ 5
윈난성 5
윈윈 5
윗감 5
유격@@ 5
유권 5
유기견 5
유난 5
유동자금 5
유동하 5
유랑@@ 5
유량 5
유류 5
유리그릇 5
유리벽 5
유명무@@ 5
유명인 5
유목민 5
유목민들 5
유물@@ 5
유물론 5
유산균 5
유선방송 5
유아@@ 5
유아교육 5
유영 5
유월절 5
유인력 5
유인우주선 5
유자차 5
유작 5
유적들 5
유전자@@ 5
유지비 5
유착 5
유찰 5
유체 5
유치원생 5
유치장 5
유탄 5
유포@@ 5
유해물질 5
유형적 5
육로 5
육상대회 5
육수 5
육신 5
융단@@ 5
융자금 5
윷 5
으르렁거리 5
으매 5
으슥 5
으시다면 5
으응 5
은닉@@ 5
은둔 5
은전 5
은하계 5
을라 5
을쏘냐 5
을진대 5
음모@@ 5
응결@@ 5
응고@@ 5
응모 5
응모하 5
응시@@ 5
응집력 5
응축 5
의료기 5
의료진 5
의만 5
의아한 5
의정@@ 5
의지@@ 5
의총 5
의환향 5
이간질@@ 5
이겨 5
이과 5
이국땅 5
이글 5
이기록 5
이너 5
이다 5
이동식 5
이든 5
이라크전 5
이러니@@ 5
이러지도 5
이레 5
이려 5
이맛살 5
이미지@@ 5
이민호 5
이버섯@@ 5
이불@@ 5
이불보 5
이불솜 5
이브닝@@ 5
이사들 5
이산가족들 5
이삼 5
이상론 5
이상주의적 5
이속 5
이슬람교 5
이시@@ 5
이심전심 5
이었@@ 5
이역 5
이영@@ 5
이온@@ 5
이윤@@ 5
이일 5
이중적 5
이질감 5
이집 5
이해타산 5
이화@@ 5
이화원 5
익명성 5
익선 5
익숙@@ 5
인간사 5
인간화 5
인격체 5
인고 5
인공암벽 5
인내성 5
인데이 5
인도주의 5
인력거꾼 5
인물화 5
인민은행 5
인방 5
인사법 5
인사차 5
인상착의 5
인상폭 5
인솔한다 5
인식표 5
인연합회 5
인자@@ 5
인적자원부 5
인터내셔널 5
인터벌 5
인터뷰하 5
인터뷰했다 5
인터폴 5
인텔@@ 5
인함 5
일견 5
일광 5
일급 5
일동 5
일람표 5
일렁거리 5
일렉트릭 5
일련번호 5
일례 5
일면적 5
일벌백@@ 5
일분 5
일분일초 5
일사천리 5
일석이조 5
일신상 5
일엔 5
일용직 5
일우 5
일인 5
일자@@ 5
일전하 5
일정액 5
일정치 5
일조@@ 5
일파만파 5
임관 5
임금협상 5
임명권 5
임시국회 5
임시직 5
임시회의 5
임용@@ 5
입관 5
입국@@ 5
입동 5
입문서 5
입방아 5
입산 5
입시험 5
입식 5
입심 5
입적 5
입정 5
입천장 5
입항 5
입후보 5
있길 5
있다더니 5
있었@@ 5
있으신지요 5
자각적 5
자국민 5
자근@@ 5
자급 5
자기업 5
자리매김 5
자발성 5
자산계급 5
자선기금 5
자선사업 5
자손만대 5
자수@@ 5
자연과학 5
자연산 5
자연자원 5
자욱@@ 5
자웅 5
자유주의 5
자유투 5
자임 5
자장 5
자적 5
자존감 5
자주색 5
자체만 5
자취@@ 5
자치권 5
자택 5
자학 5
작가@@ 5
작당 5
작별인사 5
작살@@ 5
작해 5
잔당 5
잔류 5
잔재주 5
잔존 5
잘빠지 5
잘잘 5
잠가 5
잠금장치 5
잠버릇 5
잠복기 5
잠재의식 5
잠적했다 5
잠행 5
잡수 5
잡이@@ 5
잡이들 5
잡히@@ 5
장공 5
장관@@ 5
장구한 5
장국@@ 5
장군@@ 5
장다리 5
장독 5
장면@@ 5
장모님 5
장본인 5
장사@@ 5
장성@@ 5
장손 5
장승 5
장시 5
장아찌 5
장의사 5
장이 5
장인어른 5
장작더미 5
장정들 5
장학회 5
재경 5
재교육 5
재깍 5
재도구 5
재래 5
재래적 5
재래종 5
재량 5
재림 5
재발@@ 5
재사 5
재수생 5
재스@@ 5
재심 5
재임용 5
재입@@ 5
재정건전성 5
재주꾼 5
재즈@@ 5
재촉해 5
재협상 5
재활용@@ 5
잽@@ 5
잿@@ 5
쟈오 5
저기요 5
저녁상 5
저당잡히 5
저렴해 5
저명인사 5
저승@@ 5
저울@@ 5
저의 5
저자세 5
저지선 5
저탄소 5
저학년 5
저혈압 5
저희@@ 5
적군들 5
적립금 5
적막@@ 5
적막감 5
적법 5
적병 5
적삼 5
적신호 5
적이진 5
적자폭 5
적절@@ 5
적치@@ 5
적한 5
전공자 5
전관예우 5
전광@@ 5
전극 5
전근대적 5
전깃줄 5
전나무 5
전동기 5
전등@@ 5
전립선 5
전매@@ 5
전무@@ 5
전문가@@ 5
전문기관 5
전문위원 5
전반@@ 5
전반기 5
전설들 5
전성시대 5
전세@@ 5
전술상 5
전이 5
전입신고 5
전자레인지 5
전자사전 5
전자회사 5
전쟁통 5
전조@@ 5
전초@@ 5
전치 5
전파력 5
전한 5
전할 5
전해서 5
전후@@ 5
절구통 5
절름발이 5
절망감 5
절미 5
절충@@ 5
절친한 5
젊은이@@ 5
점수@@ 5
점원들 5
점포@@ 5
점프대 5
접대@@ 5
접점 5
정경유착 5
정권@@ 5
정규적 5
정년@@ 5
정당방위 5
정대한 5
정면충돌 5
정보당국 5
정보시스템 5
정보원 5
정부여당 5
정부청사 5
정신노동 5
정실 5
정예 5
정의@@ 5
정전기 5
정족수 5
정치가들 5
정치세력 5
정치판 5
정치활동 5
정태 5
정통적 5
젖병 5
제거@@ 5
제구실 5
제도화 5
제설@@ 5
제아무리 5
제안@@ 5
제일@@ 5
제작소 5
제전 5
제조업체들 5
제초제 5
제후들 5
젠체하 5
젠틀@@ 5
젯거리 5
조각배 5
조강지처 5
조건들 5
조건부 5
조급해서 5
조기유학 5
조랑말 5
조력 5
조력자 5
조르르 5
조림@@ 5
조립식 5
조명등 5
조무래기들 5
조물주 5
조바@@ 5
조부님 5
조사비 5
조서 5
조선어 5
조세@@ 5
조속 5
조심@@ 5
조심해서 5
조아리 5
조약기구 5
조용해 5
조절@@ 5
조화@@ 5
족속 5
족제비 5
존대 5
존재론적 5
존재하기 5
존칭 5
졸개 5
졸업식장 5
종교단체 5
종례 5
종속적 5
종손 5
종식 5
종이컵 5
종이호랑이 5
종일토록 5
종하 5
죄과 5
죄악@@ 5
죄의식 5
죄행 5
주거공간 5
주경기장 5
주고@@ 5
주관자 5
주기율표 5
주님 5
주둥아리 5
주류사회 5
주름잡 5
주마@@ 5
주마간@@ 5
주먹구구 5
주먹다짐 5
주무기 5
주미@@ 5
주민등록 5
주산 5
주삿바늘 5
주상 5
주상@@ 5
주색 5
주섬주섬 5
주얼리 5
주인아주머니 5
주장만 5
주절@@ 5
주최@@ 5
주판알 5
주해서 5
죽을죄 5
죽을힘 5
죽통 5
죽하 5
준령 5
준비운동 5
준우승@@ 5
준호 5
줏@@ 5
중개업소 5
중건 5
중구난방 5
중국계 5
중국과 5
중국시장 5
중국요리 5
중국은 5
중국인들 5
중국적 5
중남미 5
중년@@ 5
중독자 5
중동@@ 5
중립@@ 5
중앙텔레비전 5
중앙회 5
중재자 5
중절@@ 5
중증 5
중추@@ 5
쥐꼬리@@ 5
쥐어짜@@ 5
쥐죽@@ 5
즈입니 5
즉석@@ 5
즐거@@ 5
즐거이 5
증권거래소 5
증기기관 5
지검@@ 5
지게@@ 5
지계 5
지그재그 5
지급액 5
지끈 5
지끈@@ 5
지난 5
지도적 5
지독히 5
지라 5
지락@@ 5
지루함 5
지명@@ 5
지명자 5
지방산 5
지선 5
지성@@ 5
지성적 5
지스@@ 5
지시@@ 5
지야 5
지에@@ 5
지역적 5
지원군 5
지적재산권 5
지점장 5
지져 5
지주@@ 5
지프 5
지향형 5
지휘관들 5
직계@@ 5
직관 5
직관적 5
직구 5
직면해서 5
직무상 5
직속@@ 5
직업여성 5
직업훈련 5
직영 5
직위@@ 5
직인 5
직장생활 5
직접투자 5
직한 5
직행@@ 5
진국 5
진다더니 5
진동@@ 5
진두@@ 5
진드기 5
진료실 5
진리@@ 5
진면목 5
진물 5
진수식 5
진술서 5
진실@@ 5
진이 5
진인 5
진입로 5
진종일 5
진지전 5
진창 5
진폭 5
질감 5
질거리 5
질곡 5
질금거리 5
질병@@ 5
질세 5
질퍽@@ 5
질풍 5
짐꾼 5
짐짐@@ 5
집구석 5
집사 5
집어삼@@ 5
집중도 5
짓무르 5
징벌@@ 5
징병 5
징수@@ 5
짜배 5
짝바짝 5
짝짜꿍 5
짭짭@@ 5
짱짱한 5
짱하 5
짹@@ 5
쨍 5
쨍그랑 5
쩔 5
쩝쩝@@ 5
쪼록 5
쪼아@@ 5
쪽박 5
쫄@@ 5
쫄쫄 5
쭈글쭈글@@ 5
쭈뼛쭈뼛 5
쭉정이 5
찌감치 5
찐빵@@ 5
찔 5
찜질방 5
찜찜 5
차대 5
차들 5
차력@@ 5
차례@@ 5
차로 5
차압 5
차올라 5
차용 5
차이나@@ 5
차주 5
차츰차츰 5
차치 5
착용샷 5
찬란히 5
찮다 5
찰랑@@ 5
찰흙 5
참가국 5
참고문헌 5
참고서 5
참관단 5
참깨 5
참담한 5
참조하시 5
찹쌀@@ 5
창간호 5
창공 5
창도 5
창세 5
채도 5
책들 5
책임질 5
챔피언결정전 5
챙@@ 5
챠@@ 5
챵츈 5
처결@@ 5
처럼의 5
처우@@ 5
천군 5
천덕@@ 5
천문@@ 5
천문대 5
천문학 5
천민 5
천방지축 5
천분 5
천연색 5
천연재료 5
천정부지 5
철거민 5
철렁 5
철망 5
철벅 5
철분 5
철쭉 5
철책 5
철퇴 5
철판@@ 5
철학@@ 5
첨삭 5
첩보@@ 5
첫날밤 5
청각@@ 5
청군 5
청소부 5
청순함 5
청승@@ 5
청아 5
청양고추 5
청탁@@ 5
체력적 5
체육복 5
쳇바퀴 5
초강대국 5
초고층 5
초과근무 5
초나라 5
초능력 5
초들 5
초상집 5
초승달 5
초식@@ 5
초월@@ 5
초유 5
초조해서 5
초중고 5
초코 5
초탈 5
초특급 5
초행 5
촌구석 5
촌놈 5
촌락 5
촛@@ 5
총감독 5
총결@@ 5
총국 5
총기@@ 5
총력전 5
총질 5
최고경영자 5
최단 5
최대치 5
최상층 5
최연소 5
최우수@@ 5
춍@@ 5
추가@@ 5
추곡 5
추도 5
추락@@ 5
추리소설 5
추리하 5
추어@@ 5
추천서 5
추출물 5
축구협회 5
축산 5
축산@@ 5
춘궁@@ 5
출로 5
출발하자 5
출병 5
출총제 5
출판계 5
출품작 5
출하시 5
출하하 5
충만@@ 5
충이 5
충천 5
충청@@ 5
취조 5
츄@@ 5
측백나무 5
측에서 5
측하 5
층들 5
층민 5
치락달@@ 5
치마킹@@ 5
치맛@@ 5
치민다 5
치밀@@ 5
치졸 5
친근감 5
친동생 5
친딸 5
친선@@ 5
친선경기 5
친아버지 5
친애 5
친이@@ 5
친정어머니 5
친할머니 5
칠라 5
칡 5
침략적 5
칩@@ 5
칫솔질 5
카드회사 5
카메라@@ 5
카스 5
카운@@ 5
카이@@ 5
카지노 5
카키색 5
칼칼하 5
캉 5
캐나다@@ 5
캐럿 5
캐리커처 5
캐시미 5
캐주얼@@ 5
캘리포@@ 5
캠프@@ 5
커트라인 5
컥 5
컨대 5
컨벤@@ 5
컨설팅 5
컨트롤하 5
컵라면 5
컹@@ 5
케하 5
켰다 5
코난 5
코르@@ 5
코맹맹이 5
코멘트 5
코미디@@ 5
코소@@ 5
코웃음 5
코카@@ 5
코코 5
코코아 5
코트@@ 5
콜라@@ 5
콜로@@ 5
콜롬비아 5
콤 5
콧 5
콧수염 5
콧잔등 5
콩가루 5
콩나물@@ 5
콩나물국 5
콩밭 5
쾌 5
쿠르@@ 5
쿠버 5
쿠웨이트 5
쿡 5
퀄@@ 5
퀘@@ 5
퀴 5
크라프트지 5
크레용 5
크로 5
크리스마스@@ 5
크림@@ 5
큰언니 5
클라우드 5
클레임 5
클립 5
키득@@ 5
킷 5
타개@@ 5
타격@@ 5
타사 5
타선 5
타오바@@ 5
타원 5
타이핑 5
타인데이 5
타임스 5
탄산@@ 5
탐 5
탐관 5
탐구영역 5
탐색@@ 5
탐스러운 5
탐스럽 5
탐오@@ 5
탐욕적 5
탐측@@ 5
탐측하 5
탑승객 5
탕먹이 5
탕약 5
태블릿 5
태양에너지 5
태평성세 5
태환 5
택배@@ 5
택일 5
탬파베 5
터리 5
터수 5
터스 5
터치@@ 5
턱걸이 5
털끝@@ 5
털어@@ 5
털어놓 5
테뉴 5
테러리스트 5
테러리즘 5
테러범 5
테르 5
테이블보 5
텔레비@@ 5
토굴 5
토기 5
토너 5
토닌 5
토닥@@ 5
토닥이 5
토리 5
토리@@ 5
토링 5
토막@@ 5
토막토막 5
토사구@@ 5
토속 5
토양@@ 5
토중래 5
토트@@ 5
톳@@ 5
통고 5
통렬한 5
통령 5
통례 5
통성 5
통솔@@ 5
통신회사 5
통위 5
통진당 5
통치가 5
통치권자 5
통합적 5
통해 5
통행금지 5
퇘지 5
퇴역 5
퇴임@@ 5
퇴출@@ 5
투고 5
투기꾼 5
투기꾼들 5
투숙@@ 5
투신@@ 5
투척@@ 5
투표일 5
투표함 5
튜@@ 5
트래@@ 5
트럼펫 5
트레이@@ 5
트레이닝@@ 5
트룩 5
트리플 5
트위드 5
트위터 5
트장 5
트족 5
특검@@ 5
특검법 5
특급@@ 5
특대@@ 5
특별대우 5
특위 5
특출@@ 5
특허@@ 5
특허권 5
틀어쥐 5
틈나 5
티격태격@@ 5
티베트@@ 5
티프 5
파노@@ 5
파다 5
파독 5
파란 5
파란만장한 5
파르@@ 5
파르르 5
파생@@ 5
파워@@ 5
파전 5
팍 5
판공실 5
판권 5
판매기 5
판서 5
판원 5
판자촌 5
팔자 5
팔짝@@ 5
팜@@ 5
패색 5
패스트@@ 5
패싸움 5
패왕 5
팩트 5
팽이버섯@@ 5
펄떡 5
펄럭거리 5
펌프@@ 5
페어@@ 5
페어플레이 5
펜션 5
펜슬 5
편식 5
편안함 5
편의시설 5
편중 5
편지들 5
평가제 5
평강 5
평군 5
평론@@ 5
평민들 5
평상복 5
평안하기 5
평안히 5
평택 5
평화주의 5
폐광 5
폐교 5
폐막식 5
폐병 5
폐인 5
포교 5
포근히 5
포기@@ 5
포들 5
포로수용소 5
포맷 5
포메이션 5
포섭 5
포승 5
포용력 5
포토@@ 5
포트@@ 5
포한 5
포환 5
포효 5
폭력시위 5
폭삭 5
폭약 5
폭언 5
폭행범 5
폴더 5
폴리에@@ 5
표고버섯 5
표구 5
표절@@ 5
표정@@ 5
표정한 5
표준적 5
푯@@ 5
푸릇푸릇@@ 5
푸시@@ 5
푼깨 5
풀벌레 5
풀어@@ 5
풀타 5
품질검사 5
풍류 5
풍미한 5
풍사 5
풍속화 5
풍악 5
풍요로운 5
풍차 5
프들 5
프라@@ 5
프라이즈 5
프랑@@ 5
프랜차이즈 5
프런트 5
프로그래밍 5
프트@@ 5
플랜 5
플랜@@ 5
플레어스커트 5
플렉스 5
플리케이션 5
피곤한지 5
피곤해 5
피골 5
피나 5
피드백 5
피멍 5
피서객들 5
피서지 5
피서철 5
피싱 5
피적 5
피차일반 5
피처@@ 5
피타고@@ 5
피한 5
필독서 5
필력 5
필리@@ 5
필세 5
필수불가결 5
필연성 5
필획 5
핑크빛 5
핑크색 5
하거 5
하계@@ 5
하굣길 5
하기@@ 5
하늘하늘 5
하니 5
하니깐 5
하다@@ 5
하단부 5
하더니만 5
하락@@ 5
하란 5
하루살 5
하리만치 5
하산 5
하수인 5
하숙 5
하숙@@ 5
하시@@ 5
하이브리드 5
하트 5
하프 5
학교폭력 5
학년생 5
학다@@ 5
학부@@ 5
학생부 5
학점@@ 5
학질 5
학풍 5
한가@@ 5
한가락 5
한강@@ 5
한국사 5
한다더니 5
한도액 5
한들 5
한랭@@ 5
한림 5
한마당 5
한물 5
한사람 5
한숨@@ 5
한자@@ 5
한재 5
한줄기 5
한집안 5
한판승 5
할까 5
할당@@ 5
할래요 5
할머@@ 5
할멈 5
할진대 5
함구 5
함유량 5
함의 5
합격품 5
합니다 5
합산 5
합헌 5
핫라인 5
항구적 5
항균@@ 5
항목별 5
항산@@ 5
항생제 5
항소 5
항시 5
항암 5
해당@@ 5
해력 5
해박 5
해상도 5
해석@@ 5
해수면 5
해안@@ 5
해안가 5
해양부 5
해코@@ 5
핵가족 5
핵실험 5
햄@@ 5
햇볕정책 5
했지 5
행상인 5
행정력 5
행정장관 5
향락주의 5
향상심 5
허드레 5
허락@@ 5
허락하시 5
허름 5
허리@@ 5
허리라인 5
허무한 5
허물어뜨리 5
허베 5
허송 5
허송@@ 5
허술@@ 5
허탈감 5
허탕치 5
허튼@@ 5
허풍쟁이 5
헌법불합치 5
헌법적 5
헛 5
헛갈리 5
헛기침 5
헤지@@ 5
헬리@@ 5
헬스@@ 5
혁대 5
현대백화점 5
현대중공업 5
현대카드 5
현들 5
현세 5
현실화 5
현장감 5
현지어 5
현판 5
현행@@ 5
혈압@@ 5
혈연 5
혈혈단신 5
혐@@ 5
협심 5
형사사건 5
형상적 5
형상화하 5
형수님 5
형씨 5
형이상학적 5
형제끼리 5
형제자매 5
혜자 5
호각 5
호객@@ 5
호기@@ 5
호두@@ 5
호빵 5
호사 5
호숫@@ 5
호실 5
호언장담 5
호인 5
호젓 5
호텔들 5
호형호제하 5
혹서 5
혼기 5
혼다 5
혼수@@ 5
혼연일체 5
혼잣말 5
혼절 5
혼쭐@@ 5
혼처 5
홀더 5
홀연히 5
홈피 5
홍보처 5
홍빛 5
홍수@@ 5
홍팀 5
홑청 5
화끈하 5
화끈한 5
화되 5
화물들 5
화살표 5
화수 5
화약@@ 5
화의 5
화이트데이 5
화인 5
화점 5
화채 5
화학물질 5
확실치 5
확인서 5
환경문제 5
환관 5
환담 5
환불@@ 5
환생 5
환수 5
환수@@ 5
환승 5
환적 5
환전소 5
환차익 5
활동량 5
활성화하기 5
활시위 5
활주 5
활황 5
황급 5
황해 5
황혼@@ 5
황히 5
회갑@@ 5
회계장부 5
회고 5
회고@@ 5
회랑 5
회포 5
회하 5
획일@@ 5
효소 5
효용 5
효율화 5
후과 5
후광 5
후끈거리 5
후난 5
후딱 5
후발@@ 5
후속@@ 5
후송 5
후워꾸워 5
후원회 5
후유 5
후의 5
후일 5
후줄근히 5
후진국형 5
후처 5
후프 5
훔@@ 5
훙사오@@ 5
훤 5
훤@@ 5
휘갈기 5
휘돌 5
휘둥@@ 5
휘발@@ 5
휘어지 5
휴가원 5
휴교 5
휴면@@ 5
휴식처 5
휴양림 5
휴지조각 5
휼 5
휼@@ 5
흉노 5
흐뭇한 5
흐지부지 5
흐트@@ 5
흑점 5
흔들흔들@@ 5
흘러넘@@ 5
흘수 5
흡인력 5
흥건하 5
흥건히 5
흥기 5
흩@@ 5
희생자들 5
희소@@ 5
희소식 5
흰옷 5
히로시마 5
힐끔 5
힘깨 5
힙합 5
&#9@@ 4
186@@ 4
18년 4
1세대 4
E 4
Q 4
d 4
v@@ 4
x@@ 4
y@@ 4
× 4
á@@ 4
è@@ 4
― 4
⋅ 4
[...]
