。 236309
的 161116
， 110654
了 66188
他 35367
在 29288
是 27286
我 22178
就 13227
, 12657
和 12141
都 12092
你 11911
有 11761
也 11275
人 11047
不 10998
上 10124
把 9532
很 9492
我们 9036
着 8554
要 8336
地 7986
她 7735
？ 7275
对 7253
被 7185
这 7161
到 6798
中 6539
得 6180
会 6065
为 5996
没有 5939
&quot; 5784
去 5583
里 5509
们 5327
、 4981
说 4861
还 4745
好 4641
一个 4622
用 4616
这个 4565
将 4510
而 4447
来 4413
给 4340
后 4316
自己 4161
从 4156
与 3928
他们 3917
做 3905
可以 3870
孩子 3765
能 3698
个 3597
但 3563
让 3466
吧 3439
那 3416
进行 3333
什么 3282
不能 3143
以 3027
吃 2979
时 2948
公司 2947
问题 2925
因为 2861
为了 2846
现在 2824
开始 2820
已经 2803
又 2773
工作 2729
那个 2711
一 2701
多 2688
向 2666
事 2644
等 2617
大 2607
下 2604
过 2470
很多 2469
时候 2465
！ 2457
不要 2434
想 2427
吗 2400
起来 2326
如果 2308
没 2251
出 2225
非常 2225
请 2217
韩国 2206
生活 2199
新 2150
所以 2149
就是 2145
事情 2143
看 2138
再 2053
正在 2053
国家 2035
并 2003
才 1998
今天 1981
但是 1954
呢 1949
这种 1948
应该 1944
的话 1932
不是 1931
虽然 1903
由于 1870
这次 1824
比 1809
政府 1802
通过 1787
走 1782
可能 1781
一@@ 1778
还是 1759
年 1733
却 1729
成为 1729
像 1710
时间 1694
朋友 1678
知道 1642
不@@ 1633
中国 1629
于 1629
使 1618
地方 1611
大家 1610
? 1607
学生 1606
该 1604
需要 1586
这样 1581
人们 1580
儿 1567
成 1560
一下 1556
社会 1545
怎么 1539
更 1537
最 1533
喜欢 1515
月 1513
跟 1502
企业 1499
可 1498
啊 1485
经济 1479
一样 1467
出现 1452
一直 1441
大@@ 1440
老师 1431
因 1430
钱 1425
出来 1421
只 1418
这些 1404
太 1385
最近 1375
别人 1369
家 1369
决定 1354
东西 1347
这么 1336
一起 1325
妈妈 1312
所 1307
由 1293
一定 1286
比赛 1285
或 1272
已 1261
! 1258
谁 1256
您 1245
得到 1237
发展 1229
不会 1225
世界 1220
买 1192
日 1192
总是 1191
小 1186
活动 1184
者 1179
发生 1176
学校 1170
情况 1166
使用 1165
前 1160
： 1158
之后 1153
那么 1150
起 1148
衣服 1143
感到 1142
受到 1140
打 1139
别 1136
真是 1120
美国 1118
性 1117
高 1101
学习 1095
听 1086
两个 1084
今年 1063
这件 1062
过去 1057
真 1054
穿 1047
结果 1046
作为 1043
参加 1042
当 1042
连 1039
点 1037
所有 1029
话 1027
经常 1024
必须 1023
准备 1022
父母 1021
水 1020
这里 1020
电影 1018
只有 1015
之 1011
特别 1008
其 1000
看到 988
努力 985
无法 984
大学 980
一些 976
这是 965
正 954
小@@ 949
行为 946
子 945
许多 942
重要 940
希望 936
一点 932
容易 929
计划 929
身体 921
教育 917
金 915
觉得 914
住 908
写 908
因此 908
心 905
人@@ 892
叫 889
感觉 888
国民 886
对于 884
拿 883
产品 880
不同 879
只是 875
增加 873
地@@ 868
认为 868
运动 859
一种 857
表示 854
要求 840
干 836
获得 834
无@@ 832
选手 824
1 823
关系 822
能够 821
之间 817
才能 814
突然 812
站 810
好像 803
开 801
随着 801
三@@ 800
下来 800
它 799
敌人 798
父亲 793
先 787
内 784
头 784
名 782
民浩 782
找 781
母亲 779
车 779
成功 777
上@@ 776
只要 771
各种 771
日本 771
书 770
变得 769
经过 769
3 760
而且 759
手 757
爱 757
事件 755
儿子 753
结束 750
能力 749
家里 748
政策 748
文化 747
有@@ 747
作品 744
天气 741
接受 740
调查 737
十分 735
技术 733
举行 730
说话 727
有些 725
还有 720
进入 720
长 720
根据 717
队 716
处理 715
打@@ 711
提高 710
方法 708
主要 706
最后 702
困难 701
爸爸 701
带 699
每天 699
死 698
具有 696
不好 695
喝 695
完 693
很大 691
历史 690
政治 689
应 687
2 686
跑 685
快 677
方面 676
汽车 676
几个 671
人类 670
天 669
内容 668
中@@ 667
哥哥 667
心里 666
完全 665
地区 663
样子 661
对方 658
解决 658
一般 656
意见 656
目前 655
终于 655
见 653
花 652
一次 650
以后 649
严重 647
考试 647
一天 646
研究 646
之@@ 641
任何 641
发现 641
方式 641
明天 641
现象 639
人员 638
完成 634
受 633
不断 632
导致 630
路 630
道 623
听到 621
5 618
掉 618
难 617
那些 613
时代 612
有点 612
精神 612
警察 611
其他 609
去年 607
发@@ 607
脸 607
态度 606
小说 604
市场 604
帮助 604
消息 604
表现 604
这部 603
昨天 601
进 600
部分 599
10 596
即使 596
多@@ 593
产生 589
你们 589
利用 589
声音 589
存在 589
化 584
多少 582
水@@ 582
不过 581
健康 581
分 581
老 581
倒 579
房子 576
更加 573
两@@ 572
取得 571
有人 568
提供 567
原因 566
过程 565
不少 560
之前 560
便 560
眼睛 560
坐 559
家庭 558
这家 558
国 556
有关 556
结婚 556
一切 555
越 555
心@@ 551
那样 551
间 551
减少 550
提出 550
过来 548
最终 545
实现 540
我@@ 540
则 539
生 538
天@@ 536
妻子 536
气 536
老@@ 535
小时 531
事故 530
同时 530
为什么 529
全部 529
离开 529
战争 528
4 527
环境 527
最好 526
生产 526
造成 526
下@@ 525
比较 525
出去 521
影响 521
会议 517
自然 517
价格 516
商品 516
如此 515
失败 513
画 513
不管 512
回来 512
首尔 511
病 510
开发 509
及 508
城市 507
学 507
门 505
此次 504
丈夫 503
呀 502
成绩 502
法 502
当时 501
重新 501
选举 500
引起 499
人生 498
充满 498
来说 498
选择 495
只能 491
行 490
以前 489
拥有 488
文章 486
心情 485
展开 483
不知 481
面前 481
开@@ 480
不了 479
考虑 478
制度 477
就要 476
忙 474
新@@ 474
日子 474
观众 474
各 473
女性 470
那里 470
另外 469
整个 469
号 468
按 468
出@@ 467
可是 467
组织 466
风 466
反对 465
不仅 464
事业 464
人家 464
光 464
姐姐 464
山 464
穿着 463
令人 462
国际 462
弟弟 462
注意 462
球 462
饭 462
代表 461
左右 461
全国 459
鱼 459
小心 458
本 458
医院 457
担心 456
越来越 456
颜色 456
带来 455
船 455
音乐 455
个人 454
线 454
放在 453
马上 453
了解 452
俊基 452
几天 451
面 451
那种 450
达到 449
传统 448
讨论 448
做出 447
部 447
往 446
曾 446
部门 445
20 444
时期 444
飞机 444
五@@ 443
经营 443
口 441
称 441
不到 440
声 440
菜 440
字 439
没@@ 438
些 437
变化 437
如 437
最大 437
逐渐 437
条件 436
国内 435
处 435
对象 435
我国 435
放 435
管理 435
保持 434
作 433
每个 433
相信 433
实在 431
爷爷 431
周围 430
客人 430
工厂 430
投资 429
是因为 429
下去 428
甚至 428
一边 427
自@@ 427
味道 426
回家 426
性格 426
机会 425
相关 425
负责 425
以@@ 424
到处 424
女儿 424
方案 424
奶奶 423
弄 423
晚上 423
这@@ 423
媛 422
民族 421
训练 421
似乎 420
刚 419
制作 419
嘴 419
建设 419
他@@ 418
医生 418
尽管 418
无 418
种 417
笑 417
马@@ 417
故事 416
直接 416
美丽 416
总 415
房间 415
派 415
高@@ 415
外@@ 414
靠 414
职员 413
领域 413
力量 411
必要 411
讲 411
成@@ 410
爱情 410
大部分 409
项目 407
发 406
食物 406
一年 405
不可 405
感 405
按照 405
很难 404
手@@ 404
挂 404
好好 403
酒 403
任务 402
送 402
全@@ 401
咱们 401
旅行 401
演员 401
白@@ 401
信息 400
可@@ 400
场 400
热 400
设计 400
形成 399
皮肤 398
金@@ 398
错误 398
制 397
年轻 397
幸福 397
正@@ 397
腿 397
6 396
休息 396
是否 396
正确 396
责任 396
这一 396
失去 395
改革 395
适合 395
事实 394
几乎 394
我家 394
资金 394
分@@ 393
女人 393
一位 392
其中 392
理解 392
脚 392
作用 391
安全 391
点儿 391
米 391
自由 391
而是 390
首先 389
卖 388
简单 388
职业 388
身上 388
陷入 388
习惯 387
办法 387
水平 387
法律 387
继续 387
药 387
近来 387
本书 385
然后 385
看着 385
第 385
领导 385
工程 384
一会儿 383
式 383
持续 383
购买 383
长@@ 383
俩 382
真的 382
坐在 380
火 380
两 379
仍然 379
价值 379
制定 379
指 379
超过 379
如何 378
意思 378
显得 378
服务 378
正式 377
记者 377
太@@ 376
建筑 376
或者 376
以上 375
双方 375
未来 375
漂亮 375
外国 374
一场 373
危险 373
批评 373
花@@ 373
语言 372
头@@ 371
规定 371
变成 370
听说 370
生命 370
紧张 370
问 370
找到 369
报纸 369
期间 369
权 369
检查 369
经验 369
人士 368
发表 368
如@@ 368
建立 368
经历 368
费 368
太阳 367
改变 367
气氛 367
目标 367
几@@ 366
哪儿 366
手机 366
教授 366
量 366
巨大 365
思想 365
一片 364
实力 364
想法 364
认识 364
北京 363
遇到 363
外 362
男人 362
真正 362
位 361
看起来 361
四@@ 359
条 359
要是 359
销售 359
哭 358
老人 358
肯定 358
那位 358
低 357
旅游 357
机器 357
顾客 357
件 356
费用 356
山@@ 355
力 354
动物 354
网络 354
肉 354
边 354
阳光 354
大量 353
少 353
眼 353
如今 352
过@@ 352
银行 352
农民 351
别@@ 351
工人 351
狗 351
十@@ 350
工资 350
据说 350
儿童 349
公开 349
曾经 349
一句 348
保护 348
再次 348
玩 348
电脑 348
国会 347
程度 347
脸上 347
附近 347
7 346
两人 346
合作 346
做事 344
方向 344
下雨 343
中心 343
之中 343
前@@ 343
坏 343
好@@ 343
平时 343
看见 343
装 343
仍 342
冠军 342
回答 342
支持 342
现场 342
留下 342
一声 341
似的 341
居民 341
患者 341
真@@ 341
知识 341
先@@ 340
关于 340
员工 340
对@@ 340
效果 340
群众 340
读 340
主义 339
行动 339
发出 338
天空 338
帮 338
根本 338
一点儿 337
三个 337
照片 337
积极 337
人才 336
度 336
树 336
高兴 336
好吃 335
当然 335
生@@ 335
表情 335
后@@ 334
来@@ 334
到底 333
头发 333
胜利 333
雨 333
关注 332
办 332
安@@ 332
早上 332
家人 331
每年 331
就算 330
相@@ 330
示威 330
竞争 330
说明 330
半@@ 329
女 329
名字 328
告诉 328
基础 328
扩大 328
现实 328
简直 328
互相 327
人物 327
农村 327
出发 327
利益 327
现代 327
财产 327
30 326
一件 325
年轻人 325
死@@ 325
不用 324
培养 324
干净 324
拒绝 324
死亡 324
团体 323
实际 323
采取 323
令 322
候选人 322
动作 322
包 322
想要 322
防止 322
评价 321
8 320
人民 320
应当 320
彻底 320
方便 320
材料 320
梦想 320
独立 320
睡 320
重 320
除了 320
之一 319
收入 319
竟然 319
绝对 319
非 319
万@@ 318
主张 318
作家 318
意识 318
不想 317
吃饭 317
打算 317
状态 317
美 317
介绍 316
势力 316
地上 316
坚持 316
很快 316
搞 316
桌子 316
生意 316
空 316
艺术 316
这儿 316
那件事 316
不停 315
反而 314
回 314
数 314
汤 314
会@@ 313
协商 313
速度 313
相比 312
表演 312
一家 311
不足 311
业务 311
权力 311
演出 311
激烈 311
长得 311
市民 310
本次 310
矛盾 310
专家 309
内部 309
既 309
永远 309
礼物 309
100 308
办公室 308
地球 308
次 308
连续 308
二@@ 307
型 307
满 307
白 307
舒服 307
重@@ 307
风@@ 307
强 306
总统 306
愿意 306
立即 306
苹果 306
见到 306
危机 305
错 305
不错 304
感受 304
以为 303
期 303
理由 303
记录 303
万韩元 302
下午 302
信 302
先生 302
原来 302
发言 302
士兵 302
定 302
报道 302
标准 302
清楚 302
爱@@ 302
而@@ 302
一名 301
公园 301
内@@ 301
实施 301
当天 301
报告 301
确认 301
夏天 300
年龄 300
时@@ 300
痛苦 300
红 300
冷 299
可爱 299
土地 299
无论 299
日@@ 299
每 299
警方 299
还要 299
公@@ 298
消除 298
科学 298
东@@ 297
拉@@ 297
旧 297
睡觉 297
祖国 297
压力 296
同学 296
忘记 296
水果 296
韩 296
周末 295
用@@ 295
一条 294
家@@ 294
放@@ 294
此 294
游戏 294
电话 294
禁止 294
诗 294
其实 293
媒体 293
强烈 293
马 293
乱 292
八@@ 292
公寓 292
变 292
同@@ 292
认真 292
前面 291
资料 291
那@@ 291
其@@ 290
吃@@ 290
广告 290
抱 290
等待 290
论 290
食品 290
实行 289
得@@ 289
机 289
设施 289
享受 288
共同 288
单位 288
去世 288
台 288
强调 288
教室 288
色 288
面临 288
专业 287
入 287
关心 287
吸引 287
感情 287
挺 287
文@@ 287
治疗 287
不如 286
感冒 286
打开 286
最高 286
照 286
百@@ 286
较 286
事儿 285
产业 285
家伙 285
措施 285
教 285
躺 285
降低 285
期待 284
正常 284
里面 284
9 283
哪里 283
子女 283
属于 283
机场 283
活 283
约 283
落 283
动 282
希贞 282
入@@ 281
判断 281
反@@ 281
岁 281
店 281
担任 281
教练 281
明显 281
班 281
第一次 281
远 281
风格 281
优秀 280
包括 280
区 280
妹妹 280
擦 280
路上 280
为@@ 279
分析 279
安排 279
洗 279
海@@ 279
理论 279
运动员 279
回到 278
国@@ 278
基本 278
增长 278
本来 278
生气 278
稍微 278
集中 278
光@@ 277
和平 277
某 277
解释 277
难以 277
青少年 277
单@@ 276
合@@ 276
文学 276
明白 276
论文 276
足球 276
度过 275
联系 275
身份 275
奥运会 274
节目 274
事@@ 273
至 273
讨厌 273
遭到 273
举办 272
加@@ 272
直 272
破坏 272
久 271
作者 271
参与 271
口@@ 271
怎么样 271
总@@ 271
热情 271
行@@ 271
全 270
创造 270
很@@ 270
换 270
缺乏 270
海外 269
身 269
连@@ 269
不住 268
不得 268
出版 268
委员会 268
并且 268
房 268
改善 268
明星 268
春天 268
村子 268
毕业 268
面对 268
即 267
哪 267
图书馆 267
对手 267
寻找 267
年纪 267
流行 267
纷纷 267
部长 267
雪 267
做好 266
将会 266
控制 266
粮食 266
裤子 266
车@@ 266
台风 265
成立 265
政权 265
杂志 265
看来 265
称为 265
见面 265
长期 265
乱@@ 264
公布 264
劳动 264
恢复 264
拉 264
放弃 264
文件 264
甲 264
界 264
看看 264
瞬间 264
确定 264
议员 264
限制 264
丰富 263
只好 263
同事 263
同意 263
大概 263
志娟 263
方 263
自 263
整理 262
目光 262
票 262
立场 262
苦 262
名@@ 261
朝鲜 261
草 261
冬天 260
厉害 260
命令 260
地位 260
怕 260
未 260
破 260
各自 259
国外 259
案 259
比起 259
直@@ 259
能@@ 259
从事 258
住宅 258
商店 258
收到 258
朝 258
节 258
刀 257
反映 257
圈 257
失误 257
展示 257
指出 257
明年 257
欢迎 257
神 257
西@@ 257
青年 257
战斗 256
断 256
新闻 256
红@@ 256
他人 255
季节 255
形式 255
懂 255
离 255
轻松 255
据 254
明确 254
片 254
算 254
非法 254
首次 254
于是 253
发挥 253
合同 253
引发 253
望 253
立刻 253
舆论 253
迅速 253
% 252
亿韩元 252
列车 252
宪法 252
收@@ 252
本@@ 252
欧洲 252
空@@ 252
聚会 252
货 252
从@@ 251
以来 251
处于 251
子@@ 251
成长 251
既然 251
是不是 251
消失 251
空气 251
答应 251
价 250
传来 250
加入 250
后来 250
对待 250
干@@ 250
暂时 250
消费者 250
独特 250
率 250
英语 250
语 250
这座 250
部队 250
世纪 249
刚才 249
往往 249
敏智 249
肚子 249
自行车 249
过于 249
顺利 249
以及 248
六@@ 248
出口 248
呆 248
当@@ 248
报 248
数量 248
王青 248
茶 248
规模 248
队员 248
韩元 248
黑 248
一到 247
战 247
收拾 247
要@@ 247
麻烦 247
且 246
军 246
双@@ 246
日期 246
机构 246
犯罪 246
仔细 245
便宜 245
大型 245
意义 245
整天 245
气@@ 245
这项 245
难道 245
顶 245
预计 245
一只 244
也许 244
多年 244
大会 244
男女 244
相反 244
纸 244
贵 244
趋势 244
转 244
避免 244
反应 243
害怕 243
族 243
眼前 243
若 243
遭受 243
作业 242
克服 242
十年 242
外面 242
来看 242
楼 242
篇文章 242
罪犯 242
职位 242
迟到 242
阶段 242
黑@@ 242
别的 241
变@@ 241
在于 241
耳朵 241
万 240
专门 240
乙 240
位置 240
全面 240
学@@ 240
彼此 240
心中 240
投入 240
教师 240
材质 240
洞 240
流 240
缺点 240
行业 240
观点 240
随便 240
不安 239
人口 239
仪式 239
墙 239
尽 239
当地 239
然 239
短 239
经 239
贷款 239
魅力 239
块 238
尽快 238
差 238
市 238
影片 238
有着 238
赶紧 238
难@@ 238
允许 237
功能 237
多么 237
姑娘 237
病人 237
皮 237
相当 237
系统 237
绳子 237
设立 237
课 237
一顿 236
三 236
事态 236
加 236
尤其 236
支援 236
试图 236
谈 236
重视 236
再@@ 235
咖啡 235
室 235
服装 235
来到 235
灯 235
犯 235
眼神 235
空间 235
著名 235
饭店 235
复杂 234
张 234
此外 234
每次 234
程序 234
美@@ 234
表面 234
上班 233
年代 233
建议 233
自信 233
设备 233
达 233
作@@ 232
啦 232
官 232
小孩 232
布 232
广场 232
所谓 232
损失 232
预算 232
同 231
命 231
女@@ 231
明@@ 231
格外 231
椅子 231
物 231
观察 231
这场 231
倾向 230
古@@ 230
居然 230
摆脱 230
有名 230
款 230
球队 230
良好 230
表明 230
记忆 230
丢 229
依靠 229
具体 229
出色 229
司机 229
合适 229
想起 229
权利 229
经理 229
走@@ 229
近 229
院 229
12 228
一生 228
亮 228
伤 228
分别 228
古代 228
团 228
工 228
底 228
油 228
物品 228
电视 228
留学 228
成熟 227
斗争 227
这位 227
进步 227
选拔 227
勉强 226
反复 226
平@@ 226
接@@ 226
收 226
满意 226
目的 226
窗户 226
结构 226
忘 225
渐渐 225
直到 225
越@@ 225
面包 225
具备 224
叔叔 224
恐怕 224
掌握 224
鸟 224
一时 223
不但 223
交往 223
值得 223
像是 223
回@@ 223
老板 223
门@@ 223
高档 223
一张 222
低@@ 222
卖@@ 222
婚礼 222
对话 222
抓住 222
火@@ 222
神@@ 222
突破 222
过分 222
体 221
加强 221
厨房 221
常常 221
念 221
意志 221
有效 221
比@@ 221
满足 221
火车 221
胳膊 221
长时间 221
七@@ 220
农业 220
回忆 220
嫌疑 220
应对 220
我要 220
戴 220
打扮 220
武器 220
法院 220
确保 220
车辆 220
采访 220
下面 219
偶尔 219
充分 219
取消 219
受@@ 219
对策 219
导演 219
怀疑 219
扔 219
抓 219
推迟 219
街道 219
话题 219
飞@@ 219
不再 218
军@@ 218
剩下 218
或许 218
提前 218
然而 218
看法 218
里@@ 218
书籍 217
决心 217
对此 217
形象 217
指责 217
落后 217
角色 217
院子 217
50 216
上午 216
主@@ 216
交@@ 216
人数 216
地震 216
接近 216
消费 216
游泳 216
猫 216
言 216
认可 216
转@@ 216
针对 216
下降 215
严格 215
从来 215
假 215
党 215
公务员 215
展现 215
清@@ 215
质量 215
上级 214
交易 214
包@@ 214
员 214
地铁 214
层 214
早晨 214
演奏 214
聪明 214
说@@ 214
队伍 214
不行 213
嘴唇 213
宗教 213
强@@ 213
投票 213
新鲜 213
未能 213
激动 213
真相 213
至今 213
裙子 213
不得不 212
从而 212
仿佛 212
刺激 212
占据 212
后面 212
哪怕 212
意味着 212
提议 212
有时 212
案件 212
珍贵 212
症状 212
看@@ 212
起@@ 212
跳 212
进@@ 212
遭遇 212
乘坐 211
劝 211
印象 211
即将 211
可惜 211
国王 211
多种 211
当局 211
思念 211
挨 211
申请 211
电@@ 211
练习 211
统一 211
网站 211
鞋 211
从小 210
决赛 210
制造 210
千@@ 210
命运 210
家乡 210
将来 210
平 210
拍 210
掀起 210
放心 210
皮鞋 210
管 210
表达 210
详细 210
贸易 210
冰箱 209
分手 209
各@@ 209
好处 209
安慰 209
安静 209
小伙子 209
差不多 209
异常 209
梦 209
活跃 209
结实 209
上海 208
个子 208
力气 208
女子 208
忽然 208
早 208
正好 208
王 208
生病 208
缓解 208
背 208
鼻子 208
协议 207
器 207
奖金 207
小时候 207
情景 207
杀 207
来自 207
牛奶 207
被子 207
词 207
飞 207
临时 206
儿@@ 206
出生 206
想到 206
特@@ 206
累 206
节日 206
衬衫 206
骂 206
会谈 205
先进 205
军队 205
减肥 205
劲儿 205
庄稼 205
情@@ 205
深刻 205
膝盖 205
至少 205
范围 205
蔬菜 205
频繁 205
- 204
应@@ 204
描写 204
日益 204
熟悉 204
眼泪 204
稳定 204
脾气 204
视线 204
负担 204
随意 204
一下子 203
从前 203
喝酒 203
工业 203
木@@ 203
村 203
盖 203
确实 203
老婆 203
西瓜 203
食 203
中间 202
人事 202
公共汽车 202
原则 202
安装 202
我会 202
文 202
未@@ 202
牺牲 202
疾病 202
相互 202
硬 202
紧急 202
胜负 202
进来 202
任命 201
取 201
失望 201
对面 201
布@@ 201
暗@@ 201
校长 201
欲望 201
牛 201
物质 201
疲劳 201
眼光 201
脖子 201
补充 201
鸡蛋 201
一向 200
唱 200
屋里 200
快乐 200
手段 200
接着 200
整@@ 200
满@@ 200
特点 200
田野 200
看上去 200
究竟 200
符合 200
第一 200
身材 200
追求 200
陌生 200
餐厅 200
优点 199
几年 199
动@@ 199
参观 199
后悔 199
和@@ 199
善良 199
成果 199
战略 199
灰尘 199
理想 199
秋天 199
积累 199
米饭 199
香 199
不够 198
亚洲 198
冷@@ 198
凌晨 198
办理 198
宣传 198
广泛 198
开放 198
慢慢 198
招聘 198
推@@ 198
日程 198
板 198
枪 198
牛仔裤 198
男子 198
露出 198
面貌 198
产 197
元 197
利@@ 197
合 197
同样 197
哎 197
坚决 197
审判 197
年@@ 197
心灵 197
派遣 197
课程 197
距离 197
踩 197
首都 197
业 196
俊 196
兵 196
单独 196
喂 196
座位 196
相 196
维持 196
进去 196
非@@ 196
风景 196
出租车 195
帽子 195
广播 195
折磨 195
文物 195
疼 195
英国 195
面@@ 195
丧失 194
依旧 194
单纯 194
待遇 194
抛弃 194
暖和 194
月亮 194
歌手 194
特定 194
观念 194
调整 194
邻居 194
一块 193
主人 193
免费 193
南@@ 193
岛 193
常@@ 193
时刻 193
晚 193
糖 193
表 193
铁@@ 193
不敢 192
促进 192
假@@ 192
千万 192
只@@ 192
吵架 192
妇女 192
工会 192
所@@ 192
拼命 192
提 192
深 192
状况 192
电视剧 192
老虎 192
而已 192
行李 192
读书 192
采用 192
集体 192
准确 191
味 191
干脆 191
恶劣 191
打扫 191
接触 191
机关 191
照顾 191
答案 191
紧 191
行政 191
邀请 191
上升 190
取@@ 190
响 190
局 190
油@@ 190
热@@ 190
生存 190
病@@ 190
着手 190
秘密 190
脑袋 190
调@@ 190
跟着 190
一旦 189
乐观 189
压@@ 189
受伤 189
尸体 189
开心 189
我军 189
执政党 189
批准 189
按时 189
接到 189
搬 189
是从 189
民主 189
类 189
系 189
老百姓 189
透露 189
那天 189
中午 188
信用卡 188
分配 188
善于 188
喜悦 188
委员 188
客 188
指定 188
有所 188
根 188
盲目 188
相应 188
给予 188
罚款 188
请求 188
贡献 188
赚 188
世界杯 187
于@@ 187
利息 187
因@@ 187
手术 187
搭配 187
更@@ 187
最@@ 187
桥 187
污染 187
清晨 187
白色 187
皮革 187
石头 187
赶快 187
违背 187
通常 187
三年 186
中央 186
内心 186
打折 186
攻击 186
普通 186
浪费 186
爬 186
眼@@ 186
税 186
不然 185
举 185
使得 185
出差 185
声@@ 185
外表 185
奇怪 185
子弹 185
小孩子 185
带@@ 185
承担 185
民@@ 185
民间 185
炒 185
盐 185
贴 185
辣 185
一个月 184
交 184
伤害 184
停 184
品 184
姿态 184
尊重 184
急 184
性@@ 184
恶@@ 184
散步 184
李@@ 184
汗 184
球员 184
级 184
落@@ 184
证明 184
这篇 184
句子 183
啥 183
因素 183
场面 183
婴儿 183
局面 183
开展 183
必然 183
无聊 183
设置 183
起床 183
一份 182
交通 182
信@@ 182
全身 182
定@@ 182
播放 182
无比 182
核心 182
调 182
15 181
事项 181
传@@ 181
体@@ 181
依然 181
厚 181
否定 181
唉 181
屁股 181
岁月 181
情报 181
提@@ 181
故意 181
敏感 181
木头 181
碗 181
辞职 181
验证 181
仅 180
出门 180
利润 180
排除 180
明 180
注重 180
流@@ 180
深@@ 180
烦恼 180
疑惑 180
约会 180
钥匙 180
信任 179
借 179
召开 179
同志 179
宇宙 179
张@@ 179
心理 179
情绪 179
沟通 179
没什么 179
海 179
煮 179
石 179
血@@ 179
货物 179
那儿 179
了不起 178
亲 178
俱乐部 178
厅 178
大赛 178
思考 178
成就 178
朴 178
模仿 178
滑 178
等于 178
翻 178
翻@@ 178
脱离 178
饮食 178
驾驶 178
发达 177
另 177
吓 177
城 177
复@@ 177
失@@ 177
少@@ 177
差距 177
当中 177
情 177
搭 177
敌军 177
活儿 177
点@@ 177
石油 177
破@@ 177
联合 177
联盟 177
误会 177
身@@ 177
骗 177
一把 176
个性 176
九@@ 176
停止 176
军事 176
名誉 176
呼吸 176
喊 176
地点 176
实@@ 176
师 176
战@@ 176
批判 176
烟 176
组成 176
衣裳 176
言@@ 176
记得 176
赢 176
这块 176
一遍 175
专@@ 175
主 175
借口 175
全都 175
叶子 175
岩石 175
工@@ 175
徘徊 175
扎 175
棒球 175
毫无 175
混乱 175
灵魂 175
疲惫 175
笔 175
角度 175
诱惑 175
难得 175
交流 174
亲@@ 174
兄弟 174
北方 174
客厅 174
愉快 174
推测 174
数@@ 174
早就 174
权威 174
流传 174
罪 174
需 174
亲自 173
余@@ 173
保证 173
协会 173
反正 173
可怜 173
手表 173
投@@ 173
春@@ 173
毛 173
破产 173
老鼠 173
轻@@ 173
一副 172
一面 172
主导 172
倒@@ 172
大幅 172
学者 172
守护 172
往事 172
抽烟 172
毛病 172
相同 172
统治 172
购物 172
通@@ 172
道路 172
集团 172
顺序 172
修理 171
初@@ 171
力@@ 171
在家 171
实际上 171
宽 171
总经理 171
村里 171
热烈 171
跳舞 171
重点 171
闹 171
难受 171
上面 170
关 170
兴奋 170
分钟 170
协助 170
协调 170
在野党 170
大约 170
小事 170
怎样 170
房地产 170
收音机 170
教训 170
旧@@ 170
棉花 170
模特 170
横@@ 170
此@@ 170
犹如 170
翅膀 170
进口 170
不满 169
企图 169
你别 169
刚@@ 169
到达 169
副 169
吹 169
固定 169
外国人 169
大海 169
对不起 169
干部 169
平静 169
德 169
快@@ 169
戏 169
折@@ 169
报@@ 169
挣扎 169
星期 169
晒 169
普及 169
暴力 169
服 169
汇率 169
爱好 169
离婚 169
称赞 169
空调 169
舞台 169
草@@ 169
装@@ 169
适应 169
体育 168
侵犯 168
凭 168
前途 168
及时 168
宣布 168
尽量 168
工具 168
急@@ 168
指@@ 168
生日 168
礼貌 168
绕 168
网 168
薄 168
贼 168
还@@ 168
需求 168
题 168
饮料 168
一番 167
伤心 167
到来 167
包裹 167
卡 167
征收 167
想@@ 167
新娘 167
步 167
漫画 167
粗糙 167
结论 167
肌肉 167
计算 167
资源 167
辣椒 167
11 166
之际 166
信心 166
半天 166
周年 166
妨碍 166
弱 166
微笑 166
打工 166
时常 166
沙漠 166
法@@ 166
流通 166
王@@ 166
瘦 166
精彩 166
聚集 166
肩膀 166
蝴蝶 166
装备 166
谴责 166
镜子 166
上涨 165
主意 165
云 165
修改 165
友谊 165
史 165
各国 165
折 165
景色 165
有点儿 165
现金 165
省 165
种植 165
纪念 165
美元 165
般的 165
许可 165
一半 164
两种 164
今后 164
估计 164
否则 164
够 164
天生 164
山上 164
排 164
推出 164
数字 164
更好 164
用于 164
真理 164
饿 164
鱼@@ 164
为止 163
书@@ 163
卡车 163
可怕 163
可能性 163
垃圾 163
存 163
打破 163
把握 163
改@@ 163
期望 163
汉语 163
立@@ 163
舌头 163
音 163
高考 163
黄@@ 163
一部 162
两天 162
养@@ 162
占 162
反 162
合理 162
土@@ 162
坐@@ 162
普遍 162
歌 162
物资 162
重复 162
铺 162
颇 162
一度 161
上去 161
停@@ 161
团结 161
墙上 161
孙子 161
常 161
很少 161
慎重 161
接 161
数学 161
显示 161
正当 161
正是 161
炎热 161
祖先 161
豆腐 161
选 161
遵守 161
配合 161
黄金 161
义务 160
保@@ 160
基@@ 160
夜 160
奇迹 160
干活 160
干燥 160
成员 160
扑 160
支出 160
气候 160
游客 160
犯人 160
玻璃 160
精@@ 160
证 160
铅笔 160
一共 159
二 159
嗯 159
就业 159
树立 159
维护 159
般 159
言论 159
进一步 159
高中 159
保险 158
养 158
地说 158
嫌 158
官@@ 158
排@@ 158
熬 158
粥 158
红色 158
致力于 158
虽 158
见@@ 158
贫困 158
预测 158
一股 157
众多 157
利 157
加上 157
天才 157
夫妻 157
娶 157
学会 157
安 157
履行 157
巴@@ 157
归@@ 157
怎么办 157
承受 157
插 157
时机 157
林 157
烂 157
熬夜 157
玩儿 157
盘 157
艰苦 157
那边 157
三天 156
中有 156
以下 156
信念 156
全世界 156
博物馆 156
原@@ 156
堆 156
大众 156
好奇 156
座 156
拳头 156
挑战 156
摆 156
氛围 156
求 156
诚实 156
一看 155
交通事故 155
从不 155
作出 155
冲@@ 155
当作 155
恨 155
手艺 155
招@@ 155
旁边 155
植物 155
民 155
清晰 155
漫长 155
灾难 155
皮@@ 155
蔓延 155
轻 155
阿@@ 155
集 155
一部分 154
他俩 154
传闻 154
土 154
增多 154
待 154
手法 154
据悉 154
极其 154
热闹 154
留 154
瞧 154
网上 154
请@@ 154
过度 154
道歉 154
高级 154
严厉 153
交给 153
体系 153
保障 153
冰@@ 153
勇敢 153
嘛 153
大学生 153
战术 153
护士 153
放松 153
此事 153
老实 153
肉@@ 153
背景 153
西 153
身子 153
软 153
追究 153
防@@ 153
主题 152
互联网 152
化@@ 152
合格 152
夫妇 152
宝贵 152
意 152
收益 152
概念 152
睡着 152
色彩 152
谨慎 152
酒@@ 152
阅读 152
预防 152
一致 151
做@@ 151
公共 151
分为 151
办事 151
多次 151
好看 151
快速 151
收藏 151
替 151
流泪 151
甜 151
生长 151
碰 151
祝贺 151
细@@ 151
羡慕 151
调节 151
迎接 151
骨头 151
事务 150
公平 150
冲 150
帮忙 150
成分 150
打击 150
断@@ 150
月份 150
正义 150
温暖 150
石@@ 150
两年 149
以便 149
公里 149
几次 149
出售 149
各地 149
套 149
实践 149
引进 149
推 149
时光 149
智慧 149
机@@ 149
活@@ 149
股票 149
艰难 149
装饰 149
趁 149
青春 149
一周 148
亲密 148
何必 148
共@@ 148
失业 148
就@@ 148
户 148
所有人 148
推进 148
提交 148
敲 148
葡萄 148
袜子 148
路@@ 148
这条 148
违反 148
阵地 148
难过 148
事物 147
以免 147
再也 147
凉 147
剩 147
升 147
发行 147
威胁 147
带有 147
民浩@@ 147
火车站 147
爬山 147
画@@ 147
组 147
解@@ 147
遥远 147
高速公路 147
公主 146
制@@ 146
各个 146
商 146
啤酒 146
大人 146
失踪 146
引@@ 146
引导 146
拿出 146
早@@ 146
知@@ 146
读者 146
走路 146
进攻 146
40 145
上学 145
之外 145
人群 145
任 145
传说 145
全体 145
劲 145
各位 145
周边 145
妥协 145
小偷 145
拍摄 145
换@@ 145
摸 145
撞 145
擅长 145
明明 145
是非 145
欺骗 145
段 145
沙发 145
没想到 145
牛@@ 145
生动 145
结@@ 145
综合 145
聊天 145
观看 145
评论 145
输 145
金融 145
在@@ 144
实 144
平均 144
思维 144
抢 144
报名 144
教@@ 144
方@@ 144
每@@ 144
淘汰 144
独自 144
猛烈 144
神话 144
脱 144
脱@@ 144
腰 144
舞蹈 144
藏 144
资格 144
赛 144
身边 144
释放 144
饼干 144
养成 143
博士 143
头上 143
小狗 143
情形 143
慢 143
支付 143
文字 143
求@@ 143
熟 143
特殊 143
背@@ 143
这幅 143
道理 143
阶层 143
免得 142
四 142
图 142
外交 142
建 142
异@@ 142
每到 142
疯狂 142
罗@@ 142
这事 142
风俗 142
份 141
共 141
关@@ 141
切 141
原谅 141
奖 141
家务 141
宾馆 141
忍耐 141
怪 141
恋爱 141
有个 141
燃烧 141
着急 141
约定 141
耀眼 141
袭击 141
资本 141
陆续 141
21 140
东 140
人气 140
代@@ 140
功夫 140
北@@ 140
听@@ 140
增@@ 140
尽力 140
惊@@ 140
承认 140
放进 140
故乡 140
架 140
注视 140
独@@ 140
电 140
苦@@ 140
街上 140
账 140
领先 140
上来 139
优先 139
倍 139
冷静 139
名牌 139
地面 139
小学 139
抽@@ 139
昨晚 139
演讲 139
现状 139
真实 139
移动 139
纪录 139
腐败 139
蛇 139
说出 139
边@@ 139
运行 139
道@@ 139
面料 139
传播 138
位于 138
全球 138
关闭 138
冻得 138
刚刚 138
南北 138
厂 138
大小 138
大规模 138
家具 138
州 138
情节 138
战胜 138
手里 138
投机 138
毛@@ 138
泡菜 138
浑身 138
清 138
炫耀 138
私@@ 138
窝 138
类型 138
经@@ 138
血 138
金钱 138
一段时间 137
一阵 137
多亏 137
夜@@ 137
学期 137
宝贝 137
平安 137
平等 137
幻想 137
抱怨 137
推翻 137
收集 137
整顿 137
斯 137
清除 137
温度 137
盛开 137
着@@ 137
秘书 137
筷子 137
耳@@ 137
融化 137
证实 137
词典 137
邮局 137
酸 137
阻碍 137
除 137
难免 137
首@@ 137
上课 136
乘客 136
关键 136
地图 136
少年 136
怀孕 136
愚蠢 136
散发 136
文明 136
朝@@ 136
条约 136
极@@ 136
构成 136
树@@ 136
森林 136
洗@@ 136
溜 136
生物 136
笑话 136
角 136
足以 136
转让 136
青瓦台 136
&apos; 135
一口 135
上司 135
不幸 135
不知不觉 135
修@@ 135
压迫 135
吹@@ 135
地下 135
已@@ 135
摆@@ 135
教材 135
用来 135
症 135
结合 135
街 135
补@@ 135
裁判 135
视频 135
解 135
运营 135
通知 135
面子 135
革命 135
乞丐 134
买@@ 134
品质 134
唯一 134
处罚 134
忙碌 134
恶化 134
房屋 134
执行 134
推荐 134
揉 134
携带 134
文化遗产 134
柔和 134
海边 134
烧 134
理 134
男@@ 134
背后 134
规律 134
证据 134
谈判 134
送@@ 134
长大 134
青@@ 134
地板 133
均 133
如同 133
婚姻 133
考 133
胖 133
脚@@ 133
讽刺 133
超@@ 133
道德 133
锻炼 133
阴谋 133
骄傲 133
骑 133
黑色 133
一层 132
一辆 132
以往 132
倾听 132
偏@@ 132
参@@ 132
征服 132
得以 132
抢@@ 132
挂@@ 132
排队 132
支配 132
敢 132
棉 132
欠 132
猪 132
百姓 132
秩序 132
罢工 132
记 132
阴@@ 132
两国 131
体现 131
依赖 131
准 131
凉快 131
含有 131
噪音 131
天天 131
媳妇 131
尔@@ 131
按@@ 131
林@@ 131
果然 131
泄露 131
缘故 131
谢谢 131
足 131
黑暗 131
一整天 130
一颗 130
不久 130
大门 130
尽@@ 130
指示 130
搭@@ 130
无辜 130
杯子 130
棒 130
毛巾 130
沉默 130
留@@ 130
相对 130
硬@@ 130
种子 130
穷 130
继承 130
翻译 130
自主 130
节约 130
让步 130
超级 130
辛苦 130
通 130
重大 130
长辈 130
严禁 129
中小企业 129
乐@@ 129
他家 129
会员 129
侮辱 129
保存 129
兵@@ 129
创作 129
受不了 129
向来 129
大声 129
定期 129
屋子 129
开玩笑 129
心态 129
忽视 129
想象 129
战士 129
每当 129
灵活 129
盛 129
脂肪 129
自从 129
舞 129
越是 129
醒 129
鲜明 129
乘 128
冒险 128
平常 128
支撑 128
星星 128
月@@ 128
火灾 128
签署 128
耍 128
视 128
轮 128
远@@ 128
下属 127
会长 127
信赖 127
向@@ 127
寂寞 127
庞大 127
强制 127
总理 127
恶心 127
感激 127
欲 127
点心 127
理@@ 127
码头 127
第一@@ 127
职务 127
走进 127
领土 127
19@@ 126
2@@ 126
一段 126
义 126
传 126
凄凉 126
出国 126
切@@ 126
务必 126
占领 126
却是 126
名单 126
哇 126
尔 126
极 126
歪曲 126
没能 126
照@@ 126
牛肉 126
男 126
病毒 126
短@@ 126
礼 126
立 126
职 126
追@@ 126
零 126
项 126
龙@@ 126
业绩 125
五 125
人质 125
农@@ 125
压 125
商@@ 125
培训 125
大多数 125
大米 125
女孩 125
常识 125
当选 125
必@@ 125
悲伤 125
最佳 125
木 125
本身 125
李 125
浪漫 125
漏 125
灰 125
痛 125
知 125
签证 125
船@@ 125
象征 125
达成 125
酱油 125
...... 124
3@@ 124
云@@ 124
亦 124
侵略 124
假装 124
偏见 124
偶像 124
受欢迎 124
只会 124
可靠 124
场所 124
坚强 124
尺寸 124
建筑物 124
成人 124
拿@@ 124
挤满 124
散 124
春 124
武装 124
海洋 124
游@@ 124
眼镜 124
缺少 124
衣 124
视为 124
讲究 124
软@@ 124
迎来 124
这句 124
60 123
一辈子 123
一项 123
不太 123
个别 123
主人公 123
书法 123
供应 123
兴 123
判决 123
半 123
哦 123
嘴里 123
始终 123
害羞 123
家长 123
射击 123
弄@@ 123
忍受 123
捡 123
救 123
查@@ 123
段时间 123
气味 123
法国 123
细致 123
耐心 123
自身 123
轻易 123
金属 123
陪 123
音@@ 123
领 123
中断 122
信仰 122
值 122
兴趣 122
冒 122
剂 122
剧 122
参考 122
口袋 122
天下 122
客观 122
宽@@ 122
指望 122
有没有 122
样 122
步@@ 122
泡 122
灭亡 122
特 122
猜 122
登上 122
登山 122
短信 122
砸 122
繁荣 122
药@@ 122
观@@ 122
退休 122
黄 122
一座 121
不见 121
乐 121
争论 121
二十@@ 121
例外 121
卷 121
夏季 121
将军 121
托 121
果实 121
模糊 121
欺负 121
没法 121
热爱 121
疏忽 121
突出 121
精力 121
能源 121
计算机 121
走向 121
跑步 121
香@@ 121
25 120
不必 120
不成 120
争夺 120
华丽 120
山顶 120
干什么 120
年度 120
形态 120
探索 120
改正 120
无知 120
杀@@ 120
神经 120
福利 120
美术 120
隐瞒 120
一道 119
供 119
依据 119
做法 119
前来 119
善@@ 119
回去 119
声明 119
外出 119
平凡 119
弹性 119
强大 119
录取 119
愤怒 119
掩盖 119
政党 119
查 119
残@@ 119
比例 119
江@@ 119
牙 119
物价 119
男性 119
碎 119
空中 119
第一个 119
臭 119
西方 119
超市 119
遭 119
钱包 119
饭菜 119
做生意 118
写@@ 118
加班 118
去@@ 118
咳嗽 118
客@@ 118
小组 118
床上 118
归 118
德国 118
掏出 118
每月 118
江 118
河 118
狗@@ 118
珍珠 118
看书 118
绿色 118
网@@ 118
虫 118
规则 118
财政 118
运 118
这份 118
雪@@ 118
一杯 117
两位 117
为主 117
刀@@ 117
同情 117
展@@ 117
扩散 117
找@@ 117
拿到 117
梨 117
歌曲 117
武@@ 117
沙@@ 117
温和 117
物@@ 117
目 117
神奇 117
补 117
选@@ 117
锅 117
16 116
体制 116
唱@@ 116
喜@@ 116
多个 116
巧妙 116
延续 116
形 116
心眼儿 116
感@@ 116
手指 116
抗@@ 116
拖延 116
有助于 116
法官 116
法案 116
洪水 116
爽快 116
笔记本 116
负责人 116
过得 116
针 116
风险 116
万元 115
世 115
休假 115
做成 115
字@@ 115
德@@ 115
性感 115
抹 115
柔软 115
树枝 115
游 115
牌 115
笼罩 115
紧紧 115
荣誉 115
适当 115
遗产 115
阻止 115
不可@@ 114
不肯 114
作风 114
军人 114
前进 114
卓越 114
哪个 114
夜晚 114
大厦 114
帐篷 114
弱点 114
微@@ 114
急忙 114
感谢 114
拍@@ 114
拧 114
斯@@ 114
星 114
洗澡 114
清醒 114
盘子 114
竟 114
笔@@ 114
箱 114
线索 114
绿@@ 114
而言 114
脑 114
赢得 114
赶@@ 114
起到 114
门前 114
随时 114
隔壁 114
零@@ 114
面积 114
一碗 113
一趟 113
从此 113
代 113
体力 113
势 113
十足 113
唱歌 113
圆@@ 113
外界 113
头脑 113
奇@@ 113
完@@ 113
居住 113
展 113
床 113
扣 113
改 113
故障 113
权@@ 113
杯 113
模样 113
民俊 113
河@@ 113
电子 113
科 113
竞争力 113
自动 113
节@@ 113
访问 113
还会 113
通讯 113
震惊 113
页 113
首脑 113
骨 113
一带 112
不出 112
人格 112
小区 112
尾 112
庆祝 112
指甲 112
捧 112
提问 112
支@@ 112
新郎 112
杂@@ 112
村庄 112
泡沫 112
现@@ 112
算是 112
考上 112
能量 112
舒适 112
营业 112
虚假 112
认定 112
象 112
顺@@ 112
领@@ 112
额 112
13 111
一根 111
不得了 111
不顾 111
人为 111
伤口 111
刊登 111
前提 111
原本 111
寄 111
忍不住 111
提醒 111
时尚 111
松@@ 111
消耗 111
烟@@ 111
烤 111
然@@ 111
纸@@ 111
统计 111
股 111
薪水 111
表@@ 111
读@@ 111
谣言 111
赞成 111
通信 111
那座 111
鬼 111
鸡 111
1@@ 110
上次 110
义@@ 110
争@@ 110
仓库 110
众人 110
修 110
债券 110
光明 110
克 110
台@@ 110
后果 110
大多 110
她们 110
学费 110
巧克力 110
形势 110
政界 110
服务员 110
树木 110
气温 110
沉重 110
演 110
热潮 110
离@@ 110
薄@@ 110
街头 110
论@@ 110
该@@ 110
近@@ 110
这台 110
那条 110
长官 110
馒头 110
一套 109
不动 109
人权 109
冬季 109
学问 109
意@@ 109
本月 109
民众 109
气势 109
气质 109
永@@ 109
浓 109
版 109
申报 109
箱子 109
终点 109
绿 109
脏 109
脸色 109
若@@ 109
茶@@ 109
这本 109
这点 109
远处 109
迷人 109
酒吧 109
阵容 109
题材 109
一步 108
一贯 108
人体 108
人民币 108
代替 108
俄罗斯 108
修建 108
倾斜 108
其它 108
卫生 108
守@@ 108
寺庙 108
展望 108
差异 108
往@@ 108
懂得 108
我方 108
报社 108
持 108
摩擦 108
有趣 108
流氓 108
灯光 108
稿 108
粉 108
能干 108
蓝色 108
虚@@ 108
这人 108
透 108
酒店 108
韩美 108
上任 107
交换 107
今晚 107
任何人 107
使人 107
信封 107
偷@@ 107
农产品 107
冰 107
包含 107
发射 107
发放 107
喜爱 107
大地 107
实验 107
底@@ 107
快要 107
思@@ 107
患 107
护照 107
攀登 107
整体 107
民主主义 107
浅 107
看出 107
租 107
粗@@ 107
能否 107
自我 107
野@@ 107
马拉松 107
19 106
一大 106
争议 106
五个 106
产@@ 106
伊拉克 106
停滞 106
兴@@ 106
升@@ 106
发抖 106
口气 106
告别 106
周 106
咬 106
密切 106
左@@ 106
幅 106
打招呼 106
摄影 106
政@@ 106
检察机关 106
没关系 106
油漆 106
深夜 106
矮 106
良心 106
蓝 106
试@@ 106
这张 106
那家 106
那时 106
防守 106
集会 106
韩@@ 106
食@@ 106
一眼 105
世@@ 105
买卖 105
伟大 105
使@@ 105
党@@ 105
再说 105
减 105
基金 105
大楼 105
幽默 105
惋惜 105
找出 105
摩托车 105
无数 105
束缚 105
正规 105
涉及 105
球@@ 105
称@@ 105
穷@@ 105
赠送 105
轻视 105
送给 105
集合 105
青 105
预期 105
两次 104
事先 104
冷淡 104
出席 104
划 104
单 104
友好 104
大事 104
大使馆 104
寄@@ 104
少女 104
开车 104
我用 104
投降 104
斗@@ 104
施工 104
树上 104
栽培 104
状 104
玉@@ 104
相处 104
结 104
美好 104
英@@ 104
蛋糕 104
蜜蜂 104
起初 104
途径 104
障碍 104
黄色 104
70 103
不怕 103
两名 103
优势 103
何时 103
借@@ 103
即便 103
呈 103
周@@ 103
嘱咐 103
圆 103
姓 103
尚未 103
居 103
抓@@ 103
护@@ 103
接待 103
操场上 103
料 103
暴雨 103
清理 103
真让人 103
终@@ 103
编辑 103
英雄 103
谈@@ 103
轮胎 103
轻轻 103
金牌 103
须 103
驻 103
鼓励 103
一头 102
一身 102
下次 102
之情 102
任@@ 102
何@@ 102
假期 102
公交车 102
减@@ 102
出台 102
只不过 102
四处 102
将@@ 102
并非 102
意外 102
愿 102
战场 102
挖掘 102
撒谎 102
救@@ 102
散@@ 102
散发出 102
果 102
狭窄 102
端 102
编@@ 102
讲座 102
讲话 102
评估 102
谦虚 102
质 102
运@@ 102
退@@ 102
逃跑 102
闻 102
伤@@ 101
做到 101
刻苦 101
华@@ 101
合法 101
国会议员 101
弹 101
心思 101
拖@@ 101
招 101
挑@@ 101
挨@@ 101
景 101
曲子 101
池塘 101
特征 101
由@@ 101
疲倦 101
禁@@ 101
福 101
缠 101
要素 101
送到 101
闪烁 101
陆地 101
； 101
200 100
三十@@ 100
下达 100
为此 100
二人 100
人间 100
光滑 100
克@@ 100
具 100
决不 100
别说 100
卡@@ 100
同胞 100
大选 100
夫 100
完美 100
寒冷 100
屋 100
弹@@ 100
怀念 100
感动 100
投手 100
新生 100
无限 100
日常 100
枕头 100
校 100
沙滩 100
温@@ 100
猴子 100
的确 100
神秘 100
穿@@ 100
肥 100
脸@@ 100
观 100
说法 100
负 100
软件 100
醋 100
银@@ 100
销 100
闲@@ 100
零食 100
香港 100
龙 100
东方 99
中文 99
主流 99
创@@ 99
前往 99
句 99
吵 99
味儿 99
增添 99
学院 99
强迫 99
扯 99
抬 99
接连 99
昆虫 99
曲 99
本人 99
沉@@ 99
爆发 99
砖 99
经典 99
菜@@ 99
调料 99
走廊 99
车站 99
露 99
500 98
: 98
一篇 98
不让 98
与其 98
为期 98
假如 98
共有 98
几句 98
功@@ 98
发布 98
商场 98
堂 98
小家伙 98
平原 98
店铺 98
操场 98
新年 98
旋律 98
日常生活 98
更为 98
活泼 98
签 98
系列 98
老是 98
解决问题 98
论坛 98
误解 98
豪华 98
走私 98
配 98
闯 98
80 97
下班 97
为难 97
也就是说 97
任意 97
体验 97
便@@ 97
原理 97
发烧 97
嗓子 97
嘴@@ 97
均匀 97
垂@@ 97
塌 97
天堂 97
嫌疑人 97
它们 97
守 97
寒@@ 97
岛屿 97
席 97
悄悄 97
房@@ 97
探@@ 97
描绘 97
插@@ 97
操心 97
效率 97
暗 97
海鲜 97
群@@ 97
著作 97
讲@@ 97
货@@ 97
退 97
逻辑 97
门口 97
闹@@ 97
零件 97
鸡@@ 97
18 96
不怎么 96
之下 96
伞 96
别看 96
北 96
区域 96
围绕 96
地里 96
太多 96
害 96
师傅 96
很强 96
承诺 96
排斥 96
摔倒 96
晚@@ 96
朴素 96
正面 96
治理 96
湿 96
熄灭 96
理所当然 96
瓶子 96
电视台 96
确切 96
篇 96
粗 96
航班 96
获 96
装置 96
觉 96
这片 96
遗憾 96
釜山 96
长江 96
一流 95
不来 95
但@@ 95
冤枉 95
发达国家 95
吃惊 95
哪@@ 95
国政 95
图@@ 95
天然 95
妥当 95
学术 95
客气 95
恰当 95
执着 95
承@@ 95
挽救 95
损坏 95
援助 95
放入 95
放到 95
早已 95
村民 95
水泥 95
海上 95
港 95
画面 95
秒 95
积@@ 95
竞选 95
终究 95
落实 95
虐待 95
视力 95
语@@ 95
败@@ 95
这辆 95
那家伙 95
雾 95
24 94
一本 94
不合理 94
出示 94
动摇 94
压制 94
埋怨 94
塔 94
存@@ 94
届 94
帝国主义 94
扎@@ 94
找个 94
折腾 94
指标 94
撒 94
春节 94
标 94
气息 94
球迷 94
生效 94
白菜 94
福@@ 94
签订 94
管@@ 94
练 94
营养 94
赞助 94
赶 94
过后 94
连接 94
那名 94
铁 94
问@@ 94
雨@@ 94
顶@@ 94
顿 94
骨@@ 94
麻@@ 94
一人 93
世上 93
丝 93
亲切 93
债 93
公正 93
出于 93
到@@ 93
制成 93
制服 93
刺 93
四个 93
图案 93
娃娃 93
帮@@ 93
干旱 93
当心 93
性命 93
抗议 93
挤 93
摔 93
枪@@ 93
校@@ 93
毒 93
洋@@ 93
浮@@ 93
清澈 93
滑@@ 93
理念 93
留在 93
疏远 93
码 93
裤 93
赌博 93
起飞 93
一方 92
上下 92
习俗 92
休闲 92
佛教 92
作战 92
典型 92
册 92
写作 92
分开 92
劳@@ 92
卫星 92
厌恶 92
双 92
大方 92
审查 92
广@@ 92
很漂亮 92
律师 92
把手 92
文艺 92
是@@ 92
浅@@ 92
淡 92
潮湿 92
略 92
礼节 92
素质 92
细菌 92
群 92
足@@ 92
踢 92
遗@@ 92
错@@ 92
隐@@ 92
预@@ 92
高度 92
一群 91
不景气 91
也好 91
修复 91
助理 91
医疗 91
吃亏 91
吊@@ 91
听众 91
吸收 91
咨询 91
品牌 91
商业 91
国际@@ 91
多名 91
夹 91
室内 91
密@@ 91
建@@ 91
开会 91
引擎 91
打架 91
拼@@ 91
授予 91
掩饰 91
时要 91
核@@ 91
母 91
汤@@ 91
沿着 91
泪水 91
活着 91
淹没 91
现 91
电梯 91
疼痛 91
监狱 91
目@@ 91
盼望 91
第二 91
艺人 91
课题 91
达@@ 91
运用 91
这笔 91
钢铁 91
随@@ 91
露@@ 91
领袖 91
黄河 91
1000 90
一一 90
不愿 90
人工 90
人选 90
伙伴 90
全力以赴 90
初 90
前后 90
加工 90
动力 90
勤奋 90
包装 90
呼@@ 90
咬@@ 90
回国 90
培育 90
士 90
女朋友 90
委托 90
封 90
已有 90
慢@@ 90
涨 90
生态 90
男孩 90
科学家 90
米@@ 90
细 90
绝@@ 90
胡@@ 90
衣@@ 90
误差 90
谋求 90
趟 90
饼 90
一口气 89
临@@ 89
临近 89
仅仅 89
保留 89
保管 89
兑换 89
入口 89
农 89
凉爽 89
叫@@ 89
司法 89
在外 89
增强 89
夕阳 89
奢侈 89
威力 89
尊严 89
怪@@ 89
悲@@ 89
想着 89
惹 89
手续 89
搬家 89
本领 89
极为 89
毕业生 89
现代人 89
留神 89
白天 89
盛行 89
端@@ 89
绅士 89
职工 89
股市 89
蚂蚁 89
视野 89
设 89
跳@@ 89
近代 89
钱@@ 89
飘@@ 89
一味 88
付 88
以外 88
作弊 88
俗话说 88
入学 88
凭借 88
刺@@ 88
加以 88
南 88
可见 88
坦白 88
塞@@ 88
处@@ 88
女士 88
好不容易 88
密码 88
忧郁 88
拔@@ 88
提升 88
方针 88
无论是 88
星@@ 88
本届 88
根@@ 88
模式 88
欣赏 88
殖民地 88
消@@ 88
玩具 88
相似 88
而成 88
联络 88
资产 88
踏实 88
造型 88
酸@@ 88
额头 88
一圈 87
不论 87
丑 87
两家 87
亚@@ 87
今日 87
公路 87
再见 87
创业 87
勇气 87
半个 87
双胞胎 87
善 87
嫁 87
家族 87
容纳 87
师@@ 87
待@@ 87
抄 87
抱歉 87
挑 87
晴朗 87
格@@ 87
汉江 87
清洁 87
滞留 87
狠狠 87
盘@@ 87
种@@ 87
章 87
等@@ 87
绝不 87
胡同 87
自杀 87
订购 87
词汇 87
试 87
蹲 87
轮船 87
这话 87
领导人 87
风吹 87
一刻 86
一对 86
切实 86
单调 86
听见 86
吸烟 86
命@@ 86
品尝 86
哈@@ 86
坚定 86
多数 86
天然气 86
太空 86
延伸 86
当成 86
影 86
打电话 86
托@@ 86
扶@@ 86
揍 86
日记 86
治 86
照相机 86
牙@@ 86
画家 86
痕迹 86
盛@@ 86
着想 86
祈祷 86
类似 86
细胞 86
细节 86
考@@ 86
走上 86
轮流 86
过日子 86
连衣裙 86
通用 86
钻石 86
馆 86
17 85
300 85
一夜 85
一批 85
上个月 85
不要紧 85
两倍 85
他会 85
启动 85
垫 85
城@@ 85
处境 85
奉@@ 85
妈 85
完毕 85
导@@ 85
延长 85
心脏 85
恩@@ 85
抑制 85
抱@@ 85
招待 85
指导 85
支 85
教学 85
散布 85
旗帜 85
明亮 85
暴@@ 85
有害 85
有时候 85
模范 85
殴打 85
毒@@ 85
洗手间 85
演技 85
生育 85
礼@@ 85
秀 85
窗外 85
缺@@ 85
联赛 85
聚@@ 85
赶到 85
除@@ 85
隧道 85
集@@ 85
预料 85
上市 84
上网 84
不去 84
事实上 84
互@@ 84
付款 84
信号 84
偷 84
光临 84
分成 84
医学 84
印@@ 84
厕所 84
原 84
告@@ 84
喜 84
喝@@ 84
在意 84
大夫 84
夸张 84
小子 84
废除 84
心血 84
恶 84
捏 84
敌 84
敬@@ 84
时而 84
显著 84
期@@ 84
末 84
水分 84
治@@ 84
演绎 84
火柴 84
灭 84
烧@@ 84
瘫痪 84
登@@ 84
皇帝 84
眼色 84
笑@@ 84
组合 84
耍@@ 84
花费 84
董事长 84
表扬 84
观众们 84
记@@ 84
诞生 84
载 84
降 84
一棵 83
下个月 83
严@@ 83
之类 83
会场 83
会计 83
六 83
分子 83
划@@ 83
可谓 83
咸 83
备@@ 83
多余 83
委员长 83
威@@ 83
悲观 83
投 83
抢劫 83
拌 83
景气 83
暴露 83
更换 83
最为 83
服@@ 83
板@@ 83
桌上 83
汉 83
注射 83
牵制 83
监督 83
缝 83
耽误 83
苗条 83
药物 83
诈骗 83
说服 83
请问 83
诸位 83
运输 83
逐年 83
造@@ 83
错过 83
镇压 83
长度 83
4@@ 82
90 82
不开 82
久@@ 82
之内 82
了@@ 82
仗 82
传达 82
体重 82
例子 82
倒霉 82
公 82
准时 82
出入 82
出身 82
十个 82
单品 82
友 82
发起 82
哲学 82
器官 82
地向 82
头儿 82
好转 82
山脉 82
工夫 82
市@@ 82
希贞@@ 82
庆典 82
废话 82
建造 82
意图 82
懒惰 82
所说 82
扬@@ 82
故@@ 82
极大 82
沾 82
浓厚 82
滚 82
环境污染 82
用力 82
竖 82
线@@ 82
美军 82
股价 82
背上 82
胜@@ 82
臭@@ 82
色@@ 82
足够 82
这首 82
韩国语 82
饱 82
首 82
香蕉 82
高丽 82
万分 81
不已 81
不起 81
举动 81
人性 81
债务 81
偏僻 81
全家 81
八 81
净 81
办@@ 81
原先 81
发明 81
古典 81
哀@@ 81
图书 81
坐下 81
委@@ 81
宝宝 81
宴会 81
尖 81
居@@ 81
广大 81
性质 81
房价 81
才@@ 81
拆 81
挡 81
散文 81
昼夜 81
景象 81
爱心 81
现有 81
眉毛 81
祖父 81
秋 81
联合国 81
获胜 81
虎@@ 81
袋 81
被@@ 81
警告 81
语法 81
路边 81
车厢 81
近期 81
速 81
金额 81
面试 81
鞋子 81
飘 81
一代 80
一脸 80
上当 80
丝@@ 80
乎 80
人力 80
付出 80
供@@ 80
倒闭 80
偏偏 80
公斤 80
冲突 80
制止 80
前景 80
双手 80
在内 80
地道 80
嫩 80
完善 80
官员 80
寻@@ 80
小心翼翼 80
差别 80
年前 80
恐怖 80
戒 80
振兴 80
搂 80
料理 80
新型 80
旋转 80
无人 80
显@@ 80
有事 80
松 80
泥 80
涌 80
牵@@ 80
环保 80
盯 80
省@@ 80
确信 80
聚在一起 80
胜 80
视@@ 80
试验 80
话剧 80
谈话 80
赔偿 80
迷 80
选出 80
采@@ 80
防 80
陶瓷 80
不上 79
不便 79
不及格 79
不好意思 79
刻 79
南方 79
印 79
叶 79
品种 79
围@@ 79
国家队 79
土壤 79
基 79
夫妻俩 79
孤独 79
寒 79
尼@@ 79
志敏 79
披 79
搜查 79
摇@@ 79
攻@@ 79
整 79
施@@ 79
晾 79
有利于 79
有力 79
有意思 79
来不及 79
标@@ 79
核 79
水面 79
液体 79
玩@@ 79
用作 79
病情 79
看望 79
砍 79
神圣 79
祭 79
网民 79
联@@ 79
肌肤 79
评 79
轮廓 79
适用 79
餐 79
鼓@@ 79
鼓掌 79
2000 78
T恤 78
万名 78
不该 78
乌@@ 78
乒乓球 78
九 78
亲戚 78
凑@@ 78
初期 78
向往 78
坡 78
套@@ 78
宿舍 78
富 78
富@@ 78
小小的 78
属 78
投资者 78
挖 78
挽回 78
排列 78
放下 78
旗 78
智@@ 78
朴@@ 78
检察官 78
欢@@ 78
法庭 78
波@@ 78
济州岛 78
爆炸 78
痛@@ 78
社会@@ 78
社长 78
科@@ 78
移民 78
笨 78
简@@ 78
篮球 78
脚步 78
虽说 78
行驶 78
走出 78
转向 78
转移 78
遍 78
配@@ 78
震@@ 78
韩国队 78
飘扬 78
默默地 78
齐心协力 78
一家人 77
万人 77
上游 77
下周 77
之所以 77
买来 77
予以 77
产量 77
亮@@ 77
侄子 77
击 77
困 77
基地 77
多人 77
好事 77
孤@@ 77
学历 77
封@@ 77
小孩儿 77
山坡 77
差@@ 77
当年 77
彩虹 77
担忧 77
拆@@ 77
持有 77
指挥 77
挑衅 77
挤@@ 77
普通话 77
极了 77
潮 77
猛@@ 77
电池 77
相当于 77
眉@@ 77
磨@@ 77
稍 77
缴纳 77
缺 77
认@@ 77
诗@@ 77
说谎 77
谅解 77
费@@ 77
雷@@ 77
0 76
五年 76
今@@ 76
代表性 76
令人@@ 76
余 76
停车 76
儿女 76
出众 76
剧场 76
加油站 76
千年 76
即@@ 76
历代 76
吉@@ 76
含@@ 76
四周 76
墙壁 76
大陆 76
婚@@ 76
学说 76
富有 76
局势 76
屋顶 76
平衡 76
抵抗 76
拖 76
持@@ 76
掌声 76
探讨 76
擦@@ 76
整齐 76
洒 76
混@@ 76
渔民 76
渠道 76
灵@@ 76
特意 76
看不到 76
确立 76
祝 76
紧@@ 76
自治 76
节奏 76
苦恼 76
调解 76
超越 76
过敏 76
部位 76
野心 76
陈@@ 76
降@@ 76
14 75
上衣 75
举@@ 75
事例 75
亿美元 75
什么样 75
休@@ 75
冲击 75
冷却 75
出乎意料 75
分数 75
分裂 75
刮 75
刷 75
加快 75
半岛 75
协定 75
同一 75
吐 75
吸@@ 75
圣@@ 75
地带 75
年级 75
并@@ 75
幼儿园 75
应用 75
形@@ 75
征@@ 75
得出 75
心疼 75
扑@@ 75
摸@@ 75
教科书 75
杆 75
果@@ 75
查明 75
没用 75
滚@@ 75
特色 75
睡@@ 75
称呼 75
税金 75
笑容 75
粉丝 75
纠纷 75
继 75
编 75
耳 75
良@@ 75
解除 75
诗人 75
误@@ 75
转变 75
进展 75
逗 75
造 75
限度 75
难题 75
预定 75
不利 74
全是 74
列 74
化妆品 74
午饭 74
发动 74
周密 74
地步 74
均衡 74
境 74
壮观 74
复习 74
夜间 74
天赋 74
夹@@ 74
对立 74
崭新 74
恋人 74
愿望 74
挑选 74
挺@@ 74
改造 74
朝野 74
期限 74
本质 74
案@@ 74
每周 74
油腻 74
治安 74
浮现 74
海水 74
深深 74
热心 74
班长 74
登 74
管制 74
聚 74
肥@@ 74
贵@@ 74
量@@ 74
铁路 74
院长 74
首要 74
鲜@@ 74
麦@@ 74
5@@ 73
严密 73
个@@ 73
中国@@ 73
为何 73
主动 73
传染 73
伸 73
元@@ 73
凉@@ 73
劳动者 73
十 73
千万别 73
名义 73
商人 73
夏@@ 73
奴隶 73
就行了 73
尾巴 73
展现出 73
开设 73
撒@@ 73
攒 73
故 73
暖@@ 73
更大 73
有利 73
有钱 73
术 73
架子 73
检 73
歌@@ 73
河水 73
牙齿 73
用品 73
用户 73
目的地 73
眨 73
碰@@ 73
祭祀 73
童话 73
缩@@ 73
致 73
行事 73
计 73
诉讼 73
词语 73
赚钱 73
跑@@ 73
近年来 73
进军 73
郡 73
酱 73
雨水 73
静@@ 73
韩日 73
三十 72
三星 72
不太好 72
业界 72
严峻 72
中学 72
人心 72
从来不 72
似 72
倾@@ 72
健身 72
全力 72
冻 72
加油 72
即可 72
反抗 72
告 72
困境 72
外貌 72
夫@@ 72
夫人 72
奋斗 72
尽情 72
市长 72
建成 72
彩@@ 72
忍 72
扶 72
拜托 72
排放 72
整整 72
新颖 72
无偿 72
无论如何 72
易@@ 72
晚饭 72
暖 72
来临 72
来往 72
染 72
正经 72
港口 72
源 72
特有 72
犯@@ 72
王朝 72
玫瑰 72
生疏 72
盒子 72
研究所 72
碰到 72
经商 72
美妙 72
肥皂 72
萝卜 72
蒙@@ 72
贪婪 72
赛场 72
越过 72
这套 72
隐藏 72
一笔 71
个儿 71
亿 71
代表团 71
价@@ 71
元素 71
冒@@ 71
副@@ 71
勾@@ 71
发火 71
天上 71
宝@@ 71
家中 71
屋子里 71
巴 71
当初 71
录 71
总会 71
戏@@ 71
扎实 71
扣@@ 71
摘 71
政治@@ 71
松树 71
某@@ 71
歧视 71
油价 71
流利 71
演习 71
狂@@ 71
盖@@ 71
相差 71
秋@@ 71
粉@@ 71
结算 71
绘画 71
老年人 71
背着 71
茂盛 71
荣幸 71
西红柿 71
规矩 71
请教 71
赶上 71
起伏 71
路线 71
轻轻地 71
透明 71
逮捕 71
钉 71
随 71
高尔夫 71
鼓 71
齐全 71
一百@@ 70
丝毫 70
主办 70
主权 70
乡 70
乡下 70
俗 70
修养 70
压抑 70
台湾 70
够@@ 70
大韩民国 70
夺冠 70
宝石 70
容@@ 70
小姐 70
巨@@ 70
平民 70
录音 70
形状 70
恐惧 70
戒指 70
或是 70
打着 70
提起 70
政 70
斗 70
新人 70
某些 70
树林 70
桥梁 70
正直 70
水灾 70
灯@@ 70
特性 70
疏@@ 70
盘旋 70
种类 70
科长 70
精 70
终身 70
缩小 70
行人 70
解开 70
语气 70
货币 70
贪污 70
走过 70
起诉 70
输@@ 70
运转 70
避开 70
邻居家 70
钟 70
阿姨 70
韩文 70
鬼@@ 70
... 69
a@@ 69
一双 69
世代 69
从未 69
企业家 69
依@@ 69
冬 69
决不能 69
分明 69
创意 69
劳 69
医@@ 69
原始 69
号@@ 69
场@@ 69
外汇 69
尝 69
川 69
开水 69
强化 69
感染 69
手上 69
抵达 69
新建 69
晴 69
果汁 69
楼@@ 69
歪 69
汉城 69
活力 69
流下 69
渴望 69
漏@@ 69
潮流 69
甚 69
田 69
癌症 69
穿过 69
简历 69
纪律 69
至@@ 69
警@@ 69
身高 69
运动会 69
这边 69
述 69
钱财 69
闻名 69
零钱 69
靠近 69
饲养 69
9@@ 68
上述 68
不久前 68
不时 68
严肃 68
乐器 68
交通@@ 68
仁@@ 68
似地 68
体内 68
停留 68
冬@@ 68
准@@ 68
凡事 68
分布 68
剪@@ 68
功 68
发送 68
叫做 68
右@@ 68
喇叭 68
园 68
埋 68
备 68
太大 68
娘 68
客户 68
展览会 68
开幕 68
彩 68
得分 68
忠@@ 68
态 68
息 68
慌 68
截止 68
手脚 68
抬@@ 68
抽 68
损害 68
搞@@ 68
摊 68
收获 68
旅客 68
时节 68
智能手机 68
来得及 68
格 68
桥@@ 68
照耀 68
燃料 68
猜@@ 68
率领 68
瓶 68
百 68
瞎 68
磨 68
算@@ 68
约束 68
线条 68
茫然 68
莫名其妙 68
衰退 68
装修 68
言行 68
警惕 68
议会 68
财@@ 68
财富 68
车祸 68
迄今为止 68
追加 68
逃 68
透@@ 68
锅里 68
阳@@ 68
附@@ 68
隐约 68
三次 67
乡@@ 67
优惠 67
保 67
保守 67
催 67
其次 67
几 67
向前 67
外语 67
外部 67
大街 67
夹克 67
娱乐 67
学位 67
射 67
年底 67
度@@ 67
忠实 67
快点 67
怀 67
把@@ 67
捐款 67
排名 67
摔跤 67
无关 67
无视 67
昏@@ 67
智力 67
查看 67
沉 67
渗透 67
灿烂 67
物体 67
窗 67
笔记本电脑 67
第一名 67
组@@ 67
羊 67
腰@@ 67
萧条 67
虽@@ 67
配备 67
配送 67
钉子 67
随之 67
27 66
丧@@ 66
争先恐后 66
事迹 66
体会 66
偷偷 66
击球 66
剪刀 66
劝@@ 66
匆忙 66
区分 66
喷@@ 66
塑造 66
填@@ 66
家属 66
开幕式 66
弥漫 66
忍@@ 66
总算 66
情感 66
才行 66
打扰 66
扭@@ 66
敌@@ 66
本事 66
枝@@ 66
某个 66
检察 66
歌声 66
涂抹 66
瀑布 66
炮 66
焦@@ 66
熊 66
熨 66
略@@ 66
盒 66
看不起 66
窗口 66
累@@ 66
绳 66
老公 66
胎 66
脑@@ 66
船只 66
艺术家 66
莫@@ 66
获取 66
藏@@ 66
虎 66
谋@@ 66
贤@@ 66
过多 66
遵循 66
那本书 66
野蛮 66
闷 66
除非 66
顽强 66
马路 66
齐 66
不良 65
业@@ 65
两只 65
举起 65
之心 65
书店 65
人人 65
优美 65
佛@@ 65
勺子 65
升起 65
喘 65
四肢 65
堵 65
塞 65
壁 65
复印 65
大自然 65
好几@@ 65
少数 65
岗位 65
弯 65
很长 65
惊讶 65
戴上 65
拜 65
挖@@ 65
挥@@ 65
换成 65
提拔 65
提示 65
操作 65
敲@@ 65
斤 65
民生 65
沙子 65
没事 65
滋润 65
煤炭 65
犬 65
班@@ 65
眼里 65
示意 65
种种 65
程 65
竹@@ 65
第二@@ 65
苗 65
蜡烛 65
行使 65
装满 65
计@@ 65
订 65
说实话 65
贫穷 65
路面 65
躲 65
轮@@ 65
迷@@ 65
逃@@ 65
逛 65
镜 65
顺 65
飞行 65
餐馆 65
黑板 65
e@@ 64
o@@ 64
不下 64
不吃 64
主任 64
事宜 64
亏 64
众@@ 64
优@@ 64
传出 64
伴随 64
例 64
信用 64
借钱 64
切成 64
列举 64
利害关系 64
厘米 64
厚@@ 64
各种各样 64
君 64
否认 64
吨 64
呈现 64
嗓音 64
回头 64
圆满 64
垃圾桶 64
大批 64
大雨 64
奖学金 64
存款 64
宁可 64
安全@@ 64
宠物 64
宴 64
屈服 64
己 64
当前 64
念@@ 64
怎能 64
总结 64
批 64
政治家 64
最新 64
本国 64
极度 64
柜台 64
止@@ 64
残酷 64
母@@ 64
氏 64
汁 64
渴 64
源泉 64
灵感 64
狼 64
理性 64
看待 64
祸 64
第三@@ 64
等等 64
精心 64
精神@@ 64
纳@@ 64
纹 64
络绎不绝 64
绝 64
网球 64
致使 64
袭 64
装作 64
西服 64
询问 64
赤@@ 64
车子 64
载@@ 64
辆 64
铜 64
闻@@ 64
队@@ 64
降落 64
雨季 64
题@@ 64
饱@@ 64
齐@@ 64
28 63
P@@ 63
一支 63
上调 63
中立 63
主管 63
乳@@ 63
以此 63
催@@ 63
全家人 63
冻@@ 63
刊 63
前方 63
副作用 63
呈现出 63
哼 63
土豆 63
处处 63
大衣 63
失 63
婚 63
安保 63
容 63
容貌 63
寻求 63
导游 63
局长 63
帽 63
干涉 63
幼稚 63
广阔 63
彩票 63
微不足道 63
心头 63
思 63
急剧 63
戏剧 63
我来 63
戴着 63
房东 63
找回 63
招呼 63
挑剔 63
提到 63
搬@@ 63
操 63
敏捷 63
数额 63
曲折 63
机械 63
柿子 63
校园 63
概括 63
武力 63
歪@@ 63
毁 63
汉@@ 63
消防 63
清新 63
琢磨 63
生锈 63
监视 63
相机 63
示范 63
糕 63
素@@ 63
繁@@ 63
维@@ 63
蓝@@ 63
观光 63
购 63
赛季 63
超出 63
逃避 63
部@@ 63
钢琴 63
锁 63
闭@@ 63
问候 63
非洲 63
音乐@@ 63
食用 63
高层 63
鲜花 63
麻痹 63
一个劲儿 62
下跌 62
不禁 62
中秋节 62
主席 62
么 62
价钱 62
众所周知 62
伸出 62
你@@ 62
便利 62
农夫 62
凶@@ 62
助@@ 62
史@@ 62
名称 62
后背 62
哥 62
地响 62
墨@@ 62
太小 62
娇@@ 62
学科 62
宝 62
封信 62
山谷 62
工地 62
巧 62
帅气 62
废@@ 62
当事人 62
怀着 62
懒 62
技巧 62
抢救 62
拨@@ 62
旁 62
曰 62
服用 62
染上 62
死去 62
流露出 62
消化 62
烂@@ 62
烹饪 62
男朋友 62
百年 62
看不见 62
睡眠 62
素 62
舌 62
花纹 62
药品 62
营 62
词@@ 62
负@@ 62
这时 62
迫切 62
追悼 62
重量 62
险 62
韩服 62
韩语 62
首饰 62
3000 61
一同 61
万美元 61
不堪 61
个人@@ 61
串@@ 61
争 61
仍旧 61
以致 61
会上 61
体育@@ 61
使劲 61
例如 61
务@@ 61
动不动 61
卖场 61
卫生间 61
印度 61
参赛 61
口号 61
另@@ 61
只顾 61
响起 61
嘲笑 61
图为 61
埋没 61
夜空 61
大大 61
夸 61
奥运 61
好几个 61
宁愿 61
山路 61
巡@@ 61
店里 61
开口 61
影像 61
惩罚 61
慰问 61
撤@@ 61
改编 61
更是 61
条@@ 61
汇@@ 61
沉浸 61
泄气 61
洞@@ 61
测量 61
浪 61
液 61
淡@@ 61
深受 61
父 61
狂 61
甚@@ 61
相遇 61
竖起 61
第二天 61
经济危机 61
自发 61
茫茫 61
营销 61
行走 61
谋 61
谷 61
踢足球 61
轿车 61
迷信 61
退出 61
遇见 61
重建 61
野 61
长城 61
频道 61
香气 61
黎明 61
23 60
26 60
一台 60
不小 60
严寒 60
乐趣 60
争取 60
交际 60
仁川 60
偶然 60
冷落 60
凭@@ 60
凶恶 60
勤劳 60
危@@ 60
又@@ 60
及格 60
古 60
吃饱 60
大厅 60
大学毕业 60
大象 60
好多 60
姓名 60
婆婆 60
容忍 60
屡次 60
工作人员 60
志@@ 60
性能 60
惭愧 60
成本 60
抬起 60
挣 60
掏 60
提案 60
改革开放 60
日后 60
早点 60
时隔 60
易 60
普通人 60
暂且 60
本能 60
枝 60
歇@@ 60
毕竟 60
汗水 60
流浪 60
深沉 60
混合 60
灵 60
点缀 60
猛地 60
理智 60
瓜@@ 60
用心 60
破裂 60
硬币 60
童年 60
考生 60
胃 60
背叛 60
舍 60
花生 60
讲述 60
诊断 60
贴@@ 60
趣味 60
辽阔 60
近日 60
速@@ 60
醒来 60
键盘 60
间@@ 60
颗 60
高温 60
一手 59
丁 59
不平 59
争吵 59
人情 59
会儿 59
住@@ 59
使命 59
做饭 59
免@@ 59
其他人 59
净@@ 59
击@@ 59
创新 59
利率 59
化学 59
华 59
原料 59
发音 59
器材 59
地笑 59
场合 59
墙@@ 59
处以 59
大致 59
委 59
审@@ 59
尊@@ 59
尊敬 59
峰 59
帅 59
影@@ 59
忧虑 59
怀里 59
悬@@ 59
手中 59
打出 59
执@@ 59
拢 59
提倡 59
撞@@ 59
教会 59
无力 59
无疑 59
普@@ 59
望@@ 59
残疾人 59
毒品 59
比如 59
气象 59
泪 59
洋 59
漂浮 59
灾区 59
烦 59
爱护 59
珍惜 59
球场 59
由此 59
电子@@ 59
真心 59
科技 59
秘诀 59
粮 59
统@@ 59
维生素 59
花儿 59
花钱 59
英勇 59
蒸@@ 59
要说 59
角@@ 59
角落 59
足球队 59
踏上 59
选民 59
那场 59
风气 59
驾 59
鸣 59
i@@ 58
一丝 58
一个@@ 58
不当 58
举止 58
习@@ 58
介入 58
伸@@ 58
做人 58
充@@ 58
兵力 58
剑 58
十五 58
卷@@ 58
口味 58
叶@@ 58
吐@@ 58
呕吐 58
哨 58
唱片 58
坚@@ 58
堵车 58
夸@@ 58
委屈 58
审理 58
密 58
寺 58
尾@@ 58
工程师 58
引入 58
忠诚 58
悬挂 58
愈@@ 58
或@@ 58
扯@@ 58
抵@@ 58
拥@@ 58
效益 58
曲@@ 58
杀人 58
标志 58
检方 58
此前 58
毫不 58
水库 58
水里 58
波 58
潜@@ 58
玉 58
甘@@ 58
百货商店 58
百货店 58
矿泉水 58
研究生 58
社区 58
神气 58
私人 58
移@@ 58
笼罩着 58
纠正 58
约@@ 58
纵@@ 58
经费 58
美女 58
航 58
节省 58
花朵 58
落叶 58
警 58
贪@@ 58
资 58
趴在 58
返回 58
迹 58
配偶 58
金某 58
销@@ 58
长相 58
阳 58
陶醉 58
陷阱 58
雅@@ 58
雨伞 58
霜 58
顿时 58
预先 58
饭桌 58
骗子 58
鲜 58
m@@ 57
一幅 57
一页 57
不准 57
不易 57
两队 57
丰@@ 57
促使 57
兼职 57
出动 57
创下 57
割@@ 57
勤@@ 57
千 57
单词 57
历来 57
双眼 57
可不是 57
叹 57
合成 57
唯独 57
地理 57
坏事 57
基本上 57
大师 57
姿势 57
定为 57
富裕 57
小溪 57
尝试 57
巨额 57
希@@ 57
年末 57
底下 57
开通 57
弃@@ 57
弱@@ 57
得知 57
恋 57
患上 57
想念 57
慌张 57
我队 57
执政 57
拜@@ 57
掌@@ 57
播 57
早日 57
早早 57
昔日 57
更何况 57
杂 57
民主化 57
水田 57
水龙头 57
沐浴 57
涂 57
涉嫌 57
熟练 57
瓦@@ 57
申@@ 57
瘦@@ 57
皆 57
稳 57
籍 57
系@@ 57
经济@@ 57
荒@@ 57
荒唐 57
荡 57
蘸 57
融洽 57
见解 57
误 57
课堂 57
财 57
超 57
逃走 57
遮@@ 57
那次 57
镇静 57
雄@@ 57
顺着 57
领取 57
魔术 57
鸟@@ 57
5000 56
一大早 56
一日 56
一脚 56
三星电子 56
上映 56
丢@@ 56
亏@@ 56
人会 56
代理 56
优雅 56
偿还 56
减轻 56
刮@@ 56
制裁 56
努力学习 56
勤 56
区别 56
原野 56
品@@ 56
回避 56
围 56
固执 56
圈@@ 56
地狱 56
场地 56
坛 56
大腿 56
夺得 56
奖@@ 56
女生 56
实质 56
对抗 56
市政府 56
幸运 56
床@@ 56
库 56
异 56
思索 56
性别 56
悄悄地 56
慢性 56
拔 56
播出 56
敏锐 56
数据 56
明智 56
智能 56
曲线 56
村@@ 56
模@@ 56
汗@@ 56
溜@@ 56
潇洒 56
炒@@ 56
爱好者 56
献@@ 56
瓜 56
生计 56
百万 56
社 56
胡说 56
艘 56
草原 56
蛋 56
裹 56
证人 56
诚恳 56
该国 56
说些 56
谎言 56
转达 56
这批 56
违法 56
通货膨胀 56
逛街 56
遗传 56
郊游 56
门外 56
险@@ 56
雄伟 56
顾 56
香味 56
麻 56
默默 56
22 55
6@@ 55
a 55
一行 55
与@@ 55
丢失 55
京剧 55
代表队 55
仪器 55
仰@@ 55
兰@@ 55
创 55
初中 55
劈@@ 55
动物园 55
劳动@@ 55
千里 55
发愁 55
取出 55
周期 55
回报 55
团@@ 55
国防 55
外地 55
多岁 55
奔@@ 55
女孩子 55
奶 55
孔@@ 55
宽松 55
对外 55
就此 55
层@@ 55
废 55
延@@ 55
开来 55
往年 55
心意 55
忘@@ 55
总裁 55
想想 55
愁 55
戒烟 55
报告书 55
拨 55
拳 55
捕@@ 55
检察院 55
次@@ 55
止 55
民浩在 55
气得 55
汉字 55
泥@@ 55
涂@@ 55
滴@@ 55
片刻 55
王子 55
电影院 55
登场 55
盆 55
睡不着 55
知识分子 55
碎@@ 55
稳@@ 55
等级 55
索@@ 55
绝望 55
罢了 55
胸怀 55
脑子 55
自尊心 55
设有 55
资本主义 55
辈 55
过错 55
酒后 55
采 55
锅@@ 55
锻炼身体 55
限 55
音乐会 55
龄 55
一首 54
万亿韩元 54
下定决心 54
两边 54
串 54
之上 54
倒塌 54
光芒 54
入睡 54
关门 54
兴旺 54
内幕 54
出版社 54
分期付款 54
刘@@ 54
削 54
削弱 54
加速 54
加重 54
动员 54
压缩 54
同盟 54
向导 54
向着 54
吝啬 54
含 54
告知 54
呦 54
咕嘟 54
喧哗 54
嚷 54
壮 54
外套 54
大都 54
夺@@ 54
契机 54
奔跑 54
完工 54
完整 54
宗@@ 54
宿@@ 54
寸@@ 54
屈@@ 54
工作岗位 54
左 54
庄严 54
当场 54
很久以前 54
感想 54
我能 54
打针 54
批@@ 54
收成 54
无条件 54
无精打采 54
最多 54
条款 54
某人 54
某种 54
样式 54
欲@@ 54
步伐 54
水中 54
水稻 54
浪@@ 54
消毒 54
混 54
清淡 54
渔船 54
焦点 54
爆@@ 54
瓦解 54
甜@@ 54
留有 54
的@@ 54
盈利 54
真诚 54
瞎@@ 54
管子 54
缘 54
美国@@ 54
聊 54
聘 54
胃口 54
脉 54
航空 54
草地 54
葬礼 54
覆盖 54
解雇 54
许@@ 54
话@@ 54
课@@ 54
赔@@ 54
跳跃 54
输入 54
运动场 54
这所 54
进出 54
递 54
部下 54
铺@@ 54
镇 54
长久 54
阴 54
题目 54
饶恕 54
高速 54
七 53
不明 53
主义者 53
人来 53
伏 53
佩服 53
保险公司 53
傻@@ 53
兔子 53
公民 53
公职 53
几点 53
刑警 53
刷@@ 53
古典音乐 53
名副其实 53
响应 53
嚼 53
因而 53
夏 53
多样 53
大脑 53
太久 53
奇妙 53
奉献 53
实惠 53
宣言 53
宰 53
尺 53
岸 53
布料 53
布置 53
归来 53
得意 53
必 53
悲痛 53
成语 53
我校 53
战斗力 53
打碎 53
抄@@ 53
报导 53
指数 53
捞 53
掠夺 53
揭@@ 53
搜索 53
新罗 53
无礼 53
映 53
昨日 53
晚会 53
暗示 53
朗读 53
柔@@ 53
样儿 53
欠@@ 53
民俗 53
江水 53
河边 53
沾@@ 53
洪@@ 53
浇 53
浓@@ 53
炖 53
熟@@ 53
父@@ 53
特长 53
田径 53
疗法 53
矮@@ 53
穿戴 53
笑声 53
耐@@ 53
背包 53
艇 53
荒 53
蒙 53
裙 53
认 53
豆@@ 53
账户 53
辞 53
迁 53
适宜 53
途中 53
隔@@ 53
预备 53
食欲 53
饭@@ 53
驱逐 53
丁@@ 52
不变 52
不管怎么 52
不许 52
与否 52
世人 52
主力 52
乡村 52
书桌 52
付@@ 52
免 52
写出 52
凡 52
分离 52
列@@ 52
刷牙 52
剧@@ 52
厨师 52
去一趟 52
发动机 52
叙述 52
含义 52
听证会 52
哄 52
唠叨 52
困@@ 52
圈套 52
外边 52
多久 52
大力 52
姑@@ 52
尚@@ 52
尴尬 52
尽可能 52
常见 52
府 52
弥漫着 52
强盗 52
很小 52
恭喜 52
惊人 52
所在 52
扇 52
手势 52
扫@@ 52
扭转 52
拘捕 52
拟定 52
捐赠 52
搞砸 52
操@@ 52
教堂 52
文献 52
显出 52
月光 52
树叶 52
档 52
横 52
毅力 52
气色 52
气象厅 52
注 52
火辣辣 52
煤 52
看作 52
租@@ 52
绝不能 52
续@@ 52
缓 52
罗 52
老家 52
老朋友 52
肠 52
臣 52
舞@@ 52
航空公司 52
装有 52
讨@@ 52
试卷 52
诗歌 52
话语 52
说起 52
谢绝 52
赛@@ 52
返@@ 52
这根 52
进球 52
迷路 52
迹象 52
逼 52
遭@@ 52
避@@ 52
邮@@ 52
邻国 52
重心 52
重要性 52
销售额 52
闲 52
难关 52
难民 52
雇佣 52
靠@@ 52
面条 52
领会 52
食堂 52
饭后 52
饮酒 52
高低 52
魂 52
麻木 52
黄瓜 52
一路 51
不知所措 51
专心 51
中途 51
九月 51
亚军 51
今 51
优越 51
传染病 51
似@@ 51
住院 51
值班 51
倾注 51
傲慢 51
八月 51
凶手 51
击球手 51
劈 51
加大 51
务 51
助手 51
及其 51
友情 51
名牌大学 51
和谐 51
咔嚓 51
响@@ 51
团队 51
堆积 51
处分 51
备受 51
太高 51
奶@@ 51
妙@@ 51
安定 51
审 51
家门 51
尖@@ 51
币 51
带领 51
年内 51
幽@@ 51
很久 51
忧@@ 51
惯例 51
扰乱 51
抛@@ 51
招收 51
描述 51
撕@@ 51
支柱 51
收支 51
放假 51
政客 51
旅馆 51
有益 51
木材 51
极端 51
棉@@ 51
次数 51
歌唱 51
氧气 51
永恒 51
汇款 51
源于 51
炸弹 51
烦@@ 51
烫 51
爆 51
犹豫 51
环@@ 51
生日礼物 51
留恋 51
痒 51
知名 51
礼仪 51
社会主义 51
祝福 51
稀@@ 51
粒 51
素材 51
缓慢 51
缩短 51
罪行 51
肠@@ 51
蔚蓝 51
蚊子 51
被迫 51
解放 51
诸@@ 51
谈论 51
责怪 51
资@@ 51
邮票 51
镜头 51
问世 51
阵 51
难堪 51
饱受 51
齿 51
2002 50
7@@ 50
8@@ 50
一回 50
一点点 50
万物 50
下游 50
举报 50
之地 50
亲热 50
仁慈 50
从中 50
信件 50
入场 50
入学考试 50
关怀 50
写字 50
决@@ 50
刻@@ 50
剧本 50
动用 50
劳动力 50
势头 50
包子 50
厂长 50
右 50
国旗 50
场景 50
坑 50
垮 50
士@@ 50
壳 50
夜里 50
大使 50
失眠 50
嫂子 50
尽全力 50
屏幕 50
幕 50
干杯 50
弦 50
忙于 50
忽@@ 50
悲剧 50
愈 50
打交道 50
扩张 50
扮演 50
拘留 50
拥挤 50
捐@@ 50
探测 50
推行 50
揭发 50
摘@@ 50
摩@@ 50
收购 50
斜 50
早晚 50
最早 50
有意 50
木板 50
未经 50
柱 50
案子 50
正如 50
正月十五 50
每人 50
汇 50
没见 50
河流 50
波涛 50
流逝 50
灰色 50
灾民 50
炸 50
猛 50
玉米 50
玩笑 50
现代化 50
用水 50
租赁 50
空闲 50
竞赛 50
答@@ 50
策划 50
箭 50
类@@ 50
糟 50
纤维 50
纯粹 50
结局 50
缩 50
联 50
胡乱 50
脚下 50
腻 50
航行 50
艾@@ 50
若干 50
苦难 50
葬 50
薪 50
行列 50
表决 50
裁@@ 50
规@@ 50
订单 50
议 50
译 50
说不出 50
谱 50
豆 50
贼@@ 50
赌@@ 50
起源 50
跌 50
身份证 50
身穿 50
躲避 50
转换 50
较大 50
逝世 50
钓@@ 50
银 50
队长 50
院@@ 50
静 50
面粉 50
顾@@ 50
预言 50
骑@@ 50
A@@ 49
b@@ 49
一大堆 49
不像 49
不必要 49
世界@@ 49
东亚 49
事事 49
令@@ 49
众 49
依照 49
光线 49
公社 49
写文章 49
冷酷 49
分类 49
判@@ 49
刮风 49
制约 49
加深 49
博士学位 49
占@@ 49
受损 49
可不 49
合并 49
吸 49
呼 49
哎呀 49
哭泣 49
四年 49
图片 49
在场 49
地站 49
壮@@ 49
大树 49
大桥 49
如实 49
寡@@ 49
导 49
小学生 49
尺码 49
引 49
当做 49
往来 49
很受 49
得不到 49
恐怖袭击 49
恩 49
扇子 49
手工 49
拼 49
损 49
推销 49
搁 49
撑 49
收回 49
效 49
救援 49
教育@@ 49
新来 49
施展 49
晋升 49
暑假 49
月初 49
有用 49
服从 49
末@@ 49
模型 49
河里 49
波浪 49
泼 49
添@@ 49
熬@@ 49
玩耍 49
生机 49
电线 49
皱纹 49
盼 49
看过 49
瞪 49
礼堂 49
私 49
移交 49
第@@ 49
签@@ 49
糖尿病 49
索 49
纯@@ 49
维修 49
者@@ 49
联想 49
脑海 49
腌 49
自豪 49
舒畅 49
苏@@ 49
获@@ 49
萎缩 49
虚伪 49
血液 49
行政@@ 49
被选为 49
裂 49
要命 49
设法 49
访 49
质@@ 49
资助 49
边儿 49
通缉 49
都@@ 49
钻研 49
际 49
陈述 49
隆重 49
雅 49
首席 49
高贵 49
上半年 48
上班族 48
不能不 48
乌黑 48
优异 48
位@@ 48
体操 48
作物 48
兆 48
写下 48
凄@@ 48
券 48
南京 48
发了 48
名为 48
名次 48
名额 48
哈 48
国内外 48
垒 48
埋@@ 48
士气 48
壶 48
大风 48
奇 48
妆 48
季 48
学业 48
害@@ 48
崔 48
差点儿 48
平坦 48
年来 48
强行 48
影响力 48
志愿 48
志愿者 48
愁@@ 48
意大利 48
户@@ 48
扬 48
挣钱 48
掌 48
摄取 48
撑@@ 48
收缩 48
攻 48
敏智@@ 48
斜@@ 48
旁@@ 48
无能为力 48
时事 48
最初 48
有限 48
枯@@ 48
柱子 48
棕色 48
款式 48
残忍 48
每逢 48
民心 48
水洗 48
洗涤 48
温柔 48
演说 48
炕 48
点燃 48
爪 48
甲@@ 48
痛快 48
盐@@ 48
盗@@ 48
移植 48
稍@@ 48
结账 48
置 48
老王 48
职@@ 48
肥胖 48
胸@@ 48
花瓶 48
获奖 48
被判 48
西部 48
规制 48
议案 48
议论 48
记住 48
记载 48
诬陷 48
败 48
跃@@ 48
车上 48
轨道 48
辅导 48
辉煌 48
辩解 48
这幢 48
这棵 48
追 48
选定 48
那件 48
那艘 48
酱汤 48
钻@@ 48
销量 48
隔 48
面孔 48
香烟 48
鸟儿 48
鼓舞 48
18@@ 47
2008 47
2010 47
31 47
400 47
C@@ 47
一千@@ 47
一块儿 47
一年级 47
上山 47
不仅仅 47
不惜 47
不远 47
与日俱增 47
专用 47
世界各地 47
中秋 47
交替 47
侧 47
信徒 47
先前 47
公认 47
兼@@ 47
内在 47
农作物 47
凝聚 47
几十年 47
几种 47
动向 47
勋章 47
博@@ 47
危害 47
反驳 47
取决于 47
各项 47
合约 47
同一个 47
吵醒 47
咸@@ 47
困扰 47
国籍 47
地毯 47
壮丽 47
处在 47
头疼 47
奥@@ 47
好久 47
好人 47
威信 47
威风 47
富翁 47
对付 47
导弹 47
小型 47
小麦 47
尿@@ 47
山里 47
岗 47
差点 47
干练 47
幼@@ 47
店@@ 47
开业 47
开门 47
很深 47
悬殊 47
情侣 47
惨@@ 47
扔掉 47
扫 47
投掷 47
抚养 47
拥抱 47
挡住 47
揭露 47
摇摆 47
攀@@ 47
收取 47
放着 47
旋@@ 47
无动于衷 47
无微不至 47
映@@ 47
显然 47
来得 47
来访 47
柴@@ 47
欧@@ 47
歹徒 47
比喻 47
消 47
深深地 47
添 47
湖水 47
演@@ 47
演绎出 47
灰@@ 47
灰心 47
玩意儿 47
田@@ 47
畏惧 47
痴@@ 47
秋季 47
等候 47
等到 47
答复 47
糊 47
给@@ 47
绣 47
罪@@ 47
肩 47
自由@@ 47
致@@ 47
落下 47
血压 47
袋子 47
规 47
请假 47
运气 47
这栋 47
遇 47
金融危机 47
钓鱼 47
钻 47
铜@@ 47
闷热 47
难以@@ 47
领带 47
魄力 47
麻醉 47
一再 46
一瞬间 46
一艘 46
一词 46
不定 46
丑闻 46
五十 46
享有 46
今年夏天 46
企划 46
伸手 46
低价 46
做起 46
兴起 46
内阁 46
写得 46
分享 46
划分 46
助 46
助威 46
历@@ 46
发型 46
发给 46
响亮 46
商业@@ 46
喝一杯 46
国土 46
国税 46
坏@@ 46
埋葬 46
大胆 46
太太 46
奔 46
奸@@ 46
媒介 46
学长 46
实事求是 46
实用 46
宣扬 46
宣誓 46
宫@@ 46
对比 46
射@@ 46
小人 46
工作者 46
巩固 46
巴巴 46
征 46
性子 46
恋@@ 46
恶意 46
悲惨 46
戴@@ 46
打造 46
拍照 46
掉下来 46
暴风雨 46
染@@ 46
柳@@ 46
栏 46
棋@@ 46
歇 46
没收 46
注册 46
流动 46
浏览 46
海军 46
漫@@ 46
激情 46
灾害 46
炸@@ 46
点头 46
热水 46
爱惜 46
理睬 46
电台 46
看成 46
硕士 46
神情 46
祸@@ 46
税@@ 46
窗帘 46
筒 46
索性 46
结尾 46
考察 46
耗 46
聊@@ 46
胸 46
脆 46
膨胀 46
英文 46
草坪 46
蜂蜜 46
衰老 46
袖子 46
言语 46
训 46
起码 46
起身 46
辩论 46
还给 46
逐步 46
递@@ 46
醉 46
间谍 46
随即 46
难免会 46
预想 46
饮 46
饿@@ 46
一倍 45
上演 45
上空 45
不清 45
不高 45
两条 45
两点 45
主持人 45
主角 45
乌云 45
人要 45
伤脑筋 45
住房 45
佩戴 45
候 45
停电 45
储蓄 45
儿时 45
几下 45
几位 45
出名 45
出演 45
前辈 45
十二@@ 45
厚厚的 45
反倒 45
台阶 45
后天 45
吓@@ 45
哪些 45
商务 45
嘉宾 45
回复 45
国立 45
坏人 45
坦@@ 45
基本@@ 45
塌@@ 45
填写 45
复 45
大火 45
天地 45
太累 45
女友 45
嫁给 45
宣传@@ 45
宫 45
小吃 45
尽头 45
尿 45
展出 45
峡谷 45
巴西 45
庙 45
庭院 45
志 45
快到 45
怨 45
息@@ 45
愿@@ 45
技术@@ 45
拐@@ 45
招生 45
捐 45
推理 45
时髦 45
有句 45
杂草 45
来源 45
枚 45
柜 45
栽@@ 45
检@@ 45
此后 45
毫无@@ 45
气魄 45
法人 45
泪@@ 45
漂@@ 45
热气 45
热量 45
猪@@ 45
玄@@ 45
班里 45
疑@@ 45
疑问 45
监查 45
看电视 45
瞄准 45
秀@@ 45
秃 45
窄 45
筹@@ 45
简洁 45
绑 45
缩减 45
而不@@ 45
肚子疼 45
脏@@ 45
膜 45
落榜 45
著 45
蛇@@ 45
蛋@@ 45
被告 45
订@@ 45
诸多 45
谢 45
谦逊 45
贿赂 45
赋予 45
较@@ 45
远方 45
逆@@ 45
遗失 45
锦标赛 45
随处可见 45
隐蔽 45
靠着 45
顿饭 45
风波 45
饥饿 45
马虎 45
2005 44
s@@ 44
一堆 44
一处 44
一次性 44
一线 44
不可避免 44
丑@@ 44
世界纪录 44
主教练 44
丽 44
乐队 44
乘@@ 44
书桌上 44
事前 44
事务所 44
井@@ 44
京@@ 44
亲人 44
亲近 44
体面 44
侧@@ 44
倒下 44
六月 44
军事@@ 44
冲动 44
凝固 44
出了名 44
列入 44
制品 44
前一天 44
前任 44
勒@@ 44
包围 44
匠 44
医 44
发言人 44
取得胜利 44
取胜 44
听取 44
呻吟 44
呼吁 44
品德 44
售@@ 44
喝醉 44
固然 44
堂@@ 44
壁@@ 44
多大 44
孔 44
孙@@ 44
学术界 44
学界 44
容器 44
尚 44
左派 44
市内 44
市场@@ 44
干完 44
年薪 44
广 44
建筑@@ 44
强国 44
影子 44
往后 44
待人 44
必需 44
怀@@ 44
惠@@ 44
房里 44
承 44
抬头 44
担@@ 44
拉开 44
挠 44
振@@ 44
接收 44
推动 44
摇 44
料@@ 44
新闻@@ 44
既@@ 44
有过 44
果断 44
检验 44
欣慰 44
沙 44
沿@@ 44
测 44
测试 44
深入 44
渐@@ 44
滑雪 44
火势 44
田里 44
监@@ 44
短暂 44
社@@ 44
祖 44
空军 44
答 44
纷争 44
组建 44
罚@@ 44
羊@@ 44
羽绒服 44
老小 44
老张 44
考验 44
而来 44
职责 44
股@@ 44
肯 44
自满 44
自觉 44
船上 44
营造 44
落地 44
蔑视 44
虫子 44
西班牙 44
警戒 44
讨论会 44
证@@ 44
证券 44
身心 44
辩@@ 44
这支 44
郎 44
难怪 44
雇用 44
雕刻 44
顿@@ 44
风筝 44
骂人 44
l@@ 43
p@@ 43
一会 43
一律 43
一通 43
三十年 43
上瘾 43
书包 43
事后 43
二十 43
亮相 43
人手 43
人能 43
休息日 43
低于 43
体质 43
何况 43
保安 43
保险@@ 43
修订 43
充足 43
光荣 43
入住 43
全局 43
公约 43
其余 43
刑 43
刑事 43
劝说 43
功课 43
动手 43
化学@@ 43
半年 43
去除 43
受害者 43
变动 43
吃力 43
后期 43
吵@@ 43
和解 43
哭@@ 43
唯@@ 43
啃 43
商量 43
回事 43
地去 43
境地 43
多加 43
大气 43
太贵 43
奉 43
妄想 43
嫩@@ 43
孙 43
季度 43
学到 43
小猫 43
屋@@ 43
崩溃 43
巴士 43
平静下来 43
应酬 43
座@@ 43
庸俗 43
弥@@ 43
当今 43
当面 43
循环 43
怕@@ 43
急需 43
患有 43
悬崖 43
意愿 43
感性 43
手腕 43
拿来 43
挣@@ 43
捎 43
授课 43
揭开 43
搓 43
摇晃 43
敞开 43
新任 43
无法忍受 43
日报 43
旺 43
月末 43
有条不紊 43
未免 43
染红 43
核武器 43
栽 43
梦@@ 43
欢 43
此地 43
比重 43
民族@@ 43
汹涌 43
泛滥 43
浩 43
涉@@ 43
润 43
深奥 43
清爽 43
漆 43
潮@@ 43
火焰 43
煎 43
狡猾 43
生活费 43
生理 43
用功 43
电视机 43
益 43
直升机 43
眼看 43
示 43
私生活 43
窗@@ 43
端庄 43
糖@@ 43
罚 43
美的 43
舟 43
艰巨 43
芝麻 43
花园 43
苍@@ 43
草莓 43
蒸 43
街@@ 43
衣着 43
衫 43
识别 43
调动 43
越高 43
趣 43
边缘 43
迎@@ 43
连年 43
酒精 43
钢@@ 43
闪@@ 43
陈旧 43
限@@ 43
陪@@ 43
震撼 43
音响 43
颤抖 43
饭碗 43
高涨 43
1.@@ 42
29 42
· 42
上传 42
上帝 42
不及 42
不太@@ 42
不通 42
书本 42
五月 42
井 42
亚 42
产物 42
价值观 42
伊@@ 42
传记 42
伦理 42
伺候 42
作文 42
信息@@ 42
借给 42
停车场 42
充分@@ 42
党派 42
兰 42
关税 42
内外 42
内衣 42
再三 42
农药 42
净化 42
几件 42
凡@@ 42
出场 42
创立 42
动身 42
化妆 42
厌@@ 42
反省 42
古人 42
可真 42
司法考试 42
名人 42
商品@@ 42
商家 42
四十岁 42
地望 42
大麦 42
头痛 42
宗旨 42
富人 42
尖锐 42
就行 42
山峰 42
年纪轻轻 42
应有 42
应聘 42
弃 42
当务之急 42
彻@@ 42
忧 42
怒@@ 42
悠@@ 42
打听 42
打网球 42
技能 42
投球 42
拳@@ 42
挫折 42
捆 42
改为 42
放学 42
故事情节 42
无人@@ 42
春季 42
显 42
晨@@ 42
最低 42
本地 42
朱@@ 42
来回 42
构造 42
死刑 42
比率 42
沉着 42
泰@@ 42
浆 42
消灭 42
渣 42
满满的 42
激@@ 42
炒年糕 42
狭隘 42
理事 42
瓷器 42
甜蜜 42
男生 42
皇@@ 42
益@@ 42
相亲 42
看热闹 42
离别 42
种族 42
移 42
税收 42
稿子 42
窝@@ 42
端正 42
第一位 42
第三 42
纪念日 42
纳 42
纽约 42
细腻 42
绕@@ 42
罪名 42
羊肉 42
职场 42
股东 42
脸庞 42
自行 42
苦苦 42
英 42
融合 42
衣柜 42
西装 42
要么 42
触@@ 42
言论自由 42
评@@ 42
诊 42
责备 42
贫@@ 42
足球赛 42
跌@@ 42
踏@@ 42
辞@@ 42
这艘 42
这起 42
连日 42
遮挡 42
郑@@ 42
镇定 42
长出 42
门儿 42
风雨 42
饭馆 42
高手 42
高潮 42
B@@ 41
t@@ 41
一所 41
一百 41
一系列 41
一经 41
一进 41
七个 41
下雪 41
不算 41
严惩 41
丧 41
之苦 41
习 41
争端 41
亿@@ 41
代价 41
传开 41
佛 41
侵害 41
偏 41
停泊 41
党内 41
具@@ 41
农活 41
冰冷 41
凝@@ 41
剥@@ 41
力度 41
办成 41
南瓜 41
及@@ 41
取缔 41
受害 41
可笑 41
吊 41
哥@@ 41
喝水 41
嘎吱 41
囊 41
团伙 41
坏习惯 41
堵住 41
太极旗 41
失事 41
如下 41
始@@ 41
孔子 41
宅 41
将要 41
就让 41
局@@ 41
巧@@ 41
干干净净 41
应付 41
开阔 41
强硬 41
总得 41
所属 41
手臂 41
托运 41
抽屉 41
挡@@ 41
排骨 41
接过 41
摔@@ 41
撇 41
收录 41
敌阵 41
教导 41
敢@@ 41
文化@@ 41
无忧无虑 41
无意 41
时会 41
昂贵 41
晚霞 41
暗中 41
暴涨 41
本周 41
本性 41
材 41
杜绝 41
栗子 41
梅@@ 41
检察厅 41
气概 41
江南 41
沟@@ 41
湖面 41
溪水 41
滔滔不绝 41
灾 41
熟透 41
爬@@ 41
片@@ 41
牛皮 41
电力 41
留给 41
疯 41
瘪 41
登记 41
目睹 41
直播 41
相见 41
真挚 41
眼中 41
禁 41
科学技术 41
立法 41
竟@@ 41
糟糕 41
缺陷 41
置@@ 41
耕@@ 41
腰部 41
自然@@ 41
船舶 41
虚 41
血管 41
衣料 41
解散 41
试试 41
说道 41
调查结果 41
谢@@ 41
责 41
贵族 41
贷 41
赖 41
达成协议 41
迎 41
运送 41
避暑 41
锦@@ 41
闲话 41
阵营 41
陌生人 41
雾@@ 41
飘着 41
验 41
鲁@@ 41
35 40
s 40
一事 40
一分 40
一幢 40
一角 40
下半年 40
下滑 40
不胜 40
两国关系 40
严 40
中东 40
中央@@ 40
书房 40
事故现场 40
二十年 40
亏损 40
亲手 40
亿元 40
仅@@ 40
他用 40
位子 40
体谅 40
俊@@ 40
做梦 40
傻瓜 40
六点 40
关节 40
兴高采烈 40
兵役 40
出面 40
函@@ 40
初次 40
利害 40
剪 40
劝告 40
加剧 40
动机 40
十岁 40
压岁钱 40
厌烦 40
县 40
后辈 40
哑@@ 40
唇@@ 40
售 40
喊@@ 40
喊声 40
回顾 40
围棋 40
固@@ 40
场上 40
坠@@ 40
多多 40
大哥 40
大臣 40
天花板 40
太忙 40
女婿 40
女演员 40
娘家 40
安心 40
实话 40
家庭@@ 40
寄来 40
对应 40
寺院 40
寿@@ 40
小朋友 40
年幼 40
弥补 40
弹钢琴 40
很浓 40
心地 40
怨@@ 40
恨@@ 40
恭@@ 40
感兴趣 40
成天 40
所得税 40
手套 40
打印 40
扩充 40
报酬 40
拜访 40
掉@@ 40
掐 40
摊@@ 40
播@@ 40
收尾 40
效@@ 40
文雅 40
明日 40
晃动 40
晚年 40
智 40
替代 40
未曾 40
棍 40
楼房 40
欺@@ 40
沿海 40
泛 40
海岸 40
海里 40
淋 40
深厚 40
深处 40
潜力 40
激增 40
爽 40
狮子 40
猪肉 40
环 40
珠 40
班主任 40
田地 40
电子邮件 40
矣 40
短期 40
神色 40
秤 40
积 40
立体 40
站@@ 40
笨@@ 40
筹备 40
纵横 40
结构调整 40
美观 40
羞耻 40
老人家 40
老实人 40
耳边 40
聘用 40
胆@@ 40
腔 40
至于 40
致命 40
萌芽 40
警报 40
计较 40
许 40
谈恋爱 40
谷@@ 40
辣@@ 40
迁移 40
远远 40
递给 40
通话 40
逼@@ 40
邮件 40
郊区 40
长寿 40
防卫 40
阻挡 40
陶@@ 40
难看 40
零花钱 40
雷 40
需@@ 40
青蛙 40
韩国政府 40
韩流 40
频率 40
飞来 40
饺子 40
驻@@ 40
高龄 40
鸣@@ 40
默@@ 40
2004 39
2009 39
45 39
D@@ 39
一有 39
一阵子 39
三点 39
上台 39
不快 39
不正之风 39
不耐烦 39
不觉 39
两旁 39
个头 39
中毒 39
主体 39
主办方 39
亡@@ 39
交谈 39
亭子 39
人际关系 39
余地 39
俗@@ 39
俘虏 39
倘若 39
健@@ 39
傍晚 39
公共@@ 39
典礼 39
兼 39
内涵 39
农户 39
初次见面 39
刹车 39
劲@@ 39
劳资双方 39
勇@@ 39
十分钟 39
协@@ 39
协作 39
单身 39
卧 39
厌倦 39
原材料 39
发生变化 39
叠 39
古董 39
后山 39
启示 39
启程 39
命名 39
哲洙 39
唐@@ 39
喜剧 39
嘴巴 39
国情 39
地主 39
坪 39
基督教 39
塑料 39
声誉 39
外人 39
大城市 39
大豆 39
大雪 39
天使 39
妻 39
季@@ 39
学家 39
定义 39
寂静 39
对北 39
小提琴 39
尖端 39
展示会 39
市区 39
带上 39
常用 39
广州 39
庄重 39
开学 39
开着 39
形容 39
征兆 39
徒 39
徒@@ 39
忌 39
惯 39
惹@@ 39
我俩 39
扩@@ 39
拘@@ 39
招标 39
拯救 39
按摩 39
捕鱼 39
教养 39
数十@@ 39
斩@@ 39
新纪录 39
早餐 39
早饭 39
晚餐 39
月底 39
有种 39
有空 39
服务@@ 39
本垒打 39
本钱 39
机密 39
梁@@ 39
棵 39
榜样 39
次要 39
死者 39
气球 39
污@@ 39
派@@ 39
测@@ 39
涨@@ 39
滞 39
燃@@ 39
爱人 39
牙膏 39
牲畜 39
牵 39
狐狸 39
独裁 39
玩弄 39
现任 39
用手 39
用语 39
盛产 39
直线 39
看样子 39
突@@ 39
粘@@ 39
罩 39
胆 39
胸膛 39
臂 39
荣@@ 39
葡萄酒 39
规划 39
论证 39
诉 39
说不定 39
豪@@ 39
貌 39
财团 39
贫乏 39
购@@ 39
贸易@@ 39
贸易协定 39
赖@@ 39
起火 39
足球比赛 39
跟@@ 39
蹭 39
身体健康 39
转动 39
轻微 39
输掉 39
输给 39
过年 39
过量 39
迫切需要 39
通报 39
逢 39
野兽 39
野菜 39
铃 39
门上 39
防御 39
陷 39
非常高兴 39
颜 39
高价 39
高峰 39
麻雀 39
. 38
2006 38
A 38
一丝不苟 38
一心 38
一笑 38
一职 38
一间 38
万一 38
三月 38
上天 38
丰收 38
书中 38
交纳 38
交货 38
人口@@ 38
伤员 38
作响 38
佳@@ 38
俯@@ 38
光泽 38
全场 38
具体@@ 38
写成 38
冠@@ 38
凉水 38
分公司 38
创建 38
剥夺 38
变更 38
古老 38
只得 38
叫声 38
号码 38
叼 38
含量 38
吵闹 38
周岁 38
味@@ 38
呼声 38
和睦 38
咽 38
囚犯 38
四大 38
坚固 38
坟墓 38
塔@@ 38
墓地 38
外交@@ 38
太过 38
奋@@ 38
好听 38
好奇心 38
存折 38
宗 38
客机 38
宣@@ 38
家境 38
宽广 38
寿命 38
巡逻 38
并未 38
廉价 38
开头 38
微弱 38
怪不得 38
抓紧 38
抖搂 38
挥 38
捅 38
摆放 38
支流 38
政局 38
效应 38
救助 38
新婚 38
无奈 38
早期 38
时请 38
春风 38
昨天晚上 38
曝光 38
有望 38
服饰 38
条纹 38
枫叶 38
根源 38
桌 38
毛衣 38
沟 38
没人 38
洛@@ 38
深度 38
添加 38
游乐场 38
湖@@ 38
滋味 38
演唱 38
炸酱面 38
热门 38
煤@@ 38
牛仔 38
犹@@ 38
猫@@ 38
王青@@ 38
理直气壮 38
界限 38
疑 38
疙瘩 38
痊愈 38
知觉 38
砌 38
研制 38
碎片 38
示@@ 38
票@@ 38
离去 38
科目 38
竞争对手 38
纯洁 38
终 38
绿茶 38
美味 38
羽毛球 38
腥 38
衷心 38
解答 38
评为 38
象@@ 38
财物 38
走来 38
赴 38
跑道 38
这门 38
远离 38
违@@ 38
送来 38
郑重 38
酷暑 38
野外 38
鉴定 38
针@@ 38
镇@@ 38
阻挠 38
陆@@ 38
雕塑 38
青年人 38
青睐 38
面向 38
鞋@@ 38
项链 38
预订 38
领悟 38
首歌 38
魔鬼 38
鼠 38
M@@ 37
g@@ 37
一排 37
一来 37
三国 37
上下班 37
不能容忍 37
专辑 37
业主 37
两块 37
两手 37
两眼 37
中旬 37
主观 37
书记 37
买票 37
亦@@ 37
人事@@ 37
仇@@ 37
份儿 37
伊 37
伦敦 37
伪@@ 37
体积 37
体育馆 37
便是 37
倍@@ 37
傻 37
像@@ 37
兜 37
关上 37
冷水 37
凝视 37
凶 37
分歧 37
刷新 37
前线 37
办得 37
势@@ 37
匀 37
原有 37
去过 37
取得成功 37
受贿 37
可疑 37
吞吞吐吐 37
喝杯 37
国语 37
地址 37
垫@@ 37
大田 37
大邱 37
太冷 37
奖杯 37
女王 37
好好儿 37
好意 37
姓@@ 37
宠物狗 37
家畜 37
宽敞 37
岂 37
岛上 37
崔@@ 37
市中心 37
平息 37
年初 37
年糕 37
延期 37
很久没 37
很会 37
微微 37
怀抱 37
急速 37
惯@@ 37
我刚 37
才华 37
折断 37
护理 37
拐 37
拐杖 37
指令 37
指挥官 37
推广 37
搬迁 37
收费 37
新媳妇 37
无罪 37
日用品 37
曾@@ 37
最强 37
李某 37
构思 37
架@@ 37
查出 37
棒@@ 37
棚 37
橡皮 37
欢呼 37
此人 37
气体 37
注意事项 37
洗脸 37
流入 37
涤纶 37
深切 37
深感 37
满是 37
满脸 37
滴 37
演变 37
炼@@ 37
焦急 37
献出 37
珍@@ 37
电影节 37
电脑@@ 37
盲 37
相声 37
看不清 37
眠 37
研发 37
祖@@ 37
穷人 37
第四@@ 37
笼@@ 37
管道 37
簿 37
精通 37
纯 37
统统 37
缠@@ 37
网友 37
网络@@ 37
老年 37
胶@@ 37
脉搏 37
膘 37
船员 37
艺 37
菌 37
营@@ 37
补偿 37
警卫 37
讲课 37
论述 37
请客 37
谓 37
责@@ 37
贤 37
赏 37
赔 37
赛事 37
赤字 37
趁@@ 37
跆拳道 37
跨@@ 37
轻便 37
辞去 37
这才 37
适@@ 37
逗@@ 37
通行 37
遇到困难 37
遗址 37
遗物 37
那段 37
邦 37
部署 37
闭 37
闯@@ 37
间接 37
阴影 37
阻拦 37
革新 37
顶级 37
顽固 37
餐桌上 37
驾车 37
高喊 37
高尚 37
高山 37
150 36
; 36
S@@ 36
一旁 36
一枪 36
一架 36
不佳 36
不动产 36
不由得 36
不负责任 36
东京 36
两半 36
个人信息 36
之风 36
五十@@ 36
传递 36
依 36
值@@ 36
偏向 36
做过 36
停顿 36
健全 36
僵@@ 36
儿媳 36
入侵 36
六个 36
兴致勃勃 36
写日记 36
农田 36
决定性 36
冷得 36
凑 36
几分 36
几十@@ 36
出了门 36
出自 36
创造性 36
删除 36
刺绣 36
削@@ 36
包袱 36
区@@ 36
十天 36
午餐 36
卧@@ 36
原油 36
发誓 36
发青 36
变暖 36
后方 36
听听 36
周六 36
地被 36
地走了 36
城里 36
基准 36
外来 36
大国 36
大片 36
天气预报 36
太热 36
好友 36
妖@@ 36
宇 36
寒假 36
小女孩 36
尺子 36
属@@ 36
岩@@ 36
巢 36
工艺 36
广告@@ 36
度假 36
康复 36
开张 36
必要性 36
扭 36
扰 36
拼搏 36
捕 36
掩@@ 36
援@@ 36
摸索 36
教育部 36
新郎新娘 36
时差 36
星期天 36
晕 36
景@@ 36
曾一度 36
最先 36
有话 36
机制 36
杀害 36
松懈 36
果树 36
染成 36
桶 36
欣@@ 36
法规 36
注@@ 36
洗衣机 36
派出 36
流水 36
混纺 36
游乐园 36
游览 36
湖 36
湿@@ 36
火星 36
火爆 36
炉子 36
烤@@ 36
烧酒 36
照料 36
牌@@ 36
牧师 36
犯罪分子 36
献给 36
电灯 36
白雪 36
目前为止 36
眯 36
着火 36
着迷 36
研@@ 36
确@@ 36
碟子 36
紫色 36
繁殖 36
纤@@ 36
细心 36
群体 36
聘请 36
肚@@ 36
肚子饿 36
肺 36
胆小鬼 36
舍@@ 36
舔 36
航线 36
艳 36
药店 36
虑 36
蛋白质 36
观测 36
规范 36
视觉 36
角落里 36
议长 36
访@@ 36
识 36
试着 36
贫 36
赵 36
赶不上 36
躲@@ 36
辩 36
进化 36
进程 36
迟早 36
迷惑 36
追赶 36
遮住 36
钓 36
链 36
锁@@ 36
长短 36
门票 36
隐患 36
难忘 36
震 36
青春期 36
顺便 36
飞快 36
骗@@ 36
10@@ 35
c@@ 35
e 35
一如既往 35
一帆风顺 35
一方面 35
一粒 35
一轮 35
七月 35
下山 35
不亚于 35
不可开交 35
不怎么样 35
不良@@ 35
个个 35
中介 35
中国政府 35
主妇 35
乃 35
京 35
今天下午 35
仪@@ 35
会面 35
伯@@ 35
促销 35
做错 35
儿媳妇 35
儿童@@ 35
充实 35
先后 35
光彩 35
克制 35
全民 35
公众 35
共同@@ 35
关爱 35
农场 35
击败 35
分散 35
分给 35
初级 35
判定 35
加拿大 35
加点 35
动静 35
劳资 35
劳驾 35
北部 35
千方百计 35
卒 35
印花 35
卷入 35
叉 35
变质 35
叹气 35
各有 35
向上 35
吞@@ 35
启发 35
周到 35
咕@@ 35
哗哗 35
国产 35
墨 35
外行 35
大叔 35
大奖 35
婚事 35
嫉妒 35
宣告 35
宰@@ 35
尝@@ 35
尝到 35
展览 35
帐 35
幢 35
开支 35
弟子 35
彩色 35
往常 35
心地善良 35
心痛 35
忠告 35
思想@@ 35
恐 35
愣 35
愤@@ 35
截@@ 35
打了个 35
打发 35
打败 35
抓捕 35
抽象 35
招牌 35
捉@@ 35
摄氏度 35
撰写 35
支票 35
收纳 35
攻势 35
救出 35
斗志 35
新车 35
施加 35
无异于 35
日前 35
日本政府 35
朝气蓬勃 35
未免太 35
桃@@ 35
歌词 35
此时 35
民主@@ 35
汽油 35
沸腾 35
泥土 35
泼@@ 35
洒@@ 35
海面 35
浸@@ 35
清凉 35
滋@@ 35
演唱会 35
烈@@ 35
版@@ 35
狼@@ 35
猎人 35
率@@ 35
玻璃@@ 35
用地 35
疼爱 35
疾 35
相爱 35
相等 35
真是太 35
着装 35
祭@@ 35
科学@@ 35
秦@@ 35
积雪 35
竞@@ 35
竭尽全力 35
筐 35
箭@@ 35
紫菜 35
繁忙 35
级别 35
罕见 35
罢@@ 35
美德 35
美景 35
老大 35
老奶奶 35
耕地 35
股份 35
肩@@ 35
脆弱 35
腿@@ 35
舍不得 35
艰辛 35
色调 35
花草 35
褶皱 35
西欧 35
观赏 35
解决方案 35
讲师 35
讲解 35
说完 35
请原谅 35
诺 35
货车 35
踪迹 35
轨 35
轰@@ 35
过失 35
透过 35
通知书 35
逢@@ 35
邪@@ 35
邻里 35
门槛 35
阁 35
随后 35
零用钱 35
静静地 35
高句丽 35
高额 35
鼻@@ 35
u@@ 34
一个个 34
一号 34
一响 34
三人 34
三分 34
三大 34
上周 34
下车 34
不合 34
不容忽视 34
不懂事 34
不成@@ 34
不止 34
丢掉 34
乖 34
二十岁 34
互相@@ 34
亡 34
他长 34
伏@@ 34
休 34
传到 34
传给 34
伪造 34
体温 34
便于 34
保密 34
保护@@ 34
信息化 34
借助 34
假设 34
做些 34
做作业 34
做菜 34
停下 34
停下来 34
兑 34
军官 34
决不会 34
冷清 34
几句话 34
函 34
分发 34
分辨 34
刑@@ 34
前去 34
办好 34
功劳 34
勒 34
勺 34
勾结 34
卫@@ 34
历 34
参 34
发育 34
叠@@ 34
只用 34
台上 34
台词 34
右手 34
吃点 34
君子 34
哄@@ 34
嘘 34
回合 34
回想 34
回收 34
国防部 34
坠 34
堆@@ 34
复原 34
复苏 34
大伙儿 34
大体 34
大王 34
夹子 34
奖励 34
好好学习 34
好消息 34
好评 34
姐妹 34
宋@@ 34
审议 34
客车 34
家电 34
察 34
封建 34
封闭 34
小店 34
小船 34
屑 34
山林 34
康@@ 34
往前 34
怒 34
总长 34
愚@@ 34
慎重考虑 34
成都 34
手头 34
抖 34
拦 34
拦@@ 34
择@@ 34
拳击 34
损伤 34
换上 34
掏@@ 34
掐@@ 34
探 34
握 34
搅拌 34
搞好 34
摆在 34
播种 34
改掉 34
放过 34
文人 34
斟酌 34
断绝 34
新买 34
方言 34
旗@@ 34
无效 34
无耻 34
日渐 34
早起 34
旱 34
暴 34
最小 34
有期徒刑 34
有罪 34
朝着 34
木匠 34
机器人 34
权限 34
极力 34
柄 34
查处 34
桑@@ 34
检测 34
楼梯 34
款@@ 34
武术 34
每天晚上 34
民意 34
水质 34
永久 34
江原道 34
江边 34
汽车@@ 34
没来 34
泉水 34
泡@@ 34
洗衣服 34
浪费时间 34
海关 34
渔@@ 34
湿透 34
漆黑 34
灵敏 34
热带 34
狂热 34
环节 34
现实生活 34
玻璃窗 34
琴 34
生产@@ 34
生涯 34
男子汉 34
相撞 34
相结合 34
眼球 34
窃听 34
第二次 34
策略 34
管理@@ 34
纸币 34
绝不会 34
继@@ 34
编制 34
美貌 34
耗@@ 34
联合@@ 34
肚 34
肩上 34
腹@@ 34
自愿 34
自我@@ 34
舱 34
萨@@ 34
落选 34
蔫 34
蜜 34
螺丝 34
行径 34
训斥 34
调和 34
质疑 34
跌倒 34
路口 34
转播 34
辜负 34
迁@@ 34
运动鞋 34
这道 34
这道题 34
进屋 34
连忙 34
连续剧 34
逆境 34
逆转 34
通俗 34
道菜 34
酝酿 34
野花 34
金色 34
锋利 34
长满 34
闪 34
闷@@ 34
陆军 34
须@@ 34
饿死 34
驻扎 34
高中生 34
高地 34
高超 34
鱿鱼 34
鲁迅 34
I@@ 33
m 33
一朵 33
一款 33
一顿饭 33
万吨 33
上放 33
不宜 33
不得已 33
与众不同 33
两者 33
乔@@ 33
五天 33
交通工具 33
亩 33
京华 33
他来 33
仙@@ 33
令人吃惊 33
以防 33
伤痛 33
保健 33
候@@ 33
债@@ 33
偶@@ 33
充分发挥 33
冒充 33
冒犯 33
决 33
决议 33
冷战 33
凝视着 33
分解 33
别提 33
别着急 33
办公 33
功效 33
包容 33
升高 33
半夜 33
南极 33
博客 33
双重 33
发掘 33
发脾气 33
发酵 33
受罪 33
受过 33
吃药 33
君@@ 33
咣当 33
围墙 33
围着 33
固有 33
国民经济 33
地下室 33
地形 33
地瓜 33
地铁站 33
埋头 33
增进 33
多家 33
天黑 33
夺取 33
如何是好 33
威望 33
安静下来 33
对决 33
小王 33
尘 33
就是说 33
山区 33
市里 33
希腊 33
帖 33
幸@@ 33
开启 33
异性 33
弟 33
当上 33
当代 33
当啷 33
心底 33
忍住 33
怎么回事 33
总而言之 33
总额 33
想方设法 33
想象力 33
意向 33
憋 33
我怕 33
把头 33
抽出 33
拒@@ 33
拿手 33
据调查 33
操纵 33
放宽 33
敲打 33
整整齐齐 33
无情 33
无穷无尽 33
晒@@ 33
晒干 33
暂@@ 33
更新 33
最快 33
月球 33
板子 33
柴 33
框架 33
植@@ 33
正值 33
正月 33
武 33
毅然 33
汽@@ 33
浅薄 33
济州 33
海底 33
消极 33
游玩 33
滥用 33
漫画书 33
澳大利亚 33
火热 33
爽@@ 33
物流 33
独裁政权 33
猛烈地 33
珠@@ 33
班级 33
生活@@ 33
生鱼片 33
痕 33
登陆 33
盆@@ 33
研究员 33
研究成果 33
礼拜 33
祈求 33
离家 33
程@@ 33
空荡荡 33
第一天 33
签名 33
粗心 33
粮@@ 33
精密 33
糖果 33
糟蹋 33
紧密 33
红火 33
经营者 33
缺口 33
羞愧 33
老太太 33
肥料 33
肿 33
胶 33
航@@ 33
艺@@ 33
苦头 33
蒸发 33
虾 33
补贴 33
要点 33
记忆力 33
说好 33
谎话 33
费力 33
赵@@ 33
越发 33
踢@@ 33
车道 33
车间 33
较量 33
迟 33
迫害 33
逐@@ 33
那事 33
镶嵌 33
阶级 33
降雨 33
陷害 33
隐私 33
集市 33
雪白 33
项@@ 33
餐@@ 33
饮@@ 33
饰 33
骗人 33
高校 33
鲜艳 33
120 32
2007 32
20@@ 32
o 32
一匹 32
一瘸一拐 32
一般来说 32
一见 32
上门 32
下载 32
不理 32
两侧 32
两张 32
主持 32
久久 32
书写 32
云彩 32
交涉 32
仁 32
以至 32
仪 32
仿@@ 32
伐 32
会见 32
体育场 32
保住 32
俱@@ 32
光复 32
况 32
凡是 32
凤@@ 32
出人头地 32
出汗 32
判 32
别忘了 32
到期 32
剧院 32
助长 32
博览会 32
卫 32
历史@@ 32
发货 32
变革 32
各大 32
呆@@ 32
周日 32
咖啡厅 32
哈哈 32
哟 32
哧 32
回归 32
堡 32
大伙 32
大笑 32
天色 32
奖牌 32
如果说 32
妥 32
姜 32
学习成绩 32
学术@@ 32
宇宙飞船 32
小孙子 32
小路 32
屈服于 32
山火 32
工业@@ 32
带走 32
平生 32
庆@@ 32
序 32
庭 32
建国 32
开花 32
引领 32
弯@@ 32
弯曲 32
役 32
徐@@ 32
御@@ 32
心事 32
怯@@ 32
总有 32
总部 32
恼火 32
惨败 32
感谢您 32
房租 32
手下 32
承蒙 32
抛 32
抛开 32
拉链 32
拥护 32
拱@@ 32
授@@ 32
排成 32
控制@@ 32
掩护 32
掸 32
握手 32
搬运 32
撤退 32
收下 32
收受 32
放置 32
政界人士 32
散落 32
敬 32
整治 32
斥 32
新政府 32
新词 32
新陈代谢 32
方便面 32
无穷 32
无需 32
日出 32
晃@@ 32
晴@@ 32
暴雪 32
曼@@ 32
朴实 32
杨@@ 32
枪声 32
框 32
棋 32
棍子 32
槽 32
死后 32
每日 32
水上 32
水流 32
池@@ 32
泄漏 32
法定 32
洙 32
流淌 32
流行歌曲 32
浑@@ 32
浩@@ 32
淘@@ 32
灌 32
火炉 32
熊猫 32
熙 32
爱国 32
牢 32
犯罪行为 32
理会 32
理发 32
用途 32
用餐 32
番 32
痛哭 32
登载 32
皱 32
监 32
看似 32
真叫人 32
着陆 32
短时间 32
碍@@ 32
社团 32
离家出走 32
稀 32
税款 32
空地 32
立马 32
紧迫 32
经营权 32
绑架 32
缝@@ 32
缸 32
罐 32
翘@@ 32
翻过 32
翼 32
老李 32
职能 32
育@@ 32
胀 32
背影 32
胖@@ 32
胸口 32
脱掉 32
腐烂 32
腰带 32
自然环境 32
舅舅 32
西海 32
设@@ 32
评论家 32
诚意 32
诺@@ 32
贫富差距 32
贴着 32
赏@@ 32
走近 32
距 32
路过 32
践踏 32
身影 32
过期 32
过节 32
这届 32
这趟 32
迟@@ 32
迟早会 32
通往 32
遗留 32
遗迹 32
那句话 32
都市 32
采纳 32
采集 32
重新@@ 32
银行贷款 32
长子 32
附 32
随笔 32
随身携带 32
雄 32
集中精力 32
雪地 32
雪花 32
面具 32
饥@@ 32
驴 32
36 31
N@@ 31
一派 31
三名 31
三岁 31
上街 31
上车 31
上长 31
下决心 31
不多 31
不大 31
不由 31
不知@@ 31
中期 31
中要 31
丹@@ 31
丽@@ 31
之处 31
乘务员 31
乱七八糟 31
事来 31
二楼 31
享@@ 31
人品 31
从没 31
仓 31
以内 31
任期 31
企业@@ 31
使用者 31
偏差 31
偶 31
傲@@ 31
僵硬 31
充斥 31
公款 31
公然 31
公职人员 31
共同努力 31
关键@@ 31
关键时刻 31
冰淇淋 31
冻僵 31
减免 31
凭着 31
出事 31
出头 31
出局 31
出错 31
分担 31
制订 31
前边 31
剑@@ 31
力求 31
勇士 31
包里 31
医疗@@ 31
十字路口 31
十点 31
升级 31
南下 31
历经 31
参军 31
双腿 31
反感 31
变形 31
司令 31
吃完饭 31
吃掉 31
吃零食 31
同行 31
名声 31
后人 31
听从 31
周边国家 31
哪能 31
喝咖啡 31
嗒 31
国家@@ 31
圆圆的 31
坚守 31
增大 31
声响 31
大有 31
大酱 31
奥 31
好久没 31
妥善 31
姐 31
孕妇 31
字母 31
官司 31
寻 31
小鸟 31
层面 31
山村 31
岁数 31
工作@@ 31
带到 31
常去 31
年间 31
开辟 31
开除 31
往日 31
律@@ 31
微 31
恒@@ 31
惊醒 31
我市 31
战略@@ 31
房门 31
技艺 31
把门 31
抹布 31
担保 31
挥动 31
挪 31
捏@@ 31
捞@@ 31
插秧 31
搜@@ 31
收视率 31
救护车 31
救灾物资 31
文艺@@ 31
斑@@ 31
新一代 31
旅@@ 31
旅途 31
无不 31
无线 31
旱@@ 31
旺盛 31
昏 31
昨夜 31
有权 31
本词典 31
朴某 31
权势 31
权益 31
构筑 31
根除 31
正合适 31
此处 31
殉@@ 31
残疾 31
毫不@@ 31
气儿 31
池 31
泛@@ 31
浇@@ 31
济@@ 31
浮 31
海浪 31
清洗 31
游行 31
溅 31
溜溜 31
漆@@ 31
激励 31
炮@@ 31
炮弹 31
点子 31
烤肉 31
照明 31
照看 31
爷 31
片面 31
牌子 31
王老师 31
珍藏 31
瑟瑟 31
电费 31
留学生 31
疯@@ 31
疲惫不堪 31
疾@@ 31
盗 31
目击者 31
盲@@ 31
碰上 31
神仙 31
空缺 31
突如其来 31
章程 31
算盘 31
箱@@ 31
篝火 31
篮 31
糊涂 31
组长 31
结成 31
缓和 31
缺席 31
羞 31
考试合格 31
而行 31
肝@@ 31
育 31
胃@@ 31
脑海中 31
艾滋病 31
苍蝇 31
苏联 31
葫芦 31
藐视 31
衬衣 31
被捕 31
触 31
讯 31
请勿 31
诺言 31
谈到 31
谎 31
谨@@ 31
起点 31
蹬 31
返还 31
这双鞋 31
连连 31
连锁 31
追究责任 31
逃脱 31
通风 31
邑 31
郑 31
金总 31
钢笔 31
阔@@ 31
除去 31
雕 31
雨淋 31
飞过 31
首相 31
驾驶员 31
验@@ 31
鹿@@ 31
鼎@@ 31
一不小心 30
一千 30
万能 30
万里长城 30
三日 30
下水 30
下调 30
不着 30
不胜感激 30
世道 30
两岁 30
中年 30
事发 30
五岁 30
交代 30
交情 30
仇 30
价格@@ 30
优良 30
何 30
余名 30
佛像 30
你方 30
保持沉默 30
做个 30
兄弟俩 30
免除 30
兜@@ 30
入伍 30
农历 30
冷面 30
减弱 30
出产 30
刚好 30
判处 30
到位 30
割 30
动态 30
勇于 30
包饭 30
单元 30
卧室 30
原文 30
发作 30
取代 30
右边 30
吴@@ 30
和平@@ 30
哑 30
哪有 30
喂@@ 30
喝完 30
四十 30
地域 30
均@@ 30
基于 30
堪称 30
填 30
境界 30
复古 30
复活 30
多种多样 30
太紧 30
太重 30
太难 30
女孩儿 30
好感 30
好象 30
婆@@ 30
子孙 30
字典 30
孝@@ 30
孤立 30
官兵 30
实习 30
宽容 30
屡@@ 30
山沟 30
州@@ 30
已久 30
巾 30
帖子 30
幕后 30
幼儿 30
庆 30
店员 30
废水 30
延 30
开工 30
弊 30
引人注目 30
得来 30
心愿 30
必不可少 30
忘掉 30
快递 30
悟 30
情愿 30
惊 30
感人 30
戏剧性 30
成败 30
战役 30
战绩 30
扇@@ 30
扒 30
批货 30
技 30
抓获 30
投诉 30
报复 30
抵 30
抹@@ 30
拄着 30
拌@@ 30
招待会 30
挥舞 30
捡起 30
探望 30
推开 30
揭 30
揭穿 30
撅 30
放点 30
旅行社 30
无所@@ 30
日元 30
旧社会 30
旨 30
旨在 30
晒黑 30
晕@@ 30
暮@@ 30
最少 30
最长 30
束 30
来信 30
柴火 30
梁 30
比分 30
汤里 30
沉沉 30
法子 30
法语 30
注意力 30
泽 30
洞里 30
流出 30
流感 30
涩 30
淋@@ 30
灾@@ 30
点钟 30
煤气 30
牵着 30
犯下 30
猖獗 30
玩得 30
现政府 30
玻璃杯 30
瑞@@ 30
瓦 30
生物@@ 30
甩 30
电子商务 30
畅 30
看不出 30
看得 30
瞒 30
码@@ 30
砍@@ 30
秋收 30
称作 30
称号 30
稍稍 30
稳重 30
窜 30
童 30
第二个 30
筋 30
紧急情况 30
累得 30
约翰 30
级@@ 30
纲 30
练@@ 30
美国政府 30
美术馆 30
老化 30
脑子里 30
脸皮 30
腹部 30
花香 30
英语@@ 30
观众席 30
触感 30
设定 30
诚@@ 30
详@@ 30
读完 30
财政@@ 30
贪污腐败 30
赠@@ 30
赴@@ 30
起头 30
起源于 30
跟头 30
过冬 30
迈着 30
近几年 30
还清 30
进而 30
通红 30
那点 30
那片 30
郊外 30
野生动物 30
铲除 30
铺上 30
长大成人 30
长长的 30
闪烁着 30
阳台 30
陈 30
隐隐 30
预兆 30
预报 30
饲料 30
骂@@ 30
高声 30
魂@@ 30
2003 29
55 29
C 29
E@@ 29
H@@ 29
O@@ 29
h@@ 29
一体 29
一动 29
一团 29
一家子 29
一滴 29
一连 29
三种 29
上铺 29
不休 29
不在意 29
不干 29
不难 29
世宗 29
世界级 29
世间 29
两根 29
乖乖 29
习惯性 29
二百@@ 29
交警 29
亭 29
亮点 29
以色列 29
伙 29
会议室 29
伤者 29
伸进 29
住宅区 29
何处 29
何种 29
例@@ 29
供给 29
俄@@ 29
党员 29
八十 29
共识 29
冰激凌 29
决策 29
冻结 29
初恋 29
刨 29
前夕 29
前行 29
剥削 29
剩@@ 29
动植物 29
劳工 29
升职 29
南部 29
博 29
印有 29
厚颜无耻 29
原定 29
反响 29
发电 29
发短信 29
发表声明 29
受理 29
变为 29
叙@@ 29
口才 29
口渴 29
召集 29
司@@ 29
后代 29
告白 29
咖啡@@ 29
品格 29
哉 29
商讨 29
啪啪 29
国务总理 29
图画 29
处方 29
多有 29
大为 29
大蒜 29
太平洋 29
奴 29
妄@@ 29
始 29
婚后 29
嫁@@ 29
存放 29
孤儿 29
学过 29
定下 29
将近 29
尚且 29
尤为 29
岩 29
岸@@ 29
岸边 29
左手 29
干嘛 29
幸好 29
庄@@ 29
延迟 29
建校 29
强力 29
强忍 29
得益于 29
心理@@ 29
必将 29
念头 29
怒火 29
总共 29
总有一天 29
情人 29
情人节 29
愚昧 29
打个 29
打得 29
打断 29
扔进 29
抗争 29
折扣 29
护 29
披@@ 29
拽 29
指向 29
排练 29
揽 29
搬到 29
摆满 29
摘掉 29
效力 29
教学@@ 29
敦促 29
文坛 29
斑 29
施 29
无能 29
时分 29
昏迷 29
替@@ 29
望远镜 29
机智 29
楚 29
橡胶 29
欢乐 29
歌迷 29
殿 29
求婚 29
沉思 29
没错 29
治愈 29
派别 29
海域 29
消防@@ 29
涌向 29
深入@@ 29
清醒过来 29
温室 29
潜水 29
烫伤 29
照着 29
爽口 29
物价上涨 29
牵扯 29
犬@@ 29
生成 29
申 29
电视节目 29
病倒 29
相互@@ 29
相通 29
相逢 29
真够 29
眼儿 29
瞩目 29
矿@@ 29
破旧 29
砸@@ 29
票房 29
离不开 29
离散 29
科研 29
租房 29
租金 29
穷得 29
空白 29
竣工 29
竹 29
符号 29
算了 29
篮@@ 29
糊@@ 29
糟@@ 29
纱 29
织 29
给人以 29
综合症 29
绽放 29
罗马 29
耕 29
胸前 29
腾 29
自卑 29
花盆 29
茬 29
落水 29
董事会 29
蜂@@ 29
蜜@@ 29
蜡 29
行星 29
衣物 29
补习班 29
袖手旁观 29
被誉为 29
警官 29
计算机@@ 29
认同 29
议@@ 29
论点 29
设计师 29
豆芽 29
贵宾 29
赌 29
赞@@ 29
赞叹 29
赞同 29
赢@@ 29
身为 29
车轮 29
辨@@ 29
辱 29
过高 29
迈@@ 29
运作 29
这样的话 29
这药 29
郁闷 29
针织 29
钝 29
钟@@ 29
钩 29
销售量 29
闻到 29
降价 29
院内 29
非正式 29
音乐剧 29
韵 29
顶撞 29
顺畅 29
领到 29
风光 29
风潮 29
饶 29
高尔夫球 29
鸡肉 29
鸭 29
黑人 29
/ 28
2014 28
L@@ 28
・ 28
一动不动 28
一小 28
一瓶 28
一组 28
一路上 28
一门 28
七年 28
下巴 28
不容 28
不适 28
东北 28
东北亚 28
个体 28
中世纪 28
中学生 28
举着 28
乎乎 28
乏 28
予 28
事要 28
亚运会 28
人行道 28
仰 28
伟人 28
住宿 28
你家 28
依赖于 28
侧面 28
侵@@ 28
促@@ 28
信号灯 28
倒入 28
儒教 28
光盘 28
兔 28
全新 28
公交 28
共享 28
共存 28
共鸣 28
关联 28
冠 28
冤 28
几名 28
几张 28
几百@@ 28
凿@@ 28
切断 28
刊物 28
制造业 28
剥 28
匆匆 28
匹 28
半导体 28
卖掉 28
厌 28
发展@@ 28
发展中国家 28
受灾 28
叙 28
可别 28
可口 28
司 28
各家 28
合格者 28
名片 28
吾 28
和尚 28
咳 28
围巾 28
坐火车 28
埃及 28
基因 28
堂堂 28
增 28
增长率 28
大雾 28
太辣 28
头顶 28
奏 28
妇 28
妹 28
媛媛 28
孙女 28
学识 28
定居 28
室@@ 28
室外 28
家庭主妇 28
寓言 28
察@@ 28
寿 28
封锁 28
尊 28
小姑娘 28
小镇 28
尼 28
屏 28
岭 28
崇@@ 28
巨浪 28
己@@ 28
带给 28
干活儿 28
废纸 28
座谈会 28
庭@@ 28
开动 28
开朗 28
弱者 28
往外 28
很帅 28
很棒 28
律 28
得罪 28
忙@@ 28
态势 28
性情 28
懒@@ 28
成年人 28
战线 28
截至 28
打下 28
抖@@ 28
抵制 28
押 28
押@@ 28
拾 28
挨着 28
捉 28
换个 28
援 28
搅@@ 28
撇@@ 28
擅自 28
攒钱 28
教诲 28
敢于 28
整洁 28
文凭 28
断定 28
新开 28
新式 28
新春 28
施加压力 28
族@@ 28
无可@@ 28
无缘无故 28
最具 28
有机 28
未成年人 28
本市 28
本年度 28
本文 28
本科 28
杀死 28
构想 28
查找 28
栋 28
核电站 28
桃花 28
桔子 28
梢 28
棒球队 28
橘子 28
正宗 28
每件事 28
民俊@@ 28
气压 28
水位 28
污水 28
没到 28
沦为 28
沼泽 28
法则 28
法律@@ 28
注意安全 28
流露 28
浓雾 28
淡淡的 28
灌@@ 28
火箭 28
炉 28
炎@@ 28
烟雾 28
热得 28
燕@@ 28
犯规 28
环境@@ 28
瓢 28
瓶@@ 28
电报 28
疫苗 28
病房 28
百分之@@ 28
真有 28
磨损 28
神态 28
禁烟 28
私自 28
积极性 28
称得上 28
穴 28
符 28
笼 28
策@@ 28
筛选 28
签字 28
粉碎 28
粘 28
糊口 28
结果显示 28
结果表明 28
维 28
美容 28
羞@@ 28
翻译成 28
职业@@ 28
胡子 28
腿部 28
自力更生 28
自动@@ 28
获奖者 28
落入 28
著称 28
薄弱 28
蘑菇 28
袖@@ 28
警察局 28
讲台 28
识@@ 28
说服力 28
赚取 28
赛跑 28
越大 28
踊跃 28
身后 28
转身 28
转过 28
辙 28
迎合 28
返 28
还好 28
这回 28
追捧 28
追随 28
途@@ 28
通宵 28
那人 28
那辆 28
邻居们 28
醒过来 28
释@@ 28
里装 28
金融@@ 28
钦佩 28
铃声 28
锋 28
闪电 28
闪闪发光 28
阵@@ 28
隆@@ 28
难度 28
雨下 28
雪上加霜 28
霸 28
面部 28
靴 28
鞭炮 28
韩美军 28
领导层 28
飞往 28
飞翔 28
驰@@ 28
驱@@ 28
驾照 28
高于 28
高明 28
高级@@ 28
高血压 28
16@@ 27
32 27
33 27
65 27
800 27
k 27
t 27
一伙 27
一封信 27
一枚 27
三十岁 27
上身 27
下个 27
不同于 27
不在乎 27
不曾 27
不说 27
丑陋 27
世俗 27
两班 27
丫头 27
中国队 27
中场 27
买点 27
二十世纪 27
五点 27
交织 27
人生@@ 27
人马 27
仍@@ 27
伊朗 27
伟@@ 27
侵略者 27
保护环境 27
借用 27
储@@ 27
兄 27
八个 27
六方会谈 27
内科 27
再有 27
军方 27
决议案 27
准则 27
几棵 27
出租 27
出院 27
分出 27
分泌 27
刊@@ 27
判断力 27
别扭 27
刺痛 27
加热 27
劳累 27
北京@@ 27
十八@@ 27
卖得 27
印刷 27
卵 27
去掉 27
又称 27
发扬 27
口头 27
号召 27
吃光 27
吉 27
员@@ 27
周刊 27
咕 27
咱@@ 27
响声 27
噔 27
囊@@ 27
回应 27
团结起来 27
园@@ 27
国力 27
地方@@ 27
地皮 27
址 27
坏话 27
域 27
培@@ 27
堂堂正正 27
声称 27
复制 27
夏日 27
外交官 27
外形 27
太过分 27
奇特 27
子公司 27
字体 27
学分 27
宋 27
完全@@ 27
官僚 27
家住 27
密密麻麻 27
富贵 27
寝@@ 27
封建@@ 27
封面 27
小河 27
小说家 27
尘@@ 27
尚属 27
尝到了 27
屠杀 27
岁@@ 27
帆 27
帝 27
带头 27
席卷 27
幅度 27
干起 27
平整 27
年头 27
幸亏 27
废墟 27
开关 27
弄清 27
弓@@ 27
弹力 27
当日 27
录像 27
得直 27
惜@@ 27
想不到 27
意想不到 27
懒人 27
截 27
所作所为 27
打扫卫生 27
抠@@ 27
拆开 27
拎 27
拜年 27
拟 27
拿走 27
捆@@ 27
捐给 27
掉落 27
掖 27
摄影@@ 27
摇头 27
改进 27
施行 27
无故 27
无赖 27
既有 27
旺季 27
昌@@ 27
显眼 27
更改 27
最起码 27
有所@@ 27
有所不同 27
有条理 27
朗@@ 27
期末考试 27
来讲 27
杭州 27
极点 27
果园 27
标记 27
栏杆 27
梅雨 27
款项 27
母语 27
污 27
泰山 27
流失 27
测验 27
浦项 27
海水浴场 27
消瘦 27
渔村 27
渡 27
渡@@ 27
渡过 27
滚动 27
演艺界 27
澡 27
热衷于 27
焦虑 27
照射 27
爱情故事 27
爸 27
牢@@ 27
牢固 27
物理 27
独 27
猎@@ 27
环境保护 27
甜甜的 27
生性 27
生活必需品 27
画画 27
病痛 27
盖子 27
盲人 27
直到现在 27
眉 27
看病 27
睡得 27
碧@@ 27
磨破 27
礼服 27
社交 27
祝愿 27
福祉 27
称之为 27
稻子 27
篮子 27
紫@@ 27
纪@@ 27
线路 27
经济学 27
编写 27
缴@@ 27
老头 27
考场 27
耐用 27
耻辱 27
肆无忌惮 27
肝 27
背诵 27
脸颊 27
膏 27
荣 27
荧@@ 27
荷兰 27
落到 27
董事 27
蓝天 27
蕴藏 27
蠢@@ 27
行军 27
行情 27
衰 27
装在 27
要不是 27
誓@@ 27
训@@ 27
财阀 27
质感 27
贬低 27
资格证 27
走着瞧 27
起义 27
趁着 27
跟随 27
跪 27
躲开 27
轴 27
辰 27
过生日 27
这方面 27
远大 27
迟钝 27
遭殃 27
那年 27
那篇 27
邪 27
酒馆 27
酗酒 27
酸痛 27
采取措施 27
钟声 27
锐@@ 27
错觉 27
闯过 27
间隔 27
阔 27
阴暗 27
降临 27
雇 27
面对面 27
革@@ 27
顶上 27
预约 27
领导者 27
颜@@ 27
飞舞 27
饱满 27
首位 27
骆驼 27
高原 27
高达 27
鸭@@ 27
鼻涕 27
1998 26
2001 26
2012 26
3.@@ 26
37 26
h 26
k@@ 26
n@@ 26
一大@@ 26
一届 26
一岁 26
一目了然 26
一类 26
上用 26
上要 26
下届 26
下酒菜 26
不愧 26
不能@@ 26
不诚实 26
两件 26
两大 26
两腿 26
严厉打击 26
严格遵守 26
严重性 26
主管部门 26
乃@@ 26
之势 26
争斗 26
人儿 26
人山人海 26
人有 26
什@@ 26
今天天气 26
令人震惊 26
伊斯兰 26
优 26
会晤 26
传真 26
伦 26
伸展 26
低着头 26
低迷 26
佳 26
保姆 26
倚 26
偷懒 26
储备 26
储存 26
僵 26
免疫 26
入境 26
公告 26
公害 26
共同点 26
典@@ 26
写信 26
冤@@ 26
冰块 26
出卖 26
出嫁 26
出新 26
击中 26
划着 26
剃@@ 26
前锋 26
剧中 26
剩余 26
动人 26
十五@@ 26
午@@ 26
卖出 26
原著 26
叉子 26
友@@ 26
友好关系 26
发芽 26
另一方面 26
史上 26
吝啬鬼 26
吧嗒 26
吩咐 26
吵得 26
呆呆地 26
哭闹 26
售货员 26
商贩 26
喝点 26
器皿 26
回老家 26
团圆 26
国产@@ 26
国境 26
国防@@ 26
圆形 26
圣诞节 26
在线 26
地基 26
坐地铁 26
坚硬 26
塑@@ 26
壁画 26
处置 26
多样化 26
大宇 26
大病 26
夺 26
奏@@ 26
套装 26
奥秘 26
好日子 26
好话 26
姥姥 26
婆 26
孤儿院 26
学好 26
守卫 26
安逸 26
官方 26
宪法法院 26
宽阔 26
寡妇 26
尸@@ 26
屎 26
山水 26
工程@@ 26
已过 26
常年 26
幕@@ 26
平壤 26
平日 26
广东 26
庄 26
库存 26
开化 26
归纳 26
径 26
徒弟 26
必有 26
快餐 26
忽 26
总公司 26
恰到好处 26
惊叹 26
惨 26
愈演愈烈 26
感叹 26
感激不尽 26
戒@@ 26
战乱 26
战斗机 26
截然 26
房产 26
打乒乓球 26
打瞌睡 26
扶持 26
技术人员 26
抚摸 26
报答 26
报警 26
抱住 26
抵押 26
拉面 26
拖欠 26
挽留 26
换季 26
捷径 26
推断 26
搞笑 26
摆出 26
摘下 26
改组 26
敏@@ 26
敬语 26
斯文 26
新兵 26
旅游@@ 26
无所谓 26
无非 26
日帝 26
日语 26
明朗 26
晚点 26
服药 26
未婚 26
本分 26
本店 26
本赛季 26
朵 26
机票 26
杂技演员 26
杜@@ 26
杯@@ 26
枕 26
果子 26
校内 26
校服 26
步入 26
氧 26
汇报 26
没完 26
沦落 26
注入 26
洗完 26
活下去 26
海啸 26
涌现 26
淘气 26
清算 26
温 26
渺小 26
滴溜溜 26
漏掉 26
漏洞 26
激起 26
照亮 26
熊@@ 26
熊熊燃烧 26
燕子 26
爱意 26
班上 26
生活习惯 26
用具 26
瘾 26
白云 26
白领 26
盖住 26
盗贼 26
盛大 26
相片 26
瞅 26
研讨会 26
祝您 26
神经@@ 26
穿越 26
窥@@ 26
竖@@ 26
笃@@ 26
第一步 26
简化 26
精明 26
索取 26
紫外线 26
纳税 26
纵然 26
经受 26
绷带 26
缔结 26
缴 26
美术作品 26
老爷 26
耸@@ 26
肿瘤 26
胸部 26
脑筋 26
腾@@ 26
自古以来 26
至极 26
艳@@ 26
花坛 26
茶馆 26
获得成功 26
蔓延到 26
衔 26
补助 26
被困 26
装进 26
誉 26
让@@ 26
记下 26
讲得 26
证词 26
诊@@ 26
请示 26
谈谈 26
谢谢您 26
贺@@ 26
资质 26
资金周转 26
趋@@ 26
跳动 26
踢球 26
转为 26
轻快 26
较为 26
边上 26
迈 26
迎风 26
这天 26
追问 26
逆 26
途 26
遏制 26
遥@@ 26
配套 26
配色 26
里头 26
重伤 26
金刚山 26
钉@@ 26
银行@@ 26
闹事 26
闹哄哄 26
阿富汗 26
障 26
难以忍受 26
鞭 26
韩币 26
顶嘴 26
颁布 26
预料到 26
额外 26
颠@@ 26
颠倒 26
风中 26
风暴 26
骑马 26
魔 26
鼠@@ 26
1500 25
2.@@ 25
600 25
i 25
r@@ 25
一举一动 25
一出 25
一夜之间 25
一封 25
一望无际 25
一棵树 25
一班 25
一肚子 25
七点 25
万个 25
下令 25
不争气 25
不分昼夜 25
不胜@@ 25
不论是 25
不道德 25
不顺 25
与其说是 25
与此相反 25
专 25
两样 25
丰厚 25
之作 25
之道 25
乖@@ 25
乳 25
事实真相 25
交易@@ 25
人民@@ 25
人造 25
传单 25
伤亡 25
估@@ 25
低头 25
依法 25
侦查 25
借着 25
偏爱 25
催促 25
像样 25
光州 25
八点 25
公婆 25
共和国 25
关照 25
典 25
冰面 25
冷漠 25
凝结 25
出手 25
出血 25
则@@ 25
削减 25
劣@@ 25
勾 25
勿 25
匀@@ 25
十多年 25
十月 25
千元 25
华盛顿 25
占有 25
厂@@ 25
厂里 25
历程 25
压倒性 25
叙事 25
只见 25
可乐 25
可取 25
司令部 25
司法@@ 25
叹息 25
后退 25
后门 25
启蒙 25
吻 25
咱 25
品味 25
哎哟 25
哩 25
唤起 25
喧闹 25
嗤 25
国人 25
国家元首 25
地开 25
坐满 25
坑@@ 25
垂 25
埃@@ 25
基层 25
基础@@ 25
堕落 25
塘 25
壮大 25
处事 25
处理@@ 25
外交部 25
外衣 25
夜班 25
大大小小 25
大巴 25
大路 25
大钱 25
天文数字 25
太阳能 25
失踪者 25
头晕 25
奥林匹克 25
女人味 25
好些 25
好坏 25
好莱坞 25
妻@@ 25
姑姑 25
威 25
孕育 25
字迹 25
孝顺 25
学弟 25
宁 25
实情 25
家里人 25
容量 25
宿 25
就别 25
尽管如此 25
山下 25
山野 25
岳母 25
崩@@ 25
左边 25
差错 25
干细胞 25
幻@@ 25
序@@ 25
建交 25
开得 25
引用 25
张老师 25
强有力 25
强队 25
归还 25
录用 25
彻夜 25
彻底@@ 25
很差 25
很累 25
得上 25
循@@ 25
微风 25
心眼 25
总体 25
恐@@ 25
恶习 25
悠久 25
悠闲地 25
患病 25
惟@@ 25
慈善 25
手掌 25
手枪 25
打起 25
打转 25
打量 25
扬起 25
报考 25
担子 25
拍卖 25
择 25
拾@@ 25
指着 25
据@@ 25
排球 25
控 25
提取 25
提防 25
握@@ 25
搁@@ 25
搭话 25
攥 25
改成 25
改良 25
敬请 25
数码 25
文学@@ 25
斥责 25
新房 25
旅程 25
无可挑剔 25
无心 25
旧时 25
旱情 25
明知 25
暴行 25
暴露出 25
朝鲜半岛 25
本报 25
机灵 25
村口 25
梦里 25
森 25
植 25
概@@ 25
榜 25
正为 25
步骤 25
水产 25
水管 25
沉没 25
没意思 25
浴室 25
消费@@ 25
涨价 25
深山 25
清纯 25
清香 25
游荡 25
游说 25
溪谷 25
滑稽 25
滚烫 25
滩 25
激发 25
火力 25
火山 25
烟草 25
热烈欢迎 25
熟人 25
牧场 25
犯错误 25
独裁者 25
王国 25
生死 25
生死@@ 25
电流 25
界线 25
监察 25
盖房子 25
相符 25
相貌 25
真不知道 25
真想 25
睡觉时 25
短篇小说 25
短缺 25
破例 25
磨蹭 25
离职 25
积攒 25
税率 25
空虚 25
窃@@ 25
笑了笑 25
筋@@ 25
篱笆 25
粉红色 25
紧凑 25
终日 25
统治者 25
续 25
署 25
美食 25
老总 25
脉@@ 25
脸儿 25
脸部 25
自古 25
自私 25
花瓣 25
芽 25
苛刻 25
药材 25
菲@@ 25
蓄@@ 25
虚荣 25
融入 25
蟹 25
血液循环 25
行进 25
衡量 25
衣架 25
表白 25
被称作 25
裂缝 25
褐色 25
西海岸 25
要紧 25
观望 25
规章制度 25
觉@@ 25
认出 25
认证 25
讨好 25
记在 25
试穿 25
该死 25
该片 25
说闲话 25
诸葛亮 25
诽谤 25
调皮 25
赞扬 25
走动 25
踩@@ 25
蹦@@ 25
身旁 25
身着 25
辛勤 25
辞呈 25
辣椒酱 25
过激 25
过热 25
这名 25
进出口 25
迷住 25
递交 25
逛@@ 25
遇难 25
避 25
那样的话 25
都行 25
重任 25
铸造 25
铺子 25
销售@@ 25
长处 25
长期以来 25
长胖 25
门户网站 25
防范 25
阻@@ 25
陶器 25
雄厚 25
非凡 25
预告 25
驱赶 25
骚乱 25
魔@@ 25
鸽子 25
黏@@ 25
黑客 25
0@@ 24
17@@ 24
34 24
G@@ 24
O 24
d 24
n 24
一上午 24
一发 24
一拳 24
一空 24
一说 24
三分之一 24
三年级 24
上场 24
上班时间 24
下半场 24
不利于 24
不是故意 24
不符 24
专利 24
专门@@ 24
两人@@ 24
两国之间 24
两支 24
中华民族 24
中将 24
丰盛 24
临 24
举手 24
乌鸦 24
乏味 24
乘车 24
乞讨 24
也罢 24
二年级 24
五百 24
亚麻 24
交了 24
人去 24
人参 24
任性 24
传授 24
传言 24
伴侣 24
低下 24
住户 24
你好 24
依次 24
修好 24
修行 24
候鸟 24
偷偷地 24
僧 24
光阴 24
光顾 24
六十 24
兰花 24
共同声明 24
养殖 24
兼备 24
兽@@ 24
再现 24
军事力量 24
几块 24
出土 24
刑事@@ 24
划拉 24
别墅 24
到来之际 24
刷卡 24
剧增 24
勤快 24
化解 24
十二 24
升温 24
半小时 24
单一 24
却@@ 24
卸@@ 24
厅长 24
反射 24
各方 24
吊唁 24
名分 24
后卫 24
听不懂 24
听觉 24
吱 24
吹得 24
告终 24
哀悼 24
唤醒 24
喝茶 24
喷出 24
噗@@ 24
四季 24
四月 24
回忆起 24
因涉嫌 24
因特网 24
地下水 24
坍塌 24
堵@@ 24
墨水 24
声调 24
大军 24
大喊大叫 24
大坝 24
大妈 24
大婶 24
大幅度 24
天气晴朗 24
天然@@ 24
太极 24
奋力 24
奔驰 24
奖品 24
奶油 24
好不好 24
姜@@ 24
姿 24
娱乐@@ 24
媚 24
嫁出去 24
存钱 24
宁@@ 24
安宁 24
安置 24
完后 24
官僚主义 24
密度 24
寸 24
对人 24
小规模 24
就职 24
层次 24
岔 24
崇拜 24
工作作风 24
巴黎 24
巷 24
市场经济 24
希 24
常有 24
干得 24
平稳 24
年轻@@ 24
庆州 24
库@@ 24
底层 24
废弃 24
延误 24
开出 24
开办 24
开枪 24
弓 24
强势 24
录@@ 24
影院 24
征集 24
忠 24
怎 24
怎@@ 24
恰@@ 24
患@@ 24
悬 24
情报@@ 24
愣@@ 24
慰@@ 24
成年 24
成群 24
我爱你 24
战斗@@ 24
打中 24
打倒 24
打喷嚏 24
披上 24
拉扯 24
拓宽 24
挂号 24
挨打 24
挪@@ 24
挽 24
捐献 24
换来 24
接二连三 24
提名 24
提炼 24
搓@@ 24
搜集 24
搭乘 24
搭建 24
攒@@ 24
支持者 24
收看 24
攻读 24
放映 24
教徒 24
数字@@ 24
数百@@ 24
文静 24
新加坡 24
新款 24
无可奈何 24
无所事事 24
无法挽回 24
无理取闹 24
时装@@ 24
星期六 24
春雨 24
暂停 24
曲调 24
最低@@ 24
本部 24
朴智星 24
松软 24
标签 24
样品 24
格式 24
桌@@ 24
棱@@ 24
椒 24
歉 24
殷@@ 24
水蒸气 24
沫 24
治病 24
沿 24
泻 24
津贴 24
洽谈 24
派兵 24
派对 24
浪潮 24
温差 24
温顺 24
港@@ 24
滞@@ 24
满面 24
滥@@ 24
灭@@ 24
炎 24
点击 24
炼 24
烈 24
烘@@ 24
煞 24
熨斗 24
牲口 24
牵手 24
狂风 24
狭小 24
王先生 24
现场直播 24
现行 24
生前 24
用尽 24
电器 24
电影@@ 24
男孩子 24
畅@@ 24
留言 24
疲@@ 24
癌 24
目录 24
相识 24
盼望着 24
看好 24
着重 24
睁 24
石子 24
砍掉 24
砰 24
碰撞 24
磁@@ 24
礼品 24
社会福利 24
秋日 24
秋风 24
稀少 24
税务 24
究 24
章鱼 24
筹措 24
简短 24
简约 24
算数 24
精确 24
紧闭 24
红红的 24
纪念活动 24
终生 24
结了婚 24
绩 24
绷 24
缓@@ 24
缘@@ 24
缝隙 24
网上@@ 24
美术@@ 24
美满 24
老老实实 24
而出 24
职棒 24
肉体 24
背心 24
胎@@ 24
胜者 24
脱落 24
脸蛋 24
自然界 24
至上 24
良 24
艺术@@ 24
节假日 24
芳@@ 24
英寸 24
茎 24
荡@@ 24
荷@@ 24
菜单 24
菜肴 24
葡萄@@ 24
蕾丝 24
蚀 24
蜂拥而至 24
衔接 24
装扮 24
讨 24
议题 24
诉说 24
试一试 24
说不出来 24
谁@@ 24
财务 24
账簿 24
贵方 24
费劲 24
赶来 24
跟前 24
转眼 24
过大 24
迎面 24
运动@@ 24
迷恋 24
适量 24
通道 24
造船 24
逸@@ 24
遇上 24
那块 24
那小子 24
酱@@ 24
酿成 24
醒@@ 24
重担 24
金属@@ 24
镜@@ 24
长假 24
防线 24
阻 24
陈列 24
院里 24
随风 24
隔阂 24
难处 24
集体@@ 24
零星 24
露水 24
鞭子 24
顶峰 24
顽@@ 24
额@@ 24
风俗习惯 24
风浪 24
饮用水 24
鹰 24
14@@ 23
2013 23
250 23
38 23
46 23
48 23
63 23
700 23
T@@ 23
d@@ 23
g 23
in@@ 23
一则 23
一大笔钱 23
一新 23
一耸 23
一辆车 23
下列 23
下起 23
不光 23
不受 23
不尽 23
不得@@ 23
不振 23
不管怎样 23
不规则 23
专业@@ 23
专人 23
专职 23
世事 23
东部 23
丢人 23
两国间 23
两岸 23
主犯 23
书架上 23
买房 23
交付 23
交叉 23
京畿道 23
人中 23
人工@@ 23
仓@@ 23
企 23
会馆 23
传球 23
伪装 23
体型 23
体裁 23
余生 23
使出 23
依托 23
保养 23
保育 23
修正案 23
俺 23
借来 23
假日 23
停业 23
停住 23
儿童节 23
元宵节 23
充电 23
全面@@ 23
全额 23
公文 23
关头 23
兴隆 23
养育 23
再生 23
军部 23
农业@@ 23
农忙 23
冲破 23
几只 23
几家 23
几条 23
出去玩 23
凿 23
刀子 23
切不可 23
刮起 23
剖@@ 23
劣势 23
劫 23
募集 23
勾当 23
匪 23
区政府 23
十几@@ 23
十分@@ 23
十名 23
千人 23
半点 23
卫生@@ 23
厨@@ 23
参加者 23
反击 23
发票 23
发软 23
受尽 23
叛军 23
句@@ 23
可观 23
右侧 23
司法部 23
各人 23
各处 23
各类 23
合伙 23
吉他 23
同桌 23
名胜古迹 23
后头 23
后遗症 23
吓了一跳 23
呼唤 23
哲 23
唉呀 23
商务@@ 23
喀@@ 23
嗅觉 23
嘿 23
噗 23
四方 23
团结一心 23
国库 23
地往 23
坟 23
垫子 23
域@@ 23
堆满 23
堤坝 23
填补 23
墓 23
增产 23
备战 23
多功能 23
多方 23
大众文化 23
大哭 23
大嫂 23
天性 23
天文 23
失业者 23
头绪 23
娃 23
存储 23
完备 23
宜 23
宜@@ 23
实验室 23
宠@@ 23
审美 23
宫殿 23
家产 23
家家 23
寄宿 23
寻常 23
小菜 23
尸 23
尹@@ 23
层层 23
山头 23
崇高 23
崽 23
巷子 23
干预 23
平和 23
年终 23
并不@@ 23
应急 23
底儿 23
度日 23
康 23
开发新 23
弄脏了 23
强度 23
当着 23
往上 23
往下@@ 23
往返 23
得住 23
得出结论 23
心胸 23
必定 23
必然@@ 23
怒气 23
总和 23
恍@@ 23
恐慌 23
恶魔 23
悬念 23
情调 23
戳 23
扁 23
打糕 23
扛 23
扫地 23
扭曲 23
技@@ 23
把戏 23
抗日 23
拖延时间 23
招来 23
捕获 23
捡@@ 23
推论 23
揉@@ 23
插手 23
揪 23
搬进 23
摇摇晃晃 23
文书 23
文笔 23
斗士 23
新生儿 23
新闻报道 23
日历 23
日夜 23
时段 23
时装 23
晋升为 23
晓 23
更替 23
本子 23
本意 23
杏@@ 23
杠 23
极高 23
析 23
枕@@ 23
枣 23
枯竭 23
树丛 23
样样 23
根据地 23
模拟 23
横幅 23
歌星 23
正当@@ 23
正忙着 23
此案 23
毁@@ 23
毒性 23
永 23
江河 23
沃@@ 23
沉迷于 23
没带 23
法治 23
泳 23
济 23
浓郁 23
浦 23
海风 23
消沉 23
消防队员 23
润@@ 23
淋湿 23
淫@@ 23
深得 23
混杂 23
湿度 23
溶@@ 23
滑倒 23
满嘴 23
满满 23
漂漂亮亮 23
漠不关心 23
炒饭 23
煎熬 23
犯错 23
猎 23
猛增 23
猜测 23
王室 23
珠子 23
理学 23
瑞士 23
瑟 23
生于 23
生命力 23
生命危险 23
生态@@ 23
用钱 23
申请书 23
电视@@ 23
电话号码 23
男友 23
画作 23
畜@@ 23
相差无几 23
石块 23
研究院 23
砖@@ 23
破损 23
破灭 23
碍 23
磋商 23
神灵 23
禄 23
积极参与 23
突显 23
窄@@ 23
窗户纸 23
立足 23
竹子 23
笔者 23
筹集 23
粗暴 23
精光 23
红灯 23
组装 23
绊 23
经济界 23
耍赖 23
耗尽 23
耶稣 23
肆虐 23
肥沃 23
腹 23
膛 23
自律 23
自来水 23
自然灾害 23
舀 23
舰 23
花园里 23
苏州 23
茁壮成长 23
范@@ 23
茅@@ 23
蓄 23
虚度 23
虽小 23
螺@@ 23
行礼 23
行程 23
表示感谢 23
被动 23
裹@@ 23
见识 23
视角 23
讯@@ 23
诈 23
话费 23
该项 23
语文 23
语调 23
课文 23
谢意 23
贞@@ 23
赃 23
赊账 23
起立 23
越南 23
蹲@@ 23
轰炸 23
辫子 23
近乎 23
进门 23
远去 23
违 23
违宪 23
违规 23
迪@@ 23
追查 23
退休金 23
逐一 23
通商 23
造假 23
逼人 23
道德@@ 23
遵照 23
郎@@ 23
配件 23
酒杯 23
里屋 23
铃@@ 23
铭记 23
闭上眼睛 23
防水 23
阴历 23
阴险 23
降到 23
零下 23
雾气 23
露珠 23
青瓷 23
面上 23
面纱 23
面食 23
顾问 23
领养 23
领子 23
领悟到 23
颇@@ 23
频频 23
风味 23
饶@@ 23
首发 23
驾@@ 23
高中毕业 23
高压 23
高品质 23
高高的 23
黄山 23
鼠标 23
鼻 23
56 22
75 22
S 22
一举 22
一千元 22
一天到晚 22
一局 22
一步@@ 22
一秒 22
一记 22
万年 22
下场 22
不一会儿 22
不像话 22
不免 22
不分 22
不应 22
不法 22
不爱 22
且@@ 22
东南亚 22
丝绸 22
两句 22
两部 22
主演 22
久违 22
之交 22
之美 22
乍 22
乏@@ 22
乐园 22
买个 22
互不 22
些@@ 22
交战 22
亲友 22
亲眼目睹 22
从容 22
仓促 22
仔细观察 22
他常 22
传唤 22
伴@@ 22
低廉 22
保全 22
债主 22
倾 22
元老 22
元首 22
充饥 22
免不了 22
全球化 22
八年 22
公平交易 22
公开@@ 22
共同体 22
具体情况 22
再度 22
冥想 22
冬奥会 22
出息 22
出路 22
击退 22
创伤 22
前人 22
前天 22
办公@@ 22
势必 22
勇 22
勋 22
勤俭 22
化石 22
十万 22
十多岁 22
千里@@ 22
卢 22
卢@@ 22
危急 22
历历在目 22
压低 22
友好@@ 22
发光 22
发觉 22
变色 22
口感 22
古典@@ 22
古时 22
只管 22
向阳 22
听得 22
听懂 22
吸取 22
吸取教训 22
呼呼地 22
哲@@ 22
哼哼 22
唧 22
啪 22
喝啤酒 22
嗅 22
嘈杂 22
四面 22
困得 22
国务院 22
国宝 22
土匪 22
地为 22
地直 22
地看 22
场内 22
坚持到底 22
城镇 22
境@@ 22
大大的 22
大山 22
大道 22
太慢 22
央@@ 22
失掉 22
好几 22
妇@@ 22
姆 22
威严 22
娘@@ 22
孕 22
存有 22
孟@@ 22
宁静 22
守旧 22
宝物 22
实物 22
宠 22
审核 22
寄托 22
寒风 22
对照 22
寻觅 22
小腿 22
小贩 22
少数民族 22
尽早 22
山间 22
已婚 22
已然 22
帝@@ 22
广播电台 22
座右铭 22
开拓 22
弗@@ 22
强烈要求 22
彷徨 22
征税 22
微妙 22
心想 22
心扉 22
心肠 22
必定会 22
志气 22
急刹车 22
怯 22
总之 22
恐怖事件 22
恐怖分子 22
恶性 22
悠悠 22
悬案 22
悲哀 22
情理 22
惩@@ 22
慌@@ 22
慰 22
战友 22
戴眼镜 22
所得 22
手指头 22
打理 22
打起精神 22
抗拒 22
报刊 22
抵御 22
拆掉 22
拆除 22
拟@@ 22
拧紧 22
指南 22
挺拔 22
损@@ 22
捧@@ 22
排出 22
掰 22
提及 22
搏@@ 22
摆着 22
改宪 22
放出 22
放开 22
救灾 22
整日 22
断然 22
新学期 22
新意 22
新手 22
无名 22
无声 22
日起 22
是非@@ 22
显微镜 22
景观 22
暗杀 22
替换 22
服装@@ 22
朦胧 22
本土 22
杰出 22
构建 22
枉@@ 22
染色 22
柜子 22
查清 22
树苗 22
株 22
根儿 22
模糊不清 22
歌剧 22
正装 22
步行 22
死人 22
气来 22
求职 22
沉闷 22
没完没了 22
泊 22
法令 22
泡影 22
波涛汹涌 22
洁 22
洪 22
浮出 22
浸透 22
涂上 22
涌入 22
深圳 22
清扫 22
温泉 22
湾 22
满分 22
漏水 22
潜在 22
火花 22
热议 22
焦 22
煽动 22
熟睡 22
版面 22
牙刷 22
猎物 22
猛然 22
王宫 22
玩游戏 22
现实主义 22
珍岛 22
理事会 22
理发店 22
理论@@ 22
甜美 22
用不着 22
电车 22
留着 22
疼得 22
症@@ 22
痴 22
登台 22
百济 22
眼下 22
睁不开 22
睡醒 22
知晓 22
短发 22
短裤 22
矮小 22
破碎 22
硬是 22
磕 22
祝@@ 22
禁不住 22
秘书长 22
稻草 22
空空 22
窗子 22
竭力 22
第一印象 22
粉色 22
精英 22
紧身 22
纠缠 22
纪录片 22
织@@ 22
绑@@ 22
绒 22
绞@@ 22
绵延 22
绷@@ 22
缓缓 22
网吧 22
网页 22
羊毛 22
老练 22
老龄化 22
背面 22
脸红 22
腐 22
腿脚 22
自由贸易 22
自称 22
舌@@ 22
舞弊 22
般@@ 22
花粉 22
苏醒 22
茶叶 22
荷 22
莲@@ 22
落成 22
蒜 22
蒸汽 22
虚构 22
褪色 22
西藏 22
要塞 22
警察厅 22
认真学习 22
证书 22
译@@ 22
调到 22
调味 22
谜语 22
责任感 22
质地 22
购物中心 22
贯 22
赛马 22
赞 22
身体@@ 22
转化 22
转过身 22
辅助 22
辨 22
辱@@ 22
这棵树 22
这颗 22
进城 22
违法行为 22
追踪 22
退役 22
逃离 22
遗体 22
遗属 22
那套 22
那本 22
酷@@ 22
采购 22
钻进 22
长久以来 22
长江@@ 22
闪现 22
闯入 22
阅 22
阐明 22
防备 22
降温 22
陵@@ 22
零碎 22
露天 22
非要 22
颁发 22
预算案 22
预选赛 22
领事馆 22
颈 22
颤 22
风景画 22
飙升 22
飞跃 22
飞速 22
饮食习惯 22
驳@@ 22
高呼 22
高楼 22
高跟鞋 22
魁梧 22
鸦雀无声 22
麦克风 22
黄豆 22
黏 22
齿@@ 22
53 21
F@@ 21
W@@ 21
l 21
一举两得 21
一侧 21
一分钱 21
一大批 21
一帮 21
一票 21
一袋 21
一觉 21
万幸 21
下棋 21
下过 21
不信 21
不慎 21
不熟 21
不留 21
不问 21
丑恶 21
专长 21
丘陵 21
东海 21
丢弃 21
个人主义 21
丸 21
主导权 21
乐天 21
乐曲 21
乙@@ 21
九点 21
五千 21
京畿 21
人情味 21
人种 21
人道 21
仅凭 21
他病 21
企@@ 21
伐@@ 21
会计@@ 21
传下来 21
传入 21
伤痕 21
低温 21
作曲家 21
作案 21
你老 21
侦探 21
侨胞 21
俗称 21
保湿 21
信奉 21
修饰 21
倾泻 21
健 21
健壮 21
偷拍 21
充 21
充当 21
充满活力 21
光景 21
免疫力 21
全靠 21
公演 21
关键在于 21
内地 21
内战 21
冲向 21
出任 21
击出 21
分之一 21
分割 21
切勿 21
刑罚 21
列为 21
删@@ 21
刮得 21
到场 21
前年 21
功绩 21
加紧 21
动听 21
升值 21
单方面 21
印章 21
厨艺 21
反面 21
发热 21
发霉 21
叛@@ 21
口音 21
叮@@ 21
吃不下 21
后者 21
后院 21
吟@@ 21
听课 21
呜@@ 21
周一 21
呼呼 21
咋 21
咨询@@ 21
咱俩 21
咽@@ 21
售价 21
商标 21
啊哈 21
啼@@ 21
喧@@ 21
嗓门 21
器@@ 21
囚@@ 21
四十@@ 21
地转 21
坎坷 21
垃圾@@ 21
垄断 21
基本权利 21
复兴 21
多达 21
多重 21
多长时间 21
大于 21
大发雷霆 21
大意 21
大战 21
大气污染 21
大法官 21
大碗 21
太好了 21
太晚 21
夺走 21
妙 21
妥善解决 21
娴熟 21
婉@@ 21
婚姻@@ 21
宇航员 21
安全带 21
安全性 21
定做 21
实实 21
客房 21
宣称 21
宽大 21
宾@@ 21
将士 21
小巷 21
小张 21
尺度 21
局限性 21
山中 21
川@@ 21
巡视 21
工作效率 21
巨大损失 21
布满 21
帝国 21
带动 21
席子 21
干净利落 21
平台 21
廉@@ 21
异国 21
弊端 21
张罗 21
弯腰 21
很晚 21
心怀 21
忽略 21
态@@ 21
急事 21
总要 21
恐龙 21
悉@@ 21
悲 21
成名 21
戒掉 21
房顶 21
手背 21
扎根 21
扑通 21
执法 21
承担责任 21
抢眼 21
拇指 21
拍打着 21
招致 21
指纹 21
挑起 21
振 21
振奋 21
捣 21
捣@@ 21
排挤 21
掠 21
掠过 21
摆放着 21
摇滚 21
摊子 21
收起 21
整夜 21
斩钉截铁 21
新兴 21
新星 21
新进 21
施工现场 21
无尽 21
无常 21
无情地 21
无法@@ 21
无线电 21
旷@@ 21
旺@@ 21
星期日 21
显示器 21
晓@@ 21
晕倒 21
曼 21
有余 21
有所增加 21
有损 21
机械化 21
机遇 21
杖 21
束@@ 21
来源于 21
标语 21
根本无法 21
格子 21
格局 21
桂@@ 21
梅花 21
梯 21
森@@ 21
椅 21
楚@@ 21
母校 21
每隔 21
毫不犹豫 21
民间故事 21
水泡 21
江面 21
波动 21
泽@@ 21
洁@@ 21
洗手 21
浓度 21
浦@@ 21
海报 21
消化不良 21
涌出 21
游击队 21
漂 21
演艺 21
灭绝 21
灯泡 21
灶 21
炊@@ 21
炖@@ 21
炖菜 21
炽热 21
烈士 21
烟囱 21
烫@@ 21
煤矿 21
熟知 21
犯困 21
狠@@ 21
独自一人 21
献 21
玩水 21
现今 21
现代@@ 21
球赛 21
理应 21
理财 21
生平 21
生态环境 21
电线杆 21
界@@ 21
畏 21
白白 21
盈@@ 21
盛夏 21
盟 21
直径 21
相助 21
相继 21
看人 21
睡懒觉 21
硕@@ 21
碗@@ 21
种族歧视 21
稠 21
稻@@ 21
稻田 21
稿件 21
突发 21
窟窿 21
立体@@ 21
立案 21
第五@@ 21
精致 21
糠 21
素食 21
絮 21
纪 21
细微 21
终点线 21
终究会 21
经济指标 21
经纪人 21
绕过 21
给出 21
统合 21
继母 21
缉@@ 21
罚金 21
翻开 21
考试成绩 21
而后 21
耷拉 21
肖像 21
股票价格 21
肯@@ 21
胎儿 21
胜任 21
胡闹 21
胡须 21
脂 21
脊@@ 21
腥@@ 21
臊 21
自小 21
自然而然 21
舒@@ 21
舰@@ 21
艺术性 21
节制 21
花样 21
苟@@ 21
药水 21
莫 21
莫大 21
蒙受 21
蒙古 21
虚拟 21
融@@ 21
衰弱 21
被窝 21
裙@@ 21
西南 21
西湖 21
西边 21
要害 21
要死 21
要钱 21
认真@@ 21
认错 21
让给 21
诗集 21
该书 21
诱@@ 21
诱人 21
说不@@ 21
说唱 21
课长 21
调查@@ 21
负面 21
贪心 21
贫困@@ 21
购置 21
贱 21
费心 21
资深 21
赠品 21
跟踪 21
躁 21
身处 21
车票 21
软弱 21
轻率 21
辛@@ 21
辞退 21
迁徙 21
这一@@ 21
这伙 21
这会儿 21
这架 21
这点儿 21
连胜 21
述@@ 21
追逐 21
退缩 21
逃税 21
遇@@ 21
遇事 21
遍@@ 21
避难 21
邀 21
那幅 21
那幢 21
部落 21
酒席 21
醉@@ 21
重于 21
重庆 21
重新做人 21
重重 21
铜像 21
闯红灯 21
险恶 21
陪同 21
陵 21
隙 21
难闻 21
零售 21
震动 21
霜@@ 21
青年@@ 21
面容 21
鞋底 21
音乐家 21
预习 21
颤动 21
馆@@ 21
驳 21
魄 21
鸭子 21
黄昏 21
黑夜 21
默契 21
一包 20
一整夜 20
一时间 20
万事@@ 20
三千 20
三百@@ 20
上头 20
上报 20
下一代 20
下结论 20
不下雨 20
不听话 20
不屈 20
不懈 20
不服 20
不用说 20
不至于 20
不见@@ 20
与会 20
业余 20
两头 20
两方 20
严格@@ 20
中央政府 20
中药 20
为生 20
乃至 20
之意 20
之手 20
乌 20
九个 20
书上 20
互相帮助 20
产业化 20
产地 20
人世 20
人之@@ 20
人才@@ 20
人文@@ 20
人格@@ 20
人造卫星 20
他成 20
代名词 20
令人讨厌 20
优秀@@ 20
伦@@ 20
伸向 20
余额 20
信儿 20
信誉 20
修炼 20
倚@@ 20
停战 20
储 20
僻 20
允 20
充分利用 20
先烈 20
全校 20
其后 20
养老金 20
内侧 20
军事演习 20
农家 20
冬日 20
冷酷无情 20
冷风 20
减退 20
几号 20
几声 20
凶狠 20
出口@@ 20
出家 20
出生率 20
刃 20
列强 20
到头来 20
剧团 20
十二点 20
十周年 20
厂家 20
原木 20
参谋 20
友谊赛 20
发牢骚 20
发电站 20
发表意见 20
变数 20
口子 20
口语 20
只想 20
可用 20
可行 20
右派 20
叹@@ 20
吃奶 20
吃晚饭 20
向下 20
君主 20
否 20
听话 20
启@@ 20
周五 20
呼吸@@ 20
呼噜 20
咂 20
品行 20
唇 20
唐朝 20
商定 20
嘀@@ 20
嘴边 20
囗 20
回乡 20
回头@@ 20
圣人 20
地价 20
地势 20
坏蛋 20
块@@ 20
块钱 20
坠落 20
基础设施 20
增高 20
外援 20
多出 20
多得 20
多方面 20
夜色 20
大吃一惊 20
大炮 20
大白天 20
失礼 20
头部 20
奢@@ 20
奥妙 20
奶牛 20
好运 20
妆@@ 20
妥善处理 20
妾 20
媳妇儿 20
孤单 20
学习@@ 20
学生家长 20
宝座 20
客轮 20
宣判 20
家园 20
寄给 20
密切相关 20
密封 20
密集 20
对峙 20
导师 20
小儿子 20
小猪 20
小瞧 20
小钱 20
尝尝 20
尤@@ 20
就任 20
尽量避免 20
届@@ 20
山河 20
岂@@ 20
岛@@ 20
峰@@ 20
工作制 20
已到 20
已成 20
布局 20
帐@@ 20
干瘦 20
建起 20
开往 20
引来 20
当地人 20
当当 20
彼@@ 20
得失 20
得起 20
微小 20
必胜 20
忘不了 20
忘却 20
怨恨 20
恐吓 20
恳切 20
恶臭 20
恼 20
情趣 20
惊慌 20
想一想 20
意味 20
慕 20
憎恶 20
憔悴 20
我以 20
我往 20
我心 20
战后 20
所有权 20
所致 20
手册 20
手感 20
手机@@ 20
打字 20
打成 20
扳@@ 20
批发市场 20
投向 20
投资@@ 20
投身 20
抗 20
报以 20
抨击 20
拂@@ 20
担负 20
拿下 20
挪到 20
掘@@ 20
探亲 20
探险 20
推到 20
掩埋 20
掺和 20
提前完成 20
揭示 20
搅 20
搬走 20
摄像机 20
撤回 20
擦掉 20
教育厅 20
数学考试 20
数学题 20
敷衍 20
斗山 20
旋 20
旋风 20
无数次 20
无谓 20
日军 20
早年 20
时局 20
时速 20
易于 20
暑@@ 20
暖气 20
暴风 20
月刊 20
有把握 20
有病 20
有钱人 20
服务器 20
机枪 20
杀人犯 20
材@@ 20
条理 20
松弛 20
松紧带 20
桃子 20
桨 20
棚@@ 20
棱 20
樱花 20
欢呼声 20
欢喜 20
欢快 20
正确@@ 20
武汉 20
残 20
毁坏 20
毕生 20
毫米 20
民谣 20
气候变化 20
气象@@ 20
水利 20
永不 20
江山 20
没剩 20
沮丧 20
法务部 20
泰国 20
洋溢着 20
洗衣店 20
活字 20
流向 20
流程 20
流言蜚语 20
海带 20
海盗 20
消遣 20
淋得 20
淑 20
深情 20
渔夫 20
渗透到 20
溃@@ 20
溢 20
溪 20
滑雪场 20
火锅 20
灶@@ 20
炭 20
点点 20
点着 20
烈火 20
熏@@ 20
熙@@ 20
牧 20
物种 20
牺牲者 20
率先 20
玉米@@ 20
班车 20
理想主义 20
琐碎 20
瑞典 20
生命体 20
用处 20
甩@@ 20
甲板 20
电子产品 20
男女平等 20
画得 20
畏@@ 20
留下来 20
留念 20
癖 20
白糖 20
百年@@ 20
百日 20
皆@@ 20
皇 20
盈 20
盖章 20
盗窃 20
相会 20
相隔 20
看清 20
真伪 20
着凉 20
着眼 20
睹 20
瞒@@ 20
矫@@ 20
碳 20
社会各界 20
祖母 20
福利@@ 20
秘书官 20
秧@@ 20
空前 20
突 20
窃 20
童@@ 20
笔画 20
笔直 20
笔记 20
符合@@ 20
第五 20
答题 20
管理人员 20
管理员 20
精华 20
红豆 20
纸条 20
绊@@ 20
经验丰富 20
结婚仪式 20
缝纫机 20
美人 20
美化 20
翻滚 20
翻过来 20
老同学 20
老爷爷 20
耕种 20
聚到 20
肆意 20
肩负 20
胖乎乎 20
胜过 20
脑后 20
脚底 20
脱下来 20
腔@@ 20
腹泻 20
自大 20
自夸 20
自如 20
自幼 20
自治@@ 20
船长 20
艺术作品 20
花丛 20
芳香 20
苗@@ 20
英明 20
草木 20
草案 20
菊花 20
营养成分 20
蕴含着 20
薪@@ 20
藤 20
虫@@ 20
蛮@@ 20
衣领 20
衬 20
衬@@ 20
被告人 20
被褥 20
裁 20
要用 20
要领 20
规格 20
警备 20
议会选举 20
评选 20
试题 20
诗句 20
语音 20
说明书 20
诸 20
课外 20
谦@@ 20
贝壳 20
贱@@ 20
赐 20
赞美 20
赦免 20
走开 20
蹄 20
转会 20
轻柔 20
辅佐 20
辛勤工作 20
辱骂 20
这帮 20
进度 20
选举法 20
选票 20
透出 20
逝去 20
造诣 20
遗传@@ 20
遗传基因 20
那支 20
邪恶 20
邻@@ 20
配角 20
酷 20
释 20
重返 20
钓到 20
钙 20
钟表 20
锅炉 20
错误@@ 20
锲而不舍 20
镀金 20
长途 20
闪亮 20
阴沉 20
附加 20
陷@@ 20
陷入困境 20
隐约可见 20
隔离 20
雅致 20
霸@@ 20
非典 20
非法行为 20
面包@@ 20
韩式 20
顺利进行 20
预感 20
预赛 20
颇为 20
颜料 20
颤@@ 20
风采 20
飞来飞去 20
饥 20
香水 20
香油 20
香甜 20
骄@@ 20
鱼儿 20
鱼类 20
鲤鱼 20
麦 20
黑烟 20
黑社会 20
鼻梁 20
197@@ 19
1999 19
4000 19
58 19
900 19
G 19
R@@ 19
v@@ 19
一幕 19
一模一样 19
一缕 19
七十 19
七岁 19
三天两头 19
三角形 19
上画 19
上诉 19
下身 19
不前 19
不同@@ 19
不堪设想 19
不自在 19
不轻 19
专家@@ 19
世袭 19
业务@@ 19
东北@@ 19
东海岸 19
丝丝 19
丢下 19
两下 19
两派 19
严谨 19
丧事 19
中日 19
中是 19
中游 19
临床 19
丹 19
为准 19
主儿 19
主见 19
举措 19
之争 19
之路 19
乍@@ 19
乐谱 19
了结 19
争执 19
事是 19
五分钟 19
交接 19
交通规则 19
产妇 19
人事变动 19
人多 19
人道主义 19
令人满意 19
仰望 19
休息室 19
休息时间 19
会费 19
传统@@ 19
伴 19
低收入 19
低级 19
住处 19
使眼色 19
侍奉 19
保持@@ 19
信息技术 19
俩@@ 19
偏离 19
偏要 19
儒家 19
兄妹 19
兄弟姐妹 19
先进@@ 19
兜里 19
入选 19
全体@@ 19
全市 19
全村 19
公元 19
公共场所 19
公司@@ 19
六岁 19
兮 19
共度 19
关进 19
典范 19
养活 19
兽 19
内部@@ 19
再犯 19
写错 19
冰雹 19
冲出 19
凯@@ 19
出人意料 19
出发点 19
出海 19
出资 19
分娩 19
分店 19
分量 19
创出 19
利己主义 19
利落 19
别国 19
到家 19
刷刷 19
刺耳 19
刺鼻 19
前要 19
剽窃 19
劣 19
勾起 19
北极 19
医学@@ 19
医疗保险 19
医疗费 19
午夜 19
卑@@ 19
南大门 19
博得 19
危 19
历届 19
原始森林 19
厢房 19
参战 19
反动 19
反恐 19
发来 19
发球 19
发病 19
发酸 19
受益 19
变好 19
变迁 19
叛徒 19
叮嘱 19
右翼 19
吃剩 19
同伴 19
名著 19
后进 19
吐出来 19
听力 19
吹牛 19
哗啦啦 19
唐 19
喝光 19
喽 19
嘉@@ 19
嘎 19
回家吧 19
国家足球队 19
圣经 19
在座 19
在职 19
地流 19
地用 19
坚信 19
坚持下去 19
垒@@ 19
城墙 19
培训班 19
堤 19
墙面 19
壶里 19
夏威夷 19
外来文化 19
多样性 19
夜深 19
大关 19
大口 19
大喊 19
大头 19
天主教 19
太薄 19
太长 19
失业率 19
奇迹般地 19
契 19
奴@@ 19
奶酪 19
好喝 19
好歹 19
始于 19
委会 19
婚纱 19
嫂 19
嫌@@ 19
字幕 19
字形 19
宅@@ 19
守住 19
完好 19
宗教信仰 19
审批 19
宽恕 19
宾 19
宾客 19
小儿 19
小手 19
小鸡 19
就会 19
屋檐下 19
屠@@ 19
山东 19
崩 19
工艺品 19
巷@@ 19
干不了 19
干吗 19
平庸 19
平行 19
并非如此 19
广播电视 19
底部 19
废物 19
座楼 19
开发@@ 19
开垦 19
式@@ 19
强劲 19
归于 19
当真 19
形象@@ 19
往上爬 19
心爱 19
心甘情愿 19
心脏病 19
心跳 19
怀有 19
怎么着 19
思路 19
急躁 19
恩情 19
悉 19
悔 19
惊吓 19
惹祸 19
愈合 19
感恩 19
憋@@ 19
懂事 19
我哥 19
我点 19
截然不同 19
手提包 19
打印机 19
打斗 19
扣子 19
扮 19
批发 19
技术革新 19
技法 19
投放 19
投标 19
抚@@ 19
披露 19
拘束 19
拥 19
括 19
挑食 19
挥手 19
挺立 19
据此 19
捷 19
接下来 19
插入 19
插进 19
握住 19
携手 19
摒弃 19
撂@@ 19
播音员 19
攀岩 19
支持率 19
政治犯 19
故人 19
敌方 19
数码相机 19
文学作品 19
斧头 19
斧子 19
新奇 19
新村 19
新鲜空气 19
旅 19
无事 19
无影无踪 19
无意识 19
日益严重 19
日趋 19
旧衣服 19
时不时 19
时代@@ 19
昂@@ 19
昏暗 19
星期一 19
昭@@ 19
暗淡 19
暴徒 19
曼联 19
有效@@ 19
朱 19
杀菌 19
条例 19
来宾 19
杯酒 19
枪支 19
柔道 19
柠檬 19
查询 19
柳 19
样@@ 19
核对 19
根深蒂固 19
桩 19
楼上 19
模 19
次序 19
欧盟 19
歌坛 19
歌谣 19
此举 19
此项 19
死板 19
残留 19
毁灭 19
母鸡 19
比试 19
毫无根据 19
水壶 19
求学 19
汇集 19
没多久 19
没睡 19
没落 19
油田 19
泉 19
泉@@ 19
泛起 19
泰斗 19
泳@@ 19
洁白 19
津 19
流产 19
测量方法 19
浓浓的 19
海拔 19
海警 19
消防员 19
涌@@ 19
涮 19
混在 19
清溪 19
清白 19
湖边 19
滑行 19
满怀 19
滴水不漏 19
演变成 19
激动人心 19
激活 19
灼 19
炮声 19
点名 19
烈日 19
烦人 19
烧焦 19
热火朝天 19
热门话题 19
煮@@ 19
燃 19
版本 19
犹豫不决 19
狠 19
狱 19
玩吧 19
珍 19
琐事 19
琴@@ 19
瑕疵 19
甜头 19
生产量 19
生人 19
生活用品 19
田园 19
疏 19
疗 19
痒痒 19
瘸 19
癌细胞 19
白人 19
皮包 19
监管 19
直达 19
眉头 19
看一看 19
真不错 19
真棒 19
睡梦中 19
瞟 19
研修 19
碑 19
碟 19
礼金 19
祥@@ 19
私立 19
科学研究 19
稻 19
稻谷 19
穷光蛋 19
突袭 19
章@@ 19
第一届 19
筒@@ 19
签约 19
糕点 19
糖醋 19
繁华 19
繁重 19
纤细 19
纪念@@ 19
纯真 19
细雨 19
结冰 19
绯闻 19
缘分 19
网络游戏 19
翘 19
翠@@ 19
老金 19
耗子 19
联合会 19
股指 19
胸中 19
脆@@ 19
脚印 19
腕@@ 19
自制 19
自动化 19
自家 19
自负 19
舞会 19
航海 19
节约能源 19
节能 19
花光 19
茂密 19
荐 19
荒废 19
荫@@ 19
萧@@ 19
落山 19
落空 19
蓝图 19
蜿蜒 19
行李箱 19
袖 19
被压迫 19
袭@@ 19
装运 19
装饰品 19
覆 19
觉悟 19
觉醒 19
解渴 19
解读 19
警察署 19
证券公司 19
评委 19
说笑话 19
谬@@ 19
象棋 19
貌@@ 19
财源 19
贪官污吏 19
资本家 19
赛车 19
赤 19
赫@@ 19
走起路来 19
走钢丝 19
赶走 19
超群 19
趋于 19
跑出去 19
跑过来 19
路旁 19
跳槽 19
跳进 19
车库 19
转弯 19
辐射 19
过得去 19
过重 19
这出 19
这样一来 19
这般 19
进货 19
连夜 19
迫不及待 19
迫使 19
逆行 19
透明性 19
遗像 19
遣@@ 19
遵@@ 19
那份 19
那部 19
邮递员 19
酣@@ 19
酷热 19
醉酒 19
里程碑 19
重大@@ 19
重现 19
重逢 19
鉴@@ 19
针织衫 19
针锋相对 19
铁丝 19
锃亮 19
锅巴 19
长发 19
长着 19
长远 19
长途旅行 19
闭上 19
问话 19
阅@@ 19
阐述 19
附属 19
陡@@ 19
陷于 19
隆 19
集中@@ 19
雪岳山 19
雪橇 19
韩国@@ 19
顶尖 19
顺手 19
须知 19
预示 19
颠覆 19
风度 19
飘起 19
食品@@ 19
餐具 19
香喷喷 19
马车 19
驰骋 19
验收 19
骑着 19
骨折 19
高尔夫球场 19
高度评价 19
高雅 19
鸟类 19
麦子 19
龙头 19
198@@ 18
51 18
54 18
T恤衫 18
U@@ 18
an@@ 18
y 18
○ 18
一九@@ 18
一切都是 18
一听 18
一员 18
一日@@ 18
一株 18
一气 18
一盘 18
一言不发 18
一齐 18
万岁 18
三倍 18
上课时 18
下乡 18
下方 18
下水道 18
下班时间 18
下级 18
下落 18
不切实际 18
不可或缺 18
不向 18
不善 18
不在少数 18
不如说 18
不如说是 18
不过@@ 18
专卖店 18
世态 18
世界观 18
业余时间 18
丛@@ 18
东洋 18
两党 18
两片 18
中以 18
中心@@ 18
之士 18
之徒 18
之色 18
乌龟 18
也@@ 18
书架 18
书生 18
买回来 18
予@@ 18
事业@@ 18
云集 18
五谷 18
产业@@ 18
产值 18
产后 18
京城 18
亲兄弟 18
亲生 18
亲身 18
人力资源 18
人文 18
人物@@ 18
人生观 18
仆人 18
从现在起 18
他出 18
令人厌恶 18
以备 18
仲@@ 18
伎俩 18
优先@@ 18
优秀人才 18
传教士 18
体检 18
体罚 18
佩@@ 18
侍@@ 18
供奉 18
侦察 18
保暖 18
保险费 18
修长 18
健身房 18
偷东西 18
傻子 18
儒@@ 18
兜风 18
入口处 18
入场券 18
全副武装 18
全国@@ 18
全年 18
公事 18
公司员工 18
公益 18
内衬 18
内需 18
再也不能 18
再婚 18
冒烟 18
农乐 18
冥@@ 18
冰上 18
凸显 18
出没 18
切实@@ 18
划出 18
创办 18
删掉 18
利比亚 18
别管 18
剌 18
前科 18
前者 18
剧烈 18
劈开 18
力争 18
办完 18
功臣 18
务农 18
劣质 18
动物@@ 18
动荡 18
募捐 18
升到 18
午 18
协 18
卓@@ 18
卖完 18
南山 18
南方人 18
即将来临 18
卸 18
厉 18
压倒 18
厚度 18
双臂 18
双龙 18
反美 18
反过来 18
发布会 18
受累 18
口中 18
古怪 18
可要 18
号称 18
名誉@@ 18
后腿 18
否@@ 18
否决 18
吸引住 18
吼 18
呜呜 18
咚咚 18
唤 18
啃@@ 18
商业街 18
善意 18
喉@@ 18
喝了酒 18
喷 18
噌 18
困惑 18
固体 18
国债 18
圆满结束 18
地过 18
坐飞机 18
坡@@ 18
型@@ 18
城市@@ 18
堵塞 18
填饱 18
外国语 18
外头 18
多处 18
多远 18
夜景 18
大便 18
大屏幕 18
天亮 18
天阴 18
太快 18
太远 18
太阳@@ 18
奔波 18
奴隶@@ 18
好几年 18
妥@@ 18
娜 18
媒 18
孝子 18
孰@@ 18
孽 18
安放 18
安稳 18
宏@@ 18
官职 18
定于 18
实用性 18
审问 18
室内@@ 18
宪@@ 18
宴@@ 18
家家户户 18
家常便饭 18
家电产品 18
密切@@ 18
对准 18
对视 18
射箭 18
射门 18
小便 18
小小年纪 18
尽收眼底 18
屁 18
屁@@ 18
山地 18
工作室 18
已故 18
师长 18
常规 18
年老 18
并用 18
床单 18
应邀 18
废弃物 18
开馆 18
张嘴 18
当即 18
征求 18
很近 18
徒刑 18
徽@@ 18
忌讳 18
怂恿 18
恩惠 18
恳@@ 18
恶作剧 18
情侣装 18
惊险 18
想得到 18
愤 18
愧@@ 18
憨@@ 18
成不了 18
成品 18
我敢 18
戗 18
手机短信 18
打动 18
打捞 18
打来 18
打翻 18
打赢 18
扣押 18
扩展 18
扩建 18
扫除 18
抢夺 18
拉拉队 18
拍打 18
拙 18
拣 18
拴 18
拿捏 18
持久 18
指导@@ 18
挫败 18
捕捉 18
换乘 18
换句话说 18
掀开 18
接任 18
接待客人 18
接纳 18
掺@@ 18
描@@ 18
提出@@ 18
提高@@ 18
插上 18
插嘴 18
撮 18
操作@@ 18
擦拭 18
收割 18
改革方案 18
放暑假 18
敏捷地 18
教给 18
敞@@ 18
数千 18
文化交流 18
新西兰 18
方便@@ 18
无止境 18
无益 18
日本@@ 18
日程安排 18
旬 18
旱田 18
时时 18
昌 18
星光 18
智商 18
暴躁 18
更能 18
曾祖父 18
有待 18
朋@@ 18
期中考试 18
本金 18
杀人@@ 18
杂念 18
杨 18
极好 18
枯萎 18
柏@@ 18
标准@@ 18
标识 18
栖息 18
梅 18
梨@@ 18
梳 18
横跨 18
欢迎@@ 18
欧元 18
正向 18
正常化 18
正道 18
步枪 18
殿堂 18
毒素 18
毫 18
毫无意义 18
水产品 18
水池 18
汉堡 18
沉稳 18
没出息 18
没指望 18
泡汤 18
泰 18
洋葱 18
洞穴 18
流利地 18
流域 18
流量 18
浑 18
浓缩 18
海鸥 18
浸 18
涌现出 18
淑女 18
淡水 18
深层 18
淳朴 18
添麻烦 18
清廉 18
清脆 18
温馨 18
游泳池 18
湖南 18
源@@ 18
演奏会 18
火苗 18
炉火 18
点火 18
烟头 18
热乎乎 18
热带@@ 18
烹@@ 18
焚@@ 18
煎饼 18
熨烫 18
爵士乐 18
牵着鼻子 18
特检 18
犯罪@@ 18
狩猎 18
独创性 18
独有 18
狱@@ 18
献身 18
玛丽 18
现实性 18
现已 18
珍稀 18
球门 18
甚远 18
生产力 18
生态系统 18
生意兴隆 18
用药 18
甩开 18
申办 18
电动 18
电脑游戏 18
电话@@ 18
男士 18
畅销书 18
略有 18
百货商场 18
皮带 18
盖上 18
相近 18
相连 18
看重 18
眨眼 18
着实 18
瞧不起 18
瞻仰 18
知事 18
短裙 18
石油价格 18
矿 18
砂@@ 18
破除 18
硕士学位 18
硬朗 18
碴儿 18
神父 18
禀@@ 18
禁忌 18
禁止@@ 18
禽流感 18
秀丽 18
秉@@ 18
秒钟 18
秘@@ 18
积压 18
空隙 18
立足于 18
笼子 18
筑 18
简便 18
米酒 18
粗鲁 18
纠@@ 18
绞尽脑汁 18
绳@@ 18
绵@@ 18
绸@@ 18
缺乏@@ 18
罪恶 18
美国大使馆 18
羞涩 18
翻看 18
老远 18
耳光 18
聘@@ 18
聪明@@ 18
肃@@ 18
肉眼 18
肉类 18
肺@@ 18
胳膊肘 18
能行 18
脚步声 18
脱北者 18
腌@@ 18
腌制 18
腐@@ 18
腥味 18
膏@@ 18
膝 18
自以为是 18
自信心 18
自然科学 18
自立 18
致以 18
致富 18
致辞 18
舵 18
范 18
茄子 18
草率 18
药剂师 18
蓬@@ 18
蚕@@ 18
血汗 18
行不通 18
行家 18
袋@@ 18
裂@@ 18
裂痕 18
装载 18
裤@@ 18
褥子 18
见过 18
解救 18
触摸 18
言不@@ 18
记号 18
讳 18
讹 18
讹@@ 18
诚 18
诡@@ 18
该报 18
诬@@ 18
谜 18
豁@@ 18
豪 18
贝@@ 18
负伤 18
负债 18
货款 18
购房 18
贯彻 18
贵重 18
走到 18
走得 18
走来走去 18
起着 18
足足 18
跑来跑去 18
跨越 18
路灯 18
路程 18
踹 18
蹿 18
转到 18
转学 18
转悠 18
软软 18
轻重 18
边境 18
过世 18
过时 18
这款 18
远征 18
迪 18
迫切@@ 18
退伍 18
退款 18
退货 18
遂 18
那一刻 18
那首 18
邮寄 18
邻 18
邻家 18
里边 18
重感冒 18
重组 18
铲 18
锣 18
长达 18
问问 18
闯祸 18
闯进 18
闲暇 18
阵阵 18
除掉 18
隐秘 18
难办 18
雀 18
集装箱 18
雕@@ 18
雨点 18
静坐示威 18
非主流 18
面团 18
韩屋 18
顾及 18
颓@@ 18
风貌 18
食物中毒 18
餐桌 18
饥荒 18
饰品 18
鲜血 18
鹿 18
黄油 18
黄金@@ 18
000 17
1200 17
2011 17
47 17
6.@@ 17
8000 17
~ 17
一两天 17
一小@@ 17
一战 17
一户 17
一无所知 17
一栋 17
一点一点 17
一球 17
一百块 17
一米 17
一级 17
万无一失 17
三分钟 17
三星队 17
三星集团 17
三顿 17
上半场 17
上将 17
上层 17
下台 17
下手 17
不仅如此 17
不大@@ 17
不容乐观 17
不对劲 17
不怕@@ 17
不提 17
不明智 17
不知羞耻 17
不离 17
不足之处 17
不足以 17
专业性 17
专栏 17
专注 17
业者 17
东边 17
两碗 17
两顿 17
中华 17
中奖 17
中止 17
中等 17
为名 17
为官 17
主办国 17
之感 17
乌云密布 17
云层 17
五日 17
交换意见 17
交易所 17
产品@@ 17
人影 17
人用 17
人称 17
人鱼公主 17
今天上午 17
今年@@ 17
今年以来 17
今年冬天 17
从根本上 17
从这一点 17
仗@@ 17
令人羡慕 17
价格便宜 17
优惠@@ 17
传教 17
传送 17
伪善 17
佃农 17
体育运动 17
体贴 17
侯 17
俏 17
保险金 17
修宪 17
修正 17
修补 17
倒退 17
倾倒 17
健康状况 17
偿@@ 17
傲 17
僧人 17
充沛 17
光光 17
公休日 17
六个月 17
六年 17
共计 17
其间 17
写诗 17
军事训练 17
军舰 17
军装 17
冲着 17
决出 17
冷汗 17
凄惨 17
准时到达 17
凉拌 17
几分钟 17
几岁 17
几根 17
几步 17
几滴 17
出境 17
出狱 17
分外 17
刚一 17
刨@@ 17
利用@@ 17
别有 17
刻薄 17
前提条件 17
剔@@ 17
动工 17
劳动党 17
勉 17
化肥 17
北京市 17
医术 17
十多@@ 17
千万@@ 17
单间 17
卫星@@ 17
卯 17
即兴 17
原地 17
原子 17
原子@@ 17
县@@ 17
双亲 17
发红 17
发财 17
受了伤 17
受到@@ 17
受罚 17
受苦 17
变弱 17
口水 17
古书 17
召回 17
可怜@@ 17
可言 17
吃不@@ 17
各个部门 17
合作伙伴 17
合影 17
同期 17
名演员 17
后续 17
后要 17
君王 17
吻合 17
呈@@ 17
呗 17
咬住 17
咬牙 17
哀 17
哭声 17
唐代 17
售后服务 17
喜鹊 17
嘴角 17
噩梦 17
四起 17
团员 17
团长 17
园林 17
国乐 17
图形 17
圣 17
地下@@ 17
地喊 17
地想 17
地来 17
坎@@ 17
坐落 17
埋伏 17
埋藏 17
基本功 17
堆积如山 17
填满 17
壳@@ 17
外交政策 17
多于 17
够瞧的 17
大儿子 17
大半 17
大学教授 17
大局 17
大水 17
大肆 17
大面积 17
大鱼 17
天一 17
天体 17
天国 17
失业问题 17
头牛 17
头衔 17
夷@@ 17
夸大 17
夺目 17
奶粉 17
姨妈 17
婆家 17
嫌犯 17
子弟 17
字画 17
存活 17
季后赛 17
学期开始 17
学术研究 17
宁肯 17
安全事故 17
定论 17
审视 17
客观@@ 17
宵@@ 17
家用 17
家门口 17
宽裕 17
寂 17
寄出 17
富豪 17
寒气 17
寨 17
小锅 17
少量 17
尖儿 17
尘土 17
局限 17
屏风 17
山川 17
岂有此理 17
峻@@ 17
崖 17
巢@@ 17
工业化 17
工商@@ 17
左侧 17
左翼 17
巫婆 17
帆船 17
席@@ 17
干电池 17
平均寿命 17
平昌 17
幽静 17
庙里 17
度过难关 17
廉洁 17
建了 17
开发区 17
开放@@ 17
引向 17
引诱 17
弯儿 17
强者 17
当兵 17
当红 17
影迷 17
往前走 17
很穷 17
得了 17
得着 17
忌@@ 17
快捷 17
思潮 17
急促 17
急得 17
急急忙忙 17
急救 17
总能 17
恢复正常 17
恩师 17
恳求 17
恳请 17
恶势力 17
悔@@ 17
悲壮 17
惑 17
惩戒 17
想不出 17
想不起来 17
惶@@ 17
惹出 17
意识形态 17
慈@@ 17
慎@@ 17
慕@@ 17
慧 17
懊@@ 17
懒腰 17
戈 17
战败 17
所学 17
所长 17
扑腾 17
打死 17
打篮球 17
托人 17
技术开发 17
抓紧时间 17
抵挡 17
拉伸 17
拉大 17
拙劣 17
持续@@ 17
挂满 17
指南针 17
指头 17
指挥@@ 17
挡不住 17
排场 17
推举 17
掩 17
措@@ 17
掷 17
掺 17
搀@@ 17
搏斗 17
摁 17
摆弄 17
撕开 17
收受贿赂 17
收场 17
放上 17
故宫 17
敌机 17
救济 17
数万 17
数年 17
文盲 17
文艺作品 17
斋@@ 17
新婚夫妇 17
无从 17
无形 17
无用 17
无私 17
无线@@ 17
时有 17
明信片 17
明快 17
明洞 17
昔 17
普遍认为 17
暄 17
暴动 17
暴跌 17
曝@@ 17
更要 17
曹@@ 17
最有 17
月薪 17
有何 17
有序 17
有无 17
朋友家 17
朝廷 17
未见 17
末期 17
本想 17
朵花 17
极限 17
查明真相 17
栅栏 17
标榜 17
标题 17
栏@@ 17
校方 17
核心内容 17
根基 17
桌面 17
档案 17
梦见 17
梯子 17
概率 17
橡皮@@ 17
檐 17
欠下 17
欺诈 17
正气 17
此类 17
步子 17
歪曲事实 17
段@@ 17
段落 17
毋@@ 17
每星期 17
民浩用 17
气候异常 17
气愤 17
沙拉 17
没个 17
没良心 17
油炸 17
波及 17
洗净 17
洛阳 17
洞察力 17
洪灾 17
流星 17
流浪@@ 17
浮肿 17
浴 17
海岸线 17
温带 17
渴@@ 17
游乐 17
游手好闲 17
源自 17
滚滚 17
演讲者 17
漫 17
澡堂 17
濒@@ 17
炒鱿鱼 17
炮击 17
炮火 17
热销 17
煞@@ 17
照相 17
爹 17
版型 17
犀利 17
独立性 17
玛@@ 17
玫瑰花 17
环境部 17
环绕 17
现场@@ 17
玷污 17
班机 17
球星 17
生怕 17
生菜 17
电波 17
电源 17
画儿 17
畅销 17
留意 17
疮 17
病因 17
瘦得 17
白昼 17
百货 17
监控 17
盒饭 17
直射 17
相仿 17
相对@@ 17
相框 17
看守 17
真可怜 17
眺望 17
着头 17
着眼于 17
矿工 17
碳酸 17
磨练 17
祈@@ 17
祖上 17
科学知识 17
秧 17
积分 17
税制 17
稽@@ 17
穷困 17
站住 17
端午节 17
第二次世界大战 17
筋疲力尽 17
筑@@ 17
答辩 17
简易 17
簌簌 17
絮@@ 17
红叶 17
纪念品 17
纪念馆 17
纯属 17
纽扣 17
终结 17
络 17
绸缎 17
缀 17
编造 17
缘由 17
罪过 17
美学 17
老大@@ 17
耐力 17
耶@@ 17
耿直 17
聚餐 17
肠胃 17
股票市场 17
肮脏 17
胆子 17
胆怯 17
脸面 17
腹痛 17
自卑感 17
自我介绍 17
自有 17
自转 17
舒展 17
般地 17
节约@@ 17
节食 17
苍白 17
苏醒过来 17
若想 17
苦痛 17
茧 17
茬儿 17
荒谬 17
荞麦 17
荡漾 17
菜刀 17
菩萨 17
营业@@ 17
营养@@ 17
蒂 17
蔫@@ 17
虚弱 17
虚心 17
虾@@ 17
蛮 17
蜻蜓 17
融 17
血统 17
行车 17
表彰 17
表态 17
表示@@ 17
袄 17
被害人 17
被盗 17
裁员 17
裕 17
裤腿 17
裸@@ 17
西北 17
西山 17
要职 17
解决不了 17
警车 17
认不出来 17
讲故事 17
讲道理 17
许久 17
证件 17
诚信 17
该案 17
误认为 17
说教 17
请谅解 17
课外辅导 17
谐@@ 17
谷歌 17
谷物 17
贞 17
财政支出 17
责骂 17
货轮 17
贯@@ 17
贯穿 17
贸 17
赌场 17
赚@@ 17
赠 17
走势 17
走漏 17
走私@@ 17
走马@@ 17
赶路 17
赶集 17
起亚 17
跟上 17
跨 17
车窗 17
车费 17
轻盈 17
辉 17
过不去 17
过儿 17
过滤 17
运到 17
运动服 17
这下 17
远远地 17
违章 17
迟迟 17
迫 17
退学 17
适于 17
逃北者 17
逊 17
通俗易懂 17
通车 17
逝 17
逼近 17
道德性 17
遗嘱 17
遗漏 17
遗骸 17
那双 17
那根 17
郁 17
鄙@@ 17
配置 17
酸溜溜 17
醋@@ 17
里种 17
重修 17
野营 17
量刑 17
铅@@ 17
银色 17
锐 17
锐利 17
错综复杂 17
锤 17
锤子 17
锯 17
镑 17
门缝 17
闲置 17
阵雨 17
阿 17
除夕 17
隔绝 17
难以置信 17
难得一见 17
雨声 17
雨衣 17
零部件 17
霍@@ 17
霓虹灯 17
露面 17
青春@@ 17
青色 17
非得 17
非法@@ 17
面目 17
面试官 17
面谈 17
革 17
顺从 17
顺差 17
领口 17
领空 17
饮用 17
骄傲自满 17
骚动 17
高出 17
高处 17
高大 17
魔术师 17
鳞@@ 17
鹤 17
鹤@@ 17
麦芽糖 17
麻利 17
麻醉@@ 17
黑白 17
1995 16
4.@@ 16
64 16
68 16
ar@@ 16
一不留神 16
一两个 16
一并 16
一晒 16
一环 16
一等奖 16
一箱 16
一般@@ 16
万事 16
三层 16
上交 16
上周末 16
下旬 16
下星期 16
不入 16
不如@@ 16
不妨 16
不带 16
不忍 16
不相@@ 16
不相上下 16
不长 16
丑小鸭 16
世界性 16
世锦赛 16
丘@@ 16
业余爱好 16
两层 16
两颗 16
丫@@ 16
中医 16
中部 16
中间@@ 16
丰富多彩 16
举办@@ 16
之多 16
之差 16
之战 16
乐于 16
乐意 16
书信 16
书柜 16
事由 16
互助 16
互换 16
交到 16
交锋 16
交错 16
亮丽 16
人命 16
人均 16
人造@@ 16
仔@@ 16
他边 16
付给 16
优缺点 16
伟 16
伯 16
伸开 16
位居 16
佐@@ 16
体力劳动 16
作废 16
使唤 16
便会 16
便利店 16
促 16
保健@@ 16
保守派 16
信任@@ 16
俯视 16
候选 16
倡导 16
倦 16
偏远 16
做不了 16
做手术 16
儿上 16
光靠 16
克隆 16
入狱 16
全无 16
公元前 16
公公 16
公务 16
公正性 16
共产主义 16
再用 16
冗长 16
农耕 16
冲撞 16
决斗 16
凌@@ 16
几何 16
几本书 16
几笔 16
凭直觉 16
出个 16
刀刃 16
分工 16
分红 16
分组 16
划时代 16
划破 16
创刊 16
到时候 16
制作@@ 16
制造@@ 16
刷子 16
刻意 16
刻有 16
前程 16
剩饭 16
副业 16
力所能及 16
办不成 16
加盟 16
劫@@ 16
勤勉 16
包揽 16
化成 16
化身 16
北风 16
匙 16
匪徒 16
十几年 16
十大 16
午饭时间 16
半价 16
半决赛 16
半数 16
卑鄙 16
卖光 16
压得 16
原作 16
原动力 16
去向 16
发亮 16
发怒 16
发车 16
取暖 16
受害人 16
口香糖 16
古代人 16
句号 16
可知 16
史书 16
吃不上 16
各个方面 16
各界 16
合作@@ 16
合同@@ 16
合法权益 16
合计 16
合身 16
吉利 16
同岁 16
同感 16
同等 16
名歌手 16
名胜 16
后盾 16
向南 16
吹过 16
周三 16
呵 16
呼喊 16
咄@@ 16
咕咕 16
咬牙切齿 16
咯吱咯吱 16
品性 16
哆嗦 16
哗@@ 16
哪位 16
唱法 16
唾@@ 16
商议 16
喷发 16
嗡嗡地 16
噎 16
嚼@@ 16
四名 16
四岁 16
四强 16
回帖 16
团结一致 16
围坐在 16
国军 16
国务卿 16
国庆节 16
国际形势 16
圈子 16
在一起 16
在位 16
地干 16
地段 16
地疼 16
块儿 16
基石 16
壮实 16
备忘录 16
复发 16
外号 16
多元 16
多半 16
多钱 16
大作 16
大叫 16
大增 16
大姐 16
大峡谷 16
大江 16
大门口 16
天冷 16
天后 16
天太热 16
太少 16
太强 16
太白 16
太窄 16
奋战 16
奔走 16
奖状 16
奶奶家 16
好心 16
好觉 16
如愿 16
妓女 16
姬 16
娶媳妇 16
婚姻生活 16
嫌疑犯 16
子儿 16
学生会 16
守门员 16
安葬 16
宏伟 16
官场 16
宝库 16
实地 16
实质性 16
审判@@ 16
室长 16
宴席 16
容许 16
富含 16
富足 16
寒酸 16
察看 16
寡 16
封建社会 16
将领 16
小两口 16
小声 16
小米 16
少不了 16
少女时代 16
就会@@ 16
尺@@ 16
届时 16
屋外 16
屏障 16
展览馆 16
屡屡 16
履@@ 16
山脊 16
山脚 16
岔@@ 16
巡回 16
左转 16
巨人 16
带子 16
帽@@ 16
平均@@ 16
平底锅 16
平面 16
年岁 16
年轻一代 16
并存 16
幸 16
店主 16
庸@@ 16
廊 16
建设@@ 16
弄坏了 16
弟@@ 16
张开 16
张望 16
强硬派 16
强风 16
当家 16
征用 16
很重 16
循序渐进 16
德行 16
心灵@@ 16
心理战 16
必备 16
忠心 16
忧愁 16
念书 16
急于 16
总爱 16
恍惚 16
恐怖组织 16
恶梦 16
悖@@ 16
悟@@ 16
想像 16
想来 16
惹事 16
愚 16
愣愣 16
懂@@ 16
成交 16
成见 16
戒备 16
战时 16
战死 16
户口 16
手巾 16
手帕 16
手持 16
手续费 16
手镯 16
才艺 16
打乱 16
打人 16
打仗 16
打入 16
打响 16
打球 16
打进 16
打通 16
托付给 16
扣除 16
执 16
执意 16
扫帚 16
扰@@ 16
把握住 16
抑 16
抒情 16
抓挠 16
投机@@ 16
投票权 16
折叠 16
抹杀 16
押金 16
抽签 16
拒 16
拖拉机 16
拙@@ 16
招揽 16
拧干 16
指尖 16
指点 16
按期 16
振动 16
挽@@ 16
捏造 16
据称 16
接连不断 16
推辞 16
搂@@ 16
搜 16
搞活 16
摄@@ 16
摄入 16
摄影师 16
摆布 16
撤销 16
播报 16
收买 16
放大 16
放射@@ 16
敛 16
散开 16
敷 16
文体 16
文具店 16
斑点 16
斥@@ 16
斧 16
新旧 16
新药 16
旅游业 16
无端 16
日落 16
旦 16
时才 16
时间@@ 16
昂 16
明太鱼 16
昧@@ 16
晓得 16
晚宴 16
普 16
暖暖的 16
暗地里 16
暗暗 16
暗自 16
暴富 16
更显 16
最佳@@ 16
月租 16
服兵役 16
服务业 16
服务行业 16
未知数 16
机动 16
杂志社 16
杈 16
村长 16
条理@@ 16
来龙去脉 16
杰作 16
松开 16
果真 16
染得 16
标本 16
栓 16
栗 16
校对 16
校门口 16
栩栩如生 16
案例 16
案发现场 16
桌布 16
桌椅 16
检讨 16
棋子 16
棱角 16
棺材 16
楼下 16
模子 16
欧洲@@ 16
正事 16
正常人 16
死亡线 16
殃@@ 16
殖民统治 16
毁损 16
毁掉 16
母乳 16
毛发 16
毫@@ 16
气力 16
气馁 16
氧@@ 16
氨@@ 16
水泥@@ 16
汉子 16
江湖 16
污渍 16
汽车产业 16
沾满 16
泄 16
泄@@ 16
注定 16
洗礼 16
洪流 16
活动@@ 16
流放 16
流通@@ 16
海滩 16
海运 16
浸湿 16
消防车 16
液@@ 16
淋浴 16
淤@@ 16
深浅 16
深远 16
淹死 16
渗@@ 16
游记 16
渺茫 16
满载 16
演奏者 16
火烧 16
火烧眉毛 16
火车票 16
灭火 16
炉@@ 16
炸鸡 16
炽@@ 16
烟火 16
烟花 16
熔@@ 16
熟练地 16
爆破 16
爱情@@ 16
父子 16
爸妈 16
片断 16
牟@@ 16
牧@@ 16
物美价廉 16
牵连 16
特级 16
独占 16
独断专行 16
猴 16
玄 16
王位 16
现代医学 16
珍珠项链 16
班子 16
瓦斯 16
生命@@ 16
生硬 16
用刀 16
用纸 16
男女老少 16
男孩儿 16
画出 16
画廊 16
畅通 16
略微 16
病魔 16
痰 16
白费 16
百货公司 16
盆地 16
盖得 16
盛开着 16
盯@@ 16
直响 16
直率 16
相邻 16
看不清楚 16
真假 16
真实性 16
真帅 16
眼眶 16
瞧@@ 16
知识@@ 16
短短 16
短袖 16
破解 16
碑@@ 16
磨难 16
社会治安 16
社会秩序 16
社员 16
神儿 16
神童 16
票数 16
禅@@ 16
福音 16
私立学校 16
科研@@ 16
秒@@ 16
稳固 16
稳定性 16
穴@@ 16
空儿 16
穿透 16
窟 16
站不住 16
站不住脚 16
第一场 16
第一线 16
第一轮 16
筹 16
签合同 16
简单@@ 16
算计 16
管教 16
管辖 16
籽 16
精巧 16
精髓 16
紧身裤 16
紫 16
纪念碑 16
纹路 16
组员 16
组织@@ 16
终止 16
经济损失 16
经济效益 16
结婚典礼 16
绗 16
绰号 16
综合@@ 16
羊皮 16
羡 16
羽 16
翻阅 16
老二 16
考了 16
考完试 16
聆听 16
联络@@ 16
肉汤 16
肤 16
肩部 16
育儿 16
肿@@ 16
胆敢 16
胖得 16
胰岛素 16
脏话 16
脚趾 16
脱离现实 16
腊月 16
自动售货机 16
自卫权 16
自始至终 16
臭味 16
舞蹈演员 16
艾 16
节俭 16
芦@@ 16
芯 16
苛@@ 16
若无其事 16
苦练 16
苦闷 16
英俊 16
英国@@ 16
荫 16
药效 16
荷花 16
莫名 16
菲律宾 16
营业额 16
落落 16
葬@@ 16
蒂@@ 16
蒙上 16
蒲公英 16
蕴 16
藏书 16
藤@@ 16
虔诚 16
蜡@@ 16
融资 16
蠕动 16
衰@@ 16
衰落 16
西洋 16
覆@@ 16
见底 16
观察@@ 16
视察 16
览 16
角度看 16
角逐 16
订阅 16
认同感 16
讨人嫌 16
记性 16
评审 16
语句 16
误导 16
说错 16
读过 16
课本 16
课税 16
调换 16
谋生 16
谷底 16
豁然 16
豆子 16
贤惠 16
败露 16
账@@ 16
贩@@ 16
贪 16
贫民 16
贬@@ 16
贷@@ 16
资历 16
赫 16
起毛 16
起舞 16
足球@@ 16
路滑 16
踏 16
身体状况 16
轻巧 16
辈@@ 16
辉@@ 16
辛辣 16
过头 16
迈进 16
运往 16
近海 16
这时候 16
这身 16
进修 16
进水 16
远程 16
违法@@ 16
连带 16
迫在眉睫 16
迷上 16
迷你 16
迸@@ 16
追击 16
退下来 16
退场 16
退潮 16
送礼 16
通俗@@ 16
通讯@@ 16
遇难者 16
遗传因子 16
遗留下来 16
那棵 16
那股 16
配有 16
醒悟 16
醒目 16
里加 16
金融公司 16
金融界 16
金黄色 16
鉴别 16
钢 16
钢铁@@ 16
铸@@ 16
锄头 16
键 16
锯@@ 16
镶 16
长年 16
闪耀 16
闪过 16
闪闪 16
闭幕 16
阻断 16
附上 16
陋 16
陋习 16
限于 16
除草 16
险峻 16
陪伴 16
难听 16
难能可贵 16
雌@@ 16
雷劈 16
非但 16
面包店 16
靶心 16
鞋垫 16
鞭@@ 16
风景优美 16
飞船 16
飞行员 16
馋 16
首要任务 16
首长 16
香港@@ 16
马路上 16
驶@@ 16
驶向 16
驾驶执照 16
髓 16
高科技 16
高空 16
高粱 16
高难度 16
高高@@ 16
高高地 16
鲸鱼 16
00 15
180 15
30@@ 15
42 15
5.@@ 15
66 15
78 15
88 15
D 15
f@@ 15
一万 15
一个多 15
一分钟 15
一地 15
一字 15
一年四季 15
一族 15
一月 15
一期 15
一流大学 15
一片@@ 15
一盒 15
一艘船 15
一转眼 15
一闪 15
七八@@ 15
丈 15
三十分钟 15
三家 15
三角 15
上火 15
上阵 15
上马 15
下半身 15
下摆 15
不凡 15
不孝 15
不朽 15
不比 15
不浅 15
不离@@ 15
不管是谁 15
不解 15
不起@@ 15
不醒 15
与此同时 15
专业知识 15
世博会 15
世界冠军 15
世纪末 15
东山再起 15
两周 15
两国人民 15
丧生 15
个人利益 15
中外 15
临床试验 15
乃是 15
乐团 15
乘着 15
乡土 15
乡镇企业 15
买菜 15
乱哄哄 15
乱说 15
争夺战 15
事到如今 15
二位 15
二战 15
二手 15
二氧化碳 15
二百 15
亚洲@@ 15
亚洲杯 15
交出 15
交通堵塞 15
产生@@ 15
享 15
亲身经历 15
人住 15
人体@@ 15
人员伤亡 15
人大 15
人流 15
仅靠 15
仆 15
介意 15
从头到尾 15
仔 15
他杀 15
他气 15
付诸实践 15
价格上涨 15
任凭 15
份@@ 15
伊斯兰教 15
伤人 15
伤感 15
但愿 15
体弱 15
体育锻炼 15
侃@@ 15
侍 15
侵略战争 15
侵蚀 15
侵袭 15
便秘 15
促成 15
俗语 15
信用@@ 15
修剪 15
倔强 15
假币 15
做主 15
偷走 15
傍@@ 15
先例 15
先是 15
光亮 15
光是 15
克服困难 15
兔@@ 15
入眠 15
入门 15
全厂 15
全州 15
全程 15
公告栏 15
公平竞争 15
公益@@ 15
其词 15
养老 15
内向 15
再接再厉 15
再来 15
冰雪 15
冲天 15
决断 15
冷冻 15
凉鞋 15
几百年 15
几经 15
出口额 15
出差错 15
出生@@ 15
出行 15
出道 15
出题 15
刁难 15
分不清 15
分化 15
分寸 15
切忌 15
划过 15
刚出生 15
刚过 15
利索 15
别跟我 15
到手 15
刺儿 15
刺激性 15
刺眼 15
前后@@ 15
前因后果 15
剪子 15
劝导 15
加倍 15
动手术 15
动画片 15
劳作 15
劳务 15
勃@@ 15
勘@@ 15
勤奋工作 15
北上 15
匹@@ 15
医师 15
匿名 15
十八 15
十里 15
千米 15
午后 15
半个世纪 15
半路 15
协议书 15
单凭 15
单身@@ 15
南京@@ 15
占卜 15
却说 15
厂子 15
厄运 15
历史剧 15
压榨 15
原产地 15
原以为 15
原则上 15
原子弹 15
原稿 15
去不去 15
去处 15
反常 15
反弹 15
反问 15
发明@@ 15
发源 15
发生@@ 15
发胖 15
变坏 15
口哨 15
口罩 15
句句 15
句话 15
召 15
可信 15
可得 15
吃得@@ 15
各级 15
合拍 15
名叫 15
后脑勺 15
吐露 15
吓人 15
含糊不清 15
吴 15
周折 15
呱@@ 15
呵呵 15
咋呼 15
和蔼 15
咸淡 15
响彻 15
哪来 15
哲学家 15
唆 15
唠@@ 15
唰 15
喇@@ 15
喉 15
喜好 15
喝多 15
嘟噜 15
嘴儿 15
嘶@@ 15
噩耗 15
四川 15
四面八方 15
国民@@ 15
图章 15
圆圈 15
圈圈 15
土著 15
地盘 15
地表 15
坊 15
坎 15
坚实 15
坚持不懈 15
坟@@ 15
垢 15
城乡 15
塑料袋 15
境内 15
增收 15
壁纸 15
备用 15
外交关系 15
外交通商部 15
外向 15
外婆 15
外宾 15
外遇 15
多放点 15
多用 15
大个子 15
大学@@ 15
大幅提高 15
大理石 15
大陆@@ 15
天子 15
天日 15
天津 15
天边 15
天际 15
太淡 15
失明 15
夸奖 15
夸耀 15
她家 15
好使 15
如此@@ 15
娱乐节目 15
婴 15
媒体报道 15
孕@@ 15
字里行间 15
存心 15
孝 15
学了 15
宜人 15
宝玉 15
家庭暴力 15
家教 15
对外贸易 15
对阵 15
小女儿 15
小岛 15
小气 15
小说@@ 15
就是指 15
尾声 15
层楼 15
居多 15
峰会 15
巫@@ 15
市面上 15
帅@@ 15
帷幕 15
幌子 15
平地 15
平局 15
平方米 15
幸福生活 15
广大@@ 15
序幕 15
庸 15
廉耻 15
延坪岛 15
开走 15
异口同声 15
弄清楚 15
弱小 15
当事者 15
当众 15
当官 15
录像带 15
形形色色 15
彩绘 15
影视@@ 15
往里 15
很想 15
得病 15
微薄 15
心动 15
心急如焚 15
忧伤 15
怎样才能 15
总务@@ 15
总统@@ 15
恢复@@ 15
恰巧 15
悠闲 15
惊奇 15
惠 15
惹是生非 15
意料之外 15
慈悲 15
慌里慌张 15
憧憬 15
成员国 15
成家 15
成效 15
成正比 15
战局 15
所用 15
所能 15
扇门 15
手电筒 15
执行@@ 15
扮@@ 15
扶起来 15
扼@@ 15
承认错误 15
技术水平 15
抄袭 15
把柄 15
投出 15
投票@@ 15
抠 15
抢先 15
抵抗力 15
抽打 15
拉上 15
拉着 15
拍了拍 15
拔掉 15
拖鞋 15
招募 15
招聘@@ 15
拧@@ 15
拼死 15
指控 15
按钮 15
挥霍 15
挨骂 15
捉迷藏 15
捎@@ 15
捏弄 15
捡起来 15
换气 15
排行 15
接管 15
推定 15
揉搓 15
提供@@ 15
提前退休 15
提心吊胆 15
插图 15
搁板 15
搂住 15
搭档 15
摆动 15
摊开 15
摔了一跤 15
摩 15
撩@@ 15
擅@@ 15
攀升 15
收容所 15
改建 15
放在眼里 15
放手 15
放晴 15
政坛 15
政治性 15
故国 15
救火 15
教书 15
整容 15
文艺复兴 15
料子 15
斤@@ 15
新世界 15
新世纪 15
新党 15
新品 15
新城 15
新闻媒体 15
新高 15
於 15
无味 15
无处 15
无济于事 15
无理 15
无穷的 15
日本队 15
旧金山 15
时时刻刻 15
显现 15
晚期 15
智异山 15
智能@@ 15
晾干 15
最合适 15
有理 15
服刑 15
服役 15
朗诵 15
朝鲜@@ 15
本场 15
本案 15
机能 15
村里人 15
束手无策 15
杠子 15
杰 15
杰克 15
松动 15
松散 15
极少 15
枣树 15
柔 15
柜@@ 15
柿子树 15
标明 15
桃树 15
梅雨季节 15
梨花 15
梳理 15
检查一下 15
棒球场 15
横行 15
欢笑 15
欣欣向荣 15
正以 15
正门 15
此刻 15
殊@@ 15
每晚 15
比不上 15
比较@@ 15
毛线 15
毯子 15
民浩是 15
水下 15
水量 15
汇票 15
汗珠 15
沃 15
沉痛 15
沥@@ 15
沦@@ 15
油轮 15
沿岸 15
法制 15
波兰 15
注释 15
洗掉 15
洗碗 15
津津有味 15
活得 15
派系 15
流血 15
浇水 15
海军陆战队 15
涂鸦 15
消退 15
淡薄 15
淤血 15
深邃 15
清朝 15
清清楚楚 15
渗出 15
游泳馆 15
溶解 15
滑梯 15
滴水 15
漂流 15
漏雨 15
演戏 15
漩涡 15
漫画家 15
潜入 15
火光 15
灯塔 15
炉灶 15
炒鸡蛋 15
点菜 15
烛@@ 15
烦闷 15
烧伤 15
焕发 15
焕然一新 15
焦躁 15
照旧 15
照样 15
熏 15
熨@@ 15
爷@@ 15
牡丹 15
牢牢 15
物证 15
特产 15
特辑 15
犟 15
犯了罪 15
犯罪团伙 15
状元 15
狐@@ 15
狡辩 15
现政权 15
瓤 15
瓦片 15
甘愿 15
甜点 15
甜甜 15
生产者 15
生生 15
用以 15
用法 15
用脚 15
甩卖 15
疾驰 15
病床 15
登山者 15
登录 15
白脸 15
监禁 15
盘问 15
盟@@ 15
相传 15
相投 15
相辅相成 15
盼@@ 15
省钱 15
看做 15
真令人 15
眩晕 15
眯@@ 15
眼珠 15
睁开 15
睫毛 15
瞪眼 15
石塔 15
石油@@ 15
矿石 15
研究@@ 15
硬邦邦的 15
确 15
碾@@ 15
磁带 15
磕@@ 15
磕磕@@ 15
磨合 15
礼拜天 15
社论 15
神志 15
禅 15
离世 15
离谱 15
私利 15
私塾 15
种地 15
租借 15
积极@@ 15
积水 15
穿梭 15
窃取 15
窒息 15
立下 15
立体感 15
笔挺 15
笔试 15
第二年 15
等着瞧 15
简 15
管理者 15
粒@@ 15
粗大 15
精灵 15
糊糊 15
糯米 15
系列@@ 15
紧张感 15
累积 15
繁杂 15
红薯 15
纪念邮票 15
纳入 15
练习@@ 15
组成部分 15
细胞@@ 15
经常出现 15
经营不善 15
结下 15
结晶 15
绚丽 15
绝大多数 15
绝妙 15
绝技 15
编成 15
编排 15
编织 15
罐@@ 15
置于 15
美元汇率 15
群山 15
老先生 15
老兵 15
考官 15
而上 15
而入 15
而出名 15
耗费 15
耳机 15
联军 15
肉质 15
肋 15
肌@@ 15
背着手 15
背阴 15
胡 15
胸脯 15
能克服 15
能源@@ 15
脂@@ 15
脂肪@@ 15
脱下 15
脱发 15
脸子 15
腐朽 15
腐蚀 15
膝@@ 15
臂@@ 15
自救 15
自首 15
臭骂 15
般配 15
节课 15
芯片 15
花卉 15
苏 15
苦战 15
苦衷 15
英雄@@ 15
苹果树 15
草叶 15
荒凉 15
荷叶 15
荷尔蒙 15
莫斯科 15
莲 15
莲花 15
落下来 15
葱 15
蔚@@ 15
薪酬 15
虚无 15
蜂 15
补助金 15
表面@@ 15
袍 15
袜 15
被关 15
裂开 15
装卸 15
装束 15
西式 15
要价 15
见了面 15
见效 15
角儿 15
解放前 15
解脱 15
计划生育 15
讨人喜欢 15
记述 15
讲演 15
证券市场 15
识字 15
诊所 15
诗篇 15
语言@@ 15
语言学 15
语言表达 15
诱 15
诱发 15
请来 15
请柬 15
谈及 15
豆腐@@ 15
贝 15
负面影响 15
败坏 15
货船 15
贫瘠 15
贵贱 15
走狗 15
起哄 15
起步 15
超人 15
足有 15
趴@@ 15
跪@@ 15
跳高 15
踏板 15
蹦蹦跳跳 15
身世 15
躲过 15
轧 15
轮椅 15
轰 15
较弱 15
辅 15
辅@@ 15
辛劳 15
辣味 15
辣椒面 15
边疆 15
过意不去 15
过渡 15
迈出 15
运算 15
这段 15
这菜 15
进取 15
连同 15
连日来 15
连环 15
迫@@ 15
退步 15
送走 15
适时 15
选中 15
递增 15
逗留 15
通向 15
通货 15
逸 15
逼真 15
遗弃 15
遗忘 15
遣 15
遥遥领先 15
那一 15
郁@@ 15
酌 15
酬 15
醇 15
重演 15
野猪 15
金融机构 15
金银 15
鉴 15
钟摆 15
钱儿 15
铁丝网 15
铃铛 15
销声匿迹 15
锈@@ 15
长成 15
长期化 15
问卷 15
问卷调查 15
闲着 15
间断 15
闹腾 15
阁楼 15
阿拉伯 15
附带 15
限定 15
随心所欲 15
隐 15
隐退 15
雀@@ 15
雨后 15
雨天 15
雪人 15
露营 15
青岛 15
青草 15
面儿 15
面向@@ 15
鞋带 15
鞋跟 15
鞍@@ 15
韩中 15
音信 15
韵@@ 15
顺眼 15
领导班子 15
飞走 15
飞驰 15
食材 15
餐饮 15
饰演 15
饵 15
饿肚子 15
馅 15
马马虎虎 15
驯服 15
骚扰 15
骤@@ 15
骨碌 15
高中@@ 15
高官 15
高度@@ 15
高昂 15
高高 15
鸦片 15
鹅 15
麻子 15
黄牛 15
鼓动 15
龙山 15
－ 15
00@@ 14
110 14
1990 14
1997 14
40@@ 14
44 14
6.25 14
7000 14
99 14
B 14
at@@ 14
b 14
c 14
j@@ 14
一不@@ 14
一天天 14
一寸 14
一惊 14
一打 14
一斤 14
一桌 14
一番话 14
一百万 14
一站 14
一笔@@ 14
一等 14
一贯性 14
一阵风 14
三口 14
三尺 14
三峡 14
三月份 14
上下@@ 14
上涂 14
下个星期 14
下围棋 14
下楼 14
下课后 14
不合@@ 14
不周 14
不妙 14
不忍心 14
不掉 14
不正 14
不甘@@ 14
不知疲倦 14
不祥 14
不经意 14
不详 14
与其说 14
两军 14
两口子 14
两本 14
两条@@ 14
两杯 14
两瓶 14
两米 14
两面 14
严严实实 14
严酷 14
中央电视台 14
中意 14
中有@@ 14
为啥 14
为首 14
主楼 14
之声 14
之时 14
之气 14
九年 14
书面 14
了如指掌 14
事务@@ 14
云南 14
五十岁 14
五名 14
五颜六色 14
交待 14
交朋友 14
亮度 14
亲信 14
亲朴 14
人为@@ 14
人人@@ 14
人间@@ 14
介 14
介@@ 14
从此以后 14
仙 14
以为@@ 14
以示 14
仲裁 14
任职 14
休养 14
休闲@@ 14
会为 14
传承 14
传染给 14
低估 14
低沉 14
低落 14
体格 14
体育课 14
作曲 14
作答 14
佯@@ 14
佳作 14
使用@@ 14
供暖 14
侠 14
俏@@ 14
保卫 14
保温 14
保镖 14
修筑 14
假定 14
偏袒 14
做买卖 14
做学问 14
做工 14
储藏 14
僵化 14
充满希望 14
充满热情 14
光天化日 14
光秃秃 14
免税店 14
入围 14
全然 14
全球性 14
八字 14
公共设施 14
公式 14
公转 14
关掉 14
其人 14
兼具 14
内心世界 14
内行 14
冈 14
再次发生 14
农具 14
冬至 14
冰川 14
冷冰冰 14
凉风 14
减缓 14
凝聚力 14
几杯 14
几片 14
凶器 14
出入口 14
出处 14
出战 14
出游 14
出版@@ 14
出过 14
刑事责任 14
刚来 14
初步 14
别处 14
别想 14
别致 14
制药 14
前半@@ 14
剧毒 14
劈成 14
动乱 14
动弹 14
努力奋斗 14
努力提高 14
勉励 14
包围圈 14
匪@@ 14
十字@@ 14
十年@@ 14
千辛万苦 14
千金 14
半辈子 14
南道 14
卦 14
即便如此 14
卵子 14
历史性 14
厉@@ 14
压住 14
厚着脸皮 14
原始人 14
原委 14
原封不动 14
厨 14
双赢 14
反对派 14
反败为胜 14
发呆 14
发疯 14
发痒 14
取笑 14
受人 14
受挫 14
受灾地区 14
变态 14
变换 14
口吻 14
古都 14
另有 14
可耻 14
史无前例 14
吃喝 14
吃苦 14
各式各样 14
合体 14
合力 14
合理性 14
同居 14
同龄人 14
名气 14
名牌产品 14
名词 14
后世 14
向东 14
吟 14
启事 14
启用 14
吱@@ 14
吸引力 14
吸毒 14
告别仪式 14
呐喊 14
周期@@ 14
周转 14
呼吸困难 14
和平共处 14
咖啡因 14
咬紧牙关 14
哈气 14
哐 14
哐当 14
唾弃 14
商谈 14
商铺 14
啧啧 14
喂奶 14
喜庆 14
喝牛奶 14
喷泉 14
嗜好 14
嗬 14
嘀咕 14
嘈 14
嘣 14
嘲讽 14
嘻@@ 14
嚣张 14
嚷嚷 14
四年级 14
回信 14
回首 14
团聚 14
困住 14
困意 14
围成 14
固 14
国务会议 14
国道 14
图像 14
圆满成功 14
圈内 14
圣火 14
圣贤 14
在短期内 14
在野 14
地平线 14
地掉 14
地朝 14
地要 14
地质 14
地雷 14
坑坑洼洼 14
坛子 14
坝 14
坦克 14
垃圾堆 14
城门 14
塌陷 14
塑料@@ 14
塔利班 14
增加@@ 14
增税 14
墨西哥 14
士大夫 14
壮烈 14
声援 14
复仇 14
外科 14
外观 14
多多@@ 14
多种@@ 14
多项 14
大大@@ 14
大大增加 14
大扫除 14
大提琴 14
天气炎热 14
天王 14
太暗 14
太极拳 14
太阳镜 14
失利 14
失恋 14
头巾 14
头皮 14
头盔 14
奇异 14
女主人 14
女郎 14
奸 14
好似 14
好办 14
好容易 14
妈@@ 14
妒@@ 14
始末 14
姐妹俩 14
婉转 14
媚@@ 14
学员 14
学术会议 14
学生@@ 14
孩儿 14
宇@@ 14
完蛋 14
宗教界 14
定位 14
实名 14
宽厚 14
射出 14
小品 14
小心谨慎 14
小男孩 14
少年@@ 14
尚有 14
就够 14
尼亚 14
尼日利亚 14
尽心尽力 14
屈 14
屏住 14
履行@@ 14
崇礼 14
嵌 14
巡警 14
工人@@ 14
工钱 14
巴格达 14
市价 14
帘@@ 14
帝王 14
帮人 14
干巴 14
干扰 14
干涸 14
干草 14
平安@@ 14
年里 14
序言 14
应有尽有 14
庙@@ 14
废品 14
开发商 14
开演 14
开衫 14
开采 14
式化 14
当儿 14
录取名单 14
录音机 14
彗星 14
彩旗 14
往下 14
往东 14
徐 14
得意忘形 14
心存 14
心烦 14
心脏麻痹 14
忍受着 14
忙活 14
快感 14
怔 14
怜@@ 14
怜悯 14
怦怦 14
总在 14
恩爱 14
恶毒 14
您好 14
情谊 14
惨淡 14
想见 14
愈来愈 14
感到高兴 14
感触 14
慢点儿 14
憎恨 14
懦弱 14
戈@@ 14
成就感 14
成问题 14
我想 14
户外 14
所指 14
手绢 14
扑鼻 14
打压 14
打哆嗦 14
打猎 14
打磨 14
扼杀 14
把酒 14
抓起 14
报价 14
抱负 14
抽象@@ 14
担 14
拉肚子 14
挂牌 14
挑拨 14
挖苦 14
挟持 14
挠@@ 14
挨饿 14
挺不错 14
挺直 14
捆绑 14
捉弄 14
捍卫 14
捐出 14
捕食 14
捧腹大笑 14
排行榜 14
掠@@ 14
探险@@ 14
控@@ 14
推卸 14
推移 14
推算 14
推销员 14
提了 14
提着 14
搅乱 14
搞定 14
摆好 14
摇摆不定 14
摞 14
摧毁 14
撒娇 14
攒下 14
支架 14
改变@@ 14
改正错误 14
攻击性 14
放任 14
放声 14
放盐 14
放肆 14
政务 14
政变 14
政府部门 14
效仿 14
救人 14
救济@@ 14
教员 14
敲门 14
文具 14
文学史 14
料到 14
新书 14
新品种 14
施压 14
无所不@@ 14
无缘 14
无边 14
日光 14
日常事务 14
旭 14
旱灾 14
旷课 14
昆@@ 14
明智之举 14
映出 14
春秋 14
晋@@ 14
晋级 14
晚辈 14
普遍性 14
景点 14
晴天霹雳 14
暇 14
最棒 14
最高值 14
有史以来 14
有名气 14
有机@@ 14
有毒 14
有色眼镜 14
望去 14
木偶 14
未知 14
机身 14
机车 14
杂技 14
杆子 14
来个 14
来劲 14
构@@ 14
枕着 14
枪响 14
架不住 14
某处 14
染料 14
查阅 14
柳树 14
柴油 14
校规 14
核试验 14
根底 14
梗@@ 14
梯@@ 14
检点 14
概念@@ 14
模范生 14
樱桃 14
橡皮擦 14
橱窗 14
欠缺 14
欢迎光临 14
正当行为 14
正文 14
正方形 14
武装@@ 14
死者家属 14
殿@@ 14
每层 14
毛毛雨 14
毛皮 14
民事 14
民俗村 14
民歌 14
民浩说 14
民营化 14
民间艺术 14
气流 14
水准 14
水原 14
水晶 14
水温 14
水源 14
求助 14
汉拿山 14
汪汪 14
沉淀 14
沉睡 14
沙尘暴 14
没劲 14
没想 14
没规矩 14
沪 14
沸沸扬扬 14
法学 14
泥泞 14
派出所 14
流畅 14
测定 14
海洋@@ 14
消散 14
消极@@ 14
涉 14
涛 14
润色 14
淋雨 14
深化 14
深意 14
深陷 14
渍 14
渐 14
温水 14
游人 14
游子 14
溜走 14
溪流 14
溪边 14
滑冰 14
演员阵容 14
演艺人 14
演讲@@ 14
潮水 14
激 14
激动不已 14
激战 14
濒临 14
火灾现场 14
炫@@ 14
点滴 14
点灯 14
烙印 14
烛光 14
热情@@ 14
热血 14
热闹非凡 14
焉 14
爪@@ 14
爬坡 14
物理@@ 14
物理学 14
牵强 14
特权 14
特殊性 14
犁 14
猕猴桃 14
猜不透 14
献上 14
猴@@ 14
王妃 14
现出 14
珍爱 14
球场上 14
理工科 14
生存@@ 14
生就 14
生来 14
用卡 14
用车 14
甫 14
男女@@ 14
留个 14
疑犯 14
病态 14
病菌 14
病重 14
痴呆 14
痴迷 14
癌@@ 14
白发 14
白布 14
白白地 14
百米 14
百般 14
盆里 14
盈余 14
益处 14
盎然 14
盛情款待 14
目击 14
直发抖 14
直觉 14
直说 14
直销 14
盹儿 14
看不惯 14
看中 14
看眼色 14
真切 14
真品 14
真快 14
真谛 14
眨眼睛 14
眸 14
眼皮 14
眼线 14
睡意 14
睡眠不足 14
督@@ 14
矗立 14
知名度 14
知识产权 14
短期内 14
砖头 14
碍事 14
磅 14
示威游行 14
社会性 14
种下 14
科技@@ 14
积蓄 14
程子 14
空手 14
空话 14
窝棚 14
站台 14
童话故事 14
竿@@ 14
算命先生 14
篇幅 14
篮球比赛 14
篷 14
粗粗 14
粪 14
精力充沛 14
精湛 14
精细 14
糖分 14
红牌 14
纲纪 14
纵 14
纵火 14
纷至沓来 14
纹@@ 14
织品 14
绊脚石 14
经营@@ 14
绘制 14
绚烂 14
绝对@@ 14
统称 14
编号 14
编纂 14
缠绕 14
缺课 14
罐子 14
置之不理 14
羹 14
羽毛 14
翻身 14
老鹰 14
考入 14
考证 14
耸 14
耸肩 14
耻 14
聋 14
联手 14
肚里 14
肤色 14
背地里 14
背部 14
胖子 14
脚跟 14
腻@@ 14
臀部 14
臣@@ 14
自传 14
自然规律 14
致意 14
舒 14
航天@@ 14
航运 14
航道 14
舰艇 14
花开 14
花插 14
花束 14
花样滑冰 14
花言巧语 14
苦涩 14
英国人 14
英文@@ 14
英格兰 14
范畴 14
茶杯 14
草房 14
草草 14
莽@@ 14
菠萝 14
萝卜@@ 14
营地 14
营救 14
著作权 14
虐@@ 14
蜕皮 14
蜷缩 14
行者 14
衔@@ 14
补习 14
衷 14
袜@@ 14
襟 14
要来 14
见分晓 14
见见 14
见面会 14
规规矩矩 14
视而不见 14
解体 14
解放军 14
解题 14
警力 14
订货 14
讨价还价 14
让座 14
记录@@ 14
记录下来 14
讲授 14
论者 14
设在 14
证言 14
诈@@ 14
词句 14
试探 14
诗文 14
课桌 14
调剂 14
调查团 14
谑 14
谱儿 14
豆沙 14
象征性 14
贡@@ 14
财力 14
账目 14
贫困学生 14
购入 14
贺 14
贾@@ 14
赋@@ 14
赎罪 14
赞赏 14
超速 14
越低 14
越长 14
足迹 14
跌至 14
跑掉 14
跑腿 14
跟不上 14
蹦 14
躺@@ 14
轩然大波 14
转变成 14
轮到 14
输出 14
辣得 14
辣椒粉 14
辩护 14
迁都 14
过上 14
过剩 14
过往 14
运河 14
运输@@ 14
这么些 14
这么晚 14
这使 14
这布 14
这番话 14
这病 14
这间 14
连休 14
连天 14
连载 14
迪拜 14
迷宫 14
迷茫 14
退回 14
送往 14
送行 14
送货 14
逃亡 14
逃出 14
选拔赛 14
选用 14
逐个 14
逗人 14
造林 14
遗言 14
遮盖 14
遵从 14
邪气 14
郁郁葱葱 14
酌@@ 14
酬@@ 14
酷似 14
酿@@ 14
醇@@ 14
醒酒 14
重要@@ 14
野党 14
野生 14
野草 14
钞票 14
铜钱 14
铡 14
银幕 14
银河 14
铺开 14
锅盖 14
锡 14
镰刀 14
镶@@ 14
长势 14
长江大桥 14
长进 14
门户 14
门铃 14
门面 14
闪烁@@ 14
闭嘴 14
问个 14
问好 14
间隙 14
闸 14
阴谋诡计 14
阵亡 14
陋@@ 14
除以 14
隆重举行 14
障碍物 14
难懂 14
雅典 14
集体利益 14
集结 14
雨来 14
雪下 14
零工 14
雷阵雨 14
霉 14
霉@@ 14
霸气 14
非常感激 14
非议 14
靶子 14
顷 14
顺便去 14
顺溜 14
顺风 14
领海 14
频 14
频发 14
颠 14
风力 14
风吹@@ 14
风声 14
饮食@@ 14
馊 14
首领 14
香火 14
驯@@ 14
驱逐出境 14
驳回 14
驶过 14
骇@@ 14
骑车 14
高下 14
高得 14
高性能 14
高耸 14
魔法 14
鲁莽 14
鸟鸣 14
鼓鼓的 14
龟 14
130 13
1992 13
2015 13
43 13
49 13
69 13
77 13
al@@ 13
re@@ 13
z@@ 13
一万@@ 13
一体化 13
一勺 13
一升 13
一周年 13
一塌糊涂 13
一尺 13
一律平等 13
一撇 13
一条@@ 13
一概 13
一片片 13
一锅 13
万块 13
万户 13
万里 13
三方 13
三角@@ 13
上届 13
上路 13
上风 13
下垂 13
下层 13
下意识 13
下雨天 13
不合逻辑 13
不如意 13
不容@@ 13
不尽@@ 13
不改 13
不断@@ 13
不死 13
不着边际 13
不计 13
不识@@ 13
不齐 13
专务 13
专题@@ 13
世界化 13
世界大战 13
丛林 13
东方人 13
东西方 13
两件事 13
两份 13
两台 13
两地 13
两把 13
两极化 13
两端 13
两间 13
严肃@@ 13
个别@@ 13
中伤 13
中用 13
丰满 13
临头 13
为民 13
主旨 13
主要@@ 13
主语 13
久远 13
之人 13
之以@@ 13
之恩 13
之花 13
乎@@ 13
乞求 13
习惯于 13
买卖@@ 13
乱动 13
争相 13
争辩 13
事不@@ 13
二十多岁 13
二手车 13
于世 13
互 13
互不@@ 13
五次 13
亟@@ 13
产品价格 13
享用 13
亲爱 13
亵渎 13
人以 13
人力@@ 13
人口密度 13
人太多 13
人意 13
人长 13
仅限于 13
从严 13
从今天起 13
仔细阅读 13
他花 13
令人担忧 13
以待 13
以至于 13
任由 13
优质 13
会出 13
伴奏 13
低俗 13
低谷 13
住宿费 13
余人 13
使用费 13
例行 13
依稀可见 13
侥幸 13
侨民 13
侵入 13
保佑 13
信纸 13
俭@@ 13
借书 13
借此机会 13
倡@@ 13
假发 13
偏颇 13
做文章 13
健身@@ 13
偷看 13
先后顺序 13
先锋 13
光化 13
光辉 13
免职 13
党政 13
全方位 13
全省 13
公共交通 13
公平@@ 13
公诉 13
公车 13
六十@@ 13
六十岁 13
关在 13
关系@@ 13
关节炎 13
养家糊口 13
养花 13
内政 13
内讧 13
再见面 13
冒失 13
写法 13
农协 13
农闲 13
冤家 13
冤枉钱 13
冲刺 13
冲走 13
决战 13
冷却@@ 13
凉飕飕 13
减去 13
几倍 13
几遍 13
凳子 13
凶猛 13
凸 13
出乎 13
出毛病 13
出水 13
出现异常 13
出门在外 13
出马 13
击打 13
刃@@ 13
分清 13
分行 13
分配@@ 13
切除 13
刊载 13
划掉 13
列出 13
刘 13
初中生 13
判罚 13
利己 13
别以为 13
别太 13
到头 13
券@@ 13
刻画 13
削去 13
前列 13
前所未有 13
剪裁 13
劝阻 13
动作片 13
劳资纠纷 13
勘探 13
匕首 13
十多 13
半球 13
半途而废 13
卑 13
单打 13
卖力气 13
南非 13
南韩 13
压缩@@ 13
原告 13
原子能 13
厥 13
厮@@ 13
参与者 13
参照 13
参考书 13
参观者 13
双双 13
双职工 13
反作用 13
反动派 13
发笑 13
发黑 13
叔 13
受阻 13
变大 13
变故 13
变相 13
叠好 13
口令 13
口红 13
古今中外 13
古墓 13
古希腊 13
古时候 13
另行 13
叫喊 13
叫醒 13
可回收 13
可行性 13
台湾@@ 13
叱@@ 13
史料 13
吃不饱 13
各不相同 13
合乎 13
合唱 13
合得来 13
合眼 13
合着 13
名品 13
后会 13
后半场 13
吭哧 13
吸尘器 13
吹灭 13
周边环境 13
周长 13
味十足 13
命题 13
咀嚼 13
咖啡馆 13
哗啦哗啦 13
哝 13
哨兵 13
哲理 13
唾沫 13
喜事 13
喜悦之情 13
喝彩 13
喷洒 13
喻 13
嘎巴 13
噜 13
噪@@ 13
噼@@ 13
四天 13
四海 13
四溢 13
四点 13
回升 13
回过 13
回音 13
园子 13
固守 13
国格 13
国际贸易 13
圆珠笔 13
土地@@ 13
圣诞 13
在世界上 13
在乎 13
在所难免 13
在生活中 13
在经济上 13
地放 13
坐视@@ 13
坑道 13
块头 13
坚果 13
坦诚 13
垂直 13
堤@@ 13
堪@@ 13
堵墙 13
墓@@ 13
墙纸 13
增长@@ 13
士官 13
外加 13
外间 13
多为 13
多元化 13
多变 13
多部 13
夜以继日 13
夜夜 13
夜路 13
大不一样 13
大受欢迎 13
大块 13
大堤 13
大学校长 13
大手大脚 13
大拇指 13
大有@@ 13
大爷 13
大祸 13
大葱 13
大错 13
天一亮 13
天灾 13
天热 13
天真 13
太差 13
太急 13
太旧 13
太深 13
太短 13
太空@@ 13
太阳系 13
失之@@ 13
失手 13
失火 13
失足 13
夺回 13
奉承 13
奔腾 13
奠定 13
女主角 13
女职员 13
奶瓶 13
好久不见 13
好书 13
好几种 13
好汉 13
好玩 13
如期 13
如流 13
姿@@ 13
娱乐圈 13
娱乐场所 13
媒@@ 13
孤僻 13
安全帽 13
宏观 13
官府 13
官方@@ 13
宛如 13
实况 13
实战 13
实际@@ 13
审判官 13
客场 13
害人 13
家业 13
家什 13
家务事 13
家当 13
寐 13
寒流 13
察觉 13
察觉到 13
对称 13
对错 13
射击训练 13
尊重@@ 13
小丑 13
小幅 13
小李 13
小树 13
小王子 13
小组赛 13
少数@@ 13
少说 13
居室 13
屈辱 13
展品 13
属实 13
山寨 13
山水画 13
山洞 13
山羊 13
岔子 13
岗@@ 13
岳父 13
崽子 13
工业园区 13
工作量 13
工匠 13
工序 13
工资@@ 13
巨大@@ 13
巨头 13
差一点 13
差额 13
希腊@@ 13
席位 13
常人 13
常在 13
干枯 13
并列 13
幻 13
幼时 13
幽 13
广义 13
广播@@ 13
广播节目 13
库房 13
应用@@ 13
康乃馨 13
廉 13
开创 13
开去 13
开叉 13
开城 13
开局 13
开战 13
开满 13
开票 13
开销 13
异味 13
异议 13
式样 13
弘扬 13
弯弯曲曲 13
弱势群体 13
强制性 13
强求 13
彰显 13
很嫩 13
很饱 13
徐徐 13
得意@@ 13
微生物 13
心境 13
心理学 13
心目 13
心神@@ 13
志向 13
忧郁症 13
快活 13
怀上 13
怜 13
思绪 13
性病 13
总务 13
总选 13
恃 13
恐怖电影 13
恤 13
恭敬 13
恰好 13
悄然 13
悬赏 13
惊喜 13
惊慌失措 13
惜 13
惨遭 13
想不起 13
愉悦 13
意大利@@ 13
感知 13
慈祥 13
慌忙 13
慢点 13
憩 13
成书 13
成功@@ 13
成千上万 13
成绩单 13
我该 13
戒酒 13
战俘 13
房主 13
房檐 13
扁@@ 13
手动 13
手心 13
手足 13
打不开 13
打包 13
打手势 13
打滑 13
打点 13
打赌 13
打麻将 13
扔@@ 13
托付 13
扣留 13
执勤 13
扩音器 13
技师 13
抉择 13
抑@@ 13
抢占 13
抢走了 13
报上 13
报废 13
抿 13
拂 13
拍子 13
拗@@ 13
拴@@ 13
拿不定 13
挣脱 13
挫 13
振作起来 13
损毁 13
掉色 13
接头 13
接种 13
推崇 13
描 13
揣摩 13
揪住 13
揽@@ 13
摽 13
撞击 13
撤 13
收据 13
改写 13
攻防 13
放在心上 13
放声大哭 13
放心不下 13
放送 13
放风筝 13
政府军 13
故事@@ 13
敌对 13
敏 13
教育界 13
敦@@ 13
数目 13
整座 13
敷@@ 13
文学家 13
斡旋 13
斤斤计较 13
新作 13
新绿 13
新设 13
施肥 13
无休止 13
无言 13
无限期 13
无须 13
日益@@ 13
旧习 13
旧事 13
早退 13
时钟 13
明朝 13
明确规定 13
昔@@ 13
星期五 13
春日 13
显露出来 13
晃 13
晕车 13
普及@@ 13
景区 13
晴天 13
曲目 13
更具 13
最高@@ 13
最高峰 13
有氧 13
有益于 13
朗 13
末尾 13
末班车 13
本着 13
杀毒软件 13
杂乱 13
杂粮 13
李教授 13
李白 13
李老师 13
李舜臣 13
板儿 13
极具 13
林子里 13
林立 13
架势 13
枷锁 13
栗@@ 13
校庆 13
格斗 13
档次 13
梗 13
梳@@ 13
检查@@ 13
检索 13
森林@@ 13
植树 13
楞 13
榨@@ 13
槌 13
槽@@ 13
橙子 13
橡皮筋 13
歉意 13
歪斜 13
残余 13
殖@@ 13
每一件 13
比比皆是 13
毕业典礼 13
毛孔 13
民工 13
民浩对 13
民间传说 13
气喘吁吁 13
氢 13
水从 13
水坑 13
水沟 13
水草 13
水道 13
求得 13
求职者 13
求饶 13
汉阳 13
汝矣岛 13
没事儿 13
没大没小 13
没考上 13
油灯 13
治好 13
法制@@ 13
法定@@ 13
法律责任 13
泣 13
洁净 13
洒脱 13
洗刷 13
洗衣粉 13
洲 13
活生生 13
流着 13
流血@@ 13
流行@@ 13
浆@@ 13
浓密 13
海绵 13
消亡 13
消磨 13
消耗@@ 13
涝 13
淅@@ 13
淋漓 13
淋漓尽致 13
淡绿色 13
淫秽 13
深呼吸 13
清单 13
渗入 13
渣@@ 13
游船 13
湿地 13
溢出 13
溺 13
滑雪板 13
满员 13
满地 13
满天飞 13
漂泊 13
潜艇 13
澄清 13
澳@@ 13
激光 13
灌溉 13
火气 13
火海 13
灯火 13
灵活性 13
灵活运用 13
炒菜 13
炙 13
炙@@ 13
点半 13
热点 13
煎@@ 13
煤烟 13
爆出 13
爆发力 13
爱国心 13
爱慕 13
爷爷奶奶 13
片子 13
牢房 13
牢靠 13
物力 13
犊 13
独家@@ 13
独居 13
独立@@ 13
献血 13
玩家 13
珠宝 13
瑜伽 13
瑞 13
瓶盖 13
生产率 13
生活态度 13
生物学 13
生疼 13
用布 13
用电 13
用词 13
用过 13
田径比赛 13
由衷 13
电影演员 13
电影界 13
电影票 13
电风扇 13
画像 13
番@@ 13
畸形 13
疑点 13
痛痛快快 13
登记@@ 13
白眼 13
百分@@ 13
百花盛开 13
皆知 13
皮肤病 13
皱起 13
盐水 13
盛会 13
相配 13
省略 13
看不@@ 13
看点 13
督促 13
瞻@@ 13
矮子 13
石碑 13
矿业 13
矿物质 13
砰砰 13
破格 13
碰见 13
神像 13
神来 13
神秘感 13
秃@@ 13
种树 13
租住 13
稍加 13
稿纸 13
穿插 13
突击 13
突变 13
突起 13
窝点 13
窥视 13
站稳 13
站立 13
竞技 13
竞相 13
竿 13
笋 13
笛 13
筹划 13
签了 13
签发 13
简陋 13
篇@@ 13
米袋 13
粗重 13
粮食产量 13
精神压力 13
精神病 13
精美 13
累计 13
繁多 13
细嫩 13
细密 13
细细 13
经典@@ 13
结了 13
结出 13
绘@@ 13
给与 13
统 13
统一@@ 13
统计@@ 13
绪 13
绿化 13
绿洲 13
缅甸 13
缝里 13
缠身 13
缺勤 13
缺失 13
美术界 13
美白 13
群众运动 13
羽@@ 13
老天爷 13
老套 13
老汉 13
老眼光 13
考虑一下 13
而今 13
而过 13
耐久性 13
耳环 13
耳目 13
耶 13
耻@@ 13
职权 13
联邦 13
聪@@ 13
肠子 13
胃癌 13
胜地 13
胶卷 13
脚脖子 13
腐化 13
腐败@@ 13
腕 13
腮 13
腰里 13
腰间 13
臃肿 13
臆@@ 13
自取灭亡 13
自尊 13
自由自在 13
自行@@ 13
自豪感 13
舂 13
船头 13
艺术品 13
芹菜 13
茵 13
荆@@ 13
草绳 13
荣获 13
获得者 13
菜汤 13
菠菜 13
葱@@ 13
葱绿 13
蒙蒙 13
蒿 13
薄薄的 13
藏青色 13
藻 13
虐 13
蜇 13
蜘蛛网 13
蝉 13
蝙蝠 13
螃蟹 13
行贿 13
补丁 13
补给 13
补药 13
表格 13
表述 13
衬托 13
袒护 13
装点 13
装着 13
西方人 13
要学 13
见鬼 13
解说 13
言辞 13
警戒线 13
认知 13
讪@@ 13
训了 13
训练@@ 13
记忆里 13
论据 13
诉@@ 13
话儿 13
询 13
该队 13
说来 13
诸如 13
读懂 13
谈一谈 13
豁 13
负荷 13
财务@@ 13
财经部 13
败局 13
败者 13
账单 13
贪官 13
贬值 13
购进 13
贾 13
资金@@ 13
赛前 13
走不动 13
走失 13
走掉 13
走私物品 13
走走 13
赶忙 13
起用 13
趁早 13
足协 13
趴 13
跷@@ 13
身体虚弱 13
身材矮小 13
身躯 13
车里 13
轧@@ 13
轮子 13
轴@@ 13
载人 13
辍学 13
辑 13
输赢 13
辗转 13
辛辛苦苦 13
辟@@ 13
辫 13
迅@@ 13
返乡 13
还债 13
这么久 13
这会 13
这枚 13
这段话 13
这比 13
这番 13
这盘 13
这部分 13
进口@@ 13
进进出出 13
连个 13
迟缓 13
逃犯 13
逆向 13
选项 13
逊色 13
透风 13
逗得 13
造出 13
造就 13
逾 13
道义 13
道儿 13
那批 13
那辆车 13
那项 13
郑某 13
郡@@ 13
部件 13
部族 13
鄙视 13
酒气 13
酥 13
酸酸的 13
酿 13
酿造 13
重力 13
金浦 13
鉴赏 13
钩@@ 13
铁门 13
锅底 13
锦 13
镐 13
长得帅 13
长期@@ 13
长篇小说 13
长跑 13
间距 13
闹别扭 13
闹翻 13
阀 13
阅览室 13
阐释 13
防晒霜 13
防波堤 13
防疫 13
阵痛 13
阶@@ 13
阻塞 13
陀螺 13
附有 13
随和 13
难于 13
难保 13
难逃 13
需求者 13
靓丽 13
静坐 13
非常适合 13
非正规 13
面膜 13
韩朝 13
音量 13
页@@ 13
顺序排列 13
顽皮 13
顾虑 13
颂@@ 13
领着 13
颈部 13
频@@ 13
风水 13
风险投资 13
飞扬 13
饭粒 13
饭量 13
饰@@ 13
馅儿 13
骗术 13
骡子 13
高位 13
高利贷 13
高强度 13
高水平 13
高油价 13
高质量 13
高速@@ 13
鱼饵 13
鲍鱼 13
麻布 13
麻袋 13
黄土 13
黏糊糊 13
黑马 13
0.@@ 12
1300 12
1994 12
57 12
61 12
72 12
85 12
K 12
co@@ 12
一万元 12
一下@@ 12
一世 12
一串 12
一击 12
一切@@ 12
一千块 12
一去 12
一国 12
一堂 12
一字@@ 12
一干二净 12
一年一度 12
一招 12
一放 12
一无所@@ 12
一枝 12
一百元 12
一眨眼 12
一跃 12
一锅粥 12
一门心思 12
一阵阵 12
一顶 12
一颗颗 12
万册 12
万多 12
三位 12
三千@@ 12
三四@@ 12
上岗 12
上方 12
下不来 12
下定 12
下岗 12
下边 12
下马 12
不一 12
不为过 12
不予 12
不依 12
不可思议 12
不妥 12
不懈努力 12
不择手段 12
不放过 12
不早了 12
不算数 12
不紧不慢 12
不谈 12
不起来 12
不起眼 12
不进 12
不配 12
世子 12
丛 12
丛书 12
丛林中 12
两万元 12
两千 12
两千@@ 12
两极 12
两省 12
两辆 12
两遍 12
两颊 12
中产阶级 12
中国大使馆 12
中小 12
中性 12
中文系 12
中方 12
中级 12
丰田 12
丰硕 12
临时工 12
为国@@ 12
主观@@ 12
主谋 12
主题@@ 12
之名 12
之才 12
之日起 12
之谈 12
乡间 12
书法作品 12
书页 12
买主 12
买些 12
乱子 12
乱成一团 12
争气 12
事会 12
二手@@ 12
二月 12
云朵 12
五块 12
五花肉 12
井井有条 12
交加 12
交流@@ 12
交通部 12
产卵 12
亮出 12
亲属 12
亲戚家 12
亲手做 12
人心惶惶 12
人真 12
今儿 12
付诸@@ 12
代为 12
令人窒息 12
以求 12
以防万一 12
件@@ 12
价格比 12
任用 12
休学 12
优惠券 12
优秀作品 12
优良@@ 12
传统观念 12
伤得 12
伸出手 12
低年级 12
住房@@ 12
佩 12
使劲儿 12
使命感 12
使者 12
侦探@@ 12
侮 12
侮@@ 12
保卫祖国 12
保持中立 12
保证金 12
信托 12
俭朴 12
修订案 12
倍感 12
倒数 12
候车室 12
借款 12
倾盆大雨 12
假想 12
做得好 12
停工 12
健康@@ 12
偷听 12
偷袭 12
偿 12
傍 12
儒家思想 12
充血 12
光复节 12
光棍 12
光溜溜 12
免去 12
党代表 12
党的@@ 12
入座 12
全文 12
全景 12
八岁 12
公共场合 12
公寓楼 12
公鸡 12
关键问题 12
其一 12
兹 12
养生 12
兼任 12
内务 12
内心深处 12
内情 12
内脏 12
冒冒失失 12
冗@@ 12
农业税 12
冰场 12
冲锋 12
决不允许 12
决赛圈 12
况@@ 12
冷静下来 12
冻死 12
减价 12
减肥@@ 12
几口 12
几率 12
几项 12
几颗 12
凹@@ 12
凹凸不平 12
凹陷 12
出世 12
出口量 12
出征 12
出气 12
出车祸 12
分析@@ 12
切得 12
刑期 12
刘海 12
刚到 12
初夏 12
初级阶段 12
刨子 12
别去 12
别生气 12
别老 12
刮胡子 12
前期 12
前门 12
剜 12
剧组 12
剪断 12
劈柴 12
办事处 12
加固 12
加时赛 12
助教 12
努@@ 12
势力范围 12
勿@@ 12
北韩 12
匠@@ 12
匠人 12
十万元 12
十六@@ 12
千日 12
升至 12
半截 12
协商@@ 12
协约 12
单行@@ 12
南海 12
博学 12
卡住 12
卫兵 12
卫生纸 12
危及 12
卷起 12
原价 12
原住民 12
原样 12
去取 12
参考文献 12
双层 12
双重@@ 12
发售 12
发懒 12
发现自己 12
发生冲突 12
发电@@ 12
发紫 12
受到谴责 12
变冷 12
变卦 12
变通 12
口舌 12
古代@@ 12
召@@ 12
叮叮当当 12
司令官 12
叽@@ 12
各界人士 12
合一 12
合理化 12
同学会 12
同性 12
名册 12
名家 12
向前走 12
向外 12
向西 12
吓唬 12
吝惜 12
吞噬 12
听不@@ 12
听过 12
吭@@ 12
吵吵闹闹 12
吹风 12
告发 12
告诫 12
呑 12
呕 12
周围环境 12
命中 12
和善 12
和平统一 12
咒 12
咬了一口 12
咯咯 12
咳@@ 12
哀伤 12
哀叹 12
哀求 12
品位 12
品牌@@ 12
哈哈大笑 12
哧溜 12
哭笑不得 12
唱功 12
唱起 12
啃骨头 12
商船 12
啪嗒 12
啰 12
啰嗦 12
喘气 12
喝下 12
嗖 12
嗡嗡 12
嗡嗡@@ 12
嗨 12
嗷@@ 12
噜噜 12
四人 12
团体赛 12
囫囵 12
围棋@@ 12
国内@@ 12
国庆 12
国策 12
国际化 12
图书@@ 12
图纸 12
圆满解决 12
圣地 12
圣诞老人 12
地产 12
地倒 12
地哭 12
地拉 12
地摊 12
场外 12
坐上 12
坐不住 12
坐牢 12
垃圾邮件 12
型号 12
垫底 12
城区 12
城堡 12
培 12
基金会 12
堆放 12
堵得 12
塞进 12
墙脚 12
增减 12
增设 12
墩 12
壮年 12
复出 12
外卖 12
外币 12
外文 12
外星人 12
外汇@@ 12
外籍 12
多万 12
多数@@ 12
多日 12
够呛 12
大不了 12
大伯 12
大力@@ 12
大力发展 12
大型超市 12
大声喊叫 12
大家庭 12
大房子 12
大权 12
大气@@ 12
大清早 12
大熊猫 12
大石头 12
大礼堂 12
大车 12
天下@@ 12
天塌下来 12
天大 12
天晴 12
太厚 12
太咸 12
太平 12
太平@@ 12
太阳光 12
头戴 12
头脑清醒 12
夹住 12
契约 12
奖项 12
奢华 12
奥委会 12
女士们 12
女神 12
女秘书 12
好儿 12
好客 12
好比 12
好长时间 12
如一日 12
如意 12
妃 12
妇人 12
妓 12
妻儿 12
姐@@ 12
嫁妆 12
嫩嫩的 12
嫩绿 12
嫩芽 12
学年度 12
学得 12
安息 12
宋代 12
宗教@@ 12
定价 12
定好 12
定性 12
宛@@ 12
实为 12
实习生 12
实事 12
实则 12
实弹 12
实权 12
实现目标 12
实际行动 12
客观性 12
宰相 12
家们 12
寥@@ 12
对折 12
对朝 12
寿司 12
射中 12
尉 12
小聪明 12
尖端技术 12
就绪 12
尼龙 12
尽孝 12
层出不穷 12
居民@@ 12
屉 12
屋内 12
屋檐 12
属下 12
山岭 12
岁月流逝 12
崛起 12
巡访 12
工业革命 12
巨石 12
巨资 12
差一点儿 12
差价 12
差劲 12
已晚 12
师生 12
带回 12
帮子 12
常理 12
干事 12
干着急 12
年均 12
年迈 12
幸存者 12
幸福美满 12
幽深 12
底朝天 12
度数 12
开了个 12
开起 12
异乡 12
异样 12
弄错 12
弊病 12
归国 12
形式主义 12
影星 12
很广 12
很淡 12
很矮 12
很香 12
微观 12
心上 12
必要条件 12
忘怀 12
忠臣 12
急切 12
急性 12
怪物 12
总想 12
总数 12
恃@@ 12
恨不得 12
恶棍 12
悬崖峭壁 12
惨剧 12
惩处 12
想出 12
想当 12
意境 12
意外事故 12
意见分歧 12
感应 12
慰问@@ 12
懈怠 12
懒得 12
戏剧@@ 12
戏水 12
成绩@@ 12
户籍 12
所剩 12
所有者 12
所知 12
扇扇子 12
手推车 12
扑打 12
扑灭 12
打杂 12
打火机 12
打闹 12
扣帽子 12
扭动 12
批发@@ 12
承受不住 12
抒@@ 12
投篮 12
折扣店 12
抡 12
报仇 12
报应 12
抵消 12
抹掉 12
拆散 12
拉拉 12
拉长 12
拐角 12
拣@@ 12
拧开 12
拷问 12
拿定主意 12
持刀 12
持枪 12
指甲油 12
挎着 12
挑出 12
挑战者 12
挖掘出 12
挤出 12
挤进 12
挪威 12
捐助 12
捣乱 12
授 12
掐断 12
掐着 12
掘 12
接吻 12
提意见 12
插队 12
握紧 12
携 12
摄氏 12
摔碎 12
摘取 12
摘得 12
摸不透 12
撕破 12
撤离 12
撮@@ 12
收益率 12
收监 12
收购@@ 12
收费@@ 12
攻防战 12
放慢 12
救护 12
教皇 12
敞 12
敬意 12
敬礼 12
数千@@ 12
数学家 12
数次 12
敲响 12
整合 12
整套 12
文中 12
文学创作 12
文学奖 12
文科 12
斩 12
断言 12
新出 12
新生事物 12
新造 12
方才 12
旗子 12
无一例外 12
无关紧要 12
无家可归 12
无息 12
无暇 12
日头 12
日新月异 12
日记本 12
旧日 12
时不@@ 12
时说 12
旷野 12
明文规定 12
明细 12
昏倒 12
易碎 12
昧 12
昨@@ 12
昼@@ 12
晖 12
晨 12
暗号 12
暴风雪 12
曹 12
最难 12
有误 12
望了望 12
望而@@ 12
期刊 12
木质 12
未满 12
末端 12
本应 12
本月底 12
本科@@ 12
机器@@ 12
机械@@ 12
杀手 12
杂烩 12
杆@@ 12
李先生 12
李子 12
杜鹃花 12
束带 12
来客 12
来袭 12
来过 12
板凳 12
林木 12
枪击 12
枯 12
柏林 12
柏油路 12
柚@@ 12
柿饼 12
标准化 12
树干 12
校门 12
样本 12
核心人物 12
根本性 12
根治 12
框框 12
案情 12
桌前 12
梦中 12
棋手 12
棍儿 12
椰@@ 12
横穿 12
橙色 12
欠款 12
欢心 12
欢送 12
欣然 12
歌舞 12
歌颂 12
正义感 12
正午 12
正想 12
正月初一 12
正相反 12
正要 12
正轨 12
此款 12
此间 12
武断 12
武艺 12
歧@@ 12
歹@@ 12
死角 12
残暴 12
每位 12
每家 12
每户 12
每桶 12
毒药 12
毒蛇 12
毕业证 12
毙 12
毛毯 12
毛笔 12
民浩和@@ 12
民浩给 12
民秀 12
气势汹汹 12
气头上 12
气节 12
氢@@ 12
水是 12
水来 12
水淹 12
水资源 12
汁@@ 12
汉文 12
污蔑 12
汲@@ 12
沈@@ 12
沉寂 12
沉醉在 12
沙沙 12
没有勇气 12
没熟 12
没考 12
没说 12
河山 12
波斯菊 12
泥水 12
注射针 12
泪珠 12
泰然自若 12
洛 12
津@@ 12
洲@@ 12
活儿干 12
活命 12
活来 12
活活 12
流亡 12
流浪生活 12
流过 12
浊@@ 12
浑身发抖 12
浓烈 12
浓烟 12
浪花 12
浴@@ 12
海南 12
海地 12
海外@@ 12
海滨 12
涉足 12
涵@@ 12
淘汰赛 12
深秋 12
混凝土 12
混用 12
清明 12
清水 12
清洁@@ 12
清秀 12
游牧民族 12
游行示威 12
溪@@ 12
溶化 12
溶液 12
滋生 12
滥 12
滴答 12
潜 12
潭 12
澄@@ 12
澳门 12
激怒 12
激素 12
濒临灭绝 12
灌输 12
火把 12
火燎 12
火红 12
灯亮了 12
灯笼 12
灰蒙蒙 12
灵性 12
灼@@ 12
点到 12
烛 12
烟灰缸 12
烧掉 12
烧毁 12
热恋 12
热气腾腾 12
热泪 12
热热 12
热腾腾 12
熏陶 12
爆满 12
爆裂 12
爱着 12
牛脾气 12
牵引 12
特惠 12
特检@@ 12
特殊@@ 12
犯了错 12
王冠 12
玩乐 12
现代史 12
现役 12
珍珠@@ 12
班次 12
理想@@ 12
瑕 12
瑟@@ 12
瓷 12
瓷@@ 12
甘心 12
甜丝丝 12
生下 12
生子 12
生日快乐 12
生根 12
用人 12
用光 12
田径@@ 12
由此可见 12
电信 12
电影吧 12
电影明星 12
疏散 12
疗效 12
疯牛病 12
痞@@ 12
瘪@@ 12
登山@@ 12
登机 12
皮球 12
皱巴巴 12
皱皱巴巴 12
盐分 12
监察@@ 12
盖儿 12
盗版 12
盛情 12
相当@@ 12
相接 12
相聚 12
看不下去 12
看着办 12
看破 12
看花 12
看透 12
眷@@ 12
眼力 12
眼影 12
眼科 12
眼角 12
眼部 12
着落 12
睁@@ 12
睡前 12
知情权 12
矫正 12
石窟 12
矿物 12
砍断 12
研 12
硬化 12
碗柜 12
磕碰 12
礼遇 12
社交@@ 12
社会保障 12
票价 12
票子 12
祸害 12
福利部 12
离奇 12
离子 12
离弦 12
私家车 12
私通 12
秋千 12
科举 12
科医生 12
稀里@@ 12
穗 12
空子 12
突然袭击 12
突破口 12
窗边 12
立志 12
竹林 12
竹竿 12
笑了起来 12
笨重 12
第三个 12
第二届 12
策 12
筛@@ 12
算命 12
簇 12
粗俗 12
粗略 12
粗野 12
粪@@ 12
精疲力尽 12
素养 12
紧急@@ 12
繁荣昌盛 12
红旗 12
红辣椒 12
纸巾 12
纺衫 12
细小 12
经不住 12
绝食 12
绳索 12
维修@@ 12
绿草 12
绿豆 12
缝纫 12
缰绳 12
罗马帝国 12
羊群 12
美术课 12
美美 12
翅 12
翻腾 12
翻车 12
老两口 12
老树 12
考得 12
考题 12
而生 12
而知 12
而立 12
耍滑 12
耽搁 12
聋@@ 12
联想起 12
肉片 12
肋骨 12
肌 12
肘 12
肝炎 12
肥皂水 12
肺炎 12
胆小 12
胆量 12
背道而驰 12
脚后跟 12
脱轨 12
腾腾 12
腿疼 12
膀@@ 12
膜炎 12
自主性 12
自习 12
自卫队 12
自已 12
自责 12
臭氧层 12
臭钱 12
至此 12
舅@@ 12
良机 12
色彩感 12
芭@@ 12
芳 12
若干@@ 12
英里 12
英镑 12
茶壶 12
草绿色 12
荐@@ 12
荒山 12
莱 12
莱@@ 12
获利 12
菜谱 12
萨 12
落脚 12
蒜@@ 12
蔡@@ 12
蕴@@ 12
薄片 12
薪金 12
薯 12
虚幻 12
虚拟@@ 12
虞 12
蚁 12
蚕食 12
蜜月 12
蜷@@ 12
行踪 12
衡@@ 12
袖口 12
裁军 12
裁决 12
裁减 12
装得 12
襁褓 12
西洋@@ 12
西餐 12
要不得 12
解决办法 12
解放后 12
言之@@ 12
言谈举止 12
誓 12
警钟 12
计划@@ 12
训话 12
议论纷纷 12
记忆犹新 12
许可证 12
论断 12
讼 12
证券@@ 12
评分 12
诊疗 12
诋毁 12
试一下 12
试问 12
诗中 12
诞@@ 12
诡计 12
该地 12
该是 12
详 12
说个 12
说句 12
说得好 12
诵 12
请帖 12
诸侯 12
谁家 12
调研 12
谱写 12
豹 12
负有 12
财界 12
责任人 12
贤明 12
败仗 12
货运 12
质问 12
贫富 12
购物@@ 12
购物袋 12
贿 12
贿@@ 12
资产阶级 12
赐@@ 12
赛过 12
赞叹不已 12
赞誉 12
赵某 12
赶出 12
赶着 12
越来越少 12
路子 12
跳板 12
跳水 12
车门 12
转来转去 12
转账 12
轻薄 12
辛 12
辛酸 12
辨是非 12
边界 12
过低 12
过半数 12
过敏反应 12
过早 12
过渡@@ 12
迈向 12
运费 12
近年 12
这么点儿 12
这匹 12
这头 12
这袋 12
这辈子 12
这顶 12
进退两难 12
远古 12
连冠 12
追寻 12
追尾 12
适应能力 12
适用@@ 12
逃到 12
选购 12
透顶 12
通畅 12
道士 12
遮掩 12
那台 12
那头 12
那栋 12
那颗 12
邦@@ 12
邮政 12
邻村 12
郭 12
酒家 12
酱缸 12
醉得 12
里长 12
重叠 12
重工业 12
重振 12
重点@@ 12
重男轻女 12
金石 12
针扎 12
钦@@ 12
钱币 12
钱来 12
铁道 12
铁锹 12
铃响 12
铅 12
银子 12
银牌 12
链子 12
锈 12
锋@@ 12
错话 12
锤@@ 12
锻@@ 12
长款 12
长毛 12
长途@@ 12
长长地 12
长队 12
门窗 12
闭口 12
闭门@@ 12
闹肚子 12
闹钟 12
闺女 12
防火 12
阿拉伯@@ 12
附着 12
陛下 12
陡 12
陷进 12
隅 12
随地 12
随机应变 12
随风飘 12
隔开 12
难以预料 12
难分@@ 12
雁 12
集中力 12
雇主 12
雏@@ 12
雨雪 12
雪球 12
雷达 12
霞 12
静谧 12
非常复杂 12
革命@@ 12
韭菜 12
音色 12
音节 12
顶端 12
顺其自然 12
颁奖仪式 12
领事 12
领导@@ 12
颇丰 12
颈@@ 12
颓废 12
风向 12
风情 12
风靡 12
飙@@ 12
飞去 12
飞涨 12
食指 12
饰物 12
首场 12
馨香 12
马戏团 12
马来西亚 12
驱散 12
驶入 12
骄傲@@ 12
骨干 12
骨碌碌 12
高举 12
高低不平 12
高傲 12
高分 12
高效 12
高等@@ 12
魏@@ 12
鲜明对比 12
鲫鱼 12
鸡毛蒜皮 12
鸡皮疙瘩 12
麦田 12
黄花鱼 12
黝黑 12
黯淡 12
齿轮 12
199@@ 11
39 11
6000 11
67 11
76 11
81 11
M 11
it 11
w@@ 11
y@@ 11
一个劲地 11
一事无成 11
一伸 11
一具 11
一刀 11
一刹那 11
一大笔 11
一宿 11
一年到头 11
一扇 11
一无所有 11
一晃 11
一晚 11
一本@@ 11
一束 11
一条龙 11
一眨一 11
一碰 11
一窝 11
一致同意 11
一见@@ 11
一言@@ 11
一辈 11
一边倒 11
一连串 11
一针 11
一针@@ 11
一问 11
丁零 11
七十年代 11
七天 11
万古@@ 11
万台 11
万里无云 11
丈@@ 11
三代 11
三四个 11
三楼 11
三百 11
三餐 11
上上下下 11
上盖 11
上船 11
上边 11
上钩 11
下凡 11
下功夫 11
下坡 11
下头 11
下学期 11
下海 11
下脚 11
下酒 11
不作@@ 11
不作美 11
不俗 11
不值 11
不出@@ 11
不分青红皂白 11
不坏 11
不对头 11
不断扩大 11
不断涌现 11
不明朗 11
不测 11
不灵 11
不爽 11
不由@@ 11
不看 11
不睬 11
不知天高地厚 11
不稳 11
不自@@ 11
不舍 11
不计其数 11
不论@@ 11
丘 11
业内人士 11
东南 11
两三个 11
两处 11
两本书 11
两枚 11
两辆车 11
严加 11
严实 11
严格控制 11
个人隐私 11
个头儿 11
个州 11
中东地区 11
中坚 11
串门 11
临时政府 11
为例 11
主席台 11
主食 11
举出 11
举行@@ 11
举重 11
义务教育 11
义卖会 11
之分 11
之机 11
之词 11
乍一看 11
乖巧 11
九十 11
九十年代 11
九岁 11
习性 11
乡镇 11
书画 11
书稿 11
买车 11
买进 11
乱跑 11
争得 11
二乎 11
二十一 11
二十多年 11
五万 11
五千@@ 11
交响乐团 11
交稿 11
交通拥堵 11
产权 11
亮片 11
亲吻 11
亲密无间 11
亲日派 11
人伦 11
人情@@ 11
人行横道 11
人身 11
今夏 11
从古至今 11
仙女 11
代表作 11
代言 11
令人担心 11
价值连城 11
份子 11
伊始 11
休会 11
优待 11
优越性 11
会员@@ 11
会来 11
会餐 11
传媒 11
伤心@@ 11
伤心事 11
伤心地 11
估摸 11
估算 11
伴着 11
低层 11
低调 11
体育明星 11
体育界 11
体能 11
作对 11
作料 11
佳绩 11
使用暴力 11
例句 11
供货 11
依法@@ 11
侵吞 11
保护主义 11
保有 11
信访 11
倏@@ 11
倒挂 11
倒胃口 11
倔 11
倡议 11
假惺惺 11
做官 11
停放 11
停课 11
健康成长 11
催泪弹 11
僧@@ 11
儒 11
兄@@ 11
兆@@ 11
先发 11
先行 11
光彩@@ 11
免税 11
兑@@ 11
全体会议 11
全党 11
全国性 11
全心全意 11
全罗道 11
全队 11
公推 11
公示 11
六点钟 11
关乎 11
关系密切 11
兴盛 11
兴致 11
养分 11
养殖业 11
内定 11
内疚 11
再作 11
再谈 11
冒出 11
冒出来 11
冕 11
军事机密 11
冬夜 11
冰冻 11
冰凉 11
冰山 11
冶@@ 11
冷冷地 11
准备@@ 11
凌晨时分 11
凑合 11
凝神 11
几处 11
凤 11
凤凰 11
凳 11
凶残 11
出头@@ 11
出神 11
刀切 11
刁@@ 11
刑法 11
划船 11
刚学 11
刚要 11
刚进 11
创造力 11
初学者 11
初秋 11
利亚 11
别名 11
别吵 11
制铁 11
刹那间 11
刻苦钻研 11
前不久 11
前台 11
前嫌 11
前所@@ 11
剥落 11
剩余@@ 11
副校长 11
功过 11
加把劲 11
动弹不得 11
动画 11
动笔 11
动词 11
劳动组合 11
勒紧 11
勤劳@@ 11
勤奋学习 11
包儿 11
匆匆忙忙 11
化为 11
化妆@@ 11
北京大学 11
北极@@ 11
北边 11
区内 11
医治 11
十五岁 11
千篇一律 11
升入 11
升腾 11
午休 11
半边 11
卑劣 11
占用 11
卧病在床 11
印刷@@ 11
危险性 11
即刻 11
却没能 11
卵@@ 11
原则性 11
原原本本 11
原始@@ 11
厨房@@ 11
县城 11
叉@@ 11
及早 11
友爱 11
双打 11
反转 11
发冷 11
发射@@ 11
发挥@@ 11
发源地 11
发白 11
发行@@ 11
发麻 11
叔@@ 11
变化无常 11
变异 11
变硬 11
变红 11
变绿 11
叛乱 11
口碑 11
口腔 11
古今 11
古玩 11
叨 11
叨叨 11
只怕 11
只能靠 11
只靠 11
叮当 11
可望 11
可着 11
可说是 11
可贵 11
号令 11
司仪 11
司法机关 11
司马@@ 11
吃些 11
吃喝玩乐 11
吃水 11
各个领域 11
各异 11
各有@@ 11
同学聚会 11
同龄 11
名利 11
名门 11
后台 11
后悔@@ 11
后路 11
后边 11
听不清 11
听闻 11
吵吵嚷嚷 11
吵嚷 11
吸烟者 11
吹来 11
吾@@ 11
呈上升 11
告辞 11
呐@@ 11
呕@@ 11
呛@@ 11
呼叫 11
呼啦 11
咂嘴 11
咎 11
咒@@ 11
咔 11
咖啡店 11
咧咧 11
咸菜 11
哆哆嗦嗦 11
哑巴@@ 11
哨@@ 11
哺乳动物 11
哽@@ 11
唤@@ 11
唧@@ 11
唯恐 11
啥事 11
啪啦 11
啸 11
喂给 11
善终 11
喇 11
喉咙 11
嗖嗖 11
嘈@@ 11
嘟嘟 11
嘻嘻 11
噙 11
器具 11
嚓 11
嚓嚓 11
四次 11
四肢@@ 11
回味无穷 11
回心转意 11
园区 11
园艺 11
困乏 11
困难户 11
固定资产 11
固执己见 11
国家主权 11
国有 11
国歌 11
国际性 11
国际足联 11
圆点 11
土气 11
土特产 11
土质 11
在历史上 11
在实践中 11
在所@@ 11
在政治上 11
在校 11
在读 11
圭 11
地儿 11
地写 11
地处 11
地擦 11
地球村 11
地理位置 11
坐立不安 11
坐船 11
坚韧 11
坠入 11
垂头丧气 11
垂钓 11
壁垒 11
壮士 11
处世 11
外国@@ 11
外带 11
外敌 11
外流 11
外资 11
多位 11
多发 11
大丈夫 11
大不相同 11
大丰收 11
大为@@ 11
大义 11
大发 11
大奖赛 11
大好@@ 11
大宗 11
大寿 11
大将 11
大气层 11
大河 11
大洲 11
大浪 11
大跌 11
大雁 11
大马 11
天价 11
天儿 11
天安门 11
天线 11
太瘦 11
太空船 11
太紧张 11
失分 11
失灵 11
失色 11
失调 11
失败者 11
夷 11
奋 11
奋发@@ 11
契@@ 11
奔忙 11
奔放 11
套书 11
奠@@ 11
奥巴马 11
奥斯@@ 11
女权@@ 11
奴婢 11
奸臣 11
好几层 11
好手 11
如山 11
如蒙 11
始祖 11
始终保持 11
姐夫 11
娇气 11
娘儿们 11
婆媳 11
婴@@ 11
嬉@@ 11
嬉戏 11
字儿 11
字型 11
孝心 11
季节性 11
孤寂 11
孤身一人 11
孤零零 11
学习外语 11
孩子气 11
孵化 11
守法 11
守约 11
完人 11
官兵们 11
定员 11
宝贵@@ 11
实例 11
实力雄厚 11
实属 11
实录 11
实用@@ 11
宠爱 11
审判员 11
家后 11
家常 11
家破人亡 11
宽心 11
寂@@ 11
富强 11
寒冬 11
寝 11
对光 11
对岸 11
寻访 11
封建时代 11
封建迷信 11
将帅 11
小妹妹 11
小巧 11
小明 11
小豆 11
小鱼 11
少时 11
尝一尝 11
就业@@ 11
就餐 11
尹 11
尽量少 11
局部 11
履历 11
屹立 11
岩壁 11
岭@@ 11
崩塌 11
巡逻@@ 11
工期 11
巨大贡献 11
巨星 11
布景 11
干些 11
干劲 11
干洗 11
干燥@@ 11
平方@@ 11
平板 11
平淡 11
年少 11
年累月 11
年青 11
年龄层 11
并不一定 11
并重 11
幸福@@ 11
幼 11
幽灵 11
幽默感 11
广播公司 11
庇护 11
应征 11
应由 11
底子 11
底线 11
庵 11
庶民 11
开裂 11
开赛 11
开进 11
异地 11
弄懂 11
弊@@ 11
引人入胜 11
弦@@ 11
弯子 11
弹药 11
强制@@ 11
强奸 11
归功于 11
归队 11
当家@@ 11
录制 11
彻底清除 11
征得 11
征服者 11
很感兴趣 11
很旺 11
很脏 11
很辣 11
得其@@ 11
得当 11
得救 11
心口 11
心得 11
心机 11
心胸狭窄 11
心软 11
忏悔 11
忒 11
忖 11
忙乱 11
忠清 11
快攻 11
快节奏 11
快递费 11
念叨 11
忿@@ 11
怒视 11
急性子 11
性欲 11
性骚扰 11
怪异 11
怪谈 11
总攻 11
总管 11
恐怖@@ 11
恕 11
恣@@ 11
恶劣影响 11
恶性循环 11
悦 11
悲观@@ 11
悼念 11
情深@@ 11
惨不忍睹 11
惨状 11
想干什么 11
意志坚强 11
感冒药 11
感到疲倦 11
感慨 11
慈善@@ 11
慌慌张张 11
慎重处理 11
慢慢@@ 11
慢慢儿 11
慰藉 11
慷慨 11
戏曲 11
成堆 11
成片 11
成群结队 11
我学 11
我本 11
我省 11
截稿 11
所剩无几 11
所在地 11
所幸 11
手儿 11
手巧 11
手榴弹 11
才智 11
扑噜 11
扑棱 11
打探 11
打气 11
打消 11
打滚 11
打盹 11
打盹儿 11
打车 11
打铁 11
打鼓 11
扛@@ 11
扫墓 11
扫荡 11
扭转@@ 11
批评@@ 11
承包@@ 11
抄写 11
把布 11
抒情@@ 11
投票率 11
投票表决 11
抖动 11
抚 11
抛出 11
抢劫案 11
报名者 11
抬高 11
拃 11
担当 11
拆卸 11
拍手 11
拒付 11
拟人化 11
拨打 11
拱 11
拿给 11
挂钟 11
指挥部 11
按着 11
挤得 11
挪用 11
挫@@ 11
挺起 11
挼 11
换取 11
换掉 11
换算 11
据点 11
据统计 11
捶@@ 11
掀翻 11
掌管 11
排长 11
接手 11
接电话 11
推理小说 11
推脱 11
措辞 11
提早 11
插座 11
揣@@ 11
援军 11
搁置 11
搏 11
搜救 11
搬动 11
搭理 11
摆设 11
摇滚乐 11
摇篮 11
摘下来 11
摸不着头脑 11
撇嘴 11
撒手@@ 11
撰@@ 11
支撑@@ 11
支部 11
收听 11
收复 11
改不了 11
攻下 11
放眼望去 11
放进去 11
敏感@@ 11
救活 11
教官 11
散架 11
数值 11
整形 11
整晚 11
文档 11
文艺创作 11
文风 11
斋 11
新婚旅行 11
新学说 11
新房子 11
新生@@ 11
旁听 11
旅游胜地 11
旗号 11
旗杆 11
无公害 11
无原则 11
无可 11
无形中 11
既定 11
日光浴 11
日复一日 11
日照 11
旧时代 11
时值 11
时应 11
时用 11
明暗 11
映入眼帘 11
显现出 11
晃荡 11
晒太阳 11
晦 11
晨练 11
普通百姓 11
景气停滞 11
晶莹 11
晾晒 11
晾衣绳 11
暑 11
暖烘烘 11
暧昧 11
曙光 11
曲曲@@ 11
更为重要 11
更深 11
更迭 11
最出色 11
最深 11
有功 11
有多@@ 11
有家 11
有生@@ 11
服从命令 11
服装店 11
朔@@ 11
朝向 11
朝阳 11
期盼 11
木料 11
木炭 11
未能@@ 11
未遂 11
本学期 11
本职工作 11
术语 11
机动@@ 11
机型 11
朽 11
杀人案 11
杂乱无章 11
杂交 11
杂音 11
杏仁 11
来历 11
来来@@ 11
来电 11
松鼠 11
果冻 11
果酱 11
枝头 11
枣@@ 11
架设 11
染色体 11
柔弱 11
标点 11
栈 11
校园@@ 11
核实 11
桃 11
档@@ 11
梭 11
棋盘 11
棍@@ 11
棒子 11
棘手 11
森严 11
植树节 11
椭圆 11
楼盘 11
榜首 11
榨 11
模糊@@ 11
模范@@ 11
横行霸道 11
樱@@ 11
樵夫 11
橡树 11
橱 11
次官 11
欧洲人 11
欺 11
歉@@ 11
正中 11
正义@@ 11
正视 11
此书 11
歪风 11
殃 11
每周五 11
每每 11
毕@@ 11
民事@@ 11
民兵 11
民族主义 11
民浩和俊基 11
民营 11
民间@@ 11
气话 11
水声 11
水平线 11
水槽 11
水深 11
江华 11
汪@@ 11
沙哑 11
沙龙 11
没得 11
没空 11
没过 11
没钱 11
没面子 11
沥 11
河堤 11
油光 11
油菜花 11
沾染 11
沿海地区 11
泡沫塑料 11
泪下 11
洗漱 11
洞窟 11
洪亮 11
活在 11
活路 11
流行性 11
浊 11
浪漫爱情 11
浸泡 11
涂层 11
涎@@ 11
涣散 11
润泽 11
淘米 11
淡化 11
深海 11
深渊 11
深蓝色 11
清净 11
清晰可见 11
渊 11
渔业 11
渔网 11
渡河 11
渡船 11
温热 11
游泳场 11
湍急 11
湿气 11
湿润 11
溜儿 11
滋 11
滋滋 11
滋长 11
滑落 11
满屋 11
满满地 11
演奏家 11
演讲会 11
潘@@ 11
澳洲 11
激化 11
火来 11
灰烬 11
灵气 11
灾情 11
炒作 11
炭@@ 11
点亮 11
点烟 11
烂泥 11
烂熟 11
烦心事 11
烧开 11
烧烤 11
热切 11
热敷 11
热线 11
焊@@ 11
焯 11
煤气@@ 11
煦 11
照相馆 11
熊熊 11
熔化 11
熬过 11
爆炸声 11
爱戴 11
爱过 11
牌号 11
牛仔@@ 11
牡蛎 11
牢记 11
牢骚 11
物价@@ 11
物色 11
特价 11
特地 11
特种@@ 11
犯罪现场 11
状@@ 11
犹太人 11
狡@@ 11
独享 11
独岛 11
狭 11
狼狈 11
猛击 11
猛涨 11
猜到 11
猴儿 11
猿@@ 11
王道 11
玩火 11
环顾 11
现代文明 11
现代汉语 11
理事长 11
瓦房 11
生出 11
生肖 11
用做 11
用意 11
甭 11
田埂 11
电脑前 11
画上 11
画册 11
留心 11
留情 11
疑虑 11
病症 11
登门 11
登顶 11
白头发 11
白宫 11
白日 11
白费@@ 11
百姓@@ 11
百科全书 11
皑皑 11
盏 11
监听 11
监督@@ 11
监考 11
目不转睛 11
直至 11
直跳 11
相互之间 11
相交 11
相左 11
看得@@ 11
看得见 11
看戏 11
真情 11
真愁 11
真空 11
真话 11
眩 11
眼界 11
眼皮子 11
眼窝 11
睫毛膏 11
知名人士 11
石油资源 11
矿山 11
砍柴 11
破案 11
破洞 11
硫@@ 11
硬梆梆 11
确诊 11
碧 11
磁铁 11
示威者 11
社会制度 11
社会科学 11
社会风气 11
社稷 11
神圣不可 11
神秘@@ 11
票据 11
祭品 11
离合 11
离得 11
禽 11
私下 11
私房钱 11
租房子 11
秧苗 11
移居 11
稀薄 11
程序@@ 11
穆 11
空想 11
空气@@ 11
空气清新 11
空洞 11
窖 11
立功 11
立意 11
立着 11
竞争者 11
竟敢 11
章节 11
童子 11
竭@@ 11
笑意 11
笑脸 11
笛声 11
笨拙 11
第一年 11
第一部 11
第三次 11
第二位 11
等国 11
答卷 11
答谢 11
筛 11
简称 11
简要 11
算得 11
篱 11
米粒 11
米黄色 11
粉笔 11
粗笨 11
粗话 11
精于 11
精彩表演 11
精简 11
糠@@ 11
紧张@@ 11
紧接着 11
累坏 11
繁琐 11
红烧 11
红着脸 11
红花 11
红茶 11
纱@@ 11
纳税人 11
纷@@ 11
纸上 11
纹理 11
纽带 11
纽约时报 11
练就 11
细长 11
终身@@ 11
经济体制 11
经济社会 11
经济衰退 11
经济部 11
经由 11
经营方式 11
绑匪 11
绒@@ 11
结婚@@ 11
结核 11
结满 11
绘 11
绝佳 11
绝境 11
绝好 11
统治阶级 11
维系 11
绽 11
绿荫 11
编剧 11
缜密 11
缝儿 11
缺氧 11
罕@@ 11
罗列 11
罢 11
罢休 11
罪人 11
置备 11
美容院 11
美式 11
美感 11
美日 11
羞辱 11
羡@@ 11
翘起来 11
老头儿 11
老师傅 11
老爷子 11
老鼠洞 11
考研 11
考试题 11
而战 11
耍嘴皮子 11
耙子 11
联合声明 11
联系@@ 11
联谊会 11
肃 11
肖像画 11
肤@@ 11
肩带 11
肾@@ 11
胃病 11
胆固醇 11
背离 11
胡说八道 11
脆脆 11
脏东西 11
脑中风 11
脖儿 11
脚踝 11
脱节 11
脸型 11
脸色苍白 11
腰板 11
腺 11
腾出 11
膝下 11
臂膀 11
自助@@ 11
自居 11
自来水管 11
自然资源 11
舞台@@ 11
舞姿 11
航母 11
色彩@@ 11
色情 11
色泽 11
节车厢 11
芒@@ 11
花招 11
花木 11
花甲 11
花盆里 11
花花@@ 11
花花绿绿 11
苍苍 11
英美 11
茸 11
草屋 11
草皮 11
草药 11
荒地 11
荡秋千 11
药用 11
莎 11
莎士比亚 11
获救 11
菌@@ 11
菜里 11
营业时间 11
落幕 11
落户 11
落泪 11
落网 11
蒙蔽 11
蔽@@ 11
虹@@ 11
蚕 11
蛤蜊 11
蛹 11
蜷 11
蟑螂 11
蠢事 11
行动@@ 11
衣食 11
表演@@ 11
表示祝贺 11
表达@@ 11
衰败 11
被忽视 11
裁剪 11
裁缝 11
装上 11
装扮成 11
装潢 11
裤脚 11
裱糊 11
裴@@ 11
褒@@ 11
视听 11
解放@@ 11
言之 11
警署 11
计算@@ 11
订婚 11
讥@@ 11
讨饭 11
记着 11
讲完 11
论调 11
讽 11
访问@@ 11
评定 11
诉苦 11
译本 11
试试看 11
诞 11
诠释 11
该剧 11
该市 11
误事 11
诱导 11
说大话 11
说成 11
说正经 11
诺贝尔@@ 11
诺贝尔奖 11
读着 11
课上 11
调解@@ 11
谈吐 11
谈得 11
谈起 11
谋取 11
谨 11
谩骂 11
谱@@ 11
谷子 11
豆腐汤 11
豹@@ 11
贝多芬 11
财产损失 11
财政部 11
账号 11
贪污@@ 11
贫苦 11
贫血 11
购物券 11
购票 11
贮@@ 11
贯通 11
贵重物品 11
赃@@ 11
赎 11
赏识 11
赤裸裸 11
赤道 11
走私犯 11
走红 11
赶回 11
赶得上 11
起死回生 11
起皱 11
起航 11
起色 11
起跑线 11
趋 11
跋@@ 11
距@@ 11
跨国 11
路费 11
踅 11
踢进 11
蹈 11
蹑@@ 11
蹲下 11
躁@@ 11
身亡 11
车身 11
车速 11
转业 11
转入 11
转型 11
转折点 11
转眼间 11
轰击 11
轻声 11
轻浮 11
辈子 11
辞典 11
辣乎乎 11
辨别 11
迂回 11
过关 11
过半 11
过夜 11
过桥 11
运动量 11
近郊 11
这像 11
这群 11
这节 11
这茶 11
这车 11
进站 11
进食 11
连接起来 11
连绵 11
连话都 11
连长 11
迭 11
迷们 11
退休年龄 11
退还 11
适 11
适中 11
逃生 11
逆差 11
选址 11
选好 11
透彻 11
通告 11
逢年过节 11
逮@@ 11
逼迫 11
逾@@ 11
遁@@ 11
遍地 11
道具 11
遗书 11
遥 11
遮 11
避难所 11
那家店 11
那间 11
邻近 11
酒味 11
酒窝 11
酒鬼 11
酸奶 11
里里外外 11
重型 11
重病 11
金戒指 11
金星 11
金矿 11
金融市场 11
鉴于 11
钝@@ 11
钢筋 11
钥匙@@ 11
铁轨 11
销路 11
锁上 11
锣@@ 11
长工 11
闪闪发亮 11
问道 11
闯进来 11
闲谈 11
闹矛盾 11
闻名@@ 11
阁@@ 11
阅历 11
防护 11
阳光@@ 11
阶 11
阿根廷 11
阿里郎 11
陆 11
限期 11
限量 11
除名 11
陨@@ 11
随行 11
随风飘扬 11
隐居 11
隔断 11
难为情 11
难事 11
难耐 11
雄壮 11
集权 11
集邮 11
雇工 11
雕像 11
雪山 11
零零@@ 11
需求量 11
震得 11
露馅儿 11
青山 11
静静的 11
非人 11
革命性 11
鞍 11
鞘 11
韩医 11
音乐声 11
音调 11
韵味 11
顺利完成 11
顺应 11
预售 11
颠簸 11
风势 11
风景秀丽 11
风机 11
风雨@@ 11
风雪 11
飞逝 11
食谱 11
饺 11
馆子 11
首选 11
驻外 11
骑手 11
骨架 11
高中同学 11
高产 11
高年级 11
高矮 11
高端 11
高音 11
鲜鱼 11
鸽 11
鹅@@ 11
麻婆豆腐 11
黄帝 11
黄沙 11
黎@@ 11
黏糊 11
黑压压 11
黑子 11
龟@@ 11
2020 10
240 10
2500 10
350 10
41 10
79 10
8.@@ 10
87 10
DVD 10
F 10
NBA 10
V@@ 10
X 10
ic@@ 10
v 10
x 10
℃ 10
一任 10
一刻@@ 10
一半@@ 10
一团糟 10
一尘不染 10
一屁股债 10
一成不变 10
一捆 10
一斗 10
一早 10
一楼 10
一点@@ 10
一盆 10
一盏 10
一端 10
一首歌 10
一鼻子灰 10
万分@@ 10
万千 10
三万元 10
三三两两 10
三号 10
三峡@@ 10
上会 10
上市公司 10
上当受骗 10
上架 10
上海@@ 10
上端 10
上策 10
上级@@ 10
上起 10
上限 10
下一场 10
下坡路 10
下文 10
下流 10
下着雨 10
不为@@ 10
不乏 10
不买 10
不了了之 10
不以为@@ 10
不倦 10
不像样 10
不冷不热 10
不含糊 10
不听使唤 10
不响 10
不失为 10
不好办 10
不幸遭遇 10
不忘 10
不放 10
不料 10
不期@@ 10
不正经 10
不法分子 10
不漏 10
不由自主 10
不管三七二十一 10
不管不顾 10
不良影响 10
不见得 10
不败 10
不锈钢 10
不靠 10
不香 10
与共 10
与生俱来 10
专利@@ 10
专制 10
专心致志 10
专科 10
世代相传 10
世界排名 10
业余@@ 10
业已 10
东学 10
东欧 10
东江 10
东风 10
丢脸 10
两三@@ 10
两下子 10
两国@@ 10
两场 10
两百@@ 10
两碗饭 10
两篇 10
两脚 10
严守 10
严明 10
严重@@ 10
严防 10
丧命 10
中指 10
丰 10
串通 10
丸@@ 10
为人@@ 10
为人知 10
为所欲为 10
主场 10
主帅 10
举世@@ 10
久别重逢 10
久而久之 10
义务@@ 10
之事 10
之于 10
之大 10
之梦 10
之言 10
乘凉 10
乘火车 10
习气 10
乡亲们 10
买不到 10
买不起 10
买单 10
乱世 10
乱成 10
乱打 10
乱画 10
乱糟糟 10
了钱 10
争分夺秒 10
事关 10
事已至此 10
事无@@ 10
事端 10
二年 10
二级 10
于心 10
亏了 10
云雾 10
互动 10
五人 10
五六@@ 10
五分 10
五千元 10
五百@@ 10
五谷@@ 10
亚特兰@@ 10
交学费 10
交通费 10
产业结构 10
亨@@ 10
亲情 10
亲朋好友 10
亲眼看到 10
人一 10
人人平等 10
人前 10
人因 10
人头攒动 10
人民军 10
人物形象 10
人身安全 10
仇人 10
仇恨 10
介绍所 10
从头 10
从家 10
从宽 10
仕途 10
他常@@ 10
他开 10
代言人 10
令人遗憾 10
以人为本 10
任人@@ 10
份额 10
众说纷纭 10
优秀学生 10
优质@@ 10
伙伴关系 10
会合 10
伞@@ 10
伤病 10
伯父 10
估 10
伴儿 10
伴有 10
伸得 10
伸直 10
伸长 10
佃户 10
位数 10
住在一起 10
住址 10
住所 10
住进 10
体操@@ 10
体能训练 10
何在 10
佣金 10
佳节 10
使臣 10
使节 10
供应@@ 10
侦察@@ 10
侯@@ 10
侵占 10
便当 10
保不住 10
保守势力 10
保持清洁 10
保障@@ 10
信函 10
信口@@ 10
信心十足 10
信服 10
信条 10
信用证 10
修订版 10
修身 10
倒立 10
借此 10
借鉴 10
值得称赞 10
倾盆 10
假象 10
假面 10
偏好 10
做作 10
做好事 10
停着 10
停靠在 10
健身运动 10
偷吃 10
催债 10
僵尸 10
儒生 10
允@@ 10
先天 10
先头部队 10
先说 10
光明正大 10
光照 10
免于 10
免受 10
免疫系统 10
兑现 10
入内 10
入室 10
入微 10
入球 10
全班同学 10
全盘 10
全能 10
全貌 10
全集 10
八百@@ 10
八面@@ 10
公交@@ 10
公团 10
公安 10
公民@@ 10
公馆 10
共事 10
兴建 10
典故 10
兹@@ 10
养猪 10
内裤 10
内里 10
写实@@ 10
军事基地 10
军事政变 10
军营 10
农民@@ 10
冰水 10
冲入 10
冲毁 10
冷气 10
冷笑 10
准确无误 10
凌 10
凌乱 10
凛@@ 10
几何@@ 10
几多 10
几度 10
凸@@ 10
凸现 10
出品 10
出声 10
出生年月 10
出笼 10
分之@@ 10
分家 10
分校 10
切切 10
切开 10
划算 10
划线 10
创制 10
初一 10
利害得失 10
别为 10
别光 10
别干 10
到此为止 10
刺伤 10
刺啦 10
剃 10
前例 10
前头 10
前排 10
前沿 10
前端 10
前身 10
剧情 10
剪掉 10
副经理 10
力学 10
务部 10
劫匪 10
劳役 10
勃勃 10
勒令 10
勤俭节约 10
包庇 10
北美 10
区别对待 10
医学界 10
十一 10
十万@@ 10
十二个 10
十余@@ 10
十几个 10
十四@@ 10
千古 10
升格 10
半径 10
半晌 10
半月 10
华侨 10
南海岸 10
卜@@ 10
卤@@ 10
危难 10
卷发 10
卸下 10
厂商 10
厄@@ 10
历史悠久 10
历尽 10
厚实 10
原形 10
参加考试 10
参拜 10
参赛选手 10
及第 10
友人 10
反光 10
反潜 10
反胃 10
反革命 10
发出声音 10
发困 10
发夹 10
发威 10
发展潜力 10
发性 10
发掘出 10
发烫 10
发黄 10
叔父 10
取而代之 10
受训 10
变小 10
变软 10
叙利亚 10
叛逆 10
口传 10
口吃 10
古典小说 10
古画 10
另一方 10
只手 10
只求 10
叮 10
可不可以 10
可否 10
可好 10
台球 10
号线 10
吃水果 10
吃素 10
各政党 10
各行@@ 10
合不来 10
合唱团 10
合法@@ 10
合金 10
吊销 10
同窗 10
名山 10
名言 10
后半期 10
后过 10
吐出 10
吓坏 10
吞没 10
吧唧 10
含着 10
吭声 10
启 10
吵吵 10
吸入 10
吹倒 10
吹灯 10
呆滞 10
呛 10
周全 10
咏 10
咔@@ 10
咖@@ 10
咣 10
咦 10
咯噔 10
哇哇 10
哈欠 10
哐啷 10
哗啦 10
哧@@ 10
哨声 10
哽咽 10
商行 10
啤酒@@ 10
啾 10
善恶 10
喇叭@@ 10
喜讯 10
喝醉酒 10
喵 10
嗓子@@ 10
嗜@@ 10
嗳 10
嘘@@ 10
嘭 10
嘲弄 10
噎@@ 10
噢 10
器官移植 10
器械 10
嚣 10
嚣@@ 10
四分之一 10
四字 10
四角 10
回娘家 10
回绝 10
回荡 10
回过头来 10
因于 10
因在 10
因有 10
因果 10
园丁 10
国宝级 10
国营 10
圃 10
圆满完成 10
土壤@@ 10
土耳其 10
在手 10
地下资源 10
地堆 10
地缘 10
地质@@ 10
地问 10
坐席 10
坐车 10
坚定不移 10
坦率 10
坷@@ 10
垂柳 10
垮@@ 10
埋进 10
城南 10
基点 10
基督教徒 10
塑料大棚 10
填充 10
墒 10
墓碑 10
增至 10
墨镜 10
墩墩 10
壁炉 10
处长 10
备齐 10
复习功课 10
复印机 10
复合 10
夏夜 10
外国游客 10
外婆家 10
外皮 10
外调 10
多一些 10
多天 10
多媒体 10
多情 10
多才多艺 10
多病 10
多读 10
夜校 10
大乱 10
大人物 10
大众@@ 10
大伤脑筋 10
大号 10
大吃@@ 10
大同@@ 10
大学校园 10
大户 10
大牌 10
大笔 10
大而 10
大肚子 10
大虾 10
大街小巷 10
大败 10
天公@@ 10
天时 10
天桥 10
天棚 10
天花 10
太低 10
太弱 10
太浅 10
太硬 10
太苦 10
太饱 10
太黑 10
夫妻@@ 10
失去知觉 10
失常 10
失衡 10
头去 10
头条 10
头目 10
夹杂着 10
夹缝 10
奄@@ 10
奉献给 10
奋力拼搏 10
女方 10
她俩 10
好哇 10
好意思 10
好时光 10
好过 10
如初 10
妄图 10
妍 10
妙计 10
姊@@ 10
始终如一 10
姓张 10
字号 10
字样 10
存取款 10
存在主义 10
学士学位 10
学生证 10
它会 10
安家 10
定时 10
定理 10
定稿 10
定额 10
宝贝@@ 10
实话实说 10
审计 10
审讯 10
宣 10
宣读 10
宪 10
宪政 10
害死 10
害虫 10
家居 10
寄予 10
富余 10
寒舍 10
寓 10
寓意 10
寓言故事 10
寥 10
寨@@ 10
导向 10
小块 10
小型@@ 10
小小 10
小毛 10
小病 10
小看 10
小组@@ 10
小道 10
小鬼 10
小鹿 10
少有 10
尘世 10
尚存 10
尝过 10
就职仪式 10
尿布 10
局限于 10
居住@@ 10
居高不下 10
屏@@ 10
展望未来 10
山寺 10
山岳 10
山村里 10
山脚下 10
岁月@@ 10
岳 10
崭露头角 10
巡回赛 10
工学 10
左右@@ 10
巨响 10
巫师 10
巴结 10
布什 10
布娃娃 10
布袜 10
布谷鸟 10
师兄 10
师范@@ 10
带入 10
常事 10
常会 10
常客 10
干的事 10
平均化 10
平安无事 10
平平@@ 10
平白 10
年长 10
并排 10
幼儿@@ 10
幼年 10
幼苗 10
广为流传 10
广告公司 10
广泛应用 10
庆典活动 10
庆幸 10
庆贺 10
应聘者 10
底裤 10
废止 10
延世大学 10
建有 10
建筑材料 10
建设工程 10
开个 10
开天@@ 10
开心@@ 10
开播 10
开端 10
弄碎 10
弛@@ 10
张口 10
张贴 10
弯弯@@ 10
弯抹角 10
弱势 10
强占 10
强烈@@ 10
当下 10
当铺 10
形体 10
彩电 10
彩礼 10
彪@@ 10
彬彬有礼 10
彰 10
彼得 10
往西 10
很多年 10
很盛 10
很能 10
徒步 10
得意洋洋 10
得手 10
得逞 10
御 10
德寿宫 10
徽 10
心声 10
心如刀割 10
心惊@@ 10
心来 10
心潮@@ 10
心灰意@@ 10
心理准备 10
心里@@ 10
心领神会 10
必需品 10
快车 10
怀揣 10
怒放 10
怠 10
怠慢 10
怦@@ 10
恐怖活动 10
恒 10
恩怨 10
恭敬@@ 10
恶人 10
恶感 10
恻@@ 10
悔改 10
悟出 10
悦@@ 10
悬而未决 10
情操 10
惟妙惟肖 10
惨叫 10
惨痛 10
惯用 10
惰性 10
想必 10
惶 10
惹人@@ 10
意料不到 10
感受@@ 10
愤慨 10
愧疚 10
慈善事业 10
慑 10
慢性病 10
慢跑 10
慧@@ 10
成功率 10
我姐 10
我读 10
所作 10
所困 10
所述 10
扁担 10
手印 10
手术@@ 10
手语 10
手铐 10
才学 10
扎进 10
扒拉 10
打个招呼 10
打包票 10
打字机 10
打拼 10
打水@@ 10
打牌 10
托儿所 10
执导 10
执照 10
执行官 10
批量生产 10
找人 10
承载 10
把子 10
投了 10
投稿 10
抗战 10
抗衰老 10
披萨 10
抵触 10
抽奖 10
抽泣 10
抽空 10
抽筋 10
拉手 10
拉拉@@ 10
拉斯 10
拍拍 10
招待@@ 10
招惹 10
招手 10
拦住 10
拦截 10
拨款 10
括号 10
拳击@@ 10
拾掇 10
拿主意 10
拿破仑 10
指引 10
指挥家 10
指正 10
按捺不住 10
按计划 10
挪动 10
挺身而出 10
捅@@ 10
捕捉到 10
捕捞 10
掇 10
排便 10
排毒 10
排气@@ 10
排水 10
排版 10
探寻 10
接球 10
控球 10
推向 10
提包 10
提请 10
插头 10
揢 10
揪@@ 10
揭幕@@ 10
揭晓 10
搅和 10
搡 10
搪塞 10
摆划 10
摆手 10
摆架子 10
摆渡 10
摧残 10
摸不着 10
摸了摸 10
撇开 10
撕 10
撵 10
擂 10
擒@@ 10
擦亮 10
擦伤 10
攀 10
攒成 10
支援灾区 10
收养 10
收发 10
收容 10
收敛 10
改天 10
改姓 10
放不下 10
放射性 10
放得 10
放心@@ 10
放满 10
放飞 10
政府@@ 10
效果显著 10
敌意 10
敏锐地 10
教师@@ 10
敛财 10
散乱 10
散伙 10
数不清 10
数十 10
数十万 10
数十年 10
数学课 10
数据@@ 10
数百名 10
整修 10
整形手术 10
整条 10
整齐划一 10
文化部 10
斜线 10
断断续续 10
断绝关系 10
断裂 10
新修 10
新华社 10
新娘子 10
新家 10
新秀 10
新米 10
新闻界 10
方向盘 10
方圆 10
旁听@@ 10
旅店 10
旅游区 10
旅行者 10
无与伦比 10
无偿@@ 10
无双 10
无妨 10
无所不能 10
日月 10
旧书 10
时尚@@ 10
时日 10
时调 10
时起 10
昂首 10
昆明 10
昌盛 10
明代 10
明星@@ 10
明晚 10
明珠 10
易懂 10
星期二 10
昨天@@ 10
昨天夜里 10
显摆 10
显赫 10
晨雾 10
普通@@ 10
普遍存在 10
景福宫 10
智力@@ 10
晾@@ 10
暑期 10
暖炉 10
暮色 10
暴利 10
暴力事件 10
暴力犯罪 10
暴饮暴食 10
更正 10
更难 10
更高 10
替补@@ 10
最坏 10
最大化 10
最爱 10
月饼 10
有味 10
有志气 10
有愧 10
有所提高 10
有朝一日 10
有神 10
有线@@ 10
有色 10
朝方 10
木工 10
木柴 10
木桩 10
木马 10
木鱼 10
未必 10
机上 10
机关枪 10
杀得 10
杀戮 10
杂技团 10
权贵 10
杆菌 10
杠杠 10
条子 10
条路 10
来之不易 10
松林 10
松饼 10
极有 10
构 10
构图 10
架飞机 10
染发 10
柔韧性 10
查封 10
查禁 10
查获 10
柯@@ 10
标价 10
标准杆 10
标出 10
标注 10
树荫下 10
校友 10
核废料 10
核查 10
格调 10
桂林 10
案犯 10
桌面上 10
梆@@ 10
梦到 10
梦幻 10
梨树 10
梭@@ 10
梵@@ 10
检修 10
棉袄 10
棺 10
椅@@ 10
植物园 10
植物性 10
椎@@ 10
概不 10
槐@@ 10
模模糊糊 10
橘@@ 10
橱柜 10
檀君 10
次日 10
欢声笑语 10
欺压 10
止住 10
正反@@ 10
正当理由 10
正经事 10
正统 10
此种 10
武侠@@ 10
武装警察 10
歧途 10
死活 10
殆@@ 10
残存 10
母爱 10
每秒 10
毒品走私 10
比方 10
比赛结果 10
毕业@@ 10
毕业论文 10
毛泽东 10
毛笔字 10
毫不相干 10
民不聊生 10
民警 10
气功 10
水吧 10
水坝 10
水机 10
水果@@ 10
水汽 10
水滴 10
水珠 10
水罐 10
水路 10
汽笛 10
沓 10
没人@@ 10
没准儿 10
没听说过 10
没多大 10
没少 10
没干 10
河南 10
油脂 10
治国 10
治水 10
法国@@ 10
法理 10
波折 10
泥石流 10
注册@@ 10
泳装 10
洋洋@@ 10
洗涤剂 10
洞察 10
活性 10
活该 10
流下来 10
流动人口 10
流动资金 10
流口水 10
流派 10
流行音乐 10
流言 10
浑浊 10
浮动 10
浴缸 10
海峡两岸 10
消毒药 10
消费税 10
消费量 10
消防队 10
涌进 10
淋淋 10
淡蓝色 10
淡黄色 10
淫 10
淫雨 10
深信 10
深受@@ 10
深思 10
深思熟虑 10
深造 10
渊@@ 10
渲染 10
渴得 10
游戏@@ 10
湿漉漉 10
溶 10
滑下来 10
滚下来 10
满口 10
满满当当 10
满身 10
滩@@ 10
滴溜儿 10
演得 10
漫不经心 10
漫无目的 10
漫步 10
火上 10
火山灰 10
火炬 10
灰姑娘 10
灼热 10
炊 10
炎症 10
炭火 10
炯炯有神 10
炸毁 10
烂掉 10
烂醉 10
烙@@ 10
烛火 10
烟斗 10
烟袋 10
热泪盈眶 10
焚烧 10
熄 10
燃起 10
爆竹 10
爱国者 10
爱美 10
爵 10
爹@@ 10
牛皮@@ 10
牛粪 10
物件 10
物质@@ 10
特快 10
特色@@ 10
牺牲品 10
犯法 10
犯罪事实 10
狠毒 10
独一无二 10
独生女 10
独生子女 10
率高 10
王族 10
玩具@@ 10
玩闹 10
现存 10
现金结算 10
球速 10
理赔 10
甘 10
生产性 10
生息 10
生理@@ 10
生老病死 10
生还 10
用枪 10
田间 10
由来已久 10
申氏 10
申请者 10
电力@@ 10
电动@@ 10
电视广播 10
电话铃 10
电量 10
男主角 10
画展 10
画幅 10
留存 10
留守 10
畜 10
畜生 10
番茄 10
疫情 10
病危 10
病得 10
病情恶化 10
症候群 10
痛得 10
瘤 10
登山队 10
白得 10
白纸 10
白送 10
白酒 10
百家 10
皇后 10
皮毛 10
皱@@ 10
监察院 10
盛世 10
盛时期 10
目光@@ 10
盲目投资 10
直冲 10
直接@@ 10
直观 10
相中 10
相册 10
相思 10
相称 10
相约 10
盾牌 10
省得 10
看不出来 10
看吧 10
看护 10
看报 10
真对不起 10
真知 10
真香 10
眼眶里 10
眼镜@@ 10
睡午觉 10
瞌睡 10
瞎子 10
瞪@@ 10
瞰 10
矛 10
矛头 10
知性 10
短浅 10
石器 10
石墙 10
砂糖 10
研究室 10
研究组 10
破烂 10
砸碎 10
硕 10
硬件 10
硬挺 10
确认书 10
碑文 10
碜 10
碰破 10
磕头 10
磕破 10
磨牙 10
礁 10
社会活动 10
祈福 10
祖坟 10
神社 10
祷告 10
秉性 10
科研成果 10
租出去 10
租税 10
积淀 10
移到 10
稀奇 10
稀烂 10
稀稀拉拉 10
稚嫩 10
稳健 10
穆@@ 10
空气污染 10
穿厚 10
穿衣服 10
穿鞋 10
窍 10
窑@@ 10
窗前 10
窗框 10
窝儿 10
窝里 10
站岗 10
童话@@ 10
童谣 10
笃 10
笑眯眯 10
笨手笨脚 10
第一批 10
第一枚 10
第一次世界大战 10
第七@@ 10
第六@@ 10
箍 10
算不上 10
算术 10
管理体系 10
管理层 10
篮球赛 10
米歇尔 10
粉末 10
粒子 10
粮食@@ 10
精炼 10
精神状态 10
糙 10
糟粕 10
系统@@ 10
素来 10
紧急状态 10
紧缺 10
累累 10
红肿 10
约摸 10
纯净 10
纯朴 10
纱布 10
纳闷 10
纵观 10
纶 10
纷飞 10
纸牌 10
练兵场 10
终身难忘 10
经不起 10
经验不足 10
结识 10
继承人 10
维和部队 10
维持现状 10
综合性 10
绿叶 10
绿地 10
缕 10
编辑部 10
缚 10
缠住 10
罐头 10
美国队 10
美好时光 10
美甲 10
群众性 10
翻炒 10
老外 10
老年@@ 10
老母 10
老话 10
考核 10
考试@@ 10
而去 10
而定 10
耍威风 10
耍酒疯 10
联合国@@ 10
联系方式 10
聚一堂 10
肇@@ 10
肇事 10
肚皮 10
股东大会 10
肢@@ 10
胁@@ 10
背景音乐 10
胚胎 10
胜出 10
胜算 10
胜诉 10
胡萝卜 10
能为 10
脊椎 10
脏水 10
脑死亡 10
脖颈 10
脚儿 10
脚背 10
脚腕 10
脱险 10
脸蛋儿 10
腊@@ 10
腮@@ 10
腰围 10
自由主义 10
自言自语 10
自重 10
至关重要 10
至诚 10
至高无上 10
致死 10
舍得 10
舐 10
舛 10
舞蹈@@ 10
航空@@ 10
舰队 10
良久 10
良好@@ 10
良田 10
艰苦@@ 10
节节 10
芥末 10
芬兰 10
花子 10
花环 10
花色 10
花花公子 10
苗头 10
若有 10
英才 10
英语水平 10
英雄事迹 10
茁壮 10
茧子 10
茫@@ 10
草帽 10
草料 10
荒野 10
荤 10
荤@@ 10
药剂 10
药性 10
荷塘 10
获悉 10
萌生 10
萎@@ 10
营业员 10
营养价值 10
落得 10
葬送 10
蓄意 10
蓝队 10
蔓 10
蕴含 10
薄纱 10
藏身 10
虎皮 10
虚度@@ 10
蛀牙 10
蛋黄 10
蛛@@ 10
蜂拥 10
蝇@@ 10
蝉@@ 10
蝴蝶结 10
血压高 10
血迹 10
衍 10
衍@@ 10
表现手法 10
表露 10
表露出 10
被扣 10
裂纹 10
褪 10
褶@@ 10
西扯 10
要不然 10
视觉@@ 10
解法 10
触动 10
誉@@ 10
誓言 10
譬如 10
讥笑 10
训练场 10
议程 10
记不清 10
讽@@ 10
设想 10
评判 10
评论@@ 10
诈骗犯 10
试用 10
话不投机 10
话音 10
说三道四 10
说得@@ 10
诵@@ 10
读物 10
课后 10
谁知 10
谈笑风生 10
谐音 10
谙@@ 10
谦让 10
豁达 10
豆腐渣工程 10
财产税 10
责难 10
贩 10
贵金属 10
费尽 10
贻@@ 10
赔礼道歉 10
赚大钱 10
赚来 10
赛后 10
赛程 10
赝品 10
赞不绝口 10
走光 10
走时 10
走访 10
赶往 10
起劲 10
起跑 10
起重机 10
趋向 10
趣@@ 10
足坛 10
足球场 10
跑垒员 10
跛脚 10
踏踏实实 10
踩踏 10
踪影 10
蹄@@ 10
蹿@@ 10
身心健康 10
身手 10
躬@@ 10
躯@@ 10
躲藏 10
车开 10
转告 10
转折 10
转转 10
软乎乎 10
软件@@ 10
轰炸机 10
轰轰烈烈 10
轰鸣 10
轻工业 10
轻率地 10
轻而易举 10
较强 10
辅导@@ 10
辞令 10
辞掉 10
迁就 10
迅猛 10
过季 10
过河 10
迎战 10
近况 10
近处 10
还款 10
这包 10
这匹马 10
这口 10
这碗 10
这类 10
进化论 10
进攻@@ 10
远地区 10
远近 10
违反@@ 10
违纪 10
连队 10
连饭 10
迥异 10
迫于 10
迭@@ 10
迷了路 10
迹@@ 10
追捕 10
退去 10
送上 10
送还 10
适应@@ 10
逃逸 10
逆水行舟 10
透视 10
通信@@ 10
通气 10
逛荡 10
逻辑性 10
遍野 10
遏@@ 10
遐@@ 10
道教 10
道题 10
遵守纪律 10
邀@@ 10
邀请函 10
那么点儿 10
那张 10
邮 10
郭@@ 10
配不上 10
酒桌上 10
酒量 10
酪 10
酸味 10
醉汉 10
采访@@ 10
采访团 10
重压 10
重症 10
重见@@ 10
重读 10
重重@@ 10
重量级 10
重金属 10
野游 10
金妍儿 10
金子 10
金字塔 10
金达莱 10
金黄 10
钟头 10
钠 10
钢琴家 10
钢琴演奏 10
钢铁厂 10
铁板 10
铭记在心 10
铲@@ 10
银行职员 10
锃 10
错事 10
错失 10
镇上 10
长者 10
长谈 10
长龙 10
门下 10
门诊 10
门锁 10
闪光灯 10
闪着 10
闹闹 10
阑@@ 10
防洪 10
防火@@ 10
阴云 10
阴凉处 10
阵脚 10
附加@@ 10
际@@ 10
陈年 10
陈腐 10
限时 10
陡峭 10
险情 10
陪你去 10
隆起 10
随处 10
随手 10
难以承受 10
难者 10
难解 10
雅虎 10
集体生活 10
集训 10
雷声 10
露头角 10
露骨 10
静静 10
非常@@ 10
靠背 10
面世 10
面值 10
靶 10
韦@@ 10
韩剧 10
音乐界 10
顶层 10
顺风@@ 10
颁奖典礼 10
预备役 10
预见 10
颊 10
颗粒 10
额度 10
风化 10
风头 10
风扇 10
风景@@ 10
飓风 10
飘落 10
飘飘 10
飞过来 10
饭吃 10
饿得 10
首个 10
首映 10
首脑@@ 10
首要条件 10
马力 10
驳斥 10
驴子 10
驶离 10
驾崩 10
驾驭 10
骗过 10
骤雨 10
骨子里 10
骨肉 10
高僧 10
高升 10
高层建筑 10
高新技术 10
鬓@@ 10
鲜活 10
鳞次栉比 10
鸡窝 10
鸭绒 10
鸿@@ 10
麦苗 10
麻花 10
黄金时间 10
黑儿 10
默 10
鼻炎 10
&@@ 9
119 9
12@@ 9
140 9
1700 9
1980 9
386 9
62 9
73 9
74 9
86 9
97 9
E 9
T 9
V 9
Y 9
er 9
le 9
oo@@ 9
t; 9
u 9
― 9
一丁点儿 9
一上 9
一下子@@ 9
一下子把 9
一个多月 9
一代人 9
一列 9
一变 9
一壶 9
一壶@@ 9
一女 9
一对一 9
一心一意 9
一想 9
一摸 9
一时期 9
一曲 9
一朝 9
一朵花 9
一棒 9
一知@@ 9
一秒钟 9
一窝蜂 9
一章 9
一筹 9
一绝 9
一试 9
一路@@ 9
一转 9
一面镜子 9
七分 9
七日 9
万不得已 9
万人次 9
万民 9
万辆 9
三十周年 9
三周 9
上前 9
上千 9
上岁数 9
上岸 9
上有@@ 9
上流 9
上海市 9
上装 9
下半@@ 9
下有@@ 9
下沉 9
下课 9
下锅 9
不为 9
不体面 9
不分@@ 9
不分胜负 9
不力 9
不化 9
不堪@@ 9
不多@@ 9
不好@@ 9
不富 9
不屈不挠 9
不息 9
不感兴趣 9
不成问题 9
不敢相信 9
不显 9
不治之症 9
不法行为 9
不确定性 9
不羁 9
不能自拔 9
不讲理 9
不足为@@ 9
不远处 9
与会代表 9
与会者 9
专卖 9
世界杯赛 9
世界舞台 9
东学@@ 9
东方@@ 9
东方式 9
两万 9
两千元 9
两大类 9
两性 9
两棵 9
两用 9
两者之间 9
两道 9
两面@@ 9
两项 9
严重破坏 9
个人资料 9
个面 9
中午饭 9
中华@@ 9
中华人民共和国 9
中国共产党 9
中起 9
中风 9
临床@@ 9
临行 9
丹麦 9
为时@@ 9
为时尚早 9
为本 9
主力@@ 9
主导作用 9
主页 9
久等 9
义士 9
之不@@ 9
之久 9
之力 9
之师 9
之志 9
之旅 9
之母 9
之灾 9
之爱 9
之物 9
之痛 9
之策 9
之见 9
之马 9
乌克兰 9
乎其@@ 9
乘飞机 9
乡下人 9
书后 9
书里 9
买下 9
买方 9
乱作一团 9
乱来 9
乾@@ 9
事件真相 9
事办 9
事变 9
事实证明 9
事理 9
二十几岁 9
二十四 9
二等兵 9
二者 9
云霄 9
互助会 9
五六岁 9
五彩 9
井水 9
井然有序 9
亡羊补牢 9
交由 9
产品质量 9
亭@@ 9
亮儿 9
亲眼@@ 9
人到 9
人太@@ 9
人头 9
人工呼吸 9
人心@@ 9
人心弦 9
人死 9
人民解放军 9
人潮 9
人类文明 9
人身@@ 9
什 9
仅为 9
仅供参考 9
今夜 9
今年年底 9
从未有过 9
从梦中 9
从那@@ 9
仔仔细细 9
他净 9
他办 9
付费 9
仙境 9
代人 9
代办 9
代理人 9
代理店 9
令人作呕 9
令人高兴 9
仨 9
件事 9
价值@@ 9
仿造 9
企划@@ 9
企鹅 9
伍@@ 9
伍兹 9
众议院 9
优胜者 9
伙食 9
伙食费 9
会以 9
会到 9
会变 9
会后 9
传统美德 9
传遍 9
伪 9
伸张 9
伽 9
但会 9
低声 9
住宅小区 9
体育比赛 9
体育项目 9
何以 9
佛祖 9
作罢 9
侄@@ 9
侄儿 9
侈@@ 9
供养 9
供求 9
依稀 9
依赖@@ 9
侦破 9
侨 9
便服 9
俄语 9
保守@@ 9
保守主义 9
保护法 9
保育@@ 9
保证书 9
保质期 9
保龄球 9
信物 9
修改案 9
修路 9
修辞 9
修道 9
倍增 9
倒影 9
借以 9
借酒@@ 9
倭乱 9
倻 9
值得一看 9
倾家荡产 9
倾诉 9
倾销 9
假面舞 9
偏巧 9
做完作业 9
做点 9
做错事 9
停水 9
停运 9
健全@@ 9
偶像@@ 9
储备@@ 9
催得 9
催眠 9
催逼 9
僻@@ 9
儿里 9
兀 9
元旦 9
充气 9
充满信心 9
充电器 9
先发制人 9
先知 9
先给 9
先驱 9
光头 9
入党 9
入库 9
全员 9
全城 9
全胜 9
全身心 9
全过程 9
全部@@ 9
全部都是 9
八十年代 9
八字@@ 9
八强 9
八成 9
公共利益 9
公营企业 9
公道 9
共和党 9
共用 9
关口 9
关押 9
关注度 9
关灯 9
其为 9
其实@@ 9
具体内容 9
典雅 9
养护 9
养殖场 9
内部矛盾 9
内陆 9
再版 9
写作@@ 9
军用 9
军纪 9
军阀 9
军需 9
农村@@ 9
冠军@@ 9
冬眠 9
冲洗 9
冲淡 9
决胜负 9
决裂 9
冷不丁 9
冷冷清清 9
冷板凳 9
冷枪 9
冷门 9
冷飕飕 9
准确性 9
凌驾于 9
减刑 9
减税 9
几日 9
几杯酒 9
几道 9
凭良心 9
凶巴巴 9
凶犯 9
出丑 9
出厂 9
出戏 9
出炉 9
出神入化 9
出访 9
出轨 9
出钱 9
刀割 9
分居 9
分摊 9
分界线 9
分阶段 9
切尔西 9
划一 9
划定 9
创始人 9
别无@@ 9
别理 9
别碰 9
刮倒 9
制造商 9
刹 9
刹@@ 9
刺刀 9
刺溜 9
刺骨 9
剁 9
剃须刀 9
削苹果 9
削铅笔 9
前世 9
前先 9
前男友 9
前途无量 9
剩菜 9
剪纸 9
办公大楼 9
办公楼 9
功能性 9
加倍努力 9
加快速度 9
加班@@ 9
加盟店 9
加薪 9
务实 9
务请 9
助学 9
劳力 9
劳总 9
势均力敌 9
勃 9
勇敢@@ 9
包住 9
包装纸 9
匈@@ 9
化工 9
北京奥运 9
北方地区 9
北欧 9
医务@@ 9
医药 9
十三岁 9
十六 9
十几岁 9
十字 9
十年代 9
十有八九 9
十来 9
千克 9
升学考试 9
半空 9
半身 9
协会@@ 9
卒@@ 9
单一化 9
单单 9
单靠 9
卖国贼 9
卖弄 9
南美 9
博爱 9
占上风 9
占线 9
卯@@ 9
印度@@ 9
印染 9
印记 9
即逝 9
卷儿 9
厂房 9
历史观 9
历时 9
压制住 9
厚望 9
厚道 9
原始社会 9
原油价格 9
原貌 9
厢 9
去年同期 9
县长 9
叁加 9
参考@@ 9
参考资料 9
参谋@@ 9
参赛者 9
参选 9
又名 9
双全 9
双眼皮 9
双脚 9
反之 9
反动@@ 9
反对@@ 9
反应迟钝 9
反攻 9
反目成仇 9
发工资 9
发泄 9
发涩 9
发烧友 9
发言者 9
发髻 9
受冻 9
变化球 9
变卖 9
变宽 9
变少 9
变心 9
口供 9
口信 9
口轻 9
古代文明 9
另一边 9
叫作 9
叫苦 9
召力 9
叮当响 9
可信度 9
可信赖 9
可及 9
可可 9
台下 9
司令员 9
叽里咕噜 9
吃不得 9
吃生 9
吃过饭 9
吃香 9
各种@@ 9
各色 9
各阶层 9
吆@@ 9
合乎@@ 9
合同条款 9
吉祥 9
同性恋 9
同批 9
同胞@@ 9
名列 9
名列前茅 9
名牌@@ 9
名目 9
后侧 9
后患 9
后援 9
吞 9
含糊 9
听不见 9
听信 9
吭 9
吵起来 9
吸纳 9
吹进来 9
呆了 9
告吹 9
告状 9
周转@@ 9
呱唧 9
呵@@ 9
呵斥 9
呻吟声 9
呼啸 9
呼扇 9
命中@@ 9
和蔼可亲 9
咧嘴 9
咬一口 9
咯 9
咳嗽声 9
哇啦哇啦 9
响动 9
哏 9
哥儿俩 9
哼@@ 9
哼哧 9
唧唧@@ 9
唯物@@ 9
唱得 9
商户 9
啥时候 9
啦啦 9
善于@@ 9
喇叭花 9
喊叫 9
喜剧@@ 9
喜怒哀乐 9
喜闻乐见 9
喝上 9
喷涌 9
喻@@ 9
嗞 9
嗦 9
嗨哟 9
嘚 9
嘟囔 9
嘱 9
嘴笨 9
噪 9
嚼舌头 9
四川@@ 9
回扣 9
回旋 9
回转 9
因是 9
围裙 9
国君 9
国家机密 9
国家级 9
国度 9
国民党 9
国防部长 9
图表 9
圆润 9
土豆@@ 9
在世 9
在此期间 9
在群众中 9
地中海 9
地冲 9
地名 9
地壳 9
地毯式 9
地理@@ 9
地进 9
地面积 9
均摊 9
坏毛病 9
坏消息 9
坑里 9
坚持原则 9
坦白@@ 9
垛 9
垢@@ 9
垫脚石 9
垮台 9
城里人 9
基和@@ 9
基是 9
基本工资 9
基用 9
基调 9
堆起来 9
塌下来 9
塔上 9
填空 9
墙角 9
增值税 9
墨西哥@@ 9
处决 9
处死 9
处流 9
处理器 9
外地人 9
外快 9
多地 9
多月 9
多端 9
多花 9
多长 9
夜宵 9
夜猫子 9
够不着 9
大举 9
大众化 9
大力士 9
大力支持 9
大加 9
大动@@ 9
大势 9
大吵大闹 9
大国家党 9
大声嚷嚷 9
大大减少 9
大姑娘 9
大娘 9
大字报 9
大干 9
大得 9
大德 9
大抵 9
大木头 9
大本营 9
大潮 9
大灾难 9
大热天 9
大白菜 9
大而@@ 9
大胜 9
大获 9
大连 9
大队 9
大雄@@ 9
大驾光临 9
大麦茶 9
天下第一 9
天伦之乐 9
天动地 9
天快 9
天文@@ 9
天真@@ 9
天职 9
太精彩 9
太胖 9
太阳升 9
太高兴 9
夭折 9
央求 9
失主 9
失去平衡 9
失意 9
失眠症 9
失策 9
失落 9
头盖脸 9
夹带 9
奋起 9
奏效 9
奔赴 9
奥运@@ 9
女工 9
女装 9
女足 9
她@@ 9
好了吗 9
好几家 9
好受 9
好吃懒做 9
好大 9
好戏 9
如命 9
如故 9
如若 9
妆容 9
妹@@ 9
姜汤 9
姨@@ 9
姻缘 9
威尼斯 9
娼 9
婉 9
婚宴 9
婚期 9
媒人 9
嫖@@ 9
嫡@@ 9
字句 9
存储器 9
存入 9
存进 9
孝道 9
孤寡老人 9
孤独@@ 9
学堂 9
学妹 9
学籍 9
学舌 9
学识渊博 9
孩 9
孩@@ 9
孩童 9
孵@@ 9
守则 9
安乐 9
安乐死 9
安乐窝 9
安危 9
安好 9
安打 9
安抚 9
安然 9
安详 9
完成度 9
完美@@ 9
宏观@@ 9
宗教团体 9
宗派 9
官僚@@ 9
定型 9
定期@@ 9
定金 9
实体 9
实力派 9
实地考察 9
实效 9
宫廷 9
害喜 9
害处 9
家事 9
家庭教育 9
家电@@ 9
寄信 9
寄出去 9
富于 9
寒碜 9
寸步不离 9
对外开放 9
寻摸 9
封顶 9
射程 9
尊贵 9
小伙伴 9
小儿麻痹 9
小分队 9
小吃店 9
小姑子 9
小意思 9
小火 9
小老婆 9
小金 9
小雨 9
少得 9
少见 9
少许 9
尖叫 9
尘封 9
尚无 9
尤为重要 9
就业机会 9
就学 9
就座 9
就照 9
就读 9
尽如人意 9
屎@@ 9
屏息 9
展期 9
属性 9
屡次三番 9
山势 9
山泉 9
山涧 9
山高@@ 9
峨眉山 9
峻 9
崎@@ 9
嵌@@ 9
巅 9
巡回@@ 9
工会@@ 9
工团 9
巨大成功 9
巨款 9
差别待遇 9
己见 9
已满 9
巴基斯坦 9
币@@ 9
市场竞争 9
市容 9
布下 9
帆@@ 9
帆布 9
师父 9
帘 9
席上 9
常任 9
常态 9
常情 9
常说 9
幅@@ 9
干到底 9
干线 9
干裂 9
干过 9
干重 9
平均水平 9
平方 9
平民百姓 9
平等互利 9
平衡@@ 9
年金 9
并发症 9
并肩 9
并行 9
幼小 9
广播局 9
庄稼@@ 9
应从 9
应试 9
底细 9
废铁 9
座无虚席 9
庶@@ 9
开场 9
开店 9
异国他乡 9
弄断 9
弄是非 9
弄湿 9
弓箭 9
引人@@ 9
引以为@@ 9
引力 9
张大 9
张本 9
弧@@ 9
弯路 9
弹奏 9
归属 9
当代@@ 9
当头 9
录取@@ 9
形容词 9
彭@@ 9
彼 9
彼此间 9
往下掉 9
往回 9
往家 9
径直 9
很严 9
很早 9
很甜 9
很着急 9
很窄 9
很难说 9
得奖 9
得慢 9
得票 9
德高望重 9
心不在焉 9
心急 9
心性 9
心情愉快 9
心理压力 9
心腹 9
心虚 9
心血管 9
忘食 9
快慢 9
念起来 9
怎么@@ 9
怎能不 9
怡@@ 9
性格内向 9
性行为 9
怪人 9
总罢工 9
恐怖主义 9
恐惧@@ 9
恢@@ 9
恪@@ 9
恭 9
恳 9
恳切地 9
恼@@ 9
悔恨 9
您老 9
悸 9
情书 9
情理之中 9
情面 9
惊呆 9
惑@@ 9
惟 9
惧 9
惧怕 9
惨案 9
惨烈 9
惨重 9
惩 9
想不通 9
想尽@@ 9
想当然 9
想得 9
想过 9
惹人 9
惺@@ 9
意志力 9
意气相投 9
感伤 9
感到痛苦 9
感情丰富 9
感情用事 9
感觉@@ 9
愤恨 9
慈爱 9
慢条斯理 9
憷 9
懈@@ 9
懒懒散散 9
戏称 9
成团 9
成性 9
成是 9
成风 9
我活 9
我见 9
战机 9
战果 9
战火 9
戚 9
戴高@@ 9
户主 9
户型 9
房地@@ 9
房客 9
房屋@@ 9
所到之处 9
手拿着 9
手来 9
手软 9
扎到 9
扑哧 9
扑鼻而来 9
扒@@ 9
打哈欠 9
打结 9
打过 9
执法@@ 9
执行公务 9
扬扬 9
扭伤 9
扶植 9
批示 9
找寻 9
承受@@ 9
技工 9
抄近 9
投保 9
抖落 9
抗日战争 9
抗衡 9
折射 9
抛锚 9
抢劫@@ 9
抢镜头 9
报告@@ 9
报表 9
披肩 9
抱佛脚 9
拆迁 9
拉开帷幕 9
拉得 9
拉票 9
拉锯战 9
拍出 9
拓@@ 9
拓展 9
拔出 9
招工 9
招聘广告 9
持家 9
持平 9
挂号信 9
指教 9
按劳分配 9
挖出 9
挚@@ 9
挨揍 9
振作 9
捂@@ 9
捉住 9
捋 9
捎来 9
捐躯 9
换代 9
换衣服 9
据传 9
捷报 9
掀@@ 9
掂@@ 9
掉以轻心 9
掉队 9
掌权 9
排名第 9
排泄物 9
探访 9
接力@@ 9
接见 9
接通 9
控告 9
推倒 9
推土机 9
推给 9
掷@@ 9
描绘出 9
提供支援 9
提出异议 9
提前@@ 9
提成 9
揣测 9
揪心 9
搅匀 9
搞不懂 9
搞清楚 9
搬出 9
摄像 9
摆开 9
摇摇摆摆 9
摇摇欲坠 9
摇曳 9
摘要 9
摧@@ 9
摸不到 9
摹 9
撂 9
撬@@ 9
撺@@ 9
操作系统 9
擒 9
支离破碎 9
收入@@ 9
收藏@@ 9
收货 9
改动 9
改名 9
改观 9
放射 9
放火 9
放炮 9
政敌 9
政治势力 9
敌营 9
救生@@ 9
教化 9
教学楼 9
教条 9
教育费 9
散散步 9
敬佩 9
数学@@ 9
数学公式 9
数百年 9
敲定 9
整体性 9
文化产业 9
文化圈 9
文化节 9
文艺节目 9
文质彬彬 9
斋戒 9
新一届 9
新年@@ 9
新版 9
新疆 9
新路 9
新近 9
新风 9
新鲜血液 9
方能 9
施工@@ 9
旋转@@ 9
旗下 9
无为 9
无色 9
无表情 9
无论怎样 9
无话可说 9
无邪 9
既得 9
既要 9
日向 9
日式 9
日志 9
旧货 9
旨意 9
早到 9
早点儿 9
旮旯儿 9
时代背景 9
时有发生 9
时间段 9
明儿 9
明显增加 9
星儿 9
映照 9
春耕 9
显而易见 9
显露出 9
晃晃 9
晕乎乎 9
晕船 9
晚秋 9
普京 9
普遍@@ 9
景况 9
景物 9
晶@@ 9
暂定 9
暮 9
暴力@@ 9
暴君 9
暴跳如雷 9
更让人 9
最多@@ 9
最差 9
最美 9
最能 9
最高级 9
有位 9
有其@@ 9
有失 9
有害物质 9
有意识 9
有方 9
有染 9
有者 9
有车 9
有雨 9
有骨头 9
朝南 9
朝天 9
朝气 9
期望值 9
期末 9
期满 9
未婚妻 9
未干 9
未经许可 9
本家 9
本是 9
本校 9
本色 9
术@@ 9
朴前 9
朴赞浩 9
机体 9
机长 9
朽@@ 9
杂物 9
杂质 9
杂费 9
权者 9
李承烨 9
杓 9
杠杆 9
杠铃 9
条文 9
来头 9
来时 9
松松 9
松柏 9
极富 9
极致 9
枝叶 9
枪口 9
枪械 9
架起 9
某种程度 9
柔嫩 9
柠檬@@ 9
柱@@ 9
树下 9
树种 9
树龄 9
栖@@ 9
核心技术 9
核桃 9
桑 9
梧桐树 9
梳子 9
检疫 9
棒极了 9
棒球赛 9
棺@@ 9
楷模 9
楼阁 9
楼顶 9
榉树 9
模拟@@ 9
模特儿 9
橄榄油 9
欠佳 9
次品 9
欢庆 9
欢腾 9
欧美 9
欲滴 9
款子 9
歌唱家 9
正品 9
正对 9
正统性 9
步兵 9
武侠 9
武打 9
武汉@@ 9
死亡率 9
死机 9
歼 9
残骸 9
母乳喂养 9
母体 9
母女 9
每学期 9
每棵 9
毒气 9
毒辣 9
比作 9
比萨 9
毕生精力 9
毛骨悚然 9
毫不关心 9
毫不动摇 9
毫不在意 9
毫无疑问 9
氏@@ 9
民宿 9
水在 9
水域 9
水彩画 9
水桶 9
水泄不通 9
水浅 9
水瓶 9
水边 9
永生 9
汇合 9
汉奸 9
汗毛 9
汗渍 9
污浊 9
污点 9
汽笛声 9
汽车轮胎 9
沁@@ 9
沈阳 9
沉迷 9
沏 9
沙丘 9
沙尘 9
没好 9
没有规矩 9
没法儿 9
没过多久 9
河道 9
沸@@ 9
沸水 9
油桶 9
泄露@@ 9
法国人 9
法律依据 9
法西斯 9
波士顿 9
泥沼 9
洋相 9
津津 9
活脱 9
洼 9
洽 9
派送 9
流水@@ 9
流鼻血 9
浪漫主义 9
浮在 9
海峡 9
海豚 9
消化@@ 9
消费品 9
消释 9
涝@@ 9
涨潮 9
液晶 9
淀粉 9
淆@@ 9
淌 9
淡忘 9
淡漠 9
深刻@@ 9
深刻印象 9
混沌 9
混混 9
清代 9
清唱 9
清洁工 9
渣儿 9
游戏机 9
湖中 9
溜出 9
溜出去 9
溜滑 9
溯 9
滚下去 9
滚圆 9
滞纳 9
满天 9
满肚子 9
满腔 9
满腹 9
满面@@ 9
滥用@@ 9
滨 9
演示 9
演练 9
漠 9
漫长岁月 9
潜能 9
潦草 9
激灵 9
激进 9
火候 9
火堆 9
火种 9
炒热 9
炕头 9
炸药 9
点上 9
点事 9
烟云 9
烟尘 9
烤面包 9
烤鸭 9
烦躁 9
烧光 9
热风 9
烹 9
焉@@ 9
焊接 9
焖 9
焚香 9
煞费苦心 9
照实 9
照进来 9
煽情 9
熨帖 9
熬粥 9
燃气 9
燕 9
燥 9
燥@@ 9
爆炸@@ 9
爆炸事件 9
爬行 9
爱好@@ 9
爱河 9
父子@@ 9
爸爸妈妈 9
爽朗 9
片中 9
片段 9
版权 9
牙疼 9
牙科 9
牛鼻子 9
牢牢地 9
物业管理 9
物产 9
特写 9
特别法 9
特种 9
犹犹豫豫 9
狂奔 9
独创 9
独处 9
猪蹄 9
猫咪 9
玉石 9
王牌 9
玛 9
玩忽职守 9
玫瑰色 9
环视 9
现代集团 9
现如今 9
现实情况 9
现成 9
现身 9
现金@@ 9
玻璃球 9
珍本 9
珍稀动物 9
珍视 9
珠穆朗玛峰 9
球棒 9
瑜 9
璀璨 9
瓢@@ 9
瓣 9
瓶颈 9
甄别 9
甘蔗 9
生厌 9
生存权 9
生意@@ 9
生机勃勃 9
生死存亡 9
生活圈 9
生活状况 9
生风 9
用到 9
甩掉 9
电机 9
电算 9
男篮 9
男装 9
畏缩 9
留住 9
留名 9
略显 9
疏于 9
疗养院 9
疤 9
疤痕 9
疫@@ 9
疲乏 9
疲软 9
疹 9
痛痒 9
痼疾 9
瘟@@ 9
瘦小 9
瘦弱 9
瘦身 9
瘫坐 9
瘫软 9
白吃 9
白沙滩 9
白皙 9
白衬衫 9
白雪公主 9
百出 9
百分之百 9
皮衣 9
盆花 9
盈盈 9
盗用 9
盗窃@@ 9
盘查 9
盘索里 9
盟国 9
目瞪口呆 9
直属 9
相互间 9
相待 9
看不懂 9
看不起人 9
真乖 9
真像 9
真叫 9
真实情况 9
真心@@ 9
真没想到 9
真甜 9
真能 9
真要命 9
真面目 9
眷 9
眼珠子 9
眼花 9
着劲儿 9
睁开眼睛 9
睁眼 9
睡个 9
睡衣 9
睿智 9
瞻 9
知己 9
知情 9
知识经济 9
知足常乐 9
短路 9
矮胖 9
石板 9
砌墙 9
研究生院 9
研讨 9
砺 9
硝@@ 9
碎石 9
碗饭 9
碧绿 9
碰面 9
磅礴 9
磨光 9
神经衰弱 9
福气 9
禽@@ 9
禾@@ 9
秀美 9
秆 9
秘 9
秘密@@ 9
称兄道弟 9
称心 9
称霸 9
秽 9
稀疏 9
稀罕 9
税费 9
稳定@@ 9
稳定物价 9
空心 9
空旷 9
空格 9
空着 9
空腹 9
窃窃私语 9
窍门 9
窑 9
窘 9
窘@@ 9
立方 9
立法权 9
站上 9
站住脚 9
竞标 9
笑料 9
笔法 9
笨蛋 9
第一眼 9
第一阶段 9
第六 9
第十@@ 9
笼统 9
筷 9
简介 9
简朴 9
算错 9
管理费 9
篮球队 9
簇@@ 9
簪 9
粉刷 9
粗壮 9
粤@@ 9
精品 9
精心@@ 9
糙@@ 9
糟透了 9
系列赛 9
系在 9
素描 9
紧急措施 9
紧握 9
紧绷 9
繁星 9
红地毯 9
红润 9
红魔 9
纪念物 9
纬度 9
纯情 9
纯棉 9
纲领 9
纳粹 9
纸片 9
纸箱 9
纹身 9
纺织 9
练习本 9
练歌房 9
经查明 9
经营学 9
经验教训 9
结为 9
结交 9
结巴 9
结构@@ 9
结核@@ 9
结着 9
绕脖子 9
给钱 9
绝壁 9
绞 9
绣@@ 9
继任者 9
继续前进 9
维新 9
绷紧 9
绺 9
综@@ 9
综合征 9
综艺 9
绽开 9
绿色食品 9
缓冲@@ 9
缓刑 9
编入 9
缝制 9
缴获 9
罐头盒 9
网状 9
罢免 9
罪责 9
置之@@ 9
署@@ 9
罹难 9
羊羔 9
美人@@ 9
美洲 9
群众@@ 9
群居 9
群星 9
翁@@ 9
翔@@ 9
翕动 9
翩@@ 9
翩翩起舞 9
翻倒 9
翻新 9
翻白眼 9
翻遍 9
老一套 9
老头子 9
老子 9
老幺 9
老成 9
老战友 9
老掉牙 9
老旧 9
老本 9
老爷@@ 9
老顽固 9
老鼠@@ 9
考古 9
考古学 9
考完 9
而至 9
耐磨 9
耗时 9
耳闻 9
耿@@ 9
聊天室 9
聊得 9
职守 9
联合国安理会 9
联邦@@ 9
聚在 9
肋@@ 9
肖@@ 9
肝癌 9
肢 9
肢体 9
肤浅 9
肥肉 9
肩负着 9
肾脏 9
胃溃疡 9
胃炎 9
胃里 9
背弃 9
胜利者 9
胜率 9
胡子@@ 9
胡来 9
胳臂 9
胸围 9
胸襟 9
能力@@ 9
能过 9
脏兮兮 9
脏字 9
脑力劳动 9
脓 9
脖@@ 9
脚踏@@ 9
脯 9
脱水 9
脱离实际 9
臣子 9
自个儿 9
自主权 9
自助 9
自学 9
自律性 9
自然景观 9
自若 9
自闭症 9
至多 9
致敬 9
舆论@@ 9
舍己为人 9
舒坦 9
航天 9
艰苦奋斗 9
艰险 9
色素 9
节日期间 9
芝加哥 9
芦苇 9
芭蕾 9
花样@@ 9
花白 9
苔 9
苔藓 9
茂 9
茫茫大海 9
茶水 9
茶碗 9
茹@@ 9
草丛 9
草稿 9
荒岛 9
荒诞 9
荚 9
莉@@ 9
莫不 9
莫及 9
莫测 9
莫过于 9
菇 9
菜鸟 9
萌发 9
营运 9
萦绕 9
葛 9
葡萄牙 9
蒸笼 9
蔓@@ 9
蕾 9
藕 9
虎穴 9
虎视眈眈 9
虑@@ 9
虔敬 9
虚情假意 9
虾酱 9
蚁@@ 9
蚯蚓 9
蛰 9
蛾@@ 9
螺 9
行不@@ 9
行不行 9
行为@@ 9
行为准则 9
行动不便 9
行船 9
行贿受贿 9
街区 9
衣橱 9
衣襟 9
衣角 9
补漏 9
补课 9
表现@@ 9
袅袅 9
被划 9
被套 9
袭来 9
裁判员 9
装腔作势 9
装船 9
装配 9
裔 9
裸露 9
褂 9
褶 9
襄@@ 9
要数 9
要花 9
见于 9
见怪 9
见血 9
见证 9
观察力 9
览@@ 9
角膜 9
角质 9
解决@@ 9
解剖 9
解除@@ 9
触犯 9
触礁 9
警卫室 9
警觉 9
计画 9
认得 9
认输 9
让出 9
让开 9
训练营 9
议书 9
议事 9
记者会 9
讲求 9
讷 9
访美 9
访韩 9
诀 9
诀窍 9
证据不足 9
评审委员 9
诅咒 9
识破 9
试映 9
诗作 9
诗词 9
话头 9
该党 9
该厂 9
语言不通 9
说一说 9
说不上来 9
说了半天 9
说得对 9
读报 9
调养 9
调子 9
调理 9
谜@@ 9
豁出 9
豁然开朗 9
象是 9
财政困难 9
责任@@ 9
货色 9
质性 9
贩卖 9
贩卖@@ 9
贪欲 9
贪污受贿 9
贫困地区 9
购买力 9
贴金 9
贸@@ 9
贺年卡 9
资源@@ 9
赊@@ 9
赌徒 9
赏光 9
赔偿金 9
赔钱 9
赘肉 9
赚了钱 9
赛中 9
赛马场 9
赞颂 9
走低 9
走遍 9
赶时髦 9
起泡 9
起风 9
超乎 9
超强 9
超级@@ 9
超载 9
超高速 9
越深 9
越狱 9
越野@@ 9
跃进 9
跌入 9
跌落 9
跨过 9
路段 9
路途 9
跳下来 9
跳入 9
践 9
跺脚 9
踞 9
踱去 9
踱来 9
蹈@@ 9
身价 9
身子骨儿 9
身教 9
身量 9
躺倒 9
车型 9
车展 9
转头 9
转晴 9
轰动 9
轻信 9
轻蔑 9
轿 9
较差 9
辅导班 9
辈分 9
辍 9
输送 9
辖 9
辞职信 9
辣白菜 9
辣辣的 9
辩论会 9
迁往 9
过活 9
迈入 9
迎春花 9
近在眼前 9
近距离 9
还原 9
这一关 9
这么一来 9
这则 9
这周 9
这桩 9
进不去 9
进发 9
进行@@ 9
远山 9
远景 9
远道而来 9
连累 9
连续不断 9
连翘 9
连败 9
迫近 9
追上 9
追溯到 9
逆流 9
选区 9
选秀 9
逊@@ 9
透气 9
递送 9
通顺 9
逞能 9
造势 9
遂@@ 9
遇险 9
道道 9
遮拦 9
邀请赛 9
邋遢 9
邓@@ 9
那架 9
那笔 9
那般 9
那话 9
郁结 9
郁金香 9
郊 9
部长级 9
鄙人 9
配合默契 9
酵@@ 9
酷刑 9
醉心于 9
采光 9
重税 9
重重地 9
金库 9
针线活 9
钞 9
钢材 9
钢铁产业 9
铁匠 9
铁杆 9
铁矿石 9
铆@@ 9
铉 9
铸 9
铺垫 9
铺设 9
链接 9
铿@@ 9
销售价格 9
错开 9
锡@@ 9
镂@@ 9
镜片 9
长孙 9
长椅 9
长袖 9
长途电话 9
门厅 9
闪耀着 9
问责 9
闲聊 9
闷得慌 9
闹着玩儿 9
阅览 9
防盗 9
阴森 9
阴谋@@ 9
阴雨 9
阿尔@@ 9
阿谀奉承 9
陈谷子烂芝麻 9
限额 9
院校 9
除此之外 9
险些 9
陪审员 9
随时@@ 9
随身 9
隐形眼镜 9
隐隐约约 9
隔壁家 9
隔夜 9
隔音 9
障碍@@ 9
隶属 9
难当 9
难改 9
雁@@ 9
集成 9
雇员 9
雨后春笋 9
雪纺衫 9
零点 9
震荡 9
霞光 9
霸占 9
霸权 9
青春年华 9
青松 9
非常感谢 9
非常简单 9
非难 9
靠墙 9
靡 9
靡@@ 9
面包车 9
面色 9
鞭策 9
韧@@ 9
顶住 9
顶点 9
顾家 9
顾忌 9
颁奖 9
预选 9
预防针 9
领了 9
领先地位 9
颇具 9
风俗画 9
风景线 9
风沙 9
风流 9
风琴 9
风范 9
风行 9
风衣 9
风车 9
风霜 9
飘动 9
飘向 9
飘散 9
餐后 9
餐费 9
饭盒 9
饭钱 9
饮水 9
饮食文化 9
饱含 9
饼@@ 9
饿着肚子 9
馆长 9
首屈一指 9
首播 9
香味儿 9
香炉 9
香瓜 9
驰 9
驱动 9
驱车 9
驴@@ 9
驶 9
驶去 9
驻美 9
驼@@ 9
骏马 9
骑上 9
骗取 9
骗走 9
高三 9
高挑 9
鱼汤 9
鱼肉 9
鲊 9
鳞 9
鸡汤 9
鸣笛 9
鸥 9
鸿沟 9
鹰@@ 9
黄牌 9
黏土 9
黑字 9
黑洞 9
黑洞洞 9
黑猩猩 9
黑钱 9
鼓声 9
鼓起 9
鼓起勇气 9
鼻子@@ 9
鼻尖 9
112 8
122 8
160 8
195 8
1987 8
1989 8
2018 8
230 8
50@@ 8
52 8
59 8
7.@@ 8
83 8
95 8
R 8
X@@ 8
ai@@ 8
ce@@ 8
gle 8
on@@ 8
or@@ 8
ri@@ 8
so@@ 8
st@@ 8
一两次 8
一亮 8
一分@@ 8
一十 8
一去不复返了 8
一叶@@ 8
一团@@ 8
一声不吭 8
一审 8
一家@@ 8
一席话 8
一开 8
一手@@ 8
一时一刻 8
一是 8
一朝一夕 8
一条街 8
一桩 8
一段距离 8
一比 8
一气之下 8
一洗 8
一清早 8
一点一滴 8
一瓢 8
一碗@@ 8
一肚子@@ 8
一股@@ 8
一落千丈 8
一览@@ 8
一贯@@ 8
一跤 8
一跳 8
一连@@ 8
一锅@@ 8
一阵儿 8
万代 8
万件 8
万公里 8
三个臭皮匠 8
三四天 8
三夜 8
三杯 8
三足 8
三遍 8
三高 8
上刻 8
上床 8
上弦 8
上星期 8
上楼 8
上爬 8
上级部门 8
上结 8
上缴 8
下不来台 8
下岗@@ 8
下狠心 8
下肚 8
下肢 8
下蛋 8
下里 8
不三不四 8
不上不下 8
不亮 8
不以 8
不出去 8
不动声色 8
不可多得 8
不吃@@ 8
不合情理 8
不唧 8
不在@@ 8
不均 8
不复存在 8
不大不小 8
不太会 8
不宁 8
不寒而栗 8
不对@@ 8
不差 8
不思 8
不惜牺牲 8
不惯 8
不无 8
不甘 8
不知情 8
不算什么 8
不经 8
不能生存 8
不要命 8
不许@@ 8
不论什么 8
不费@@ 8
不转 8
不透 8
不遇 8
不顾@@ 8
不饶 8
专会 8
专机 8
专题 8
世博 8
丙@@ 8
业务员 8
东奔西@@ 8
丝带 8
丢三落四 8
丢开 8
两分 8
两声 8
两届 8
两手@@ 8
两排 8
两艘 8
两行 8
两边倒 8
严冬 8
严厉批评 8
严格管理 8
严肃处理 8
丧家之犬 8
丧礼 8
中介人 8
中受 8
中学@@ 8
中小@@ 8
中小学 8
中来 8
中枢 8
中立@@ 8
中餐 8
中餐馆 8
串儿 8
为人处事 8
为伴 8
为妻 8
为宜 8
主厨 8
主宰 8
主导@@ 8
主心骨 8
主教 8
主机 8
主编 8
丽水 8
举国@@ 8
举杯 8
举步维艰 8
义卖 8
义词 8
之以 8
之初 8
之别 8
之又@@ 8
之大@@ 8
之恨 8
之星 8
之箭 8
之计 8
之谜 8
乐道 8
乘以 8
乘机 8
九牛二虎之力 8
习惯@@ 8
乡愁 8
书法家 8
书记@@ 8
买房子 8
乱收费 8
乾坤 8
了俊基 8
争抢 8
事实@@ 8
二世 8
二则 8
二十五 8
二十分钟 8
二次 8
二流 8
二话不说 8
二重@@ 8
于众 8
亏本 8
互助组 8
五六个 8
五十个 8
五十元 8
五吨 8
五四运动 8
五大 8
井里 8
些许 8
交上 8
交友 8
交响曲 8
交汇 8
交白卷 8
交通卡 8
交通秩序 8
交配 8
亥@@ 8
产品开发 8
享乐 8
亮堂 8
亲事 8
亲切@@ 8
亲和力 8
亲家 8
亲眼 8
亲笔 8
人世间 8
人事安排 8
人听闻 8
人声 8
人太 8
人寿保险 8
人工费 8
人生在世 8
人生目标 8
人过 8
仁义道德 8
仅剩 8
仅用 8
今年初 8
今春 8
今生 8
从业人员 8
从天@@ 8
从头@@ 8
从容@@ 8
从属 8
从简 8
从长计议 8
仔细听 8
他作 8
他望 8
付现金 8
仙人掌 8
代代 8
代代相传 8
代表大会 8
令人兴奋 8
令人瞩目 8
们儿 8
价格昂贵 8
任何@@ 8
任何一方 8
企及 8
伊拉克人 8
伊索 8
伏天 8
休闲装 8
众生 8
优柔寡断 8
优越感 8
会话 8
传人 8
传奇 8
传播@@ 8
传统服装 8
伤疤 8
伫立 8
伶俐 8
伸腿 8
低低的 8
低姿态 8
低矮 8
体例 8
何必@@ 8
何等 8
作品@@ 8
作品展 8
作息 8
作息@@ 8
作法 8
作贡献 8
佣人 8
使不得 8
依依不舍 8
依我看 8
侵略军 8
便携式 8
俄罗斯@@ 8
俎 8
俗气 8
保卫国家 8
保罗 8
保重 8
修理@@ 8
修理工 8
修生 8
修缮 8
倒不如 8
倒地 8
倒置 8
倒霉事 8
候补 8
借阅 8
倭@@ 8
倭寇 8
债务@@ 8
值得@@ 8
值班@@ 8
值钱 8
倾心 8
假借 8
假冒 8
假话 8
假钞 8
做客 8
做广告 8
停机 8
停职 8
停靠 8
停飞 8
健在 8
偷生 8
储蓄罐 8
储藏@@ 8
催人@@ 8
傲气 8
像模像样 8
僵局 8
儒学 8
儿去 8
儿地 8
元化 8
兄妹俩 8
先于 8
先到 8
先进经验 8
先锋派 8
光明@@ 8
光灯 8
光着 8
光脚 8
克扣 8
免费入场 8
免遭 8
兑付 8
兜圈子 8
入境@@ 8
入境手续 8
入耳 8
入骨 8
全书 8
全力支持 8
全套 8
全校学生 8
全然@@ 8
全盘@@ 8
全经联 8
公允 8
公共部门 8
公关 8
公安机关 8
公审 8
公开招标 8
公开赛 8
公报 8
公文@@ 8
公牛 8
公物 8
公用电话 8
公立 8
公论 8
共产党 8
共性 8
兴奋剂 8
兴趣小组 8
兴趣爱好 8
养家 8
养老院 8
兽医 8
内有 8
内线 8
内阁@@ 8
再好不过 8
再生@@ 8
冒昧 8
写实 8
军事设施 8
军服 8
军演 8
军用@@ 8
冰镇 8
冲击@@ 8
冲刷 8
冲塌 8
冲进 8
决一@@ 8
决意 8
决权 8
况且 8
冷空气 8
冻坏 8
净化@@ 8
凉粉 8
凉菜 8
凋落 8
凋谢 8
减产 8
几十 8
几篇 8
凤仙花 8
凤尾鱼 8
凸出 8
凸起 8
凹 8
出入境 8
出力 8
出土文物 8
出席会议 8
出溜 8
出线 8
出让 8
出门时 8
出风头 8
击倒 8
击毙 8
分拨 8
分数线 8
分派 8
分解成 8
分道扬镳 8
切掉 8
刚下 8
刚买 8
刚刚开始 8
创新@@ 8
创纪录 8
创设 8
创造@@ 8
初版 8
初犯 8
初衷 8
初高中 8
利息@@ 8
别信 8
别动 8
别哭 8
别家 8
别尽 8
别离 8
刮风下雨 8
制冷 8
制剂 8
制动 8
刻下 8
刻不容缓 8
刻印 8
前两天 8
前列腺 8
前功尽弃 8
前卫 8
前院 8
剎车 8
剧变 8
剩女 8
剪短 8
副产品 8
力不@@ 8
力争上游 8
劝解 8
办不到 8
办公用品 8
功勋 8
功德 8
加以@@ 8
加湿器 8
动感 8
动荡不安 8
动辄 8
劲头 8
劳动法 8
劳动节 8
劳资关系 8
勃然大怒 8
勉勉强强 8
勘察 8
匀称 8
包办 8
包着 8
化为@@ 8
化学物质 8
北京烤鸭 8
北大 8
医学院 8
匿名@@ 8
十二分 8
十二生肖 8
十块 8
十块钱 8
十指 8
升任 8
升华 8
升空 8
半局 8
协力 8
卑微 8
卑躬屈膝 8
单人 8
单价 8
单薄 8
南北@@ 8
南国 8
南边 8
卜 8
占便宜 8
占地 8
印刷品 8
印度尼西亚 8
危在旦夕 8
危机感 8
危险期 8
卷进 8
卸货 8
卿 8
厅@@ 8
历史使命 8
历史博物馆 8
历史文物 8
压迫感 8
厘@@ 8
原位 8
原作者 8
原创 8
原名 8
原地踏步 8
原型 8
原意 8
去路 8
县里 8
参差不齐 8
双面 8
反复@@ 8
反复强调 8
反差 8
反悔 8
发动@@ 8
发散 8
发炎 8
发生意外 8
发电机 8
发福 8
发给@@ 8
发落 8
发高烧 8
取其精华 8
取款机 8
受到冲击 8
受惠 8
受穷 8
受骗 8
变化@@ 8
变差 8
口处 8
口头上 8
口干舌燥 8
口角 8
古代文学 8
古诗 8
古铜色 8
另一半 8
只眼 8
叫嚷 8
可人 8
可以信赖 8
可喜 8
可恶 8
可想而知 8
叶树 8
叶茂 8
叽叽喳喳 8
吁@@ 8
吃了饭 8
吃大亏 8
吃糖 8
各色各样 8
合伙人 8
合作社 8
合同书 8
合资 8
同伙 8
同化 8
名下 8
名不虚传 8
名儿 8
名堂 8
后事 8
向性 8
吝 8
吠@@ 8
吨@@ 8
含恨 8
含蓄 8
启航 8
启蒙运动 8
呆板 8
呆笨 8
呈报 8
告一段落 8
呜咽 8
周年纪念 8
周总理 8
呵护 8
呸 8
呼吸道 8
命脉 8
和媛媛 8
和平解决 8
和民浩 8
和煦 8
和睦相处 8
咕噜咕噜 8
咖啡杯 8
咚 8
咧@@ 8
咿@@ 8
哇哇@@ 8
哈佛大学 8
哒 8
哨所 8
哪一位 8
哪天 8
哪是 8
哪种 8
哮喘 8
哼哼唧唧 8
哼唱 8
售出 8
售卖 8
售票@@ 8
唯有 8
商品化 8
商品房 8
商量一下 8
啊呀 8
啪@@ 8
啮 8
啰@@ 8
喀 8
善心 8
喇叭声 8
喔 8
喙 8
喜剧演员 8
喝汤 8
喝粥 8
喱 8
喳喳 8
嗡嗡响 8
嗵 8
嘀 8
嘎@@ 8
嘎嘎 8
嘟@@ 8
嘴上 8
嘴尖 8
嘴皮子 8
嘴脸 8
嘿嘿 8
器物 8
噼里啪啦 8
嚄 8
嚎 8
嚎啕大哭 8
囔 8
四下 8
四位 8
四十多岁 8
四国 8
四射 8
四种 8
回味 8
回响 8
回忆往事 8
回礼 8
因病 8
团团转 8
囤积 8
园内 8
围住 8
围困 8
围攻 8
国务 8
国民收入 8
国立大学 8
国际法 8
图谋 8
圆月 8
圈里 8
土著@@ 8
在我看来 8
地切 8
地利 8
地多 8
地球@@ 8
地画 8
地缠 8
地读 8
场馆 8
坏了 8
坏水 8
坏脾气 8
坐垫 8
坐标 8
坛@@ 8
垄断@@ 8
垒手 8
垠 8
垮塌 8
城市化 8
城楼 8
基因@@ 8
基对 8
堂而皇之 8
堕胎 8
塘@@ 8
填埋 8
增幅 8
壑 8
声不响 8
声势 8
备受瞩目 8
备有 8
复习@@ 8
复学 8
夕 8
夕阳西下 8
外债 8
外围 8
外来@@ 8
外漏 8
外电 8
外财 8
夙@@ 8
多事 8
多会儿 8
多疑 8
多米@@ 8
夜市 8
够意思 8
够用 8
大个儿 8
大众交通 8
大众传媒 8
大体上 8
大半夜 8
大大咧咧 8
大大提高 8
大字 8
大小不一 8
大成 8
大摆 8
大敌 8
大无@@ 8
大梁 8
大步 8
大比分 8
大洋 8
大白@@ 8
大闹 8
大麻 8
天上掉 8
天分 8
天安门广场 8
天文学 8
天气@@ 8
天蓝色 8
天鹅绒 8
太子 8
太棒了 8
太漂亮 8
太矮 8
夫妻间 8
失学 8
失措 8
失物 8
失神 8
失陪 8
夺去 8
奖章 8
套话 8
套餐 8
奢侈品 8
奢望 8
奥尔@@ 8
女排 8
女明星 8
女星 8
好几遍 8
好学 8
好生 8
好端端 8
如春 8
如水 8
如火如荼 8
妇女@@ 8
妊娠 8
姆指 8
姑 8
姓氏 8
姚明 8
姥姥家 8
姨子 8
娃娃@@ 8
娄 8
娇 8
娇惯 8
娓@@ 8
嫌弃 8
嫌恶 8
孤 8
学士 8
学派 8
学率 8
学缘 8
它@@ 8
宅基地 8
宅子 8
宇宙@@ 8
安分 8
安检 8
安然无恙 8
宋朝 8
完好无损 8
完完全全 8
官儿 8
官吏 8
官邸 8
定会 8
定准 8
定夺 8
定律 8
定量 8
宝塔 8
实务 8
实名制 8
实时 8
宠物犬 8
客观事实 8
客运 8
宣战 8
室内空气 8
宰桐 8
家长制 8
宽度 8
宿命 8
寄住 8
寄居 8
寄生 8
寅@@ 8
寇 8
富丽堂皇 8
对头 8
对性 8
对抗赛 8
封口 8
射手 8
小不点儿 8
小东西 8
小丫头 8
小买卖 8
小儿科 8
小学@@ 8
小屋 8
小山 8
小山坡 8
小山村 8
小数点 8
小河边 8
小玩意儿 8
小石子 8
小花 8
小费 8
少于 8
少爷 8
尖利 8
尖刻 8
尖叫声 8
尖尖 8
尘埃 8
尤 8
尤茨 8
就业者 8
就职@@ 8
就诊 8
尽兴 8
尽心@@ 8
尽所能 8
尽显 8
居于 8
屈指可数 8
屏蔽 8
屠夫 8
履 8
屯@@ 8
山丘 8
山峦 8
山腰 8
岔开 8
崔某 8
巅峰 8
巍巍 8
巡 8
工业区 8
工业国 8
工作日 8
工薪族 8
工薪阶层 8
巨变 8
巫 8
巫俗 8
差事 8
已成@@ 8
已达 8
巾@@ 8
帕 8
帕@@ 8
带伞 8
带头@@ 8
带球 8
帮手 8
帮着 8
干柴 8
干涩 8
干瘪 8
干脆利落 8
平易近人 8
平等@@ 8
年份 8
年幼无知 8
年货 8
年龄段 8
并不等于 8
并入 8
并非易事 8
幸存 8
幼芽 8
广为 8
广告牌 8
广告费 8
库里 8
应为 8
应声 8
应立即 8
应试@@ 8
应邀参加 8
底盘 8
底端 8
庞@@ 8
废气 8
庵@@ 8
廓@@ 8
延后 8
延续下去 8
建筑业 8
建筑家 8
建筑工地 8
建筑面积 8
建筑风格 8
建设性 8
开发计划 8
开导 8
开拓@@ 8
开机 8
开诚@@ 8
弃权 8
弄人 8
弄坏 8
引咎辞职 8
弟兄 8
张某 8
张狂 8
张飞 8
强人 8
强健 8
强壮 8
强烈不满 8
强赛 8
归咎于 8
当今世界 8
当今社会 8
当回事 8
当局者 8
当过 8
录音带 8
形势@@ 8
影视 8
彻 8
彼此彼此 8
待发 8
待命 8
得头 8
得罪人 8
微尘 8
微微一笑 8
心情舒畅 8
心满意足 8
心理素质 8
心病 8
心神 8
必修课 8
必有@@ 8
忆@@ 8
忌日 8
志同道合 8
志愿@@ 8
忙不@@ 8
忠厚 8
快点儿 8
快速@@ 8
忽悠 8
怕冷 8
思乡 8
急匆匆 8
急救@@ 8
急诊 8
性别歧视 8
性急 8
性气候 8
性爱 8
怨言 8
恋人们 8
恐不安 8
恰恰 8
恶性@@ 8
恶狠狠 8
悄无声息 8
悖 8
患感冒 8
您@@ 8
悯 8
悲凉 8
情况紧急 8
情报局 8
情景喜剧 8
情结 8
惆怅 8
惜败 8
惦记 8
惬意 8
惯于 8
想尽 8
想开 8
想来想去 8
愈加 8
意会 8
意外事件 8
意料中 8
意气 8
愕 8
愚昧无知 8
愚笨 8
感到@@ 8
感情@@ 8
感染力 8
慌乱 8
慢走 8
慨@@ 8
慰安@@ 8
懒觉 8
戏弄 8
戏院 8
成一团 8
成事 8
成人@@ 8
成功者 8
成大器 8
成山 8
成本@@ 8
我厂 8
我发 8
我受 8
我爸 8
我顶 8
戒严 8
戒律 8
战利品 8
战功 8
战国 8
戳@@ 8
所处 8
所犯 8
所见@@ 8
所闻 8
扇动 8
手忙脚乱 8
手把 8
手术室 8
手足@@ 8
才华横溢 8
才子 8
才干 8
扎啤 8
扎煞 8
扎紧 8
扑棱棱 8
打伤 8
打小报告 8
打开门 8
打成@@ 8
打湿 8
打眼 8
打破@@ 8
打落 8
执拗 8
执教 8
执笔 8
执著 8
扫射 8
扶手 8
找茬 8
承包 8
技术创新 8
抄起 8
把守 8
抑郁症 8
投到 8
投票者 8
投身于 8
投进 8
抗洪 8
折中 8
折价 8
折起来 8
抛售 8
报喜 8
报案 8
报纸@@ 8
抬眼 8
抹黑 8
抻 8
押送 8
抽动 8
抽取 8
拄 8
担负起 8
拆借 8
拉到 8
拉屎 8
拉开@@ 8
拉拢 8
拍马屁 8
拐弯 8
拐过 8
拒绝@@ 8
拖拖拉拉 8
拖累 8
拘留所 8
招展 8
拜见 8
拧成一股绳 8
拼音 8
拿不出 8
拿手好戏 8
拿手菜 8
挂零 8
指使 8
指名 8
指明 8
指称 8
按下 8
挎包 8
挑毛病 8
挖井 8
挛 8
挤压 8
挨家挨户 8
挨过 8
挪用公款 8
挺胸 8
捂 8
捂着 8
捆住 8
捆好 8
捎色 8
捏着鼻子 8
捕猎 8
捞取 8
损失惨重 8
换货 8
捷@@ 8
掀动 8
掉头 8
掉落在 8
掌控 8
排在 8
排序 8
排座位 8
排档 8
排遣 8
探测器 8
探病 8
掣 8
接待@@ 8
控诉 8
推卸责任 8
推演 8
推选 8
提前竣工 8
插花 8
揣 8
搁浅 8
搅动 8
搜身 8
搞糟 8
搭桥 8
搭讪 8
携带@@ 8
摄像头 8
摄取量 8
摆正 8
摇动 8
摇滚音乐 8
摇着 8
摒@@ 8
摘录 8
摩托 8
摩托@@ 8
撑开 8
撕下 8
撕成 8
撕碎 8
撞车 8
撤兵 8
播放@@ 8
撰 8
撼@@ 8
操持 8
擦破 8
攘@@ 8
攫@@ 8
支配@@ 8
收支@@ 8
收钱 8
攸关 8
改换 8
改正@@ 8
改过自新 8
攻入 8
攻击力 8
放久 8
放些 8
放任不管 8
放糖 8
放纵 8
政治权利 8
故作 8
故而 8
效性 8
教义 8
教务 8
教职工 8
散失 8
散播 8
散散@@ 8
散漫 8
敬仰 8
敬畏 8
数字化 8
数学老师 8
数据库 8
数码@@ 8
敲门@@ 8
整备 8
整篇文章 8
敷衍了事 8
文件夹 8
文学理论 8
文章@@ 8
斑马 8
斗殴 8
斧@@ 8
断开 8
断水 8
断然拒绝 8
斯科 8
新人@@ 8
新出土 8
新官@@ 8
新宠 8
新派 8
新潮 8
新船 8
新芽 8
新装 8
新闻记者 8
新鞋 8
新鲜感 8
方可 8
方形 8
方方@@ 8
方正 8
方法论 8
方脸 8
施以 8
旁人 8
旁观者 8
旅费 8
无功 8
无形资产 8
无数@@ 8
无数个 8
无病呻吟 8
无线网络 8
无缺 8
无袖 8
无遗 8
无雨 8
日到 8
日常用品 8
日趋@@ 8
旧式 8
早该 8
旮@@ 8
旯 8
时所 8
时效 8
时机成熟 8
时限 8
明摆着 8
明显@@ 8
明月 8
明示 8
易拉罐 8
易燃 8
星座 8
星星点点 8
春游 8
春节@@ 8
春花 8
春运期间 8
显露 8
晒晒 8
晕头转向 8
晚间 8
晚风 8
晦涩 8
普遍化 8
晶晶 8
智利 8
暂 8
暖流 8
暗恋 8
暗斗 8
暗礁 8
暗色 8
暴发户 8
暴增 8
暴政 8
更强 8
更衣室 8
更重 8
曹操 8
曾多次 8
替身 8
最受 8
最新型 8
最晚 8
月色 8
有何感想 8
有制 8
有劲 8
有劳 8
有大 8
有始@@ 8
有幸 8
有心 8
有意@@ 8
有效期 8
有效率 8
有救 8
有物 8
有的是 8
有益健康 8
有鼻子有@@ 8
服务台 8
朕 8
朗朗 8
朝霞 8
木星 8
木耳 8
未婚@@ 8
本位 8
本儿 8
朴氏 8
朵朵 8
杀敌 8
杀猪 8
权力者 8
杆儿 8
来得早 8
杰@@ 8
松紧 8
板正 8
极刑 8
极右 8
极强 8
构架 8
枕套 8
林业 8
林中 8
枢@@ 8
枪毙 8
枫树 8
枯燥 8
柏 8
某一 8
查收 8
柿@@ 8
栅 8
标准语 8
标志牌 8
标示 8
栏目 8
树皮 8
栖息地 8
样貌 8
核化 8
核心@@ 8
核扩散 8
根本原因 8
格言 8
桂 8
桑拿浴 8
梦寐以求 8
梳得 8
检阅 8
棉布 8
棉絮 8
楼道 8
概 8
概括@@ 8
榨取 8
榻@@ 8
槐 8
横祸 8
横穿马路 8
橡子 8
欣 8
欧 8
欲求 8
欲绝 8
款待 8
歇会儿 8
正人君子 8
正正 8
正浓 8
正确认识 8
正音 8
武器@@ 8
武装力量 8
歪风邪气 8
死不@@ 8
死亡@@ 8
殉国 8
殊 8
残害 8
殚@@ 8
殷勤 8
每件 8
比如说 8
毕恭毕敬 8
民党 8
民意@@ 8
民浩一 8
民生问题 8
气势@@ 8
气象台 8
气象预报 8
氧化@@ 8
氯@@ 8
水后 8
水土 8
水渠 8
永洙 8
汇率@@ 8
江原 8
江陵 8
池子 8
污染物 8
污迹 8
汤姆 8
汤水 8
汤面 8
汽水 8
汽车修理 8
沉默寡言 8
沙特 8
没上 8
没敢 8
没有@@ 8
没脸 8
没错儿 8
沤 8
沥青 8
沧@@ 8
油油 8
油画 8
治疗@@ 8
治疗法 8
沾光 8
泊@@ 8
法国队 8
法学院 8
法网 8
法院院长 8
泛指 8
泛着 8
泡沫@@ 8
泡面 8
波澜@@ 8
泣@@ 8
泥浆 8
注明 8
泰然 8
泼出去 8
泼水 8
洋酒 8
洗头 8
洗好 8
洗澡水 8
洗脚 8
洗衣 8
洗过 8
活动家 8
活受罪 8
活络 8
流动性 8
流氓@@ 8
流汗 8
浇得 8
浇灌 8
浓重 8
浣熊 8
浩大 8
浪漫@@ 8
浮云 8
浮躁 8
海滨浴场 8
消停 8
消息人士 8
消息灵通 8
消毒@@ 8
消逝 8
消闲 8
涌来 8
涟漪 8
涨幅 8
涨得 8
涯 8
涯@@ 8
液化 8
淡雅 8
淫乱 8
深圳@@ 8
深爱 8
深色 8
混入 8
混合@@ 8
混蛋 8
添加剂 8
清早 8
清晰@@ 8
清澈见底 8
清闲 8
渊博 8
渊源 8
渔 8
渝 8
渠 8
温床 8
温情 8
温饱 8
源头 8
溢@@ 8
滑坡 8
滑头 8
滔@@ 8
满含 8
满头大汗 8
满意度 8
满洲 8
滴滴 8
滴落 8
漏税 8
演讲比赛 8
潜伏 8
潜心 8
潜水员 8
潭@@ 8
澎湃 8
澜 8
澡@@ 8
火儿 8
火药 8
火辣 8
灵便 8
灵验 8
灾祸 8
灾难@@ 8
炒冷饭 8
炒股 8
炕@@ 8
炳@@ 8
点前 8
点钱 8
炼油 8
烘托 8
烘烘 8
烟气 8
烟筒 8
烟雾弥漫 8
烤肉店 8
烧水 8
烧饼 8
热乎 8
热度 8
热忱 8
热气球 8
热烈鼓掌 8
热爱@@ 8
热诚 8
热身 8
照应 8
照得 8
照搬 8
照面 8
煮饭 8
煲 8
煳 8
熟练@@ 8
熥 8
燃料@@ 8
爆炸物 8
爆米花 8
爬满了 8
爬起来 8
爱国志士 8
爱犬 8
片酬 8
牛马 8
牧民 8
牵挂 8
牵涉到 8
特大 8
特许 8
特质 8
犄角 8
犹 8
狂妄 8
狗肉 8
独木@@ 8
独生子 8
独裁@@ 8
狭义 8
狮 8
狼吞虎咽 8
猛兽 8
猛扑 8
猜出 8
猩猩 8
猾 8
玄虚 8
王羲之 8
王陵 8
玩儿@@ 8
现代科学 8
现金交易 8
玲珑 8
玺 8
玻璃门 8
珠宝@@ 8
球技 8
琐 8
琼斯 8
瓶装 8
瓷砖 8
甘草 8
甚感 8
甜味 8
甜言蜜语 8
甜食 8
生产总值 8
生吃 8
生姜 8
生火 8
生路 8
用湿 8
用笔 8
甭@@ 8
田径运动 8
甲方 8
电冰箱 8
电扇 8
电脑病毒 8
男尊女卑 8
甸 8
甸@@ 8
画风 8
畔 8
畸@@ 8
疏松 8
疑心 8
疑难@@ 8
疟疾 8
疯子 8
疲劳过度 8
疼@@ 8
痛心 8
痛恨 8
痣 8
瘫 8
癖@@ 8
登山服 8
登山队员 8
白白浪费 8
白血@@ 8
百分之五 8
百合 8
百般@@ 8
皇室 8
皱眉头 8
盘儿 8
盛宴 8
盛装 8
盛赞 8
盲目@@ 8
直冒 8
直往 8
直截了当 8
相像 8
相差@@ 8
相适应 8
盼望已久 8
省会 8
省去 8
看准 8
看淡 8
真不@@ 8
真人 8
真实感 8
真得 8
真诚地 8
眨@@ 8
眼圈 8
眼帘 8
眼疾 8
眼病 8
眼皮@@ 8
眼睁睁 8
眼见 8
眼馋 8
着色 8
睁开眼 8
睛 8
睡大觉 8
睦 8
瞭@@ 8
矛盾激化 8
矢口否认 8
短篇 8
短跑 8
石榴 8
石膏 8
矿藏 8
研究课题 8
硅@@ 8
硌 8
硬实 8
硬盘 8
硬硬 8
确凿 8
碰头 8
碱@@ 8
碱性 8
磁场 8
磨不开 8
示牌 8
示范@@ 8
礼尚往来 8
社会舆论 8
祖国统一 8
祖宗 8
祝你们 8
神枪手 8
神殿 8
神经系统 8
神舟 8
神论 8
祭坛 8
禁止通行 8
禹 8
离了婚 8
离席 8
禾苗 8
秀气 8
私事 8
私人@@ 8
私心 8
私营 8
秃噜 8
秋雨 8
种上 8
科大学 8
科学界 8
科室 8
科幻@@ 8
租给 8
秦 8
秦始皇 8
积聚 8
移动@@ 8
移动电话 8
移开 8
稀里糊涂 8
稍等一下 8
税务@@ 8
稚@@ 8
稳住 8
稳稳 8
稿费 8
究@@ 8
空中@@ 8
空无一人 8
空白@@ 8
空空如也 8
空袭 8
空转 8
空运 8
空门 8
穿衣 8
突现 8
窜@@ 8
立交桥 8
立法@@ 8
立论 8
竖立 8
站成 8
端的 8
笑语 8
笔筒 8
笔迹 8
符@@ 8
第一份 8
第一号 8
第二名 8
等于零 8
答对 8
签名@@ 8
算不了 8
算账 8
管好 8
管委 8
管弦乐 8
管束 8
管理局 8
管用 8
箭头 8
籍@@ 8
米粉 8
米缸 8
粗气 8
粗浅 8
粗细 8
粗茶淡饭 8
粘土 8
粪便 8
精打细算 8
精神科 8
精诚团结 8
精选 8
糖浆 8
糯@@ 8
系统化 8
紊乱 8
素质教育 8
索桥 8
索要 8
紧密@@ 8
紧巴巴 8
紧紧抓住 8
累活 8
累赘 8
繁茂 8
红了眼 8
红了脸 8
红十字会 8
红外线 8
红彤彤 8
约束力 8
纪念塔 8
纪纲 8
纯正 8
纯熟 8
纯白 8
纷纷表示 8
纸上谈兵 8
纹章 8
纺@@ 8
纺织@@ 8
纽@@ 8
组合@@ 8
组委会 8
绅士风度 8
细细地 8
细细的 8
终场 8
终端 8
绊倒 8
经他 8
经得起 8
经济基础 8
经济学家 8
经济性 8
经纪 8
绑架@@ 8
结帐 8
结构性 8
绕行 8
绝无 8
绝症 8
统计数字 8
统计数据 8
绩@@ 8
绰绰有余 8
综艺节目 8
绿色@@ 8
缆 8
缓期 8
缔@@ 8
缘于 8
缝线 8
缩水 8
缰 8
缺水 8
罄 8
网球@@ 8
网络文学 8
网络版 8
罩@@ 8
置办 8
美好@@ 8
美英 8
羔@@ 8
群岛 8
翁 8
翔 8
翘起 8
翠 8
翻天覆地 8
翻来覆去 8
翻版 8
翻盘 8
翻脸 8
耀 8
老伴 8
老兄 8
老友 8
老大娘 8
老妇人 8
老妈 8
老姑娘 8
老手 8
考不上 8
考取 8
考究 8
考试及格 8
而动 8
而复@@ 8
而建 8
而谈 8
耍起 8
耐性 8
耙 8
耸立 8
职业联赛 8
联欢 8
肆@@ 8
肌肉发达 8
肖像权 8
肘子 8
肝脏 8
股子 8
股民 8
股票@@ 8
股票投资 8
肥皂@@ 8
肥胖症 8
肯干 8
育出 8
胀@@ 8
胁迫 8
胆大 8
胆大@@ 8
胆识 8
背井离乡 8
背得 8
背靠 8
胡噜 8
胡思乱想 8
胳膊@@ 8
胶水 8
胶片 8
胶鞋 8
能见度 8
脊 8
脊背 8
脏乱 8
脐 8
脑中 8
脑际 8
脖领 8
脚掌 8
脚气 8
脚部 8
脱离@@ 8
脸皮厚 8
脾气@@ 8
腑 8
腰包 8
腼腆 8
腾挪 8
臊@@ 8
自取 8
自得 8
自此 8
自食其@@ 8
臭小子 8
致谢 8
舒适感 8
舞曲 8
舟@@ 8
艮 8
良缘 8
良药 8
艰难@@ 8
艳丽 8
艺术界 8
节拍 8
芥 8
芥菜 8
芬芳 8
芭蕾舞 8
花心 8
花掉 8
花花 8
花销 8
苎麻 8
苒 8
苗条身材 8
若能 8
苦日子 8
苦读 8
苫 8
英姬 8
英语教育 8
英语考试 8
英超 8
英雄气概 8
苹果公司 8
茶几 8
草席 8
荏@@ 8
荣耀 8
药丸 8
药方 8
药草 8
荷包 8
莫非 8
获量 8
菲 8
营业部 8
营企业 8
营养元素 8
营利 8
落伍 8
著名人士 8
著名画家 8
著述 8
葛根 8
葡萄糖 8
董 8
葬品 8
葱花 8
蔚为壮观 8
蔼@@ 8
蔽 8
蕊 8
薄冰 8
藉 8
藏有 8
虚名 8
虚张声势 8
虫蛀 8
蚕室 8
蛰@@ 8
蜂窝 8
蜗牛 8
蜡笔 8
融为一体 8
融融 8
螺丝@@ 8
蟒蛇 8
血丝 8
血肉@@ 8
行道树 8
街市 8
街边 8
衙门 8
衣兜 8
衣袖 8
衣长 8
补上 8
补偿金 8
补选 8
表演者 8
表达能力 8
被叫 8
裂口 8
装帧 8
装模作样 8
裕@@ 8
褪去 8
西医 8
西斜 8
西瓜@@ 8
要员 8
要饭 8
见义勇为 8
见得 8
观赏@@ 8
规章 8
觅 8
觅@@ 8
视频@@ 8
觊觎 8
角角落落 8
解不开 8
解放出来 8
触碰 8
触觉 8
言行举止 8
警察@@ 8
计划书 8
计策 8
认死理 8
认生 8
训练有素 8
议席 8
议政 8
许多种 8
设计@@ 8
设计图 8
证明书 8
诉讼@@ 8
诊室 8
译成 8
试运行 8
试验@@ 8
诙谐 8
话筒 8
诡异 8
该校 8
诬 8
诱使 8
诱骗 8
说不完 8
说不清 8
说明会 8
说理 8
说话声 8
读后感 8
课时 8
调味料 8
调控 8
调教 8
谆@@ 8
谏 8
谓之 8
谚语 8
谜儿 8
谢罪 8
谣@@ 8
豪爽 8
豺@@ 8
贡 8
责任心 8
败北 8
贩毒 8
贪吃 8
贪图 8
购买@@ 8
购员 8
贸易逆差 8
贺卡 8
赃物 8
资料室 8
资金短缺 8
赈灾 8
赋 8
赏月 8
赔偿@@ 8
赚点 8
赞助商 8
赠送给 8
走入 8
走投无路 8
赶出来 8
赶超 8
超额 8
超额完成 8
越久 8
越往 8
越想 8
趣儿 8
趴窝 8
跨国企业 8
跨国公司 8
跳绳 8
跺 8
踊跃@@ 8
踏进 8
蹶@@ 8
身姿 8
身居高位 8
身材苗条 8
身材高大 8
躲到 8
躲藏在 8
车主 8
车前@@ 8
轨迹 8
轩@@ 8
轩昂 8
转交 8
转包 8
转手 8
转机 8
转给 8
转让权 8
轰隆隆 8
轱辘 8
轻举妄动 8
轻重缓急 8
轻飘飘 8
输光 8
辛勤劳动 8
辟 8
辣酱 8
过多地 8
过节儿 8
过门 8
迎头 8
迎新 8
运会 8
运输业 8
近在咫尺 8
近视 8
这书 8
这有 8
这班 8
这盒 8
进京 8
进口量 8
进场 8
进山 8
进行谈判 8
进贡 8
远比 8
远洋@@ 8
远海 8
远行 8
违抗 8
违约 8
连带@@ 8
连根@@ 8
迟疑 8
迪斯尼 8
迷失 8
迷彩 8
迷离 8
迷糊 8
迷迷糊糊 8
退位 8
退化 8
退堂鼓 8
退票 8
送货上门 8
适者生存 8
逆贼 8
选择地 8
选择性 8
透着 8
逐 8
逐条 8
逗乐 8
逗我 8
通信网 8
通关 8
通晓 8
通用@@ 8
通融 8
通话@@ 8
通货紧缩 8
逛逛 8
逝者 8
速滑 8
造作 8
造反 8
造田 8
遍布 8
道奇 8
遗 8
遗落 8
遛@@ 8
遮蔽 8
邂逅 8
那起 8
邮戳 8
部门经理 8
都是 8
酒劲 8
酒桌 8
酒瓶 8
酒疯 8
酒类 8
酒精中毒 8
酒醉 8
酸性 8
酸雨 8
醉意 8
采取@@ 8
采取行动 8
采录 8
采蜜 8
重复@@ 8
重大事故 8
重建家园 8
重申 8
重镇 8
野蛮@@ 8
野马 8
金将军 8
针刺麻醉 8
针对性 8
钟情 8
钟爱 8
钟路 8
钢琴@@ 8
钳 8
钳@@ 8
钻探 8
铁路@@ 8
铅笔@@ 8
铡刀 8
银杏叶 8
铸就 8
链@@ 8
销毁 8
锁定 8
锁门 8
锄 8
锅台 8
锐气 8
错字 8
错车 8
锚 8
锣鼓 8
锤炼 8
锥子 8
锦湖 8
镜框 8
长叹 8
长白山 8
长篇 8
长袍 8
长颈鹿 8
长鼓 8
门徒 8
门柱 8
门道 8
闭幕式 8
问号 8
问心无愧 8
问答 8
闲杂@@ 8
闲话少说 8
闷闷不乐 8
闹剧 8
闹市 8
阙 8
队里 8
防治 8
防空 8
防腐剂 8
阴郁 8
阵线 8
阻隔 8
阿Q 8
降至 8
陶 8
陶瓷器 8
陷落 8
隐匿 8
隐情 8
隔膜 8
障眼法 8
隶 8
隶@@ 8
难以想象 8
难用 8
集合@@ 8
雌雄 8
雕刻@@ 8
雕饰 8
雨过天晴 8
雪亮 8
零上 8
零分 8
零活儿 8
震耳欲聋 8
霭 8
青云 8
青天 8
青铜 8
青龙 8
静悄悄 8
静物画 8
靠不住 8
面对现实 8
面相 8
面额 8
韩亚 8
韩华 8
韩裔 8
韩食 8
音频 8
顶不住 8
顸 8
顺势 8
顾不上 8
顾名思义 8
领先@@ 8
领土问题 8
颗粒@@ 8
颚 8
风口 8
风吹雨打 8
风大 8
风太大 8
风尚 8
风趣 8
风风火火 8
飘来 8
飞奔 8
飞过去 8
飞黄腾达 8
食宿 8
食量 8
饬 8
饭前 8
饭时间 8
饷 8
馀 8
馊@@ 8
香皂 8
马屁 8
马拉松赛 8
马格利 8
马桶 8
马达 8
驾驶者 8
骑士 8
骥 8
高唱 8
高层人士 8
高峰期 8
高档@@ 8
高档商品 8
高照 8
高等 8
高考@@ 8
鬼脸 8
魁 8
魏 8
鱼竿 8
鱼虾 8
鲭 8
鳟鱼 8
鸟叫声 8
鸟巢 8
鸟笼 8
鸣叫 8
鸦@@ 8
鹅毛 8
麻料 8
麻木不仁 8
麻酥酥 8
黄金周 8
黄铜 8
黑乎乎 8
黑影 8
黑板擦 8
黑黑的 8
默认 8
默默无闻 8
黯@@ 8
鼎 8
鼓舞人心 8
鼓鼓 8
齉 8
龄@@ 8
100@@ 7
105 7
1400 7
14k 7
1600 7
1950 7
1973 7
1986 7
1988 7
360 7
71 7
84 7
9.11 7
9.@@ 7
9000 7
911 7
94 7
CD 7
K@@ 7
KTV 7
P 7
U 7
ch 7
dow@@ 7
er@@ 7
pe@@ 7
po@@ 7
x@@ 7
一上台 7
一丝@@ 7
一个班 7
一二 7
一亿 7
一冲 7
一分为二 7
一刻不停 7
一喊 7
一声不响 7
一大半 7
一大跳 7
一天@@ 7
一尊 7
一巴掌 7
一扫而光 7
一扫而空 7
一把抓 7
一时半会儿 7
一死 7
一百多 7
一盘@@ 7
一瞥 7
一瞬 7
一程 7
一线@@ 7
一而@@ 7
一股脑儿 7
一般见识 7
一节 7
一表@@ 7
一览 7
一触即发 7
一言以蔽之 7
一语@@ 7
一课 7
一路平安 7
一身@@ 7
一酸 7
一队 7
一阵@@ 7
一面@@ 7
一马 7
丁克 7
七上八下 7
七夕 7
七尺 7
万两 7
万众一心 7
万多名 7
万日元 7
三伏 7
三四次 7
三块 7
三天@@ 7
三张 7
三明治 7
三点钟 7
三百块 7
三面 7
上下文 7
上个世纪 7
上个星期 7
上以 7
上扎 7
上扬 7
上气不接下气 7
上浮 7
上级指示 7
上门来 7
下发 7
下回 7
下回分解 7
下心来 7
下楼梯 7
下气 7
下行 7
下课铃 7
下风 7
下馆子 7
不了@@ 7
不争 7
不亦乐乎 7
不值一提 7
不全 7
不兴 7
不减 7
不分彼此 7
不办 7
不加 7
不单@@ 7
不单是 7
不及@@ 7
不合时宜 7
不堪回首 7
不失 7
不孕 7
不容许 7
不强 7
不忘@@ 7
不忙 7
不慌不忙 7
不敢当 7
不无@@ 7
不毛之地 7
不济 7
不深 7
不满情绪 7
不相称 7
不着@@ 7
不老 7
不良习惯 7
不菲 7
不落@@ 7
不言 7
不言@@ 7
不计@@ 7
不赖 7
不辣 7
不进则退 7
不逊于 7
不释@@ 7
不闻不问 7
不顾一切 7
不高@@ 7
与世@@ 7
丑事 7
丑态 7
专业人才 7
专业化 7
专业课 7
专柜 7
专程 7
世世代代 7
世界史 7
东亚@@ 7
东流 7
东道主 7
丝巾 7
两双 7
两可 7
两国政府 7
两幅 7
两座 7
两日 7
两码事 7
两重@@ 7
两门 7
两面派 7
严格执行 7
丧主 7
丧子 7
个体户 7
个别人 7
个性化 7
个数 7
中去 7
中型 7
中央银行 7
中尉 7
中小型 7
中年妇女 7
中文@@ 7
中校 7
中生@@ 7
中转 7
中锋 7
丰年 7
串串 7
临到 7
临场 7
临海 7
丸子 7
丹东 7
丹青 7
为业 7
为数不多 7
为题 7
主修 7
主创 7
主办@@ 7
主办单位 7
主导地位 7
主持@@ 7
主攻 7
主队 7
举例@@ 7
举手@@ 7
举足轻重 7
久性 7
久病 7
义工 7
义气 7
之众 7
之功 7
之夜 7
之子 7
之年 7
之日 7
之源 7
之火 7
之王 7
之理 7
之长 7
乌拉圭 7
乌贼 7
乌龙 7
乘法 7
乘船 7
乞 7
习习 7
乡里 7
乡音 7
书刊 7
书名 7
书面@@ 7
买入 7
乳房 7
乳液 7
了不得 7
了人 7
了心 7
事业成功 7
事全 7
事大 7
二十万 7
二千 7
二审 7
二层 7
二斤 7
云云 7
云散 7
互惠 7
互相交换 7
互通 7
五体投地 7
五元 7
五十周年 7
五十年 7
五百元 7
五花八门 7
亚太 7
亚马@@ 7
亢@@ 7
交上来 7
交不起 7
交互 7
交叉@@ 7
交手 7
交账 7
交通安全 7
交通法规 7
产业界 7
亮亮的 7
亮闪闪 7
亲北 7
亲戚朋友 7
亲昵 7
亲生@@ 7
亲笔@@ 7
亲自@@ 7
人云亦云 7
人后 7
人员名单 7
人声鼎沸 7
人往 7
人性化 7
人手@@ 7
人才培养 7
人无@@ 7
人材 7
人比 7
人民银行 7
人越 7
人身攻击 7
人迹 7
人间天堂 7
人队 7
人靠 7
亿吨 7
仁寺 7
仅次于 7
仆@@ 7
从今@@ 7
从心 7
从政 7
从早到晚 7
从明年起 7
从轻@@ 7
仔细检查 7
仕 7
他养 7
他妈 7
他学 7
他念 7
他手 7
他生 7
他端 7
他算 7
他读 7
他进 7
付印 7
付清 7
付诸实施 7
代码 7
代表@@ 7
令人欣慰 7
令人费解 7
令人鼓舞 7
以三比 7
以北 7
以南 7
以期 7
仰承 7
件套 7
任命权 7
仿冒 7
仿制品 7
仿效 7
仿照 7
仿真 7
企业形象 7
优厚 7
优胜 7
会地点 7
会子 7
会议记录 7
传家宝 7
伤透 7
伤食 7
伪装成 7
伯伯 7
伶@@ 7
伸缩性 7
伸腰 7
伺@@ 7
似是而非 7
伽@@ 7
低低 7
低洼@@ 7
低热量 7
低音 7
住宅楼 7
住房问题 7
住持 7
体形 7
体统 7
体育健儿 7
何事 7
余种 7
佛堂 7
佛教界 7
作乐 7
作假 7
作成 7
作画 7
作证 7
你一言我一语 7
佩带 7
佳境 7
佳肴 7
佻 7
侃 7
侈 7
例会 7
侍者 7
供需@@ 7
供餐 7
依然如故 7
便宜@@ 7
便条 7
俄 7
俏皮 7
俗世 7
保修 7
保卫@@ 7
保护区 7
保持平衡 7
保持者 7
保险柜 7
俟 7
信上 7
信义 7
信任危机 7
信号弹 7
信息产业 7
信托@@ 7
信用等级 7
俭 7
修女 7
修完 7
俱下 7
俱全 7
倒像 7
倒掉 7
倦@@ 7
值此 7
倾慕 7
假托 7
假货 7
假酒 7
偌大 7
偏僻地区 7
偏重 7
做手势 7
做贼心虚 7
停当 7
停息 7
停滞不前 7
健美操 7
偶然性 7
偷来 7
偷税 7
催化剂 7
催着 7
儿来 7
元气 7
充满生机 7
先入@@ 7
先吃点 7
先放 7
先机 7
先来@@ 7
先要 7
光明磊落 7
光洁 7
光看 7
光速 7
克萨@@ 7
兜翻 7
入云 7
入梦 7
入神 7
入秋 7
全人类 7
全村人 7
全美 7
八分 7
八小时 7
八旬 7
八百 7
八辈子 7
公之@@ 7
公共财产 7
公安@@ 7
公家 7
公寓式 7
公益事业 7
六人 7
共生 7
关税壁垒 7
关系融洽 7
兴亡 7
兴修水利 7
兴冲冲 7
兴头 7
兵营 7
其乐@@ 7
养大 7
养鸡@@ 7
兼顾 7
内乱 7
内在美 7
冉冉升起 7
册@@ 7
再也不会 7
再创 7
再大 7
再嫁 7
再次出现 7
冒尖 7
冒雨 7
写字@@ 7
写明 7
写真 7
写道 7
军民 7
军民@@ 7
军法 7
军用飞机 7
军警 7
军训 7
农民工 7
冠冕堂皇 7
冤屈 7
冬去春来 7
冲上 7
冲上去 7
冲绳 7
决定权 7
决断力 7
决然 7
决算 7
决胜 7
冷天 7
冷藏 7
凄 7
准是 7
准许 7
凉意 7
凌空 7
减半 7
凑合着 7
凑齐 7
凝望 7
凝重 7
几十名 7
几千 7
几千年 7
几小时 7
几座 7
几本 7
几朵 7
几样 7
几近 7
几部 7
几页 7
几首 7
凯旋 7
出书 7
出人@@ 7
出份子 7
出租@@ 7
出租房 7
出租汽车 7
出航 7
出货 7
击球员 7
击破 7
击碎 7
刀枪 7
刀片 7
分支 7
分文 7
分期 7
分门别类 7
切割 7
切好 7
切尔 7
切身@@ 7
刑事案件 7
刑量 7
划伤 7
划清@@ 7
列车运行 7
则无@@ 7
刚强 7
初学 7
判处@@ 7
判断@@ 7
判若@@ 7
利亚@@ 7
利害@@ 7
别具一格 7
别往 7
别有@@ 7
别来 7
别老是 7
刮目相看 7
到处跑 7
到老 7
制假 7
制度性 7
制片@@ 7
剂@@ 7
削发 7
削尖 7
削皮 7
前三名 7
前妻 7
前途@@ 7
剧目 7
副会长 7
副本 7
劈脸 7
力图 7
办事效率 7
办到 7
办喜事 7
功底 7
功成名就 7
功率 7
加工厂 7
加强@@ 7
加进 7
动性 7
动窝 7
动脉@@ 7
劳模 7
势必会 7
勇于创新 7
勒得 7
勘 7
募 7
募@@ 7
勾勒 7
包了 7
包子@@ 7
包涵 7
化作用 7
北道 7
北面 7
匣子 7
匹马 7
医药@@ 7
匾 7
十万块 7
十分困难 7
十多个 7
十字架 7
千字文 7
千载@@ 7
升学 7
午觉 7
半句 7
半场 7
半山腰 7
半数以上 7
半生 7
半边天 7
华尔街 7
华美 7
单调@@ 7
卖乖 7
卖出去 7
卖家 7
卖方 7
卖火柴 7
博士论文 7
占有率 7
占领军 7
卡其色 7
卡拉 7
卡片 7
卡路里 7
卤 7
卫冕@@ 7
卫星电视 7
卫队 7
印刷术 7
印尼 7
印鉴 7
却步 7
卸任 7
历尽艰辛 7
历练 7
厚厚 7
厚薄 7
厚重 7
原子力 7
原版 7
厦@@ 7
厨房用品 7
去不成 7
参与@@ 7
参看 7
及时@@ 7
及时雨 7
友军 7
双肩 7
双边 7
反对党 7
反思 7
反战 7
发传单 7
发动战争 7
发展趋势 7
发式 7
发毛 7
发病率 7
发祥地 7
发胀 7
发言权 7
发话 7
发颤 7
取水 7
受之@@ 7
受众 7
受刺激 7
受压迫 7
受审 7
变性 7
变暗 7
变热 7
变短 7
变种 7
叛 7
叠得 7
口头禅 7
口臭 7
口试 7
口说 7
口蹄疫 7
古城 7
古汉语 7
另有@@ 7
另行@@ 7
叨@@ 7
只读 7
叫个不停 7
叫喊声 7
可待 7
可悲 7
可拆卸 7
可靠@@ 7
史前时代 7
史实 7
史密斯 7
右臂 7
吃海鲜 7
吃苦头 7
各报 7
各门 7
各队 7
吆喝 7
合不拢嘴 7
合影留念 7
合抱 7
合法化 7
合理@@ 7
吉普@@ 7
同乡 7
同僚 7
同届 7
同年 7
同情心 7
同步 7
同班同学 7
同等@@ 7
同类 7
同谋 7
同门 7
名将 7
名曰 7
名贵 7
名额有限 7
后备@@ 7
后排 7
后生 7
后继@@ 7
后裔 7
吐气 7
向型 7
向日葵 7
吞吞 7
吞并 7
听讲 7
吵过 7
吸溜 7
吸管 7
吹喇叭 7
吹嘘 7
吼@@ 7
吼叫 7
呆会 7
呆子 7
呛得 7
周二 7
周四 7
周旋 7
周边地区 7
周边旅游 7
呲 7
味觉 7
呼之@@ 7
呼吸声 7
命案 7
咆@@ 7
咋办 7
咋舌 7
咕咚 7
咕咚@@ 7
咱家 7
咸不@@ 7
哄堂大笑 7
哄骗 7
哈哈@@ 7
哈尔@@ 7
哑巴 7
哥们儿 7
哥伦比亚 7
哩哩@@ 7
哪边 7
哭丧着脸 7
哭诉 7
唆使 7
唐诗 7
唔 7
唧唧 7
唷 7
商业区 7
商业性 7
商业银行 7
商住 7
商城 7
啐 7
啦@@ 7
啧@@ 7
啸@@ 7
喂食 7
喃@@ 7
善后 7
善行 7
喋喋不休 7
喘息 7
喜酒 7
喜马拉雅山 7
喝下去 7
喝碗 7
喧闹声 7
喷射 7
喷水 7
嗤之以鼻 7
嘁嘁喳喳 7
嘟 7
嘟嘟@@ 7
嘲 7
嘴刁 7
器重 7
四口 7
四围 7
四壁 7
四处@@ 7
四处寻找 7
四散 7
四时 7
四舍五入 7
四边形 7
回事儿 7
回击 7
回敬 7
回顾过去 7
回馈 7
因人而异 7
因果关系 7
团队精神 7
困了 7
困在 7
困死 7
困苦 7
固定@@ 7
国事 7
国务委员 7
国国民 7
国土开发 7
国土面积 7
国家机关 7
国有@@ 7
国有资产 7
国立中央 7
国粹 7
国语课 7
国际标准 7
国际舞台 7
图中 7
图强 7
圈儿 7
土星 7
土路 7
土里 7
土里土气 7
在必@@ 7
在我心中 7
地买 7
地会 7
地奔 7
地好 7
地是 7
地气 7
地滚 7
地训 7
地面@@ 7
场比赛 7
坊@@ 7
坏掉 7
坐到 7
坐卧不安 7
坐姿 7
坐电梯 7
块块 7
坚 7
坚毅 7
坚韧不拔 7
坠毁 7
坡顶 7
坯@@ 7
垦 7
垫补 7
埋头@@ 7
城外 7
城镇@@ 7
培训@@ 7
基有 7
基本建设 7
基础科学 7
堆儿 7
堆起 7
堆里 7
堡垒 7
填上 7
填膺 7
境况 7
墙砖 7
增产节约 7
增值 7
增派 7
墨水瓶 7
壮举 7
壮志 7
壮阔 7
声乐 7
声望 7
声色 7
壶@@ 7
处女作 7
备考 7
备至 7
复印件 7
复古风 7
复工 7
复职 7
夏令营 7
夕@@ 7
外公 7
外场 7
外屋 7
外来语 7
外汇储备 7
外泄 7
外长 7
多件 7
多吃点 7
多得多 7
多户 7
多管闲事 7
多蒙 7
多谢 7
多难 7
夜不@@ 7
夜战 7
大二 7
大公无私 7
大半天 7
大卖 7
大卡车 7
大吵 7
大型化 7
大声疾呼 7
大小便 7
大展 7
大帽子 7
大庭广众 7
大忙 7
大惊小怪 7
大打出手 7
大打折扣 7
大放@@ 7
大有人在 7
大满贯 7
大红@@ 7
大老@@ 7
大船 7
大西洋 7
大话 7
大跌眼镜 7
大道理 7
大雨@@ 7
大革命 7
天下人 7
天刚 7
天南@@ 7
天敌 7
天花乱坠 7
太早 7
太近 7
夫妻生活 7
夯 7
失业人数 7
失控 7
失言 7
头像 7
头晕@@ 7
头版 7
头版@@ 7
奇怪的是 7
奉献@@ 7
奋勇@@ 7
奋斗@@ 7
奋进 7
奖赏 7
套子 7
套牢 7
奥地利 7
女娲 7
女式 7
女性化 7
女队 7
好去处 7
好得多 7
好极了 7
好笑 7
好胜 7
如出@@ 7
如注 7
妄为 7
妇产@@ 7
妇女儿童 7
妖魔鬼怪 7
妩媚 7
妯娌 7
姆@@ 7
姆斯 7
姆斯@@ 7
始终@@ 7
姑息 7
委任 7
委婉 7
姥爷 7
威武 7
威风凛凛 7
娄@@ 7
娘们 7
娱@@ 7
娶亲 7
婚人 7
婚姻大事 7
婢@@ 7
婴儿车 7
嫁人 7
嫉@@ 7
嫌烦 7
嬉闹 7
子军 7
子孙后代 7
存留 7
存货 7
存钱罐 7
孙中山 7
孜孜@@ 7
孝敬 7
学习者 7
学子 7
学年 7
学而 7
学风 7
孱@@ 7
宇宙空间 7
守候 7
守规矩 7
守财奴 7
守门 7
安全检查 7
安娜 7
安安@@ 7
安安静静 7
完全同意 7
完胜 7
定了 7
定例 7
定罪 7
宝剑 7
实利 7
实证 7
实难 7
客们 7
客船 7
客观规律 7
客队 7
室友 7
宪章 7
宫女 7
害人@@ 7
害性 7
害者 7
宵 7
家境贫困 7
家境贫寒 7
家子 7
家庭成员 7
家族@@ 7
家有 7
家用电器 7
寄存 7
寄放在 7
寄生虫 7
密林 7
富士山 7
富贵@@ 7
富饶 7
寒暄 7
寓@@ 7
寥寥无几 7
对不上 7
对接 7
对话@@ 7
寺@@ 7
导火索 7
导火线 7
导盲犬 7
封建制度 7
射进 7
小人物 7
小企业 7
小伙 7
小兔子 7
小刀 7
小卖部 7
小号 7
小吃部 7
小商贩 7
小家庭 7
小市民 7
小把戏 7
小日子 7
小毛病 7
小猴子 7
小睡 7
小碗 7
小草 7
小菜一碟 7
小视 7
小鞋 7
小额 7
小马 7
少尉 7
少说废话 7
尖端科学 7
尘土飞扬 7
尚早 7
就义 7
尼古@@ 7
尼斯 7
尽心 7
尽着 7
尽责 7
尽量减少 7
局外人 7
局部地区 7
居家 7
屋后 7
屋脊 7
展会 7
展厅 7
屡 7
履行合同 7
岗哨 7
岳飞 7
峨@@ 7
峭 7
崇尚 7
川菜 7
工业品 7
工业用 7
工作服 7
工作进度 7
工商业 7
工程进度 7
工艺@@ 7
左右摇摆 7
左脚 7
左腿 7
巧合 7
巨著 7
巨额@@ 7
差得远 7
巴巴@@ 7
市面 7
布朗 7
希特勒 7
帐户 7
席卷@@ 7
常青 7
幅员辽阔 7
干儿 7
平均分配 7
平安地 7
平平 7
平房 7
平滑 7
平缓 7
年事已高 7
年代久远 7
年制 7
年头儿 7
年收入 7
年满 7
年老@@ 7
年青人 7
并举 7
并于 7
幸运地 7
幻灯片 7
幽香 7
广大读者 7
庄稼人 7
庆功@@ 7
床铺 7
库存@@ 7
应届 7
应验 7
底片 7
府上 7
废料 7
度量 7
庶子 7
庸置疑 7
建厂 7
建材 7
建设费 7
开业@@ 7
开凿 7
开始运行 7
开拍 7
开春 7
开灯 7
开盘 7
开窍 7
开课 7
开过 7
异物 7
弄不好 7
弄乱 7
弄脏 7
引出 7
引渡 7
弗 7
弘益 7
弥撒 7
弱化 7
强凌弱 7
强加 7
强悍 7
强烈抗议 7
强硬措施 7
强迫@@ 7
强迫观念 7
归为 7
归宿 7
归根@@ 7
归结 7
当事@@ 7
当地@@ 7
当头@@ 7
当选者 7
当道 7
形影不离 7
彩纸 7
影儿 7
彼岸 7
往上@@ 7
往复 7
往昔 7
征婚 7
征文 7
待会儿 7
很久很久 7
很凉 7
很坏 7
很多遍 7
很粗 7
律师@@ 7
律法 7
徒劳 7
徒手 7
得主 7
得力助手 7
得动 7
得势 7
得过 7
循环@@ 7
循环赛 7
微型 7
德国@@ 7
德性 7
德里 7
心上人 7
心仪 7
心儿 7
心动@@ 7
心如@@ 7
心心@@ 7
心慈@@ 7
心有余而力不足 7
心焦 7
心盛 7
心窝 7
心窝子 7
心绪 7
心醉 7
忌妒 7
忐忑不安 7
志士 7
忧心忡忡 7
快用 7
快餐@@ 7
念完 7
念念@@ 7
念过 7
忽明忽暗 7
忽闪 7
怀中 7
怀旧 7
怄@@ 7
怆 7
怕老婆 7
思想家 7
思想观念 7
思维能力 7
怠@@ 7
性价比 7
性情温和 7
性格不合 7
性格开朗 7
性犯罪 7
总决赛 7
总局 7
总归 7
总结报告 7
总计 7
总说 7
恢复原状 7
恬@@ 7
恬静 7
息贷款 7
恶战 7
恼怒 7
悄@@ 7
悄悄的 7
悄悄话 7
悉尼 7
悠扬 7
患难 7
悦耳 7
悬河 7
悲愤 7
悼@@ 7
情势 7
情报搜集 7
情深 7
情绪化 7
惶惶不安 7
惹火 7
愈益 7
意料 7
感官 7
感慨万千 7
感激涕零 7
慢性子 7
慢悠悠 7
慢慢说 7
憋不住 7
憋气 7
憎 7
懒洋洋 7
成份 7
成佛 7
成套 7
成形 7
成排 7
成瘾 7
成色 7
成行 7
成龙 7
我别 7
我开 7
我行我素 7
我过 7
我长 7
戒严令 7
或用 7
战战兢兢 7
战犯 7
战略要地 7
截断 7
截获 7
戳穿 7
戴帽子 7
房前 7
所写 7
所受 7
所欠 7
扁平 7
手动@@ 7
手握 7
手时 7
手稿 7
手纸 7
扎挣 7
扑面而来 7
扒手 7
打不着 7
打分 7
打好 7
打屁股 7
打底 7
打掩护 7
打搅 7
打散 7
打水 7
扔下 7
扔给 7
托盘 7
托管 7
扛起 7
执掌 7
扬名 7
扭扭 7
扯平 7
扳机 7
批驳 7
找不出 7
找不着 7
找死 7
承揽 7
技术性 7
抄没 7
抑或 7
抑扬顿挫 7
抓破 7
投机取巧 7
投资额 7
折合 7
抚慰 7
抢购 7
报刊杂志 7
报到 7
报名费 7
报警@@ 7
披着 7
抬起头来 7
抽抽 7
抽水 7
担保人 7
担架 7
拆迁户 7
拇@@ 7
拈@@ 7
拉丁语 7
拉倒 7
拉动 7
拉斯维加斯 7
拍下 7
拍卖会 7
拍电影 7
拔地而起 7
招商引资 7
招摇@@ 7
招数 7
拜佛 7
拧成 7
拭目以待 7
拮据 7
拷打 7
拼凑 7
拿个 7
拿大头 7
持不下 7
挂钩 7
指手划脚 7
指挥权 7
指针 7
按压 7
按规定 7
按部就班 7
按铃 7
挑出来 7
挑拨离间 7
挟@@ 7
挥之@@ 7
挨肩@@ 7
挨近 7
振作@@ 7
挺括 7
挺进 7
捂住 7
捉贼 7
捞起 7
损人@@ 7
损耗 7
换下 7
换车 7
换钱 7
捣碎 7
捣蛋鬼 7
据我所知 7
捯 7
掀 7
掉下去 7
掏耳朵 7
掐算 7
排放@@ 7
排满 7
排起 7
探求真理 7
接上 7
接待室 7
推敲 7
推杆 7
掰开 7
掺水 7
提不起 7
提神 7
插脚 7
握紧拳头 7
搁下 7
搁不下 7
搌 7
搜刮 7
搞垮 7
搞活经济 7
搬弄 7
搭帐篷 7
摇头@@ 7
摈弃 7
摊儿 7
摊贩 7
摔伤 7
摔坏 7
摔打 7
摔破 7
摘除 7
摸摸 7
撇下 7
撑起 7
撒上 7
撒哈@@ 7
撒气 7
撞倒 7
撞坏 7
撤职 7
撩 7
撬 7
撸 7
撼 7
擂@@ 7
操之过急 7
操控 7
擦屁股 7
擦干 7
擦皮鞋 7
擦肩而过 7
攀比 7
支使 7
支柱产业 7
收入水平 7
收好 7
收工 7
收效 7
收益@@ 7
收藏家 7
收走 7
收银@@ 7
收音 7
改了 7
改改 7
改版 7
改行 7
攻克 7
攻占 7
放映@@ 7
放荡 7
政绩 7
故土 7
效用 7
敌国 7
救命 7
救治 7
救生 7
教工 7
教组 7
教课 7
敝@@ 7
敞亮 7
敬酒 7
数以@@ 7
数到 7
数十名 7
数月 7
数百人 7
数着 7
数落 7
敲得 7
整场 7
文人@@ 7
文字@@ 7
文学性 7
文本 7
文理 7
文集 7
斗不过 7
斜坡 7
断奶 7
断电 7
新增 7
新篇章 7
方位 7
施工方 7
旁观 7
旅游景点 7
旅行@@ 7
旅行包 7
旅行支票 7
旌@@ 7
旗手 7
旗袍 7
旗飘扬 7
旗鼓 7
无人驾驶 7
无以 7
无伤大雅 7
无声@@ 7
无处@@ 7
无处不在 7
无度 7
无据 7
无敌 7
无权 7
无法控制 7
无缝 7
无罪释放 7
无菌 7
无边无际 7
日文 7
日晚 7
日益加剧 7
日程@@ 7
旦@@ 7
旧书店 7
早婚 7
时事@@ 7
时得 7
时空 7
时针 7
旷工 7
昂首@@ 7
明了 7
明令禁止 7
明早 7
明确@@ 7
昏昏沉沉 7
易学 7
星期三 7
星期四 7
星级 7
星辰 7
春困 7
昧良心 7
显著@@ 7
晃悠 7
晌 7
晚到 7
晚婚 7
晚安 7
晚归 7
晦@@ 7
晦气 7
景致 7
晶 7
智异 7
晾衣服 7
暗门 7
暴力行为 7
暴晒 7
暴食 7
暴饮 7
曲线@@ 7
曲艺 7
更名 7
替罪羊 7
替补 7
最小化 7
最矮 7
有偿 7
有分寸 7
有利条件 7
有口@@ 7
有增无@@ 7
有头@@ 7
有如 7
有形 7
有心人 7
有才干 7
有据 7
有数 7
有点咸 7
有线 7
有缘 7
有股 7
有话@@ 7
有话直说 7
服务质量 7
服输 7
朝夕 7
朝鲜语 7
木块 7
木棍 7
木槿花 7
木筏 7
未卜 7
未定 7
未成年 7
未有 7
未来@@ 7
未然 7
末年 7
本上 7
本世纪 7
本本 7
本行 7
札 7
朴周 7
朴泰桓 7
朵@@ 7
机会主义 7
机密文件 7
杀伤力 7
杀伤性 7
杀气 7
杂工 7
杂技表演 7
杂文 7
杂杂 7
杂草丛生 7
杂货铺 7
权力斗争 7
权威人士 7
权威性 7
权宜之计 7
权当 7
权衡 7
李派 7
村后 7
束手@@ 7
杠@@ 7
条幅 7
条条 7
条条框框 7
来函 7
来接 7
来此 7
来稿 7
杳无@@ 7
松子 7
松糕 7
板块 7
板着脸 7
板车 7
极佳 7
析@@ 7
果不其然 7
果岭 7
果敢 7
果皮 7
果肉 7
某大学 7
某日 7
某某 7
柑@@ 7
查访 7
栋梁 7
校友会 7
校外 7
株@@ 7
核反应堆 7
根本@@ 7
根究底 7
根问底 7
格格@@ 7
格鲁吉亚 7
桂冠 7
桌角 7
桎@@ 7
桑拿 7
桔梗 7
梅子 7
梦之队 7
梦幻般 7
梦话 7
梧桐 7
梯次 7
梯田 7
检票口 7
棉衣 7
棉裤 7
棉质 7
森林浴 7
棱镜 7
椒@@ 7
楔子 7
楼层 7
概论 7
概述 7
榜@@ 7
横向 7
横竖 7
橄榄@@ 7
橙汁 7
檀@@ 7
欠妥 7
欠安 7
欠揍 7
次于 7
次长 7
欢度 7
歉疚 7
歌舞@@ 7
止渴 7
正中间 7
正当性 7
正经事儿 7
正经八百 7
正经话 7
此时此刻 7
此药 7
武士 7
武官 7
歹 7
死不活 7
死因 7
死对头 7
死死 7
死要@@ 7
死鬼 7
歼@@ 7
残局 7
残疾儿童 7
残障 7
殴 7
殷 7
母子 7
母猪 7
每场 7
每坪 7
毒瘤 7
比上 7
比人 7
比基尼 7
比拟 7
比画 7
比着 7
比赛@@ 7
比赛规则 7
比较慢 7
毛孩子 7
毛毛@@ 7
毫无顾忌 7
毽子 7
民意调查 7
民浩为 7
民间团体 7
气十足 7
气气 7
气焰 7
气管炎 7
氢气 7
水儿 7
水利@@ 7
水利工程 7
水往 7
水性 7
水果店 7
水柱 7
水气 7
水波 7
水落石出 7
求人 7
求情 7
汇聚 7
汉朝 7
汗如@@ 7
汗青 7
汝@@ 7
污垢 7
污染环境 7
汤圆 7
汰 7
汶 7
汽车尾气 7
汽车集团 7
沉入 7
沉沉的 7
沉船 7
沉静 7
沙土 7
沙滩排球 7
沙特阿拉伯 7
没人能 7
没变 7
没处 7
没头没脑 7
没洗 7
沧桑 7
河川 7
沸 7
油井 7
油水 7
油纸 7
油门 7
沼@@ 7
沾水 7
沾湿 7
沿途 7
法律效力 7
泡泡 7
泥于 7
泥沙 7
泥滩 7
泥潭 7
注销 7
洗澡@@ 7
洗钱 7
洛伊@@ 7
洞洞 7
洞穿 7
活像 7
活计 7
活钱儿 7
洽@@ 7
派往 7
流传开来 7
流落 7
流行起来 7
流鼻涕 7
浅色 7
浇上 7
浑身上下 7
浑身解数 7
浚 7
浴场 7
海南岛 7
海岛 7
海平线 7
海平面 7
海水浴 7
海洋生物 7
海湾 7
海狗 7
涂得 7
消毒柜 7
消耗量 7
涌动 7
涧 7
涨到 7
涨工资 7
液晶@@ 7
涵养 7
淋着 7
淑@@ 7
淘 7
淡季 7
淤青 7
深山@@ 7
混战 7
混日子 7
混淆 7
添上 7
清一色 7
清冷 7
清朗 7
清泉 7
清账 7
渍@@ 7
渎职 7
温州 7
港湾 7
游击手 7
游动 7
游历 7
游戏规则 7
游艇 7
游轮 7
渺 7
湖畔 7
湖里 7
湿热 7
溃烂 7
源源@@ 7
溜圆 7
溜肩膀 7
滑翔 7
滚开 7
滚水 7
滚瓜烂熟 7
滚雪球 7
满心 7
满月 7
满腔热情 7
漏出来 7
演艺圈 7
演说@@ 7
演说者 7
漠视 7
漫天 7
漫画@@ 7
漱口 7
漾 7
潜意识 7
潜水艇 7
潜移默化 7
潦倒 7
潮水般 7
澄澄 7
激荡 7
灌木丛 7
火冒三丈 7
火烧@@ 7
火药味 7
火葬 7
火车头 7
火速 7
灯盏 7
灯罩 7
灰暗 7
灵光 7
灵堂 7
灵活@@ 7
炫耀着 7
点击率 7
点心@@ 7
点点滴滴 7
点球 7
烁 7
烘 7
热播 7
热水澡 7
热点@@ 7
热烈@@ 7
热血@@ 7
烽@@ 7
焕 7
焦虑@@ 7
焦辣辣 7
焰 7
焰火 7
然大@@ 7
然自得 7
煤气灶 7
照例 7
照明灯 7
照进 7
煮烂 7
煮熟 7
煽@@ 7
煽风点火 7
熏得 7
熔岩 7
熔炉 7
熙熙攘攘 7
熟路 7
燃料费 7
爬山虎 7
爬树 7
爱国主义 7
爱看 7
父母@@ 7
片片 7
片面@@ 7
牌榜 7
牛劲 7
牛市 7
牛棚 7
牛群 7
牛脖子 7
牛车 7
牛顿 7
牡丹花 7
牵线@@ 7
特使 7
特别@@ 7
特定人物 7
特此 7
特派员 7
特派记者 7
特种部队 7
狂风@@ 7
狄@@ 7
狎@@ 7
狐 7
狗血@@ 7
狠揍 7
独断 7
独白 7
独立思考 7
独身 7
狭@@ 7
猎取 7
猛劲儿 7
猜忌 7
猩@@ 7
猫头鹰 7
王星 7
玩偶 7
玩球 7
玩笑话 7
环保@@ 7
环顾四周 7
现世 7
现代主义 7
现实感 7
玻璃瓶 7
珠儿 7
班人 7
理科 7
理解@@ 7
瓜子 7
瓮@@ 7
甚么 7
甜得 7
生产指标 7
生产线 7
生命科学 7
生存竞争 7
生日@@ 7
生日蛋糕 7
生活空间 7
生物体 7
生物学家 7
生离死别 7
生花 7
生词 7
用人单位 7
用后 7
用场 7
用量 7
田园@@ 7
甲骨文 7
申请人 7
电压 7
电子书 7
电磁波 7
电视屏幕 7
电话线 7
男儿 7
男女之间 7
男子@@ 7
男方 7
画中 7
畅所欲言 7
畅销@@ 7
畏怯 7
畜产品 7
畜牧业 7
番话 7
疑问@@ 7
疗@@ 7
疗养 7
疙@@ 7
疮疤 7
疲力竭 7
疵 7
病患者 7
病榻 7
病虫害 7
痘 7
痛惜 7
痛苦@@ 7
痴呆症 7
瘠@@ 7
癣 7
癫 7
癫@@ 7
白发@@ 7
白天黑夜 7
白山 7
白搭 7
白旗 7
白杨树 7
白热化 7
白瓷 7
白米饭 7
白跑 7
百分点 7
百吨 7
百忙@@ 7
百感交集 7
百花 7
百花齐放 7
的人 7
的确@@ 7
皇上 7
皇家 7
皈依 7
皎洁 7
皮帽 7
皱眉 7
皱褶 7
监护人 7
盖起 7
盛况空前 7
盛名 7
盛满 7
盛饭 7
目不@@ 7
盲从 7
直入 7
直前 7
直接贸易 7
直视 7
直通 7
相互作用 7
相伴 7
相匹配 7
相向 7
相对来说 7
相看 7
相知 7
盹 7
省下 7
省份 7
省城 7
省里 7
看人眼色 7
看得出 7
看穿 7
真受不了 7
真难 7
眠@@ 7
眯着眼 7
眺 7
睡着觉 7
督 7
瞎火 7
瞥 7
瞬@@ 7
瞳孔 7
矛盾@@ 7
矢 7
矢@@ 7
知名@@ 7
短信内容 7
短地 7
短文 7
短短@@ 7
短语 7
短距离 7
石佛 7
石像 7
石化 7
石头砸 7
石柱 7
石灰 7
石锅 7
石阶 7
矿井 7
矿场 7
砌@@ 7
砍倒 7
破口大骂 7
破除迷信 7
砸毁 7
砸锅 7
硬撑 7
确保安全 7
确有 7
碇 7
碌@@ 7
碓 7
碗碟 7
碰伤 7
碱 7
碳@@ 7
碴 7
碾 7
磨成 7
磨炼 7
示弱 7
礼拜@@ 7
礼教 7
礼法 7
礼轻情意 7
社会关系 7
祈愿 7
祖辈 7
神州 7
神往 7
神经痛 7
祭礼 7
祸根 7
禁区 7
离不了 7
离婚@@ 7
秀才 7
私吞 7
私家侦探 7
私情 7
秋冬 7
秋后 7
秋水 7
种子选手 7
种田 7
科举考试 7
科学实验 7
科学技术部 7
科生 7
秘书室 7
积极响应 7
称颂 7
秽@@ 7
稀有 7
稀松 7
稀释 7
稀饭 7
稍后 7
稚气 7
稠@@ 7
稳步 7
稿@@ 7
穆斯林 7
空当 7
空房子 7
空气质量 7
空落落 7
空谈 7
突发@@ 7
窘困 7
窝里窝囊 7
立秋 7
立足@@ 7
竟是 7
竟有 7
章法 7
竣 7
童年@@ 7
竭 7
竹杠 7
竹节 7
笑星 7
笑骂 7
第一人称 7
第一手 7
第三代 7
第三名 7
第三者 7
第九局 7
第二阶段 7
第八@@ 7
第四 7
等同于 7
等式 7
等级制 7
等舱 7
筋骨 7
答错 7
策划@@ 7
签订@@ 7
简报 7
简略 7
管家 7
管弦乐队 7
篆@@ 7
篡@@ 7
篡夺 7
篮下 7
簧 7
簸箕 7
米粥 7
米袋子 7
精力旺盛 7
精密仪器 7
精明@@ 7
精神疾病 7
糊弄 7
糊里糊涂 7
糕@@ 7
系上 7
系数 7
系紧 7
系统地 7
索索 7
索赔 7
紧急状况 7
紧致 7
紧贴 7
繁 7
繁荣景象 7
纠结 7
红利 7
红包 7
红扑扑 7
红斑 7
红红@@ 7
红线 7
红脸 7
红衣主教 7
纱帽 7
纲@@ 7
纵向 7
纷乱 7
纸质 7
纸面 7
纺 7
细枝末节 7
细语 7
织女 7
终点站 7
经典台词 7
经典著作 7
经济运行 7
结伴 7
结结巴巴 7
绕弯子 7
绕远儿 7
绕道 7
绝交 7
绝大部分 7
绝情 7
统帅 7
统治@@ 7
继承@@ 7
续集 7
绰 7
维也纳 7
维他命 7
绿灯 7
缀@@ 7
缄@@ 7
缅怀 7
缆车 7
缎 7
缓冲 7
缝补 7
缩略语 7
缴税 7
缺欠 7
网络空间 7
网膜 7
罗马@@ 7
罚下场 7
罚款单 7
罚酒 7
罩衫 7
置疑 7
署名 7
罾 7
羊绒 7
美容师 7
美术史 7
美誉 7
羞得 7
羹匙 7
翅高飞 7
翻墙 7
翻找 7
翻搅 7
老古董 7
老同志 7
老房子 7
老来 7
老牌 7
老者 7
老龄 7
考前 7
考古@@ 7
考察团 7
耍把戏 7
耍笑 7
耍花招 7
耐 7
耐脏 7
耕作 7
耗资 7
耳聋 7
耸动 7
耸起 7
耽@@ 7
聊天工具 7
职业培训 7
职业女性 7
联欢晚会 7
联队 7
肃清 7
肃静 7
肉体上 7
肝肠寸断 7
肠道 7
股市行情 7
股权 7
肥猪 7
肥瘦 7
肺癌 7
胆小@@ 7
背负 7
胎教 7
胖小子 7
胚@@ 7
胡话 7
胶带 7
胸闷 7
胺 7
能动性 7
能耗 7
能言善辩 7
能量@@ 7
脊梁骨 7
脏器 7
脏得 7
脐@@ 7
脑炎 7
脑袋@@ 7
脚尖 7
脱不开 7
脱光 7
脱北 7
脱口@@ 7
脱皮 7
脸红脖子粗 7
脸长 7
脾性 7
腋下 7
腰肢 7
腺@@ 7
腿肚子 7
腿骨 7
膀 7
膳 7
膺 7
膻 7
自修 7
自卫 7
自命@@ 7
自嘲 7
自在 7
自我管理 7
自找@@ 7
自流 7
自焚 7
自然保护区 7
自用 7
自由化 7
自由王国 7
自相@@ 7
自问 7
自馁 7
致癌 7
舀@@ 7
舌尖 7
舍弃 7
舒缓 7
舞动 7
航空母舰 7
船夫 7
艄公 7
艺术团 7
艺术节 7
艺术风格 7
节前 7
节操 7
节约用电 7
芒果 7
芬@@ 7
花店 7
花树 7
花池 7
花苞 7
花都 7
芽@@ 7
苍天 7
苑 7
苟延残喘 7
苦于 7
苦力 7
苦口@@ 7
苦味 7
苦思@@ 7
苦苦哀求 7
茉@@ 7
茨@@ 7
茫茫人海 7
茬口 7
茵@@ 7
茶座 7
草袋 7
草鞋 7
荒诞无稽 7
荔枝 7
荡荡 7
荣华富贵 7
药对 7
莫能@@ 7
获得胜利 7
获释 7
菲尔铁塔 7
菲薄 7
萌@@ 7
萍 7
萎靡不振 7
萦绕在 7
著@@ 7
著作@@ 7
著名演员 7
葱郁 7
蒋@@ 7
蒙古@@ 7
蒙混过关 7
蒙着 7
蒲@@ 7
蓬 7
蓬乱 7
蔬菜@@ 7
薹 7
藏品 7
藕@@ 7
藤蔓 7
虎子 7
虔@@ 7
虚妄 7
虚报 7
虚脱 7
虚设 7
虫剂 7
虹 7
蚊帐 7
蛇皮 7
蛙@@ 7
蛮横 7
蜀@@ 7
蜂箱 7
蜕变 7
蜥蜴 7
螺丝钉 7
螺旋@@ 7
血水 7
血糖 7
血缘关系 7
血脉 7
行医 7
行李@@ 7
行骗 7
街坊 7
街头巷尾 7
衣着打扮 7
衣袋 7
衣食@@ 7
补足 7
表现形式 7
表示同情 7
表示同意 7
表达方式 7
袁世凯 7
被害 7
被害者 7
被抛弃了 7
被淹 7
装懂 7
装箱 7
裱 7
裸体 7
西安 7
西班牙@@ 7
西餐厅 7
要冲 7
覆水难收 7
覆盖@@ 7
覆舟 7
见不得人 7
见习 7
见多@@ 7
见笑 7
见过面 7
观光客 7
观摩 7
视作 7
解冻 7
解气 7
解说员 7
触电 7
言词 7
警报@@ 7
警犬 7
认真对待 7
认罪 7
议院 7
记名 7
记念 7
记账 7
讲礼貌 7
许许多多 7
论资排辈 7
论题 7
访华 7
访客 7
访者 7
诈骗案 7
诈骗罪 7
诉求 7
诌 7
译文 7
译者 7
试点 7
试用@@ 7
试行 7
诗里 7
诚心 7
诚心诚意 7
诚挚 7
诞辰 7
该欠 7
该药 7
详情 7
详细@@ 7
误以为 7
误判 7
误点 7
说不过去 7
说来说去 7
请别 7
读书@@ 7
课外@@ 7
调查组 7
调转 7
谈不到 7
谈心 7
谋划 7
谋杀@@ 7
谋面 7
谙 7
谤 7
谨向 7
象牙 7
豪迈 7
貂@@ 7
貌美 7
贝类 7
负债@@ 7
财产权 7
责任制 7
败絮其中 7
质朴 7
贫嘴 7
贫民@@ 7
贫气 7
贯注 7
贴心 7
贴身 7
贴近 7
贸易赤字 7
贸易量 7
贸然 7
贼喊捉贼 7
贼眉鼠眼 7
贼船 7
资方 7
资金不足 7
赎@@ 7
赏花 7
赖皮 7
赞歌 7
赞许 7
赠给 7
赫赫@@ 7
走向世界 7
走火 7
赴美 7
起个 7
起名 7
起因 7
起居 7
趁热 7
超一流 7
超大型 7
超标 7
超速行驶 7
超重 7
越好 7
越少 7
趣事 7
趴着睡 7
趾@@ 7
趾高气扬 7
跃 7
跌宕起伏 7
跌破 7
跑不了 7
跑腿儿 7
跑车 7
跟民浩 7
跟班 7
跤 7
路人 7
路径 7
路标 7
跳得 7
跳远 7
跶 7
跻身 7
踮着 7
踵@@ 7
蹒跚 7
蹦乱跳 7
蹦极 7
蹦蹦 7
身儿 7
身受 7
身在 7
身家性命 7
车是 7
车顶 7
车马 7
轨@@ 7
轨制 7
转发 7
转基因 7
转嫁给 7
转得 7
转暖 7
转正 7
转而 7
转舵 7
轮换 7
软化 7
软和 7
软骨 7
轰鸣声 7
轻放 7
轻贱 7
载体 7
载入 7
较劲 7
较长 7
辆车 7
辐射@@ 7
辗转反侧 7
辛苦@@ 7
辞意 7
辱没 7
迅猛发展 7
过少 7
过敏性 7
过期@@ 7
过火 7
运营商 7
运载 7
近些年 7
近几天 7
近几年来 7
这号 7
这步田地 7
这瓶 7
这船 7
这马 7
进口车 7
进步党 7
进派 7
进驻 7
远亲 7
连任 7
连声 7
连心 7
连绵@@ 7
连锁反应 7
迟到@@ 7
迟延 7
迩 7
迫不得已 7
迫降 7
追悼会 7
追杀 7
退党 7
退烧药 7
送交 7
送入 7
逃北 7
逃难 7
逆流而上 7
选美 7
选者 7
选题 7
透支 7
透透气 7
递减 7
递到 7
递眼色 7
递过来 7
通一声 7
通俗歌曲 7
通奸 7
通电 7
通通 7
速决 7
造化 7
造纸厂 7
造血 7
逻辑思维 7
遍地开花 7
道德行为 7
道德败坏 7
道破 7
遗留问题 7
遛 7
遥寄 7
遥控器 7
遮天蔽日 7
避孕 7
避孕@@ 7
避讳 7
避风 7
那么些 7
那么回事 7
那伙 7
那匹 7
那门 7
郁陵岛 7
郎君 7
郎当 7
郑梦@@ 7
部手机 7
都市生活 7
鄙 7
配上 7
配搭 7
配着 7
酒钱 7
酣睡 7
酥酥 7
酪@@ 7
酱料 7
酷爱 7
酿酒 7
醉醺醺 7
醉鬼 7
采摘 7
釉@@ 7
里嘟噜 7
里外 7
里程 7
重播 7
重新整理 7
重生 7
重用 7
重要文件 7
重金 7
野鸡 7
金弘道 7
金总@@ 7
金炳@@ 7
金玉@@ 7
针灸 7
针眼 7
针线 7
针线@@ 7
钟楼 7
钟点 7
钮 7
钱物 7
钱花 7
钵 7
铀 7
铁匠铺 7
铁栅栏 7
铁桥 7
铁锤 7
铅笔盒 7
铜牌 7
铜铃 7
铝@@ 7
铭刻 7
银发 7
银杏树 7
银盘 7
银针 7
铺路 7
链条 7
销售员 7
错别字 7
锥@@ 7
镊子 7
长安 7
长春 7
长河 7
长生 7
长筒@@ 7
长高 7
门帘 7
门牌 7
门第 7
闪念 7
闭关锁国 7
问津 7
问起 7
问路 7
问长问短 7
问题@@ 7
闯将 7
闲气 7
闲逛 7
间歇 7
闷气 7
闹情绪 7
闹贼 7
阅读@@ 7
阉@@ 7
队列 7
队友 7
防寒 7
防潮 7
防灾 7
防盗@@ 7
阳伞 7
阳性 7
阴天 7
阴暗@@ 7
阴阴@@ 7
阶段性 7
阿迪达斯 7
附会 7
降低生产 7
降水量 7
陪衬 7
隆冬 7
隆盛 7
隆隆 7
随便说说 7
随带 7
随波逐流 7
随身带 7
随随便便 7
隐含 7
隐性 7
难忍 7
难支 7
难求 7
难点 7
难熬 7
集中力量 7
集团@@ 7
集子 7
雇佣@@ 7
雪景 7
零头 7
霎@@ 7
露宿 7
霸主 7
霸道 7
青苔 7
青菜 7
青黄不接 7
非同小可 7
非常容易 7
非正义 7
面嫩 7
面熟 7
面目@@ 7
面里 7
面面 7
鞋后跟 7
鞋柜 7
韧带 7
韧性 7
音响@@ 7
音响效果 7
音质 7
顶多 7
顶棚 7
顶部 7
顺口 7
顽固@@ 7
顿下来 7
颁 7
颁发@@ 7
颂扬 7
预知 7
预算@@ 7
预防@@ 7
预防犯罪 7
领头@@ 7
领教 7
领队 7
颇受 7
颇深 7
颇费 7
颐@@ 7
颖 7
颖@@ 7
颗@@ 7
题为 7
颜面 7
颧骨 7
风一吹 7
风寒 7
风水@@ 7
风言风语 7
飘浮 7
飘过 7
飘逸 7
飞得 7
飞行@@ 7
食性 7
饭团 7
饴糖 7
饺@@ 7
饽饽 7
馅@@ 7
馅饼 7
馈 7
首推 7
香料 7
香槟 7
馥@@ 7
马克思@@ 7
马术 7
马甲 7
马脚 7
驯 7
驾临 7
驾驶@@ 7
骄人 7
验票 7
骨头架子 7
骨头汤 7
骨骼 7
高丽@@ 7
高压@@ 7
高抬贵手 7
高楼大厦 7
高深 7
高清晰 7
高考落榜 7
高铁 7
鬼子 7
鬼混 7
鬼神 7
鬼门关 7
魔力 7
魔女 7
鱼缸 7
鱼腥味 7
鲨鱼 7
鳀 7
鳄鱼@@ 7
鳏@@ 7
鳗@@ 7
鸟兽 7
鸳鸯 7
鹃 7
鹅绒 7
麦浪 7
黄河@@ 7
黄海 7
黄色@@ 7
黄金价格 7
黎明前 7
黏性 7
黑熊 7
黑白@@ 7
默哀 7
默许 7
默默无语 7
黛@@ 7
齐头并进 7
齐鸣 7
龙井茶 7
龙卷风 7
龙王 7
05 6
10.@@ 6
1100 6
1996 6
70@@ 6
89 6
98 6
A股 6
I 6
r 6
‐ 6
㟖 6
一一列举 6
一万块 6
一再@@ 6
一口@@ 6
一只眼 6
一吹 6
一场空 6
一家之主 6
一抹 6
一提 6
一气@@ 6
一清二楚 6
一溜@@ 6
一热 6
一谈 6
万金 6
三下@@ 6
三场 6
三百元 6
三省 6
三股 6
三脚@@ 6
三辆 6
上人 6
上加@@ 6
上流社会 6
上菜 6
下士 6
下榻 6
下海经商 6
不倒 6
不公 6
不名誉 6
不啻 6
不太熟悉 6
不好受 6
不屑@@ 6
不敢@@ 6
不是味儿 6
不济事 6
不烦 6
不疑 6
不白 6
不知所@@ 6
不破 6
不禁@@ 6
不翼而飞 6
不花 6
不足@@ 6
不速之客 6
专业人士 6
专门机构 6
世代@@ 6
两三天 6
两页 6
严令 6
严打 6
严正 6
严重后果 6
丧气 6
丧葬 6
中人 6
中叶 6
中枢神经 6
中选 6
中长期 6
中队 6
为人处世 6
为己@@ 6
为时过早 6
主人翁 6
主子 6
主管@@ 6
主管人员 6
举止大方 6
义军 6
之余 6
之家 6
之极 6
之称 6
之职 6
乞@@ 6
事到@@ 6
二代 6
二线 6
于今 6
云团 6
云密布 6
互利 6
五十多岁 6
五味子 6
五彩缤纷 6
井底之蛙 6
亡国 6
交关 6
交换@@ 6
交流活动 6
交道 6
亦步亦趋 6
亨利 6
亲临 6
人好 6
人少 6
人物描写 6
人类@@ 6
亿人 6
介于 6
从业 6
他国 6
付账 6
以身作则 6
件人 6
任何事物 6
任意@@ 6
优秀奖 6
伙@@ 6
伙计 6
会于 6
会令 6
会演 6
会用 6
会议@@ 6
传染@@ 6
传真机 6
传统武术 6
传输 6
伦理道德 6
估价 6
伸手不见五指 6
似火 6
佑 6
何时@@ 6
何时何地 6
何苦 6
余波 6
佛法 6
作出贡献 6
侄 6
供品 6
供水 6
供电 6
侦@@ 6
侧耳 6
便利性 6
俊秀 6
俘 6
保持联系 6
保险丝 6
俞@@ 6
信人 6
信里 6
[...]
