#version: 0.2
那 个</w>
什 么</w>
我 们</w>
这 个</w>
没 有</w>
. .
的 话</w>
.. .</w>
可 以</w>
今 天</w>
时 候</w>
工 作</w>
他 们</w>
一 个</w>
因 为</w>
知 道</w>
现 在</w>
所 以</w>
已 经</w>
喜 欢</w>
自 己</w>
不 是</w>
公 司</w>
如 果</w>
开 始</w>
一 起</w>
不 能</w>
非 常</w>
怎 么</w>
时 间</w>
事 情</w>
很 多</w>
进 行</w>
日 本</w>
起 来</w>
问 题</w>
不 要</w>
东 西</w>
觉 得</w>
为 了</w>
但 是</w>
一 下</w>
孩 子</w>
这 里</w>
应 该</w>
这 样</w>
t ;</w>
q u
qu o
quo t;</w>
& quot;</w>
大 家</w>
朋 友</w>
你 们</w>
明 天</w>
可 能</w>
那 里</w>
英 语</w>
虽 然</w>
地 方</w>
不 会</w>
一 直</w>
就 是</w>
还 是</w>
之 后</w>
这 么</w>
这 种</w>
学 习</w>
告 诉</w>
必 须</w>
一 次</w>
一 样</w>
正 在</w>
同 学</w>
我 会</w>
关 于</w>
一 定</w>
为 什么</w>
需 要</w>
真 的</w>
那 么</w>
确 认</w>
老 师</w>
开 心</w>
使 用</w>
希 望</w>
真 是</w>
好 像</w>
下 来</w>
怎 么
之 前</w>
出 来</w>
打 算</w>
这 些</w>
想 要</w>
生 活</w>
努 力</w>
意 思</w>
这 是</w>
一 点</w>
计 划</w>
学 校</w>
商 品</w>
邮 件</w>
参 加</w>
关 系</w>
哪 里</w>
准 备</w>
不 过</w>
两 个</w>
昨 天</w>
这 件</w>
发 生</w>
抱 歉</w>
成 为</w>
一 天</w>
决 定</w>
期 待</w>
高 兴</w>
学 生</w>
还 有</w>
情 况</w>
每 天</w>
不 起</w>
那 样</w>
感 觉</w>
特 别</w>
这 次</w>
回 来</w>
来 说</w>
看 到</w>
有 点</w>
感 到</w>
谢 谢</w>
最 近</w>
先 生</w>
国 家</w>
过 来</w>
衣 服</w>
变 得</w>
活 动</w>
过 去</w>
只 是</w>
不 了</w>
方 法</w>
作 为</w>
能 够</w>
照 片</w>
电 话</w>
家 伙</w>
重 要</w>
说 话</w>
以 前</w>
发 送</w>
联 系</w>
认 为</w>
妈 妈</w>
别 人</w>
结 束</w>
注 意</w>
总 是</w>
完 成</w>
产 品</w>
怎么 样</w>
经 常</w>
不 好</w>
得 到</w>
只 有</w>
那 些</w>
幸 福</w>
点 儿</w>
理 解</w>
对 于</w>
结 果</w>
敌 人</w>
完 全</w>
细 胞</w>
会 议</w>
房 间</w>
旅 行</w>
要 是</w>
见 面</w>
好 吃</w>
好 好</w>
电 影</w>
世 界</w>
比 较</w>
身 体</w>
马 上</w>
对 不起</w>
见 到</w>
然 后</w>
担 心</w>
通 过</w>
多 少</w>
麻 烦</w>
内 容</w>
几 个</w>
收 到</w>
下 去</w>
我 要</w>
早 上</w>
一 些</w>
今 年</w>
意 见</w>
无 法</w>
考 虑</w>
中 国</w>
回 家</w>
接 受</w>
十 分</w>
休 息</w>
比 赛</w>
资 料</w>
名 字</w>
家 里</w>
根 据</w>
不 想</w>
兴 趣</w>
明 白</w>
说 明</w>
由 于</w>
今 后</w>
研 究</w>
讨 厌</w>
本 书</w>
感 谢</w>
谢 您</w>
突 然</w>
就 算</w>
一 边</w>
可 是</w>
心 情</w>
大 学</w>
或 者</w>
帮 助</w>
第 一次</w>
看 起来</w>
样 子</w>
必 要</w>
最 后</w>
日 语</w>
太 郎</w>
人 们</w>
变 成</w>
1 0</w>
办 法</w>
出 去</w>
小 时</w>
处 理</w>
声 音</w>
山 田</w>
回 去</w>
价 格</w>
部 分</w>
容 易</w>
调 查</w>
刚 才</w>
附 近</w>
找 到</w>
只 要</w>
为 止</w>
信 息</w>
其 他</w>
精 神</w>
晚 上</w>
不 到</w>
母 亲</w>
终 于</w>
生 产</w>
文 章</w>
0 0</w>
文 件</w>
不 得
继 续</w>
拜 托</w>
不 同</w>
家 人</w>
下 次</w>
仗 助</w>
回 答</w>
可 爱</w>
要 求</w>
能 力</w>
暑 假</w>
错 误</w>
看 看</w>
东 京</w>
所 有</w>
父 亲</w>
有 人</w>
而 且</w>
天 气</w>
企 业</w>
以 后</w>
度 过</w>
解 决</w>
成 功</w>
到 底</w>
很 大</w>
听 说</w>
联 络</w>
哪 个</w>
主 义</w>
发 现</w>
机 会</w>
支 付</w>
分 钟</w>
原 因</w>
考 试</w>
一 年</w>
不 行</w>
父 母</w>
花 子</w>
人 民</w>
练 习</w>
运 动</w>
有 些</w>
心 里</w>
几 点</w>
客 人</w>
全 部</w>
星 期
社 会</w>
眼 睛</w>
人 员</w>
没 事</w>
再 次</w>
音 乐</w>
通 知</w>
正 确</w>
不 管</w>
学 姐</w>
想 到</w>
感 谢您</w>
里 面</w>
那 种</w>
美 国</w>
件 事</w>
什 么
出 现</w>
不 用</w>
欢 迎</w>
小 心</w>
什么 样</w>
男 人</w>
夏 天</w>
车 站</w>
报 告</w>
之 间</w>
擅 长</w>
才 能</w>
日 子</w>
吃 饭</w>
接 下来</w>
约 翰</w>
发 展</w>
几 天</w>
享 受</w>
个 月</w>
制 作</w>
日 元</w>
肯 定</w>
市 场</w>
奇 怪</w>
加 油</w>
回 复</w>
不得 不</w>
清 楚</w>
检 查</w>
想 法</w>
睡 觉</w>
好 了</w>
大 概</w>
困 难</w>
提 高</w>
了 解</w>
漂 亮</w>
我 能</w>
任 何</w>
技 术</w>
太 好了</w>
健 康</w>
怎 样</w>
如 何</w>
下 午</w>
许 多</w>
结 婚</w>
顾 客</w>
医 生</w>
绝 对</w>
作 业</w>
爸 爸</w>
我 家</w>
飞 机</w>
别 的</w>
相 信</w>
消 息</w>
是 不是</w>
预 约</w>
那 件事</w>
不 好
经 验</w>
简 单</w>
工 厂</w>
力 量</w>
快 点</w>
介 绍</w>
一 般</w>
影 响</w>
下 周</w>
当 然</w>
受 到</w>
姐 姐</w>
一 种</w>
2 0</w>
存 在</w>
增 加</w>
目 标</w>
去 年</w>
厉 害</w>
那 边</w>
明 明</w>
没 能</w>
会 儿</w>
左 右</w>
安 排</w>
方 面</w>
儿 子</w>
革 命</w>
离 开</w>
汽 车</w>
回 到</w>
行 动</w>
听 到</w>
下 雨</w>
选 择</w>
认 识</w>
不好 意思</w>
至 今</w>
改 变</w>
上 班</w>
三 个</w>
公 园</w>
人 家</w>
打 电话</w>
就 要</w>
忘 记</w>
不 少</w>
酒 店</w>
稍 微</w>
头 发</w>
北 京</w>
女 儿</w>
经 济</w>
晚 饭</w>
数 据</w>
果 然</w>
服 务</w>
政 府</w>
医 院</w>
电 车</w>
替 身</w>
一 切</w>
获 得</w>
更 加</w>
其 实</w>
方 式</w>
房 子</w>
几 乎</w>
哥 哥</w>
. .</w>
遗 憾</w>
作 品</w>
辛 苦</w>
历 史</w>
不 住</w>
确 实</w>
理 由</w>
状 况</w>
回 事</w>
群 众</w>
放 在</w>
提 供</w>
将 来</w>
按 照</w>
方 便</w>
产 生</w>
费 用</w>
认 真</w>
生 气</w>
我 来</w>
修 改</w>
是 因为</w>
梦 想</w>
桌 子</w>
工 作
只 能</w>
中 文</w>
人 生</w>
最 好</w>
员 工</w>
以 为</w>
游 泳</w>
午 饭</w>
电 视</w>
材 料</w>
女 性</w>
管 理</w>
变 化</w>
任 务</w>
顺 利</w>
上 去</w>
一 件</w>
那 位</w>
高 中</w>
直 接</w>
温 柔</w>
曾 经</w>
铃 木</w>
穿 着</w>
环 境</w>
行 车</w>
看 见</w>
游 戏</w>
支 持</w>
引 起</w>
利 用</w>
制 度</w>
身 上</w>
实 现</w>
状 态</w>
条 件</w>
重 新</w>
设 计</w>
照 顾</w>
星 期</w>
很 难</w>
习 惯</w>
之 中</w>
很 快</w>
年 轻</w>
各 种</w>
去 过</w>
讨 论</w>
没 什么</w>
有 趣</w>
放 弃</w>
外 面</w>
不 错</w>
记 得</w>
思 想</w>
送 到</w>
这 边</w>
对 方</w>
出 发</w>
一 条</w>
看 着</w>
这 儿</w>
申 请</w>
期 间</w>
销 售</w>
自 行车</w>
之 一</w>
组 织</w>
电 脑</w>
文 化</w>
怎么 办</w>
她 们</w>
适 合</w>
进 入</w>
个 人</w>
食 物</w>
教 育</w>
那 家伙</w>
提 出</w>
安 全</w>
妻 子</w>
便 宜</w>
以 下</w>
那 天</w>
而 已</w>
等 待</w>
机 器</w>
保 持</w>
周 末</w>
劳 动</w>
颜 色</w>
没 关系</w>
打 开</w>
交 易</w>
负 责</w>
小 说</w>
银 行</w>
时 代</w>
干 什么</w>
也 许</w>
路 上</w>
拿 到</w>
小 姐</w>
事 故</w>
成 绩</w>
康 一</w>
刚 刚</w>
不 见</w>
行 李</w>
第 二
料 理</w>
在 家</w>
行 为</w>
如 此</w>
.. ..</w>
美 丽</w>
这 家</w>
系 统</w>
是 否</w>
女 人</w>
哪 儿</w>
.. ....</w>
回 信</w>
几 次</w>
作 用</w>
咱 们</w>
不 得</w>
项 目</w>
语 言</w>
是 从</w>
举 行</w>
日 程</w>
危 险</w>
那 时</w>
负 责
舒 服</w>
故 事</w>
实 在</w>
多 么</w>
保 护</w>
以 上</w>
不 多</w>
建 议</w>
寂 寞</w>
购 买</w>
喝 酒</w>
原 来</w>
下 面</w>
订 单</w>
经 过</w>
竟 然</w>
祈 祷</w>
手 续</w>
出 门</w>
做 好</w>
还 要</w>
比 起</w>
野 崎</w>
带 来</w>
烟 花</w>
态 度</w>
工 人</w>
在 意</w>
详 细</w>
丈 夫</w>
一 声</w>
送 给</w>
负责 人</w>
有 关</w>
说 不
有 没有</w>
感 冒</w>
开 发</w>
家 庭</w>
回 忆</w>
身 边</w>
早 点</w>
常 常</w>
棒 球</w>
全 国</w>
委 托</w>
动 物</w>
知 识</w>
日 期</w>
允 许</w>
一 步</w>
请 求</w>
每 个</w>
治 疗</w>
有 名</w>
害 怕</w>
严 重</w>
不 怎么</w>
自 然</w>
国 外</w>
一 片</w>
大 会</w>
停 止</w>
3 0</w>
工 资</w>
失 败</w>
城 市</w>
礼 物</w>
旅 游</w>
提 交</w>
地 区</w>
事 实</w>
2 0
越 来
持 续</w>
大 阪</w>
取 得</w>
事 业</w>
目 的</w>
满 足</w>
怎么 回事</w>
面 前</w>
永 远</w>
更 改</w>
美 好</w>
推 荐</w>
愉 快</w>
居 然</w>
各 位</w>
取 消</w>
加 入</w>
交 给</w>
不 上</w>
部 门</w>
差 不多</w>
一 周</w>
不 去</w>
一 会儿</w>
起 床</w>
之 内</w>
运 动
同 意</w>
人 类</w>
主 要</w>
非 常
除 了</w>
表 示</w>
演 奏</w>
意 义</w>
弟 弟</w>
多 亏</w>
坐 在</w>
添 麻烦</w>
手 术</w>
做 出</w>
以 来</w>
上 海</w>
规 定</w>
确 定</w>
越来 越</w>
混 蛋</w>
机 场</w>
分 析</w>
出 差</w>
领 导</w>
距 离</w>
商 量</w>
零 件</w>
味 道</w>
难 道</w>
肚 子</w>
攻 击</w>
很 棒</w>
开 车</w>
迟 到</w>
货 物</w>
多 久</w>
发 货</w>
上 课</w>
遇 到</w>
代 表</w>
笨 蛋</w>
合 适</w>
合 同</w>
紧 张</w>
电 视
明 年</w>
感 动</w>
感 兴趣</w>
实 施</w>
业 务</w>
不 足</w>
一 只</w>
性 格</w>
少 年</w>
实 际</w>
女 生</w>
办 公
不 够</w>
我 国</w>
进 来</w>
责 任</w>
快 乐</w>
发 出</w>
海 外</w>
慢 慢</w>
学 长</w>
长 时间</w>
没 想到</w>
毕 业</w>
每 年</w>
战 斗</w>
战 争</w>
地 址</w>
再 见</w>
关 照</w>
姑 娘</w>
不 可</w>
首 先</w>
足 球</w>
手 机</w>
年 级</w>
今 晚</w>
中 心</w>
不 可
脸 上</w>
翻 译</w>
经 营</w>
有 意思</w>
咖 啡</w>
几 年</w>
一 部分</w>
英 语
第 一
空 气</w>
感 情</w>
像 是</w>
传 达</w>
玩 笑</w>
工 程</w>
一 点儿</w>
看 来</w>
有 着</w>
小 学</w>
减 少</w>
这 份</w>
自 由</w>
留 下</w>
根 本</w>
巴 士</w>
各 样</w>
发 表</w>
前 面</w>
休 假</w>
亿 泰</w>
不 知</w>
预 定</w>
没 错</w>
时 期</w>
改 善</w>
拜 访</w>
成 长</w>
帮 忙</w>
上 面</w>
蛋 糕</w>
方 案</w>
小 透</w>
前 辈</w>
出 生</w>
似 乎</w>
一 遍</w>
随 时</w>
道 路</w>
造 成</w>
记 录</w>
表 现</w>
箱 子</w>
演 员</w>
水 平</w>
来 到</w>
他 人</w>
不 断</w>
随 便</w>
股 票</w>
生 日</w>
效 果</w>
价 值</w>
询 问</w>
糟 糕</w>
祖 国</w>
痛 苦</w>
月 份</w>
平 时</w>
十 年</w>
到 达</w>
一 张</w>
即 使</w>
他 会</w>
不 安</w>
睡 着</w>
投 资</w>
太 阳</w>
上 午</w>
道 歉</w>
窗 户</w>
意 识</w>
实 验</w>
1 2</w>
防 止</w>
金 额</w>
笑 容</w>
周 围</w>
上 学</w>
调 整</w>
表 达</w>
无 论
放 心</w>
大 量</w>
各 种
三 天</w>
简 直</w>
消 失</w>
无 论</w>
斗 争</w>
干 部</w>
原 谅</w>
上 周</w>
评 价</w>
更 好</w>
春 天</w>
妹 妹</w>
天 空</w>
唱 歌</w>
一 句</w>
经 历</w>
相 当</w>
政 策</w>
各种 各样</w>
令 人</w>
一 个月</w>
这 项</w>
漫 画</w>
正 式</w>
最 大</w>
暂 时</w>
教 室</w>
打 扫</w>
人 物</w>
举 办</w>
进 去</w>
表 情</w>
老 人</w>
等 等</w>
时 光</w>
数 量</w>
库 存</w>
垃 圾</w>
发 给</w>
交 往</w>
速 度</w>
这 部</w>
明 日
干 净</w>
对 象</w>
单 位</w>
半 天</w>
出 席</w>
优 秀</w>
互 相</w>
明日 香</w>
建 设</w>
啤 酒</w>
充 分</w>
禁 止</w>
失 去</w>
做 到</w>
你 好</w>
海 边</w>
期 限</w>
少 女</w>
学 会</w>
制 造</w>
两 次</w>
设 备</w>
苹 果</w>
样 的话</w>
当 时</w>
同 时</w>
参 观</w>
办公 室</w>
修 理</w>
位 置</w>
以 及</w>
青 年</w>
未 来</w>
承 太郎</w>
充 满</w>
以 外</w>
之 类</w>
1 5</w>
输 入</w>
读 书</w>
访 问</w>
疑 问</w>
本 来</w>
应 对</w>
帽 子</w>
受 欢迎</w>
印 象</w>
上 来</w>
上 司</w>
三 年</w>
选 手</w>
订 购</w>
抓 住</w>
成 本</w>
参 考</w>
露 伴</w>
进 步</w>
计 算</w>
理 论</w>
战 士</w>
总 之</w>
分 子</w>
5 0</w>
早 就</w>
操 作</w>
大 赛</w>
商 店</w>
受 伤</w>
劳 动
二 十
钢 琴</w>
邀 请</w>
由 希</w>
烦 恼</w>
拥 有</w>
思 考</w>
店 里</w>
大 约</w>
同 样</w>
而 是</w>
没 法</w>
早 饭</w>
散 步</w>
政 治</w>
网 球</w>
篇 文章</w>
旁 边</w>
指 示</w>
感 受</w>
悲 伤</w>
一 场</w>
部 队</w>
规 则</w>
胜 利</w>
本 田</w>
有 点儿</w>
有 时</w>
有 效</w>
恢 复</w>
哎 呀</w>
范 围</w>
社 会
座 位</w>
年 前</w>
尽 早</w>
程 度</w>
正 常</w>
因 此</w>
后 悔</w>
利 益</w>
餐 厅</w>
训 练</w>
能 性</w>
标 准</w>
曲 子</w>
拒 绝</w>
冬 天</w>
农 民</w>
那 本书</w>
研 究
渐 渐</w>
想 象</w>
外 国</w>
付 款</w>
设 定</w>
节 目</w>
真 正</w>
相 关</w>
毕 竟</w>
故 障</w>
建 筑</w>
图 书
前 进</w>
立 刻</w>
看 上去</w>
正 好</w>
患 者</w>
女 孩子</w>
吉 他</w>
两 天</w>
高 中
队 伍</w>
超 过</w>
课 程</w>
社 团</w>
牛 奶</w>
服 务
挑 战</w>
所 谓</w>
剩 下</w>
不 着</w>
预 算</w>
表 演</w>
石 头</w>
男 朋友</w>
法 律</w>
有 个</w>
整 理</w>
很 少</w>
屋 里</w>
土 地</w>
厕 所</w>
判 断</w>
兄 弟</w>
你 别</w>
不 成</w>
1 1</w>
迅 速</w>
警 察</w>
老 家</w>
无 聊</w>
就 是
客 户</w>
可 能性</w>
出 口</w>
今 天
事 先</w>
两 年</w>
这 位</w>
方 向</w>
安 心</w>
多 年</w>
国 际</w>
可 怕</w>
遵 守</w>
进 展</w>
达 到</w>
爷 爷</w>
应 当</w>
年 纪</w>
口 气</w>
要 花</w>
积 极</w>
破 坏</w>
现 象</w>
段 时间</w>
大 人</w>
地 说</w>
后 面</w>
不 太
不 动</w>
控 制</w>
想 起</w>
工作 人员</w>
尽 快</w>
咨 询</w>
内 心</w>
你 家</w>
丰 富</w>
这 张</w>
热 情</w>
导 致</w>
压 力</w>
全 都</w>
科 学</w>
异 常</w>
就是 说</w>
坚 持</w>
京 都</w>
那 儿</w>
这 条</w>
点 心</w>
欧 拉</w>
指 定</w>
意 大
尽 可能</w>
封 信</w>
多 多
复 杂</w>
地 上</w>
发 邮件</w>
发 行</w>
包 含</w>
交 通
乘 坐</w>
0 00</w>
面 包</w>
采 取</w>
谢 谢您</w>
火 车</w>
当 做</w>
寻 找</w>
反 对</w>
去 世</w>
院 子</w>
资 金</w>
解 释</w>
蔬 菜</w>
英 国</w>
职 业</w>
相 同</w>
汇 款</w>
批 评</w>
我 用</w>
强 烈</w>
品 质</w>
同 志</w>
号 码</w>
再 说</w>
辈 子</w>
约 会</w>
社 长</w>
男 生</w>
椅 子</w>
普 通</w>
显 示</w>
愿 意</w>
小 时候</w>
将 会</w>
实 行</w>
奶 奶</w>
做 饭</w>
长 得</w>
聪 明</w>
物 品</w>
成 员</w>
功 能</w>
冷 静</w>
一 份</w>
1 00</w>
营 业</w>
珍 惜</w>
制 定</w>
内 部</w>
事 项</w>
事 儿</w>
事 件</w>
不 来</w>
下 个月</w>
那 家</w>
这 块</w>
这 么
过 分</w>
网 站</w>
拼 命</w>
尽 管</w>
多 次</w>
似 的</w>
一 位</w>
阶 级</w>
现 场</w>
演 讲</w>
对 话</w>
地 震</w>
困 扰</w>
单 词</w>
保 险</w>
任 何
代 替</w>
难 得</w>
质 量</w>
自 动</w>
肚 子
社 团
社团 活动</w>
年 轻
屋 子</w>
安 静</w>
基 础</w>
图书 馆</w>
务 必</w>
使 者</w>
一 点
一 家</w>
预 计</w>
证 明</w>
眼 镜</w>
昨 晚</w>
指 导</w>
恋 爱</w>
开 会</w>
好 多</w>
另 外</w>
事 物</w>
请 假</w>
粮 食</w>
病 人</w>
某 个</w>
既 然</w>
搬 家</w>
提 问</w>
提 前</w>
想 着</w>
形 式</w>
季 节</w>
合 作</w>
休 息
一 阵</w>
随 着</w>
道 理</w>
过 得</w>
至 少</w>
第 一</w>
种 类</w>
相 机</w>
留 学</w>
杂 志</w>
替 身
开 玩笑</w>
工 业</w>
国 人</w>
会 场</w>
伙 伴</w>
下 子</w>
一 个
露 出</w>
秋 天</w>
瞬 间</w>
最 终</w>
整 天</w>
情 报</w>
听 见</w>
兴 奋</w>
任何 人</w>
交 换</w>
一 致</w>
一 半</w>
阶 段</w>
这 座</w>
过 程</w>
答 案</w>
用 于</w>
替身 使者</w>
景 色</w>
掌 握</w>
快 要</w>
并 且</w>
年 龄</w>
对 策</w>
如 下</w>
动 作</w>
到 处</w>
免 费</w>
难 以</w>
连 续</w>
记 住</w>
矛 盾</w>
消 除</w>
报 纸</w>
广 告</w>
之 外</w>
中 午</w>
辞 职</w>
软 件</w>
羡 慕</w>
答 复</w>
活 儿</w>
植 物</w>
招 呼</w>
女 朋友</w>
人 数</w>
一 时</w>
魅 力</w>
韩 国</w>
走 路</w>
观 察</w>
装 置</w>
脾 气</w>
目 前</w>
电 子
生 病</w>
测 试</w>
活 着</w>
接 近</w>
意大 利</w>
变 更</w>
努 力
什 麼</w>
亲 切</w>
交 流</w>
中 学</w>
赶 紧</w>
账 单</w>
论 文</w>
记 忆</w>
手 段</w>
战 略</w>
交 货</w>
那 场</w>
解 放
有 空</w>
明 确</w>
收 拾</w>
措 施</w>
情 绪</w>
建 筑
年 人</w>
周 六</w>
勇 气</w>
值 得</w>
人 口</w>
上 升</w>
答 应</w>
生 命</w>
狩 生</w>
日 代</w>
新 闻</w>
好 看</w>
填 写</w>
咖 啡
周 日</w>
反 正</w>
从 来</w>
从 小</w>
也 好</w>
世 界
不 出</w>
一 百
一 副</w>
1 9
词 典</w>
细 菌</w>
秘 密</w>
打 工</w>
巴 黎</w>
小 鬼</w>
办 事</w>
关 心</w>
做 法</w>
一 把</w>
音 乐
集 中</w>
美 元</w>
祖 母</w>
生 产
温 度</w>
更 新</w>
故 意</w>
支 援</w>
损 失</w>
太 多</w>
大 部分</w>
主 意</w>
一 块</w>
长 期</w>
销 售
采 用</w>
账 户</w>
讲 话</w>
眼 前</w>
样 品</w>
指 教</w>
手 里</w>
当 地</w>
年轻 人</w>
命 令</w>
双 方</w>
十 二
劲 儿</w>
保 管</w>
伤 口</w>
中 间</w>
不 敢</w>
一 面</w>
门 口</w>
那 条</w>
足 够</w>
设 置</w>
规 模</w>
程 序</w>
相 处</w>
歌 手</w>
无论 如何</w>
数 字</w>
想 见</w>
心 中</w>
工 具</w>
令 人
一 生</w>
一 旦</w>
钥 匙</w>
运 用</w>
白 细胞</w>
满 意</w>
消 费
来 看</w>
拍 照</w>
尽 量</w>
对 待</w>
子 里</w>
反 应</w>
偶 尔</w>
请 问</w>
说不 定</w>
记 载</w>
观 光</w>
营 业
生 物</w>
演 出</w>
打 击</w>
客 气</w>
完 美</w>
其 中</w>
也 就是说</w>
一 名</w>
食 品</w>
阳 光</w>
这 点</w>
这 场</w>
达 成</w>
资 产</w>
话 题</w>
草 摩</w>
聊 天</w>
管 理
气 氛</w>
属 于</w>
发 言</w>
伤 害</w>
今 日</w>
不 开</w>
不 如</w>
高中 生</w>
运动 员</w>
温 泉</w>
放 松</w>
收 入</w>
打 扰</w>
恭 喜</w>
御 子</w>
建 立</w>
人 民
两 人</w>
不 停</w>
那 座</w>
街 道</w>
行 了</w>
立 即</w>
热 闹</w>
正 是</w>
报 道</w>
巨 大</w>
就 行了</w>
小 镇</w>
实 际
基 本</w>
发 挥</w>
印 度</w>
光 临</w>
假 期</w>
人 才</w>
不 仅</w>
不 下</w>
一 下子</w>
那 样的话</w>
这 周</w>
要 说</w>
皮 肤</w>
特 产</w>
爱 好</w>
没 用</w>
文 字</w>
很 漂亮</w>
家 店</w>
地 下</w>
决 心</w>
全 力</w>
借 给</w>
限 制</w>
遭 到</w>
遇 见</w>
跳 舞</w>
设 计
老 鼠</w>
紧 急</w>
温 暖</w>
数 学</w>
效 率</w>
想 想</w>
干 嘛</w>
小 子</w>
学 家</w>
四 个</w>
会 计</w>
鹿 岛</w>
鸡 蛋</w>
风 景</w>
那 家店</w>
轻 松</w>
试 试</w>
自 信</w>
电 话
物 质</w>
摩 托
惊 讶</w>
女 孩</w>
吸 引</w>
听 听</w>
到 来</w>
具 有</w>
公 开</w>
信 用
上 次</w>
一 辈子</w>
风 险</w>
避 免</w>
角 色</w>
目 光</w>
画 画</w>
玻 璃</w>
泳 池</w>
民 族</w>
有 事</w>
担 任</w>
执 行</w>
弄 错</w>
叫 做</w>
初 中</w>
分 配</w>
农 村</w>
住 院</w>
专 业</w>
一 股</w>
赶 上</w>
课 题</w>
解 决
浪 费</w>
每 次</w>
歌 声</w>
文 学</w>
打 扮</w>
感 激</w>
彻 底</w>
婴 儿</w>
地 球</w>
固 定</w>
回 国</w>
和 平</w>
吃 惊</w>
台 风</w>
办 理</w>
具 体</w>
保 证</w>
作 家</w>
他 俩</w>
两 种</w>
一 杯</w>
一 口</w>
钱 包</w>
这 话</w>
这 篇</w>
过 度</w>
节 日</w>
摩托 车</w>
提 案</w>
大 雨</w>
吉 影</w>
保 存</w>
不 久</w>
一 道</w>
一 番</w>
这 辆</w>
观 点</w>
着 急</w>
男 子</w>
生 意</w>
死 亡</w>
时 隔</w>
教 师</w>
承 认</w>
形 成</w>
小 孩</w>
外 国人</w>
墙 上</w>
基 本
吸 烟</w>
阿 姨</w>
相 比</w>
白 色</w>
电 影
现 实</w>
特 殊</w>
汉 语</w>
技 术
手 表</w>
居 住</w>
实际 上</w>
安 装</w>
好 久
下 降</w>
面 向</w>
部 长</w>
这 事</w>
最 高</w>
收 集</w>
接 触</w>
拿 出</w>
护 照</w>
总 结</w>
寿 司</w>
勉 强</w>
出 色</w>
体 验</w>
一 顿</w>
购 物</w>
裤 子</w>
装 饰</w>
红 色</w>
玩 儿</w>
星期 天</w>
幸 运</w>
国 际
制 造
传 来</w>
他 家</w>
仔 细</w>
于 是</w>
还 好</w>
贡 献</w>
职 员</w>
维 持</w>
氧 气</w>
对 手</w>
如 今</w>
命 运</w>
公 寓</w>
做 成</w>
传 统</w>
中 有</w>
不 太</w>
不 准</w>
一 段</w>
鼻 子</w>
面 试</w>
非常 感谢</w>
通 常</w>
追 加</w>
迎 接</w>
艺 术</w>
纪 念
电视 剧</w>
更 换</w>
据 说</w>
恐 怕</w>
婚 礼</w>
培 养</w>
商 谈</w>
发 音</w>
包 裹</w>
公 里</w>
五 年</w>
一点 点</w>
一 趟</w>
饮 料</w>
重 视</w>
这 句</w>
身 子</w>
跟 着</w>
花 费</w>
脖 子</w>
脑 子</w>
绳 子</w>
每 周</w>
旧 社会</w>
改 革</w>
换 成</w>
微 笑</w>
团 队</w>
协 助</w>
偶 然</w>
信用 卡</w>
下 班</w>
一 眼</w>
阅 读</w>
钓 鱼</w>
还 给</w>
贩 卖</w>
误 会</w>
网 上</w>
眼 泪</w>
理 想</w>
手 指</w>
师 傅</w>
小 孩子</w>
天 晚上</w>
只 好</w>
发 给
儿 童</w>
作 者</w>
从 事</w>
事 务
靠 近</w>
长 大</w>
耳 朵</w>
红 细胞</w>
精 神
真 是
症 状</w>
生 活
添 加</w>
海 崎</w>
扫 墓</w>
扩 大</w>
尺 寸</w>
大 小</w>
各 个</w>
不 让</w>
一 身</w>
一 大
高 尔
迷 路</w>
运 会</w>
设 施</w>
算 了</w>
真是 太</w>
活 跃</w>
早 起</w>
早 上
早上 好</w>
怀 疑</w>
头 儿</w>
多 数</w>
国 内</w>
修 正</w>
顺 序</w>
陷 入</w>
退 休</w>
裙 子</w>
英 雄</w>
男 性</w>
炸 弹</w>
派 对</w>
治 好</w>
模 型</w>
权 利</w>
机 构</w>
成 果</w>
工 夫</w>
密 码</w>
头 上</w>
多多 关照</w>
台 湾</w>
原 稿</w>
千 万</w>
农 业</w>
主 张</w>
不 吃</w>
万 一</w>
一 套</w>
领 域</w>
这 本</w>
足 球
西 瓜</w>
类 型</w>
符 合</w>
相 遇</w>
直 到</w>
机 关</w>
敌 军</w>
承 担</w>
愿 望</w>
恐 怖</w>
怀 念</w>
建筑 物</w>
害 羞</w>
宣 传</w>
合 理</w>
只 会</w>
半 年</w>
买 卖</w>
不 通</w>
不 知
一 段时间</w>
集 合</w>
逐 渐</w>
试 验</w>
试 着</w>
美 味</w>
的 确</w>
病 毒</w>
爆 炸</w>
注 意
死 者</w>
来 自</w>
教 授</w>
年 代</w>
巧 克
巧克 力</w>
小 事</w>
家 具</w>
大 声</w>
地 位</w>
呼 吸</w>
吉 良
创 造</w>
共 同</w>
先 进</w>
伟 大</w>
个 子</w>
韩 语</w>
跑 步</w>
移 动</w>
百 忙
百忙 之中</w>
樱 花</w>
村 子</w>
显 得</w>
整 个</w>
很 久
彼 此</w>
常 木</w>
展 开</w>
尊 敬</w>
天 天</w>
场 所</w>
地 图</w>
告 知</w>
后 来</w>
吉良 吉影</w>
主 任</w>
上 个月</w>
1 3</w>
首 歌</w>
需 求</w>
连 接</w>
路 线</w>
谈 话</w>
说 出</w>
许 可</w>
螺 丝</w>
良 好</w>
网 络</w>
空 间</w>
王 子</w>
法 院</w>
杜 王</w>
明 书</w>
平 常</w>
宫 前</w>
委 员</w>
失 望</w>
外 出</w>
体 内</w>
丰 收</w>
降 低</w>
这 一</w>
还 会</w>
资 源</w>
脸 色</w>
背 景</w>
经 济
粉 丝</w>
算 是</w>
看 过</w>
画 家</w>
气 候</w>
案 件</w>
故 乡</w>
或 许</w>
成 熟</w>
学 到</w>
奥 运会</w>
大 楼</w>
吃 晚饭</w>
发 送给</w>
十 分钟</w>
努力 学习</w>
关 注</w>
佐 仓</w>
仅 仅</w>
了 不起</w>
乐 队</w>
久 违</w>
不 再</w>
上 述</w>
锻 炼</w>
资 格</w>
贸 易</w>
血 管</w>
绿 色</w>
结 论</w>
疾 病</w>
现 金</w>
混 乱</w>
毕 业
武 器</w>
森 林</w>
服 装</w>
提 议</w>
批 准</w>
庆 祝</w>
展 示</w>
女 子</w>
多 余</w>
外 语</w>
增 长</w>
句 话</w>
危 机</w>
北 海
出 售</w>
军 队</w>
写 信</w>
做 事</w>
俱 乐
俱乐 部</w>
世 纪</w>
不 幸</w>
鞋 子</w>
随 意</w>
重 复</w>
配 合</w>
那 份</w>
這 個</w>
进 一步</w>
运 费</w>
超 市</w>
证 据</w>
要 紧</w>
蓝 色</w>
至 于</w>
背 后</w>
眼 儿</w>
申 请
水 果</w>
构 造</w>
新 年</w>
探 讨</w>
招 待</w>
德 国</w>
开 展</w>
广 场</w>
干 掉</w>
定 期</w>
后 天</w>
可 惜</w>
叔 叔</w>
原 则</w>
刺 激</w>
全 世界</w>
倾 向</w>
便 利
体 育
估 计</w>
久 等</w>
不 管
下 述</w>
上 级</w>
附 件</w>
赶 快</w>
计 算
表 面</w>
葡 萄
营 销</w>
自 我</w>
签 名</w>
神 经</w>
礼 貌</w>
碰 到</w>
河 水</w>
晚 餐</w>
时 机</w>
放 学</w>
收 益</w>
打 破</w>
性 能</w>
周 三</w>
可 怜</w>
区 域</w>
北海 道</w>
加 上</w>
几 句</w>
便 当</w>
事务 所</w>
不 怕</w>
不 必</w>
食 堂</w>
难 以
花 钱</w>
肚子 饿</w>
肌 肉</w>
缺 乏</w>
约 定</w>
祝 贺</w>
社会 主义</w>
白 天</w>
理 所
班 里</w>
新 鲜</w>
政 治
收 购</w>
抽 烟</w>
或 是</w>
心 脏</w>
形 象</w>
展 览
处 于</w>
基本 上</w>
含 有</w>
再 也</w>
典 礼</w>
从 不</w>
不太 好</w>
不 良</w>
一 层</w>
一 口气</w>
难 过</w>
话 说
艺 术
经 理</w>
祖 父</w>
看 不见</w>
登 记</w>
玩 具</w>
演 唱
演唱 会</w>
无 所谓</w>
接 收</w>
所 说</w>
店 铺</w>
床 上</w>
好 事</w>
夏 季</w>
同 事</w>
马 路</w>
障 碍</w>
队 长</w>
铅 笔</w>
那 次</w>
话说 回来</w>
究 竟</w>
睡 不着</w>
画 面</w>
深 刻</w>
海 里</w>
校 长</w>
本 人</w>
最 新</w>
很 长</w>
形 势</w>
尝 试</w>
地 点</w>
嘴 里</w>
各 自</w>
包 括</w>
动 机</w>
分 开</w>
分 别</w>
兔 子</w>
休息 日</w>
乒 乓
一 来</w>
适 应</w>
街 上</w>
自 我
统 一</w>
空 调</w>
真 实</w>
留 在</w>
测 量</w>
没 见</w>
毫 无</w>
欺 负</w>
机 械</w>
本 店</w>
早 晨</w>
好 处</w>
变 动</w>
区 别</w>
制造 商</w>
作 物</w>
任 性</w>
中 央</w>
不 该</w>
三 次</w>
一 根</w>
雇 佣</w>
附 上</w>
针 对</w>
适 用</w>
过 于</w>
身 体
负 担</w>
结 构</w>
租 车</w>
相 见</w>
疲 惫</w>
生 日
犹 豫</w>
推 进</w>
感 染</w>
总 算</w>
干 活</w>
岸 边</w>
宾 馆</w>
团 体</w>
周 五</w>
友 谊</w>
加 工</w>
克 服</w>
便利 店</w>
作 风</w>
伦 敦</w>
人 来</w>
交 通</w>
中 止</w>
一 群</w>
一 看</w>
鼓 励</w>
领 取</w>
阻 止</w>
进 口</w>
舞 台</w>
自 然
聚 会</w>
笔 记</w>
空 中</w>
稍 后</w>
看 电视</w>
火 灾</w>
注 册</w>
正 如</w>
歌 曲</w>
架 子</w>
有 用</w>
指 出</w>
所 有人</w>
意 外</w>
实 话</w>
坏 事</w>
嗓 子</w>
可 恶</w>
列 车</w>
产 业</w>
五 个</w>
严 格</w>
不 满</w>
三 班</w>
一 座</w>
销售 额</w>
贷 款</w>
讨 会</w>
荣 幸</w>
等 到</w>
立 场</w>
称 作</w>
研 讨会</w>
电 源</w>
用 户</w>
理所 当然</w>
消 灭</w>
极 了</w>
暖 和</w>
星期 六</w>
我 军</w>
形 状</w>
幼 儿
学 者</w>
向 前</w>
及 时</w>
印 刷</w>
加 拿
冰 箱</w>
介 意</w>
不 清</w>
2 4</w>
香 港</w>
预 测</w>
铁 路</w>
那 件</w>
退 货</w>
舞 蹈</w>
股 价</w>
组 合</w>
相 互</w>
用 品</w>
现 代
流 行</w>
法 国</w>
治 愈</w>
来 如此</w>
日 本
拍 摄</w>
幼儿 园</w>
实 践</w>
委 员
大 忙</w>
基 于</w>
坏 人</w>
地 面</w>
地 主</w>
吵 架</w>
别 说</w>
充 实</w>
信 赖</w>
会 议
仓 库</w>
仍 然</w>
亲 戚</w>
产 量</w>
个 人
不 肯</w>
下 个</w>
一 带</w>
2 5</w>
难 道
钻 石</w>
遭 受</w>
身 份</w>
谅 解</w>
设计 图</w>
西 班
草 摩
脑 袋</w>
肩 膀</w>
考 虑
缺 点</w>
给 予</w>
祝 愿</w>
男 孩</w>
最 初</w>
晴 天</w>
明 显</w>
早 餐</w>
改 正</w>
快 速</w>
循 环</w>
往 常</w>
强 大</w>
延 长</w>
妇 女</w>
太 太</w>
大 海</w>
回 头</w>
原 来如此</w>
单 纯</w>
公 路</w>
估 价</w>
五 十
习 班</w>
严 厉</w>
两 周</w>
一 人</w>
1 8</w>
骄 傲</w>
难道 说</w>
追 求</w>
远 处</w>
过 头</w>
赞 成</w>
稳 定</w>
气 温</w>
月 亮</w>
暴 露</w>
施 工</w>
当 天</w>
展览 会</w>
尽 全力</w>
大 神</w>
夏 威
圣 诞
召 开</w>
反 复</w>
北 京
动 物
加拿 大</w>
决 不</w>
冲 绳</w>
例 子</w>
仪 式</w>
今 年
乒乓 球</w>
之 下</w>
东 方
业 绩</w>
专 门</w>
专 家</w>
一 跳</w>
音 机</w>
道 具</w>
适 当</w>
这 首</w>
角 度</w>
考虑 一下</w>
科 学
眼 光</w>
看 法</w>
登 录</w>
特 征</w>
活 力</w>
模 仿</w>
有 力</w>
放 暑假</w>
支 票</w>
摔 倒</w>
手 上</w>
我 发</w>
成 立</w>
庆 典</w>
好 几
好 了
契 约</w>
因 素</w>
合 格</w>
发 烧</w>
卫 生</w>
全 身</w>
全 体</w>
促 进</w>
他 来</w>
人 士</w>
临 时</w>
不 然</w>
万 日元</w>
一 会</w>
高尔 夫</w>
饭 菜</w>
饭 店</w>
顺 便</w>
难 受</w>
送 来</w>
转 移</w>
解 除</w>
血 液</w>
虽 说</w>
葡 萄</w>
红 叶</w>
第 一个</w>
真 相</w>
男 孩子</w>
犯 人</w>
然 而</w>
游 乐
洪 水</w>
洗 澡</w>
毫 无
月 末</w>
旅 馆</w>
意 志</w>
思 议</w>
心 意</w>
学 期</w>
喜 爱</w>
发给 你</w>
加 以</w>
修 好</w>
保 重</w>
优 先</w>
人 会</w>
为 难</w>
东方 仗助</w>
不可 思议</w>
一 项</w>
4 0</w>
20 0
1 4</w>
预 报</w>
须 要</w>
重 点</w>
邮 寄</w>
那 個</w>
这 台</w>
运 气</w>
说 好</w>
美 妙</w>
目 的
百 分
班 级</w>
物 资</w>
激 烈</w>
杀 手</w>
有 所</w>
星 星</w>
时 刻</w>
早 人</w>
文 化
技 能</w>
打 网球</w>
庄 稼</w>
市 场
山 顶</w>
山 上</w>
屋 子里</w>
小 组</w>
对 面</w>
宝 宝</w>
好 喝</w>
团 结</w>
参 与</w>
原 本</w>
做 菜</w>
保 险
作 出</w>
优 点</w>
代 表
不 许</w>
不 如
o s
6 0</w>
锐 君</w>
诊 断</w>
认 可</w>
观 众</w>
老 实</w>
紧 紧</w>
第 三
睡 眠</w>
相 反</w>
盘 子</w>
百 货
申请 书</w>
田 中</w>
现 状</w>
消费 者</w>
泰 国</w>
沙 发</w>
欢 迎
样 本</w>
期 望</w>
方 针</w>
改 进</w>
把 手</w>
才 行</w>
战 胜</w>
很 会</w>
开 着</w>
开 关</w>
延 期</w>
干 劲</w>
大 事</w>
夏威 夷</w>
地 板</w>
厂 长</w>
利 亚</w>
分 类</w>
冠 军</w>
全 面</w>
全 是</w>
作 文</w>
会 话</w>
个 儿</w>
一 头</w>
黑 暗</w>
风 格</w>
震 惊</w>
问 问</w>
途 中</w>
逃 走</w>
车 辆</w>
超 级</w>
详 情</w>
证 券</w>
见 过</w>
美 子</w>
结 算</w>
第 二</w>
笑 脸</w>
竞 争</w>
离 婚</w>
犯 罪</w>
河 里</w>
收 下</w>
忍 耐</w>
忍 受</w>
庭 院</w>
就 让</w>
小 伙
小伙 子</w>
好 玩</w>
失 误</w>
天 下</w>
夜 里</w>
基 准</w>
各 地</w>
友 好</w>
包 装</w>
加 班</w>
出 租车</w>
凉 快</w>
信 心</w>
信 任</w>
伤 心</w>
乐 器</w>
不得 了</w>
不 能
一 颗</w>
一 本</w>
黄 色</w>
麻 美子</w>
鲁 迅</w>
革 命
面 对</w>
非常 高兴</w>
重 大</w>
违 反</w>
谈 判</w>
菜 单</w>
聚 集</w>
罢 了</w>
续 费</w>
第二 次</w>
第二 天</w>
真 理</w>
目的 地</w>
目 录</w>
电 池</w>
泡 澡</w>
昨 天晚上</w>
拥 挤</w>
手 续费</w>
手 法</w>
房 屋</w>
恶 心</w>
心 灵</w>
底 下</w>
平 静</w>
小 王</w>
家 乡</w>
坚 强</w>
回 收</w>
喂 喂</w>
商 业</w>
唯 一</w>
品 牌</w>
味 儿</w>
同 伴</w>
口 袋</w>
发 售</w>
反 而</w>
卡 车</w>
仿 佛</w>
义 务</w>
不 及</w>
一 辆</w>
一 代</w>
驾 驶</w>
飞 行</w>
领 导
集 团</w>
金 钱</w>
这 样的话</w>
财 产</w>
该 死</w>
证 券
警 告</w>
袋 子</w>
衷 心</w>
衬 衫</w>
药 物</w>
红 酒</w>
篮 球</w>
称 为</w>
积 极
相 对</w>
疼 痛</w>
电子 邮件</w>
牺 牲</w>
灾 害</w>
沿 着</w>
污 染</w>
横 滨</w>
来 得</w>
杞 纱</w>
日 记</w>
放 进</w>
按 钮</w>
抱 怨</w>
我 刚</w>
悠 闲
平 衡</w>
尽 力</w>
宿 舍</w>
好 人</w>
墙 壁</w>
坐 下</w>
善 于</w>
品 种</w>
吵 死</w>
即 将</w>
力 气</w>
制 品</w>
出 版</w>
准 确</w>
其 他人</w>
入 侵</w>
健 三</w>
作 战</w>
以 内</w>
个 星期</w>
上 涨</w>
一 整天</w>
r e
遭 遇</w>
运 输</w>
踢 足球</w>
解 开</w>
西 亚</w>
纪 念</w>
笔 记
短 信</w>
着 手</w>
眼 神</w>
皇 后</w>
用 来</w>
理 学</w>
炎 热</w>
淇 淋</w>
楼 梯</w>
杯 子</w>
暑 期</w>
星期 五</w>
时 常</w>
指 挥</w>
报 告
投 资
恋 人</w>
很 帅</w>
很 小</w>
开 门</w>
差 异</w>
尝 尝</w>
家 务</w>
宠 物</w>
多 长时间</w>
多 田</w>
嘉 味
周 一</w>
午 餐</w>
劳动 者</w>
动物 园</w>
加 强</w>
制 服</w>
冰 淇淋</w>
关 上</w>
公 布</w>
光 荣</w>
从 前</w>
今天 天气</w>
人 去</w>
亲 自</w>
两 位</w>
下 车</w>
上 下</w>
一 阵
一 向</w>
5 00</w>
青 春</w>
隐 藏</w>
这 下</w>
运 营</w>
轻 易</w>
评 论</w>
被 称作</w>
营 养</w>
胡 子</w>
老 王</w>
老 是</w>
神 社</w>
看 书</w>
看 不
疲 劳</w>
甚 至</w>
独 立</w>
熟 悉</w>
汉 字</w>
气 味</w>
有 过</w>
新 人</w>
接 待</w>
指 数</w>
持 有</w>
开 放</w>
建 造</w>
应 付</w>
屋 顶</w>
居 民</w>
就 业</w>
安 全
孩 儿</w>
姿 势</w>
好久 不见</w>
天 气
大 学生</w>
大 地</w>
合 并</w>
受 理</w>
发 型</w>
反 动
历 史
医 疗</w>
功 夫</w>
傍 晚</w>
住 宿</w>
优 惠</w>
今天 下午</w>
产 阶级</w>
主 角</w>
中 意</w>
三 十
一 对</w>
顺 利
队 员</w>
采 访</w>
部 件</w>
辣 椒</w>
记 者</w>
规 格</w>
补 考</w>
补 习班</w>
股 份</w>
而 言</w>
结 账</w>
睡 得</w>
目 前
目前 为止</w>
癌 症</w>
牛 肉</w>
比 例</w>
欣 赏</w>
杀 人</w>
星期 一</w>
无 视</w>
提 升</w>
指 标</w>
所 在</w>
弹 钢琴</w>
尾 巴</w>
小 学生</w>
封 建
守 护</w>
子 弹</w>
好 好
头 痛</w>
夜 晚</w>
商 品
吸 收</w>
右 边</w>
古 老</w>
变 好</w>
厨 房</w>
卡 拉</w>
删 除</w>
创 作</w>
几 岁</w>
做 作业</w>
假 日</w>
书 店</w>
两 只</w>
饮 食</w>
静 下来</w>
问 候</w>
过 后</w>
读 者</w>
请 教</w>
补 充</w>
行 程</w>
花 儿</w>
舒 适</w>
自 身</w>
老 婆</w>
登 上</w>
疯 狂
疯狂 钻石</w>
毛 病</w>
每 月</w>
正 经</w>
模 式</w>
本 体</w>
有 一天</w>
月 底</w>
搭 话</w>
接 着</w>
护 士</w>
打 招呼</w>
截 止</w>
我 們</w>
慎 重</w>
总 有一天</w>
得 出</w>
开 朗</w>
广 播</w>
平 安
尊 重</w>
实 力</w>
宇 宙</w>
太 小</w>
复 印
士 兵</w>
地 里</w>
吓 了
吓了 一跳</w>
友 好
协 议</w>
出 国</w>
典 型</w>
入 口</w>
做 些</w>
传 说</w>
人 群</w>
亲 人</w>
交 涉</w>
交 易
中 暑</w>
O K</w>
1 6</w>
1 000</w>
这 笔</w>
迎 来</w>
请 原谅</w>
说 实话</w>
诅 咒</w>
要 性</w>
表 示
行 业</w>
虫 子</w>
落 后</w>
给 我发</w>
组 装</w>
纠 纷</w>
精 力</w>
科 目</w>
百 万</w>
生 肖</w>
球 队</w>
清 单</w>
汉 堡</w>
木 头</w>
整 齐</w>
教 训</w>
想 像</w>
当 成</w>
年 度</w>
差 点</w>
宴 会</w>
存 款</w>
委员 会</w>
太 过</w>
天 堂</w>
外 边</w>
回 音</w>
嘉味 田</w>
及 格</w>
前 后</w>
公 共
入 学</w>
会议 室</w>
不 论</w>
不 要紧</w>
不 容易</w>
2 00</w>
风 雨</w>
难 不成</w>
邮 票</w>
这 幅</w>
输 给</w>
赶 不上</w>
说 谎</w>
袭 击</w>
美 术
经 费</w>
等 一下</w>
电 波</w>
玻 璃
现代 化</w>
物 价</w>
此 事</w>
桌 上</w>
有 限</w>
放 到</w>
播 放</w>
抑 制</w>
所 示</w>
感 到
悠闲 地</w>
性 子</w>
心 眼儿</w>
心 理</w>
局 面</w>
审 查</w>
威 胁</w>
好了 吗</w>
头 子</w>
失 礼</w>
大 门</w>
大 多数</w>
回 家
吹 奏
名 单</w>
右 手</w>
可 不是</w>
受 不了</w>
发 来</w>
发 了</w>
双 手</w>
势 力</w>
利 润</w>
关 门</w>
兰 盆</w>
供 应</w>
主 题</w>
个 性</w>
不 觉</w>
不 算</w>
不 爽</w>
不 明</w>
三 年级</w>
一 夜</w>
一 到</w>
o n</w>
频 繁</w>
钉 子</w>
这么 晚</w>
运 送</w>
赢 得</w>
货 单</w>
般 的</w>
职 位</w>
老 板</w>
继 承</w>
组 成</w>
电话 号码</w>
熟 练</w>
消 费</w>
浑 身</w>
测 定</w>
死 去</w>
次 见面</w>
树 上</w>
某 种</w>
某 些</w>
星期 三</w>
早 已</w>
无 可
教 练</w>
放 下</w>
收 取</w>
报告 书</w>
报 价</w>
我 去</w>
情 节</w>
恐 惧</w>
很 累</w>
很 强</w>
引 进</w>
广 泛</w>
带 我去</w>
左 边</w>
实 实</w>
姐 妹</w>
奇 迹</w>
地 步</w>
可 疑</w>
只 不过</w>
句 子</w>
发 布</w>
十二 生肖</w>
前 途</w>
初 次见面</w>
兼 职</w>
信 用</w>
依 赖</w>
住 址</w>
价 钱</w>
人 偶</w>
争 取</w>
书 包</w>
一 支</w>
高 级</w>
马 拉
铁 塔</w>
金 属</w>
邮 箱</w>
這 樣</w>
逃 避</w>
过 敏</w>
身 材</w>
走 向</w>
资 本</w>
货 币</w>
请 来</w>
诚 实</w>
视 频</w>
菲 律
获 胜</w>
航 班</w>
胳 膊</w>
职 务</w>
羽 鸟</w>
缺 席</w>
笔记 本</w>
祝 福</w>
礼 拜
电影 院</w>
电 梯</w>
瓶 子</w>
牙 齿</w>
热 烈</w>
灯 光</w>
深 深</w>
概 念</w>
旋 转</w>
指 南</w>
投 入</w>
我 想</w>
感 想</w>
心 底</w>
庙 会</w>
字 典</w>
姓 名</w>
头 脑</w>
多 谢</w>
咖 喱</w>
和 服</w>
发 射</w>
反 映</w>
原 君</w>
博 物
功 课</w>
到 此
利 害</w>
出 名</w>
公 主</w>
修 复</w>
人 事</w>
产 品
主 动</w>
不 起来</w>
a p
B C</w>
酒 吧</w>
运 行</w>
运 作</w>
责 任
豆 腐</w>
请 多
说 明书</w>
证 书</w>
规 律</w>
血 压</w>
能 否</w>
老 虎</w>
笑 话</w>
积 累</w>
研 修</w>
石 油</w>
登 山</w>
玩 吧</w>
特 定</w>
水 分</w>
校 园</w>
杀 死</w>
朝 着</w>
拉 面</w>
把 握</w>
成 分</w>
年 来</w>
宝 贵</w>
大 衣</w>
大 自然</w>
大 型</w>
外 交
嘴 唇</w>
告 白</w>
吹奏 乐</w>
否 定</w>
同 一</w>
各 国</w>
博物 馆</w>
半 夜</w>
共 同
八 点</w>
债 券</w>
何 时</w>
价 单</w>
主 义
中 国
不 懂</w>
下 单</w>
万 元</w>
一 说</w>
一 脸</w>
i n
馒 头</w>
餐 馆</w>
集 体</w>
闷 热</w>
重 新
进 攻</w>
返 还</w>
运 转</w>
辆 车</w>
车 上</w>
谈 谈</w>
请多 关照</w>
说不 出</w>
说 法</w>
说 些</w>
误 解</w>
言 语</w>
菲律 宾</w>
英语 会话</w>
背 上</w>
结 实</w>
糊 涂</w>
精 彩</w>
签 证</w>
竞 赛</w>
睡 眠
真 心</w>
看 吧</w>
百分 之
生 长</w>
生 存</w>
爱 情</w>
照 相机</w>
灵 魂</w>
激 动</w>
洗 手
步 行</w>
歌 唱</w>
格 外</w>
树 枝</w>
树 木</w>
村 庄</w>
普 通
晚 会</w>
文 件
放 入</w>
收 音机</w>
擅 自</w>
找 个</w>
愚 蠢</w>
忽 然</w>
心 事</w>
得 来</w>
年 间</w>
工 程
岗 位</w>
屁 股</w>
尤 其</w>
小 鱼</w>
寻 求</w>
对 应</w>
好 久</w>
头 疼</w>
在 乎</w>
回 老家</w>
喜 悦</w>
商 场</w>
古 代</w>
发 明</w>
发 动</w>
厄 运</w>
协 商</w>
动 不动</w>
前 来</w>
公 交
体 育</w>
会 长</w>
会 员</w>
从 那
争 论</w>
举 止</w>
不 用
不 小</w>
不 妙</w>
不 但</w>
下 雪</w>
一 篇</w>
一 大</w>
顾 问</w>
阵 地</w>
那 辆</w>
车 票</w>
走 进</w>
调 节</w>
调 动</w>
词 语</w>
讲 究</w>
让 人</w>
解决 问题</w>
萝 卜</w>
艰 难</w>
股 票
绘 理</w>
红 茶</w>
紧 急
筷 子</w>
穿 过</w>
睡眠 不足</w>
盛 开</w>
独 特</w>
特 意</w>
游 行</w>
洗手 间</w>
没 来</w>
汇 报</w>
毛 巾</w>
榊 原君</w>
有 利</w>
月 光</w>
撒 谎</w>
描 写</w>
招 募</w>
承 蒙</w>
恶 化</w>
得 知</w>
影 片</w>
弱 点</w>
平 均</w>
差 别</w>
实 习</w>
孙 子</w>
好 几个</w>
好 不容易</w>
大 规模</w>
多 多</w>
培 育</w>
地 笑</w>
在 一起</w>
喉 咙</w>
周 年</w>
原 料</w>
卫 星</w>
十 个</w>
动 画</w>
动 摇</w>
前 往</w>
分 成</w>
减 轻</w>
再 见面</w>
公 安
公 司
低 音</w>
会 计
企 划</w>
从 没</w>
从 来
五 分钟</w>
乐 罗</w>
之 处</w>
一 笔</w>
一 年级</w>
i s
A BC</w>
设 立</w>
议 论</w>
认 定</w>
觉 悟</w>
西班 牙</w>
自 由
能 量</w>
老 年人</w>
缴 纳</w>
纪 律</w>
系 列</w>
粒 细胞</w>
立 马</w>
确 保</w>
看 不到</w>
用 心</w>
珍 贵</w>
玉 米</w>
独 自</w>
漫 画家</w>
流 动</w>
活 下去</w>
步 骤</w>
来 回</w>
无 比</w>
放 着</w>
援 助</w>
损 害</w>
按 时</w>
往 往</w>
引 发</w>
开 口</w>
延 迟</w>
干 雄</w>
干 涉</w>
天气 预报</w>
多 种</w>
复印 件</w>
基 金</w>
在 于</w>
喝 茶</w>
后 背</w>
同 情</w>
同 一个</w>
合 宿</w>
可 靠</w>
可 不</w>
前 些
出 身</w>
凉 爽</w>
做 点</w>
做 梦</w>
份 文件</w>
价 格
从来 不</w>
互 相
主义 者</w>
一 手</w>
a n
8 0</w>
香 蕉</w>
风 纪</w>
预 备</w>
面 子</w>
限 定</w>
附 加</w>
邻 居</w>
那 台</w>
送 货</w>
进 货</w>
这 人</w>
起 精神</w>
起 到</w>
走 上</w>
财 务
读 完</w>
语 法</w>
订 货</w>
节 约</w>
艰 苦</w>
老 头子</w>
美术 馆</w>
缺 少</w>
窗 口</w>
眼 看</w>
玩 得</w>
滑 雪</w>
氧 化
正 当</w>
模 特</w>
构 成</w>
权 力</w>
机 器
无 法
改 造</w>
拖 拉
把 门</w>
批 判</w>
扔 掉</w>
打 起精神</w>
打 折</w>
打 听</w>
懂 得</w>
意 味
情 侣</w>
张 纸</w>
开 支</w>
平 安</w>
布 置</w>
尽 情</w>
小 麦</w>
密 斯</w>
家 庭
室 内</w>
娃 娃</w>
好 转</w>
夫 人</w>
太 快</w>
大 夫</w>
城 镇</w>
地 铁</w>
在 内</w>
哪 些</w>
哈 哈</w>
咖啡 店</w>
告 别</w>
吃 了
可 别</w>
叫 声</w>
反 省</w>
协 定</w>
刊 登</w>
停 留</w>
优 美</w>
人 心</w>
交 到</w>
亚 洲</w>
久 美</w>
不知 不觉</w>
不 仅仅</w>
下 列</w>
一 瞬间</w>
一 双</w>
L I
骨 折</w>
骗 人</w>
饺 子</w>
预 防</w>
顺利 进行</w>
面 积</w>
面 目</w>
那 张</w>
遗 产</w>
透 明</w>
选 举</w>
车 间</w>
身 高</w>
规 划</w>
见 解</w>
著 名</w>
花 岛</w>
自 豪</w>
股 东</w>
联 合</w>
耐 心</w>
称 呼</w>
知 识
相 似</w>
电 线</w>
演 技</w>
气 息</w>
村 里</w>
本 事</w>
有 钱</w>
有 种</w>
早 日</w>
旅 行
放 开</w>
搞 错</w>
搜 索</w>
推 测</w>
拿 来</w>
当 面</w>
强 化</w>
帅 气</w>
山 里</w>
小 狗</w>
寺 庙</w>
寄 宿</w>
始 终</w>
大 厅</w>
多多 指教</w>
垃 圾
场 合</w>
地 去</w>
后 辈</w>
史 密斯</w>
发 票</w>
参 照</w>
前 方</w>
初 期</w>
刚 好</w>
分 手</w>
出 示</w>
健 身
保 留</w>
使 人</w>
何 必</w>
位 于</w>
高 度</w>
骨 头</w>
食 材</w>
革 新</w>
逮 捕</w>
退 出</w>
路 口</w>
试 者</w>
要 素</w>
荒 木</w>
英语 课</w>
苦 恼</w>
老 公</w>
编 辑</w>
绝 不</w>
白 痴</w>
玩 耍</w>
狠 狠</w>
物 体</w>
热 心</w>
点 子</w>
火 箭</w>
游 泳池</w>
深 入</w>
浴 衣</w>
洗 衣
没 收</w>
没 想</w>
模 样</w>
树 林</w>
树 叶</w>
标 记</w>
有 时候</w>
景 象</w>
是 非</w>
易 懂</w>
日 常</w>
无 所
数 值</w>
操 纵</w>
拿 走</w>
报 酬</w>
憧 憬</w>
愤 怒</w>
性 质</w>
律 师</w>
很 晚</w>
强 调</w>
弓 箭</w>
幽 灵</w>
小 花</w>
寄 给</w>
它 们</w>
学 习
孤 独</w>
存 货</w>
媒 体</w>
大 哥</w>
地 向</w>
国 家
听 懂</w>
吃了 饭</w>
可 真</w>
参 加
厌 烦</w>
动 手</w>
务 员</w>
前些 天</w>
几 位</w>
养 分</w>
傻 瓜</w>
健身 房</w>
信 号</w>
体 温</w>
住 所</w>
主 席</w>
主 人</w>
中 途</w>
专 心</w>
不 顾</w>
不 定</w>
一 回</w>
os ;</w>
ap os;</w>
6 5</w>
& apos;</w>
黑 色</w>
马拉 松</w>
邮 局</w>
转 换</w>
谨 慎</w>
观 看</w>
见 崎</w>
衷 心
营业 额</w>
能 干</w>
翻 译
翅 膀</w>
纷 纷</w>
等 候</w>
窗 帘</w>
痛 快</w>
烤 肉</w>
点 半</w>
港 口</w>
清 爽</w>
清 扫</w>
氛 围</w>
欧 洲</w>
棉 花</w>
极 其</w>
来 信</w>
杀 人
机 票</w>
最 低</w>
明 信
明信 片</w>
无 数</w>
报 名</w>
手 脚</w>
戒 指</w>
恰 当</w>
怀 着</w>
干 脆</w>
工 业
小 重</w>
小 船</w>
家 族</w>
安 慰</w>
夫 妻</w>
大 笑</w>
大 学
咳 嗽</w>
吉 良</w>
合 约</w>
吃 掉</w>
司 机</w>
受 试者</w>
参 考
化 学
包 围</w>
加 热</w>
关 键</w>
公 车</w>
公 斤</w>
免 疫</w>
债 务</w>
你 去</w>
事 前</w>
书 记</w>
严 肃</w>
一 批</w>
一 幅</w>
20 12</w>
饭 团</w>
金 奖</w>
配 送</w>
遵 从</w>
这 片</w>
越 是</w>
说 是</w>
评 估</w>
要 点</w>
草摩 家</w>
英 文</w>
艺术 家</w>
胜 负</w>
职 工</w>
考 上</w>
美 容
红 辣椒</w>
笔 直</w>
竹 马</w>
种 子</w>
真 好</w>
相 识</w>
病 情</w>
留 宿</w>
电 子</w>
牲 口</w>
燃 料</w>
海 关</w>
浴 室</w>
法 人</w>
来 往</w>
条 约</w>
服务 器</w>
明 亮</w>
时 尚</w>
指 甲</w>
打 败</w>
打 倒</w>
我 读</w>
形 态</w>
平 均
干 线</w>
局 势</w>
小 御子</w>
宣 传
完 毕</w>
太 大</w>
坚 决</w>
场 面</w>
回 归</w>
四 处</w>
商 业
叶 子</w>
台 词</w>
口 子</w>
取 得
发 动机</w>
反 革命</w>
去 不去</w>
十 足</w>
化 学</w>
削 减</w>
出 演</w>
出 于</w>
决 断</w>
充 足</w>
保 障</w>
依 然</w>
体 制</w>
企 图</w>
人 事
二 十</w>
事 态</w>
主 页</w>
世 上</w>
不用 说</w>
不 说</w>
不 止</w>
不 愿</w>
一 页</w>
高 涨</w>
香 烟</w>
青 梅
青梅 竹马</w>
防 万一</w>
闭 嘴</w>
邮 箱
邮箱 地址</w>
避 开</w>
道 谢</w>
道 菜</w>
逗 留</w>
逃 跑</w>
这 根</w>
近 来</w>
足球 比赛</w>
走 廊</w>
豪 华</w>
袜 子</w>
草 原</w>
膝 盖</w>
脚 步</w>
群 众
纽 约</w>
签 字</w>
程 表</w>
神 经
着 想</w>
眼 里</w>
电 力</w>
生 动</w>
生 人</w>
点 钟</w>
溜 溜</w>
混 合</w>
深 夜</w>
沉 重</w>
水 面</w>
水 中</w>
气 球</w>
毫 不
毛 衣</w>
欺 凌</w>
查 明</w>
本 身</w>
无论 是</w>
教 给</w>
教 学
放 过</w>
改 良</w>
支 撑</w>
提 起</w>
推 迟</w>
接 到</w>
排 列</w>
拯 救</w>
抽 屉</w>
意味 着</w>
恶 劣</w>
总 统</w>
很久 以前</w>
很 感兴趣</w>
当 中</w>
开 动</w>
平 等</w>
带 你去</w>
希 美</w>
工 地</w>
小 小
对 付</w>
富 士
富士 山</w>
寄 送</w>
好久 没</w>
大 街</w>
大 批</w>
多 人</w>
复 习</w>
基 地</w>
地 域</w>
国 主义</w>
嘲 笑</w>
喝 点</w>
周 四</w>
名 古
名古 屋</w>
台 阶</w>
十 点</w>
劳动 力</w>
列 表</w>
出 手</w>
冲 击</w>
关 西</w>
共 享</w>
停 下</w>
信 封</w>
侵 略
传 真</w>
会 上</w>
以 防万一</w>
交 谈</w>
事 会</w>
两 张</w>
一 行</w>
一 笑</w>
一 日</w>
一 千
R e
预 想</w>
顽 固</w>
青 蛙</w>
钮 扣</w>
金 融</w>
资 本
说 服</w>
试 图</w>
见 识</w>
被 子</w>
表 白</w>
表 明</w>
行 情</w>
血 细胞</w>
脑 子里</w>
罪 犯</w>
综 合</w>
统 计</w>
经 营
类 似</w>
空 着</w>
短 期</w>
真 有</w>
疙 瘩</w>
留 学生</w>
电 报</w>
班 同学</w>
班 上</w>
爱 着</w>
焦 躁</w>
炉 子</w>
澳 大
湖 面</w>
游 戏
游 击
温 和</w>
流 氓</w>
沙 漠</w>
沙 子</w>
正 面</w>
正 一</w>
标 题</w>
本 质</w>
有 点
普 遍</w>
春 节</w>
星期 四</w>
早 晚</w>
无 敌</w>
教 育
教 科
放 假</w>
排 球</w>
找 出</w>
打 个</w>
我 本</w>
我 想
情 形</w>
悠 闲</w>
总 公司</w>
很久 没</w>
待 遇</w>
往 后</w>
尸 体</w>
小 鸟</w>
小 孩儿</w>
宝 石</w>
安 定</w>
好 些</w>
太 热</w>
外 表</w>
外 套</w>
堵 塞</w>
圣诞 节</w>
四 年</w>
喝 咖啡</w>
哪 怕</w>
吓 人</w>
合 计</w>
反动 派</w>
出 院</w>
出 货</w>
关 闭</w>
关 联</w>
公 共</w>
全 球</w>
光 辉</w>
体 会</w>
会 来</w>
以 往</w>
人 气</w>
亲 近</w>
两 点</w>
a k
7 0</w>
1 9</w>
黄 前</w>
鸡 肉</w>
问 好</w>
门 前</w>
长 江</w>
锐 太</w>
释 放</w>
遵 循</w>
迟 钝</w>
运动 会</w>
趋 势</w>
诞 生</w>
设 想</w>
计算 机</w>
解 放</w>
西 装</w>
装 备</w>
蚊 子</w>
脚 下</w>
美 术</w>
网 页</w>
缩 短</w>
细 致</w>
竞 争
突 破</w>
空 闲</w>
秩 序</w>
私 人</w>
百 姓</w>
用 水</w>
生日 快乐</w>
生 物
牢 骚</w>
熊 猫</w>
烟 火</w>
灵 活</w>
濑 尾</w>
泄 露</w>
汇 率</w>
水 泥</w>
歧 视</w>
检 验</w>
标 志</w>
柔 软</w>
果 汁</w>
朴 素</w>
服 用</w>
月 初</w>
暴 风雨</w>
暴 力</w>
整 体</w>
操 作
惩 罚</w>
忍 不住</w>
录 用</w>
当 作</w>
巴 巴</w>
已 有</w>
工 会</w>
导 弹</w>
定 义</w>
好好 学习</w>
好 消息</w>
奋 斗</w>
夫 妇</w>
天 生</w>
天 才</w>
天 上</w>
夏 日</w>
处 在</w>
土 豆</w>
喝 醉</w>
商 讨</w>
品 尝</w>
名 称</w>
反 动</w>
勇 敢</w>
到 家</w>
分 之一</w>
几 张</w>
减 肥</w>
冷 淡</w>
写 文章</w>
八 月</w>
停 车
促 销</w>
依 靠</w>
使 用
位 子</w>
估 算</w>
代 理</w>
人 情</w>
了 个</w>
乔 斯
乐 趣</w>
之 情</w>
举 动</w>
专 利</w>
不 介意</w>
下 跌</w>
上 衣</w>
七 点</w>
一 连</w>
一 路</w>
一 方面</w>
一 封信</w>
Re LI
ReLI F
ReLIF E</w>
9 0</w>
20 00</w>
1 7</w>
音乐 会</w>
非 洲</w>
雨 水</w>
钢 笔</w>
金 融
重 要性</w>
资 产阶级</w>
讲 座</w>
视 线</w>
规 矩</w>
要 死</w>
表 扬</w>
药 品</w>
节 奏</w>
自 从</w>
脑 筋</w>
肺 炎</w>
美 容</w>
素 材</w>
米 饭</w>
窗 外</w>
稿 子</w>
种 种</w>
福 冈</w>
神 色</w>
神 情</w>
确 信</w>
相 互
痕 迹</w>
留 下来</w>
熟 人</w>
游 客</w>
消 沉</w>
泉 水</w>
棒 了</w>
样 儿</w>
极 大</w>
杀 掉</w>
机器 人</w>
木 板</w>
時 候</w>
明 星</w>
时 间
日 式</w>
无 效</w>
新 闻
文 明</w>
政 权</w>
掌 声</w>
抵 达</w>
承 受</w>
扫 除</w>
手 册</w>
成 人</w>
意 料</w>
性 情</w>
很 忙</w>
很 困</w>
录 取</w>
强 度</w>
强 制</w>
康 复</w>
幻 想</w>
带 给</w>
带 到</w>
岁 月</w>
小 偷</w>
将 要</w>
宣 布</w>
完 全
嫉 妒</w>
奇 妙</w>
夸 奖</w>
太 棒了</w>
夜 明</w>
外 部</w>
复 制</w>
块 儿</w>
困 惑</w>
回家 吧</w>
喝 啤酒</w>
响 起</w>
厂 里</w>
博 客</w>
单 独</w>
别 管</w>
内 裤</w>
内 衣</w>
具 备</w>
入 场</w>
借 口</w>
住 手</w>
优 势</w>
他 們</w>
今年 夏天</w>
乔斯 达</w>
不 已</w>
不 休</w>
下 载</w>
一大 早</w>
一 家人</w>
一 台</w>
一 共</w>
e r</w>
2 2</w>
鼓 舞</w>
黄 河</w>
高 速</w>
食 欲</w>
题 目</w>
顾 虑</w>
青 年人</w>
阴 谋</w>
阳 台</w>
重 量</w>
邂 逅</w>
道 德</w>
这 点儿</w>
车 子</w>
身体 状况</w>
超 越</w>
说 来</w>
说 得
详 细
话 语</w>
西 红
西红 柿</w>
装 作</w>
表示 感谢</w>
著 作</w>
英 雄
船 上</w>
自我 介绍</w>
自 动
维 修</w>
统 治</w>
结 合</w>
策 略</w>
第二 个</w>
穷 人</w>
真 让人</w>
看 样子</w>
眉 毛</w>
电视 节目</w>
燃 烧</w>
点 到</w>
澳大 利亚</w>
游乐 园</w>
没 完</w>
汽 油</w>
民 主
毕业 生</w>
正 义</w>
橘 子</w>
标 签</w>
有 限
有 效
有 件事</w>
日 常
日 出</w>
旅 客</w>
新 干线</w>
文件 夹</w>
文 艺
教科 书</w>
教 导</w>
政治 家</w>
支 出</w>
摄 影
携 带</w>
掉 下来</w>
按 摩</w>
招 聘</w>
投资 者</w>
投 稿</w>
手 工</w>
所 知</w>
戴 着</w>
我 爱
想 不起来</w>
总 会</w>
心 头</w>
心 上</w>
小 猫</w>
导 入</w>
宪 法</w>
学 好</w>
季 度</w>
子 女</w>
好 意</w>
契 机</w>
夸 张</w>
太 远</w>
大学 毕业</w>
大 胆</w>
多 大</w>
多 个</w>
增 强</w>
塑 料</w>
坐 飞机</w>
国 王</w>
名 片</w>
发 电
反 抗</w>
华 丽</w>
剧 本</w>
军 事</w>
写 字</w>
公交 车</w>
健 康
停 车</w>
做 过</w>
余 地</w>
体 系</w>
住 宅</w>
传 递</w>
代 理
人 人</w>
二 百
予 以</w>
中 毒</w>
个 别</w>
不管 怎么</w>
一 间</w>
C D</w>
阿 拉
那 栋</w>
避 难</w>
选 出</w>
身 手</w>
诉 讼</w>
计 划
要 来</w>
蠢 货</w>
草 案</w>
航 空
联 系
老 大
缩 小</w>
继 续
绝 不会</w>
签 订</w>
等 于</w>
称 赞</w>
积极 性</w>
科 学家</w>
福 利</w>
疫 苗</w>
疗 法</w>
球 菌</w>
现 代</w>
特 性</w>
灰 色</w>
演 奏
清 理</w>
海 上</w>
法 语</w>
没 带</w>
沙 滩</w>
正 要</w>
欺 骗</w>
欢迎 光临</w>
柜 台</w>
板 子</w>
显 著</w>
明 治</w>
无 辜</w>
无 事</w>
文 物</w>
教 会</w>
提 琴</w>
损 伤</w>
挑 选</w>
打 着</w>
打 发</w>
打 动</w>
成 就</w>
性 感</w>
思 想
志 愿</w>
志 愿
很 深</w>
形 容</w>
建 成</w>
平 稳</w>
常 见</w>
带 有</w>
帐 篷</w>
工作 者</w>
就 职</w>
尚 未</w>
小小 的</w>
射 击</w>
寄 存</w>
学 问</w>
学 生
学 位</w>
姿 态</w>
妥 当</w>
天 使</w>
大 雪</w>
图 书</w>
却 是</w>
半 个</w>
午 觉</w>
化 妆
动 漫</w>
动 力</w>
前 去</w>
刷 牙</w>
养 老
共 产
入 住</w>
使 得</w>
人 公</w>
交易 所</w>
五 点</w>
二 人</w>
主 人公</w>
中 性</w>
专 用</w>
不 尽</w>
不 堪</w>
不 便</w>
下 流</w>
一 刻</w>
一 個</w>
一 丝</w>
一 不
a t
饼 干</w>
零 钱</w>
陷 阱</w>
镜 子</w>
酱 油</w>
都 行</w>
那 辆车</w>
那 幅</w>
那 句话</w>
近 期</w>
辜 负</w>
诗 人</w>
葡萄 酒</w>
萌 姐</w>
花 瓶</w>
自 杀</w>
膨 胀</w>
脱 离</w>
能 源</w>
职 场</w>
职 业
老 朋友</w>
翻译 成</w>
美 的</w>
美 女</w>
置 信</w>
线 索</w>
稍 等一下</w>
礼 拜</w>
破 产</w>
看 待</w>
盒 子</w>
电视 机</w>
田 地</w>
玩 意</w>
特 点</w>
物 理</w>
版 本</w>
照 相</w>
热 水</w>
热 得</w>
烈 士</w>
潜 水</w>
清 晰</w>
深 深
海 洋</w>
海 水</w>
流 利</w>
洗 衣服</w>
求 婚</w>
残 酷</w>
来 得
来 不及</w>
有限 公司</w>
有 话</w>
有 害</w>
最 高
无 限</w>
无 关</w>
政 党</w>
操 心</w>
搭 乘</w>
换 乘</w>
损 坏</w>
指 责</w>
拖拉 机</w>
战 斗
我 该</w>
想 不到</w>
忘 不了</w>
很 久</w>
广 大</w>
年 末</w>
帮 到</w>
局 长</w>
少 数</w>
学 院</w>
妨 碍</w>
女 士</w>
大 意</w>
大 幅</w>
外 观</w>
夕 阳</w>
堵 车</w>
土 特产</w>
土 壤</w>
图 片</w>
因 為</w>
吃 药</w>
发 誓</w>
发 电</w>
参 赛</w>
厘 米</w>
卡 片</w>
卑 鄙</w>
十 五
力 于</w>
前 世</w>
制 成</w>
切 断</w>
分 为</w>
几 分钟</w>
兵 力</w>
关 岛</w>
停车 场</w>
停 下来</w>
倾 听</w>
修 学</w>
保 持
侵略 者</w>
以 为
代表 团</w>
付 钱</w>
从 今
人 节</w>
二 氧化
二 楼</w>
书 籍</w>
乡 下</w>
乐 观</w>
乎 乎</w>
两 条</w>
两 国</w>
不 平</w>
不 像</w>
下 个星期</w>
一 首</w>
一 部</w>
一 方</w>
一 圈</w>
一 员</w>
齐 全</w>
鸟 儿</w>
马 来
马来 西亚</w>
频 率</w>
页 面</w>
面 上</w>
集 中
限 度</w>
降 价</w>
闲 话</w>
闲 事</w>
都 市</w>
那 部</w>
那 本</w>
进 度</w>
这 天</w>
这 回</w>
运动 服</w>
过 敏
过 多</w>
越 南</w>
谣 言</w>
调 查
语 文</w>
识 别</w>
证 明书</w>
记 号</w>
视 为</w>
观 念</w>
要 命</w>
衣 裳</w>
葬 礼</w>
致 力于</w>
腾 腾</w>
老 头</w>
羞 耻</w>
缺 陷</w>
细 节</w>
精 心</w>
第 一天</w>
空 白</w>
直 觉</w>
监 狱</w>
登 陆</w>
留 言</w>
男 女</w>
用 手</w>
玩 弄</w>
王 老师</w>
满 脸</w>
清 洗</w>
深深 地</w>
浮 现</w>
浣 熊</w>
注意 力</w>
注 视</w>
沙 拉</w>
沉 默</w>
水 库</w>
民 族
歉 意</w>
检 测</w>
样 式</w>
智 慧</w>
晚 点</w>
晚 年</w>
春 咲</w>
星期 二</w>
星 人</w>
新 宿</w>
新 娘</w>
文 艺</w>
文 献</w>
整 整</w>
放 置</w>
收 成</w>
搬 运</w>
提 示</w>
挣 扎</w>
抱 住</w>
折 扣</w>
手 套</w>
我爱 你</w>
惊 人</w>
情 景</w>
志愿 者</w>
心 跳</w>
心 思</w>
很 近</w>
彩 票</w>
当 年</w>
当 前</w>
常 识</w>
市 内</w>
差 距</w>
山 区</w>
小 野</w>
对 比</w>
家 门</w>
客 厅</w>
实 验
定 性</w>
宇 治</w>
妹 子</w>
太 阳
天 色</w>
大 显
外 星人</w>
墨 水</w>
坦 率</w>
块 钱</w>
地 带</w>
图 像</w>
噬 细胞</w>
启 动</w>
听 不懂</w>
发 火</w>
双 鞋</w>
参加 者</w>
卖 出</w>
十 岁</w>
化 妆</w>
剪 头发</w>
剩 余</w>
利 息</w>
初 中
再 来</w>
公 平</w>
做 不了</w>
信 仰</w>
保 密</w>
依 旧</w>
余 额</w>
人 住</w>
交 朋友</w>
五 月</w>
五 十</w>
之 星</w>
两 国
不 足
不 愧</w>
不 在乎</w>
上 市</w>
万 分</w>
一 般
一 味</w>
o r
ak i</w>
M a
A c
麦 子</w>
高 高
预 订</w>
零 部件</w>
雨 天</w>
雨 下</w>
难 题</w>
隧 道</w>
镜 头</w>
酒 精</w>
送 过来</w>
追 踪</w>
这 套</w>
返 回</w>
迄 今
迄今 为止</w>
辫 子</w>
输 出</w>
轻 轻</w>
走 了</w>
赚 钱</w>
赔 偿</w>
貌 似</w>
谦 虚</w>
讲 习</w>
认 真
解 约</w>
行 驶</w>
行 政</w>
行 事</w>
莫 非</w>
股 市</w>
联 盟</w>
而 来</w>
老 爷</w>
老 太太</w>
结 月</w>
纪念 品</w>
糊 糊</w>
秋 田</w>
研究 所</w>
真 对不起</w>
直 线</w>
用 功</w>
用 力</w>
班 主任</w>
玲 奈</w>
玉 来</w>
猴 子</w>
犯 罪
物 流</w>
牙 医</w>
熬 夜</w>
清 醒</w>
清 洁</w>
海 滩</w>
流 程</w>
活 泼</w>
注意 安全</w>
河 边</w>
沟 通</w>
气 体</w>
毫 不</w>
武 装</w>
欲 望</w>
次 数</w>
橡 胶</w>
模 糊</w>
棵 树</w>
案 子</w>
柱 子</w>
时 请</w>
时 而</w>
日 程表</w>
无 知</w>
新 车</w>
效 应</w>
收 据</w>
搭 配</w>
接 电话</w>
排 除</w>
指 挥
打 碎</w>
打 得</w>
打 出</w>
我 点</w>
感到 高兴</w>
意 图</w>
情 人节</w>
急 剧</w>
怜 子</w>
快 到</w>
忙 于</w>
心 肠</w>
很 差</w>
往 前</w>
废 除</w>
店 员</w>
平 日</w>
市 民</w>
巨 噬细胞</w>
展 出</w>
就 行</w>
小 姑娘</w>
容 许</w>
学 了</w>
字 母</w>
契 约
太 累</w>
天 津</w>
天 安
大 叔</w>
夜 见</w>
多 岁</w>
声 明</w>
增 产</w>
培 训</w>
坏 话</w>
圈 子</w>
圆 满</w>
围 着</w>
回 报</w>
回 应</w>
嘴 巴</w>
周 二</w>
向 着</w>
右 转</w>
叫 醒</w>
发 生
印 章</w>
印 度
动 向</w>
到 晚</w>
列 举</w>
分 享</w>
出 汗</w>
再 三</w>
全 员</w>
儿 女</w>
偷 偷</w>
信 件</w>
传 闻</w>
优 惠
仪 器</w>
交 付</w>
事 例</w>
乘 客</w>
之 上</w>
中 旬</w>
不 远</w>
不 理</w>
不 合</w>
三 点</w>
三 周</w>
一阵 子</w>
一 班</w>
一 惊</w>
19 9
黄 油</w>
驾 照</w>
零 售
难以 置信</w>
防 水</w>
长 城</w>
错 过</w>
酸 性</w>
郁 夫</w>
遇 上</w>
送 达</w>
这 批</w>
这 才</w>
运 输
轮 胎</w>
路 过</w>
走 出</w>
责 备</w>
谈 论</w>
课 堂</w>
解放 前</w>
解放 军</w>
衷心 感谢</w>
行 人</w>
蜜 蜂</w>
虚 弱</w>
草 莓</w>
舌 头</w>
老 人家</w>
结 成</w>
终 止</w>
签 约</w>
种 植</w>
确 立</w>
研究 室</w>
看 护</w>
看 出</w>
相 当
疯 狂</w>
用 到</w>
甘 心</w>
班 长</w>
烟 雾</w>
点 头</w>
点 击</w>
灾 难</w>
灰 尘</w>
灭 绝</w>
滋 味</w>
清 除</w>
深 厚</w>
测 验</w>
注 重</w>
波 动</w>
油 漆</w>
每 天晚上</w>
歌 词</w>
根 本
样 才能</w>
柏 林</w>
枪 声</w>
本 地</w>
木 材</w>
有 钱
替 换</w>
暴 雨</w>
教 材</w>
放 在
收 获</w>
摇 晃</w>
摄 取</w>
据 点</w>
拳 头</w>
拥 抱</w>
抽 出</w>
打 印</w>
打 了个</w>
戒 烟</w>
想 来</w>
想 念</w>
恢 复
怎 样才能</w>
得 救</w>
引 导</w>
引 入</w>
开 学</w>
开 发
应 用</w>
应 征</w>
广 阔</w>
广 告
帝 国主义</w>
山 村</w>
富 裕</w>
学 过</w>
学 费</w>
婚 姻</w>
好 歹</w>
女 演员</w>
契约 书</w>
太 忙</w>
大显 身手</w>
坚 持
地 响</w>
四 次</w>
四 月</w>
商品 目录</w>
哲 学</w>
听 课</w>
吩 咐</w>
合 物</w>
变 强</w>
协 调</w>
千 代</w>
医 学</w>
加 深</w>
制 裁</w>
利 率</w>
判 决</w>
分 数</w>
养老 金</w>
六 年</w>
全 家</w>
充 分
催 促</w>
例 外</w>
体 重</w>
传 言</w>
会 谈</w>
人 造
人 材</w>
人 儿</w>
二氧化 碳</w>
事 务</w>
书 法</w>
书 写</w>
丽 奈</w>
中 断</w>
两 眼</w>
丢 人</w>
东 方</w>
与 其</w>
不 易</w>
不 敢
不 掉</w>
不 快</w>
一 觉</w>
一 级</w>
一 律</w>
一 击</w>
o c
M is
Ac t
鱼 谷</w>
高 速
阶 级
问 卷</w>
钢 铁</w>
金 牌</w>
重 伤</w>
通 讯</w>
这 趟</w>
费 时间</w>
购 物
账 目</w>
财 务</w>
豆 子</w>
谎 言</w>
说 起</w>
说 完</w>
试 穿</w>
记 着</w>
议 题</w>
训 斥</w>
解 雇</w>
观 光
西 服</w>
蜡 烛</w>
荞 麦
花 生</w>
艺 品</w>
艺 人</w>
色 彩</w>
联 合
老 张</w>
美 国
罐 头</w>
缘 故</w>
编 号</w>
维 护</w>
结 婚
移 民</w>
票 据</w>
百货 商店</w>
番 茄</w>
用 场</w>
球 赛</w>
现 金
狭 窄</w>
特 地</w>
爱 人</w>
烧 烤</w>
滞 留</w>
游乐 场</w>
洗 完</w>
泳 衣</w>
法 庭</w>
没 说</w>
水 里</w>
殖 民
此 人</w>
欢 乐</w>
果 实</w>
枕 头</w>
极 端</w>
来 过</w>
来 接</w>
束 缚</w>
本 领</w>
未 必</w>
服 从</w>
月 刊</w>
智 力</w>
景 点</w>
早 早</w>
日 益</w>
救 护
提 醒</w>
描 绘</w>
推 销</w>
排 队</w>
扣 子</w>
打 游戏</w>
打 架</w>
打 来</w>
我 养</w>
成 本
总 理</w>
怎 麼</w>
必 然</w>
得 意
待 人</w>
往 事</w>
弥 补</w>
引 用</w>
开 设</w>
帮 上</w>
市 政府</w>
差 一点</w>
工程 师</w>
工 艺品</w>
川 尻
履 历</w>
小 鸡</w>
射 程</w>
封 建</w>
家 长</w>
宗 教</w>
学 考试</w>
好 评</w>
好 不好</w>
奶 油</w>
奈 良</w>
太 重</w>
大 道</w>
大 树</w>
大 大</w>
场 景</w>
地 下
国 民</w>
四 周</w>
商 务</w>
哪 天</w>
告 辞</w>
否 认</w>
同 班同学</w>
台 上</w>
受 灾</w>
发 作</w>
南 方</w>
单 身</w>
半 身</w>
到此 结束</w>
到 货</w>
初 次</w>
创 业</w>
其 妙</w>
关 怀</w>
六 点</w>
光 是</w>
体 贴</w>
体 检</w>
体 力</w>
似 地</w>
休息 时间</w>
份 儿</w>
任 意</w>
人 口
交通 工具</w>
事 迹</w>
了 不得</w>
之 所以</w>
临 近</w>
不管 怎样</w>
不 问</w>
不 正</w>
不 及格</w>
上 门</w>
上 边</w>
三 角
三 月</w>
七 八
一 组</w>
一 想</w>
一 块儿</w>
Mis aki</w>
Act .
3 1</w>
2 3</w>
鲜 明</w>
高 龄</w>
高 级
高 温</w>
高 价</w>
骗 子</w>
验 证</w>
食 尘</w>
风 吹</w>
预 期</w>
预 感</w>
顽 强</w>
项 链</w>
难 忘</w>
隔 离</w>
附 在</w>
门 儿</w>
门 上</w>
长 期
量 一下</w>
里 边</w>
郊 游</w>
那 首歌</w>
那 项</w>
那 片</w>
遥 远</w>
选 拔</w>
送 别</w>
退 款</w>
违 背</w>
远 方</w>
这 栋</w>
这 所</w>
这 双鞋</w>
过 日子</w>
轻 轻
轰 炸</w>
转 达</w>
转 动</w>
身体 健康</w>
跟 踪</w>
跟 头</w>
起 飞</w>
账 号</w>
败 者</w>
象 征</w>
语 言
证 实</w>
订 正</w>
觉 到</w>
视 野</w>
西 方</w>
衣 裙</w>
蛋 白</w>
莫 名
莫名 其妙</w>
荞麦 面</w>
花 粉</w>
背 着</w>
肿 瘤</w>
肥 料</w>
耗 费</w>
考 察</w>
老 李</w>
羁 绊</w>
给 出</w>
纯 洁</w>
纤 维</w>
算 盘</w>
第一 名</w>
站 住</w>
神 秘</w>
祖 先</w>
破 损</w>
着 迷</w>
眺 望</w>
真 不
白 菜</w>
痊 愈</w>
男 友</w>
用 不着</w>
生 命
理 科</w>
现 有</w>
玉 米
猫 咪</w>
独 奏</w>
照 着</w>
消 化</w>
流 通</w>
派 遣</w>
洗 手</w>
没 意思</w>
汤 姆</w>
民 主</w>
格 式</w>
根 儿</w>
核 对</w>
杰 洛</w>
来得 及</w>
来 讲</w>
朵 花</w>
有 益</w>
最 多</w>
晃 晃</w>
新 生</w>
数 据
教 学</w>
救护 车</w>
放 手</w>
支 配</w>
摄 影</w>
捐 赠</w>
指 引</w>
护 理</w>
技术 革新</w>
房 租</w>
成 年人</w>
想 过</w>
急 忙</w>
得 意</w>
影 子</w>
录 像</w>
强 硬</w>
强 盗</w>
开 来</w>
应 用
广 播
并 非</w>
并 购</w>
带 走</w>
市场 营销</w>
山 路</w>
小 瞧</w>
小 利</w>
寿 命</w>
富 有</w>
寄 来</w>
害 者</w>
安 杰洛</w>
如 同</w>
太 过分</w>
太 晚</w>
大 致</w>
大 方</w>
夏 川</w>
堵 住</w>
坦 白</w>
坦 克</w>
坚 定</w>
喝 一杯</w>
商 量一下</w>
吴 先生</w>
同 班</w>
合 同
口 味</w>
发 送到</w>
友 情</w>
十 字
包 袱</w>
前 天</w>
别 看</w>
初中 生</w>
创 立</w>
分 散</w>
分 发</w>
出 血</w>
出 场</w>
几 句话</w>
写 得</w>
写 出</w>
写 下</w>
免 税</w>
光 明</w>
儿 童
做 爱</w>
信 息
俄 罗
低 头</w>
估 价单</w>
传 播</w>
传 单</w>
会 变</w>
众 人</w>
任 命</w>
亿 日元</w>
事 是</w>
事 事</w>
买 来</w>
书 架</w>
九 点</w>
乐 意</w>
严 格
两 家</w>
专 业
不 高</w>
不 由
不 时</w>
不 当</w>
不 变</w>
上 空</w>
上 映</w>
一 体</w>
a t</w>
3 65</w>
黑 板</w>
高 尚</w>
高 大</w>
驾 驶
饰 品</w>
集 训</w>
集 会</w>
隔 阂</w>
阴 天</w>
长 寿</w>
镇 上</w>
链 接</w>
里 人</w>
道 题</w>
连 衣裙</w>
违 法</w>
进 城</w>
这 棵</w>
这 封</w>
转 变</w>
超 人</w>
起 伏</w>
赠 送</w>
赞 同</w>
贵 社</w>
课 上</w>
读 过</w>
设 法</w>
解 答</w>
角 落</w>
规 范</w>
补 助</w>
融 化</w>
蛋 白
营 养
草 地</w>
茫 茫</w>
艰 苦
自 内心</w>
胞 胎</w>
肩 上</w>
联 网</w>
美 食</w>
笑 声</w>
神 户</w>
磁 带</w>
碰 头</w>
碍 事</w>
码 头</w>
真 想</w>
登 载</w>
电 灯</w>
甩 卖</w>
理 发
玩 游戏</w>
猪 肉</w>
燕 子</w>
游击 队</w>
游 览</w>
深 处</w>
消费 税</w>
消 极</w>
流 行
洗衣 机</w>
治 安</w>
没 到</w>
每 人</w>
检 查
材 质</w>
杀 伤
机 密</w>
本 社</w>
替 代</w>
智 能
晴 朗</w>
普 及</w>
时间 表</w>
日常 生活</w>
无 力</w>
旅 程</w>
文 学
整 顿</w>
散 布</w>
敏 感</w>
放 晴</w>
支 笔</w>
摩 托</w>
提 到</w>
披 萨</w>
抗 原</w>
投 票</w>
抓 紧</w>
执 照</w>
手 艺</w>
我 方</w>
我 下</w>
慢 跑</w>
慢 慢
慌 张</w>
恶 意</w>
性 恋</w>
忙 碌</w>
心 地</w>
得 以</w>
很 早</w>
很 受</w>
当 初</w>
弄 清楚</w>
开 个</w>
废 物</w>
庄 严</w>
干 燥</w>
干 杯</w>
带 回去</w>
差 额</w>
山 水</w>
小 河</w>
察 觉到</w>
寒 冷</w>
完 饭</w>
子 气</w>
委 屈</w>
姑 且</w>
妄 想</w>
头 来</w>
天 真</w>
大 多</w>
外 汇</w>
壮 观</w>
塑 料
城 里</w>
地 形</w>
国 籍</w>
善 良</w>
問 題</w>
商 标</w>
商 人</w>
哪 边</w>
哪 有</w>
哪 家</w>
吉 祥
各 项</w>
只 用</w>
受 人</w>
发 自内心</w>
发 抖</w>
去 取</w>
卖 完</w>
十 分
十 八
力 学</w>
前 线</w>
别 墅</w>
利 于</w>
分 裂</w>
分 布</w>
几 本书</w>
冬 季</w>
冒 险</w>
养 育</w>
兴 趣
关 税</w>
六 十
免 得</w>
光 线</w>
伴 随</w>
众 多</w>
从那 之后</w>
人 际
人 工
五 天</w>
二 年级</w>
乌 云</w>
两 倍</w>
东 海</w>
上 个星期</w>
一 贯</w>
一 等</w>
一 碗</w>
一 年
一 发</w>
一 切
鼻 涕</w>
风 俗</w>
韭 菜</w>
面 具</w>
静 脉</w>
震 动</w>
难 看</w>
附 加
阻 挡</w>
防 御</w>
闻 名</w>
长 处</w>
通 行</w>
逐 步</w>
轮 船</w>
转 学</w>
路 边</w>
足球 队</w>
赴 任</w>
走 过</w>
赤 泽</w>
负 荷</w>
读 物</w>
证券 公司</w>
讨 论
警 报</w>
被 迫</w>
补 贴</w>
补 偿</w>
行 李
蝴 蝶</w>
荣 誉</w>
茶 叶</w>
英 勇</w>
苦 难</w>
自 主</w>
背 叛</w>
肌 肤</w>
老 妈</w>
美 金</w>
罪 行</w>
罢 工</w>
缔 结</w>
缓 和</w>
经营 者</w>
线 路</w>
红 军</w>
紧急 情况</w>
素 质</w>
管 闲事</w>
管 制</w>
等 级</w>
窒 息</w>
积 压</w>
秘 书</w>
秀 丽</w>
离 别</w>
禁 止
礼 节</w>
碰 见</w>
知识 分子</w>
真 的
真的 假</w>
真 叫
真叫 人</w>
真 凉</w>
盖 章</w>
监 督</w>
皇 帝</w>
百 元</w>
癌 细胞</w>
田 里</w>
玩 偶</w>
狂 风</w>
牛 排</w>
照 看</w>
烹 饪</w>
热 情
火 山</w>
潮 流</w>
演 讲
满 满
消 防
浪 漫</w>
沉 沉</w>
汇 总</w>
水 管</w>
毫无 疑问</w>
欠 缺</w>
模 范</w>
楼 上</w>
树 立</w>
染 上</w>
极 限</w>
极 为</w>
杭 州</w>
杀伤 性</w>
机 能</w>
机 械
未 咲</w>
服务 员</w>
最 棒</w>
暂 停</w>
星期 日</w>
无 人</w>
无 人
新 加
敬 请</w>
敌 机</w>
撒 娇</w>
搜 集</w>
接 送</w>
抢 救</w>
抛 弃</w>
扣 除</w>
打 高尔夫</w>
打 包</w>
手 腕</w>
户 口</w>
战 场</w>
情 感</w>
忽 视</w>
心 想</w>
当 场</w>
开 拓</w>
广 州</w>
干 得</w>
常 用</w>
帅 哥</w>
左 手</w>
岩 石</w>
尼 亚</w>
小 路</w>
小 羽</w>
小 玉</w>
小 朋友</w>
小 张</w>
将 军</w>
对 劲</w>
寄 到</w>
宇 宙
学 术
好 痛</w>
好 听</w>
她 家</w>
奶 家</w>
奶 奶家</w>
头 部</w>
太 君</w>
天 亮</w>
大 战</w>
大 力
大 使</w>
外 地</w>
夏 纪</w>
复 印</w>
墨 西
堕 落</w>
坏 蛋</w>
在 外</w>
图 案</w>
噪 音</w>
喜 歡</w>
哭 泣</w>
哪 位</w>
咖啡 厅</w>
周 到</w>
向 上</w>
后 续</w>
后 方</w>
名 为</w>
同 性恋</w>
吃 完饭</w>
取 出</w>
发给 您</w>
发 达</w>
发 光</w>
去 玩</w>
即 便</w>
印 刷
南 北</w>
协 会</w>
千 里</w>
区 分</w>
动 人</w>
前 走</w>
前 提</w>
到 期</w>
利 地</w>
切 除</w>
分 析
分 明</w>
分 店</w>
分 割</w>
出 版
出 息</w>
出 去玩</w>
出 勤</w>
农 场</w>
写 错</w>
写 作</w>
内 外</w>
其 事</w>
关 键
全 体
兑 换</w>
先 回去</w>
兄 弟
停 电</w>
偏 偏</w>
借 用</w>
信 念</w>
俄罗 斯</w>
仔 细
今 早</w>
人 间</w>
人 力</w>
人 体</w>
互 联网</w>
之 心</w>
为 人
个 个</w>
严 谨</w>
两 边</w>
两 手</w>
丢 脸</w>
丢 失</w>
与 其
不 良
不 禁</w>
不 看</w>
不 相
不 是
不 利</w>
下 手</w>
下 场</w>
上 车</w>
上 班
上 山</w>
三 神</w>
一 线</w>
一 一</w>
a r
3 5</w>
2 6</w>
19 8
黄 瓜</w>
鲜 艳</w>
魔 女</w>
高 达</w>
高 峰</w>
高 三</w>
骰 子</w>
骚 扰</w>
骚 动</w>
飞 行
风 味</w>
额 外</w>
顺 着</w>
面 貌</w>
面 板</w>
零 花钱</w>
难 关</w>
难 免</w>
隔 壁</w>
隐 瞒</w>
附 带</w>
销 量</w>
野 营</w>
里 装</w>
部 下</w>
郊 外</w>
造 型</w>
這 麼</w>
选 人</w>
适 宜</w>
退 还</w>
这 间</w>
这 方面</w>
近 年来</w>
轻 浮</w>
转 告</w>
贫 穷</w>
谢 绝</w>
说 服
诱 惑</w>
试 看</w>
记 忆
让 给</w>
认 同</w>
解决 方案</w>
覆 盖</w>
装 载</w>
袖 子</w>
虐 待</w>
芭 蕾
艰 辛</w>
舍 不得</w>
自 觉</w>
自 愿</w>
脂 肪</w>
肚子 疼</w>
考 验</w>
考 试
耀 眼</w>
罪 恶
罗 马</w>
绝 望</w>
纯 粹</w>
篇 小说</w>
管 道</w>
竹 子</w>
竭 尽全力</w>
租 借</w>
禁 烟</w>
相当 于</w>
直 说</w>
皮 鞋</w>
登 场</w>
疑 惑</w>
电 缆</w>
电 器</w>
用 作</w>
生 素</w>
球 场</w>
现 出</w>
环 境
狡 猾</w>
牙 语</w>
牌 子</w>
爽 快</w>
爆 发</w>
煎 饼</w>
灾 区</w>
灯 路</w>
清 晨</w>
海 面</w>
海 报</w>
海 啸</w>
流 畅</w>
流 水</w>
没 人</w>
沉 浸</w>
水 稻</w>
死 吧</w>
死 刑</w>
款 待</w>
模 一样</w>
样 一来</w>
柳 树</w>
显 然</w>
时 节</w>
无 耻</w>
无 线
无 情</w>
新加 坡</w>
救 救</w>
改 成</w>
收 回</w>
探 望</w>
指 望</w>
拍 照片</w>
打 雷</w>
或 缺</w>
惊 喜</w>
悲 惨</w>
恒 一</w>
性 命</w>
急 事</w>
忘 形</w>
很 痛</w>
待 会儿</w>
征 收</w>
录 音</w>
当 真</w>
当 心</w>
强 行</w>
弹 得</w>
引 擎</w>
引 人
异 议</w>
开 幕</w>
开 幕
年 长</w>
平 凡</w>
幅 度</w>
市 长</w>
屏 幕</w>
尽 头</w>
就 够</w>
少 见</w>
少 爷</w>
少 年
小 正</w>
家 中</w>
审 判</w>
完 善</w>
委 会</w>
好 开心</w>
套 餐</w>
奈 何</w>
大 米</w>
大 火</w>
夜 间</w>
外 国
处 分</w>
增 多</w>
基 因</w>
坏 掉</w>
地 用</w>
在 我
在 世界
在世界 上</w>
团 结
喜 好</w>
启 发</w>
向 导</w>
后 果</w>
名 叫</w>
口 音</w>
口 水</w>
叙 述</w>
变 暖</w>
去 死吧</w>
厌 恶</w>
压 迫</w>
南 京</w>
化妆 品</w>
劳 累</w>
助 手</w>
助 于</w>
副 作用</w>
剪 刀</w>
剧 情</w>
前 边</w>
前 台</w>
刹 车</w>
分 离</w>
分 化</w>
出 错</w>
出 乎
几 件</w>
冷 静下来</w>
冷 却</w>
冷 冻</w>
再 生</w>
再 有</w>
其 它</w>
公共 汽车</w>
公 文</w>
全 力
党 员</w>
光 灯</w>
先 后</w>
先 到</w>
偿 还</w>
修 订</w>
侵 略</w>
侵 犯</w>
供 给</w>
供 应
件 人</w>
付 出</w>
他 长</w>
他 用</w>
从 中</w>
人 工</w>
亲 密</w>
享 用</w>
交 叉</w>
事 实
乡 村</w>
个人 信息</w>
严 重
两 岸</w>
两 件</w>
业 界</w>
不如 说是</w>
不可 或缺</w>
不 至于</w>
不 光</w>
下 落</w>
上 网</w>
一 通</w>
一 盘</w>
一 模一样</w>
一 晚</w>
一 团</w>
o n
h i
e r
G re
C M</w>
3 00</w>
2 1</w>
黄 金</w>
麻 雀</w>
麻 醉</w>
鹿 儿
鳗 鱼</w>
高 山</w>
驱 动</w>
饲 养</w>
食 用</w>
颤 抖</w>
领导 人</w>
领 带</w>
领 土</w>
预 先</w>
非 法</w>
雕 刻</w>
除 此
除 去</w>
陈 述</w>
闹 钟</w>
门 外</w>
长 长
长 度</w>
银 领</w>
采 购</w>
醒 来</w>
都 是</w>
那 麼</w>
那 小子</w>
那 名</w>
退 学</w>
连 长</w>
远 远</w>
远 离</w>
进 军</w>
进 修</w>
这么 一来</w>
这 时</w>
边 儿</w>
辞 掉</w>
轻 微</w>
转 发</w>
身 影</w>
赶 来</w>
赋 予</w>
贸 易
财 政</w>
请 稍
请稍 等</w>
请 代</w>
说服 力</w>
说 明
语 气</w>
诗 歌</w>
试 试看</w>
诉 说</w>
讲 述</w>
计 入</w>
解 析</w>
视 力</w>
装 有</w>
被 捕</w>
街 头</w>
行 道</w>
蛋白 质</w>
虚 假</w>
若 松</w>
自 尊
脸 颊</w>
脏 了</w>
肺 部</w>
肚子 痛</w>
而 成</w>
老 爸</w>
美 景</w>
继续 下去</w>
终 点</w>
突 出</w>
祭 典</w>
研究 生</w>
看 望</w>
相 符</w>
相 应</w>
白 费</w>
番 话</w>
申 报</w>
田 径
用 途</w>
生活 费</w>
献 给</w>
狮 子</w>
特 务</w>
爬 山</w>
热 爱</w>
演 习</w>
滑 雪
渠 道</w>
清 清
清 新</w>
深 度</w>
深 切</w>
深 入
淋 巴
液 体</w>
浪 费时间</w>
流 失</w>
流 利地</w>
泪 水</w>
注 射</w>
气 象</w>
气 象
气 得</w>
比 较
比 如</w>
步 伐</w>
正 规</w>
正 确
次 品</w>
概 括</w>
楼 房</w>
果 树</w>
构 建</w>
权 势</w>
朋 友
有钱 人</w>
有 无</w>
最 快</w>
更 大</w>
曲 线</w>
暑 假
暑假 作业</w>
景 气</w>
显 出</w>
早 期</w>
施 行</w>
断 定</w>
斥 责</w>
整 洁</w>
敲 门</w>
教 徒</w>
教 堂</w>
放 出</w>
收 银
播 种</w>
提 倡</w>
描 述</w>
排 练</w>
授 予</w>
换 个</w>
换 上</w>
挽 回</w>
招 待
技 巧</w>
手 中</w>
扇 子</w>
所 有
我 校</w>
成 天</w>
惯 例</w>
恐 怖
快 点儿</w>
忙 忙</w>
心 理
得意 忘形</w>
往 来</w>
彩 虹</w>
弄 脏了</w>
开 辟</w>
开 花</w>
开 店</w>
开 工</w>
广 濑
幼 稚</w>
平 静下来</w>
带 上</w>
差 点儿</w>
巡 逻</w>
崩 溃</w>
展 览</w>
展 现</w>
屈 服</w>
小 提琴</w>
尊 严</w>
实 质</w>
实 物</w>
定 期
定 决心</w>
完 蛋</w>
学习 成绩</w>
婆 婆</w>
夺 取</w>
太 高</w>
太 贵</w>
太 平
大 风</w>
处 境</w>
墨西 哥</w>
埋 伏</w>
地 望</w>
土 匪</w>
图 表</w>
国 民
四 点</w>
四 季</w>
器 材</w>
听 话</w>
向 来</w>
后 边</w>
名 词</w>
名 声</w>
吉祥 物</w>
吉 娃娃</w>
吃 饱</w>
吃 个</w>
召 集</w>
古 董</w>
变 态</w>
取得 联系</w>
发 起</w>
参 拜</w>
厨 师</w>
原 野</w>
厌 倦</w>
卷 入</w>
占 卜</w>
午 休</w>
升 值</w>
十 月</w>
匪 徒</w>
化 石</w>
勤 奋</w>
募 集</w>
动 身</w>
利 落</w>
初 始</w>
出乎 意料</w>
凶 手</w>
几 十
写 成</w>
养 成</w>
具 体
六 个</w>
公 演</w>
候 选人</w>
倒 下</w>
修 建</w>
信 号
侵 害</w>
伤 员</w>
优 待</w>
人 能</w>
人 心
人 品</w>
亲 手</w>
事 长</w>
九 月</w>
九 州</w>
主 持
不得 已</w>
不 讲
不 巧</w>
下 山</w>
下 定决心</w>
下 回</w>
下 一
万 人</w>
一 言
一 瓶</w>
一 枪</w>
一 月</w>
一 拳</w>
一 堆</w>
一 同</w>
一 号</w>
I O</w>
D IO</w>
鸭 子</w>
高尔 夫
香 味</w>
飞行 员</w>
面 孔</w>
雷 雨</w>
雄 伟</w>
除 非</w>
限 于</w>
附 属</w>
重 逢</w>
重 建</w>
酷 暑</w>
郁 闷</w>
那 双</w>
通 信</w>
退 休
这 道题</w>
这 样一来</w>
这 时候</w>
边 境</w>
辞 去</w>
轻轻 地</w>
轮 流</w>
转 载</w>
轨 道</w>
躲 开</w>
身 心</w>
跟 不上</w>
跟 上</w>
趁 着</w>
起 得</w>
起 义</w>
赶 到</w>
资本 主义</w>
说不 出来</w>
误 差</w>
设计 师</w>
讽 刺</w>
许 可
让 步</w>
计 较</w>
警 惕</w>
西 洋</w>
补 习</w>
螺 丝
落 下</w>
营业 部</w>
萌 香</w>
获 取</w>
花 纹</w>
航 空</w>
致 辞</w>
腰 带</w>
胸 口</w>
联系 方式</w>
耽 误</w>
老 老
老老 实实</w>
美 观</w>
绘 画</w>
细 腻</w>
组 胺</w>
空 条</w>
称 号</w>
礼 堂</w>
碎 片</w>
确 切</w>
硬 币</w>
瞄 准</w>
睡 午觉</w>
着 火</w>
眨 眼</w>
相 片</w>
盖 子</w>
监 视</w>
皮 球</w>
疏 忽</w>
甲 板</w>
生 成</w>
珠 子</w>
猜 拳</w>
猛 烈</w>
物 种</w>
照 射</w>
点 火</w>
火 焰</w>
火 柴</w>
瀑 布</w>
激 励</w>
湿 度</w>
游戏 厅</w>
消 耗</w>
泰 山</w>
注意 事项</w>
法 西
河 流</w>
水 壶</w>
毕业 典礼</w>
正 直</w>
榜 样</w>
梦 野</w>
标 本</w>
柿 子</w>
柔 和</w>
某 人</w>
朋友 家</w>
有点 累</w>
月 球</w>
曲 折</w>
暂 且</w>
智能 手机</w>
昨 天
日 到</w>
新 鲜
新 型</w>
敷 衍</w>
收银 台</w>
收 件人</w>
摆 脱</w>
提 取</w>
接 待
接 吻</w>
掀 起</w>
指 点</w>
拜 拜</w>
拇 指</w>
报 价单</w>
折 磨</w>
抗 议</w>
抗 体</w>
投 手</w>
打 球</w>
手 下</w>
所 属</w>
悲 痛</w>
恐 龙</w>
怀 里</w>
怀 孕</w>
快 去</w>
忧 郁</w>
忍 住</w>
心 眼</w>
徘 徊</w>
往 返</w>
归 来</w>
弄 清</w>
开 头</w>
廉 价</w>
年 糕</w>
干 旱</w>
巴 掌</w>
差 错</w>
山 脉</w>
山 坡</w>
履 行</w>
就 此</w>
小 看</w>
封 面</w>
导 演</w>
导 游</w>
寻 常</w>
对 抗</w>
容 器</w>
客 观
定 价</w>
完 作业</w>
学 科</w>
学 业</w>
好 奇
好奇 心</w>
好 友</w>
奔 跑</w>
头 绪</w>
失 落</w>
太 难</w>
天 花
天 晴</w>
大 陆</w>
大 象</w>
大 桥</w>
多 钱</w>
多 管闲事</w>
外 公</w>
备 用</w>
增 添</w>
增 殖</w>
境 地</w>
型 号</w>
地 问</w>
地 狱</w>
地 毯</w>
地 方
在 读</w>
在 场</w>
圣 诞</w>
图 纸</w>
固 定
回 过</w>
四 天</w>
啰 嗦</w>
听 力</w>
否 则</w>
名 义</w>
吉 田</w>
取 胜</w>
发 展
反 射</w>
危 害</w>
卫 生
单 方面</w>
剥 削</w>
到此 为止</w>
到 时候</w>
到 手</w>
刨 冰</w>
创 造
分 红</w>
刁 难</w>
出 入</w>
几 号</w>
几 下</w>
准 时</w>
冤 枉</w>
写 日记</w>
兴趣 爱好</w>
全力 以
全力以 赴</w>
克 斯</w>
光 芒</w>
僵 硬</w>
做 完作业</w>
偏 差</w>
假 装</w>
修 行</w>
保 护
便 是</w>
侦 察</w>
佩 服</w>
会 社</w>
伙 儿</w>
价 值
以 至于</w>
仙 台</w>
从 未</w>
人民 币</w>
人 手</w>
人 为</w>
交 际</w>
亏 损</w>
事 人</w>
事 业
买 入</w>
买 不到</w>
也 罢</w>
举 起</w>
主 義
两 句</w>
东 北</w>
东 京
不 适</w>
不 合理</w>
三 明治</w>
三 文
三 十</w>
三 分之一</w>
一 门</w>
一 系列</w>
一 千</w>
一 再</w>
一 九
l l
Gre at</w>
4 00</w>
2 8</w>
1 0
鹿儿 岛</w>
高速 公路</w>
高 烧</w>
高 楼</w>
高 低</w>
马 达</w>
首 都</w>
餐 具</w>
食 物
风 光</w>
顿 饭</w>
面 包
面 临</w>
陌 生人</w>
阻 碍</w>
阴 暗</w>
闪 闪
闪 耀</w>
门 面</w>
開 始</w>
长 途
长 江
那 间</w>
通 货
选 项</w>
选 为</w>
送 出去</w>
退 社</w>
追 上</w>
迷 于</w>
连 休</w>
违 法
这 门</w>
这 群</w>
这 会儿</w>
过 年</w>
辅 导</w>
车 去</w>
路 径</w>
跟 前</w>
超 出</w>
赶 走</w>
贬 值</w>
货 期</w>
责 怪</w>
财 富</w>
谢 谢
谢谢 你们</w>
课 文</w>
说明 会</w>
词 汇</w>
许可 证</w>
言 论</w>
言 之</w>
观 赏</w>
西班 牙语</w>
装 船</w>
表 格</w>
表 哥</w>
补 助
董 事会</w>
花 粉
花粉 症</w>
船 只</w>
航 行</w>
自尊 心</w>
自 在</w>
胡 闹</w>
胡 同</w>
胆 子</w>
肥 皂</w>
而 出名</w>
老 百姓</w>
美容 院</w>
缓 解</w>
细 心</w>
纠 结</w>
纠 正</w>
系 统
篮 子</w>
等 会儿</w>
第二 颗</w>
第 三</w>
笨 拙</w>
章 鱼</w>
窟 窿</w>
祖 父母</w>
社 员</w>
知 名</w>
睡 一觉</w>
真 面目</w>
真 诚</w>
真 快</w>
看 一看</w>
相 逢</w>
直 播</w>
盗 窃</w>
界 限</w>
用 过</w>
生 生</w>
甜 点</w>
瑟 夫</w>
环 保</w>
玩 玩</w>
狭 小</w>
牛 仔
爸 妈</w>
熟 知</w>
焊 接</w>
烦 死</w>
灯 片</w>
灯 泡</w>
潜 力</w>
漆 黑</w>
湖 水</w>
深 感</w>
淘 气</w>
涨 价</w>
海 底</w>
流 量</w>
流 逝</w>
波 浪</w>
波 士
波士 顿</w>
法 子</w>
法 令</w>
水 流</w>
水 准</w>
毫 米</w>
概 要</w>
检 讨</w>
株 式
株式 会社</w>
极 好</w>
来 宾</w>
权 限</w>
杀 害</w>
札 幌</w>
本 能</w>
最 美</w>
最 合适</w>
晚 霞</w>
晚 安</w>
昆 虫</w>
时 髦</w>
时 钟</w>
时 差</w>
旧 衣服</w>
日本 料理</w>
旅 游
新 颖</w>
数 百
救 命</w>
收 支</w>
摇 摇
搞 定</w>
插 图</w>
插 入</w>
提 早</w>
排 斥</w>
捉 弄</w>
按 下</w>
指 正</w>
指 导
指 令</w>
拿 手</w>
拙 劣</w>
担 忧</w>
折 旧</w>
承 诺</w>
扩 散</w>
打 量</w>
手 头</w>
战 术</w>
我 试</w>
戏 剧
意 愿</w>
想 不出</w>
总 有</w>
总 共</w>
急 速</w>
思 念</w>
忧 虑</w>
忘 掉</w>
得 住</w>
往 年</w>
当 当</w>
张 嘴</w>
延 误</w>
延 伸</w>
广濑 康</w>
幽 默</w>
幻 灯片</w>
干 活儿</w>
左 眼</w>
崭 新</w>
岁 数</w>
山 谷</w>
尼 西亚</w>
尴 尬</w>
小 型</w>
封 锁</w>
容 量</w>
家 住</w>
完 整</w>
孤 立</w>
存 钱</w>
婴 儿
奶 酪</w>
奴 隶</w>
奖 金</w>
奉 承</w>
大 片</w>
大 妈</w>
大 大
大 伙</w>
夜 景</w>
多 加</w>
外 科</w>
处 处</w>
坐 车</w>
地 站</w>
回 避</w>
回 礼</w>
四 方</w>
咕 嘟</w>
听 从</w>
后 退</w>
名 册</w>
合 成</w>
合 得来</w>
合 唱</w>
合 作
可 见</w>
可 不
可不 可以</w>
古 怪</w>
口 号</w>
受 害者</w>
发 放</w>
发 愁</w>
反 馈</w>
原 文</w>
原 件</w>
危 险
卖 方</w>
协 作</w>
升 级</w>
千 年</w>
十 天</w>
匹 马</w>
北 方</w>
匆 匆</w>
包 里</w>
劳 力</w>
副 业</w>
剧 烈</w>
剧 场</w>
前 年</w>
刻 苦</w>
制 订</w>
制 止</w>
刊 物</w>
分 泌</w>
出 过</w>
几 家</w>
决 不能</w>
冲 走</w>
冲 突</w>
冲 动</w>
军 人</w>
军 事
兴 起</w>
六 月</w>
光 滑</w>
做 人</w>
做 个</w>
倒 霉</w>
修 饰</w>
何 况</w>
体 操</w>
低 下</w>
伸 出</w>
传 染
从 而</w>
人际 关系</w>
人 影</w>
京 剧</w>
交 货期</w>
交 流
书 面</w>
习 俗</w>
主 观</w>
为 何</w>
为 主</w>
中 等</w>
中 学生</w>
丝 毫</w>
不如 说</w>
不 會</w>
下 边</w>
下 级</w>
三 十分钟</w>
三 人</w>
一点 一点</w>
一不 小心</w>
一 谈</w>
一 脚</w>
一 棵</w>
一 曲</w>
一 提</w>
一 度</w>
一 岁</w>
一 封</w>
一 天
or k</w>
l a
g t;</w>
c e</w>
5 000</w>
2 7</w>
. 5</w>
& gt;</w>
黄 金
魔 法</w>
高尔夫 球</w>
高中 毕业</w>
骑 马</w>
骑 车</w>
香 织</w>
食物 中毒</w>
飞 船</w>
预 料</w>
音乐 家</w>
音乐 剧</w>
青 少年</w>
零 食</w>
雪 花</w>
雨 停</w>
雇 用</w>
隐 蔽</w>
隐 形
隐形 眼镜</w>
附 和</w>
长长 的</w>
银 行
铃 美</w>
钱 财</w>
那 块</w>
還 是</w>
遗 传
逃 离</w>
远 大</w>
近 况</w>
辽 阔</w>
边 缘</w>
辅 助</w>
身 旁</w>
身 后</w>
赞 扬</w>
赌 博</w>
贴 纸</w>
贴 着</w>
贯 彻</w>
货 款</w>
财 物</w>
负 债</w>
象 棋</w>
谈 会</w>
调 配</w>
请 等一下</w>
请 客</w>
请 吃</w>
说不 出口</w>
说 说话</w>
说 到底</w>
说 了
详细 情况</w>
视 察</w>
补助 金</w>
行 军</w>
血 小
血小 板</w>
著 作
药 剂</w>
苦 头</w>
良 心</w>
航 线</w>
舆 论</w>
自 来
自 家</w>
自 大</w>
脱 离
脑 海</w>
胆 小</w>
肝 脏</w>
耕 地</w>
而 言之</w>
而 出</w>
羞 愧</w>
罪恶 感</w>
罪 名</w>
经 受</w>
终 日</w>
组 织
纪念 日</w>
纤 维
红 旗</w>
繁 荣</w>
粉 碎</w>
管理 者</w>
等 一等</w>
第 三个</w>
符 合
竞争 对手</w>
积 攒</w>
科 长</w>
碰 巧</w>
砂 糖</w>
着 脸</w>
眼 皮</w>
真 心
看 漏</w>
看 家</w>
相 投</w>
盲 目</w>
盛 大</w>
皱 纹</w>
皮 肤
病 房</w>
疲 倦</w>
留 神</w>
留 心</w>
田 野</w>
用 具</w>
生 于</w>
现 实
独 立
牧 场</w>
照 明</w>
烦 躁</w>
灿 烂</w>
灰 姑娘</w>
火 锅</w>
火 热</w>
激 起</w>
潦 草</w>
漫 长</w>
满 怀</w>
湿 透</w>
渡 过</w>
流 传</w>
注 目</w>
沉 迷于</w>
汪 汪</w>
汗 水</w>
气 质</w>
民 众</w>
比 喻</w>
死 人</w>
武 装
止 住</w>
欢 喜</w>
次 序</w>
棍 子</w>
桥 梁</w>
栽 培</w>
核 能</w>
核 武器</w>
标 准
柔 道</w>
果 断</w>
松 树</w>
東 西</w>
杆 菌</w>
本 年度</w>
本 子</w>
有 意</w>
最 佳</w>
替 代
晋 级</w>
显 微
旺 盛</w>
日 夜</w>
无论 怎样</w>
无线 电</w>
无 常</w>
数据 库</w>
散 落</w>
放 射
改 建</w>
收 费</w>
支 部</w>
操作 方法</w>
摩 擦</w>
摊 子</w>
摇 滚
摆 着</w>
摄 像
搜 查</w>
搅 拌</w>
握 手</w>
推 动</w>
拨 打</w>
拖 鞋</w>
拉 拉
投 降</w>
把 头</w>
打 过</w>
打 印
打 乒乓球</w>
才 华</w>
手 枪</w>
战 线</w>
战 略
我 学</w>
我 先</w>
成 田</w>
想 干什么</w>
情 愿</w>
患 有</w>
悄 悄</w>
悄 悄
恒 一
总 部</w>
怎么 着</w>
忽 略</w>
快 递</w>
忠 告</w>
心 来</w>
徒 弟</w>
彼 此
张 开</w>
弟 兄</w>
异 性</w>
庄 稼
幸 亏</w>
平安 夜</w>
平 原</w>
带 领</w>
差 劲</w>
工作 日</w>
工 序</w>
崎 新</w>
岛 上</w>
层 次</w>
尖 锐</w>
小 鹤</w>
对 立</w>
对 此</w>
家 里人</w>
家 产</w>
实 感</w>
宝 物</w>
官 方</w>
官 僚
孩 子气</w>
学 妹</w>
娱 乐</w>
妥 协</w>
好 险</w>
好 运</w>
好 心</w>
好 容易</w>
好 坏</w>
奖 励</w>
天花 板</w>
天 然</w>
天 地</w>
大 脑</w>
大 河</w>
大 吃
大 伙儿</w>
外 人</w>
复 原</w>
处 置</w>
处 理
城 堡</w>
埋 头</w>
坚 信</w>
坏 了</w>
地 走了</w>
地 人</w>
在 线</w>
嚷 嚷</w>
响 应</w>
哈 哈哈</w>
哀 悼</w>
呼 声</w>
呼 吸
呼 叫</w>
吹 得</w>
吸 引
听 过</w>
听 取</w>
听 不见</w>
只 见</w>
叛 徒</w>
变 差</w>
变 多</w>
发 牢骚</w>
双 胞胎</w>
友好 相处</w>
及 其</w>
去 除</w>
原 子
占 用</w>
博 士</w>
卖 场</w>
十 萌</w>
十 五年</w>
医 疗
办 事
劝 告</w>
前 景</w>
到 困难</w>
别 动</w>
划 算</w>
几 种</w>
几 只</w>
几 分</w>
凑 巧</w>
减 价</w>
冲 浪</w>
冲 洗</w>
农 药</w>
关 节</w>
关 东
共 有</w>
共 和
公司 员工</w>
公 民</w>
公 务员</w>
全 球
全 家人</w>
入 学考试</w>
元 素</w>
偷 懒</w>
偶 像</w>
偏 见</w>
借 款</w>
信 托</w>
保 证
保 守</w>
侮 辱</w>
侧 面</w>
依 据</w>
低 落</w>
低 价</w>
传 到</w>
优惠 券</w>
优 胜</w>
付 给</w>
从 家</w>
人 选</w>
人 真</w>
二十 岁</w>
二 手
争 执</w>
买 票</w>
买 方</w>
乌 龟</w>
主 教</w>
中 是</w>
中 央
两 者</w>
两 条
不由 得</w>
不 起
不 舍</w>
不 胜</w>
不 懂
不 大</w>
不 动
不 信</w>
下 达</w>
下 一代</w>
上 当</w>
上 传</w>
上 下班</w>
万 人
一天 到晚</w>
一大 堆</w>
一个 个</w>
一 类</w>
一 架</w>
一 匹</w>
一 分钟</w>
l t;</w>
e n
I T</w>
20 10</w>
& lt;</w>
骆 驼</w>
马 虎</w>
香 气</w>
风 见</w>
颠 倒</w>
预 习</w>
顺 便
面 谈</w>
静 静
零 售</w>
雨 来</w>
难 民</w>
除 掉</w>
附 身</w>
间 接</w>
长 相</w>
镇 子</w>
锻 炼
锻炼 身体</w>
铁 丝</w>
重 叠</w>
重 任</w>
那 首</w>
那 笔</w>
那 年</w>
那 个
那个 游戏</w>
遵 照</w>
遍 地</w>
通 红</w>
通 往</w>
逃 脱</w>
追 问</w>
迷 信</w>
迫 害</w>
连 年</w>
远 镜</w>
进 化</w>
这 支</w>
这 回事</w>
迎 风</w>
边 疆</w>
辩 论</w>
输 掉</w>
轻 快</w>
转 向</w>
身 份
跳 动</w>
路 程</w>
起 码</w>
赤 字</w>
赞 赏</w>
赏 花</w>
货 车</w>
责 编</w>
谴 责</w>
谎 话</w>
谋 求</w>
请 勿</w>
说 错</w>
语 句</w>
试 一下</w>
证券 交易所</w>
讲 课</w>
讲 师</w>
认 证</w>
订 货单</w>
言 辞</w>
见 见</w>
装 饰品</w>
被 选为</w>
被 告</w>
行李 箱</w>
蝗 虫</w>
蜘 蛛</w>
英语 单词</w>
苍 蝇</w>
花 样</w>
花 束</w>
芭蕾 舞</w>
致 死</w>
背 影</w>
胃 口</w>
聚 在一起</w>
联 谊</w>
联 想</w>
而 止</w>
羽 毛
美容 师</w>
美 洲</w>
美 学</w>
统 计
结婚 典礼</w>
结 局</w>
结 了</w>
经 验
组 长</w>
纸 张</w>
繁 忙</w>
算 了
简 历</w>
策 划</w>
竞 技</w>
空 气
税 率</w>
移 植</w>
科学 技术</w>
神 圣</w>
碴 儿</w>
矿 石</w>
短 时间</w>
瞌 睡</w>
真 会</w>
看 得
画 像</w>
男 子
电 流</w>
电 压</w>
由 衷</w>
用 钱</w>
用 纸</w>
生 态
班 车</w>
班 子</w>
玫 瑰</w>
玩 意
玩意 儿</w>
王 先生</w>
率 地</w>
猎 人</w>
独 处</w>
狐 狸</w>
犹 太
犯 错误</w>
特 有</w>
物 理学</w>
牛仔 裤</w>
熟 练
点 燃</w>
灰 心</w>
火 车站</w>
潜 在</w>
潜 入</w>
演讲 会</w>
游 得</w>
海 崎新</w>
浓 厚</w>
流 动
活 不
活不 下去</w>
泳 装</w>
法 则</w>
没 这回事</w>
没 准</w>
水 上</w>
气 魄</w>
每 当</w>
欢 笑</w>
橄 榄
楚 楚</w>
校 舍</w>
标 语</w>
杉 树</w>
权 威</w>
机 车</w>
机 会
本 次</w>
朦 胧</w>
期 权</w>
望 远镜</w>
有 效率</w>
有 多
有 助于</w>
有 会</w>
最 早</w>
替代 品</w>
暗 示</w>
显微 镜</w>
昏 迷</w>
日 文</w>
日 后</w>
日 去</w>
无 意</w>
旗 子</w>
新 生
撤 退</w>
摸 索</w>
摸 摸</w>
搞 好
搞 不好</w>
提 意见</w>
推 翻</w>
捣 乱</w>
挫 折</w>
挖 掘</w>
挑 衅</w>
招 生</w>
抵 抗</w>
报 答</w>
报 仇</w>
抚 养</w>
折 腾</w>
打印 机</w>
打 中</w>
打 个
扇 门</w>
战 友</w>
成 年</w>
想 得到</w>
想 当</w>
惭 愧</w>
惠 顾</w>
恒一 君</w>
总 而言之</w>
思 维</w>
心 爱</w>
微 风</w>
微 微</w>
得 不到</w>
徒 刑</w>
征 服</w>
当 事人</w>
归 于</w>
强 力</w>
式 样</w>
开幕 式</w>
开 得</w>
庸 俗</w>
废 话</w>
应 酬</w>
应 聘</w>
平安 无事</w>
干 吗</w>
常 有</w>
帘 子</w>
左 转</w>
山 下</w>
少 量</w>
小 爱</w>
小 声</w>
对 战</w>
寒 风</w>
寄 信</w>
宽 敞</w>
安全 性</w>
孤 单</w>
媳 妇</w>
威 风</w>
好 帅</w>
奖 品</w>
夺 得</w>
失 踪</w>
失 业</w>
太 强</w>
大 车</w>
大 有</w>
够 了</w>
夜 班</w>
多 长</w>
外 宾</w>
外 交</w>
垒 打</w>
四 十
嘻 嘻</w>
喳 喳</w>
喇 叭</w>
售 货
售 票
呵 呵</w>
周 边</w>
周 期</w>
听 众</w>
含 税</w>
吓 死</w>
后 援</w>
各 级</w>
叨 叨</w>
受 够了</w>
受 了
受了 伤</w>
发电 机</w>
发 言
发 泄</w>
反 面</w>
双 重</w>
厂 商</w>
协 力</w>
千 米</w>
千 万
十 五</w>
北 美</w>
勤 劳</w>
加 速</w>
办 得</w>
剪 子</w>
剑 道</w>
前 一天</w>
创 意</w>
列 入</w>
划 分</w>
切 成</w>
分 解</w>
分 外</w>
出 生
凝 固</w>
冷 酷</w>
决 议</w>
关 头</w>
六 岁</w>
公 正</w>
公 交</w>
八 十</w>
入 场
兜 风</w>
先 进
充 电</w>
假 设</w>
值 得
俘 虏</w>
依 照</w>
使 命</w>
伯 父</w>
传 染</w>
会 见</w>
优 雅</w>
休息 室</w>
代 码</w>
从 此</w>
产品 质量</w>
交通 事故</w>
交 道</w>
交 情</w>
五 百万</w>
五 百
五 次</w>
云 彩</w>
事实 上</w>
事 要</w>
事 到
争 夺</w>
争 吵</w>
乱 来</w>
买 进</w>
买 点</w>
乐 团</w>
之 际</w>
之 力</w>
中 奖</w>
严 峻</w>
世界 大战</w>
专 利
不 难</w>
不 经
不 曾</w>
不 宜</w>
不 同
不 值</w>
三 百
一 站</w>
一 次
一 条
一 所</w>
一 小
一 天天</w>
o o
a m
N e
默 默
黑 夜</w>
黎 明</w>
鸡 尾
鱼 片</w>
高 档</w>
高 地</w>
高 一</w>
骑 士</w>
骄 傲
马 桶</w>
首 尔</w>
饱 满</w>
食 谱</w>
领 会</w>
音 色</w>
鞭 炮</w>
青 春
露 营</w>
雪 白</w>
集 体
阿 绫</w>
阶级 斗争</w>
阵 雨</w>
防 灾</w>
防 守</w>
长 假</w>
长 久</w>
镇 压</w>
金 之星</w>
野 外</w>
野 兽</w>
醒 过来</w>
邀 请
遮 住</w>
遗 漏</w>
遇 到困难</w>
通 用</w>
通 报</w>
這 種</w>
适 度</w>
追 赶</w>
迹 象</w>
远 距离</w>
这 颗</w>
这 一
辅 导
轻 便</w>
轮 廓</w>
转 让</w>
躲 避</w>
身 为</w>
跨 越</w>
越 发</w>
走 来</w>
费 劲</w>
财 政
谢 意</w>
谈 一谈</w>
调 味
读 懂</w>
语言 学</w>
诚 恳</w>
诊 察</w>
诈 骗</w>
设 有</w>
讲 解</w>
议 事
认 知</w>
观 测</w>
西 湖</w>
表 达
表 决</w>
行 走</w>
行 使</w>
虚 构</w>
蘑 菇</w>
蓝 天</w>
董 事长</w>
董 事</w>
落 地</w>
菜 刀</w>
药 店</w>
荣 耀</w>
草 稿</w>
花 园</w>
航空 公司</w>
舒 展</w>
致 命</w>
致 以</w>
臭 味</w>
脸 红</w>
脸 儿</w>
脱 鞋</w>
脚 踝</w>
脆 弱</w>
胡 乱</w>
联 欢
耳 环</w>
而 异</w>
美 人</w>
羊 肉</w>
罪 恶</w>
网 络
缘 分</w>
维 生素</w>
终 生</w>
绅 士</w>
纸 币</w>
纳 豆</w>
累 死</w>
糕 点</w>
精 通</w>
精 密</w>
简 洁</w>
笑 了
稻 子</w>
税 金</w>
稍 稍</w>
积 分</w>
科学 研究</w>
科 技</w>
科 医生</w>
种 族
秋 风</w>
离 不开</w>
神 气</w>
社 的</w>
礼 服</w>
碉 堡</w>
研究 会</w>
睡 衣</w>
眼 罩</w>
真 没想到</w>
看 穿</w>
看 不起</w>
相 声</w>
白 金之星</w>
白 薯</w>
畏 惧</w>
男子 汉</w>
电话 会议</w>
电视 台</w>
电 车站</w>
电 费</w>
电 台</w>
生 鱼片</w>
生 育</w>
生 涯</w>
理 智</w>
理 念</w>
独 角</w>
狂 热</w>
片 刻</w>
然 的话</w>
烧 掉</w>
烈 火</w>
炸 飞</w>
灭 亡</w>
火 星</w>
火 力</w>
濑 健</w>
激 凌</w>
演 戏</w>
漏 洞</w>
湖 边</w>
渴 望</w>
清 澈</w>
深 受</w>
淘 汰</w>
淋 浴</w>
涩 谷</w>
海 滨</w>
浓 度</w>
流 淌</w>
洗 车</w>
注 定</w>
法 律
水 道</w>
水 源</w>
气 压</w>
气 势</w>
民 兵</w>
比 如
比如 说</w>
母 语</w>
残 忍</w>
武 力</w>
步 子</w>
此 外</w>
棒 球队</w>
梯 子</w>
校 服</w>
某 种
架 飞机</w>
来 访</w>
来 临</w>
条 款</w>
本 词典</w>
本 周</w>
未 能</w>
期 末
朝 向</w>
望 月</w>
服 装
最 少</w>
暴 跌</w>
时 会</w>
日 光</w>
无 穷</w>
无 偿</w>
无 产阶级</w>
施 加</w>
新 郎</w>
新 手</w>
敬 意</w>
敞 开</w>
放 大</w>
改 为</w>
收 益
收 割</w>
支 柱</w>
播 出</w>
摇 动</w>
揭 露</w>
提 高
排 水
换 衣服</w>
指 向</w>
挂 号</w>
拜 读</w>
拉 链</w>
担 保</w>
抬 起</w>
报 表</w>
投 机
托 儿
托儿 所</w>
打 篮球</w>
扑 克</w>
手 边</w>
手 臂</w>
手 动</w>
我 过</w>
我 受</w>
愚 弄</w>
意大 利
想 开</w>
悲 剧</w>
悬 崖</w>
您 好</w>
悠 悠</w>
恶 作
恶作 剧</w>
总 要</w>
思 路</w>
念 头</w>
忠 实</w>
忘 了</w>
必 需</w>
必 要性</w>
得 上</w>
很 瘦</w>
很 想</w>
待 在
待在 家里</w>
影 像</w>
彩 色</w>
录 音机</w>
张 卡</w>
弄 坏了</w>
开 水</w>
应 有</w>
广 岛</w>
年 初</w>
干 干
带 路</w>
岩 濑健</w>
尼 泊
小 屋</w>
对 照</w>
寒 假</w>
寂 静</w>
家 门口</w>
家 电</w>
家 家</w>
审 视</w>
完 工</w>
学 历</w>
存 放</w>
字 迹</w>
字 幕</w>
子 弟</w>
子 儿</w>
娱 乐
娘 家</w>
妄 图</w>
好几 遍</w>
好 笑</w>
好 意思</w>
女 友</w>
女 仆</w>
女 主角</w>
头 晕</w>
夫 妻
太 短</w>
太 冷</w>
大吃 一惊</w>
大 国</w>
多 重</w>
堆 积</w>
场 地</w>
地 被</w>
地 想</w>
国民 经济</w>
固 醇</w>
回 转</w>
四 十</w>
器 官</w>
器 具</w>
嘱 咐</w>
喝 了
喝了 酒</w>
响 亮</w>
呼 呼</w>
吹 风
吵 醒</w>
后 代</w>
名 人</w>
同 居</w>
合同 书</w>
合 身</w>
吃 不
可 笑</w>
只 顾</w>
口 罩</w>
口 头</w>
变 冷</w>
变 为</w>
受 过</w>
受 损</w>
发 觉</w>
发 表
发 扬</w>
原 理</w>
原 样</w>
原 材料</w>
原 则
原 价</w>
压 抑</w>
危险 性</w>
升 起</w>
医 师</w>
劳 驾</w>
加 班
办 完</w>
刮 风</w>
别 扭</w>
别 忘了</w>
初 学者</w>
创 设</w>
刚 开始</w>
刚 刚开始</w>
分 辨</w>
刀 子</w>
出 轨</w>
出 席
出 事</w>
凭 借</w>
几 口</w>
几 十年</w>
净 净</w>
冻 得</w>
冲 着</w>
冰 激凌</w>
再 现</w>
关东 煮</w>
共产 党</w>
公安 局</w>
全 垒打</w>
入 睡</w>
免 除</w>
充 沛</w>
借 书</w>
修 补</w>
信号 灯</w>
便 利</w>
侵 入</w>
侦 探</w>
供应 商</w>
使 唤</w>
使 劲</w>
佳 菜</w>
体 上</w>
住 房</w>
优 良</w>
优 子</w>
以 下
他 病</w>
亲 热</w>
五 百</w>
事到 如今</w>
习 惯
乖 乖</w>
之 旅</w>
主持 人</w>
丫 头</w>
丧 失</w>
两 岁</w>
丝 丝</w>
世 间</w>
不动 产</w>
不 饿</w>
不 過</w>
不 胜
不 稳</w>
不 留</w>
不 然的话</w>
不 灵</w>
不 懈</w>
不 感兴趣</w>
不 干</w>
不 屈</w>
下 集</w>
下 过</w>
下 起</w>
下 水</w>
下 巴</w>
上 海
上 星期</w>
上 层</w>
上 下
三文 治</w>
三 遍</w>
三 岁</w>
七八 糟</w>
一 樣</w>
一 楼</w>
一 排</w>
la y</w>
Y ork</w>
I D</w>
A A
4 5</w>
3 000</w>
1 50</w>
龙 头</w>
麻 痹</w>
鸡尾 酒</w>
鲜 血</w>
鲜 花</w>
鱼 烧</w>
高中 时代</w>
高 效</w>
高 产</w>
驾驶 员</w>
马 路上</w>
风 琴</w>
风 暴</w>
题 材</w>
领 先</w>
顽 皮</w>
顺便 去</w>
难 怪</w>
随 身
限 期</w>
附 有</w>
阴 沉</w>
问 过</w>
长 短</w>
长 着</w>
长 发</w>
锐 利</w>
链 球菌</w>
钻 研</w>
钓 到</w>
金 黄色</w>
金 鱼</w>
金 色</w>
野 蛮</w>
野 心</w>
那 篇</w>
那 就
遵 守
遗 传</w>
遇 事</w>
通 宵</w>
选 拔
送 行</w>
追 查</w>
连 续
进 门</w>
这么 回事</w>
这 段</w>
这 具</w>
还 清</w>
过 关</w>
输 血</w>
车 里</w>
跑 道</w>
跌 倒</w>
赛 跑</w>
谢 罪</w>
课 长</w>
读 书
请 用</w>
说 家</w>
诱 导</w>
话 说</w>
诉 您</w>
记 在</w>
认 错</w>
解 散</w>
观 望</w>
装 箱</w>
裁 判</w>
被 叫</w>
行 进</w>
融 资</w>
虚 伪</w>
蔓 延</w>
著作 权</w>
苦 于</w>
节 省</w>
航 员</w>
腐 烂</w>
脚 步
脚步 声</w>
能 治好</w>
胸 怀</w>
胖 重</w>
背 面</w>
肾 脏</w>
育 儿</w>
股票 市场</w>
聪 明
聚 餐</w>
职 责</w>
耐 烦</w>
老 工人</w>
老 娘</w>
羽 毛</w>
羞 辱</w>
罐 子</w>
缩 减</w>
编 制</w>
综 合
绵 绵</w>
终 身</w>
细 小</w>
组 建</w>
练 习
繁 殖</w>
紧 迫</w>
糖 尿
糖尿 病</w>
粗 糙</w>
粗 暴</w>
粒 子</w>
簧 管</w>
箱 根</w>
算了 吧</w>
筹 备</w>
第 一步</w>
章 鱼烧</w>
穿 鞋</w>
稻 草</w>
稀 少</w>
积 雪</w>
租 赁</w>
离 得</w>
祝 你
碰 上</w>
短 发</w>
知 名
睁 开
眼 界</w>
眼 球</w>
看 透</w>
看 不出</w>
眉 头</w>
相 连</w>
直 爽</w>
直 升
监 察</w>
留 意</w>
畅 销</w>
男 女
用 法</w>
生产 力</w>
理 津
理津 子</w>
理 会</w>
珍 妮</w>
牺 牲
特 价</w>
片 子</w>
爸 爸
爸爸 妈妈</w>
爵 士
热 带</w>
烦 人</w>
火 烧</w>
激 光</w>
澡 堂</w>
漂 浮</w>
满 心</w>
滚 滚</w>
溺 水</w>
溶 液</w>
湿 气</w>
游 玩</w>
混 凝
混凝 土</w>
浮 动</w>
流 血</w>
活 用</w>
注 入</w>
波 炉</w>
法西 斯</w>
法 案</w>
治 理</w>
沸 腾</w>
沮 丧</w>
没 吃
沒 有</w>
沉 思</w>
江 水</w>
江 户</w>
求 救</w>
永 恒</w>
气 概</w>
毛 线</w>
比 率</w>
每 隔</w>
毅 力</w>
死 了</w>
武 士</w>
止 不住</w>
模 具</w>
棘 手</w>
桃 子</w>
树 苗</w>
树 脂</w>
树 下</w>
标 明</w>
查 看</w>
架 上</w>
果 子</w>
杉 杉</w>
杂 草</w>
杀人 犯</w>
机 型</w>
机 制</w>
有效 期</w>
有 能</w>
有 病</w>
最 长</w>
最 小</w>
最 先</w>
曲 奇</w>
曝 光</w>
晾 干</w>
智 能</w>
晒 黑</w>
星 球</w>
明 细</w>
明 日</w>
时 要</w>
早 点儿</w>
早 会</w>
无 际</w>
无 能</w>
无 理</w>
旁 人</w>
新 来</w>
新 开</w>
敬 语</w>
散 发</w>
效 益</w>
故 事
改 正
收益 率</w>
收 缩</w>
摘 除</w>
摘 下</w>
摄影 师</w>
揭 穿</w>
推 广</w>
接 手</w>
捐 款</w>
按 计划</w>
指 甲
指 头</w>
拼 写</w>
拳 击</w>
招 牌</w>
拉 扯</w>
拉 开</w>
担 当</w>
担 子</w>
抵 制</w>
报 导</w>
报 刊</w>
投 诉</w>
技术 人员</w>
批 发
扫 地</w>
打 气</w>
所 得
戴 眼镜</w>
我 花</w>
我 累</w>
我 开</w>
懊 悔</w>
惶 恐</w>
想 一想</w>
悲 哀</w>
悚 然</w>
总 额</w>
总 务</w>
怪 物</w>
急 躁</w>
快 快</w>
忠 诚</w>
志 气</w>
心 胸</w>
微 波炉</w>
微 妙</w>
得 了</w>
徒 步</w>
很 饱</w>
很 配</w>
很 慢</w>
往 外</w>
往 上</w>
当 上</w>
强 迫</w>
弥 漫</w>
弄 坏</w>
座 谈会</w>
幼 儿</w>
平 息</w>
干 不了</w>
带 子</w>
师 生</w>
布 料</w>
巴 西</w>
巨 额</w>
工作 室</w>
工 农
工 事</w>
山 丘</w>
小 灯</w>
小 康</w>
将 近</w>
察 觉</w>
宿 醉</w>
家 属</w>
害 人</w>
宣 言</w>
定 额</w>
学 术</w>
好 话</w>
好 几年</w>
奢 侈</w>
奔 走</w>
太 高兴</w>
太 好</w>
太 多
天安 门
天 黑</w>
大 爷</w>
大 炮</w>
大 水</w>
大 扫除</w>
大 幅度</w>
大 军</w>
够 呛</w>
夜 空</w>
外 貌</w>
外 头</w>
声 部</w>
增 大</w>
堂 堂</w>
基 督
埋 怨</w>
垄 断</w>
坏 心眼</w>
在我 看来</w>
固定 资产</w>
固 执</w>
因 子</w>
四 面
嚣 张</w>
嘴 角</w>
喧 哗</w>
喝 水</w>
啪 啦</w>
唱 片</w>
咕 噜</w>
命 名</w>
命 中</w>
周 转
告 诉您</w>
吹风 机</w>
听 得</w>
后 门</w>
名 气</w>
合 法</w>
各 处</w>
吃 亏</w>
司 令</w>
可 要</w>
可 耻</w>
可 而止</w>
可 口</w>
只 管</w>
古 典
口 感</w>
变 身</w>
取 决
取决 于</w>
发 错</w>
发 过来</w>
反 倒</w>
友 人</w>
原 始
卧 室</w>
占 领</w>
卖 掉</w>
半 小时</w>
午 睡</w>
北京 大学</w>
北 风</w>
化 合物</w>
办 成</w>
办 公</w>
前 野</w>
别 过来</w>
初 恋</w>
创 伤</w>
分 量</w>
击 球</w>
出 走</w>
几 处</w>
况 且</w>
决 算</w>
决 策</w>
农 具</w>
农 作物</w>
共 鸣</w>
共 事</w>
公安 人员</w>
公 报</w>
全 部
全 局</w>
全 场</w>
免 疫
光 照</w>
光 泽</w>
兄弟 姐妹</w>
儿 地</w>
储 备</w>
偷 偷
值 班</w>
借 钱</w>
倒 闭</w>
保 全</w>
你 会
伤 痕</w>
伤 感</w>
优 化</w>
以 免</w>
代理 店</w>
从那 以后</w>
从 容</w>
人 马</w>
人 生
人 格</w>
交 接</w>
互相 帮助</w>
乌 黑</w>
乌 冬
之 家</w>
主 妇</w>
中 伤</w>
严 密</w>
两 名</w>
专 注</w>
不能 不</w>
不 论
不 成
不 息</w>
不 忍</w>
不 必要</w>
不 对劲</w>
不 在意</w>
不 像
下 决心</w>
上 锁</w>
上 游</w>
上 天</w>
万 岁</w>
七 月</w>
七 十</w>
一 轮</w>
一 路上</w>
一 见</w>
一 片
一 滴</w>
一 枚</w>
一 时
一 新</w>
一 斤</w>
一 心</w>
一 动不动</w>
一 列</w>
一 分</w>
一 万
oc k</w>
e t</w>
D on</w>
3 7</w>
20 13</w>
魔 王</w>
魔 术</w>
高 贵</w>
高 考</w>
高 潮</w>
高 品质</w>
高 原</w>
首 次</w>
饿 死</w>
饭 碗</w>
飞 舞</w>
飞 快</w>
风 筝</w>
风 浪</w>
风 景
风 扇</w>
风 声</w>
预 防
顿 时</w>
顺 从</w>
鞭 子</w>
面 粉</w>
非常 适合</w>
非 得</w>
静静 地</w>
露 天</w>
陷 于</w>
陪 伴</w>
除此 之外</w>
降 落</w>
阿拉 伯</w>
阐 述</w>
间 隙</w>
闭 上
门 窗</w>
门 票</w>
长 进</w>
长 胖</w>
长 年</w>
钦 佩</w>
钟 情</w>
钟 头</w>
金 枪
金枪 鱼</w>
重新 考虑</w>
重 重</w>
里 加</w>
里 会</w>
采 取
酝 酿</w>
酒 会</w>
郊 区</w>
那 封</w>
還 有</w>
遥 控</w>
遗 体</w>
逻 辑</w>
這 裡</w>
這 是</w>
选 中</w>
适 可而止</w>
追 究</w>
这 道</w>
这 盘</w>
近 年</w>
过 生日</w>
过 时</w>
过 世</w>
辩 解</w>
辣 辣</w>
输 送</w>
转 身</w>
转 播</w>
转 弯</w>
转 发给</w>
车 胎</w>
车 撞</w>
车 厢</w>
踏 实</w>
踏 上</w>
路 面</w>
跑 出去</w>
越 过</w>
起 源</w>
购 入</w>
货 色</w>
责 骂</w>
负 着</w>
谈 到</w>
调 到</w>
诸 葛
说了 半天</w>
说 道</w>
语 音</w>
诚 意</w>
识 破</w>
论 者</w>
论 点</w>
议 会</w>
謝 謝</w>
见 北</w>
要 脸</w>
裸 体</w>
被 褥</w>
衬 衣</w>
行 政
蟑 螂</w>
虹 村</w>
薪 水</w>
荡 荡</w>
茶 道</w>
英语 水平</w>
花 朵</w>
芝 士</w>
舞 者</w>
自 行</w>
自 学</w>
自 作
胸 膛</w>
胶 带</w>
胜 任</w>
联欢 会</w>
耐 用</w>
老 師</w>
羽毛 球</w>
群 体</w>
罩 着</w>
罗 马
罕 见</w>
缓 慢</w>
统 治
绝 佳</w>
结 尾</w>
织 品</w>
纤 细</w>
纠 缠</w>
累 计</w>
累 累</w>
紧 密</w>
素 描</w>
糟 蹋</w>
糖 果</w>
精 致</w>
精 细</w>
管 子</w>
简 短</w>
简 易</w>
笼 罩着</w>
笔 画</w>
端 正</w>
竟 敢</w>
站 台</w>
空 洞</w>
稍 作</w>
离 职</w>
神 话</w>
祝 您</w>
碰 面</w>
码 事</w>
矫 正</w>
着 眼</w>
眼 色</w>
眼 下</w>
真心 话</w>
真 情</w>
看 热闹</w>
看 做</w>
盼 望
相 爱</w>
相 册</w>
盯 上</w>
皮 带</w>
百货 商场</w>
白 云</w>
电影 票</w>
电 动</w>
用 餐</w>
用 语</w>
用 户
生物 学</w>
生活 习惯</w>
生产 线</w>
生 死</w>
生 态</w>
生 下</w>
甜 食</w>
琢 磨</w>
玻璃 杯</w>
环 节</w>
玩 过</w>
犯罪 分子</w>
特 技</w>
爱 意</w>
爱 惜</w>
熟练 地</w>
照 耀</w>
照 料</w>
照 应</w>
煤 气</w>
热 忱</w>
烫 伤</w>
炮 弹</w>
炫 耀</w>
炒 面</w>
灵 活
激 素</w>
潮 湿</w>
演奏 家</w>
漏 水</w>
满满 的</w>
满 身</w>
游 世界</w>
渗 透</w>
清清 楚楚</w>
清 算</w>
淋 淋</w>
涉 及</w>
消 毒</w>
涂 料</w>
浏 览</w>
浇 水</w>
流 星</w>
流 感</w>
洋 葱</w>
洋 溢</w>
泡 沫</w>
法 师</w>
法 官</w>
没 个</w>
沉 着</w>
汽 车
水 族
水族 馆</w>
水 位</w>
民 间</w>
民 间
比 方</w>
比 亚</w>
每 晚</w>
毁 灭</w>
此 处</w>
正 合适</w>
欢迎 会</w>
欢 快</w>
欢 呼</w>
次 世界大战</w>
桌 布</w>
核 心</w>
校 对</w>
栅 栏</w>
构 思</w>
极 拳</w>
条 路</w>
本 家</w>
未 知</w>
期末 考试</w>
期 满</w>
有 生
有 所
最 坏</w>
最 低
暗 号</w>
普通 话</w>
普通 人</w>
晕 车</w>
春 风</w>
早 些</w>
日 渐</w>
无可 奈何</w>
无 趣</w>
无 数
无 心</w>
无 声</w>
旋 律</w>
新 华
斟 酌</w>
整 形</w>
数 目</w>
散 文</w>
散 散步</w>
教 养</w>
放在 心上</w>
收 藏</w>
收 买</w>
支 持
擦 掉</w>
摔 跤</w>
摇摇 晃晃</w>
搭 档</w>
搬 到</w>
搞 不懂</w>
搁 置</w>
提 包</w>
提 前
掩 护</w>
推 行</w>
控 制
排 出</w>
换 气</w>
挚 友</w>
挑 起</w>
指 纹</w>
挂 念</w>
拉 拉</w>
抹 布</w>
抱 紧</w>
报 应</w>
报 复</w>
报 上</w>
扰 乱</w>
扮 演</w>
托 人</w>
打 赢</w>
打 断</w>
打 交道</w>
手 绢</w>
手 机
手 势</w>
手 做</w>
所 述</w>
所 能</w>
房 地
我 见</w>
我 怕</w>
我 以</w>
成本 计算</w>
憎 恨</w>
想 学</w>
惊 醒</w>
情 绪
悔 恨</w>
恐 慌</w>
怨 恨</w>
性 别</w>
怕 生</w>
怒 气</w>
忘 却</w>
得 起</w>
得 快</w>
得 失</w>
得 分</w>
很 胖</w>
影 儿</w>
形 容
录 像
当 着</w>
张 老师</w>
张 票</w>
引 诱</w>
弄 脏</w>
异 物</w>
开 张</w>
开 封</w>
开 业</w>
度 假</w>
应用 程序</w>
带 狗</w>
布 局</w>
布 丁</w>
市 区</w>
差 价</w>
崇 拜</w>
山 峰</w>
屋 外</w>
尼泊 尔</w>
尼 斯</w>
就 别</w>
导 向</w>
密 度</w>
寄 生
宽 广</w>
室 外</w>
客 观</w>
实验 室</w>
定 为</w>
官 司</w>
宁 可</w>
学 金</w>
学 部</w>
学 得</w>
委员 长</w>
好 孩子</w>
好 奇</w>
夹 克</w>
头 顶</w>
太 长</w>
太 极拳</w>
太 早</w>
太 久</w>
天 性</w>
天 儿</w>
大 蒜</w>
大 病</w>
大 局</w>
大 娘</w>
大 哭</w>
大 便</w>
大 不
多 半</w>
增 长
墓 地</w>
填 补</w>
垃圾 箱</w>
坦 率地</w>
坚 固</w>
均 衡</w>
场 上</w>
地 理</w>
地 为</w>
在 职</w>
圆 形</w>
围 绕</w>
围 巾</w>
回 顾</w>
四 岁</w>
嗓 音</w>
哎 哟</w>
品 味</w>
咖啡 馆</w>
和 善</w>
呼 噜</w>
周 转</w>
周 知</w>
呕 吐</w>
呀 呀</w>
吸 烟
吵 闹</w>
听 得
含 义</w>
君 子</w>
向 往</w>
名 堂</w>
各 人</w>
吃 点</w>
叶 月</w>
另 一方面</w>
变 革</w>
发 车</w>
发 出
双 眼</w>
参考 书</w>
去 掉</w>
压 制</w>
厂 家</w>
印度 尼西亚</w>
卖 得</w>
卖 光</w>
半 截</w>
千 元</w>
十二 点</w>
十 几年</w>
包 子</w>
助 威</w>
动 员</w>
办公 楼</w>
办事 处</w>
剧 团</w>
判 定</w>
创 新</w>
切 实</w>
分 给</w>
击 中</w>
出席 会议</w>
出 动</w>
出 众</w>
冷 漠</w>
冷 得</w>
决 定性</w>
冒 昧</w>
再 用</w>
内 定</w>
内 在</w>
养 着</w>
兴 致</w>
公 式</w>
光 顾</w>
先 行</w>
傻 子</w>
做 起</w>
做 做</w>
偏 离</w>
假 名</w>
倾 斜</w>
候 补</w>
修 缮</w>
信 儿</w>
保 质
保 养</w>
保 健
你 們</w>
作 弊</w>
作 响</w>
作 呕</w>
体 谅</w>
低 成本</w>
伶 俐</w>
传 送</w>
会 想</w>
优 秀
休 学</w>
企 业
仰 慕</w>
以 此</w>
从今 以后</w>
今天 上午</w>
人事 部</w>
人 要</w>
人 行道</w>
人 种</w>
人 用</w>
人 多</w>
亲 爱</w>
于 人</w>
二 百</w>
二 十年</w>
乱 七八糟</w>
买 到</w>
买 下</w>
书 上</w>
习 气</w>
乘 着</w>
之 门</w>
举 手</w>
主 权</w>
主 持</w>
丰 盛</w>
个 体</w>
两 面</w>
两 根</w>
两 头</w>
两 份</w>
丝 绸</w>
东京 证券交易所</w>
业 余
专 政</w>
与其 说是</w>
不经 意</w>
不敢 相信</w>
不 进</w>
不 耐烦</w>
不 爱</w>
不 服</w>
不 惜</w>
不 带</w>
不 凡</w>
不 全</w>
下 星期</w>
下 属</w>
下 功夫</w>
上 身</w>
上 场</w>
上 周末</w>
上 台</w>
三 种</w>
一百 元</w>
一次 性</w>
一 览
一 见
一 肚子</w>
一 派</w>
一 局</w>
一 塌
一 动</w>
s t
n ock</w>
g e</w>
V D</w>
K nock</w>
D VD</w>
Act. 3</w>
A N
20 11</w>
魄 力</w>
高级 中学</w>
高 超</w>
骨 气</w>
骚 乱</w>
骂 人</w>
马 车</w>
马 克
香 肠</w>
首 长</w>
飞 跃</w>
飞 去</w>
飘 扬</w>
风 情</w>
音 量</w>
面 对面</w>
面 容</w>
靠 着</w>
需 要
雪 地</w>
雖 然</w>
雄 厚</w>
隐 约</w>
阴 影</w>
防 备</w>
闻 到</w>
闲 暇</w>
问 卷
问卷 调查</w>
门 户</w>
长 野</w>
错 误
销 路</w>
销 商</w>
银 奖</w>
钢 琴
重 写</w>
配 置</w>
邮 件
那 艘</w>
那 回事</w>
那 么
遗 忘</w>
逞 强</w>
通 风</w>
通 道</w>
通 知
选 择
逃 犯</w>
逃 掉</w>
连 队</w>
连 锁</w>
远 远
进 屋</w>
这 有</w>
迎 面</w>
迎 合</w>
过 失</w>
边 防
辨 别</w>
辞 退</w>
辉 煌</w>
轮 车</w>
转 过</w>
跳 进</w>
路 费</w>
路 亚</w>
跃 进</w>
起 火</w>
起 來</w>
走 走</w>
赞 美</w>
赔 偿
贵 重</w>
购物 中心</w>
贫 困</w>
贫 乏</w>
货 品</w>
财 团</w>
调 味</w>
课 外
读 的
读的 书</w>
读 取</w>
诸葛 亮</w>
说得 对</w>
诡 计</w>
试 探</w>
论 述</w>
许 久</w>
让 座</w>
讨论 会</w>
警 戒</w>
解放 后</w>
视 角</w>
视 觉</w>
观光 客</w>
见 过
衰 退</w>
表 兄弟</w>
血 性</w>
融 入</w>
螃 蟹</w>
虚 心</w>
蒙 受</w>
落 实</w>
营业 时间</w>
荒 唐</w>
草 坪</w>
茄 子</w>
英 格
英 明</w>
花 哨</w>
芝 麻</w>
节 课</w>
色 情</w>
良 种</w>
船 员</w>
致 敬</w>
至 此</w>
自然 环境</w>
自来 水</w>
自 满</w>
脸 皮</w>
脚 印</w>
能 用</w>
能 来</w>
胸 部</w>
胡 说</w>
肥 皂
肥 大</w>
聆 听</w>
耳 机</w>
而 过</w>
而 易
考 生</w>
老大 娘</w>
老 爷
老 子</w>
群 山</w>
罚 金</w>
统 一
细 微</w>
纽 扣</w>
纸 巾</w>
纳 入</w>
约 束</w>
纤维 蛋白</w>
累 赘</w>
累 积</w>
索 取</w>
精 明</w>
粘 膜</w>
管理 员</w>
筹 划</w>
笼 子</w>
第一 位</w>
笔 迹</w>
竹 竿</w>
童 年</w>
空 前</w>
稚 气</w>
稀 奇</w>
科 研
科 技
秋 千</w>
票 口</w>
礼 品</w>
示 范</w>
示 威</w>
示 会</w>
磨 练</w>
知名 度</w>
瞩 目</w>
着 陆</w>
真 棒</w>
真 不错</w>
看 得</w>
盼 望</w>
相 近</w>
盈 亏</w>
皮 儿</w>
登 记
登 山
痒 痒</w>
留 情</w>
画 出</w>
画 书</w>
电 路</w>
电 站</w>
用 药</w>
用 处</w>
瓷 器</w>
瓶 装</w>
理发 店</w>
理 手续</w>
球 拍</w>
现 场
猎 物</w>
狭 隘</w>
狩 猎</w>
特 色</w>
牵 手</w>
牢 记</w>
爵 士</w>
爱 好
熟 睡</w>
焦 急</w>
热 气</w>
烧 酒</w>
炒 饭</w>
炎 症</w>
澎 湃</w>
潇 洒</w>
演 说</w>
满 足
满 满</w>
渲 染</w>
清 白</w>
混 入</w>
深 表
淡 淡
涂 黑</w>
海 鲜</w>
海 岸</w>
浴 缸</w>
浴 池</w>
浑 身
流 浪</w>
流 浪
津 贴</w>
洗 脸</w>
洗 涤
洋 洋</w>
泥 土</w>
法 是</w>
沿 海</w>
油 田</w>
没吃 过</w>
没 救</w>
污 点</w>
池 塘</w>
汇 集</w>
汇 票</w>
永 不</w>
水 池</w>
气 量</w>
气 派</w>
气 愤</w>
毒 性</w>
母 子</w>
残 留</w>
歹 徒</w>
武 术</w>
此 刻</w>
模 拟</w>
检查 一下</w>
样 样</w>
校 正</w>
松 懈</w>
杯 酒</w>
条 例</w>
杆 子</w>
杂 菌</w>
朴 实</w>
本 月</w>
期 货</w>
期 末</w>
朝 阳</w>
有 机</w>
有 机
普 遍
是 谁</w>
时 速</w>
时 分</w>
早 睡</w>
早 日
早日 康复</w>
日 起</w>
日 葵</w>
日 历</w>
无 非</w>
无 邪</w>
无 私</w>
无 用</w>
无 处</w>
无 味</w>
方 向
新 家</w>
斜 坡</w>
料 费</w>
整 修</w>
敢 于</w>
敌 对</w>
改 到</w>
摇 头</w>
搭 讪</w>
搏 斗</w>
掩 饰</w>
接 过</w>
捕 鱼</w>
振 作</w>
挤 满</w>
拧 紧</w>
招待 会</w>
招 人</w>
报 警</w>
投 球</w>
承 担
承 包</w>
批 发</w>
打 针</w>
打 到</w>
打 入</w>
房地 产</w>
房 顶</w>
戴 上</w>
我 错</w>
我 带</w>
戏 剧</w>
懒 惰</w>
感 器</w>
意 气
想 试</w>
情 意</w>
患 上</w>
悄悄 地</w>
急 急
急急 忙忙</w>
急 切</w>
心 里
心 血</w>
心 理学</w>
心 动</w>
德 语</w>
很 花</w>
往 前走</w>
彼此 彼此</w>
影 响
影响 力</w>
当 选</w>
归 还</w>
弹 性</w>
弯 儿</w>
开 除</w>
开 启</w>
延 后</w>
康 复
并 不
年 底</w>
平安 地</w>
平均 值</w>
平 平
平 坦</w>
平 价</w>
干干 净净</w>
干 扰</w>
希 腊</w>
工作 效率</w>
工 艺</w>
川尻 早</w>
崇 高</w>
屡 次</w>
展 示会</w>
展 品</w>
层 楼</w>
小 说家</w>
小 溪</w>
小 儿</w>
射 中</w>
对 头</w>
密 布</w>
密 切
寄生 虫</w>
寄 生</w>
家 子</w>
宝 贝</w>
定 制</w>
宏 观</w>
安 稳</w>
宇宙 飞船</w>
孕 妇</w>
嫌 疑</w>
嫌 弃</w>
威 力</w>
如 实</w>
好好 儿</w>
好 汉</w>
好 大</w>
好 办</w>
奴 隶
女 孩儿</w>
失 措</w>
太 慢</w>
天安门 广场</w>
天安 门</w>
天 边</w>
天 真
大 厦</w>
大 体</w>
夜 色</w>
多 少
备 金</w>
处 方</w>
士 学位</w>
境 界</w>
埃 及</w>
坡 路</w>
地 过</w>
地 看</w>
地 主
圈 套</w>
国际 化</w>
国 防
困 境</w>
团 子</w>
因 而</w>
因 人
回 乡</w>
四面 八
四面八 方</w>
四 月份</w>
噩 梦</w>
器 械</w>
喷 上</w>
喜 事</w>
喋 喋
喋喋 不休</w>
咒 语</w>
和 谐</w>
和 睦</w>
吹 奏</w>
向 日葵</w>
名 誉</w>
名 胜</w>
名 牌</w>
名 儿</w>
合 乎</w>
各 有</w>
司 令
号 召</w>
可 行</w>
古 文</w>
古 人</w>
口 渴</w>
口 处</w>
叛 乱</w>
变 弱</w>
变 化
叔 父</w>
发生 变化</w>
发 育</w>
发 短信</w>
发 疯</w>
发 现
发 声</w>
发 动
友 爱</w>
卸 货</w>
博 得</w>
升 高</w>
升 职</w>
千 里
十字 路口</w>
十 万</w>
匹 配</w>
包 涵</w>
募 捐</w>
勋 章</w>
动 弹</w>
动 工</w>
动 听</w>
办 理手续</w>
办 到</w>
力 争</w>
制 约</w>
到 头</w>
别 往</w>
别 国</w>
判 员</w>
分 公司</w>
出版 社</w>
出 路</w>
出 卖</w>
几 遍</w>
几 百
净 化</w>
冷 冷
决 赛</w>
冰 冷</w>
农 业
冈 山</w>
兼 顾</w>
养 狗</w>
其 余</w>
兴 旺</w>
关键 时刻</w>
共和 国</w>
公 款</w>
公 众</w>
八 年</w>
八 十
全 班</w>
全 国
全 厂</w>
光 景</w>
光 明
光 光</w>
先 是</w>
先 前</w>
元 旦</w>
億 泰</w>
储 蓄</w>
做 生意</w>
假 说</w>
假 话</w>
修 理
保 守
保 健</w>
侵 蚀</w>
你 老</w>
佛 像</w>
体育 馆</w>
体育 运动</w>
低 迷</w>
伸 手</w>
传染 病</w>
传 感器</w>
传 开</w>
会 面</w>
休 养</w>
任 凭</w>
价值 观</w>
从 头
人 头</w>
亲 手做</w>
亲 属</w>
交通 规则</w>
交 替</w>
交 代</w>
二 手</w>
事 已
事 宜</w>
争 端</w>
争 斗</w>
乘 车</w>
乐 谱</w>
乌冬 面</w>
之 徒</w>
为 此</w>
为 啥</w>
临 时
中国 队</w>
中 队</w>
个 头</w>
两 块</w>
丢 弃</w>
丢 下</w>
业 余</w>
世 人</w>
专 辑</w>
不 服
不 景气</w>
不 堪
不 周</w>
不 前</w>
下一 话</w>
下 棋</w>
下 放</w>
下 半身</w>
下 乡</w>
上 钩</w>
上 瘾</w>
上 任</w>
三 号</w>
万人 迷</w>
万 里</w>
万 事</w>
一个 劲儿</w>
一 连
一 米</w>
一 流</w>
一 段
一 栏</w>
一 朵</w>
一 日
一 幕</w>
一 如
一 处</w>
一 地</w>
一 侧</w>
一 伙</w>
一 代
一 串</w>
in g</w>
i on</w>
e n</w>
O J
OJ O</w>
Ne w</w>
J OJO</w>
AA A</w>
1 8
龌 龊</w>
齿 轮</w>
鼓 掌</w>
鼓 动</w>
默默 地</w>
黑 白</w>
黄 色
麻 将</w>
麻 子</w>
鸽 子</w>
鲸 鱼</w>
鲑 鱼</w>
高 额</w>
高 音</w>
高 声</w>
骨 髓</w>
骨 悚然</w>
骗 局</w>
验 收</w>
香 水</w>
首 位</w>
饶 恕</w>
饮 食
饮 用</w>
飞 过</w>
飞 翔</w>
风 气</w>
风 头</w>
领导 班子</w>
预 言</w>
预 见</w>
顺 手</w>
青春 期</w>
霉 素</w>
雾 气</w>
雷 达</w>
雨 量</w>
雨 后</w>
雨 伞</w>
集中 精力</w>
集 合
难 吃</w>
难 为
随 后</w>
陶 瓷</w>
陶 器</w>
陪 同</w>
降 临</w>
附加 文件</w>
阿 尔
阻 力</w>
阵 子</w>
阴 谋
闹 闹</w>
闲 着</w>
闪 闪</w>
门 缝</w>
长 满</w>
镇 定</w>
错 觉</w>
锁 门</w>
锁 上</w>
铺 上</w>
钻 进</w>
钢 丝</w>
鉴 定</w>
野 餐</w>
野 生</w>
重 病</w>
酸 痛</w>
酱 汁</w>
配 备</w>
部 署</w>
那 樣</w>
逼 人</w>
通货 膨胀</w>
通知 书</w>
通 电话</w>
途 径</w>
递 给</w>
递 交</w>
透 了</w>
选拔 赛</w>
适 于</w>
退休 金</w>
退 房</w>
迷 茫</w>
迷 惑</w>
迷 住</w>
迷 人</w>
这 番话</w>
这 棵树</w>
这 布</w>
这 头</w>
这 出</w>
运 到</w>
过敏 原</w>
过 错</w>
过 得
过 剩</w>
过 不去</w>
辅 助
辅助 性</w>
轮 到</w>
转 行</w>
转 眼</w>
车 祸</w>
跳 槽</w>
足球 赛</w>
足 以</w>
起 舞</w>
起 不来</w>
走 运</w>
走 不动</w>
资 助</w>
贵 重
贵 惠</w>
购 买
贩 卖
质 地</w>
货 到
货到 付款</w>
账 款</w>
贝 壳</w>
课 本</w>
诸 多</w>
请 谅解</w>
请 别</w>
语 调</w>
话 剧</w>
试 用</w>
评 论
讲 演</w>
记 述</w>
记 不住</w>
议事 录</w>
议 价</w>
警 方</w>
言 行</w>
觉 察
觉察 到</w>
见 崎
要 领</w>
要 花费</w>
西 式</w>
装 扮</w>
装 修</w>
裂 缝</w>
被 车撞</w>
被 动</w>
融 合</w>
薪 休假</w>
蒙 蒙</w>
落 落</w>
落 叶</w>
萧 条</w>
菠 菜</w>
药 水</w>
荒 废</w>
英 文
苏 格
花 生
艰 巨</w>
自动 化</w>
自 立</w>
自 助
腐 败</w>
脱 下</w>
胸 前</w>
胡 萝卜</w>
背 诵</w>
胆 量</w>
肺 泡</w>
肮 脏</w>
肉 饼</w>
职 权</w>
聊 聊</w>
耳 边</w>
耳 光</w>
老 鹰</w>
老 太
老 同学</w>
老 化</w>
翻 修</w>
羊 毛</w>
罗 勒</w>
缭 绕</w>
编 辑
绽 放</w>
绝 路</w>
绝 境</w>
给 我</w>
终 究</w>
纪念 碑</w>
红 灯</w>
繁 华</w>
累 坏</w>
紧 时间</w>
精神 力</w>
精 英</w>
粗 心
粗心 大意</w>
粉 色</w>
管理 层</w>
算 计</w>
简 的</w>
第一 线</w>
第 四
站 立</w>
立 志</w>
窝 儿</w>
突 变</w>
离 家</w>
离 家
离家 出走</w>
离 奇</w>
离 去</w>
破 碎</w>
知 觉</w>
知 晓</w>
着 雨</w>
着 头</w>
真 格
真格 的</w>
真 够</w>
真 令人</w>
看 清</w>
相 貌</w>
相 看</w>
直 率</w>
盛 夏</w>
监 护
盈 余</w>
皮 革</w>
百分之 百</w>
病 魔</w>
病 症</w>
病 床</w>
病 倒</w>
疗 养
疏 通</w>
界 线</w>
电 脑
电 气</w>
电 力
由 希
田 县</w>
生日 礼物</w>
生 锈</w>
生 死
生 来</w>
生 意
生 动物</w>
瑞 士</w>
瑜 伽</w>
理 论
球 员</w>
班 人</w>
珍 重</w>
玫 瑰
玩 家</w>
献 出</w>
献 上</w>
猪 排</w>
独 生
犯 困</w>
犯 下</w>
牵 连</w>
物 件</w>
焰 火</w>
热 带
烧 伤</w>
烟 头</w>
点 前</w>
炸 死</w>
灵 感</w>
灵 巧</w>
火 线</w>
漱 口</w>
满 面</w>
滚 开</w>
溢 出</w>
清 水</w>
清 凉</w>
淹 死</w>
深 重</w>
深 远</w>
深 沉</w>
深 山
浸 泡</w>
海 水
海 军</w>
浓 郁</w>
流 露</w>
流 感
流感 病毒</w>
流 出</w>
洗 澡
法 规</w>
泄 气</w>
河 道</w>
没 法
没 完
没完 没
没完没 了</w>
没 人
求 职</w>
水 利</w>
水 利
毛 骨悚然</w>
比 赛
比 不上</w>
每 逢</w>
殿 下</w>
殷 勤</w>
殖民 地</w>
死 后</w>
歪 曲</w>
步 入</w>
正 经
正 正</w>
正 月</w>
正 午</w>
楼 下</w>
棒 子</w>
棉 袄</w>
检 票口</w>
桥 本</w>
桔 子</w>
桌 面</w>
桌 椅</w>
案 例</w>
根 据
栖 息</w>
标 价</w>
林 匹
极 力</w>
板 儿</w>
松 永</w>
松 弛</w>
来 电</w>
来 源</w>
李 老师</w>
本 性</w>
本 市</w>
木 匠</w>
服 药</w>
有 理</w>
有 利于</w>
更 生</w>
晋 升</w>
時 間</w>
春 咲
昏 暗</w>
昂 贵</w>
时 不时</w>
日 用</w>
既 往</w>
无法 忍受</w>
无 疑</w>
无 所</w>
无 从</w>
旅行 者</w>
旅 途</w>
新 兴
料 理
料 子</w>
整 治</w>
敬 请
教 诲</w>
教 书</w>
敏 锐</w>
放 不下</w>
收 敛</w>
收 件</w>
攀 登</w>
撤 回</w>
摇 滚</w>
摆 出</w>
提 及</w>
推 开</w>
接 种</w>
探 索</w>
排 成</w>
损 耗</w>
捉 摸</w>
振 动</w>
振 作
挣 钱</w>
拿 下</w>
拥 护</w>
拟 定</w>
招 来</w>
招 揽</w>
招 手</w>
招 惹</w>
拐 杖</w>
拐 弯</w>
报 销</w>
抚 育</w>
抗 旱</w>
抓 紧时间</w>
把 戏</w>
扫 描</w>
扩 张</w>
打个 招呼</w>
打 包
打 人</w>
打 不开</w>
手 巾</w>
所 欲</w>
房 东</w>
战 火</w>
我 门</w>
我 查</w>
戏 弄</w>
憎 恶</w>
感 慨</w>
感 性</w>
感 人</w>
悦 耳</w>
患 难</w>
恶 魔</w>
恰 好</w>
快 死了</w>
必 要
必 不可
必不可 少</w>
心 痛</w>
心 态</w>
心 得</w>
心 儿</w>
心 一
德 里</w>
得 好</w>
得 多</w>
很 闲</w>
很 着急</w>
形 兆</w>
录 下来</w>
当 局</w>
当 众</w>
当 下</w>
弱 小</w>
引人 注目</w>
引 以为
式 各样</w>
异 样</w>
异 乡</w>
建 了</w>
底 子</w>
床 单</w>
庆 贺</w>
庄 重</w>
幽 静</w>
幼 小</w>
幸 福
幸 好</w>
平 和</w>
常 人</w>
带 薪休假</w>
希 腊
巴 斯</w>
工 资
山 河</w>
山 川</w>
山 岸</w>
属 性</w>
屏 住</w>
就 诊</w>
就 会</w>
尘 土</w>
小 满</w>
小 样</w>
小 怜</w>
小 号</w>
寿 司
寿司 店</w>
寄 出</w>
室 内
宣 告</w>
审 计</w>
实 用
实 惠</w>
实 地</w>
定期 存款</w>
宗 旨</w>
宇 航员</w>
宁 静</w>
学生 会</w>
学 期
学 园</w>
子 公司</w>
委 书记</w>
好 感</w>
女 排</w>
奥 林匹
套 装</w>
奖 学金</w>
奏 响</w>
失 恋</w>
太 紧</w>
太 少</w>
大力 支持</w>
大 豆</w>
大 气</w>
大 巴</w>
大 展
大 城市</w>
大 坝</w>
大 众</w>
多 月</w>
外 线</w>
外 界</w>
复 兴</w>
复 仇</w>
堡 垒</w>
基 础
地 雷</w>
地 道</w>
地 读</w>
地 开</w>
地 势</w>
在 生活
图 钉</w>
图 画</w>
图 形</w>
国 庆</w>
国 会</w>
围 墙</w>
困 了</w>
园 子</w>
因人 而异</w>
回 忆
嘿 嘿</w>
嘟 嘟</w>
商 议</w>
哪 一天</w>
咕 噜
咕 咕</w>
和 尚</w>
命 中
告 状</w>
听 讲</w>
含 糊</w>
后 院</w>
后 腿</w>
同 行</w>
同 学会</w>
各 式各样</w>
吃 大
古 典</w>
口 红</w>
取 暖</w>
发展 中
发展中 国家</w>
发出 声音</w>
发 酵</w>
发 掘</w>
发 呆</w>
双 簧管</w>
县 城</w>
去 往</w>
去 向</w>
原 子弹</w>
原 先</w>
压 缩</w>
半 路</w>
千万 别</w>
千 亿</w>
十八 岁</w>
十 几岁</w>
医 务
匆 忙</w>
助 理</w>
助 力</w>
动 静</w>
动 画
加班 费</w>
功 劳</w>
办 不到</w>
劝 说</w>
力 度</w>
副 社长</w>
剧 院</w>
前 期</w>
前 夕</w>
前 人</w>
刻 画</w>
到 访</w>
别 处</w>
利 用
出 租</w>
出 人
凶 狠</w>
凡 是</w>
几 步</w>
几 条</w>
几 本</w>
几 声</w>
冻 结</w>
冷 水</w>
决 胜负</w>
冲 破</w>
农 田</w>
再 次
再 也
内 战</w>
养 猫</w>
关 掉</w>
六 十</w>
公 物</w>
八 个</w>
全 盘</w>
全 校</w>
入 座</w>
入 境</w>
先 烈</w>
傲 慢</w>
健 全</w>
做 手术</w>
做 买卖</w>
借 鉴</w>
保质 期</w>
保 龄
保 证书</w>
保 卫
依 法</w>
你 们
你们 好</w>
作 法</w>
何 处</w>
体 质</w>
体 格</w>
住 处</w>
会计 师</w>
休 闲</w>
休 想</w>
份 额</w>
任 职</w>
件 产品</w>
令人 满意</w>
代表 性</w>
他 气</w>
他 学</w>
从今 往后</w>
从 今天
从今天 起</w>
人造 卫星</w>
人 性</w>
人 太</w>
人 份</w>
亮 亮</w>
产 假</w>
交通 费</w>
交 货单</w>
交 了</w>
亏 了</w>
二手 车</w>
二 次</w>
事 由</w>
事 上</w>
习 性</w>
乘 船</w>
乘 务员</w>
乐 园</w>
之 道</w>
之 地</w>
之 交</w>
主 办</w>
主 办
为 期</w>
临 床</w>
中 外</w>
中 华
丧 气</w>
严 禁</w>
两 面
两 道</w>
两 本</w>
两 口</w>
东 南
丛 生</w>
与 否</w>
不是 故意</w>
不像 话</w>
不 计
不 见
不 要脸</w>
不 熟</w>
不 比</w>
不 朽</w>
不 怕
不 容
不 大
不 在
不 善</w>
不 冷</w>
不 决</w>
不 免</w>
不 倦</w>
不 买</w>
不 中
下 着雨</w>
下 游</w>
上班 时间</w>
上 街</w>
上 演</w>
上 放</w>
三角 形</w>
三 条</w>
三 张</w>
三 倍</w>
万 吨</w>
万 事
一见 钟情</w>
一般 来说</w>
一塌 糊涂</w>
一切 顺利</w>
一 齐</w>
一 角</w>
一 箱</w>
一 气</w>
一 望
一 无
一 听</w>
一 分
一 两个</w>
u t
c os
a c
T 恤</w>
C E</w>
1 4
1 2
默 默</w>
黄金 周</w>
鹿 肉</w>
鲤 鱼</w>
高高 的</w>
高 等
高 空</w>
高 昂</w>
高 性能</w>
高 坂</w>
骨 干</w>
马 铃
马铃 薯</w>
香 草</w>
饱 受</w>
饥 饿</w>
风 波</w>
额 头</w>
颜 料</w>
音 符</w>
鞭 策</w>
面 条</w>
靠 不住</w>
非常 简单</w>
非 正式</w>
需要 的话</w>
零 工</w>
雨 淋</w>
难为 情</w>
难 办</w>
隐 私</w>
随 心
随心 所欲</w>
附 着</w>
阶 层</w>
阴 郁</w>
阅 览</w>
阁 楼</w>
闹 腾</w>
闭上 眼睛</w>
闪闪 发光</w>
门 子</w>
门 关</w>
长 远</w>
长 跑</w>
镇 静</w>
锥 子</w>
锅 里</w>
销 会</w>
金融 机构</w>
重 重
里 头</w>
醒 悟</w>
酷 热</w>
酒 量</w>
酒 屋</w>
邪 恶</w>
那就 好</w>
那 要</w>
那 有</w>
那 扇</w>
那 可真</w>
邀请 函</w>
遗 留</w>
造 访</w>
造 林</w>
通 话</w>
通 俗
逐 年</w>
透 顶</w>
退 换</w>
退 回</w>
迷 迷
迟 早</w>
连 天</w>
远 程</w>
远 山</w>
进 口
这 药</w>
这 碗</w>
这 伙</w>
迈 着</w>
过 问</w>
辐 射</w>
较 量</w>
轻 重</w>
轻 率</w>
轻 佻</w>
车 轮</w>
车 是</w>
车 床</w>
身 符</w>
践 踏</w>
路 里</w>
路 灯</w>
路 子</w>
路 人</w>
跌 落</w>
趣 味</w>
越来 越
越 南
超 级
趁 现在</w>
起 隆</w>
起 身</w>
赶 着</w>
走 近</w>
走 私</w>
走 开</w>
资本 家</w>
资 格
费 心</w>
贵重 物品</w>
贪 污</w>
贩 子</w>
责任 感</w>
财务 报表</w>
谈 过</w>
谈 恋爱</w>
调查 结果</w>
调 解</w>
调 去</w>
课 时</w>
说 教</w>
识 字</w>
评 定</w>
证 人</w>
讲 讲</w>
讲 义</w>
议 案</w>
订 婚</w>
计 量</w>
言 不
触 摸</w>
解决 办法</w>
观 察
见过 面</w>
见 习</w>
要 么</w>
西 边</w>
装 进</w>
装 在</w>
表 演
衣 柜</w>
行 踪</w>
行 市</w>
行 家</w>
行 不通</w>
血 液
血 栓</w>
虔 诚</w>
蕾 莱</w>
蓬 勃</w>
葡萄 球菌</w>
萎 缩</w>
莱 坞</w>
荷 兰</w>
药 剂
药剂 师</w>
草 木</w>
茶 杯</w>
苹 果
英 俊</w>
苦 涩</w>
若 无
若无 其事</w>
苍 白</w>
花 边</w>
花 草</w>
花 瓣</w>
芭 蕾</w>
节 约
节 假日</w>
色 调</w>
舞 会</w>
致 富</w>
自然 灾害</w>
自 语</w>
臃 肿</w>
臂 之力</w>
腹 部</w>
腰 疼</w>
腐 朽</w>
脱 落</w>
脱 水</w>
脏 病</w>
胖 子</w>
背 心</w>
背 包</w>
胆 小鬼</w>
肥 胖</w>
股 东
肉 体</w>
耗 子</w>
老 爹</w>
老 头儿</w>
美 少女</w>
罪 过</w>
罗 蕾莱</w>
绿 化</w>
续 续</w>
继 承
结 核
经 销商</w>
终 结</w>
纸 条</w>
纳 税</w>
繁 重</w>
索 引</w>
糊 涂
糊 弄</w>
第二 次世界大战</w>
符 号</w>
笔 盒</w>
笑了 笑</w>
竣 工</w>
章 程</w>
立 体</w>
窥 视</w>
空 运</w>
空 想</w>
空 地</w>
稳 定
税 款</w>
移 交</w>
秦 始
科 研</w>
种 菜</w>
秋 田县</w>
秋 收</w>
福 利
禁止 入</w>
祈 愿</w>
社 交</w>
礼拜 一</w>
磨 蹭</w>
硕 士</w>
破 裂</w>
破 烂</w>
破 旧</w>
破 坏
石 油
瞧 不起</w>
睁开 眼睛</w>
眼 角</w>
眼 力</w>
真 能</w>
真 热</w>
真 挚</w>
真 切</w>
看 重</w>
盼望 着</w>
相 配</w>
相 继</w>
相 扑</w>
相 差</w>
相 传</w>
直 面</w>
盖 饭</w>
益 于</w>
盆 里</w>
百 出</w>
白 白</w>
疵 品</w>
疲 乏</w>
疗 养</w>
疑 虑</w>
疏 漏</w>
留 着</w>
画 儿</w>
画 个</w>
申 诉</w>
甲 子</w>
用 量</w>
用 人</w>
用 事</w>
生 效</w>
瑕 疵品</w>
琐 事</w>
现 款</w>
现 役</w>
王 牌</w>
玄 关</w>
献 血</w>
狼 狈</w>
独 创
狗 屎</w>
犯 法</w>
牺牲 者</w>
物 质
牢 靠</w>
牛 仔</w>
牙 疼</w>
照 例</w>
然 如此</w>
焕 发</w>
热 诚</w>
点 去</w>
火 腿</w>
潜 水
漫 步</w>
满 天</w>
满 口</w>
滑 冰</w>
溶 解</w>
湖 里</w>
游 击</w>
游 乐</w>
渊 博</w>
清 淡</w>
清 朝</w>
清 仓</w>
淹 没</w>
深 呼吸</w>
淡淡 的</w>
消 防</w>
消 散</w>
海 豚</w>
海 浪</w>
浪 潮</w>
派 出
派出 所</w>
洛 杉
注 册
泥 于</w>
泡 温泉</w>
泄 漏</w>
治 病</w>
沙 龙</w>
沉 睡</w>
汹 涌</w>
江 山</w>
汇 合</w>
永 久</w>
水 灾</w>
水 彩
气 馁</w>
气 管</w>
气 儿</w>
比 賽</w>
正 想</w>
正 宗</w>
正 事</w>
款 项</w>
樱 花
森 严</w>
框 架</w>
桃 花</w>
根据 地</w>
核 细胞</w>
标 识</w>
查 收</w>
柠 檬</w>
极 度</w>
松 散</w>
条 子</w>
束 手
杂 交</w>
机 灵</w>
本 意</w>
本 上</w>
朝 霞</w>
望 去</w>
朗 诵</w>
服务 台</w>
有 课</w>
有 件</w>
最 深</w>
更 进一步</w>
曲 家</w>
暗 中</w>
景 观</w>
显 眼</w>
昼 夜</w>
是 夜</w>
明 细
明 朗</w>
时 空</w>
时 用</w>
时 有</w>
时 时</w>
早 以前</w>
日 报</w>
无数 次</w>
无 畏</w>
无 关
旗 帜</w>
方 言</w>
新 建</w>
新 年
新 兴</w>
斯 特</w>
料理 店</w>
整 晚</w>
整 套</w>
数 学
散 开</w>
救 生
救 济</w>
放 水</w>
放 声</w>
改 编</w>
改 掉</w>
改 写</w>
收 购
收 录</w>
操 场</w>
措 辞</w>
推 辞</w>
接 连</w>
换 钱</w>
捕 捉</w>
挽 救</w>
挨 着</w>
挤 得</w>
挖 出</w>
按 期</w>
挂 号
挂号 信</w>
拼 音</w>
拘 泥于</w>
拔 掉</w>
拉 拢</w>
拆 开</w>
护 身符</w>
找 茬</w>
找 不出</w>
扰 到</w>
打 错</w>
打 起</w>
打 瞌睡</w>
打 搅</w>
打 扰到</w>
打 字</w>
打 击
才 刚</w>
手 帕</w>
手 写</w>
战斗 力</w>
我 爸</w>
我 同</w>
懒 散</w>
慢 走</w>
意 志
想 起来</w>
想 必</w>
惋 惜</w>
悉 尼</w>
恶 习</w>
恭 敬
总 务
性 格
急 需</w>
思 绪</w>
思 索</w>
怒 火</w>
忍 着</w>
心 怀</w>
心 切</w>
微 观</w>
微 弱</w>
得 过</w>
很 重</w>
很 贵</w>
很 早以前</w>
征 集</w>
往 下</w>
往 下
彩 电</w>
形容 词</w>
当 个</w>
强 项</w>
强 烈
强 有力</w>
强 健</w>
弯 子</w>
张 罗</w>
开 阔</w>
开 枪</w>
开 往</w>
开 办</w>
开 出</w>
建 设
座 儿</w>
废 品</w>
庞 大</w>
店 主</w>
应 急</w>
应 届</w>
床 不起</w>
庆 节</w>
庆 幸</w>
年 老</w>
年 份</w>
平 面</w>
平 行</w>
平 方
干 预</w>
幕 后</w>
常 去</w>
帮 手</w>
带 伞</w>
市 里</w>
巴 结</w>
已 久</w>
巩 固</w>
巧 妙</w>
巧 合</w>
山 腰</w>
山 羊</w>
山 洞</w>
山 东</w>
尘 器</w>
少 许</w>
小 林</w>
小 人</w>
射 线</w>
封建 主义</w>
导 体</w>
容 貌</w>
容 忍</w>
家 境</w>
家 务
宣传 册</w>
客 房</w>
官僚 主义</w>
官 僚</w>
宏 图</w>
安 安
学 说</w>
孤 岛</w>
孝 敬</w>
存 折</w>
字 体</w>
媒 介</w>
婴儿 车</w>
妥 善</w>
妇 人</w>
好了 吧</w>
好 莱坞</w>
好 球</w>
奖 牌</w>
夺 目</w>
太 阳光</w>
太 空</w>
太 弱</w>
天 妇</w>
天 前</w>
大 理
大 王</w>
大 气
大 有
大 分</w>
大 使
大 体上</w>
大 不了</w>
多 样</w>
多 方</w>
外 形</w>
处 罚</w>
壁 橱</w>
增长 率</w>
堂 兄弟</w>
基 层</w>
垫 子</w>
坏 习惯</w>
地 爱</w>
圣诞 树</w>
土 豆
图书 室</w>
国 庆节</w>
国 内外</w>
国 债</w>
围 裙</w>
团 聚</w>
回家 路上</w>
回 想起来</w>
回 响</w>
四 面</w>
嘿 咻</w>
喝 太多</w>
喜 庆</w>
喂 食</w>
唱 得</w>
唠 叨</w>
哪 条</w>
品 位</w>
咱 俩</w>
咕噜 咕噜</w>
和 蔼</w>
命中 注定</w>
周 旋</w>
呜 呜</w>
告 人</w>
吸 尘器</w>
吝 啬</w>
向 右转</w>
同 类</w>
同 期</w>
吉 利</w>
合 理
吃 力</w>
叹 息</w>
右 心
右 侧</w>
变 量</w>
变 色</w>
变 回</w>
发 射
反 驳</w>
友好 关系</w>
去 一趟</w>
原 型</w>
压 缩
压 压</w>
卧 床不起</w>
卡 路里</w>
占 有
博 多</w>
单 核细胞</w>
单 子</w>
半 场</w>
半 价</w>
升 学</w>
化学 物质</w>
化 为</w>
勾 当</w>
勇 猛</w>
势 头</w>
劳 苦</w>
劲 头</w>
动画 片</w>
动 荡</w>
动 脉</w>
动 态</w>
加 油
力 求</w>
剥 落</w>
前 头</w>
前 任</w>
刺 刀</w>
刷 新</w>
到 位</w>
刮 起</w>
别 来</w>
别 哭</w>
判 处</w>
刚 到</w>
刑 事
切 开</w>
分 组</w>
分 到</w>
出 头</w>
凶 暴</w>
几 道</w>
几 棵</w>
减 速</w>
减 去</w>
凉 风</w>
冷 笑</w>
内 部
内 政</w>
兴 奋
公 用
公 开
全 年</w>
入场 券</w>
入 迷</w>
入 伍</w>
兜 售</w>
党 中央</w>
光 亮</w>
充分 发挥</w>
儿 上</w>
停 不
停不 下来</w>
倾 诉</w>
借 着</w>
修 养</w>
保龄 球</w>
保险 公司</w>
保证 金</w>
保持 联系</w>
侦 察
依 次</w>
例 如</w>
侄 女</w>
使 出</w>
作 曲家</w>
作 废</w>
体 面</w>
体 积</w>
住 民</w>
低 沉</w>
位 数</w>
伺 候</w>
伪 造</w>
伪 装</w>
会 用</w>
优 良
优 异</w>
优 厚</w>
以下 内容</w>
代理 人</w>
仍 旧</w>
介 绍
仅 限</w>
人 道</w>
人 有</w>
人 手
人 房</w>
人 声</w>
亲 事</w>
享 乐</w>
产 权</w>
产 地</w>
交 叉
交 出</w>
五 米</w>
五 岁</w>
五 块</w>
五 千</w>
二十 分钟</w>
二十 一</w>
事 请</w>
了 结</w>
了 婚</w>
乱 动</w>
买 回来</w>
书 架上</w>
书 本</w>
乒 乓</w>
乐 曲</w>
之 作</w>
主義 者</w>
主 题
丰 满</w>
中 肯</w>
中 来</w>
中 世纪</w>
严 守</w>
两 项</w>
两 腿</w>
两 半</w>
两 下子</w>
丢 掉</w>
丝 网</w>
不管 是谁</w>
不懂 事</w>
不中 用</w>
不 高
不 输给</w>
不 解</w>
不 绝</w>
不 符</w>
不 热</w>
不 清楚</w>
不 早
不 振</w>
不 怎么样</w>
不 容</w>
不 坏</w>
不 响</w>
不 发</w>
不 作
不 予</w>
下 结论</w>
下 海</w>
下 方</w>
下 坡路</w>
下 周一</w>
上班 族</w>
上 床</w>
三 角</w>
三 十年</w>
万 里
七 岁</w>
一连 串</w>
一览 表</w>
一百 块</w>
一小 撮</w>
一如 既往</w>
一千 元</w>
一个 班</w>
一 跤</w>
一 臂之力</w>
一 腔</w>
一 等
一 溜
一 洗</w>
一 泡</w>
一 比</w>
一 步
一 桩</w>
一 期</w>
一 寸</w>
一 堂</w>
一 去</w>
p lay</w>
l o
i v
i t
i g
e s</w>
an t
S P
M o
H AN
HAN CE</w>
C HANCE</w>
A I
200 8</w>
200 7</w>
& #
龙 族</w>
鼓 起
鼓起 勇气</w>
黑 人</w>
麻 木</w>
麦 田</w>
麦 克
鸟 类</w>
鲜 美</w>
鲜 红</w>
鲍 勃</w>
鱼 类</w>
魔 法师</w>
高 点</w>
驳 斥</w>
马 列
马列 主义</w>
香 糖</w>
首 相</w>
食 粮</w>
飘 荡</w>
额 度</w>
预 备
音 石
音石 明</w>
鞋 柜</w>
鞋 带</w>
静 静</w>
静 养</w>
零售 店</w>
雅 致</w>
雄 性</w>
难 堪</w>
随 之</w>
险 家</w>
除 夕</w>
除 以</w>
降 温</w>
降 到</w>
陈 设</w>
陈 旧</w>
阵 痛</w>
防 治</w>
阅 览
阅览 室</w>
间 谍</w>
闲 逛</w>
闲 聊</w>
闪 光灯</w>
门 开</w>
长江 大桥</w>
长 高</w>
长 距离</w>
长 者</w>
长 笛</w>
长 征</w>
长 官</w>
错 字</w>
错 儿</w>
锅 炉</w>
银 座</w>
钞 票</w>
野 草</w>
重 担</w>
重 力</w>
酒 馆</w>
酒 菜</w>
酒 席</w>
部 位</w>
邻 家</w>
邮 购</w>
邮 政</w>
邮 政
那 趟</w>
邋 遢</w>
遵守 规则</w>
遭 殃</w>
遛 狗</w>
遗 失</w>
道 别</w>
造 就</w>
通 顺</w>
通 讯
通 向</w>
通 关</w>
透 过</w>
逃 到</w>
送 回</w>
送 上</w>
追 击</w>
述 说</w>
连 锁
连 连</w>
连 夜</w>
远 门</w>
远 行</w>
远 去</w>
进 发</w>
进 出</w>
这 身</w>
还 原</w>
近 几年</w>
运 势</w>
过 饭</w>
过 重</w>
过 滤
过 渡</w>
过 好</w>
过 儿</w>
达 成
达成 协议</w>
辩 证
辛 辣</w>
轿 车</w>
轻 盈</w>
轻 巧</w>
轴 承</w>
软 绵绵</w>
转 职</w>
转 眼
转 校</w>
身份 证</w>
身 于</w>
路 来</w>
跪 下</w>
越 时空</w>
起 诉</w>
起 头</w>
走 来
走来 走
走来走 去</w>
走 动</w>
赛 马</w>
资 金
贵 宾</w>
贫 苦</w>
贫 农</w>
贩卖 机</w>
质 量
货 交易</w>
负责 任</w>
谢 礼</w>
调味 料</w>
调 皮</w>
调 和</w>
课 后</w>
诺 言</w>
诸 位</w>
请 试</w>
请 示</w>
请 以</w>
说 一说</w>
诬 蔑</w>
详 情
详情 请</w>
诚 地</w>
诗 句</w>
试 验
评 选</w>
评 语</w>
论 断</w>
记 性</w>
记 入</w>
记 下来</w>
记 下</w>
议 程</w>
讨论 一下</w>
认 得</w>
警 察
触 动</w>
解 脱</w>
觉 醒</w>
要 不是</w>
装 货</w>
装 满</w>
装 束</w>
装 成</w>
裁 员</w>
表 现
表 亲</w>
表 上</w>
衣 物</w>
行 径</w>
血 腥</w>
螺 旋
蜿 蜒</w>
薄 煎饼</w>
落 到</w>
营业 员</w>
莫 大</w>
莫 名</w>
荒 凉</w>
茸 茸</w>
茶 壶</w>
英语 老师</w>
英格 玛</w>
苦 水</w>
苦 战</w>
苗 条</w>
苏 联</w>
花 盆</w>
花 木</w>
芥 末</w>
航 天
舒 畅</w>
自助 餐</w>
自 责</w>
自 行
自 给
自 称</w>
自 拔</w>
自 幼</w>
自 居</w>
自 以为
膜 炎</w>
腐 蚀</w>
脸 来</w>
脱 掉</w>
脑 后</w>
能 行</w>
能 耐</w>
能 克服</w>
胸 脯</w>
胳 膊
肥 沃</w>
肝 炎</w>
肃 清</w>
联 邦</w>
而 定</w>
者 说</w>
老 练</w>
老 乡</w>
翻 身</w>
群众 运动</w>
美 满</w>
罪 人</w>
缺 货</w>
缺 口</w>
缝 纫
缝纫 机</w>
缝 儿</w>
编 码</w>
编 写</w>
绿 灯</w>
绚 丽</w>
结 结
结 晶</w>
结 了婚</w>
细 雨</w>
细 胞
纸 箱</w>
纵 横</w>
纲 领</w>
纪 录</w>
红 花</w>
繁 多</w>
累 得</w>
紧 要</w>
精 美</w>
精 打
精 力
粘 着</w>
粗 心</w>
粗 壮</w>
管理 系统</w>
算 数</w>
筹 措</w>
等 不及</w>
笼 罩</w>
笛 子</w>
竞 技
立 下</w>
窗 子</w>
窍 门</w>
突 击</w>
穿 越时空</w>
空 虚</w>
稳 固</w>
税 务
移 开</w>
租 金</w>
私 事</w>
祭 祀</w>
神 来</w>
神 奈
神奈 川</w>
祝你 幸福</w>
社 区</w>
示 弱</w>
硬 要</w>
硬 度</w>
破 绽</w>
研 讨</w>
短 篇小说</w>
短 期
知 县</w>
睫 毛</w>
着 眼
着眼 于</w>
眼 科</w>
眼 珠</w>
眯 眯</w>
真 实感</w>
看不 出来</w>
看 病</w>
看 成</w>
看 好</w>
相 隔</w>
盎 然</w>
盆 大雨</w>
白 白
白 板</w>
病 后</w>
病 例</w>
疏 远</w>
留 给</w>
留 念</w>
留 个</w>
畅 快</w>
电 器
田 径</w>
用 车</w>
用 油</w>
生 计</w>
生 理
瓦 解</w>
珍 宝</w>
玻璃 窗</w>
环 游世界</w>
玫瑰 花</w>
玛 丽</w>
玉 美</w>
率 领</w>
猥 琐</w>
狼 狈
独创 性</w>
独 当
独当 一面</w>
狗 狗</w>
犹太 人</w>
特 殊
特 此</w>
物 价
牢 固</w>
爽 朗</w>
爱好 者</w>
爱 护</w>
爱 慕</w>
爱 国
燃 起</w>
熄 灭</w>
照 明
照 办</w>
焦 虑</w>
焦 点</w>
焚 烧</w>
热 门</w>
热 烈
热 天</w>
热 乎乎</w>
点 滴</w>
炮 声</w>
灾 情</w>
灵 通</w>
火 红</w>
火 光</w>
演奏 会</w>
演 唱</w>
滴 答</w>
滥 用</w>
满 意
滑 行</w>
滑 倒</w>
溺 爱</w>
源 于</w>
渔 船</w>
清 香</w>
清 早</w>
混 血</w>
淋 漓</w>
淋 湿</w>
消 磨</w>
浩 作</w>
流 汗</w>
活 该</w>
活 在</w>
活 动
洛杉 矶</w>
洗涤 剂</w>
洗 发
泼 辣</w>
泼 春</w>
注 销</w>
泥 沙</w>
法 定</w>
油 画</w>
油 油</w>
河 堤</w>
没 点</w>
没 拿到</w>
沙 哑</w>
沉 默
污 水</w>
污 垢</w>
池 袋</w>
江 湖</w>
汉 堡
汉堡 包</w>
水彩 画</w>
水 野</w>
水 槽</w>
水 桶</w>
水 坝</w>
民 法</w>
民 歌</w>
毫不 犹豫</w>
每 周日</w>
毁 掉</w>
歼 灭</w>
死 活</w>
步 枪</w>
此 地</w>
正 视</w>
正 当
止 血</w>
止 痛
欺 侮</w>
橡 皮
樱花 树</w>
樱 桃</w>
植 物
棺 材</w>
森 下</w>
梦 话</w>
梦 见</w>
梦 境</w>
根 底</w>
核 算</w>
核 实</w>
校 门</w>
校 规</w>
柜 子</w>
染 色</w>
某 天</w>
枪 支</w>
果 酱</w>
松 鼠</w>
松 饼</w>
松 动</w>
材 料费</w>
李 白</w>
权 贵</w>
杀人 狂</w>
机 枪</w>
本 国</w>
未 婚
木 料</w>
木 工</w>
期 盼</w>
服装 店</w>
有 毒</w>
有 余</w>
月 色</w>
最 强</w>
更 想</w>
更 强</w>
暧 昧</w>
晶 莹</w>
是 否
是否 是</w>
昨 日</w>
昨 夜</w>
明 知</w>
昌 盛</w>
时 去</w>
时 令</w>
早 退</w>
早 熟</w>
早 到晚</w>
日 趋</w>
日 代
既 有</w>
无所 事事</w>
无 奈</w>
无 名
施 展</w>
新 桥</w>
新 式</w>
料 到</w>
斗 志</w>
文 具</w>
整 合</w>
教学 楼</w>
故 宫</w>
政 厅</w>
放 肆</w>
放 映</w>
放 心
攻 势</w>
攻 克</w>
改 装</w>
改 动</w>
收 藏
收 款</w>
收 场</w>
支持 者</w>
支 架</w>
擦 伤</w>
摧 毁</w>
摘 要</w>
摘 下来</w>
摇滚 乐</w>
摇 篮</w>
搞好 关系</w>
搞 笑</w>
搞 清楚</w>
搞 不清楚</w>
揭 开</w>
插 手</w>
提前 完成</w>
提 不起</w>
控 诉</w>
接待 客人</w>
接 球</w>
探 险</w>
掠 夺</w>
排水 口</w>
排 挤</w>
掏 出</w>
掉 下去</w>
振作 起来</w>
振 奋</w>
挥 动</w>
挡 住</w>
挖 出来</w>
持 续
持 久</w>
拿 着</w>
拍 卖</w>
拉 肚子</w>
抬 头</w>
披 上</w>
报 考</w>
抢 走了</w>
抚 摸</w>
抗 日
投资 信托</w>
投 递</w>
投 标</w>
技 艺</w>
扭 曲</w>
扩 展</w>
托 付</w>
扔 下</w>
打 麻将</w>
打 响</w>
打 下</w>
扑 克
扑克 牌</w>
扎 根</w>
扎 实</w>
手 镯</w>
扁 担</w>
所得 税</w>
所 未
所 周知</w>
戴 帽子</w>
战 役</w>
或 者说</w>
我想 试</w>
我 领</w>
我 长</w>
我 进</w>
我 前</w>
成 见</w>
戏剧 性</w>
懒 觉</w>
懈 怠</w>
懂 吗</w>
慢 点</w>
感到 遗憾</w>
感 覺</w>
意大利 语</w>
意 向</w>
愉 悦</w>
惯 用</w>
惊 呆</w>
惊 吓</w>
情 谊</w>
恶 霸</w>
恭 候</w>
总 计</w>
总 经理</w>
总 在</w>
怪 异</w>
急 性</w>
急 促</w>
快 餐
快 给我</w>
忧 伤</w>
必要 条件</w>
必 将</w>
心里 话</w>
心一 意</w>
心 脏病</w>
心 愿</w>
心 协力</w>
心 人</w>
很 酷</w>
很 甜</w>
征 求</w>
征 兆</w>
强 加
强 制
弹 奏</w>
弯 曲</w>
弯 弯
引 退</w>
弃 物</w>
开 销</w>
开 放
开 心
延 续</w>
延 安</w>
康复 训练</w>
废 弃物</w>
废 弃</w>
店 面</w>
店 有</w>
广 大
年 终</w>
平 线</w>
干 起</w>
带 回家</w>
希 罕</w>
帆 船</w>
市 政厅</w>
市 中心</w>
左 派</w>
左 侧</w>
工 农</w>
工 会
巡 回</w>
川尻 浩作</w>
峡 谷</w>
岛 屿</w>
山 沟</w>
山 梨</w>
山 林</w>
山 本</w>
山 形</w>
展 销会</w>
展 望</w>
层 面</w>
屁 事</w>
局 部</w>
小 裕</w>
小 节</w>
小 猪</w>
小 汽车</w>
小 店</w>
小 巧</w>
小 山</w>
小 宝宝</w>
封 闭</w>
导 师</w>
对 外</w>
对 外
寡 言</w>
富 余</w>
密 切</w>
宽 阔</w>
害 虫</w>
宣 读</w>
实 绩</w>
实 用</w>
实 情</w>
定 位</w>
官 员</w>
宏 大</w>
安 置</w>
学期 开始</w>
学 识</w>
学 派</w>
学 徒</w>
季 节
婚 姻
婚 事</w>
威 士
威 严</w>
妖 精</w>
好 闻</w>
好 学</w>
好 几</w>
奋 斗
奇 特</w>
夺 走</w>
失 陪</w>
失 调</w>
失 掉</w>
太阳 能</w>
太 迟</w>
天真 无邪</w>
天 线</w>
天 桥</w>
大理 石</w>
大 革命</w>
大 肆</w>
大 步</w>
大 拇指</w>
大 头
大 包</w>
多 方面</w>
多 会儿</w>
外国 语</w>
外交 部</w>
外 行</w>
外 汇
外 币</w>
复 活</w>
备 受</w>
声 誉</w>
声 响</w>
士 气</w>
墨 镜</w>
塞 子</w>
培 根</w>
坚持 不懈</w>
坐 车去</w>
坂 上</w>
地 干</w>
地 写</w>
圣诞 老人</w>
圈 儿</w>
圆 润</w>
图 章</w>
国 土</w>
围 住</w>
困 苦</w>
园 地</w>
团 长</w>
团 员</w>
因 果
回 程</w>
回 想</w>
回 头
四 人</w>
嘴 边</w>
嘴 上</w>
嘟 噜</w>
喧 嚣</w>
喝 牛奶</w>
喜 剧
啪 嗒</w>
啊 啊</w>
啊 啊啊</w>
唾 沫</w>
售货 员</w>
哼 哼</w>
哪 能</w>
哪 种</w>
哗 啦</w>
哗 啦
响 声</w>
哈 欠</w>
品 格</w>
咬 牙</w>
咧 咧</w>
呼 唤</w>
周转 率</w>
周 游</w>
周 密</w>
周 内</w>
呐 喊</w>
吹 飞</w>
吸引 力</w>
吸 取</w>
吵 吵
听 觉</w>
吓 唬</w>
向 前走</w>
吐 司</w>
后 进</w>
后 期</w>
吉 田
合 唱
合 不来</w>
吃 过饭</w>
可 以
只 手</w>
只 怕</w>
只 得</w>
另 行</w>
古 巴</w>
口 香糖</w>
口 头
变 换</w>
变 异</w>
变 少</w>
变 大</w>
变 坏</w>
变 卖</w>
受 苦</w>
取 代</w>
发动 群众</w>
发 病</w>
发 球</w>
发 性</w>
发 亮</w>
反 应
反 复
反 响</w>
双 双</w>
及 早</w>
参考 资料</w>
原 状</w>
原 始</w>
危 机
危 急</w>
印 记</w>
占 据</w>
南 瓜</w>
南 中</w>
单 单</w>
单 元</w>
单 一</w>
卓 越</w>
华 侨</w>
十 萌姐</w>
十 月份</w>
十 块钱</w>
十 六
十 九
十 三
区 区</w>
勾 起</w>
勃 勃</w>
动 词</w>
加 重</w>
办 好</w>
前 后
刺 身</w>
刺 儿</w>
到 头来</w>
到 场</w>
刚 来</w>
切 换</w>
分 歧</w>
分 担</w>
出 道</w>
出 没</w>
出 局</w>
出 产</w>
出 丑</w>
凶 恶</w>
几 根</w>
准 许</w>
准 则</w>
冷 风</w>
冷 气</w>
决 不会</w>
决 不
农 产品</w>
再次 发生</w>
再 发</w>
内 侧</w>
兽 医</w>
其 一</w>
共同 体</w>
兮 兮</w>
公用 电话</w>
公 道</w>
公 认</w>
公 社</w>
公 平
公 分</w>
八 成</w>
全球 化</w>
全 能</w>
入 内</w>
克 里
克 服
光 彩</w>
先 来</w>
充 裕</w>
充 当</w>
儿 时</w>
像 样</w>
傻 话</w>
偷偷 地</w>
停 住</w>
做 得好</w>
假 定</w>
倾 盆大雨</w>
倾 倒</w>
值 日</w>
倒 入</w>
修 整</w>
保险 费</w>
侵 占</w>
供 参考</w>
侄 子</w>
使用 费</w>
作 祟</w>
作 成</w>
体育 场</w>
体 现</w>
住 在一起</w>
低 级</w>
低 声</w>
伦 理</w>
伤 疤</w>
伤 势</w>
会 晚</w>
会 员
会 到</w>
会 下</w>
休 克</w>
企 划
仲 裁</w>
令人 作呕</w>
他 教</w>
他 手</w>
他 常</w>
从 未
从 早到晚</w>
人手 不足</w>
人 物
人 往</w>
人 到</w>
人 人
亲 节</w>
亲 眼</w>
产 物</w>
交 换
五 四
五 号</w>
事 来</w>
事 想</w>
事 后</w>
争 辩</w>
书 里</w>
乏 力</w>
乌 鸦</w>
之 路</w>
之 见</w>
之 意</w>
主 演</w>
主 力</w>
中 立</w>
中 日</w>
中 招</w>
个人 电脑</w>
两国 关系</w>
两 米</w>
两 座</w>
两 分钟</w>
两 件事</w>
两 下</w>
业 者</w>
世界 杯</w>
世界 各地</w>
专 属</w>
不足 道</w>
不讲 道理</w>
不讲 理</w>
不同 之处</w>
不可 避免</w>
不 顾
不 过来</w>
不 负责任</w>
不 语</w>
不 识
不 累</w>
不 死</w>
不 惯</w>
不 合
不 下雨</w>
上 铺</w>
上 方</w>
上 书</w>
三 番
三 楼</w>
三 家</w>
三 分</w>
万 能</w>
万 美元</w>
万 幸</w>
万 千</w>
一个 半</w>
一 闪</w>
一 辈</w>
一 缕</w>
一 百</w>
一 溜</w>
一 有</w>
一 心一意</w>
一 干
一 元</w>
一 倍</w>
一 二</w>
一 事</w>
一 丝
u s</w>
i r</w>
cos play</w>
a s
a l
U R
P D
N K</w>
E D</w>
2 9</w>
1 500</w>
&# 9
龟 友</w>
龙 骑士</w>
龙 虾</w>
黑 压压</w>
鸣 叫</w>
鲣 鱼</w>
鬼 脸</w>
鬼 屋</w>
高 采
高采 烈</w>
高 血压</w>
高 压</w>
高 于</w>
骨 肉
骑 着</w>
骑 兵</w>
驱 逐</w>
驯 鹿</w>
马 力</w>
马 上
香 甜</w>
馆 内</w>
饭 后</w>
飞 往</w>
飘 飘</w>
风 雨
风 度</w>
颤 动</w>
频 道</w>
领 袖</w>
预 算
预 告</w>
顾 忌</w>
顺利 完成</w>
顺 心</w>
顺 序
音 响</w>
鞋 店</w>
靴 子</w>
革命 者</w>
面包 店</w>
面 色</w>
面 人物</w>
靠 得住</w>
非 要</w>
青 年
青 叶</w>
需 品</w>
雾 果</w>
電 影</w>
雷 声</w>
雨 衣</w>
集 装箱</w>
难 懂</w>
难 度</w>
难 听</w>
障 碍
隔 绝</w>
隐 秘</w>
随身 携带</w>
随 身</w>
随 机</w>
随 机
随 便
险 恶</w>
限 额</w>
降 低成本</w>
陈 列</w>
阿拉 伯
阿 谀
阿 羽</w>
阿 晓</w>
阵 儿</w>
阴 险</w>
阳 性</w>
防 护
防 卫</w>
阀 门</w>
问 路</w>
问 到</w>
问 个</w>
闭 门
闪 烁
闪 光</w>
门 员</w>
长期 以来</w>
长 靴</w>
长 崎</w>
长 存</w>
锋 利</w>
销 毁</w>
销 员</w>
银 幕</w>
铁 道</w>
铁 板</w>
钳 子</w>
钢琴 家</w>
针 灸</w>
鉴 赏</w>
野 生动物</w>
野 崎
里 种</w>
采 纳</w>
酒 杯</w>
部 员</w>
郁 郁
郁 症</w>
邻 居
邮 递</w>
那 群</w>
那 会儿</w>
那 人</w>
遗 迹</w>
遗 嘱</w>
逾 越</w>
逼 真</w>
逼 供</w>
造 诣</w>
造 反</w>
透 露</w>
选 举
逆 转</w>
送 信</w>
退 场</w>
退 化</w>
追 过来</w>
迷迷 糊糊</w>
迷 上</w>
迟 迟</w>
迟 早会</w>
连续 剧</w>
连 接
连 忙</w>
连 声</w>
违法 行为</w>
远 点</w>
进 而</w>
进 不去</w>
这么 些</w>
这么 久</w>
这 菜</w>
这 算</w>
这 病</w>
这 帮</w>
近 视</w>
运动 神经</w>
过得 去</w>
过 节</w>
过 硬</w>
过 河</w>
过 期</w>
过 个</w>
迁 就</w>
边 际</w>
边 上</w>
轻 量
轻 蔑</w>
轻 度</w>
车 门</w>
车 道</w>
车 来</w>
躲 起来</w>
身 躯</w>
踴 跃</w>
跟 我</w>
跑 掉</w>
起 哄</w>
起 劲</w>
起 初</w>
赶 得上</w>
赞 叹</w>
赌 上</w>
贿 赂</w>
贸 然</w>
贫 血</w>
贫 寒</w>
贪 婪</w>
败 露</w>
谊 会</w>
调 停</w>
谁 家</w>
读 读</w>
说不 上</w>
说 过</w>
说 说
说 真的</w>
说 点</w>
诱 发</w>
详细 信息</w>
诡 异</w>
评 分</w>
评 为</w>
论 战</w>
讲 得</w>
让 开</w>
讨 好</w>
讨 人
认 出</w>
订 阅</w>
订 购
订 版</w>
计算 方法</w>
计划 书</w>
警 官</w>
警 备</w>
言 自语</w>
触 及</w>
解决 不了</w>
解 不开</w>
览 器</w>
规 章
规章 制度</w>
见崎 鸣</w>
见 闻</w>
见 怪</w>
要 学</w>
西 藏</w>
裤 腿</w>
装 着</w>
装 潢</w>
装 得</w>
装 出</w>
裂 痕</w>
被 盗</w>
被 炸飞</w>
袖 口</w>
衷 于</w>
补 救</w>
衣 着</w>
衣 室</w>
行 动
血 统</w>
血 症</w>
血 流</w>
蠢 话</w>
螺丝 钉</w>
螺 母</w>
融 洽</w>
蜜 月</w>
蜂 蜜</w>
蛛 网</w>
蚂 蚁</w>
薄 饼</w>
薄 膜</w>
蓝 图</w>
葫 芦</w>
落 空</w>
萨 克斯</w>
菊 花</w>
获 得
获 奖</w>
药 方</w>
荒 山</w>
荒 地</w>
茶 水</w>
范 畴</w>
茂 盛</w>
苦 闷</w>
苦 苦</w>
若 干</w>
花 香</w>
花 布</w>
芝 加
芝加 哥</w>
色 狼</w>
艰苦 朴素</w>
船 长</w>
舞 弊</w>
致 谢</w>
自以为 是</w>
自 言自语</w>
自 私</w>
自 演</w>
自 得</w>
自 尊</w>
自 如</w>
腿 脚</w>
腰 痛</w>
腔 调</w>
脸 孔</w>
脱 下来</w>
脉 搏</w>
胶 卷</w>
胜 地</w>
胆 怯</w>
胆 固醇</w>
肢 体</w>
肖 像
肉 丝</w>
联 谊会</w>
职 能</w>
职 守</w>
聊 天儿</w>
耽 搁</w>
耻 辱</w>
耕 作</w>
而 入</w>
老爷 子</w>
老大 爷</w>
老 远</w>
老 林</w>
老 年</w>
老 大</w>
耀 着</w>
翻 滚</w>
置 办</w>
置 之
罚 款</w>
罗 场</w>
缺 水</w>
缴 获</w>
缘 由</w>
编辑 部</w>
编 造</w>
缓 缓</w>
维 系</w>
维 护
继续 前进</w>
统计 学</w>
统治 者</w>
绝 缘</w>
绝 妙</w>
经 常
终 端</w>
细 细</w>
细 心地</w>
线 条</w>
纸 上</w>
纯 真</w>
级 生</w>
约 翰
红 线</w>
红 润</w>
繁 荣
紫 色</w>
素 食
紊 乱</w>
精神 饱满</w>
精打 采</w>
精 灵</w>
粪 便</w>
粗 大</w>
粉 红色</w>
粉 末</w>
管 教</w>
第二 年</w>
符合 条件</w>
笔 尖</w>
端 的</w>
竭 力</w>
竞技 场</w>
竞争 力</w>
立 论</w>
立 不安</w>
穿 越</w>
穿 成</w>
空 手
空手 道</w>
空 房间</w>
空 子</w>
稻 田</w>
稳 重</w>
税 务</w>
移 居</w>
秧 子</w>
秦始 皇</w>
秘 方</w>
种族 歧视</w>
种 地</w>
私 语</w>
私 心</w>
秀 气</w>
福 岛</w>
禁 不住</w>
神 魂
神 明</w>
祖 宗</w>
社会 秩序</w>
礼 仪</w>
磨 炼</w>
磨 成</w>
碧 蓝</w>
碌 碌</w>
硬 化</w>
破 灭</w>
研究 生
研究生 院</w>
矿 山</w>
石 灰
短 短
短短 的</w>
知 己</w>
瞧 瞧</w>
睡 醒</w>
着 落</w>
眼 花</w>
眼 中</w>
真不 知道</w>
真不 愧
真不愧 是</w>
真 大</w>
看 清楚</w>
看 似</w>
相 等</w>
相 助</w>
相 劝</w>
相 会</w>
相 亲</w>
盘 点</w>
盘 旋</w>
监护 人</w>
益 处</w>
盈 盈</w>
盆 地</w>
皮 艇</w>
皮 子</w>
皮 包</w>
的 事</w>
百货 公司</w>
登 台</w>
瘫 痪</w>
疲 软</w>
疲 力
疗养 院</w>
略 微</w>
留 存</w>
画 廊</w>
男 主角</w>
电影 吧</w>
甲 状
由 此</w>
田 间</w>
田 园</w>
用 电</w>
生 理</w>
現 在</w>
班 机</w>
现金 支付</w>
现 货</w>
现 世</w>
献 身</w>
猜 测</w>
猛 地</w>
猎 犬</w>
狰 狞</w>
独 占</w>
独 创</w>
狠 心</w>
犹 豫
犯 错</w>
特 大</w>
片 海</w>
片 儿</w>
爷 爷
爷爷 奶奶</w>
爵士 乐</w>
爱 戴</w>
爱 上</w>
然 大
热 衷于</w>
热 血</w>
热 潮</w>
热 度</w>
烤 鸭</w>
烟 草</w>
烟 灰
烟灰 缸</w>
烟 囱</w>
点 来</w>
炸 药</w>
炊 烟</w>
灵活 运用</w>
灯 笼</w>
火 辣辣</w>
火 把</w>
激 情</w>
激 发</w>
漫 着</w>
满 月</w>
满 员</w>
滑 梯</w>
溪 水</w>
溢 着</w>
溜 达</w>
源 泉</w>
游 人</w>
温 饱</w>
渔 夫</w>
清 高</w>
清 脆</w>
清 点</w>
清 清</w>
清 净</w>
添 附</w>
混 混</w>
混 杂</w>
混 在</w>
深 渊</w>
深 情</w>
深 奥</w>
淋巴 细胞</w>
涌 出</w>
消 化
海 角</w>
浮 肿</w>
浪 花</w>
浏 览器</w>
流 着</w>
流 泪</w>
派 上
派上 用场</w>
洽 谈</w>
活 生生</w>
洪 流</w>
洗澡 水</w>
洗 礼</w>
洋 溢着</w>
泛 起</w>
泛 滥</w>
油 门</w>
没 落</w>
没 理由</w>
沐 浴</w>
沉 静</w>
沉 痛</w>
汽 笛</w>
汤 里</w>
污 辱</w>
污 渍</w>
污 浊</w>
池 子</w>
汉 子</w>
汇 钱</w>
求 求</w>
求 学</w>
水 田</w>
水 泵</w>
水 机</w>
水 是</w>
水 手
氏 度</w>
毫无 意义</w>
毛 毯</w>
比 基
比基 尼</w>
毒 辣</w>
每 日</w>
母 鸡</w>
毅 然</w>
残 暴</w>
歪 斜</w>
武 汉</w>
步 走</w>
此 次</w>
此 时</w>
此 时
正 题</w>
正 中</w>
歌 颂</w>
歌 舞
欧 洲
欣 慰</w>
欢 度</w>
欢 呼声</w>
橄榄 球</w>
横 着</w>
樣 子</w>
榻 米</w>
榻 榻米</w>
榴 弹</w>
榊 原</w>
概 率</w>
植 保</w>
森 森</w>
棉 衣</w>
梳 着</w>
梦 幻</w>
梅 雨</w>
梅 雨
梅 干</w>
档 案</w>
柬 埔
柬埔 寨</w>
查 询</w>
查 找</w>
架 势</w>
枯 竭</w>
枝 条</w>
果 说</w>
果 园</w>
板 凳</w>
松 松</w>
杰 出</w>
杰 作</w>
来 来
条 纹</w>
杠 子</w>
杂 技
杂 乱</w>
机 床</w>
术 语</w>
本 钱</w>
本 正经</w>
本 地人</w>
未 起隆</w>
有点 像</w>
有 误</w>
有 话
有 要</w>
有 神</w>
有 意识</w>
有 形</w>
最低 工资</w>
最 能</w>
最 有</w>
最 晚</w>
最 新
最 差</w>
更 衣室</w>
更 能</w>
更 正</w>
更 是</w>
更 会</w>
曙 光</w>
暮 色</w>
暖 气</w>
暂 行</w>
暂 定</w>
晶 晶</w>
普 查</w>
晚 婚</w>
晕 过去</w>
晃 动</w>
昨天 夜里</w>
春 雨</w>
昏 沉沉</w>
明 静</w>
明 智</w>
明 快</w>
时 起</w>
时 装
时 事</w>
旧 书</w>
日本 队</w>
日本 银行</w>
日本 政府</w>
日代 千
日代千 鹤</w>
日 落</w>
日 照</w>
无 理
无 故</w>
无 形</w>
无 名</w>
方 形</w>
新兴 国家</w>
新 旧</w>
新 店</w>
新 奇</w>
新 书</w>
斯 科</w>
断 言</w>
断 续续</w>
断 然</w>
断 断续续</w>
文 笔</w>
文 稿</w>
文 学家</w>
文 人</w>
文 书</w>
数 十年</w>
敬 礼</w>
散 漫</w>
教 教</w>
教 员</w>
救 出</w>
效 力</w>
放在 眼里</w>
放 慢</w>
放 任</w>
改 日</w>
改 天</w>
攒 钱</w>
撤 销</w>
撕 掉</w>
撕 下</w>
摸 不
摆 在</w>
摄像 机</w>
揭 发</w>
插 嘴</w>
提 防</w>
提 拔</w>
提 了</w>
掩 盖</w>
推 理</w>
推 崇</w>
推 后</w>
接 通</w>
接 力</w>
接 住</w>
掉 队</w>
换 算</w>
捕 获</w>
捐 献</w>
捏 造</w>
振 兴</w>
挥 舞</w>
挖 苦</w>
按 键</w>
指 使</w>
挂 科</w>
挂 帅</w>
拿 回去</w>
招 标</w>
拘 谨</w>
拘 束</w>
拓 展</w>
拉拉 队</w>
拉 丁
拄 着</w>
抹 角</w>
抢 走</w>
抢 劫</w>
抢 先</w>
折 断</w>
抗日 战争</w>
抗 争</w>
投 进</w>
投 机</w>
抓 挠</w>
抓 不住</w>
把 劲</w>
抄 袭</w>
承 包
找 零</w>
批 量</w>
扶 手</w>
扩 充</w>
扣 儿</w>
打包 带</w>
打 造</w>
打 通</w>
打 赌</w>
打 扑克</w>
打 声</w>
打 仗</w>
扑 灭</w>
手 榴弹</w>
手 术
所 长</w>
所 料</w>
所 处</w>
所 在
房 里</w>
房 檐</w>
戳 穿</w>
截 稿</w>
战 战
战战 兢
战战兢 兢</w>
我 快</w>
我 出</w>
成 绩
應 該</w>
憔 悴</w>
慷 慨</w>
慰 问</w>
慰 藉</w>
慈 祥</w>
感 激
感 伤</w>
想 得</w>
想 家</w>
想 不通</w>
想 不起</w>
情 面</w>
情 理</w>
情 人</w>
恳 求</w>
恢复 健康</w>
总 和</w>
怪 的</w>
怪 怪的</w>
怪 人</w>
怪 不得</w>
急 用</w>
念 书</w>
快餐 店</w>
忌 日</w>
必 需品</w>
必 定</w>
心理 准备</w>
心 机</w>
微 小</w>
得 着</w>
很 窄</w>
很 严</w>
待 客</w>
征 税</w>
往 日</w>
往 回</w>
当 日</w>
当 好</w>
当 头</w>
弯 抹角</w>
张 望</w>
弟 子</w>
弄 死</w>
开发 部</w>
开 采</w>
开 满</w>
开 开</w>
开 场</w>
座 谈</w>
度 日</w>
度 数</w>
庙 里</w>
底 儿</w>
庆 祝
庄稼 人</w>
广 东</w>
幸 存</w>
并 肩</w>
年 岁</w>
平 底
平 头</w>
干 的事</w>
干 巴巴</w>
干 坏事</w>
干 劲儿</w>
常 规</w>
常 年</w>
带 头</w>
带 动</w>
帝 国</w>
帅 呆
帅呆 了</w>
左 脚</w>
工作 量</w>
工作 岗位</w>
工 匠</w>
山 水
山 地</w>
山 中</w>
屠 杀</w>
屋 内</w>
屈 辱</w>
居 室</w>
屁 孩</w>
尾 声</w>
尺 码</w>
就 任</w>
尝 一
尝一 尝</w>
小 票</w>
小 猫咪</w>
小 岛</w>
小 屁孩</w>
小 学
小 品</w>
小 咲</w>
小 吃</w>
小 儿子</w>
小 信</w>
射 穿</w>
封建 社会</w>
对 岸</w>
察 看</w>
寒 碜</w>
寒 暄</w>
寄 回</w>
家 畜</w>
家 常
家 事</w>
宣传 单</w>
宣 泄</w>
宣 扬</w>
客 户
宠 物
实 践
实 况</w>
定 居</w>
定 了</w>
完全 全</w>
完 完全全</w>
完 备</w>
安 详</w>
安 乐
守 门员</w>
它 会</w>
孵 化</w>
学 学</w>
学 员</w>
孤 儿</w>
字 画</w>
子 孙</w>
嫌 疑
婶 婶</w>
威士 忌</w>
威 信</w>
姓 氏</w>
妨 害</w>
如 果说</w>
如 意</w>
好 羡慕</w>
好 比</w>
好 怀念</w>
好 好看</w>
好 下场</w>
奶 茶</w>
女 装</w>
奔 驰</w>
奔 波</w>
头 牛</w>
头 一回</w>
失 足
失 眠</w>
失 效</w>
夫妻 俩</w>
太平 洋</w>
太 粗</w>
天 涯
天 下
天 上
大大 的</w>
大使 馆</w>
大不 相同</w>
大 雾</w>
大 队</w>
大 都</w>
大 臣</w>
大 祸</w>
大 师</w>
大 好
大 头</w>
大 叫</w>
大 件</w>
大 为</w>
夜 见北</w>
夜 深</w>
多 种
多 样
多 元
外 甥</w>
外 来
外 带</w>
外 婆</w>
外 卖</w>
备 齐</w>
声 乐</w>
壮 实</w>
壮 大</w>
壮 丽</w>
壁 画</w>
增 汤</w>
填 入</w>
塑 造</w>
堵 墙</w>
堆 满</w>
城 市
埋 葬</w>
垫 付</w>
坐 船</w>
坐 立不安</w>
坐 火车</w>
坐 位</w>
均 匀</w>
在 心</w>
土 地
圆 滑</w>
图 画书</w>
国 防</w>
国 歌</w>
国 旗</w>
国 务
因果 关系</w>
回忆 起</w>
回 路</w>
回 个</w>
嘴 儿</w>
嘀 咕</w>
嗅 觉</w>
喷 嚏</w>
喷 嘴</w>
喝 杯</w>
喝 多</w>
喊 声</w>
善 意</w>
商 务
售票 处</w>
哥 伦
哗 哗</w>
哈 里</w>
品 店</w>
和 解</w>
呼 地</w>
呼 喊</w>
呼 啦</w>
呼 呼地</w>
告 诫</w>
告 发</w>
呈 现</w>
吻 合</w>
吹 响</w>
听 错</w>
含 蓄</w>
含 糊
吧 嗒</w>
吞 噬</w>
吓 一跳</w>
向 下</w>
后 事</w>
名 额</w>
名 牌
名 流</w>
名 利</w>
同 胞</w>
同 等</w>
同 步</w>
合 金</w>
合 拍</w>
合 奏</w>
合 力</w>
各 色</w>
各 个
吃 饺子</w>
吃 些</w>
可 谓</w>
可 悲</w>
可 可</w>
古 迹</w>
古 今</w>
口 角</w>
口 信</w>
变 热</w>
受 累</w>
受 尽</w>
受 到
取 缔</w>
发表 意见</w>
发现 自己</w>
发 黑</w>
发 霉</w>
发 送
发 货单</w>
发 笑</w>
发 着</w>
发 小</w>
反 过来</w>
反 扑</w>
双 脚</w>
双 亲</w>
参加 考试</w>
县 长</w>
去 不
原则 上</w>
原 著</w>
原 籍</w>
原 处</w>
厚 度</w>
厕 纸</w>
历 代</w>
即 可</w>
占有 率</w>
占 有</w>
博 士学位</w>
单 价</w>
华 盛
半 辈子</w>
半 岛</w>
半 导体</w>
十二 个</w>
北京 队</w>
北 部</w>
包 饭</w>
包 装
匀 称</w>
勾 引</w>
劳 务</w>
努力 下去</w>
动 手术</w>
动 乱</w>
加 藤</w>
加 算</w>
加 把劲</w>
加 快</w>
功 绩</w>
力 劳动</w>
剛 才</w>
前 行</w>
前 程</w>
前 所未
别 针</w>
别 跟我</w>
别 装</w>
创 办</w>
刘 海</w>
列 出</w>
划 艇</w>
刑 法</w>
切 切</w>
分 清</w>
出 钱</w>
出 狱</w>
出 新</w>
出 奇</w>
出 声</w>
出 了
凶 猛</w>
凭 单</w>
凡 事</w>
几 块</w>
几 千
准 备金</w>
冷 清</w>
冷 冰
冷冰 冰</w>
冰 镇</w>
冤 屈</w>
冒 犯</w>
再 聊</w>
内 有</w>
内 情</w>
内 心
养 殖</w>
具 店</w>
兴 高采烈</w>
兴 隆</w>
兴 地</w>
关 在</w>
共 计</w>
共 存</w>
公 鸡</w>
公 然</w>
公 民
公 关
八 点半</w>
全部 都是</w>
全体 人员</w>
全 额</w>
全 班同学</w>
全 心
全 市</w>
入 手</w>
入 会</w>
免 税
光 阴</w>
光 学</w>
先 给</w>
先 去</w>
僵 局</w>
储 存</w>
偷 走</w>
偶 遇</w>
健 美</w>
健 壮</w>
停 着</w>
停 滞</w>
倾 注</w>
债 权</w>
借 出</w>
俳 句</w>
修 订版</w>
修 罗场</w>
修 剪</w>
保险 金</w>
保卫 祖国</w>
俏 皮</w>
侵 袭</w>
供 奉</w>
使用 者</w>
作 画</w>
作 方法</w>
佛 教</w>
余 力</w>
体育 课</w>
佐 藤</w>
住 宅
低 于</w>
伴 奏</w>
伤 人</w>
传 送
传 统
伟 绩</w>
会议 记录</w>
会计 部</w>
会 试</w>
优 劣</w>
众 所周知</w>
伏 击</w>
伊 斯
伊 东</w>
价格 上涨</w>
价 比</w>
价 廉</w>
仰 望</w>
代 谢</w>
仙 人
他 光</w>
他 作</w>
仇 恨</w>
人 造</w>
人 质</w>
人 力
亲 身</w>
亲 生</w>
亲 口</w>
亲 们</w>
享 有</w>
产品 开发</w>
交通 堵塞</w>
交换 意见</w>
交 纳</w>
五四 运动</w>
互相 理解</w>
云 雾</w>
于 事</w>
事 有</w>
事 无
乳 房</w>
乱 跑</w>
乱 码</w>
乡 亲们</w>
九 月份</w>
之 风</w>
之 计</w>
久 久</w>
主 菜</w>
为 首</w>
临时 工</w>
中 药</w>
中 游</w>
中 期</w>
中 山
中 去</w>
中 华</w>
个 体
严格 遵守</w>
严 酷</w>
严 正</w>
严 寒</w>
严 冬</w>
两国 人民</w>
两 遍</w>
两 翼</w>
两 本书</w>
两 旁</w>
两 只手</w>
两 句话</w>
两 千
两 三天</w>
两 三个</w>
东 边</w>
专利 权</w>
专 职</w>
与其 说</w>
不高 兴地</w>
不服 输</w>
不早 了</w>
不 言</w>
不 自
不 离</w>
不 法
不 拘
不 妨</w>
不 含税</w>
不 向</w>
不 及
不 利于</w>
不 倒</w>
不 亮</w>
不 乐</w>
下 马</w>
下 课</w>
下 期</w>
上 限</w>
上 诉</w>
上 画</w>
上 周五</w>
三 重</w>
三 百</w>
三 月份</w>
三 夜</w>
三 件</w>
万 难</w>
万 物</w>
七 咲</w>
一切 都是</w>
一 點</w>
一 顿饭</w>
一 面
一 队</w>
一 郎</w>
一 路
一 记</w>
一 节</w>
一 致
一 股
一 线
一 票</w>
一 环</w>
一 概</w>
一 枝</w>
一 束</w>
一 本正经</w>
一 并</w>
一 席</w>
一 巴掌</w>
一 小</w>
一 字
一 响</w>
一 去不
一 出</w>
一 交</w>
一 下
一 万</w>
z u
t h
r in
o l
i r
i ll
h e
at ion</w>
UR L</w>
O S</w>
Ma s
Act. 2</w>
9 5</w>
8 00</w>
6 000</w>
3 3</w>
3 2</w>
199 9</w>
1 200</w>
齐 齐</w>
鼻 血</w>
黑 色
黑 影</w>
黄 豆</w>
黄 昏</w>
麻 利</w>
麦克 风</w>
麦 苗</w>
高 度
高 出</w>
骨 肉</w>
骑 车去</w>
驳 回</w>
驱 除</w>
马克 思
马 蹄
香 油</w>
馅 饼</w>
馅 儿</w>
饲 料</w>
饲 养
饱 含</w>
饮 酒</w>
饮 用水</w>
饥 荒</w>
飘 着</w>
飕 飕</w>
风 雪</w>
风 湿
频 频</w>
预 付</w>
顾 及</w>
顺序 排列</w>
顺 口</w>
顺 变</w>
顶 上</w>
鞋 底</w>
面 目
非 凡</w>
青 色</w>
青 森</w>
霸 道</w>
露 水</w>
露 天
雷 鸣</w>
零 零</w>
雪 橇</w>
雪 山</w>
雌 性</w>
雇 主</w>
雄 辩</w>
难 闻</w>
难 事</w>
隐 约
随便 便</w>
随 随便便</w>
随 手</w>
随 和</w>
隆 隆</w>
陷 害</w>
陶 醉</w>
院 里</w>
陛 下</w>
降 雨</w>
陆 续</w>
阵 容</w>
阴 性</w>
阴 凉</w>
防 晒
防晒 霜</w>
阁 下</w>
闺 女</w>
闲 人</w>
问 得</w>
闪烁 着</w>
闪 耀着</w>
闪 烁</w>
闪 亮</w>
门 牙</w>
长 辈</w>
长 成</w>
长 大
长大 成人</w>
长 号</w>
长 于</w>
镶 嵌</w>
锤 子</w>
锣 鼓</w>
锅 盖</w>
销售 量</w>
销售 员</w>
银 牌</w>
铲 除</w>
铭 记</w>
铃 响</w>
铁 丝网</w>
钢 铁
钢 材</w>
钟 声</w>
釜 山</w>
金 黄</w>
金 子</w>
野 花</w>
野 猪</w>
重新 认识</w>
重 组</w>
重 现</w>
重 机</w>
重 心</w>
重 地</w>
重 于</w>
酸 溜溜</w>
部 落</w>
郑 重</w>
邮件 地址</w>
邪 气</w>
那 起</w>
那 裡</w>
那 股</w>
那 支</w>
那 匹马</w>
那 会</w>
遮 蔽</w>
遥 控
遥控 器</w>
遗 址</w>
道 德
通俗 易懂</w>
通 气</w>
這 次</w>
透 镜</w>
选 票</w>
逃 出去</w>
适 量</w>
送 错</w>
送 货
追 逐</w>
追 着</w>
迷 藏</w>
迷 失</w>
迫 切</w>
迫 不及
迫不及 待</w>
连 绵</w>
违 抗</w>
远远 地</w>
远 足</w>
远 期</w>
远 景</w>
进 到</w>
这么 着</w>
这么 点儿</w>
这 顶</w>
这 辈子</w>
这 般</w>
这 太</w>
这 份儿</w>
还 行</w>
近 乎</w>
运 河</w>
过 高</w>
边 天</w>
辩 护</w>
辛 劳</w>
辅导 班</w>
载 货</w>
轻 视</w>
转 机</w>
转 入</w>
车 开</w>
踢 球</w>
跟 班</w>
跑 得快</w>
足 迹</w>
越 狱</w>
超 额
趁 机</w>
起 重机</w>
起 立</w>
起 点</w>
起 居</w>
起 人</w>
赶 忙</w>
走 到</w>
赢 利</w>
赛 车</w>
赏 月</w>
赌 气</w>
资格 证</w>
费 力</w>
贵 族</w>
质 问</w>
质 检</w>
质 朴</w>
货 船</w>
账 簿</w>
账 本</w>
败 坏</w>
责任 制</w>
负 有</w>
负 债
负 伤</w>
象 牙</w>
豆 腐
谷 物</w>
谣 传</w>
谜 语</w>
谋 生</w>
谈 心</w>
调 整
调 子</w>
课外 活动</w>
诽 谤</w>
读 得</w>
请 速</w>
请 读</w>
请 求
说得 好</w>
说 句</w>
误 以为</w>
语 系</w>
语 拼音</w>
该 厂</w>
试 行</w>
试 点</w>
试 制</w>
诊 所</w>
评 判</w>
证券 交易</w>
证 件</w>
讹 诈</w>
讲 道理</w>
讲 故事</w>
讲 台</w>
记 笔记</w>
讯 问</w>
议 员</w>
计算 机
警察 局</w>
言 行
触 发</w>
解放 出来</w>
解 读</w>
解 说</w>
视 着</w>
规 程</w>
观 众
见 笑</w>
要 职</w>
要 用</w>
要 强</w>
西 路</w>
西 西
西 洋
褪 色</w>
装 运</w>
装 傻</w>
裂 开</w>
裁 判员</w>
被 告人</w>
表 妹</w>
补 课</w>
行 行
行 者</w>
行 星</w>
行 为
行 不行</w>
血液 循环</w>
血 迹</w>
血 汗</w>
螺 旋</w>
蜻 蜓</w>
蜂 窝</w>
蛋 包饭</w>
虫 病</w>
虎 虎</w>
薯 条</w>
蕴 藏</w>
蓄 意</w>
蒸 馏</w>
蒸 汽</w>
蒙 蔽</w>
葱 葱</w>
葡萄 糖</w>
著 称</w>
著 名
萝 卜
萌 发</w>
菜 肴</w>
荷 花</w>
荷 叶</w>
荫 下</w>
草摩 由希</w>
茬 儿</w>
茉 莉
英雄 事迹</w>
苦 心</w>
苍 茫</w>
花 盆里</w>
芭 菲</w>
芝 麻
节 哀
节哀 顺变</w>
节 制</w>
艺术 品</w>
艺术 作品</w>
艰苦 奋斗</w>
航 班
舍 得</w>
舍 弃</w>
自由 主义</w>
自然 而
自然而 然</w>
自 负</w>
自 治</w>
自 一人</w>
腼 腆</w>
腹 肌</w>
腋 下</w>
脸 盆</w>
脸 子</w>
脱离 群众</w>
脚 底</w>
脚 尖</w>
脏 兮兮</w>
胶 片</w>
胜 过</w>
胜 利
背 过</w>
背 负着</w>
背 背</w>
背 德</w>
肤 浅</w>
股票 价格</w>
股票 交易</w>
股东 大会</w>
肚 里</w>
肉 店</w>
肇 事</w>
联 络
耳 鸣</w>
耳 钉</w>
耕 种</w>
耐 寒</w>
而 起</w>
而 论</w>
而 行</w>
而 至</w>
考试 成绩</w>
考 核</w>
老太 婆</w>
老 汉</w>
老 实
翻 腾</w>
翘 首
群众 中</w>
羞 涩</w>
羞 惭</w>
羊 群</w>
羊 羔</w>
羊 毛
置 身</w>
置 疑</w>
罪 证</w>
罪 状</w>
罩 子</w>
罗 列</w>
网 点</w>
缺 乏
缝 纫</w>
绿 茶</w>
绝 伦</w>
给 与</w>
绕 着</w>
结 石</w>
经济 学</w>
经济 危机</w>
经 不起</w>
终 极</w>
终 年</w>
细 长</w>
细 血管</w>
细 菌
红 白</w>
红 日</w>
红 了
紫 外线</w>
紧 缩</w>
紧 张
素 子</w>
系 数</w>
糟 糟</w>
精神 病</w>
精力 充沛</w>
精 采</w>
精 巧</w>
精 华</w>
粘 贴</w>
粗 鲁</w>
粉 笔</w>
篡 改</w>
篝 火</w>
管理 人员</w>
管 炎</w>
算 啦</w>
简 在</w>
筛 选</w>
第三 方</w>
第 六
第 三次</w>
竹 林</w>
竞 选</w>
立 足
立 着</w>
穿 戴</w>
空 隙</w>
空 军</w>
程 序
程 安排</w>
稀 里
秧 苗</w>
秧 机</w>
秘 鲁</w>
秘 书
种 花</w>
种 子
秋 季</w>
私 有</w>
离 子</w>
离 子
神魂 颠倒</w>
神经 质</w>
神 奇</w>
神 仙</w>
祈 求</w>
礼拜 天</w>
礼拜 六</w>
磨 破</w>
磁 铁</w>
碧 绿</w>
硬 是</w>
破 烂
破 壳</w>
砖 头</w>
研究 者</w>
研究 员</w>
石 块</w>
短 裤</w>
短 裙</w>
短 暂</w>
睡 懒觉</w>
睁 眼</w>
着 力</w>
着 凉</w>
真 话</w>
真 诚地</w>
真 帅</w>
真 傻</w>
真 亏</w>
看得 见</w>
看不 下去</w>
看 人</w>
看 中</w>
省 里</w>
相互 作用</w>
相 通</w>
相 撞</w>
相 像</w>
直升 机</w>
直 接
直 射</w>
目 送</w>
目 睹</w>
目 击
目 不
白 话</w>
白 血
白 眼</w>
白 人</w>
病 毒
病毒 感染</w>
疼 疼</w>
疼 得</w>
疏 导</w>
留 恋</w>
男 高音</w>
电 动机</w>
电 动
电 冰箱</w>
生日 蛋糕</w>
生产 率</w>
生 殖
生 机</w>
甜 蜜</w>
甜 甜</w>
瓷 砖</w>
瓶 口</w>
瑞 典</w>
瑕 疵</w>
理发 师</w>
理 发</w>
班 岛</w>
现实 生活</w>
环境 保护</w>
玩 儿
玩 乐</w>
王 国</w>
猜 中</w>
猛 然</w>
猎 取</w>
独 自一人</w>
犹豫 不决</w>
犀 利</w>
特 许</w>
特 制</w>
牵 着手</w>
牲 畜</w>
物 理
物 力</w>
牢 笼</w>
牙 科</w>
牌 价</w>
片 面</w>
父 辈</w>
爱 过</w>
爱 河</w>
爱 上
爱上 你</w>
爬 山
爪 子</w>
爆 竹</w>
熟 虑</w>
煽 动</w>
照 镜子</w>
照 灯</w>
照 样</w>
照 亮</w>
無 法</w>
热情 洋溢</w>
热 量</w>
热 腾腾</w>
热 气球</w>
烧 香</w>
烈 性</w>
烈 士
烈 地</w>
烂 漫</w>
炽 热</w>
点 时</w>
点 事</w>
炮 火</w>
灯 火</w>
火 炉</w>
火 候</w>
灌 木</w>
濒 临
澄 清</w>
潦 倒</w>
潜 伏</w>
漂 白</w>
漂 泊</w>
满 载</w>
满 是</w>
滑雪 板</w>
滑雪 场</w>
滑 板</w>
溜 儿</w>
渺 茫</w>
游 荡</w>
温 水</w>
温 哥
温哥 华</w>
温 厚</w>
渔 业</w>
添 乱</w>
混 沌</w>
混 合
深山 老林</w>
深 邃</w>
深 思</w>
深 思
深思 熟虑</w>
淡 化</w>
涌 出来</w>
消 逝</w>
消 停</w>
涂 抹</w>
涂 成</w>
海 绵</w>
海 带</w>
海 外
海 域</w>
测 量
流 鼻涕</w>
流 露出</w>
流 而
流 毒</w>
流 入</w>
流 下</w>
活 来</w>
洗 脑</w>
洗 刷</w>
注 释</w>
注 解</w>
波 长</w>
波 纹</w>
泡 个</w>
油 路</w>
油 腻</w>
河 岸</w>
没 那回事</w>
没 辙</w>
没 睡</w>
没 有
没 多久</w>
没 听
没听 说过</w>
没 事儿</w>
沒 錯</w>
沉默 寡言</w>
汽 水</w>
決 定</w>
汉 语拼音</w>
汉 奸</w>
水利 工程</w>
水 龙头</w>
水 量</w>
水 瓶</w>
水 珠</w>
水 淹</w>
水 泡</w>
水 来</w>
水 性</w>
气 色</w>
气 流</w>
毛 细血管</w>
比 利
比利 时</w>
毒 素</w>
每 位</w>
残 疾</w>
残 次品</w>
死 心</w>
死 伤</w>
此时 此刻</w>
正确 性</w>
正 道</w>
正 赛</w>
正 气</w>
歌 山</w>
歌 剧</w>
歌 儿</w>
款 人</w>
欺 诈</w>
欢迎 您</w>
模 拟
梅雨 季节</w>
梅 花</w>
桥 牌</w>
桥 头</w>
树 荫下</w>
树 干</w>
栏 目</w>
栏 杆</w>
柴 火</w>
柳 枝</w>
柔 弱</w>
某种 程度</w>
某 处</w>
柏 油路</w>
枣 儿</w>
枝 叶</w>
林 立</w>
极 恶</w>
松 开</w>
杰 克</w>
来 晚</w>
权 益</w>
杂 货</w>
杂 种</w>
机械 化</w>
机会 难得</w>
机 种</w>
未 满</w>
未 曾</w>
未 免</w>
期 货交易</w>
期 付款</w>
朝 南</w>
服务 中心</w>
服 饰</w>
有生 以来</w>
有效 性</w>
有 罪</w>
有 缘</w>
有 礼</w>
有 益于</w>
有 望</w>
有 损</w>
有 价
有价 证券</w>
月 经</w>
月 票</w>
最 贵</w>
最 热</w>
更 何况</w>
更 为</w>
暴 徒</w>
暴 动</w>
暗 自</w>
晨 雾</w>
晕 倒</w>
晓 得</w>
昵 称</w>
昨天 下午</w>
春 秋</w>
春 季</w>
春 假</w>
星 空</w>
时间 段</w>
时 价</w>
旧 思想</w>
日 语
日 程安排</w>
日 用品</w>
日 夜
无 边</w>
无 误</w>
无 穷
无 恙</w>
无 几</w>
旅 店</w>
施 工
方 方</w>
方 才</w>
方 便
新鲜 空气</w>
新生 力量</w>
新年 快乐</w>
新华 社</w>
新 房</w>
新 学期</w>
新 兵</w>
断 绝</w>
斑 点</w>
文化 节</w>
文 本</w>
文 坛</w>
整 肃</w>
整 形
整 年</w>
数 落</w>
数 码
数 点</w>
数 儿</w>
敬请 期待</w>
救 济
救 援</w>
救 助</w>
救 人</w>
敌 我</w>
敌 意</w>
放 进去</w>
放 大
放 任
攻 击
改正 错误</w>
改 订</w>
改 变
收 盘
收 尾</w>
收 听</w>
支 应</w>
支 乐队</w>
擦 破</w>
操 控</w>
操 劳</w>
摆 设</w>
摆 弄</w>
摆 布</w>
摄像 头</w>
摄 氏度</w>
搞 好</w>
握 住</w>
插 秧机</w>
插 座</w>
掩 蔽</w>
推 特</w>
接 纳</w>
接 班人</w>
接 头</w>
探 险家</w>
探 究</w>
排 球队</w>
排 泄</w>
捡 回来</w>
捉 迷藏</w>
挽 留</w>
挺 不错</w>
挥 手</w>
挥 手
挑 战
指导 员</w>
持 股</w>
拿 给</w>
拿 手
拾 掇</w>
拐 角</w>
拍 手</w>
拍 子</w>
拉 斯</w>
拉 上</w>
担 负</w>
抽 象</w>
抽 水机</w>
抵 押</w>
披 露</w>
报 社</w>
护 发
护发 素</w>
抛 售</w>
折 叠</w>
抗 日</w>
抒 情</w>
抑 郁症</w>
承 接</w>
批发 商</w>
扶 梯</w>
扫 描
扫 卫生</w>
扫 兴</w>
打 铁</w>
打 进</w>
打 猎</w>
打 扫卫生</w>
打 打</w>
打 字
扑 腾</w>
才 干</w>
手 提包</w>
手 指头</w>
手 拿着</w>
手 巧</w>
手 印</w>
所有 者</w>
所 愿</w>
战 败</w>
战 地</w>
战 乱</w>
戒 备</w>
我 生</w>
我 犯</w>
我 放</w>
成 效</w>
成 就
成就 感</w>
戏剧 社</w>
戏 里</w>
懦 弱</w>
懊 恼</w>
慢慢 来</w>
慢 性</w>
慈 善</w>
感激 不尽</w>
感 应
感应 器</w>
意 外
意 味</w>
想 通</w>
惧 怕</w>
惦 记着</w>
惊 慌</w>
情 调</w>
情 势</w>
悬 挂</w>
悠 长</w>
悠 久</w>
恭 维</w>
恨 不得</w>
恢复 原状</w>
恐怖 电影</w>
总 能</w>
总 得</w>
总 体</w>
性 骚扰</w>
性 欲</w>
怜 悯</w>
怀 有</w>
怀 抱</w>
快 逃</w>
快 樂</w>
忠 于</w>
忙 不过来</w>
忘 不掉</w>
志 向</w>
心 气</w>
心 情
心 弦</w>
心 地
微 薄</w>
微 型</w>
微 不足道</w>
循 环
徐 徐</w>
很 脏</w>
很 粗</w>
很 广</w>
径 直</w>
征 文</w>
往 里</w>
往 上
彩 排</w>
彗 星</w>
录 制</w>
当 代</w>
归 于
归于 好</w>
强 校</w>
强 壮</w>
弹 不得</w>
弥 漫着</w>
式 化</w>
开发 新</w>
开 窗</w>
开 会
庞 杂</w>
店 长</w>
应 答</w>
应 时</w>
应 收</w>
应 援</w>
应 允</w>
幼 年</w>
幻 觉</w>
幹 什麼</w>
幸福 生活</w>
幸 运
并 排</w>
平底 锅</w>
平 缓</w>
平 分</w>
干 草</w>
干 完</w>
干 事</w>
常 客</w>
席 话</w>
带 薪</w>
带 点</w>
带 去</w>
布 满</w>
市 公司</w>
已 經</w>
巨 大
川 崎</w>
岔 开</w>
山 脚下</w>
山 石</w>
山 头</w>
展 露</w>
屋 久
屋久 岛</w>
层 层</w>
尿 布</w>
尖 利</w>
少年 时代</w>
少 有</w>
少 不了</w>
小 道</w>
小 费</w>
小 组
小 石</w>
小 弟弟</w>
小 女孩</w>
小 便</w>
寺 院</w>
对 峙</w>
富 翁</w>
密 瓜</w>
密 封</w>
寄 放在</w>
寄 出去</w>
宾 语</w>
宽 容</w>
容 纳</w>
家 常</w>
室内 装饰</w>
宣 判</w>
客 车</w>
客 服</w>
宝 贝
定期 检查</w>
安全 帽</w>
安全 带</w>
安 宁</w>
安 好</w>
安 危</w>
學 校</w>
孤 零零</w>
季节 性</w>
季 堂</w>
字 眼儿</w>
字 眼</w>
字 数</w>
孕 育</w>
嫁 给</w>
娘 们</w>
委 托
姑 母</w>
如 山</w>
好 难</w>
好 重</w>
好 棒</w>
好 儿</w>
女 王</w>
奉 献给</w>
夹 攻</w>
夹 君</w>
夸 大</w>
头 皮</w>
头 巾</w>
失 物</w>
失 灵</w>
夫 子</w>
太 窄</w>
太 棒</w>
太 松</w>
天涯 海角</w>
天 皇</w>
天 然
天 数</w>
天 大</w>
天 主教</w>
大展 宏图</w>
大 麻</w>
大 酒店</w>
大 路</w>
大 碗</w>
大 权</w>
大 山</w>
大 号</w>
大 功</w>
大 力</w>
大 减价</w>
大 会
大 人物</w>
大 丰收</w>
够 受
够受 的</w>
夜 战</w>
夜 宵</w>
多元 化</w>
多 远</w>
多 病</w>
多 佳
外交 官</w>
外 衣</w>
复印 机</w>
复 苏</w>
复 发</w>
处 以</w>
声 称</w>
增 减</w>
墙 角</w>
塞 进</w>
塞 班岛</w>
塞 满</w>
塑料 袋</w>
基督 教</w>
培 植</w>
城 墙</w>
垒 球</w>
坦 然</w>
坐 满</w>
坐 席</w>
坐 地铁</w>
坐 公车</w>
坐 上</w>
坏 分子</w>
地下 室</w>
地 质</w>
地 玩</w>
地 往</w>
地 利</w>
在 群众中</w>
在 此
圈 圈</w>
圆 珠
困 得</w>
园 丁</w>
团结 一致</w>
团 转</w>
团 圆</w>
团 团转</w>
回 旋</w>
四 年级</w>
四 川
四 化</w>
囚 禁</w>
喱 饭</w>
喝 下去</w>
喜 鹊</w>
喜 讯</w>
唯 物
唤 醒</w>
唇 舌</w>
哪 辆</w>
哪 来</w>
哨 兵</w>
哎 呀呀</w>
响 彻</w>
哈 密瓜</w>
哈 利</w>
哆 嗦</w>
咽 下</w>
咬 住</w>
和 歌山</w>
呼 啸</w>
周 几</w>
呆 地</w>
呆 呆地</w>
吸引 住</w>
启 齿</w>
启 迪</w>
启 蒙</w>
启 程</w>
启 事</w>
听 不清</w>
听 不
后 头</w>
后 会</w>
名 画</w>
名 次</w>
同 级生</w>
同 性</w>
同 伙</w>
吉田 礼</w>
吃 醋</w>
司 法
右 眼</w>
右 派</w>
可 燃</w>
另 一边</w>
句 句</w>
口头 禅</w>
口 语</w>
口 吃</w>
叛 逆</w>
变 质</w>
变 小</w>
受 害</w>
取得 胜利</w>
取得 成功</w>
取 笑</w>
发言 人</w>
发 色</w>
发 脾气</w>
发 热</w>
发 挥
反应 堆</w>
反 感</w>
反 思</w>
反 弹</w>
反 常</w>
反 击</w>
双 人</w>
县 里</w>
原子 能</w>
原 油</w>
原 有</w>
原 委</w>
厚 的</w>
厚 厚的</w>
压 住</w>
历史 性</w>
历 害</w>
卷 子</w>
博 览
南 边</w>
单 调</w>
卑 劣</w>
半 边天</w>
半 点</w>
半 儿</w>
升 降</w>
千 曳</w>
千 叶</w>
千 古</w>
千 古
十分 高兴</w>
十 年间</w>
十 几
十 二</w>
医 治</w>
化 身</w>
化 肥</w>
勤 勉</w>
勤 俭</w>
勇 于</w>
劲 地</w>
动 心</w>
动 弹不得</w>
动 力学</w>
劣 势</w>
加油 站</w>
加 紧</w>
加 固</w>
功 臣</w>
功 效</w>
功 勋</w>
劝 慰</w>
力 部队</w>
力 图</w>
剥 掉</w>
剥 削
剖 析</w>
前 兆</w>
刺 耳</w>
刹 住</w>
刮 胡子</w>
刮 得</w>
别 闹</w>
别 重逢</w>
别 用</w>
别 想</w>
利 润
删 掉</w>
列 号</w>
分 工</w>
分 不清</w>
函 数</w>
出 面</w>
出 远门</w>
出 行</w>
出 自</w>
出 租
出 現</w>
出 气</w>
出 境</w>
出 口
出 世</w>
凭 证</w>
几 经</w>
几 样</w>
几 月</w>
几 度</w>
几 小时</w>
凝 视着</w>
凝 结</w>
凑 合</w>
凄 惨</w>
冷 饮</w>
冷 落</w>
冷 却
冷 僻</w>
决 权</w>
决 战</w>
冬 海</w>
冥 想</w>
农 家</w>
写 个</w>
再 犯</w>
再 好
再 会</w>
内 阁</w>
内 会</w>
养 老</w>
其 间</w>
兴 建</w>
关 系
共同 点</w>
共产 主义</w>
共 识</w>
六十 公里</w>
公 粮</w>
公 告</w>
公 关</w>
全心 全
全心全 意</w>
全 集</w>
全 新</w>
入 门</w>
入 狱</w>
入 浴</w>
党 委书记</w>
党 内</w>
光 荣
光 头</w>
充 满
偷 盗</w>
偷 东西</w>
健 三
停 顿</w>
停 放</w>
做 错</w>
做 主</w>
偏 高</w>
倡 议</w>
借 来</w>
倔 强</w>
倒 把</w>
俯 冲</w>
信 里</w>
信 誉</w>
信 徒</w>
信 内</w>
保险 箱</w>
保健 室</w>
保 有</w>
保 卫</w>
保 修</w>
俗 气</w>
便 于</w>
依 依
作 曲</w>
何 不</w>
体 型</w>
佐 伯</w>
住宅 区</w>
住 院
住 房
住 宿
低 血压</w>
低 估</w>
伯 母</w>
伪 善</w>
伤 情</w>
传 给</w>
传 授</w>
传 承</w>
会 输</w>
会 费</w>
会 合</w>
会 为</w>
伙 食</w>
优 越</w>
优 质
优 等
休 业</w>
伊 藤</w>
份 子</w>
任 期</w>
以 便</w>
令人 遗憾</w>
代表 大会</w>
代 价</w>
他 出</w>
从 头</w>
什 锦</w>
亿 美元</w>
亿 泰
亿 元</w>
人民 解放军</w>
人工 呼吸</w>
人 权</w>
人 才
人 干</w>
人 太多</w>
人 参</w>
人 之
人 中</w>
亲 戚
亲 吻</w>
亲 信</w>
亮 堂堂</w>
京 都
产 业
交流 会</w>
亚 洲
亚 州</w>
五十 元</w>
五十 万</w>
五 分</w>
五 人</w>
互 利</w>
云 集</w>
云 密布</w>
二 级</w>
二 等
二 号</w>
二 位</w>
事 端</w>
事 理</w>
争 议</w>
了 当</w>
乳 头</w>
乱 糟糟</w>
买 菜</w>
买 家</w>
买 好</w>
买 卖
书 面
书 刊</w>
习 功课</w>
九 个</w>
之 谈</w>
之 感</w>
之 分</w>
久 性</w>
久 别重逢</w>
久 保</w>
举 着</w>
主 管</w>
主 导</w>
主 子</w>
主 力部队</w>
主 儿</w>
为 荣</w>
为 生</w>
为 时
丸 子</w>
丰 富
中 间
中 部</w>
中 文
中 心
中 弹</w>
中 年</w>
中 川</w>
中 农</w>
中 东</w>
严 加</w>
两条 腿</w>
两 队</w>
两 组</w>
两 斤</w>
两 把</w>
两 声</w>
两 台</w>
东南 亚</w>
东 京都</w>
业 务
世 面</w>
世 紀</w>
世 故</w>
专 门
丑 陋</w>
丑 闻</w>
不能 自拔</w>
不能 取消</w>
不知 所
不太 会</w>
不 齐</w>
不 醒</w>
不 达</w>
不 绝
不 移</w>
不 祥</w>
不 甘</w>
不 断
不 惜
不 忙</w>
不 妥</w>
不 困</w>
不 佳</w>
下 雨天</w>
下 调</w>
下 意识</w>
下 层</w>
上 课时</w>
上 船</w>
上 能</w>
上 级
上 楼</w>
上 市公司</w>
上 周三</w>
三 峡</w>
三 天
三 分钟</w>
七 天</w>
七 十
七 个</w>
丁 点儿</w>
一阵 风</w>
一百 个</w>
一望 无际</w>
一无 二</w>
一丝 不
一 顶</w>
一 辆车</w>
一 车</w>
一 袋</w>
一 色</w>
一 经</w>
一 粒</w>
一 笔
一 科</w>
一 棵树</w>
一 桶</w>
一 旁</w>
一 席话</w>
一 对
一 家子</w>
一 命</w>
一 周年</w>
一 包</w>
一 利</w>
一 亩</w>
一 举</w>
一 两天</w>
一 世</w>
zu l</w>
z e</w>
re e
ree ze</w>
r i
r a
p at
pat zul</w>
oc us</w>
n d
ig h
igh t</w>
i o</w>
i c
g E</w>
e s
e b
d ocus</w>
a n</w>
a l</w>
SP W</w>
S N
SN S</w>
PD F</w>
Mo ge</w>
L ED</w>
I gE</w>
G E
F reeze</w>
3 50</w>
14 6</w>
1 7
齐 心协力</w>
鼓 鼓
黝 黑</w>
黑 黑</w>
黏 糊糊</w>
黄 山</w>
麦 粉</w>
麦 克</w>
鱿 鱼</w>
鱼 肉</w>
魁 梧</w>
鬼 门关</w>
鬼 话</w>
鬼 怪</w>
高 興</w>
高 粱</w>
高 水平</w>
高 明</w>
高 帽子</w>
高 层</w>
高 压
高 利
高 傲</w>
骨 骼</w>
骡 子</w>
骗 取</w>
驾 光临</w>
驱 使</w>
马 克</w>
香 菜</w>
首 饰</w>
饮 店</w>
餐 饮店</w>
飞 驰</w>
飞 来</w>
飞 机票</w>
飞 出去</w>
飘 动</w>
风 采</w>
风 流</w>
风 水</w>
风 吹
颗 粒</w>
颇 为</w>
领导 者</w>
领 队</w>
领 略</w>
领 子</w>
领 了</w>
预 选</w>
预 赛</w>
预 谋</w>
预 兆</w>
顾 不上</w>
顺 风</w>
项 目
顶 端</w>
顶 撞</w>
顶 尖</w>
音 节</w>
音 演员</w>
面 儿</w>
静 悄悄</w>
静 寂</w>
青 山</w>
青 天</w>
青 人</w>
霍 尔</w>
震 撼</w>
雷 击</w>
零 零
零 落</w>
零 碎</w>
零 用钱</w>
零 点</w>
雪 亮</w>
雨 季</w>
雇 工</w>
雇 佣
集中 力</w>
集 资</w>
雅 图</w>
难以 想象</w>
难 说</w>
难 于</w>
障碍 物</w>
隆 冬</w>
除此 以外</w>
陌 生</w>
陀 螺</w>
阿谀 奉承</w>
阿 姬</w>
阻 挠</w>
阴 茎</w>
防 线</w>
防 洪</w>
队 友</w>
间 隔</w>
间 房</w>
闲 谈</w>
问 话</w>
闪 着</w>
门 锁</w>
门 路</w>
镰 刀</w>
镜 片</w>
锣 鼓
锐 气</w>
锅 底</w>
锁 链</w>
铺 盖</w>
铸 造</w>
铃 声</w>
钱 花</w>
金 属
量 计</w>
量 生产</w>
野 性</w>
重 要
重 点
重 演</w>
重 归于好</w>
重 回</w>
重 价</w>
里 外
醒 目</w>
酵 素</w>
酒 精
酒 疯</w>
酒 后</w>
配 音演员</w>
配 角</w>
配 件</w>
配 不上</w>
郁 郁</w>
邻 近</w>
邮 费</w>
邪 龙族</w>
那 颗</w>
那 请</w>
那 该</w>
那 段</w>
那 好</w>
那 不
避 暑</w>
遮 挡</w>
遗 言</w>
遗 留下来</w>
遗 书</w>
道 场</w>
過 去</w>
逼 近</w>
逻 辑
造 谣</w>
造 谣
速 器</w>
通 车</w>
通 电</w>
通 一声</w>
途 而
途而 废</w>
逐 个</w>
透 视</w>
透 彻</w>
透 出</w>
逊 色</w>
选举 权</w>
选 集</w>
选 用</w>
选 取</w>
逃 避
逃 窜</w>
逃 学</w>
逃 不掉</w>
适 时</w>
适 应
送 走</w>
送 会</w>
退 路</w>
退 让</w>
退 职</w>
退 缩</w>
退 烧</w>
追 随</w>
追 溯</w>
追 上去</w>
迷 糊</w>
迷 恋</w>
迫 使</w>
连 饭</w>
连 累</w>
连 日</w>
连 带</w>
连 在一起</w>
违法 乱
违法乱 纪</w>
违 犯</w>
远 眺</w>
远 扬</w>
进 水</w>
进 出口</w>
这 类</w>
这 班</w>
这 样儿</w>
这 使</w>
这 会</w>
还 击</w>
近 郊</w>
近 距离</w>
近 代</w>
近 代
近 亲</w>
运 货</w>
过 量</w>
过 目</w>
过 火</w>
过 早</w>
过 手</w>
过 往</w>
过 家家</w>
达 国家</w>
辽 远</w>
边 界</w>
辱 骂</w>
辞 典</w>
辛 勤</w>
输 出
较 大</w>
轻 信</w>
轱 辘</w>
软 弱</w>
轮 椅</w>
轮 机</w>
转 账</w>
转 晴</w>
转 化</w>
身份 证明</w>
身 亡</w>
蹒 跚</w>
踏 板</w>
跳 水</w>
跳 板</w>
跳 得</w>
跳 下来</w>
趴 在</w>
越来越 少</w>
越 高</w>
超额 完成</w>
趁 热</w>
起 落</w>
起 头来</w>
赶 回</w>
赶 出去</w>
走 散</w>
走 下坡路</w>
赤 蝶</w>
赞 助</w>
赔偿 金</w>
费 事</w>
贸易 协定</w>
贵 姓</w>
贵 国</w>
购物 袋</w>
贬 低</w>
货 店</w>
贤 惠</w>
责任 人</w>
财务 部</w>
豪 爽</w>
象 征
豌 豆</w>
谷 子</w>
谚 语</w>
调 职</w>
调 理</w>
调 换</w>
读书 人</w>
读 出</w>
请 指示</w>
说说 看</w>
说 梦话</w>
说 会</w>
诱 饵</w>
详 尽</w>
话 儿</w>
试 用
试 一
试一 试</w>
译 文</w>
译 成</w>
词 句</w>
词 儿</w>
诉 苦</w>
评论 家</w>
诀 窍</w>
论 题</w>
论 证</w>
论 坛</w>
许 愿</w>
讲 礼貌</w>
讲 习
记 恨</w>
记 在心</w>
记 不清</w>
认真 学习</w>
认 输</w>
认 清</w>
计划 表</w>
计划 生育</w>
计 程
计程 车</w>
變 得</w>
說 過</w>
触 感</w>
规 章</w>
规 劝</w>
观 者</w>
见 鬼</w>
见 识
见 证</w>
见 了
见了 面</w>
要 害</w>
要 不然</w>
西 雅图</w>
西 部</w>
西 望</w>
西 南</w>
西 北</w>
西 兰</w>
褐 色</w>
裸 露</w>
装 懂</w>
裁 决</w>
被 窝</w>
袒 露</w>
衰 弱</w>
表达 方式</w>
衣 架</w>
衡 量</w>
衔 接</w>
衍 生</w>
行 间</w>
行 踪
行 船</w>
血 型</w>
蠢 事</w>
蟋 蟀</w>
蜘 蛛网</w>
蜗 牛</w>
蜂 拥
蛔 虫</w>
蛋 糕
蛋糕 店</w>
蛀 牙</w>
蚊 帐</w>
蘋 果</w>
藏 书</w>
薪 金</w>
蒸 汽
蒸 发</w>
蒙 混
蒙混 过关</w>
落 水</w>
落 榜</w>
营业 所</w>
营 造</w>
营 垒</w>
营 企业</w>
菠 萝</w>
莫 斯科</w>
草 丛</w>
茫 然</w>
苦 干</w>
苏 州</w>
芽 孢</w>
芳 香</w>
花 茶</w>
花 花</w>
花 花
花 色</w>
花 园
花园 里</w>
节 骨
节 能</w>
艳 丽</w>
色 拉</w>
色 彩
般 地</w>
航空 邮件</w>
航班 信息</w>
航 向</w>
舞 蹈
舒 心</w>
至 多</w>
至 上</w>
自 私
自私 自
自私自 利</w>
自 知
自 带</w>
自 卫</w>
自 卫
自 卑</w>
自 卑
自 助</w>
自 力
自力 更生</w>
自 制</w>
腹 大笑</w>
腐 败
脱 逃</w>
脱 节</w>
脚 腕</w>
脚 儿</w>
脏 东西</w>
能 过</w>
能 手</w>
胸 中</w>
胡 涂</w>
胚 胎</w>
背 负</w>
背 地里</w>
胆 儿</w>
胃 壁</w>
肺 癌</w>
育 种</w>
股 权</w>
肖像 画</w>
肉 麻</w>
肉 眼</w>
肆 意</w>
肃 静</w>
联合 国</w>
联 结</w>
耳 鼻
耳 语</w>
耳 其</w>
耗 尽</w>
耐 性</w>
而易 见</w>
而 知</w>
而 战</w>
考 得</w>
考 场</w>
考 勤
考 不上</w>
老 牌</w>
老 爷爷</w>
老 母</w>
老 少</w>
老 奶奶</w>
老 伴</w>
老 一套</w>
翻 过来</w>
翻 新</w>
美 极了</w>
美 式</w>
美 价廉</w>
羊 皮</w>
置 身于</w>
缺乏 经验</w>
缺 氧</w>
缺 勤</w>
缓 冲</w>
绿 豆</w>
绿 豆
继承 人</w>
继 任</w>
统 统</w>
统 合</w>
绝 交</w>
结 余</w>
结 交</w>
经验 丰富</w>
经常 出现</w>
经 他</w>
终 端
织 物</w>
细 密</w>
组 队</w>
线 杆</w>
纺 织
纹 理</w>
纵 容</w>
纯 情</w>
纯 净</w>
纪 轻轻</w>
絕 對</w>
結 束</w>
結 婚</w>
索 尼</w>
素食 主义者</w>
糟 透了</w>
糟 害</w>
糖 浆</w>
精神 上</w>
精 确</w>
精 湛</w>
粗 野</w>
粗 细</w>
类 固醇</w>
篱 笆</w>
篮 球队</w>
篇 章</w>
算 账</w>
算 出</w>
算 不上</w>
简 称</w>
简 便</w>
简 介</w>
筛 子</w>
等 级
第三 者</w>
第 十
笨 重</w>
笨 脚</w>
笨 手
笨手 笨脚</w>
笔记 本
笔记本 电脑</w>
笔 钱</w>
笔 字</w>
笔 力</w>
笑 眯眯</w>
笑 一笑</w>
端 庄</w>
童 子
童子 军</w>
章 节</w>
站 稳</w>
站 不住</w>
立足 于</w>
立 方
立 意</w>
立 定</w>
窝 心</w>
窝 囊</w>
空 话</w>
空 头</w>
空 儿</w>
空 余</w>
空 位</w>
程 式</w>
稀 疏</w>
称 之
称之 为</w>
租 用</w>
秘 诀</w>
科学 知识</w>
科 手术</w>
种 田</w>
私 立</w>
私 下</w>
离 远</w>
福 音</w>
祸 害</w>
票 子</w>
神 论者</w>
神 态</w>
神 志</w>
神 儿</w>
社会 制度</w>
社 论</w>
礼 炮</w>
示 意</w>
磨 灭</w>
磁 性</w>
碍 眼</w>
确 凿</w>
破坏 力</w>
石 膏</w>
石 棉</w>
矮 子</w>
短 篇</w>
瞎 说</w>
睡 意</w>
睡 个</w>
睁 睁</w>
睁 开</w>
着 装</w>
着 点</w>
眼 红</w>
眼 睁睁</w>
眼 前
真 行</w>
真 巧</w>
真 名</w>
真 可怜</w>
真 像</w>
看不 起人</w>
看不 清楚</w>
看不 懂</w>
看 错</w>
看 作</w>
看 不清</w>
看 一遍</w>
省 钱</w>
省 略</w>
相 邻</w>
相 抵</w>
相 向</w>
相 交</w>
直升 飞机</w>
直 截
直截 了当</w>
直 到
直到 现在</w>
目击 者</w>
目 相看</w>
目 击</w>
盛 装</w>
盖 上</w>
监 护</w>
盈 利</w>
皮肤 科</w>
皮 肉</w>
皮 包
皆 知</w>
的 是</w>
百 计</w>
百 年</w>
百 年
百 多</w>
百 万
白血 病</w>
白 酒</w>
癖 好</w>
瘦 得</w>
痛 心</w>
痉 挛</w>
疗 效</w>
疑 难
疑 似</w>
番 茄
留 到</w>
畅 饮</w>
画 得</w>
画 卷</w>
画 作</w>
男 士</w>
电影 明星</w>
电 风扇</w>
电 线杆</w>
申 告</w>
由 贵惠</w>
由 此
甩 掉</w>
甩 开</w>
用 词</w>
用 性</w>
用 心
用 得着</w>
生态 系统</w>
生 词</w>
生 硬</w>
生 理学</w>
生 氣</w>
生 殖</w>
生 性</w>
生 吃</w>
生 前</w>
瓶 盖</w>
瓦 斯</w>
琼 斯</w>
球 比赛</w>
珠 儿</w>
珍 藏</w>
玷 污</w>
现实 主义</w>
现 阶段</w>
现 行</w>
现 成</w>
现 如今</w>
现 今</w>
王 朝</w>
率 直</w>
独生 女</w>
独 轮车</w>
独 裁
独 木
独 一无二</w>
犹 如</w>
特 辑</w>
特 等</w>
特 勒</w>
特 典</w>
牵 扯</w>
物 美价廉</w>
物 产</w>
牧 民</w>
牧 师</w>
牛 羊</w>
爱 看</w>
爆 胎</w>
熬 过</w>
熨 斗</w>
熟 识</w>
熏 陶</w>
熊 熊</w>
照 搬</w>
煤 炭</w>
热 饮</w>
热 切</w>
烧 焦</w>
烧 水</w>
烤 面包</w>
烟 酒</w>
烟 袋
烟 斗</w>
烘 烘</w>
烁 烁</w>
点 餐</w>
点 起</w>
点 着</w>
点 心
点 名</w>
点 单</w>
灵 敏</w>
灰 暗</w>
灯 亮
灯亮 了</w>
火 花</w>
火 炬</w>
火 山
火 势</w>
灌 溉</w>
濒临 灭绝</w>
澳 洲</w>
澄 澄</w>
漫 漫</w>
演 化</w>
漂 流</w>
滴 下来</w>
滚 出去</w>
滑 稽</w>
溃 疡</w>
湿 润</w>
游戏 机</w>
游 走</w>
游 览
游 船</w>
游 历</w>
渗 透
清 静</w>
清 闲</w>
清 朗</w>
清 二
混 淆</w>
混 合物</w>
深表 歉意</w>
深 长</w>
深 山</w>
淡 薄</w>
淡 水</w>
涉 谷</w>
消防 车</w>
消 极
消 息
涂 鸦</w>
海 中</w>
流行 歌曲</w>
流 过</w>
流 派</w>
流 水
流 放</w>
派 出</w>
洼 洼</w>
活 活</w>
活 性</w>
活 得</w>
洗 衣</w>
洗 掉</w>
洗 个</w>
洋 装</w>
注 明</w>
泥 泞</w>
泥 坑</w>
波 浪
波 折</w>
泡 面</w>
泡 汤</w>
泛 出</w>
法 国人</w>
沿 路</w>
沿 袭</w>
沿 岸</w>
沾 满</w>
沾 染</w>
治 疗
治 水</w>
油 黑</w>
油 灯</w>
油 光</w>
油 亮</w>
河 面上</w>
河 原</w>
沥 青</w>
没法 儿</w>
没 理</w>
没 去</w>
没 出息</w>
没 买</w>
汽 船</w>
汽 油
汹 汹</w>
汲 取</w>
污 秽</w>
污 染
汇 到</w>
汇 兑</w>
求 意见</w>
求 人</w>
永 别</w>
水 陆
水 质</w>
水 洗</w>
水 泥
水 母</w>
水 果
水 有</w>
水 土
水 力</w>
气 鬼</w>
气 闷</w>
气 节</w>
气 气</w>
气 来</w>
气 度</w>
气 力</w>
民主 主义</w>
民 警</w>
毛 笔</w>
毛 皮</w>
毕业 论文</w>
毕 生</w>
比较 简单</w>
比赛 结果</w>
比 方
比方 说</w>
比 拟</w>
比 价</w>
每 到</w>
母 猪</w>
母 校</w>
殴 打</w>
残 余</w>
死 水</w>
死 板</w>
死 地</w>
死 因</w>
死 亡
步 调</w>
此 而已</w>
正 色</w>
正 统</w>
正 文</w>
正 忙
正忙 着</w>
正 大</w>
正 向</w>
正 值</w>
正 中间</w>
止痛 药</w>
歇 歇</w>
歇 斯
歇斯 底
歇斯底 里</w>
歇 会儿</w>
款 式</w>
款 子</w>
欺 压</w>
欧 美</w>
欣 然</w>
欣 喜</w>
欢 送会</w>
欢 腾</w>
欢 欣</w>
橡 皮</w>
橄榄 油</w>
樱 木</w>
模 糊
榨 取</w>
植 被</w>
植 树
棒 极了</w>
检 索</w>
检 点</w>
梳 子</w>
框 框</w>
桃 体</w>
格 格</w>
根 源</w>
根 基</w>
核 桃</w>
栗 子</w>
柠 檬
染 红</w>
染 成</w>
枪 响</w>
枪 口</w>
枢 纽</w>
果 子
果 冻</w>
林 斯</w>
林 中</w>
枕 头
构 筑</w>
東 尼
東尼 奧</w>
来 时</w>
来 头</w>
条 儿</w>
束手 无
束手无 策</w>
杜 王
村 上</w>
杉 浦</w>
杉 本
杂 文</w>
杂 技</w>
杂 事</w>
机会 主义</w>
机 动
本 馆</w>
本 期</w>
本 文</w>
本 想</w>
本 届</w>
本 名</w>
本 厂</w>
末 班</w>
末 日</w>
未 经</w>
未 干</w>
未 咲
木 棍</w>
木 桶</w>
期 徒刑</w>
期 中
望 见</w>
朗 朗</w>
服务 业</w>
有效 期限</w>
有 雨</w>
有 权</w>
有 劳</w>
有 何</w>
最 为</w>
曾 祖母</w>
曲 奇
曲奇 饼</w>
暴 涨</w>
暗 算</w>
暗 处</w>
暖 炉</w>
暑 热</w>
暂 住</w>
景 物</w>
景 仰</w>
晨 风</w>
晚 间</w>
晚 期</w>
晚 到</w>
晓 之
显 贵</w>
显 而易见</w>
昭 彰</w>
星 光</w>
星 云</w>
昏 过去</w>
昏 昏沉沉</w>
昏 倒</w>
明 后天</w>
明 儿</w>
昂 扬</w>
旺 季</w>
时 针</w>
时 效</w>
时 性</w>
时 刻
时 代
早 来</w>
早 先</w>
日 经</w>
日 东</w>
既 然如此</w>
无穷 的</w>
无理 要求</w>
无 须</w>
无 赖</w>
无 谓</w>
无 言</w>
无 能
无 罪</w>
无 端</w>
无 益</w>
无 机
无 暇</w>
无 意识</w>
无 形
无 可</w>
无 余</w>
无 不</w>
旅行 社</w>
施 肥</w>
方向 盘</w>
新 西兰</w>
新 股</w>
新 疆</w>
新 品种</w>
斯 加</w>
斡 旋</w>
斑 马</w>
文学 作品</w>
文化 遗产</w>
文化 宫</w>
文化 大革命</w>
文 墨</w>
整 齐齐</w>
整 整齐齐</w>
敲 打</w>
数码 相机</w>
数 民族</w>
数 日</w>
数 年</w>
数 名</w>
散 失</w>
救 药</w>
敏 捷</w>
敌 情</w>
故事 情节</w>
政 变</w>
放 炮</w>
放 宽</w>
放 回</w>
攻 略</w>
攻 下</w>
改 變</w>
收藏 家</w>
收 货</w>
收 支
收 养</w>
攀 岩</w>
擦 拭</w>
播 音
播 送</w>
播 放
撞 车</w>
撕 毁</w>
摸 不着</w>
摧 残</w>
摔 了
摔了 一跤</w>
摔 下来</w>
摇 曳</w>
摇 摆</w>
摄 入</w>
搬 进</w>
搞 砸</w>
搀 和</w>
握 有</w>
握 手
插 花</w>
插 画</w>
插 头</w>
插 上</w>
提 起
提 琴
提 出
推 销员</w>
推 车</w>
接 线
接 受
探 照灯</w>
排 除
排 放</w>
排 场</w>
掏 钱</w>
掌 柜</w>
掉 落</w>
捧 腹大笑</w>
换 换</w>
换 句
换句 话说</w>
捡 起来</w>
捉 住</w>
挺 拔</w>
挺 好吃</w>
振 奋
挪 用</w>
挑 着</w>
挑 拨</w>
挑 剔</w>
按 着</w>
指甲 油</w>
指挥 员</w>
指 着</w>
指 摘</w>
挂 齿</w>
持 枪</w>
拼 死</w>
拘 留</w>
拖拉 拉</w>
拖 拖拉拉</w>
拖 延</w>
拐 弯抹角</w>
拍 张</w>
拉 门</w>
拉 手</w>
拉 得</w>
拉 圭</w>
拆 除</w>
拂 晓</w>
抽 空</w>
抬 起头来</w>
披 肩</w>
报 国</w>
抢 夺</w>
抚 慰</w>
折 纸</w>
折 中</w>
投机 倒把</w>
投 篮</w>
投 掷</w>
抑 郁</w>
把 子</w>
把 儿</w>
技术 员</w>
承担 责任</w>
找 回</w>
批 量生产</w>
批 改</w>
扭 转</w>
扬 扬</w>
扫 荡</w>
执 行
执 导</w>
扣 帽子</w>
打 鼓</w>
打 转</w>
打 车</w>
打 消</w>
打 小
扒 手</w>
手 风琴</w>
手 杖</w>
手 掌</w>
扁 桃体</w>
所在 地</w>
所 见</w>
所 用</w>
房 门</w>
截 断</w>
战斗 机</w>
战 机</w>
战 时</w>
战 壕</w>
战 争
戒 酒</w>
我 输</w>
我 画</w>
我 照</w>
我 活</w>
我 敢</w>
我 教</w>
我 愿</w>
我 心</w>
我 定</w>
我 妈</w>
成 群</w>
成 型</w>
成 功
成 交</w>
戏 法</w>
慷 慨
慰 问
慢慢 说</w>
慢慢 儿</w>
慢 点儿</w>
慌 失措</w>
愤 慨</w>
感 冒
感冒 药</w>
愚 昧</w>
意 料
愈 合</w>
愈 加</w>
惹 怒</w>
想 得
想 出</w>
想 先</w>
想 些</w>
惩 办</w>
惨 败</w>
惊 慌失措</w>
情 书</w>
悦 目</w>
悠 悠
悄 声</w>
恰 巧</w>
恭敬 不如
恭敬不如 从
恭敬不如从 命</w>
恩 惠</w>
恩 师</w>
恒 星</w>
恐 吓</w>
恋 情</w>
怯 懦</w>
性格 开朗</w>
急 刹车</w>
怠 慢</w>
思 量</w>
怎 能</w>
忽 而</w>
快 车</w>
快 来</w>
忘 得</w>
忘 带</w>
忍 心</w>
必 有
心 绪</w>
心 窍</w>
心 目</w>
心 病</w>
心 疼</w>
心 灵
心 怀
得 罪</w>
得 名</w>
得 动</w>
徒 劳</w>
很 香</w>
很 穷</w>
很 痒</w>
很 烂</w>
很 淡</w>
很 惨</w>
很 多
征 求意见</w>
往 东</w>
彬 有礼</w>
彬 彬有礼</w>
彩 旗</w>
录像 机</w>
录 片</w>
当 家</w>
当 季</w>
当 地人</w>
归 根
强 风</w>
强 暴</w>
强 劲</w>
弹 药</w>
张 表上</w>
张 家</w>
弓 和
弓和 箭</w>
异 国</w>
异 国
开 通</w>
开 过</w>
开 创</w>
度 蜜月</w>
废 墟</w>
应用 软件</w>
应 征
应 变</w>
应 不
应不 应该</w>
序 列号</w>
广告 牌</w>
幼 虫</w>
幸运 地</w>
幸 代</w>
年轻 一代</w>
年 龄
年 青人</w>
年 迈</w>
年 薪</w>
年 纪轻轻</w>
平 淡</w>
平 板</w>
平 局</w>
干 裂</w>
干 儿</w>
常 理</w>
常 来</w>
常 委会</w>
常 在</w>
帮 我</w>
帮 得</w>
帮 帮我</w>
帮 子</w>
帮 不了</w>
已 满</w>
已 成</w>
己 见</w>
差 事</w>
工作 调动</w>
工作 服</w>
工作 作风</w>
工 薪
工 整</w>
巡 游</w>
巡 回
巍 巍</w>
屹 立</w>
山水 画</w>
山 海关</w>
山 岭</w>
山 大</w>
山 县</w>
山 势</w>
屏 障</w>
屏 蔽</w>
届 时</w>
居 中</w>
尽 力
尽 其
尺 度</w>
尝 过</w>
尖 儿</w>
少 数民族</w>
少 先
小 龙虾</w>
小 麦粉</w>
小 鸟儿</w>
小 鶴</w>
小 额</w>
小 钱</w>
小 透
小 数点</w>
小 提琴
小 拇指</w>
小 小</w>
小 姬</w>
小 国</w>
小 偷
小偷 儿</w>
小 便宜</w>
小 伤</w>
小 企业</w>
小 不
封 印</w>
对 视</w>
富 山</w>
富 含</w>
寄 托</w>
宿 命</w>
宽 恕</w>
宽 度</w>
家庭 主妇</w>
家 们</w>
家 乡
宫 殿</w>
宣 誓</w>
客观 规律</w>
实 心</w>
实 体</w>
实 习
定 量</w>
定 下</w>
完 结</w>
完 澡</w>
完 成
完 事</w>
安乐 死</w>
安 顿</w>
安 息</w>
学习 外语</w>
存 活</w>
子 疼</w>
嫂 子</w>
婉 转</w>
婆 家</w>
威 尼斯</w>
委托 书</w>
委 曲</w>
委 婉</w>
妩 媚</w>
妖 怪</w>
妓 女</w>
妆 容</w>
如 流</w>
如 期</w>
好 长时间</w>
好 过</w>
好 萌</w>
好 色</w>
好 点</w>
好 日子</w>
好 多年</w>
女 神</w>
女 婿</w>
奥林匹 克</w>
奖 状</w>
奋 勇</w>
奉 还</w>
奉 献</w>
奉 命</w>
奇 数</w>
夹 住</w>
头 号</w>
失 色</w>
失 禁</w>
太 鼓</w>
太 软</w>
太 沉</w>
太 平</w>
太 帅</w>
天 热</w>
天 国</w>
天 内</w>
天 体</w>
大头 贴</w>
大会 堂</w>
大 驾光临</w>
大 道理</w>
大 话</w>
大 腿</w>
大 肠
大 眼</w>
大 熊猫</w>
大 灾难</w>
大 學</w>
大 字</w>
大 化</w>
大 作</w>
大 众
夜 行</w>
夜 市</w>
多样 性</w>
多佳 子</w>
多 时</w>
多 家</w>
多 天</w>
多 嘴</w>
多 云</w>
多 事</w>
外 路</w>
外 调</w>
外 科手术</w>
外 流</w>
外 文</w>
外 敌</w>
外 援</w>
外 壳</w>
外 号</w>
外 勤</w>
备 战</w>
备 份</w>
处 女
处 决</w>
处 世</w>
壶 里</w>
壮 烈</w>
壮 志</w>
壁 垒</w>
墩 墩</w>
增 进</w>
增 援</w>
塞 住</w>
塑 像</w>
基 板</w>
垂 柳</w>
坠 入</w>
坟 墓</w>
坑 洼洼</w>
坑 坑洼洼</w>
地 来</w>
地 学</w>
地 买</w>
地 中
地中 海</w>
在生活 上</w>
在我 心中</w>
在 精神上</w>
圣 节</w>
圣 经</w>
土豆 泥</w>
土 耳其</w>
土 文物</w>
圆珠 笔</w>
圆 熟</w>
国际 性</w>
国务 院</w>
固 然</w>
围 起来</w>
围 棋</w>
园 林</w>
团结 起来</w>
团 团</w>
团 伙</w>
回 声</w>
回 升</w>
回 事儿</w>
四 肢</w>
四 川</w>
四 处
四 口</w>
噱 头</w>
嘴 八
嘴八 舌</w>
嘱 托</w>
嘈 杂</w>
嗓 子疼</w>
喷 出</w>
喝 彩</w>
喜剧 演员</w>
喜 马拉
喉 咙
喉咙 痛</w>
喂 养</w>
商业 街</w>
商 标
售 日</w>
唠 唠
唠唠 叨叨</w>
唐 代</w>
哲 学家</w>
哮 喘</w>
哭 声</w>
哪 门子</w>
哪 一年</w>
哥 儿
哑 巴</w>
咽 喉</w>
咨 询
咚 咚</w>
咖啡 吧</w>
咖 喱饭</w>
咕 咚
和 睦
咆 哮</w>
呼吸 道</w>
呱 嗒</w>
周 折</w>
周 前</w>
周 全</w>
告 一段
告一段 落</w>
呆 呆</w>
吸烟 区</w>
吸 气</w>
吸 入</w>
吵 起来</w>
吱 吱</w>
听不 进去</w>
听 歌</w>
听 来</w>
含 着</w>
吧 台</w>
吞 没</w>
向 左转</w>
后 要</w>
后 生</w>
后 台</w>
名 家</w>
同 盟</w>
同 意
同 年</w>
同 乡</w>
同 一天</w>
吉 他手</w>
合理 化</w>
合唱 团</w>
合 辙</w>
合 法
合 影</w>
吆 喝</w>
各 类</w>
吃大 亏</w>
吃不 饱</w>
吃 零食</w>
吃 不下</w>
叽 叽
叹 气</w>
可以 信赖</w>
可 贵</w>
可 贴</w>
可 数</w>
可 喜</w>
只 身</w>
口 碑</w>
口 才</w>
口 头上</w>
口 令</w>
口 中</w>
变 故</w>
变 形</w>
受 贿</w>
受 罪</w>
叔 伯</w>
发电 站</w>
发 麻</w>
发 达国家</w>
发 财</w>
发 行
发 芽</w>
发 痒</w>
发 条</w>
发 明
发 布
发 工资</w>
发 售日</w>
反动 分子</w>
反 胃</w>
反 攻</w>
双 层</w>
参考 文献</w>
参 谋</w>
参 军</w>
去 处</w>
原 意</w>
原 定</w>
原 子</w>
原 作</w>
厚 意</w>
压 器</w>
压 低</w>
压 不住</w>
厂 房</w>
卷 起</w>
危 难</w>
危 及</w>
印度 人</w>
印 在</w>
博览 会</w>
卖 空</w>
卖 点</w>
卖 弄</w>
卖 出去</w>
卖 会</w>
卖 不
卖不 出去</w>
单 间</w>
单 是</w>
单 人</w>
华盛 顿</w>
半 途而废</w>
半 边</w>
半 路上</w>
半 期</w>
半 月</w>
半 山腰</w>
千 金</w>
千 斤</w>
十 多年</w>
十 四
十 几个</w>
十 一点</w>
医 药</w>
区 间</w>
匮 乏</w>
北京 烤鸭</w>
北 地区</w>
化学 药品</w>
化 脓</w>
化 工厂</w>
匕 首</w>
包 容</w>
包 办</w>
勾 结</w>
劳 改</w>
动 脑筋</w>
务 请</w>
加 点</w>
加 工
加 倍</w>
办公 用品</w>
劝 阻</w>
劝 解</w>
劝 导</w>
副 本</w>
剪 纸</w>
剩 饭</w>
剥 夺</w>
前所未 有</w>
前 段时间</w>
前 有</w>
前 例</w>
削 弱</w>
刺 绣</w>
制 药</w>
制 动</w>
制 作方法</w>
刮 目相看</w>
别 理</w>
别 字</w>
别 太</w>
别 去</w>
利用 职权</w>
利 福
利 害
初 一</w>
创造 者</w>
创造 性</w>
创 可贴</w>
划 船</w>
划 线</w>
划 破</w>
刊 载</w>
分析 家</w>
分 期付款</w>
分 娩</w>
分 头</w>
击 打</w>
出生 地</w>
出 马</w>
出 门
出 海</w>
出 土文物</w>
出 土</w>
出 发
出 力</w>
出 击</w>
出 借</w>
凹 陷</w>
几 页</w>
几 针</w>
几 篇</w>
几 秒</w>
几 年来</w>
几 名</w>
凝 胶</w>
凝 神</w>
凛 冽</w>
凌 辱</w>
凉 水</w>
凄 凉</w>
冷 藏
决 胜</w>
决 定
冲 过来</w>
冲 刺</w>
冲 刷</w>
冰 雹</w>
冬 海
军 舰</w>
军 民</w>
军 民
写 法</w>
冗 长</w>
冒 烟</w>
再好 不过</w>
再也 不会</w>
内 能</w>
养 女</w>
具体 情况</w>
其 自然</w>
兵 役</w>
共 青
共 度</w>
公交 车站</w>
八 千</w>
全 盘
全 村</w>
全 数</w>
全 军</w>
全 会</w>
入 馆</w>
入 胜</w>
入 社</w>
党 派</w>
免税 店</w>
克服 困难</w>
光 看</w>
光 溜溜</w>
先进 经验</w>
先 辈</w>
先 别</w>
先 不说</w>
充 盈</w>
元 件</w>
儿 个</w>
储 藏</w>
偶 数</w>
健康 检查</w>
健康 成长</w>
健康 康</w>
健 健康康</w>
做 作</w>
偏 僻</w>
假 面</w>
倾 心</w>
倒 数</w>
修 长</w>
修 路</w>
修 正
信 条</w>
信 服</w>
信 奉</w>
保守 主义</w>
保 育</w>
保 暖</w>
保 姆</w>
保 修
保 佑</w>
促 使</w>
便 饭</w>
便 衣</w>
侦 查</w>
例 会</w>
佩 带</w>
你 治好</w>
余 年</w>
余 兴</w>
何 足
何 种</w>
何 地</w>
体 化</w>
体 力劳动</w>
住宿 费</w>
低 着头</w>
伸 直</w>
伤 痛</w>
伤 亡</w>
传 遍</w>
会 错</w>
会 花</w>
会 演</w>
会 开</w>
会 回</w>
会 出</w>
伙 计</w>
优 质</w>
优 先
众 不同</w>
休 止</w>
伎 俩</w>
任 用</w>
们 儿</w>
以 防</w>
令人 高兴</w>
令人 讨厌</w>
代 代
仙人 掌</w>
他 费</w>
他 成</w>
他 准</w>
介绍 所</w>
介 入</w>
人民 法院</w>
人民 日报</w>
人 组</w>
人 称</w>
人 来
人 命</w>
人 世</w>
人 不
亲 友</w>
亮 晶晶</w>
亮 光</w>
京都 府</w>
产 资源</w>
产 生
交 集</w>
交 错</w>
交 配</w>
交 织</w>
交 响
交 上去</w>
五十 米</w>
五 名</w>
云 层</w>
二十 多年</w>
二十 世纪</w>
二 月</w>
二 分之一</w>
二 净</w>
事已 至此</w>
事业 部</w>
事 真</w>
乱 说</w>
买 房子</w>
买 个</w>
买 下来</w>
书 签</w>
书 生</w>
书 法
书 房</w>
书 中</w>
乡 镇
乡 里</w>
乡 亲</w>
习惯 性</w>
习 题</w>
九 折</w>
乘 凉</w>
之 明</w>
之 恩</w>
之 年</w>
之 二</w>
义 务
义 军</w>
举 杯</w>
举 出</w>
主题 曲</w>
主办 方</w>
主 语</w>
主 见</w>
主 要
主 管
主 流</w>
主 席
为人 知</w>
为人 所知</w>
中国 共产党</w>
中 转</w>
中 篇小说</w>
中 枢</w>
中 将</w>
中 型</w>
个 数</w>
严重 性</w>
两 码事</w>
两 用</w>
两 用
两 样</w>
两 支</w>
两 层</w>
两 夜</w>
丛 里</w>
世界 遗产</w>
世界 观</w>
与 此
与 会
与 众不同</w>
不足 为
不论 是</w>
不知所 措</w>
不用 谢</w>
不懂 装懂</w>
不太 能</w>
不 顺心</w>
不 顺</w>
不 迭</w>
不 详</w>
不 至</w>
不 羁</w>
不 相识</w>
不 由</w>
不 浅</w>
不 正
不 晚</w>
不 差</w>
不 容许</w>
不 唧</w>
不 听话</w>
不 住
不 久
不 上
下 酒菜</w>
下 酒</w>
下 旬</w>
下 台</w>
下 不
上下 下</w>
上 菜</w>
上 盖</w>
上 旬</w>
上 所述</w>
上 头</w>
上 周日</w>
上 半身</w>
上 上下下</w>
三角 裤</w>
三天 三夜</w>
三十 岁</w>
三 项</w>
三 日</w>
三 块</w>
三 名</w>
三 千</w>
万 年</w>
万 圣节</w>
万 丈</w>
七 年</w>
七 嘴八舌</w>
七 分</w>
一阵 阵</w>
一言 不发</w>
一线 希望</w>
一百 年</w>
一百 多</w>
一年 四季</w>
一年 一度</w>
一干 二净</w>
一个 多月</w>
一个 团</w>
一 问</w>
一 锅</w>
一 转眼</w>
一 秒</w>
一 碟</w>
一 码事</w>
一 眨眼</w>
一 盒</w>
一 盆</w>
一 清二
一 死</w>
一 桌</w>
一 朵花</w>
一 晃</w>
一 时间</w>
一 早</w>
一 无所
一 帮</w>
一 如</w>
一 叠</w>
一 任</w>
一 举
v e</w>
rin ce</w>
oo k</w>
o p
ll o</w>
h e</w>
an d</w>
Y es</w>
T V</w>
S ir</w>
S G</w>
R E
P rince</w>
M E</w>
M E
H I
E O</w>
C h
C EO</w>
7 2</w>
3 8</w>
20 15</w>
19 80</w>
19 60</w>
19 6
10 000</w>
1 60</w>
1 3
1 146</w>
1 .5</w>
. 3</w>
鼾 声</w>
鼠 狼</w>
鼓 足
鼓 起</w>
默 认</w>
默 契</w>
黑 线</w>
黑 漆
黑漆 漆</w>
黑 子</w>
黄 鼠狼</w>
黄 酒</w>
黄 浦
麻 袋</w>
麻 疹</w>
麻 烦
麻烦 事</w>
麻 婆
麻婆 豆腐</w>
鹿 鹿</w>
鸡 蛋
鸡 皮
鸡皮 疙瘩</w>
鸡 毛
鸟 兽</w>
鳞 伤</w>
鳕 鱼</w>
鲜 活</w>
鱼 饵</w>
鬼 把戏</w>
高利 贷</w>
高 高</w>
高 跟
高跟 鞋</w>
高 耸</w>
高 林
高 处</w>
高 低
高 亢</w>
高 个子</w>
骨 牌</w>
骑 着
骑着 马</w>
骄傲 自满</w>
驾 车</w>
驱 散</w>
驮 子</w>
马蹄 声</w>
马 马
马马 虎虎</w>
马 蜂窝</w>
马 背上</w>
马 灯</w>
香 山</w>
首 页</w>
首 要</w>
首 席</w>
馆 子</w>
饲养 员</w>
餐 会</w>
飞 过去</w>
飞 车</w>
飞 扬</w>
飘 飘
飘 落</w>
风湿 病</w>
风 趣</w>
风 尚</w>
风 寒</w>
风 云</w>
领 教</w>
领 地</w>
领 到</w>
预 知</w>
预 估</w>
须 知</w>
顺 其自然</w>
顶 点</w>
顶 峰</w>
音 石</w>
音 器</w>
鞭 打</w>
革命 家</w>
面 部</w>
面 朝</w>
非常 感激</w>
非常 容易</w>
非 议</w>
静 脉
静 止</w>
青 翠</w>
青 睐</w>
青 岛</w>
青 哥</w>
霸 凌</w>
露 珠</w>
震 怒</w>
雷 鸣
雷 动</w>
零售 业</w>
零 散</w>
雪 片</w>
雪 人</w>
雨 雪</w>
雨 点</w>
雕 塑</w>
集 结</w>
雄 心</w>
难 用</w>
难 处</w>
隶 属于</w>
隐 性</w>
随 风</w>
随 地</w>
陷 入
陪 审
陪审 员</w>
险 些</w>
院 长</w>
院 校</w>
限 量</w>
限 内</w>
降 雨量</w>
陈 规</w>
附加 费</w>
附 送</w>
附 属
附属 品</w>
阿拉 斯加</w>
阿 诺</w>
阿 嚏</w>
阻 拦</w>
阶 段
阶段 性</w>
阴 冷</w>
防 护</w>
阐 明</w>
闻 风
闹 病</w>
闸 门</w>
闷 闷
闷闷 不乐</w>
间 距</w>
间 谍
闲 气</w>
闲 杂
问 讯</w>
闭门 羹</w>
闭 幕</w>
闪 电</w>
门 道</w>
门 诊
门 声</w>
開 心</w>
长途 旅行</w>
长 达</w>
长 谈</w>
长 眠</w>
长 子</w>
长 出</w>
长 久
锦 绣
错 乱</w>
锈 了</w>
锁 定</w>
铺 设</w>
铭 记在心</w>
铁 桥</w>
铁 匠</w>
钱 来</w>
钱 儿</w>
钉 钉子</w>
针 脚</w>
金融 市场</w>
金 泽</w>
野 咲
野咲 子</w>
重 整</w>
重 大
里 子</w>
采 集</w>
采 购
醇 厚</w>
酿 酒</w>
都 市
郎 当</w>
邦 交</w>
那 片海</w>
那 棵树</w>
那 棵</w>
那 才</w>
那 头</w>
那 事</w>
避 难
遮 掩</w>
遗传 基因</w>
遗 物</w>
遗 弃</w>
道 夫</w>
道 士</w>
遒 劲</w>
遏 制</w>
遍 体
遍体 鳞伤</w>
遇 难</w>
逼 迫</w>
造 田</w>
逛 街</w>
通 告</w>
通 勤</w>
通 俗</w>
這 些</w>
递 员</w>
透 析</w>
选择 性</w>
逃 出来</w>
适 中</w>
送 还</w>
送 礼物</w>
送 点</w>
退 还给</w>
退 步</w>
追 不上</w>
迷 你</w>
迪 士
迪士 尼</w>
连锁 店</w>
连接 起来</w>
连 载</w>
连 环</w>
连 环
连 同</w>
连 个</w>
违 规</w>
远 近</w>
远 路</w>
远 房</w>
进 程</w>
进 晚餐</w>
进 修
这一 着</w>
这 阵儿</w>
这 艘</w>
这 番</w>
这 水</w>
这 待</w>
这 堆</w>
这 匹马</w>
这 倒</w>
这 俩</w>
这 下子</w>
还 醒</w>
还 用</w>
还 款</w>
近 几年来</w>
运动 鞋</w>
运动 场</w>
迎 头</w>
迈 出</w>
过滤 器</w>
过敏 性</w>
过 长</w>
过 路人</w>
过 滤</w>
过 婚</w>
迅 猛</w>
达 尔
边 远</w>
辩证 法</w>
辩 驳</w>
辞 令</w>
辛 酸</w>
辛 亥
辛亥 革命</w>
输 赢</w>
辉 日东</w>
辈 辈</w>
轻 而易
轻而易 举</w>
轻 心</w>
轻 型</w>
轰 鸣</w>
软 软</w>
轮 班</w>
轮 换</w>
转眼 间</w>
转 折</w>
轩 昂</w>
车 窗</w>
车 灯</w>
车 时</w>
车 头</w>
车 夫</w>
躲 到</w>
身 穿</w>
身 材
身 无
身 心
身 姿</w>
身 之处</w>
身 世</w>
踪 迹</w>
踌 躇</w>
踉 跄</w>
跳 高</w>
跳 远</w>
跳 绳</w>
跳 伞</w>
路 军</w>
跟 随</w>
跟 我来</w>
跑 过来</w>
足 有</w>
趋 向</w>
越 野
超级 大国</w>
超 飞</w>
超 额</w>
超 群</w>
起 路来</w>
起 色</w>
起 义军</w>
赶 路</w>
赶 出</w>
赶 上来</w>
走 错</w>
走 钢丝</w>
走 边</w>
走 起路来</w>
走 得</w>
走 失</w>
赛 场</w>
资金 周转</w>
资 企业</w>
贺 电</w>
贴 切</w>
贯 穿</w>
贯 彻
购买 力</w>
购 置</w>
贫 民</w>
质 疑</w>
货 币
账 面</w>
败 给</w>
败 局</w>
贤 明</w>
负债 表</w>
负 面</w>
负 担
豆 浆</w>
谱 写</w>
谱 儿</w>
谦 让</w>
谋 划</w>
调 遣</w>
调 来</w>
调 情</w>
调 剂</w>
课 桌</w>
读 生</w>
读 法</w>
诺 亚</w>
诸 君</w>
请求 书</w>
请 贵</w>
请 往</w>
请 帖</w>
请 勿
说 闲话</w>
说 白
诱 骗</w>
诬 陷</w>
诬 告</w>
诡 辩</w>
话 筒</w>
诚 心</w>
诙 谐</w>
诗 文</w>
试 用品</w>
评 级</w>
评 比</w>
讽 刺
论 理</w>
许 过</w>
讲习 会</w>
记忆 里</w>
记忆 力</w>
记 录下来</w>
训 练
让 路</w>
让 你
讨人 喜欢</w>
认 错误</w>
认 人</w>
认 书</w>
订购 单</w>
订 单
计划 性</w>
變 成</w>
警 卫</w>
誓 约</w>
言 谈</w>
触 碰</w>
触 犯</w>
解放 战争</w>
解 释
解 剖</w>
解 冻</w>
角 儿</w>
觉 着</w>
视 听</w>
规 制</w>
观光 旅游</w>
见 面
见 谅</w>
覺 得</w>
覆 没</w>
要 钱</w>
要 开</w>
要 关头</w>
要 作</w>
要 不得</w>
西西 比
褒 奖</w>
裙 舞</w>
装 饰
装 配
装 订</w>
裂 纹</w>
裁 定</w>
袅 袅</w>
衷心 希望</w>
衰 竭</w>
表现 力</w>
补 正</w>
补 丁</w>
行行 好</w>
行动 计划</w>
行 医</w>
行 列</w>
行 不
血 鬼</w>
血 糖
血糖 值</w>
血 因子</w>
蠕 动</w>
螺旋 桨</w>
螺 钉</w>
蝶 结</w>
蝴 蝶结</w>
蜂 巢</w>
蛋 儿</w>
虾 仁</w>
虫 蛀</w>
虚 荣</w>
虚 线</w>
虚 心
虎 口</w>
藉 口</w>
薄 礼</w>
薄 弱</w>
蓬 蓬</w>
蓝 光</w>
蒸 气</w>
蒙 古</w>
葬 送</w>
落 泪</w>
落 得</w>
落 寞</w>
落 伍</w>
落 不明</w>
落 下来</w>
营业 日</w>
营 地</w>
萌 芽</w>
菜 里</w>
菜 园</w>
荧 光</w>
荡 漾</w>
荞 麦</w>
草 裙舞</w>
草 药</w>
草 丛里</w>
茶 碗</w>
茶 具</w>
茅 屋</w>
茁 壮</w>
茁 壮
茁壮 成长</w>
英雄 纪念碑</w>
英语 学校</w>
英 镑</w>
英 里</w>
英 豪</w>
英 烈</w>
英 武</w>
英 國</w>
英 二</w>
苦 衷</w>
若 有</w>
苗 头</w>
苗 儿</w>
苏格 拉
苏格拉 底</w>
苏格 兰</w>
花 色
花 火</w>
花 店</w>
芬 芳</w>
芬 兰</w>
节骨 眼</w>
节 节</w>
节 炎</w>
色 色</w>
色 列</w>
良 田</w>
良 久</w>
船 身</w>
航 道</w>
航 海</w>
舞 姿</w>
舒 暢</w>
舒 坦</w>
舍 五
舍五 入</w>
舆 论
致 词</w>
至 诚</w>
臭 架子</w>
臭 小子</w>
臭 名
自由 职业
自由职业 者</w>
自然 风光</w>
自卑 感</w>
自作 自
自作自 受</w>
自作 主张</w>
自 理</w>
自 暴
自暴 自
自暴自 弃</w>
自 新</w>
自 慰</w>
自 便</w>
腿 子</w>
腾 出</w>
腺 癌</w>
腹 痛</w>
腰 部</w>
腕 力</w>
脸 蛋儿</w>
脸 蛋</w>
脸 相
脸相 迎</w>
脚 跟</w>
脚 痛</w>
脚 点</w>
脑 海中</w>
脑 儿</w>
脏 水</w>
能 见</w>
能 源
能 游</w>
能 比</w>
能 夠</w>
胸 襟</w>
胳膊 肘</w>
胳 臂</w>
胡 椒</w>
胡 扯</w>
胜 者</w>
胃 里</w>
胃 痛</w>
胁 迫</w>
肿 胀</w>
肩 负着</w>
肥 田</w>
股票 投资</w>
股 份
肠 子</w>
肉 食</w>
肉 头</w>
肃 穆</w>
联合 国
联 防</w>
联 运</w>
联 赛</w>
联 欢</w>
职业 生涯</w>
职 人员</w>
聊 得</w>
耳 目</w>
耳 欲
耳欲 聋</w>
耐 力</w>
而 逃</w>
而 后</w>
而 发</w>
考试 合格</w>
考 察
考 完
考完 试</w>
考 古
老实 人</w>
老 账</w>
老 旧</w>
老 年
老 将</w>
老 先生</w>
翻 天</w>
翠 绿</w>
羽 田
羽田 机场</w>
群众 性</w>
羞 怯</w>
羊毛 衫</w>
羊 人</w>
署 名</w>
罗 林斯</w>
罐 装</w>
缤 纷</w>
缠 上</w>
缝 里</w>
缝 制</w>
编 织</w>
编 成</w>
缅 怀</w>
绿 洲</w>
绸 之路</w>
绷 带</w>
维 修
绣 花</w>
统一 战线</w>
绝 顶</w>
绝 非</w>
绝 对
绚 烂</w>
绕 弯子</w>
结结 巴巴</w>
结核 病</w>
结 核</w>
结 冰</w>
经济 学家</w>
经 纪
经 手</w>
经 典</w>
终 归</w>
纹 身</w>
纸 片</w>
纳 金</w>
纲 要</w>
纱 窗</w>
纪念 活动</w>
纪 录片</w>
约 期</w>
纤 巧</w>
红 豆</w>
红 绿灯</w>
红 着脸</w>
红 楼
红楼 梦</w>
繼 續</w>
繪 理</w>
繁 盛</w>
繁 星</w>
結 果</w>
紧张 局势</w>
紧 闭</w>
紧 要关头</w>
紧 凑</w>
索 道</w>
素 来</w>
精 疲力
精 悍</w>
精 光</w>
粮 食
粗 气</w>
算 不了</w>
简 陋</w>
简 化</w>
简 了</w>
签 合同</w>
策 动</w>
答 辩</w>
答 答</w>
筋 骨</w>
第二 张</w>
第一 轮</w>
第一 批</w>
第 几次</w>
第 五</w>
第 三天</w>
笔 误</w>
笔 试</w>
笔 法</w>
笔 挺</w>
笔 墨
笑 颜</w>
笑 脸相迎</w>
笑 笑</w>
笑 意</w>
端 午
端午 节</w>
童 话</w>
竟 会</w>
竞争 者</w>
站 不起来</w>
立 式</w>
立 功</w>
窥 探</w>
窗 边</w>
窗 前</w>
窄 小</w>
突 然
突然 袭击</w>
空 白
空 中
穗 子</w>
稿 件</w>
稳 稳
稠 密</w>
稀 薄</w>
稀 有</w>
移 动
秘 密
科 幻
种 族</w>
种 人</w>
秋 叶
秋叶 原</w>
私 自</w>
私 生活</w>
私 利</w>
秀 美</w>
离 港</w>
福利 待遇</w>
福 建</w>
禁止 通行</w>
禁 忌</w>
票 价</w>
神 速</w>
神 往</w>
祛 除</w>
祖 辈辈</w>
祖 祖辈辈</w>
社会 活动</w>
礼 教</w>
礼 品
礁 石</w>
磷 酸</w>
碱 性</w>
碰 触</w>
碟 子</w>
确 认书</w>
破烂 烂</w>
破 解</w>
破 破烂烂</w>
研 发</w>
砍 掉</w>
矿 井</w>
石 桥</w>
短 短</w>
短 处</w>
知识 产权</w>
瞭 望
瞭望 台</w>
瞒 不过</w>
瞎 话</w>
督 促</w>
睡 过</w>
睡 觉
睡 早起</w>
睡 前</w>
睁 不开</w>
着 瞧</w>
着 尾巴</w>
眼 熟</w>
眷 顾</w>
真 香</w>
真 难</w>
真 遗憾</w>
真 皮</w>
真 人</w>
看不 惯</w>
看 管</w>
看 点</w>
看 板</w>
看 报</w>
看 家
省 事</w>
盹 儿</w>
相 称</w>
相 思</w>
相 似
相 仿</w>
直 销</w>
直 径</w>
直 响</w>
盛 行</w>
盛 产</w>
盘 问</w>
盘 算</w>
盘 存</w>
盘 儿</w>
盖 儿</w>
盖 住</w>
监 禁</w>
监 控</w>
盆 栽</w>
皮 细胞</w>
皮 箱</w>
皮 层</w>
皮 大衣</w>
皑 皑</w>
皇 家</w>
的 歌</w>
百货 大楼</w>
百分 点</w>
百 里</w>
百 货</w>
百 米</w>
百 叶
百叶 窗</w>
百 倍</w>
白 花</w>
白 日</w>
白 旗</w>
白 发</w>
發 現</w>
瘦 下来</w>
痛 楚</w>
痛 感</w>
痛 得</w>
痘 痘</w>
病 菌</w>
病 理学</w>
病 死</w>
病 势</w>
病 假</w>
疼 爱</w>
疙 瘩
疑 心</w>
疑 团</w>
疏 散</w>
當 作</w>
留 级</w>
畅 谈</w>
画 图</w>
男 方</w>
男 主</w>
电子 计算机</w>
电动 汽车</w>
电 筒</w>
电 磁
电 扇</w>
由 不得</w>
田径 比赛</w>
用户 名</w>
用 意</w>
用 尽</w>
生日 会</w>
生命 力</w>
生产 队</w>
生 疏</w>
生 火</w>
生 出</w>
甜 美</w>
甜 甜
甘 蔗</w>
甄 别</w>
瓤 儿</w>
琵 琶</w>
琐 碎</w>
理所 应当</w>
理 说</w>
理 解
理 睬</w>
理 性</w>
理 事会</w>
球 迷</w>
球 形</w>
班 委会</w>
班 会</w>
珍 视</w>
珍 珠</w>
现金 流量</w>
现 身</w>
现 存</w>
环境 污染</w>
环 游</w>
王 八
玄 虚</w>
猫 猫</w>
猩 猩</w>
猛 进</w>
狙 击</w>
狂 欢</w>
犯罪 行为</w>
犯 过</w>
犯 规</w>
特 长</w>
特 权</w>
牵 挂</w>
牵 引</w>
牵 引
牧 羊人</w>
牢 房</w>
牛 马</w>
牛 肉饼</w>
牙 刷</w>
片 段</w>
爷 们</w>
父 母
父 子</w>
爱 我
爱我 吗</w>
爱 怜</w>
爱 劳动</w>
爬 行</w>
熟 透</w>
熔 炼</w>
熏 制</w>
照明 弹</w>
照 管</w>
煤 矿</w>
煤 气
焦 糖</w>
烹 调</w>
热烈 欢迎</w>
热 热</w>
烧 饼</w>
烧 瓶</w>
烧 毁</w>
烦 闷</w>
烦 心事</w>
烤 肉店</w>
烤 箱</w>
烟 袋</w>
烈 日</w>
点 缀</w>
点 点</w>
点 会</w>
点 亮</w>
炸 鸡
炭 火</w>
灾 地区</w>
灵 敏
灵敏 度</w>
灵 光</w>
灯 火
灭 火</w>
灭 火
火 速</w>
火 药</w>
火 箭
火 气</w>
火 暴</w>
火 大</w>
火 上</w>
灌 输</w>
激 活</w>
激 昂</w>
激 怒</w>
激 光
潮 水</w>
潜水 艇</w>
潜 艇</w>
漫 天</w>
漠 然</w>
演 变</w>
漏 气</w>
漂 亮
滥 调</w>
满 脑子</w>
滞 销</w>
滞 纳金</w>
滚 烫</w>
滚 出来</w>
滋 长</w>
溪 流</w>
溜 走</w>
溜 冰</w>
湛 蓝</w>
游 记</w>
游 移</w>
游 泳
渴 求</w>
温 顺</w>
温 情</w>
温 室</w>
温 室
温室 效应</w>
清 秀</w>
清 查</w>
清 凉
混 账</w>
淳 朴</w>
深入 群众</w>
深 浅</w>
深 意</w>
深 得</w>
深 刻
深刻 理解</w>
深 信</w>
淮 河</w>
液 化</w>
润 滑
涣 散</w>
涌 现</w>
消 瘦</w>
消 气</w>
消 毒
消 去</w>
涂 装</w>
涂 得</w>
涂 上</w>
浸 透</w>
海水 浴</w>
海 运</w>
海 湾</w>
海 拔</w>
浴 场</w>
浮 沉</w>
浓 缩</w>
浓 密</w>
浑 厚</w>
浅 薄</w>
浅 草</w>
浅 显</w>
流 速</w>
流 言</w>
流 气</w>
流 向</w>
活 塞</w>
活 儿
活儿 干</w>
活 像</w>
洪 亮</w>
洞 里</w>
洗 碗</w>
洗 洗</w>
洗 一洗</w>
洒 落</w>
洒 水</w>
洋 子</w>
洁 白</w>
波 澜</w>
波 涛</w>
泡 菜</w>
泡 沫
法 网</w>
法 国
法 办</w>
法 制</w>
治 不好</w>
油 炸</w>
油 泥</w>
油 水</w>
油 子</w>
河 山</w>
河 上</w>
沥 沥</w>
没 错儿</w>
没 空</w>
没 洗</w>
没 戏</w>
没 干</w>
没 处</w>
没 叫</w>
没 变</w>
没 人会</w>
沉 稳</w>
污 蔑</w>
江 面</w>
江 边</w>
汗 腺</w>
汇 编</w>
永 泽</w>
水手 服</w>
水 电站</w>
水 火
水 沟</w>
水 晶</w>
水 儿</w>
水 仙</w>
水 从</w>
氨 酸</w>
气象 台</w>
气 蓬勃</w>
气 腾腾</w>
气 管炎</w>
气 泡</w>
气 性</w>
气 坏</w>
气 不
民 用
毫 升</w>
毛 虫</w>
毕业 证书</w>
比 试</w>
比 去</w>
比 分</w>
毒 蛇</w>
毒 草</w>
毒 品</w>
每 周六</w>
殷 实</w>
死 鬼</w>
死 胡同</w>
死 抠</w>
死 劲儿</w>
歪 歪
武 艺</w>
武 断</w>
正 门</w>
正 规
正 常
正 传</w>
正 义
正 为</w>
止 境</w>
歌舞 伎</w>
款 单</w>
欧 姆</w>
欣 然
欢 心</w>
次 要</w>
橱 窗</w>
横 道</w>
横 行</w>
横 眉
横 向</w>
植树 造林</w>
植 树</w>
棒 球场</w>
棋 子</w>
棉 布</w>
梨 子</w>
梦 野咲子</w>
梗 阻</w>
桂 林</w>
栽 赃</w>
栽 种</w>
格 斗</w>
根本 上</w>
根 深
栖 息
栖息 地</w>
树 荫</w>
树 梢</w>
栏 里</w>
栏 内</w>
标 注</w>
标 杆</w>
查 问</w>
查 字典</w>
查 出</w>
染 色
某 位</w>
枯 萎</w>
枪 手</w>
极 小</w>
极 其
板 球</w>
松 柏</w>
松 手</w>
松 快</w>
杰 森</w>
来 面目</w>
来 意</w>
来 客</w>
条 河</w>
条 形
条形 码</w>
杠 杆</w>
村 民</w>
杏 仁</w>
李 先生</w>
杂技 演员</w>
杂 项</w>
杂 色</w>
杂 念</w>
杀 气</w>
机器 翻译</w>
机 组</w>
本 部</w>
本 来面目</w>
末 年</w>
未 遂</w>
木 偶</w>
期 限内</w>
期 求</w>
期 完成</w>
朝 鲜</w>
朝 气蓬勃</w>
朝 气</w>
朗 读</w>
服务 公司</w>
朋 克</w>
有多 远</w>
有 點</w>
有 股</w>
有 线
有 方</w>
有 数</w>
有 成</w>
有 戏</w>
有 心人</w>
有 心</w>
有 名气</w>
有 功</w>
有 何
有 位</w>
有 事
月 饼</w>
最高 法院</w>
最 难</w>
最 怕</w>
曹 操</w>
更 让人</w>
更 替</w>
更 上
曲 曲</w>
暴 发</w>
暴 利</w>
暗 面</w>
暗 里</w>
暗 淡</w>
暗 暗</w>
暖 流</w>
暖 暖
智 障</w>
普 照</w>
晕 船</w>
晒 干</w>
晒 太阳</w>
显 露</w>
显 明</w>
昭 雪</w>
春咲 千</w>
春 耕</w>
春 光</w>
星 际</w>
明 月</w>
明 媚</w>
旷 工</w>
时 薪</w>
时 日</w>
时 兴</w>
早 睡早起</w>
早 有</w>
早 安</w>
早 地</w>
旧 书店</w>
日常 用品</w>
日夜 夜</w>
日 见</w>
日 有</w>
日 日夜夜</w>
日 前</w>
日 内</w>
日 光
无所 畏惧</w>
无可 替代</w>
无关 紧要</w>
无人 岛</w>
无 量</w>
无 止境</w>
无 核</w>
无 意
无 情
无 害</w>
无 处
无 垠</w>
旋 风</w>
旅行 团</w>
旅行 包</w>
旁 观</w>
方 位</w>
方 人</w>
新闻 记者</w>
新闻 报道</w>
新 鞋</w>
新 药</w>
新 的
新 旧社会</w>
新 山</w>
新 婚
新 作</w>
新 任</w>
新 人
斯 坦</w>
斩 断</w>
斑 斓</w>
斑 斑</w>
文艺 界</w>
文化 差异</w>
文 静</w>
文 采</w>
文 辞</w>
文 科</w>
文 凭</w>
数 额</w>
数 百万</w>
数 不清</w>
敬 爱</w>
敬 佩</w>
散 散</w>
散 播</w>
散 心</w>
敞 着</w>
教学 计划</w>
教学 方法</w>
教 皇</w>
救 治</w>
故 作</w>
政 界</w>
放心 不下</w>
放 鞭炮</w>
放 点</w>
改 革
改 过</w>
改 良
收 容</w>
支 派</w>
操 场上</w>
播音 员</w>
播 报</w>
撤 走</w>
撒 气</w>
撒 手</w>
撂 下</w>
摘 录</w>
摔 打</w>
摔 坏</w>
摊 儿</w>
摇 着</w>
摆 好</w>
摄影 机</w>
摄 氏</w>
搬 走</w>
搞好 工作</w>
搞 上去</w>
搜 捕</w>
搜 寻</w>
搅 拌
揣 测</w>
插 进</w>
插 秧</w>
提 着</w>
提 名</w>
提 供
描 画</w>
推 荐
推 敲</w>
接 续</w>
接 济</w>
接 力
探 求</w>
掠 过</w>
排 序</w>
掌 管</w>
掉 以
掉以 轻心</w>
授 粉</w>
掀 动</w>
换 洗</w>
捡 起</w>
损 益</w>
捍 卫</w>
挺 直</w>
挫 败</w>
挪 动</w>
挨 骂</w>
挥 棒</w>
挥 之
挥之 不去</w>
挤 出</w>
挡 风
指 明</w>
挂 名</w>
拿手 菜</w>
拿 个</w>
拿 不住</w>
拼 盘</w>
拼 了
拼了 命</w>
拷 打</w>
拦 路
拥 堵</w>
招 引</w>
招 工</w>
拍 马</w>
拍 打</w>
拍 得</w>
拍 卖会</w>
拍 个</w>
拉 过</w>
拉 车</w>
拉 伸</w>
拂 面</w>
抽 签</w>
抽 不出</w>
抵 触</w>
抵 消</w>
抵 押
报 恩</w>
报 名
报 关</w>
抛 出</w>
抚 摩</w>
折 扣
折 射</w>
抗 生素</w>
抗 拒</w>
投 来</w>
投 影
投 合</w>
抓 起</w>
抓 到</w>
抒 发</w>
把 柄</w>
技术 性</w>
承 认错误</w>
找 麻烦</w>
找 人</w>
批 判
批判 性</w>
扶 植</w>
扭 扭</w>
扫描 仪</w>
扩 建</w>
执 拗</w>
执 意</w>
执 念</w>
扣 款</w>
打字 机</w>
打 盹</w>
打 死</w>
打 捞</w>
打 折扣</w>
打 成</w>
打 开门</w>
打 垮</w>
打 听
打听 一下</w>
打 住</w>
扑 鼻</w>
扑 通一声</w>
才 智</w>
手机 号码</w>
手 稿</w>
手 持</w>
手 心</w>
手 办</w>
所 言</w>
所 困</w>
所 向
房 屋
房 产</w>
战 局</w>
我想 学</w>
我 选</w>
我 边</w>
我 行</w>
我 算</w>
我 省</w>
我 换</w>
我 弹</w>
我 常</w>
我 困</w>
我 厂</w>
我 作</w>
我 休</w>
成 灾</w>
成 心</w>
成 品</w>
成 人
成 不变</w>
成 不了</w>
懒 洋洋</w>
懒 汉</w>
懂 事</w>
慰 劳</w>
慢 腾腾</w>
慈 爱</w>
感 知</w>
感 慨
感 情
感 叹</w>
意志 坚强</w>
意大利 人</w>
意 旨</w>
意 想不到</w>
惺 惺</w>
惹 事</w>
想 用</w>
想 将来</w>
惬 意</w>
惦 记</w>
惊 愕</w>
惊 叹</w>
情绪 高涨</w>
情 操</w>
情 态</w>
情 况
悲 观</w>
悲 伤
悲伤 地</w>
悬 空</w>
悬 殊</w>
悠 扬</w>
悟 空</w>
悔 改</w>
悔 悟</w>
悉 心</w>
恶 性</w>
恶 性
恳 请</w>
恫 吓</w>
恩 雅</w>
恩 情</w>
恋 歌</w>
总务 处</w>
总 爱</w>
总 汇</w>
总 归</w>
性 急</w>
性 价比</w>
急 救</w>
急 性子</w>
思 潮</w>
怕 人</w>
怒 吼</w>
怀 旧</w>
忽 闪</w>
快 餐</w>
快 活</w>
快 地</w>
忧 愁</w>
忧 患</w>
忠 厚</w>
忘 我</w>
忏 悔</w>
忍 耐力</w>
忌 讳</w>
必 有</w>
心 扉</w>
心 境</w>
心 坎</w>
德 国人</w>
微 波</w>
得 直</w>
得 太多</w>
得 力</w>
得 出
得出 结论</w>
很 难说</w>
很 能</w>
很 浓</w>
征 购</w>
征 程</w>
往 右</w>
彷 徨</w>
形 迹</w>
录像 带</w>
当 即</w>
当 众
归 类</w>
强加 于</w>
强 求</w>
强 强</w>
强 弱</w>
强 国</w>
强 势</w>
强 加</w>
张 西望</w>
张 脸</w>
引 爆</w>
引 出</w>
弊 病</w>
弄 掉</w>
弄 伤</w>
异 常
异 化</w>
开 起</w>
开 火</w>
开 演</w>
开 刀</w>
开 了
建 国</w>
康 德</w>
店 家</w>
应征 者</w>
庆祝 会</w>
广告 公司</w>
广 东
幽 暗</w>
幸 遭遇</w>
幸 存
幸存 者</w>
并 列</w>
并 举</w>
年 青</w>
年 纪念</w>
年 收入</w>
年 幼</w>
年 头儿</w>
年 头</w>
年 内</w>
年 事已
年事已 高</w>
平 衡
平 素</w>
平 民</w>
平 方</w>
平 定</w>
平 地</w>
平 台</w>
平 反</w>
干 洗</w>
帮 帮忙</w>
帮 帮</w>
帮 不上
帮不上 忙</w>
席 卷
席 位</w>
希 特勒</w>
师 资</w>
师 父</w>
布 鞋</w>
市 面上</w>
巴 西
差 异化</w>
差 别
巨 响</w>
工薪 阶层</w>
工作 过度</w>
工 龄</w>
工 钱</w>
工 科</w>
工 时</w>
工 农业</w>
工 具
工 人
巡 逻
巡 视</w>
川 岛</w>
嶙 峋</w>
崽 子</w>
崩 坏</w>
岛 国</w>
岂 能</w>
山 间</w>
山 崖</w>
居 酒</w>
局 促</w>
尾 君</w>
尽 心
就是 指</w>
就 读</w>
少 子</w>
小 露</w>
小 雨</w>
小 规模</w>
小 菜</w>
小 聪明</w>
小 结</w>
小 礼</w>
小 睡</w>
小 男孩</w>
小 燕子</w>
小 气</w>
小 桃</w>
小 李</w>
小 春</w>
小 明</w>
小 惠</w>
小 弟</w>
小 巷</w>
小 字</w>
小 妹</w>
小 型
小 卖
對 方</w>
尊 称</w>
射 门</w>
寻 觅</w>
对外 贸易</w>
对 贵</w>
对 联</w>
对 折</w>
对 准</w>
对 冲</w>
对 不上</w>
寝 室</w>
寓 意</w>
寒 潮</w>
富 贵</w>
富 豪</w>
富 强</w>
密 西西比
密 林</w>
密 密
寄 过来</w>
宽 大</w>
家庭 环境</w>
家庭 成员</w>
家 园</w>
家 业</w>
害 臊</w>
室 温</w>
客 船</w>
审 问</w>
实 说</w>
实 时</w>
宜 人</w>
定 金</w>
定 理</w>
官 兵</w>
宗 派</w>
宗 教
完全 恢复</w>
完全 一致</w>
完 后</w>
安 抚</w>
安 打</w>
守 旧</w>
守 住</w>
孩 童</w>
学 龄
学 弟</w>
孤 寂</w>
孙 悟空</w>
存 处</w>
存 储
存 亡</w>
字 形</w>
字 句</w>
孔 子</w>
子 皮</w>
嫌疑 犯</w>
媽 媽</w>
媳 妇
媳妇 儿</w>
婶 儿</w>
婚 纱</w>
娴 熟</w>
威 武</w>
威 望</w>
委 派</w>
委 托人</w>
委 任</w>
始 终
姆 斯</w>
妆 饰</w>
如 其
好 闲</w>
好 长</w>
好 痒</w>
好 烦</w>
好 快</w>
好 似</w>
奶 粉</w>
女 方</w>
女 巫</w>
女 主</w>
奔 腾</w>
奋 勇
奉 陪</w>
奇 异</w>
夺 冠</w>
夹 着尾巴</w>
夹 子</w>
夸 克</w>
头 里</w>
失 足</w>
失 职</w>
失 利</w>
失 事</w>
失 业
央 求</w>
夭 折</w>
太 脏</w>
太 浅</w>
太 天真</w>
太 吵</w>
太 低</w>
天气 晴朗</w>
天上 飞</w>
天 鹅
天 文
天 去</w>
天 化
天化 日</w>
大气 污染</w>
大 门口</w>
大 都市</w>
大 褂</w>
大 脚</w>
大 略</w>
大 热天</w>
大 洲</w>
大 手
大 奖</w>
大 堤</w>
大 发
大 伯</w>
多少 度</w>
多 谢您</w>
多 田
多 点</w>
多 汁</w>
多 情</w>
多 得</w>
多 彩</w>
多 年
多 元</w>
多 一点</w>
外交 关系</w>
外 院</w>
外 资</w>
外 来</w>
外 场</w>
外 向</w>
外 债</w>
夏 令
复 辟</w>
复 合</w>
处 事</w>
声 雷动</w>
声 调</w>
声 讨</w>
声 波</w>
声 势</w>
壮 胆</w>
壮 举</w>
增 高</w>
增 收</w>
填 上</w>
堤 坝</w>
堂 正正</w>
堂 堂正正</w>
城 楼</w>
埋 藏</w>
垄 断
垃圾 邮件</w>
垃圾 袋</w>
坠 落</w>
坚持 下去</w>
坚 果</w>
坚 守</w>
坑 道</w>
坐 等</w>
坐 得</w>
坎 坷</w>
地方 法院</w>
地下 资源</w>
地 流</w>
地 处</w>
地 喊</w>
地 唱</w>
地 儿</w>
在此 期间</w>
在 野</w>
在 世</w>
國 家</w>
圆 盘</w>
国家 队</w>
国 语</w>
国 有</w>
国 境</w>
围 成</w>
困 难
困 死</w>
困 住</w>
囫 囵</w>
团 体
因 病</w>
回 顾
回 扣</w>
回 得</w>
回 合</w>
回 來</w>
回 不来</w>
四 舍五入</w>
四 发</w>
四 千</w>
四 十岁</w>
囚 犯</w>
嘴 脸</w>
喷 射</w>
喝 汤</w>
喜马拉 雅
喜 不
喜不 喜欢</w>
喇 叭
啰 唆</w>
啬 鬼</w>
啤 酒
啕 大哭</w>
商 社</w>
商 法</w>
商 家</w>
唯 独</w>
售 后
售后 服务</w>
唐 诗</w>
哺 乳
哪 裡</w>
哪 件</w>
哪 些
哪 一位</w>
哩 哩
哥 儿</w>
哗啦 哗啦</w>
哐 啷</w>
哈 大笑</w>
哈 哈大笑</w>
哈 哈哈哈</w>
哇 地</w>
哇 啦</w>
哇 哇地</w>
品 种
哀 求</w>
咯 吱</w>
咯 吱
咯吱 咯吱</w>
和睦 相处</w>
和 缓</w>
和 平
呼 扇</w>
呱 呱</w>
周 有</w>
周 年纪念</w>
告 捷</w>
呈 报</w>
呆 子</w>
吹 嘘</w>
吸 走</w>
吸 血鬼</w>
吵吵 闹闹</w>
吮 吸</w>
听得 见</w>
听得 懂</w>
否 决</w>
吞 吐
吝 啬鬼</w>
君 主
吐 出来</w>
后 藤</w>
后 能</w>
后 悔
后 仰</w>
名 曲</w>
同意 书</w>
同 龄</w>
同 名</w>
吊 销</w>
合作 伙伴</w>
合 算</w>
合 成
合 剂</w>
合 伙</w>
各 界</w>
各 不相
吃 得
吃 喝</w>
吃 喝
吃 光</w>
司令 部</w>
号 角</w>
号 码
号 子</w>
号 声</w>
叶 草</w>
叶 县</w>
右心 房</w>
右 翼</w>
右 拐</w>
右 手边</w>
叱 责</w>
台 球</w>
台 数</w>
台 布</w>
台 北</w>
台 下</w>
可 知</w>
可 真
可 用</w>
可 好</w>
可 喜
可 乐</w>
召 唤</w>
叫 花子</w>
叫 喊</w>
叫 住</w>
只 靠</w>
只 读</w>
另 有</w>
古 代
口 译</w>
口 径</w>
口 岸</w>
口 吻</w>
口 儿</w>
口 供</w>
变化 无常</w>
变 凉</w>
受 益</w>
受 灾地区</w>
受 潮</w>
受 气</w>
受 惊</w>
受 得了</w>
取 材</w>
取 下</w>
发 高烧</w>
发 白</w>
发 圈</w>
反动 势力</w>
反 问</w>
反 作用</w>
双 面
双 料</w>
双 打</w>
双 向</w>
双 倍</w>
参考 价值</w>
参 谋
参 数</w>
去 路</w>
原则 性</w>
原 告</w>
原 住民</w>
厚 生</w>
压缩 机</w>
压 倒
历 年</w>
卸 下来</w>
即 便
即便 如此</w>
印刷 机</w>
印刷 品</w>
印 着</w>
博 弈</w>
南 京
南 下</w>
卖 家</w>
卖 国</w>
单 据</w>
单 向</w>
单 人房</w>
卓 著</w>
协 同</w>
华 美</w>
华 德</w>
半 角</w>
半 生</w>
半 句</w>
午 夜</w>
千 叶县</w>
千 克</w>
十二 岁</w>
十 里</w>
十 日</w>
十 元</w>
医务 室</w>
医 药
化 作</w>
匆 忙忙</w>
匆 匆忙忙</w>
勾 搭</w>
勺 子</w>
勤 快</w>
勤 务</w>
勘 探</w>
動 物</w>
勒 斯</w>
勉 强强</w>
勉 勉强强</w>
劳动 基准</w>
劳 顿</w>
劫 持</w>
努力 做到</w>
助 兴</w>
助 人</w>
动 脑</w>
动 植物</w>
劣 质</w>
加 速器</w>
加 进</w>
加 薪</w>
加 急</w>
加 大</w>
加 利福
办 手续</w>
办 不成</w>
力 量
剪 除</w>
剪 裁</w>
剪 掉</w>
剩 余
剧 中</w>
剥 离</w>
前 要</w>
刻 板</w>
刺 骨</w>
刺 眼</w>
刷 卡</w>
制造 厂</w>
制 片
制 式</w>
制 宜</w>
别 跑</w>
别 着急</w>
别 无
别 当真</w>
别 光</w>
利润 率</w>
利 诱</w>
初 级</w>
初 步</w>
创 下</w>
刚 一</w>
划 着</w>
划 时代</w>
划 拉</w>
划 伤</w>
刑 罚</w>
刑 场</w>
切 合</w>
分析 法</w>
分析 师</w>
分 镜</w>
分 配
分 身</w>
分 期</w>
分 支</w>
分 心</w>
分 居</w>
分 寸</w>
分 子
分 不开</w>
出门 时</w>
出发 点</w>
出人 意料</w>
出 港</w>
出 格</w>
出 展</w>
出 外</w>
出 品</w>
出 台</w>
出 千</w>
出 來</w>
凹 凸
凹凸 不平</w>
凳 子</w>
凯 西</w>
几 楼</w>
几 杯</w>
几 朵</w>
几 回</w>
几 台</w>
几 千年</w>
几 内
凝 血因子</w>
凛 然</w>
减 弱</w>
凌 晨</w>
凉 丝丝</w>
准 确
准 儿</w>
冻 死</w>
冻 僵</w>
冷 汗</w>
冷 战</w>
决不 允许</w>
决 斗</w>
冲 冲</w>
冤 家</w>
军 阀</w>
冒 出来</w>
再 谈</w>
再 添</w>
再 作</w>
册 子</w>
冈 田</w>
内心 深处</w>
内 行</w>
内 向</w>
养 大</w>
其 次</w>
其 實</w>
兴奋 剂</w>
关 联
关 窗户</w>
关 切</w>
共青 团</w>
共同 努力</w>
共 通</w>
六 点钟</w>
六 年级</w>
公 约</w>
公 有
公 断</w>
公 债</w>
八 道</w>
八 路军</w>
八 百</w>
八 折</w>
八 小时</w>
全 面
全 靠</w>
全 线
全 校
全 权</w>
全 书</w>
入 耳</w>
入 神</w>
党 的
党 委</w>
兑 现</w>
免疫 力</w>
免 受</w>
光 环</w>
光 天化日</w>
光 圈</w>
先 驱</w>
先 锋</w>
先 天</w>
充分 利用</w>
充 斥</w>
元 气</w>
儿童 节</w>
儿 站</w>
儿 科</w>
儿 来</w>
偷 窥</w>
偷 看</w>
健康 状况</w>
健 身</w>
健 谈</w>
停 运</w>
停 当</w>
停 业</w>
做 工</w>
做 好事</w>
偏 要</w>
假 如</w>
倾 盆</w>
倾 泻</w>
倾 吐</w>
值得 纪念</w>
值得 一看</w>
倡 导</w>
借 贷</w>
倚 仗</w>
候 选</w>
倒 退</w>
倒 不如说</w>
倍 增</w>
俱 全</w>
修理 工</w>
修 成</w>
俭 朴</w>
信 箱</w>
信 得过</w>
信 上</w>
保证 质量</w>
保护 环境</w>
保 释</w>
保 安</w>
俗 套</w>
侵 扰</w>
侨 胞</w>
依依 不舍</w>
依 附</w>
依 赖
供 电</w>
供 求</w>
作 好</w>
作 业
余 粮</w>
余 晖</w>
何 尝</w>
住 嘴</w>
低 语</w>
低 温</w>
低 档</w>
但 愿</w>
伸 过来</w>
伴 有</w>
伴 儿</w>
伴 侣</w>
伯 伯</w>
伪 君子</w>
伤 者</w>
伤 口处</w>
传 输</w>
传 票</w>
传 导</w>
传 唤</w>
传 出</w>
传 下去</w>
会 弹</w>
会 因</w>
优等 生</w>
优 生</w>
伊 朗</w>
企业 家</w>
企 鹅</w>
价格 便宜</w>
仪 表</w>
以 色列</w>
以 待</w>
代 为</w>
付 诸
付 清</w>
他 本</w>
他 换</w>
他 命</w>
他 净</w>
他 会来</w>
仔细 阅读</w>
仔细 听</w>
仓 皇</w>
从未 见过</w>
从头 开始</w>
从 根本上</w>
从 严</w>
今年 年初</w>
今年 冬天</w>
今年 以来</w>
今 儿个</w>
今 儿</w>
仅 限于</w>
仅 只是</w>
仅 供参考</w>
仅 仅只是</w>
亿 万
人民 英雄纪念碑</w>
人民 代表大会</w>
人来 人往</w>
人 里</w>
人 身
人 烟
人 所
人 意</w>
人 大</w>
人 大
人 以</w>
亲 自
亲 眼
亲 亲</w>
亮 度</w>
亮 堂</w>
产品 编号</w>
产 销</w>
交叉 路口</w>
交 界</w>
交 加</w>
些 许</w>
亚 军</w>
五 百元</w>
五 月份</w>
五 彩
五 十年</w>
互 换</w>
互 助</w>
云 霞</w>
云 海</w>
亏 空</w>
于 心</w>
二百 块</w>
二十 四</w>
二 连</w>
二 者</w>
二 月份</w>
二 哥</w>
二 三</w>
事 能</w>
事 不
争 得</w>
乳 制品</w>
乱 子</w>
买 不起</w>
书 本上</w>
书 信</w>
乡镇 企业</w>
乡 间</w>
乞 求</w>
乙 雅</w>
乙 烯</w>
乐 得</w>
乐 子</w>
乌 冬</w>
之 词</w>
之 缘</w>
之 物</w>
之 大</w>
之 士</w>
举 例</w>
主 治
主 厨</w>
主 动
主 体</w>
为 名</w>
临 床
临 头</w>
临 到</w>
临 别</w>
中国 女排</w>
中华 人民
中 年人</w>
中 尾君</w>
中 小企业</w>
中 共</w>
中 全会</w>
个人 得失</w>
个人 利益</w>
个 面</w>
丧 命</w>
严 苛</w>
严 实</w>
两国 之间</w>
两 首</w>
两 颊</w>
两 间</w>
两 类</w>
两 篇</w>
两 步</w>
两 杯</w>
两 地</w>
两 回</w>
两 口子</w>
两 代</w>
丝 绸之路</w>
丝 带</w>
东 张西望</w>
东 北地区</w>
世 代
专 长</w>
专 攻</w>
专 制</w>
丑 恶</w>
与此 同时</w>
与会 者</w>
不起 眼</w>
不良 倾向</w>
不胜 感激</w>
不敢 当</w>
不成 器</w>
不好 办</w>
不 錯</w>
不 过
不 诚实</w>
不 解
不 深</w>
不 活</w>
不 早</w>
不 改</w>
不 提</w>
不 愁
不 应</w>
不 幸遭遇</w>
不 屑</w>
不 尽
不 定期</w>
不 均</w>
不 周到</w>
不 受</w>
不 切
不 分
不 会错</w>
不 为
不 一</w>
下 风</w>
下 跪</w>
下 贱</w>
下 落不明</w>
下 节</w>
下 腔</w>
下 沉</w>
下 坡</w>
下 图</w>
下 会</w>
上海 队</w>
上 马</w>
上 风</w>
上 阵</w>
上 长</w>
上 野</w>
上 调</w>
上 装</w>
上 行</w>
上 心</w>
上 岸</w>
三 轮车</w>
三 国
三 匹</w>
三 份</w>
万里 长城</w>
万 端</w>
万 块</w>
万 万</w>
七 月份</w>
七 千</w>
一阵 儿</w>
一致 意见</w>
一百 多
一片 空白</w>
一条 心</w>
一时 半
一无所 知</w>
一年 到头</w>
一对 一</w>
一大 群</w>
一代 新人</w>
一个 包</w>
一个 劲地</w>
一 进</w>
一 身
一 课</w>
一 艘</w>
一 端</w>
一 空</w>
一 種</w>
一 盘
一 死
一 查</w>
一 摞</w>
一 招</w>
一 担</w>
一 扇</w>
一 户</w>
一 成不变</w>
一 床</w>
一 幢</w>
一 届</w>
一 尊</w>
一 季</w>
一 声
一 堵</w>
一 团
一 例</w>
一 二三</w>
y p
u r
p ;</w>
o w
n e
m ar
hi l</w>
c o
am p;</w>
U V</w>
T he</w>
P hil</w>
N T</w>
Mas t</w>
K TV</w>
H e
G oo
C V</w>
8 5</w>
6 60</w>
6 00</w>
5 0
3 9</w>
200 5</w>
200 2</w>
198 3</w>
13 14</w>
12 1314</w>
& amp;</w>
龙 灯</w>
龙 卷
龙卷 风</w>
龄 化</w>
龄 人</w>
齐 备</w>
鼻 息</w>
鼓 噪</w>
鼎 沸</w>
黯 然
默 感</w>
默 哀</w>
默 不作
默不作 声</w>
黑 糊糊</w>
黑 洞</w>
黑 手</w>
黏 着</w>
黏 土</w>
黎 黑</w>
黄浦 江</w>
黄 道
黄 牛</w>
麻 药</w>
麻 绳</w>
麻 布</w>
麦 当
麦当 劳</w>
鹿 角</w>
鹃 花</w>
鲜 嫩</w>
鱼 雷</w>
鱼 虾</w>
鱼 子
鱼子 酱</w>
鱼 刺</w>
鱼 儿</w>
高高 兴
高高兴 兴</w>
高林 君</w>
高 飞</w>
高 频</w>
高 速度</w>
高 远</w>
高 能</w>
高 汤</w>
高 梁</w>
高 二</w>
高 举</w>
高 下</w>
骨 子里</w>
骨 力</w>
骤 然</w>
骗 过</w>
骗 犯</w>
骄傲 自大</w>
驾驶 证</w>
驳 倒</w>
驱 车</w>
驰 骋</w>
驯 服</w>
马克思 主义</w>
马 里</w>
马 屁</w>
香 鱼</w>
香 里</w>
香 菇</w>
香 花</w>
香 料</w>
香 川</w>
饿 得</w>
食 店</w>
飞 速</w>
飞 过来</w>
飞 走</w>
飞 溅</w>
飞 得</w>
飞 到</w>
飘 零</w>
飘 洒</w>
飘 忽</w>
风景 优美</w>
风吹 雨
风吹雨 打</w>
风 车</w>
风 色</w>
风 潮</w>
风 流
风 沙</w>
风 向</w>
风 力</w>
风 中</w>
颠 簸</w>
额 上</w>
颜 无耻</w>
颜 六
颜六 色</w>
频 传</w>
颐 和
颐和 园</w>
领 情</w>
领 口</w>
领 事</w>
预防 针</w>
预 产
预产 期</w>
颁 布</w>
顾 不得</w>
顾 不了</w>
顽 症</w>
顽 抗</w>
顺 路</w>
顺 路
顺路 去</w>
顺 应</w>
顶 替</w>
页 数</w>
音乐 室</w>
音 域</w>
音 响
音 信</w>
靶 心</w>
革命 战争</w>
革 除</w>
面 设计</w>
面 图</w>
面 向
靠 边
靠 窗</w>
靠 岸</w>
靠 山</w>
靠 你
靠你 了</w>
非常 复杂</w>
非 人</w>
青 藏
青 筋</w>
霸 权</w>
露 骨</w>
露 西</w>
霞 光</w>
震 耳欲聋</w>
震 灾</w>
霄 飞车</w>
雷 阵雨</w>
雷 电</w>
雷 劈</w>
零 星</w>
零 分</w>
雪 茄</w>
雪 天</w>
雕 琢</w>
雕 像</w>
雏 鸟</w>
雌 雄</w>
雇 员</w>
集 资金</w>
雄 赳
雄 健</w>
难以 启齿</w>
难 点</w>
难 当</w>
难 保</w>
隔 膜</w>
隔 板</w>
隔 壁
隐约 约</w>
隐 隐约约</w>
隐 讳</w>
隐 匿</w>
随 风
随 处
随处 可见</w>
隆 重</w>
陶 艺</w>
陵 园</w>
陪 我
陪我 玩</w>
陪 你
险 阻</w>
险 峻</w>
除 草</w>
除 术</w>
院 内</w>
降 落
降落 伞</w>
降 水</w>
陋 习</w>
陈 列
陆 离</w>
陆 地</w>
陆 军</w>
附 录</w>
阿尔 卑
阿尔卑 斯
阿 健</w>
阻 塞</w>
阵 阵</w>
阵 营</w>
阵 线</w>
阵 亡</w>
阴谋 家</w>
阴 毒</w>
阳 历</w>
阳 光
防 范</w>
防 盗</w>
防 火</w>
防 尘</w>
阜 县</w>
闹 翻</w>
闹 矛盾</w>
闹 着
闹 别扭</w>
间谍 活动</w>
间 主任</w>
闲杂 人
闲杂人 等</w>
闲 散</w>
闯 进</w>
问 出</w>
问 下</w>
闭 上</w>
闪 动</w>
门 铃</w>
门 而入</w>
门 帘</w>
门 卫</w>
长途 电话</w>
长久 以来</w>
长 队</w>
长 远
长 袖</w>
长 篇小说</w>
长 篇</w>
长 椅</w>
长 势</w>
长 串</w>
镜 框</w>
镇 里</w>
锦 标
错 开</w>
错 别字</w>
锐 敏</w>
锐 太
锅 台</w>
锅 中</w>
锃 亮</w>
销售 点</w>
销售 价格</w>
销 行</w>
银 色</w>
铅 笔盒</w>
铁 饼</w>
铁 打</w>
钥 匙
钢铁 厂</w>
钢 筋</w>
钢 板</w>
钢 丝
鉴 于</w>
金属 板</w>
金 钱
金 星</w>
金 字
金 发</w>
量 产</w>
野 鸭</w>
野 鸡</w>
野 菜</w>
野 狗</w>
野 味</w>
重重 的</w>
重点 高中</w>
重新 启动</w>
重 置</w>
重 头</w>
重 围</w>
重 利</w>
重 了</w>
里 拐弯</w>
里 外</w>
里 啪啦</w>
采取 行动</w>
采取 措施</w>
采 药</w>
采 摘</w>
酸 奶</w>
酸 味</w>
酷 刑</w>
酥 软</w>
酗 酒</w>
配 音</w>
都市 生活</w>
都 还
都还 没</w>
郁 积</w>
邻居 家</w>
邻 镇</w>
邻 里</w>
邮 递员</w>
邮 资</w>
邮 筒</w>
邪 道</w>
邪 念</w>
邦 邦
邦邦 的</w>
那么 些</w>
那 身</w>
那 算</w>
那 種</w>
那 点</w>
那 晚</w>
那 去</w>
那 匹</w>
那 一刻</w>
還 以</w>
避难 所</w>
避 孕
遵守 纪律</w>
遵 命</w>
遮 拦</w>
適 合</w>
遥 遥
遣 返</w>
遣 散</w>
道 而来</w>
道 四</w>
遍 布</w>
逾 期</w>
逶 迤</w>
造 福</w>
造 作</w>
速 写</w>
逝 世</w>
通 融</w>
通 缉
通 称</w>
通 县</w>
這 邊</w>
逐 一</w>
选 派</w>
选 民</w>
选 他</w>
逃避 现实</w>
逃 过</w>
逃 荒</w>
逃 命</w>
送货 上门</w>
送 礼</w>
送 往</w>
退 后</w>
退 会</w>
退 一步</w>
追 逼</w>
迹 可疑</w>
迷 了
迟 缓</w>
迟 延</w>
连 绵
连 篇</w>
连 三</w>
违 心</w>
违 反
远 道而来</w>
远 道</w>
远 见</w>
远 望</w>
进 食</w>
进 款</w>
进 取</w>
这 要</w>
这 花</w>
这 节</w>
这 桩</w>
这 架</w>
这 枚</w>
这 期</w>
这 招</w>
这 口</w>
这 事
还 来</w>
还 手</w>
还 价</w>
近 路</w>
近 藤</w>
近 日</w>
近 在
迎 着</w>
迈 进</w>
迈 向</w>
迈 克
迈克 尔</w>
过敏 反应</w>
过 身</w>
过 继</w>
过 病</w>
过 激</w>
过 活</w>
过 工</w>
过 学</w>
过 夜</w>
迂 回</w>
迂 回
迁 移</w>
达尔 文</w>
达 意</w>
边防 战士</w>
边 区</w>
辫 儿</w>
辨 认</w>
辨 率</w>
辛 辛
辛 勤
辘 辘</w>
辗 转</w>
输 送
输 入
辍 学</w>
辉 日</w>
辅导 员</w>
较 劲</w>
轿 子</w>
轻量 级</w>
轻轻 松松</w>
轻 飘飘</w>
轰 隆</w>
轰 炸
轰炸 机</w>
软 弱
软 式</w>
软 席</w>
软 件
轮 驱动</w>
转 过身</w>
转 转</w>
转 车</w>
转 盘</w>
转 正</w>
转 来</w>
转 换成</w>
转 录</w>
转 卖</w>
转 到</w>
转 世</w>
车 骑</w>
车 间主任</w>
车 库</w>
躲 躲</w>
身 碎
身碎 骨</w>
身 处</w>
身 分</w>
蹩 脚</w>
踏 步</w>
跳 过</w>
跳 跳</w>
跳 出</w>
路 途</w>
路 痴</w>
路 旁</w>
路 可
跟 进</w>
跟 上来</w>
跑 车</w>
跋 涉</w>
趴 下</w>
足 足</w>
足 下</w>
趣 事</w>
趔 趄</w>
越南 语</w>
越 野</w>
越 岭</w>
超 重</w>
超 生</w>
超 支</w>
超 大</w>
超 声波</w>
超 前</w>
趁 早</w>
起 风</w>
起 货</w>
起 誓</w>
起 草</w>
起 泡</w>
起 步</w>
起 歌</w>
起 家</w>
起 坐</w>
赶 先进</w>
走 远</w>
走 访</w>
走 私
走 神</w>
赤 裸
赤裸 裸</w>
赠 与</w>
赔 款</w>
赔 本</w>
赎 罪</w>
赈 济</w>
资 料
赃 款</w>
贺 年
贺年 卡</w>
贺 卡</w>
费 解</w>
费 工夫</w>
贯 通</w>
贫 民
贫 弱</w>
贫 困
贪 污
贪 心</w>
货 轮</w>
货 源</w>
败 仗</w>
责任 重大</w>
责 难</w>
财务 部门</w>
负 有
负有 责任</w>
负 于</w>
贝 类</w>
豪 迈</w>
象 力</w>
豆 芽</w>
谷 穗</w>
谦 逊</w>
谐 音</w>
谈 笑</w>
谈 得</w>
谈 吐</w>
谈 不上</w>
调味 汁</w>
调 货</w>
调 料</w>
课 书</w>
读 音</w>
诸 事</w>
请 过</w>
请 柬</w>
请 戴</w>
请 客
请 回去</w>
请 便</w>
说白 了</w>
说不 完</w>
说 话
说 破</w>
说 理</w>
说 定了</w>
说 大话</w>
说 声</w>
说 句话</w>
说 八道</w>
说 三
说三 道四</w>
误 认为</w>
误 事</w>
诧 异</w>
该 选</w>
试验 品</w>
试 运行</w>
试 映</w>
试 吃</w>
试 卷</w>
译 本</w>
词 藻</w>
诊 疗</w>
诊 器</w>
识 趣</w>
评论 员</w>
评 价
评价 者</w>
访 问
论 调</w>
讳 言</w>
讲 机</w>
讲 卫生</w>
讲 习班</w>
记忆 犹
记忆犹 新</w>
记 账</w>
记 日记</w>
记 叙</w>
议 事</w>
议 书</w>
让 出</w>
认真 思考</w>
认真 对待</w>
认 路</w>
认 账</w>
认 生</w>
认 出来</w>
认 不
订 得</w>
计算 出来</w>
誓 言</w>
認 為</w>
誉 为</w>
設 計</w>
言 巧
言巧 语</w>
言 之
解释 一下</w>
解放 以前</w>
解 毒</w>
解 剖
角 落
角落 里</w>
角 度
角度 看</w>
视 频
视 率</w>
观众 们</w>
观 经济</w>
观 测
观 主义</w>
见面 会</w>
见识 一下</w>
见 不得
见不得 人</w>
覆 辙</w>
要 读</w>
要 涂</w>
要 换</w>
要 挟</w>
要 出</w>
要 你
要你 管</w>
要 件</w>
西 面</w>
西 北风</w>
褒 贬</w>
装 病</w>
装 本</w>
装 入</w>
裂 口</w>
裁 减</w>
被 压迫</w>
被 关</w>
袖 章</w>
衷心 祝愿</w>
衰 老</w>
表达 出来</w>
表 露</w>
表 述</w>
表 皮</w>
表 現</w>
表 是</w>
表 快</w>
表 中</w>
衣 食</w>
衣 料</w>
行踪 不明</w>
行为 规范</w>
行 装</w>
行 礼</w>
行 无
血 色</w>
血 肉
血 泪</w>
螺 栓</w>
蜥 蜴</w>
蜡 样</w>
蜜 瓜</w>
蜂拥 而至</w>
蛮 干</w>
蚊 蝇</w>
虽 小</w>
虫 牙</w>
虫 害</w>
虚 无
虚 拟
薪 资</w>
薄 片</w>
薄 冰</w>
蕾 丝</w>
蔚 蓝</w>
蓬 松</w>
蓬 勃
蓬勃 发展</w>
蓝 布</w>
蓄 水</w>
蒼 蠅</w>
蒙 骗</w>
蒙 着</w>
蒂 固</w>
葡萄 干</w>
著名 作家</w>
落 选</w>
落 脚</w>
落 拓</w>
落 户</w>
落 差</w>
萨 斯
萧 索</w>
营养 素</w>
营养 师</w>
营 店</w>
菩 萨</w>
菜 谱</w>
菜 花</w>
菜 一碟</w>
莽 撞</w>
获 救</w>
获 利</w>
莫 格</w>
荷 包
荷包 蛋</w>
药 材</w>
药 是</w>
药 房</w>
荧 光
荣 获</w>
荣 升</w>
荡 秋千</w>
荚 膜</w>
荒 芜</w>
草 料</w>
草 帽</w>
草 人</w>
茶 花</w>
茶 色</w>
茧 子</w>
茅 草</w>
英语 版</w>
英语 教育</w>
英 寸</w>
英 姿</w>
英 国
若 能</w>
苛 刻</w>
苍 苍</w>
苍 老</w>
花 言巧语</w>
花 篮</w>
花 样
花 招</w>
花 坛</w>
花 圈</w>
花 丛</w>
芝麻 酱</w>
色 苍白</w>
艰 险</w>
良 多</w>
船 头</w>
航 运</w>
航 天</w>
舞 动</w>
舒 缓</w>
舒 服
致 电</w>
致 意</w>
致 命
自给 自
自给自 足</w>
自知 之明</w>
自然 科学</w>
自我 批评</w>
自我 意识</w>
自动 铅笔</w>
自 重</w>
自 流</w>
自 治
自 来</w>
自 夸</w>
自 古</w>
自 古
自 发</w>
自 修</w>
自 习</w>
膨 胀
膛 儿</w>
膀 子</w>
腻 烦</w>
腺 素</w>
腰 里</w>
腰 身</w>
腮 帮子</w>
腐 化</w>
腌 菜</w>
脸 面</w>
脸 膛儿</w>
脸 肿</w>
脸 庞</w>
脚 踏</w>
脚 踏
脚 石</w>
脖 儿</w>
脑 中</w>
脏 话</w>
脊 背</w>
脆 脆</w>
能 教</w>
能 带</w>
能 动</w>
能 住</w>
能 事</w>
能 为</w>
胸 腺</w>
胸 怀
胡 说八道</w>
胡 琴</w>
胡 来</w>
胖 胖
胖胖 的</w>
胎 儿</w>
胃 癌</w>
胁 从</w>
肾 上
育 成</w>
肥皂 泡</w>
肥 大
肥大 细胞</w>
肠 胃</w>
肠 炎</w>
肝 火</w>
肚 皮</w>
肘 子</w>
聲 音</w>
聚 众</w>
聘 请</w>
聘 用</w>
联 邦
职 工作</w>
职 工
耸 立</w>
耷 拉</w>
耶 穌</w>
耳鼻 科</w>
耳 曼</w>
耗 品</w>
耍 赖</w>
耍 弄</w>
而 生</w>
而 栗</w>
而 为</w>
而 不
者 之间</w>
考 究</w>
考 了</w>
老大 难</w>
老 龄化</w>
老 院</w>
老 资格</w>
老 花
老 粗</w>
老 板
老板 娘</w>
老 手</w>
老 式</w>
老 底</w>
老 师傅</w>
老 天
老天 爷</w>
老 前辈</w>
老 二</w>
翻 过</w>
翱 翔</w>
群 岛</w>
羞 得</w>
美 貌</w>
美 绪</w>
美 感</w>
美 德</w>
美 得</w>
美 分</w>
置 换</w>
罪 孽</w>
罪 孽
罪孽 深重</w>
罗 盘</w>
网 球场</w>
缺 损</w>
缴 款</w>
缴 付</w>
缥 缈</w>
缠 绕</w>
缝 隙</w>
缝 上</w>
缄 默</w>
绿 水</w>
绿 叶</w>
综合 症</w>
综合 性</w>
绸 子</w>
绵 羊</w>
维 尔</w>
维 多
维 他命</w>
绳 索</w>
统 称</w>
绝 密</w>
绝 不能</w>
绘 制</w>
绕 圈子</w>
结婚 仪式</w>
结 舌</w>
结 底</w>
结 下</w>
绒 毛</w>
绑 腿</w>
绑 架</w>
经纪 人</w>
经济 效益</w>
经 由</w>
经 理
经理 部</w>
经 不住</w>
终 古</w>
织 布</w>
细菌 性</w>
细 碎</w>
组 员</w>
组 合
练 就</w>
练 出</w>
线 性</w>
线 图</w>
线 上</w>
纽 约
纺 车</w>
纸 烟</w>
纷 飞</w>
纯 白</w>
纯 正</w>
纬 度</w>
纪念 章</w>
纪 末</w>
级 别</w>
约翰 逊</w>
纤 弱</w>
红了 脸</w>
红 薯</w>
红 红
红 火</w>
红 晕</w>
红 彤
红彤 彤</w>
红 宝石</w>
红 字</w>
總 是</w>
絮 絮
絮絮 叨叨</w>
給 我</w>
紧 牙
紧牙 关</w>
紧 接着</w>
索 要</w>
素 面</w>
素 菜</w>
素 养</w>
素 不相识</w>
系统 化</w>
系 得</w>
糟 粕</w>
精神 压力</w>
精 制</w>
粽 子</w>
粮食 产量</w>
粘 性</w>
粗 笨</w>
粉 黑</w>
粉 身碎骨</w>
粉 红</w>
粉 碎
类 别</w>
米 酒</w>
米 希
米希 尔</w>
米 兰</w>
篇 幅</w>
箭 头</w>
管理 制度</w>
管 束</w>
管 严</w>
管 不着</w>
算 错</w>
算 法</w>
算 术
算 什么</w>
简 略</w>
签 字
签 了</w>
签 上</w>
筹 集资金</w>
答 谢</w>
答 卷</w>
筐 子</w>
等级 制度</w>
等 闲
第一 局</w>
第一 任</w>
第 页</w>
第 一周</w>
笛 声</w>
笔 锋</w>
笔 芯</w>
笔 杆</w>
笔 墨</w>
笑了 起来</w>
笑 语</w>
竹 刀</w>
端 详</w>
端 端</w>
竟 是</w>
站 稳
站 不稳</w>
竖 立</w>
立 脚点</w>
立 正</w>
立 案</w>
立 春</w>
立 学校</w>
立 体
立 业</w>
窝 囊
窗 上</w>
窃 取</w>
突 如其
突如其 来</w>
突 兀</w>
穿 马路</w>
穿 衣服</w>
穿 著</w>
空 谈</w>
空 洞
空 栏</w>
空 心</w>
空 心
穴 位</w>
穆 朗
穆朗 玛
穆朗玛 峰</w>
稿 费</w>
稳 步</w>
稳 妥</w>
稳 健</w>
税务 师</w>
税 法</w>
税 是</w>
税 收</w>
稀 松</w>
称 霸</w>
积极 向上</w>
积 水</w>
积 木</w>
积 德</w>
秧 儿</w>
秒 钟</w>
秒 杀</w>
科 学校</w>
科 大学</w>
种族 隔离</w>
秋 雨</w>
秋 后</w>
秃 头</w>
私 立学校</w>
私 塾</w>
秀 才</w>
离 间</w>
离 过婚</w>
离 散</w>
禁 闭</w>
禁 运</w>
祸 根</w>
祖 传</w>
社会 治安</w>
社会 保险</w>
礼拜 五</w>
礼拜 二</w>
示 威
示威 游行</w>
示 好</w>
磨 损</w>
磕 头</w>
磊 落</w>
碾 子</w>
碗 筷</w>
碑 文</w>
碎 掉</w>
确 确
确确 实实</w>
确 保
确保 安全</w>
硬 邦邦的</w>
硬 朗</w>
硬 席</w>
硬 实</w>
硬 件</w>
硫 酸</w>
硝 烟
硝烟 弥漫</w>
破 除</w>
破 败</w>
破 格</w>
砰 砰</w>
研 磨</w>
砍 伐</w>
矿 藏</w>
矿 物质</w>
矿 泉水</w>
矿 工</w>
矿 产资源</w>
石 碑</w>
石 灰</w>
石 子</w>
矮 胖</w>
矮 小</w>
短期 内</w>
短 缺</w>
短 浅</w>
短 工</w>
矫 健</w>
知识 青年</w>
知 性</w>
知 事</w>
瞬 息
着 重于</w>
着 眉头</w>
着 泪</w>
着 手
着手 于</w>
着 呢</w>
眼 瞅</w>
眼 眶</w>
眼 皮
眼 病</w>
眼 珠子</w>
眼 中
眼中 钉</w>
眩 晕</w>
真 货</w>
真 糟糕</w>
真 空</w>
真 相
真 爱</w>
真 本事</w>
真 敢</w>
真 不容易</w>
看 齐</w>
看 准</w>
眉 目</w>
省 心</w>
相互 间</w>
相互 理解</w>
相 距</w>
相 比
相比 之下</w>
相 性</w>
相 待</w>
相 对
相 好</w>
直 通</w>
直 达</w>
直 走</w>
直 言</w>
直 角</w>
直 至</w>
直 立</w>
直 截</w>
直 待</w>
盯 住</w>
目 标
盛 情</w>
盛 开着</w>
盘 踞</w>
盘 剥</w>
盖 起</w>
监 管</w>
盐 酸</w>
盐 分</w>
皱 着眉头</w>
皮肤 病</w>
皮 笑脸</w>
皮 划艇</w>
的 确
百分之 十</w>
百 花
百 般</w>
百 般
白白 地</w>
白 领</w>
白 费
白 花花</w>
白 皮
白 净</w>
登山 队</w>
瘤 子</w>
痴 呆</w>
痛 骂</w>
痛 痛
痛痛 快快</w>
痛 处</w>
痛 击</w>
痔 疮</w>
病 重</w>
病 能</w>
病 是</w>
疾 人</w>
疙瘩 瘩</w>
疙 疙瘩瘩</w>
畸 形</w>
番茄 酱</w>
略 有</w>
略 加</w>
留 用</w>
留 时间</w>
畏 缩</w>
畏 缩
界 人士</w>
畅 销
畅 地</w>
画 成</w>
画 布</w>
画 展</w>
画 好</w>
画 册</w>
男 爵</w>
男 同志</w>
男 儿</w>
电话 费</w>
电话 亭</w>
电子 邮箱</w>
电子 邮件
电子 商务</w>
电器 产品</w>
电 镀</w>
电 铃</w>
电 表</w>
电 源
电 流
电 气
电 极</w>
申 辩</w>
甲 型</w>
田径 队</w>
田径 运动</w>
田 园
用 笔</w>
用 用</w>
用 布</w>
用 吗</w>
用 劲</w>
用 兵
生理 期</w>
生活 用品</w>
生活 作风</w>
生意 人</w>
生产 者</w>
生产 方式</w>
生产 指标</w>
生产 性</w>
生 息</w>
生 怕</w>
生 学</w>
生 存
生 子</w>
生 事</w>
甜甜 的</w>
甚 远</w>
甘 当</w>
環 境</w>
瑟 瑟</w>
瑞 拉</w>
琴 声</w>
理 屈</w>
理 事长</w>
理 事</w>
球 棒</w>
班 有</w>
珠 穆朗玛峰</w>
珠 宝</w>
珍 品</w>
玲 珑</w>
现场 直播</w>
现代 人</w>
现 时</w>
环 抱</w>
玩 水</w>
王八 蛋</w>
王 位</w>
率 高</w>
玄 乎</w>
猿 人</w>
献 花</w>
猜 疑</w>
猖 獗</w>
独裁 者</w>
独 身</w>
独 裁</w>
独 行</w>
独 唱</w>
狗 叫</w>
狂 笑</w>
狂 欢
狂欢 节</w>
狂 暴</w>
犹太 教</w>
状 况
状 元</w>
犯 了
犒 劳</w>
特 集</w>
特 级</w>
特 立
特 效
特效 药</w>
特 写</w>
牵 着</w>
牵 制</w>
物价 指数</w>
物 柜</w>
牢 牢</w>
牛 车</w>
牛 脾气</w>
牙 龈</w>
牙 碜</w>
版 面设计</w>
片 面
爽 脆</w>
父 亲节</w>
爱 犬</w>
爱 护
爱 抚</w>
爱 恋</w>
爱 尔
爱尔 兰</w>
爱 国</w>
爬 起来</w>
爆 头</w>
熟 读</w>
熟 习</w>
煮 饭</w>
照 面</w>
照 量</w>
照 相
照 映</w>
照 抄</w>
照 得</w>
照 常</w>
照 会</w>
煎 蛋</w>
热 茶</w>
热 热
热 气腾腾</w>
热 心肠</w>
热 处理</w>
烧 死</w>
烧 开</w>
烙 印</w>
烂 泥</w>
烂 掉</w>
点心 店</w>
点 点头</w>
点 灯</w>
点 水</w>
点 播</w>
点 声</w>
炸 鸡</w>
炮 制</w>
炙 烤</w>
炖 菜</w>
炒 菜</w>
炊 事
炉 灶</w>
灾 民</w>
灼 热</w>
灵 便</w>
灯 灭
灯灭 了</w>
灯 塔</w>
灯 不亮</w>
灭火 器</w>
火 车头</w>
火 苗</w>
火 晚会</w>
火 坑</w>
灌 溉
灌 木
濒 危</w>
激 荡</w>
激 战</w>
漩 涡</w>
演奏 者</w>
演 算</w>
演 示</w>
演 得</w>
漓 尽
漓尽 致</w>
漉 漉</w>
漆 器</w>
漂 漂
漂漂 亮亮</w>
滴 滴</w>
满足 条件</w>
满满 地</w>
满意 足</w>
满意 度</w>
满 腹</w>
满 腔</w>
满 座</w>
满 嘴</w>
满 分</w>
满 不在乎</w>
滞 后</w>
滚 回去</w>
滚 动</w>
滔 滔</w>
滔 滔
滔滔 不绝</w>
滔 天</w>
滑 落</w>
滑 翔
滑 头</w>
滑 动</w>
滋 滋</w>
滋 养</w>
溶 解
溶 血性</w>
溶 于</w>
溪 地</w>
溜 边</w>
湿 淋淋</w>
湿 地</w>
湖 泊</w>
渺 小</w>
游戏 吧</w>
游 离</w>
游 到</w>
温 馨</w>
温 热</w>
温 差</w>
温 存</w>
渣 滓</w>
渗 出</w>
渗 入</w>
渔 网</w>
渔 民</w>
渔 场</w>
清 贫</w>
清 账</w>
清 真
清 明</w>
混 熟</w>
混 浊</w>
混 战</w>
深 层</w>
淡 漠</w>
淡 忘</w>
淡 定</w>
淋巴 管</w>
淋 漓尽致</w>
淅 淅
淅淅 沥沥</w>
涨 势</w>
润滑 油</w>
涟 漪</w>
涔 涔</w>
涉 猎</w>
消防 队员</w>
消防 员</w>
消 遣</w>
消 炎</w>
消 受</w>
涂 饰</w>
海 盗</w>
海 岸
海岸 线</w>
海 岛</w>
海 关
浮 雕</w>
浮 躁</w>
浮 泛</w>
浮 夸</w>
浪 荡</w>
浩 荡荡</w>
浩 繁</w>
浩 瀚</w>
浩 浩荡荡</w>
浩 大</w>
浓 雾</w>
浓 烟</w>
浑 浊</w>
济 南</w>
济 于事</w>
测 出</w>
流而 上</w>
流动 性</w>
流 落</w>
流 落
流 眼泪</w>
流 下来</w>
派 系</w>
派 头</w>
派 别</w>
洽 商</w>
活 路</w>
活 泼
活 動</w>
津 津
津津 有
津津有 味</w>
洞 窟</w>
洞 察
洞 口</w>
洛 克</w>
洗衣 粉</w>
洗 过</w>
洗 头</w>
洗 净</w>
洋 车</w>
洋 气</w>
泰 语</w>
泪 花</w>
泪 汪汪</w>
注册 费</w>
波 特</w>
波 涛
波 斯
波 及</w>
法西 斯
法 式</w>
法 定
泄 密</w>
泄 不通</w>
沾 边</w>
油 滑</w>
油 彩</w>
油 压</w>
油 井</w>
河 面</w>
河 滩</w>
河 床</w>
河 口</w>
沦 落</w>
沦 为</w>
没法 用</w>
没 过</w>
没 趣</w>
没 读</w>
没 考上</w>
没 精打采</w>
没 电</w>
没 得</w>
没 开</w>
没 劲</w>
没 出</w>
沟 渠</w>
沙 锅</w>
沙 滩
沉 甸
沉 没</w>
沉 入</w>
汤 面</w>
汤 汁</w>
污染 物</w>
江 南</w>
求 是</w>
永 生</w>
永 久性</w>
水土 流失</w>
水 费</w>
水 溶液</w>
水 渠</w>
水 泄不通</w>
水 晶
水 手</w>
水 域</w>
水 土</w>
水 力
水 会</w>
氢 弹</w>
气 话</w>
气 筒</w>
气 场</w>
气 喘</w>
气 势
毯 子</w>
毛 茸茸</w>
毛 笔字</w>
毛 巾
毛 发</w>
毕业 班</w>
比 重</w>
比 画</w>
比 特</w>
比 前</w>
比 作</w>
毒 害</w>
母 亲节</w>
毁 坏</w>
殷 切</w>
段 落</w>
殖民 主义</w>
殖 民</w>
残 障</w>
残 疾人</w>
残 废</w>
残 局</w>
残 存</w>
死 沉</w>
死 党</w>
歧 路</w>
步 兵</w>
此 案</w>
此 机会</w>
此 文</w>
正常 化</w>
正 身</w>
正 说</w>
正 派</w>
正 正
正 月
正 是
正是 如此</w>
正 巧</w>
正 前方</w>
正 业</w>
止 步</w>
止 日</w>
歌 跳舞</w>
歌 舞</w>
歌 唱
歇 息</w>
欧 盟</w>
欧 元</w>
次 日</w>
次 于</w>
檐 下</w>
橡 胶
橘 色</w>
横 穿马路</w>
横 穿</w>
模糊 不清</w>
概 念
概念 化</w>
楼 顶</w>
楼 层</w>
棱 角</w>
棕 色</w>
棍 儿</w>
检 阅</w>
检 察
检 修</w>
梯 田</w>
梦 里</w>
梦 中</w>
梗 塞</w>
梆 子</w>
梅 子</w>
桥 墩</w>
档 次</w>
档 子</w>
桌 面上</w>
桃 李
桂 花</w>
桂 林
桂林 山水</w>
根深 蒂固</w>
根本 性</w>
根本 原因</w>
根 苗</w>
核 电</w>
样 机</w>
校 门口</w>
校 车</w>
树 皮</w>
树 根</w>
柳 絮</w>
查 清</w>
查 一查</w>
染色 体</w>
某种 意义</w>
柏 青哥</w>
枷 锁</w>
架 设</w>
架 不住</w>
枫 叶</w>
枪 法</w>
果 敢</w>
极其 重要</w>
极 点</w>
极 尽</w>
极 品</w>
板 着脸</w>
松 松
杨 树</w>
来来 往往</w>
来 路</w>
来 稿</w>
来 杯</w>
来 晃
来晃 去</w>
来 取</w>
来 历</w>
来 付</w>
条 目</w>
条 条</w>
条 件
杜 鹃花</w>
杜 鹃</w>
李 平</w>
杉本 铃美</w>
权 衡
权 力
权 主义</w>
杂 音</w>
杂 费</w>
杂 质</w>
杂 着</w>
杂 烩</w>
杀 光</w>
机 遇</w>
机 舱</w>
机 耕</w>
机 关
机关 枪</w>
本 该</w>
本 职工作</w>
本 本</w>
本 木</w>
本 儿</w>
末 班车</w>
未婚 妻</w>
未婚 夫</w>
未 成年</w>
未 免
未免 太</w>
木 质</w>
期中 考试</w>
朝 夕</w>
朝 地</w>
朝 前</w>
服务 费</w>
服务 生</w>
服 役</w>
服 从
有点 痛</w>
有机 物</w>
有所 不同</w>
有 车</w>
有 用吗</w>
有 水</w>
有 条</w>
有 条
有 把握</w>
有 待</w>
有 幸</w>
有 声</w>
有 史
有史 以来</w>
有 劲</w>
有 两下子</w>
月 度</w>
最高 值</w>
最新 消息</w>
最 起码</w>
最 爱</w>
最 小
最 优化</w>
曾 多次</w>
更上 一
更上一 层楼</w>
更 高</w>
更 难</w>
更 要</w>
更 深</w>
曲 里拐弯</w>
曲 解</w>
曲 直</w>
曲 曲
暴 露
暴 行</w>
暴 乱</w>
暗 地里</w>
暖 洋洋</w>
暂 缓</w>
暂 时性</w>
智 谋</w>
智 商</w>
智 力
晓之 圣</w>
晃 荡</w>
晃 来晃去</w>
晃 晃
是 非
昭 著</w>
映 衬</w>
映 照</w>
昔 日</w>
易 手</w>
易 于</w>
昏 厥</w>
明细 表</w>
明 摆着</w>
时刻 刻</w>
时 装</w>
时 时刻刻</w>
时 何地</w>
旱 灾</w>
早 早
早早 儿</w>
早 婚</w>
早 到</w>
早 产
早产 儿</w>
旧 习</w>
日光 浴</w>
日 耳曼</w>
日 照
日 月</w>
日 中</w>
无法 控制</w>
无法 形容</w>
无所 不
无意 间</w>
无情 地</w>
无处 可
无可 救药</w>
无 靠</w>
无 需</w>
无 间</w>
无 门</w>
无 足
无 话
无 缘</w>
无 碍</w>
无 济于事</w>
无 条件</w>
无 方</w>
无 尽</w>
无 声
无 休止</w>
无 业</w>
旗 袍</w>
旅 途
旁 观者</w>
方 百计</w>
新华 书店</w>
新 风</w>
新 盖</w>
新 潮</w>
新 泻</w>
新 歌</w>
新 意</w>
新 婚</w>
新 太</w>
新 品</w>
新 到</w>
新 修</w>
新 买</w>
新 世界</w>
斯 文</w>
断 货</w>
料 想到</w>
斗 牛</w>
文艺 创作</w>
文化 部</w>
文 盲</w>
文 档</w>
文 明
整 风</w>
整 训</w>
整 编</w>
整 日</w>
整 数</w>
整 容</w>
敲 门声</w>
数 不多</w>
敬 仰</w>
散 热</w>
散 场</w>
散 地</w>
散 发出</w>
教 练
教 条</w>
教 他</w>
救 灾</w>
救 急</w>
敌 方</w>
故事 片</w>
放射 性</w>
放大 镜</w>
放任 不管</w>
放 马
放 飞</w>
放 风</w>
放 量</w>
放 轻</w>
放 走</w>
放 荡</w>
放 纵</w>
放 牧</w>
放 屁</w>
放 射</w>
放 声
攻 读</w>
改正 过来</w>
改 行</w>
改 组</w>
改 姓</w>
改 了</w>
收 钱</w>
收 视率</w>
收 效</w>
收 拢</w>
收 工</w>
收 发
支 流</w>
支 气管炎</w>
支 歌</w>
支 棱</w>
支 支
支支 吾
支支吾 吾</w>
支 承</w>
支 吾</w>
操 行</w>
操 练</w>
擅 长于</w>
擅 自
撼 动</w>
撮 合</w>
播放 器</w>
播 下</w>
撩 拨</w>
撞 骗</w>
撞 击</w>
撒 开</w>
撒 尿</w>
撑 起</w>
摸不 透</w>
摸 清</w>
摇 摆
摆 渡</w>
摆 放</w>
携 式</w>
搭 载</w>
搭 搭</w>
搬 迁</w>
搬 出去</w>
搜 刮</w>
搅拌 机</w>
搅 和</w>
揽 子</w>
援 救</w>
援 手</w>
握手 言
提高 警惕</w>
提起 过</w>
提 货</w>
描 摹</w>
推荐 信</w>
推 理
推 断</w>
推 定</w>
推 卸</w>
控 告</w>
接 见</w>
接 二
接二 连三</w>
接 上</w>
探 访</w>
探 测</w>
探 查</w>
探 听</w>
排 长</w>
排 解</w>
排 着</w>
排 球比赛</w>
排 水管</w>
排 放量</w>
排 字</w>
排 名</w>
掌 舵</w>
授 权</w>
捺 不住</w>
捷 报</w>
据 理</w>
换 取</w>
换 代</w>
捐 给</w>
捎 带</w>
捆 绑</w>
捂 着</w>
捂 住</w>
挺 立</w>
挺 挺</w>
挫 伤</w>
挪 开</w>
挨 打</w>
挥手 告别</w>
挥 霍</w>
挤 压</w>
挑 出来</w>
挎 着</w>
挎 包</w>
按 理说</w>
按 捺不住</w>
按 住</w>
指挥 棒</w>
指 拨</w>
指 战
指战 员</w>
指 可数</w>
挂 牌</w>
持续 增长</w>
拿 话</w>
拿 不定</w>
拼 音
拼 凑</w>
拳 脚</w>
拦 住</w>
拟 人
招 领</w>
招 致</w>
招 摇
拖 车</w>
拖 后腿</w>
拓 者</w>
拍 下来</w>
拉 近</w>
拉 走</w>
拉 夫</w>
拆 穿</w>
拆 掉</w>
抽 血</w>
抽 时间</w>
抽 奖</w>
抹 杀</w>
抹 掉</w>
抵 抗
抱 着</w>
抬 举</w>
报告 会</w>
报 机</w>
护 送</w>
护 住</w>
抢 险</w>
抛 开</w>
折扣 店</w>
折 服</w>
折 价</w>
折 不
抗 战</w>
抖 搂</w>
投影 仪</w>
投 身</w>
投 币
投币 式</w>
投 了</w>
抓 得</w>
把 酒</w>
把 力</w>
抄 送</w>
抄 写</w>
批 次</w>
扶 持</w>
扶 助</w>
扭 伤</w>
扩 音器</w>
执 著</w>
执 着</w>
执 法
扣 留</w>
托 付给</w>
托 业</w>
打个 比方</w>
打 飞</w>
打 翻</w>
打 磨</w>
打 烊</w>
打 劫</w>
打 乱</w>
扒 拉</w>
扑 打</w>
扑 哧</w>
扎 眼</w>
手术 室</w>
手 提</w>
所有 权</w>
所有 制</w>
户 头</w>
截 止日</w>
截 击</w>
战争 贩子</w>
战 俘</w>
战 事</w>
戒 严</w>
我 露</w>
我 醒</w>
我 记</w>
我 素</w>
我 离</w>
我 祝</w>
我 游</w>
我 晚</w>
我 意</w>
我 往</w>
我 哥</w>
我 变</w>
我 住</w>
我 付</w>
我 些</w>
成 红</w>
成 家</w>
成 堆</w>
成 一团</w>
懦 夫</w>
懒 得</w>
憨 厚</w>
憋 气</w>
慕 尼
慕尼 黑</w>
慎 重
慌 慌
慈 悲</w>
慈 善
愤 懑</w>
愤 恨</w>
感 觉
感 恩
感 应</w>
感 受
意气 相投</w>
意气 用事</w>
意 妄
意妄 为</w>
惹 人</w>
惹 人
惹 不起</w>
惶 惑</w>
想 错</w>
想 象力</w>
想 看</w>
想 想看</w>
想 太多</w>
想 住</w>
惟 有</w>
惟 一</w>
惜 别</w>
惊 奇</w>
惊 叫</w>
惊 动</w>
情 由</w>
情 怀</w>
情 心</w>
悼 念</w>
悲 愤</w>
悲 凉</w>
悬 念</w>
悠 着点</w>
恼 火</w>
恭 贺</w>
恩 赐</w>
总 说</w>
总 结
怯 弱</w>
怪 气</w>
怪 怪</w>
怪 事</w>
性 认识</w>
性 朋友</w>
性 情
性 儿</w>
性 交</w>
急 得</w>
思想 感情</w>
思 虑</w>
怜 惜</w>
忽 悠</w>
忸 怩</w>
念 叨</w>
快 艇</w>
忠 良</w>
忙 乱</w>
志 士</w>
忌 妒</w>
必 須</w>
必 修</w>
心情 舒畅</w>
心 骨</w>
心 锁</w>
心 酸</w>
心 论</w>
心 计</w>
心 腹</w>
心 胸
心 满意足</w>
心 悸</w>
心 急</w>
心 如
心 劲</w>
微 调</w>
微 生物</w>
得 病</w>
得 开</w>
得 奖</w>
徒 然</w>
很 远</w>
很 辣</w>
很 空</w>
很 爽</w>
很 沉</w>
很 密</w>
很 多年</w>
很 坏</w>
很 响</w>
很 准</w>
征 询</w>
征 伐</w>
往 复</w>
彻 底
役 使</w>
影 视
彩 霞</w>
彩 色
形 迹可疑</w>
形 县</w>
形 体</w>
录 音
录 取
当 铺</w>
当 班</w>
当 兵</w>
归根 结底</w>
归 纳</w>
归 案</w>
归 咎
归咎 于</w>
归 公</w>
强烈 要求</w>
强制 性</w>
强 压</w>
弹 簧</w>
弱 鸡</w>
弯弯 曲曲</w>
弯 路</w>
引人 入胜</w>
引 文</w>
式 子</w>
弃 权</w>
异常 情况</w>
异 地</w>
开会 时间</w>
开 赴</w>
开 走</w>
开 讲</w>
开 荒</w>
开 花
开 端</w>
开 拓者</w>
开 到</w>
开 交</w>
建设 项目</w>
建筑 材料</w>
建筑 师</w>
延 宕</w>
廉 洁</w>
座 楼</w>
座 椅</w>
废 纸</w>
废 水</w>
废 气</w>
废 止</w>
店 内</w>
底 细</w>
底 稿</w>
应 邀</w>
应 诺</w>
应 试</w>
应 尽</w>
应 付
序 幕</w>
庄稼 地</w>
广播 体操</w>
广大 群众</w>
广东 话</w>
广 义</w>
广 为人知</w>
幽 默感</w>
幽 美</w>
幽 会</w>
幼 师</w>
幹 雄</w>
并不 一定</w>
并 存</w>
并 发
并发 症</w>
年 里</w>
年 计划</w>
年 景</w>
年 华</w>
平方 米</w>
平均 气温</w>
平 行
平 等
平 生</w>
平 整</w>
平 手</w>
平 底</w>
平 复</w>
平 假名</w>
干 重</w>
干 酪</w>
干 枯</w>
干 得了</w>
干 巴</w>
幕 后
幌 子</w>
帽 儿</w>
常 青</w>
常 态</w>
常 务
帷 幕</w>
帮 办</w>
帮 个</w>
带 式</w>
带 头
带 劲</w>
带 入</w>
希腊 语</w>
希 美
师 长</w>
布 偶</w>
市场 部</w>
市场 占有率</w>
市场 份额</w>
市 面</w>
巴 马</w>
巴 儿</w>
已 到</w>
差 得</w>
巨 人</w>
左 耳</w>
工会 主席</w>
工业 区</w>
工 学</w>
工 件</w>
巍 峨</w>
峭 壁</w>
岩 濑</w>
岛 君</w>
岗 哨</w>
岐 阜县</w>
岂 敢</w>
山 野</w>
山 洪</w>
山 形县</w>
山 峦</w>
山 口</w>
履 行
屡 建</w>
展览 馆</w>
屈 指可数</w>
屈 原</w>
层 建筑</w>
层 叠</w>
尿 床</w>
尾 儿</w>
尽力 而为</w>
尽 到</w>
就 此
就 学</w>
就 义</w>
尖 端</w>
尖 子
尖子 班</w>
尔 斯</w>
少年 时期</w>
少 废话</w>
小组 讨论</w>
小提琴 手</w>
小 辫子</w>
小 调</w>
小 菜一碟</w>
小 肠</w>
小 考</w>
小 绿</w>
小 米</w>
小 流氓</w>
小 树</w>
小 時</w>
小 心
小 哥</w>
小 写</w>
小 册子</w>
小 保</w>
小 丑</w>
射 进来</w>
射 精</w>
射 出</w>
封建 思想</w>
封 口</w>
寿 保险</w>
寻 味</w>
对 调</w>
对 证</w>
对 讲机</w>
对 称</w>
对 本</w>
对 口</w>
对 不住</w>
寸 步
寡 妇</w>
寒 而栗</w>
寒 气</w>
寒 冬</w>
富 于</w>
密 集</w>
密 集
寄 放</w>
寄 存处</w>
宽 限</w>
宽 裕</w>
家庭 教师</w>
家务 活</w>
家务 事</w>
家 有</w>
家 居
家 养</w>
害 死</w>
室 友</w>
宣 讲</w>
宣 称</w>
客观 事物</w>
客户 服务</w>
审 阅</w>
审 计
审 理</w>
审 核</w>
审 判员</w>
实验 性</w>
实 证</w>
实 权</w>
实 战</w>
实 况
实况 转播</w>
实 例</w>
实 事
实事 求是</w>
宝 贵
宝 库</w>
宜 居</w>
定 时</w>
定 律</w>
定 向</w>
官 方
宏 伟</w>
完成 度</w>
完 款</w>
完 好</w>
完 会</w>
安 静下来</w>
安 逸</w>
安 着</w>
安 生</w>
安 杰</w>
安 妮</w>
安 乐</w>
安 上</w>
守 候</w>
孵 出</w>
孳 生</w>
学生 会长</w>
学 风</w>
学 坏</w>
学 习班</w>
孝 顺</w>
存储 器</w>
存 档</w>
字 面上</w>
孔 雀</w>
孔 雀
子 孙
子 之
嫌 恶</w>
婚 约</w>
婆 娘</w>
娇 气</w>
威 逼</w>
威 吓</w>
姻 缘</w>
委 内
姐 妹
始 化</w>
始 于</w>
妆 店</w>
如 神</w>
如 期完成</w>
如 春</w>
如 初</w>
如 一</w>
好 觉</w>
好 美</w>
好 端端</w>
好 收成</w>
好 找</w>
好 手</w>
好 恶</w>
好 怕</w>
奶 昔</w>
奶 嘴</w>
奴隶 主</w>
女 性朋友</w>
女 工</w>
奥 运</w>
奥 绘理</w>
奥 秘</w>
奢 望</w>
奢 华</w>
奠 基
套 设备</w>
套 利</w>
套 儿</w>
奖 赏</w>
奋 起</w>
奋 战</w>
奋 发
奋 力</w>
奉 承
夺 回</w>
夹 杂</w>
夹 带</w>
夹 克
夹克 衫</w>
夸 耀</w>
头 角</w>
头 地</w>
头 像</w>
失足 青年</w>
失 火</w>
失 散</w>
失 地</w>
太平 天国</w>
太 黑</w>
太 近</w>
太 薄</w>
太 空
太 硬</w>
太 瘦</w>
太 深</w>
天 阴</w>
天 白日</w>
天 灾</w>
天 涯</w>
天 来</w>
天 快</w>
天 堑</w>
天 后</w>
大肠 杆菌</w>
大手 大脚</w>
大力 发展</w>
大不 一样</w>
大 鱼</w>
大 面积</w>
大 霉</w>
大 雨
大 陆
大 钱</w>
大 计</w>
大 西洋</w>
大 红</w>
大 白天</w>
大 白</w>
大 溪地</w>
大 浪</w>
大 旱</w>
大 志</w>
大 庆</w>
大 宗</w>
大 嫂</w>
大 名</w>
大 口</w>
大 半</w>
大 势
大 办</w>
大 写
大写 字母</w>
大 儿子</w>
大 个儿</w>
大 丈夫</w>
夜 幕</w>
多种 多样</w>
多 项</w>
多 难</w>
多 能</w>
多 着呢</w>
多 心</w>
多 得多</w>
多 得
多 学</w>
多 地</w>
多 嘴
多 出</w>
外 露</w>
外 语
外 加</w>
外 侧</w>
复 述</w>
复 读</w>
复 职</w>
复 查</w>
复 员</w>
复 健</w>
处 长</w>
声 器</w>
壁 纸</w>
墨 盒</w>
墨 汁</w>
增 设</w>
增 值</w>
增 产
墙 脚</w>
境 线</w>
境 签证</w>
填 平</w>
塑料 瓶</w>
塑 胶</w>
堆 起来</w>
堆 积
堆 土</w>
堂 课</w>
基础 知识</w>
基 督</w>
基 因
城 外</w>
城 乡
埋 头
垃圾 焚烧</w>
垂 询</w>
垂 直</w>
垂 下来</w>
坦 诚</w>
坡 度</w>
坚持 到底</w>
坚 硬</w>
坚 毅</w>
坚 实</w>
坚 定
坚 决
坐 过</w>
坐 视
坐 地</w>
坐 不稳</w>
坐 不住</w>
坏 水</w>
坎 儿</w>
场 院</w>
地主 阶级</w>
地主 家</w>
地下 水</w>
地 震
地 谈</w>
地 落</w>
地 盘</w>
地 段</w>
地 是</w>
地 教</w>
地 摇</w>
地 平线</w>
地 干活</w>
地 层</w>
地 名</w>
地 區</w>
在生活 中</w>
在 握</w>
在 建</w>
在 其中</w>
圣 地</w>
圣 人</w>
土地 改革</w>
土 质</w>
土 木</w>
土 墙</w>
國 人</w>
圆 满
圆 圈</w>
图 样</w>
图 标</w>
国际 象棋</w>
国际 形势</w>
国 道</w>
国 立</w>
国 界</w>
国 度</w>
国 力</w>
国 产</w>
固 体</w>
因 有</w>
因 故</w>
回 购</w>
回 晚</w>
回 手</w>
回 归
回 击</w>
四处 奔走</w>
四 起</w>
四 肢
四 张</w>
四 射</w>
四 国</w>
四 十年</w>
四 人
四 下</w>
嚎 啕大哭</w>
噩 耗</w>
噎 住</w>
嘹 亮</w>
嘲 讽</w>
嘲 弄</w>
嘎 巴</w>
嘎 嘎</w>
嘎 啦</w>
嗜 好</w>
嗓 门儿</w>
喷 雾</w>
喷 火</w>
喷 发</w>
喧 闹</w>
喝 完</w>
喜马拉雅 山</w>
喜 报</w>
喜 剧</w>
喘 息</w>
喊 道</w>
喊 叫</w>
善 战</w>
啦 啦</w>
商品 种类</w>
商 榷</w>
唱 起歌</w>
唱 歌跳舞</w>
唱 个</w>
唯 心论</w>
售货 机</w>
唐 朝</w>
哭 鼻子</w>
哭 哭
哪些 地方</w>
哪 见</w>
哪 样</w>
哩哩 啦啦</w>
哨 子</w>
哥伦 布</w>
哈 佛
哈佛 大学</w>
哇 塞</w>
哄 哄</w>
品 德</w>
品 德
哀 痛</w>
咬 紧牙关</w>
咖啡 因</w>
咕咚 咕
咕咚咕 咚</w>
咔 嚓</w>
和 和
咀 嚼</w>
呵 斥</w>
周 边
周 身</w>
周 炎</w>
告 终</w>
吹 吹
吸烟 室</w>
吸 食</w>
吸 取
启 示</w>
启 用</w>
吭 哧</w>
听 闻</w>
听 诊器</w>
听 腻</w>
听 筒</w>
听 写</w>
听 候</w>
听 不进</w>
含 笑</w>
吧 唧</w>
否 决权</w>
吞吐 吐</w>
吞 吞吐吐</w>
向 心</w>
向 南</w>
吐 露</w>
后 路</w>
后 账</w>
后 脚</w>
后 盾</w>
后 感</w>
后 座</w>
后 备
后 勤</w>
后 任</w>
名 利
同 龄人</w>
同 行业</w>
同 感</w>
同 情心</w>
吊 唁</w>
吉 姆</w>
合作 社</w>
各个 部门</w>
各不相 让</w>
各 省</w>
各 别</w>
吃不 消</w>
吃 食</w>
吃 苦</w>
吃 纳豆</w>
吁 吁</w>
叽叽 喳喳</w>
司 法</w>
号码 牌</w>
右心 室</w>
右 旋</w>
右 倾</w>
史 册</w>
台 车</w>
可 观</w>
可 行
可 比</w>
可 得</w>
可 否</w>
可 亲</w>
叫 康</w>
叫 嚷</w>
叫 唤</w>
只 限</w>
只 带</w>
只 差</w>
另 行
另 一面</w>
古典 文学</w>
古 籍</w>
古 城</w>
口 述</w>
口 臭</w>
口 腔
口 哨</w>
变 红</w>
变 压器</w>
受 益
受 热</w>
受 奖</w>
取 经</w>
取 乐</w>
发表 声明</w>
发生 意外</w>
发挥 作用</w>
发布 会</w>
发 酸</w>
发 狂</w>
发 炎</w>
发 消息</w>
发 榜</w>
发 掉</w>
发 懒</w>
发 信</w>
发 传真</w>
反复 无常</w>
反 面
反 派</w>
反 射
反 对
双面 胶</w>
双 重
双 全</w>
双 人房</w>
友 田</w>
及 时
叉 子</w>
參 加</w>
参 演</w>
参 半</w>
参 与
参与 者</w>
县 级</w>
县 委</w>
厢 房</w>
原始 森林</w>
原 点</w>
原 形</w>
厚 颜无耻</w>
压 根儿</w>
压 得</w>
压 倒</w>
压 价</w>
压 下去</w>
历史 舞台</w>
历史 博物馆</w>
历 练</w>
历 来</w>
卸 下</w>
卷 进</w>
却 没能</w>
即 逝</w>
即 席</w>
印 证</w>
印 花</w>
印 发</w>
卯 绪</w>
卧 起坐</w>
卧 撑</w>
卧 床</w>
卡 罗
卡 斯
卡 住</w>
南 非</w>
南 部</w>
南 方人</w>
单 身
单 薄</w>
单 杠</w>
卓 绝</w>
卑 鄙
华 人</w>
半 百</w>
半 点儿</w>
半 左右</w>
半 周</w>
升 腾</w>
升 学考试</w>
千 方百计</w>
千 奈</w>
千 上
千上 万</w>
十分 注意</w>
十六 号</w>
十五 日</w>
十五 岁</w>
十五 分</w>
十 点钟</w>
十 有</w>
十 号</w>
十 八</w>
十 五分钟</w>
十 一月</w>
匿 迹</w>
医疗 队</w>
医 学院</w>
区 政府</w>
北京 市</w>
北 边</w>
北 省</w>
化 剂</w>
匆 促</w>
包 儿</w>
勤 俭
勘 测</w>
劳动 模范</w>
努力 实现</w>
努力 奋斗</w>
动 用</w>
动 员
劣 绅</w>
加利福 尼亚</w>
加 里</w>
加 斯</w>
加 快
加 强
加 奈</w>
加 剧</w>
加 到</w>
加 利</w>
功 过</w>
功 能性</w>
办 起</w>
劈 里啪啦</w>
劈 成</w>
副 标题</w>
剧 目</w>
剧 痛</w>
剧 烈地</w>
剔 除</w>
前 脚</w>
前 沿</w>
前 岛君</w>
前 导</w>
前 女友</w>
削 去</w>
刻 薄</w>
刻 意</w>
刻 度</w>
刺 青</w>
刺 伤</w>
制造 业</w>
到 之处</w>
别 致</w>
别 有</w>
别 有
别 提</w>
别 急</w>
别 以为</w>
利 息
利 弊</w>
判 别</w>
初 春</w>
初 始化</w>
初 三</w>
创 建</w>
创 始
刚 强</w>
列 席</w>
列 为</w>
划 过</w>
切 除术</w>
切 记</w>
切 碎</w>
切 掉</w>
切 感</w>
切 削</w>
分 辨率</w>
分 说</w>
分 级</w>
分 离
分 晓</w>
分 文</w>
分 批</w>
分 家</w>
分 之二</w>
凿 子</w>
击 退</w>
击 败</w>
击 倒</w>
出租 汽车</w>
出版 物</w>
出人 头地</w>
出了 名</w>
出 风头</w>
出 纳</w>
出 界</w>
出 炉</w>
出 所料</w>
出 战</w>
出 国
出 厂</w>
出 乎</w>
出 个</w>
出 不来</w>
凶 险</w>
凶 残</w>
凭 空</w>
凭 着</w>
凭 吊</w>
凡 尔
几百 年</w>
几内 亚</w>
几 首</w>
几 间</w>
几 率</w>
几 斤</w>
几 何
几 万</w>
凝 聚</w>
减 退</w>
减 当年</w>
凌 乱</w>
凉 飕飕</w>
凉 鞋</w>
凉 意</w>
凄 清</w>
冷冷 地</w>
冷 藏</w>
冷 水
冷 暖</w>
冷 冻
决 裂</w>
决 口</w>
冲 锋</w>
冲 澡</w>
冲 天</w>
冲 向</w>
冲 出</w>
冰 块</w>
冰 场</w>
冰 凉</w>
冰 上</w>
冬海 爱</w>
冥 福</w>
农 民
农 户</w>
农 忙</w>
军 装</w>
写 诗</w>
写 生</w>
写 明</w>
写 实</w>
写 作
冒 尖</w>
冒 失</w>
冒 失
再也 不能</w>
再 婚</w>
再 多
冉 冉</w>
内部 矛盾</w>
内 脏</w>
内 线</w>
内 科</w>
内 疚</w>
兼 备</w>
养 鱼</w>
典 籍</w>
典 故</w>
其 辞</w>
其 词</w>
其 数</w>
其 人</w>
兵 马
兵 团</w>
兴 许</w>
兴 盛</w>
兴 办</w>
关联 性</w>
关 进</w>
关 节炎</w>
关 口</w>
关 卡</w>
关 东</w>
共 进
共 用</w>
共 患难</w>
兰 教</w>
六 百</w>
六 点半</w>
六 本木</w>
六 月份</w>
六 万</w>
公安 机关</w>
公司 法</w>
公司 债券</w>
公 立</w>
公 用</w>
公 差</w>
公 尺</w>
公 家</w>
公 务</w>
公 公</w>
八 股</w>
八 点钟</w>
八 下</w>
兩 個</w>
全球 性</w>
全体 成员</w>
全 身心</w>
全 裸</w>
全 胜</w>
全 给</w>
全 然</w>
全 民
全 景</w>
全 城</w>
入场 费</w>
入 院</w>
入 账</w>
入 港</w>
入 微</w>
入 团</w>
入 味</w>
党 人</w>
免疫 系统</w>
免 费
克里 斯</w>
克 罗
克 制</w>
光明 媚</w>
光 芒
光 脚</w>
光 盘</w>
光 彩
光 凭</w>
先 例</w>
先 人</w>
充满 活力</w>
充 血</w>
充 滿</w>
兄 长</w>
元 首</w>
儿 里</w>
儿 媳</w>
儿 去</w>
傀 儡
偷偷 摸摸</w>
偷 袭</w>
偷 窃</w>
偷 拍</w>
偷 情</w>
健 忘</w>
停 留时间</w>
停 妥</w>
停 停</w>
做 会</w>
偏 颇</w>
偏 向</w>
偌 大</w>
假 面具</w>
假 象</w>
假 牙</w>
假 扮</w>
倾 斜
值 钱</w>
借 給</w>
借 到</w>
倒 流</w>
倒 塌</w>
倒 卖</w>
俯 卧撑</w>
修正 主义</w>
修 辞</w>
俨 然</w>
信 任
信 中</w>
保持 良好</w>
保持 沉默</w>
保 镖</w>
保 送</w>
保 住</w>
保 人</w>
保 不住</w>
俘 获</w>
俗 话说</w>
俄 语</w>
俄 国</w>
便 条</w>
便 携式</w>
便 会</w>
侦察 兵</w>
依 靠
依 稀</w>
依 法
依 恋</w>
供 求
侍 奉</w>
例 文</w>
來 過</w>
使 劲儿</w>
使 不得</w>
佳 节</w>
佳 人</w>
你 养</w>
作 词</w>
作 证</w>
作 梗</w>
作 案</w>
作 恶</w>
作 怪</w>
作 势</w>
作 乐</w>
佛 罗
余 热</w>
余 烬</w>
余 波</w>
何足 挂齿</w>
何 苦</w>
何 等</w>
何 时何地</w>
何 如</w>
何 在</w>
何 以</w>
体育 锻炼</w>
体 统</w>
体 字</w>
佐 木</w>
佐 佐木</w>
住 进</w>
低 廉</w>
低 劣</w>
低 低</w>
伺 机</w>
伸 长</w>
伸 展</w>
伸 出手</w>
伴 着</w>
伪 军</w>
伤 病</w>
伤 到</w>
传送 带</w>
传染 给</w>
传 真
传 扬</w>
传 入</w>
伟 大
伟 人</w>
会计 年度</w>
会 过</w>
会 读</w>
会 成</w>
会 带</w>
会 寄到</w>
优良 品种</w>
优 越
优 裕</w>
优 生学</w>
众 生</w>
众 望</w>
伐 木</w>
伊斯 兰教</w>
任 务
价格 表</w>
价格 竞争</w>
价 出售</w>
件 数</w>
仰 卧起坐</w>
仰 仗</w>
以下 几点</w>
以 致</w>
以 至</w>
以 继
令人 震惊</w>
代代 相传</w>
代 销</w>
仙 贝</w>
他 进</w>
他 读</w>
他 算</w>
他 生</w>
他 怕</w>
他 国</w>
他 同</w>
他 发</w>
从那 时起</w>
从 这
从 容
从 下</w>
仆 人</w>
仅 此而已</w>
仅 凭</w>
仁 慈</w>
亿泰 哥</w>
人际 交往</w>
人生 观</w>
人物 形象</w>
人民 政府</w>
人民 大会堂</w>
人心 弦</w>
人口 密度</w>
人事 制度</w>
人 话</w>
人 行</w>
人 行
人 真
人 渣</w>
人 死</w>
人 寿保险</w>
人 声
人 均</w>
人 因</w>
人 味</w>
人 前</w>
人 修</w>
人 体
人 为
亲戚 家</w>
亲 笔
亲 子</w>
亲 嘴</w>
亲 切感</w>
亲 兄弟</w>
亮 的</w>
亮 亮的</w>
亭 子</w>
享 有
亦 乐
亦乐 乎</w>
交流 经验</w>
交 个</w>
交 上</w>
亚 非</w>
亚 美</w>
亚 利
五 颜六色</w>
五 郎</w>
五 年计划</w>
五 千元</w>
五 千
互相 交换</w>
互 通</w>
云 霄飞车</w>
云 霄</w>
云 散</w>
二百 元</w>
二十 四
二十 五</w>
二 线</w>
二 年</w>
事无 成</w>
事 变</w>
事 关</w>
事 使</w>
了 事</w>
买 车</w>
书法 家</w>
书 来</w>
书 夹</w>
乡 土</w>
乡 下
习惯 于</w>
九 十</w>
乐 在其中</w>
乐 于</w>
乎 其
之 高</w>
之 论</w>
之 言</w>
之 苦</w>
之 花</w>
之 敌</w>
之 差</w>
之 声</w>
之 人</w>
义 词</w>
久 远</w>
举 个</w>
举 世
主要 矛盾</w>
主義 的</w>
主 编</w>
主 心骨</w>
主 干</w>
为 辅</w>
为 数不多</w>
临 阵
临 行</w>
临 界
临 别
丰 田</w>
中华人民 共和国</w>
中 餐</w>
中 音</w>
中 长期</w>
中 说</w>
中 耳</w>
中 秋</w>
中 段</w>
中 档</w>
中 标</w>
中 庸</w>
中 年
中 学
中 午饭</w>
中 介</w>
严重 破坏</w>
严重 后果</w>
严 防</w>
严 惩</w>
严 严
两 颗</w>
两 辆</w>
两 袋</w>
两 节课</w>
两 臂</w>
两 片</w>
两 栖</w>
两 枚</w>
两 大</w>
两 块钱</w>
两 场</w>
丝 袜</w>
东 道
东 照</w>
东 升</w>
东 亚</w>
丛 书</w>
世界 性</w>
世 道</w>
世 纪末</w>
世 事</w>
专 科学校</w>
专 断</w>
专 卖</w>
与 共</w>
与 会</w>
不顾 一切</w>
不足 以</w>
不起 作用</w>
不计 其数</w>
不见 得</w>
不良 少年</w>
不自 禁</w>
不相 称</w>
不相 干</w>
不由 自主</w>
不正 之风</w>
不是 太好</w>
不是 味儿</w>
不拘 小节</w>
不成 问题</w>
不得 而知</w>
不好 受</w>
不可 开交</w>
不 防</w>
不 长</w>
不 遇</w>
不 辞
不 负</w>
不 认</w>
不 规则</w>
不 缺</w>
不 算什么</w>
不 笑</w>
不 甘
不 犯</w>
不 治
不 正经</w>
不 明
不 料</w>
不 整</w>
不 接</w>
不 拔</w>
不 抱</w>
不 慎</w>
不 对头</w>
不 寒而栗</w>
不 夠</w>
不 四</w>
不 卖</w>
不 分</w>
不 出所料</w>
不 减当年</w>
不 作</w>
不 亦乐乎</w>
不 三
不三 不四</w>
下 身</w>
下 象棋</w>
下 课后</w>
下 行</w>
下 滑</w>
下 流
下 楼梯</w>
下 有
下 文</w>
下 定</w>
下 垂</w>
下 地干活</w>
下 品</w>
下 不来</w>
上级 指示</w>
上 路</w>
上 角</w>
上 要</w>
上 花</w>
上 线</w>
上 策</w>
上 流</w>
上 有
上 无
上 报</w>
上 帝</w>
上 坡</w>
上 前</w>
上 交</w>
三番 五次</w>
三番 两次</w>
三 顿</w>
三 间</w>
三 部</w>
三 道</w>
三 枚</w>
三 层</w>
三 尺</w>
三 大</w>
三 只</w>
三 口</w>
三 十分</w>
三 中全会</w>
万人 次</w>
万 状</w>
万 斤</w>
万 古
万 全</w>
万 亩</w>
一股 风</w>
一等 奖</w>
一百 日</w>
一清二 楚</w>
一步 棋</w>
一条 龙</w>
一大 步</w>
一大 批</w>
一分 钱</w>
一个 劲</w>
一丝不 苟</w>
一 读</w>
一 语
一 纸</w>
一 盏</w>
一 番话</w>
一 毛
一 格</w>
一 整套</w>
一 放</w>
一 摸</w>
一 揽子</w>
一 捆</w>
一 拐</w>
一 开</w>
一 季度</w>
一 块钱</w>
一 半儿</w>
一 刀</w>
一 决胜负</w>
一 体化</w>
一 事无成</w>
一 上午</w>
一 上</w>
一 万元</w>
一 丁点儿</w>
u s
u m
u g
s on</w>
on e</w>
o k</w>
m e</w>
l et</w>
i e
i ce</w>
f ight</w>
es s</w>
er s</w>
e t
d ge</w>
co m</w>
c hi
b y</w>
as hi
a d
T O
S t
R O
P at
N A</w>
M e
M L</w>
M D</w>
I nd
He llo</w>
F ac
D NA</w>
C o
C C</w>
B O
8 2</w>
5 7</w>
5 5</w>
5 25</w>
3 ;</w>
200 9</w>
200 6</w>
200 4</w>
200 1</w>
20 14</w>
2 B</w>
10 0
1 ;</w>
1 80</w>
1 20</w>
1 .
. 1</w>
&#9 3;</w>
&#9 1;</w>
龙 江</w>
龙 井
龙井 茶</w>
齐 整</w>
齐 截</w>
齐 心</w>
鼻 粘膜</w>
鼻 子
鼻 儿</w>
鼠 标</w>
鼓鼓 的</w>
鼓足 干劲</w>
鼓 手</w>
鼓 吹</w>
黑 龙江</w>
黑 油油</w>
黑 沉沉</w>
黑 枪</w>
黑 暗面</w>
黑 春</w>
黑 手
黑手 党</w>
黑 心</w>
黑 发</w>
黑 儿</w>
黄 莺</w>
麻 醉
麻 花</w>
麦 穗</w>
鹿 群</w>
鹦 鹉</w>
鹅 毛</w>
鸦 片</w>
鸣 放</w>
鸡 汤</w>
鲈 鱼</w>
鲁 道夫</w>
鲁 莽</w>
鱼 钩</w>
鱼 跃</w>
鱼 肉
鱼 群</w>
鱼 水
魔 术
魔术 师</w>
鬼 牌</w>
鬼 子</w>
高高 低低</w>
高等 教育</w>
高度 评价</w>
高 雅</w>
高 薪</w>
高 端</w>
高 空
高空 作业</w>
高 炉</w>
高 深</w>
高 歌
高 林</w>
高 峰
高峰 期</w>
高 射
高射 炮</w>
高 唱</w>
高 呼</w>
高 个儿</w>
骨 碌</w>
骨 干
骗 走</w>
骑 驴</w>
骄 横</w>
驾 辕</w>
驶 向</w>
驴 子</w>
驱 赶</w>
驯 化</w>
马上 会</w>
马 在</w>
香 槟</w>
香 味儿</w>
首 都
首 脑</w>
首 脑
首 尾</w>
饽 饽</w>
饰 演</w>
饮食 业</w>
饭 馆</w>
饭 锅</w>
饭 量</w>
饭 桶</w>
饭 桌</w>
饭 时间</w>
饭 吃</w>
餐 费</w>
食 用油</w>
食 性</w>
食 品店</w>
食 品
飞 也
飛 機</w>
风雨 雨</w>
风景 画</w>
风 风雨雨</w>
风 邪气</w>
风 貌</w>
风 尘</w>
风 大</w>
风 化</w>
风 势</w>
风 俗
风 传</w>
颠 覆</w>
额 定</w>
领 巾</w>
领 受</w>
预防 措施</w>
预 祝</w>
预 演</w>
预 想到</w>
预 售</w>
颂 扬</w>
颁 发</w>
顺 顺</w>
顺 眼</w>
顺 带</w>
顶 头</w>
顶 住</w>
音乐 界</w>
音 调</w>
韩 元</w>
鞭 笞</w>
鞍 子</w>
靶 子</w>
革命 先烈</w>
革 新
面 试
面试 官</w>
面 罩</w>
面 相</w>
面 熟</w>
面 对
面对 现实</w>
面 团</w>
面 价值</w>
靠边 儿站</w>
靠 背</w>
靠 拢</w>
靠 在</w>
靠 右
非常 少</w>
非 难</w>
非 为</w>
静 电</w>
青 青</w>
青 铜</w>
青 松</w>
青 木</w>
青 山
霹 雳</w>
霹 雳
霹雳 舞</w>
霸 地主</w>
露 面</w>
露 着</w>
露 头</w>
露 台</w>
霍 霍</w>
霍 华德</w>
雾 蒙蒙</w>
雷鸣 般</w>
雷 霆</w>
零售 商</w>
零售 价</w>
雪 耻</w>
雪 线</w>
雪 纷飞</w>
雪 原</w>
雨 过
雨过 天晴</w>
雨 滴</w>
雨 声</w>
雨 会</w>
雨 下个</w>
雜 誌</w>
雌 鹿</w>
集合 起来</w>
集合 地点</w>
集 邮</w>
集 权</w>
集 市</w>
集 团
雅 兴</w>
雄赳 赳</w>
雄 鹿</w>
雄 鹰</w>
雄 大</w>
雄 壮</w>
雀 跃</w>
难以 相信</w>
难以 忍受</w>
难 缠</w>
隶 属</w>
障 眼
障眼 法</w>
隔 开</w>
隐 情</w>
隐 微</w>
隐 居</w>
隐 伏</w>
随 波
随波 逐
随波逐 流</w>
随 时
随 口</w>
随 军</w>
隆 坡</w>
陷 落</w>
陶 艺
陶艺 家</w>
陪 陪</w>
陪 护</w>
险 要</w>
险 境</w>
陨 石</w>
除 外</w>
除 名</w>
院 落</w>
陡 峭</w>
陡 坡</w>
陕 北</w>
降 服</w>
降 伏</w>
陈 词
陈词 滥调</w>
陈 腐</w>
附 赠</w>
阿拉伯 语</w>
阿 锐</w>
阿 里</w>
阿 谀</w>
阿 根
阿根 廷</w>
阿 保</w>
阻 隔</w>
阴谋 诡计</w>
阴 霾</w>
阴 部</w>
阴 历</w>
防 空洞</w>
防 空</w>
防 汛</w>
防 御
队 里</w>
队 旗</w>
队 形</w>
阔 气</w>
阅 读
闻 名
闹着 玩儿</w>
闹 饥荒</w>
闹 事</w>
闷 气</w>
间 断</w>
间 休息</w>
闯 进来</w>
闯 祸</w>
闯 入</w>
问 道</w>
问 讯
问讯 处</w>
问 罪</w>
问 答</w>
问 号</w>
问 一问</w>
闭 馆</w>
闭 眼</w>
闭 塞</w>
闪闪 烁烁</w>
闪 着
闪着 光</w>
闪 开</w>
门 诊</w>
门 把手</w>
长途 跋涉</w>
长期 贷款</w>
长期 性</w>
长 野
长野 县</w>
长 途</w>
长 得
长 工</w>
长 安
长 叹</w>
镯 子</w>
锯 齿</w>
键 盘</w>
锦标 赛</w>
锤 炼</w>
锣鼓 喧
锣鼓喧 天</w>
错 综
错综 复杂</w>
错 案</w>
错 呀</w>
锋 芒</w>
锈 钢</w>
锄 头</w>
锁 线</w>
销售 部</w>
铺 张
铺张 浪费</w>
铺 展</w>
铺 子</w>
铺 垫</w>
铸 成</w>
银行 职员</w>
银行 存款</w>
银行 卡</w>
铲 雪</w>
铲 子</w>
铣 床</w>
铜 钱</w>
铅 球</w>
铁 轨</w>
铁 路
铁 皮</w>
铁 栅栏</w>
铁 人
铁人 三项</w>
钱 树</w>
钩 子</w>
钢 索</w>
钢 厂</w>
钟 表
针 线</w>
针 线
针 眼</w>
针 刺</w>
针 刺
针刺 麻醉</w>
金字 塔</w>
金 库</w>
金 刚
量 比</w>
量 体温</w>
野 鸟</w>
野 猫</w>
野 心
野 地</w>
野 党</w>
重 蹈
重蹈 覆辙</w>
重 读</w>
重 症</w>
重 物</w>
重 汽车</w>
重 播</w>
重 提</w>
重 度</w>
重 头
重头 戏</w>
重 型</w>
重 压</w>
重 修</w>
重 修
重修 旧
重修旧 好</w>
重 于
重于 泰山</w>
里外 外</w>
里 里外外</w>
里 程</w>
里 夫人</w>
里 亚</w>
醺 醺</w>
醒 醒</w>
醉 醺醺</w>
醉 酒</w>
酿 造</w>
酿 成</w>
酸 雨</w>
酸 辛</w>
酸 疼</w>
酷 无情</w>
酱 料</w>
酒 色</w>
酒 类</w>
酒 意</w>
酒 味</w>
配 色</w>
配 给</w>
配 线</w>
配 生</w>
酌 情</w>
鄙 视</w>
都 会</w>
部 里</w>
郎 新娘</w>
邻居 们</w>
邻 邦</w>
邮政 编码</w>
邮 送</w>
邮 包</w>
邪 说</w>
邪 行</w>
那就 算了</w>
那么 点儿</w>
那么 回事</w>
那不 勒斯</w>
那 面</w>
那 门</w>
那 道</w>
那 能</w>
那 架</w>
那 怎么
那怎么 行</w>
那 州</w>
那 子</w>
那 女</w>
那 套</w>
那 堂</w>
那 一</w>
選 手</w>
遮 起来</w>
遮 羞</w>
遮 盖</w>
遭 逢</w>
遗传 因子</w>
遗 症</w>
遗 恨</w>
遗 志</w>
遗 容</w>
道 导弹</w>
道 合</w>
道 口</w>
道 儿</w>
逸 乐</w>
逮 捕
逢 年
逢年 过节</w>
造 血</w>
造 船
造 化</w>
造 出</w>
速 食</w>
通货 膨胀
通货膨胀 率</w>
通 通</w>
通 缉</w>
通 晓</w>
通 明</w>
通 婚</w>
通 信
這 張</w>
這 塊</w>
逗 人</w>
逗 乐</w>
递 延</w>
透 风</w>
透 进</w>
透 着</w>
透 明
透 亮</w>
逍 遥</w>
逍 遥
选 错</w>
选 配</w>
选 送</w>
选 聘</w>
选 定</w>
选 址</w>
选 任</w>
逆 行</w>
逆 流而上</w>
逆 流</w>
逆 差</w>
逆 境</w>
逃 进</w>
逃 出</w>
逃 不过</w>
送 费</w>
送 些</w>
退休 年龄</w>
退 席</w>
退 却</w>
退 伙</w>
追 溯
追溯 到</w>
追 杀</w>
追 捕</w>
追 悼</w>
迷了 路</w>
迷 雾</w>
迷 惘</w>
迷 心窍</w>
迷 倒</w>
述 评</w>
迫 近</w>
迫 在
迫在 眉
迫在眉 睫</w>
迟 滞</w>
连环 画</w>
连 络</w>
连 心</w>
连 发</w>
连 假</w>
连 体</w>
违 约</w>
违 约
远 洋</w>
远 景
远景 规划</w>
远 东</w>
进修 班</w>
进 纸</w>
进 村</w>
进 化
进化 论</w>
这一 仗</w>
这 页</w>
这 钱</w>
这 酒</w>
这 部分</w>
这 路</w>
这 纸</w>
这 瓶</w>
这 步
这步 田地</w>
这 来</w>
这 幢</w>
这 一下</w>
还 算
还 会来</w>
返 工</w>
近代 化</w>
近 邻</w>
近 处</w>
近 似</w>
运输 量</w>
运输 机</w>
运 走</w>
运 算</w>
运 往</w>
运 了</w>
迎 战</w>
迎 头
过敏 症</w>
过 门</w>
过 路</w>
过 来
过来 人</w>
过 山
过山 车</w>
过 奖</w>
过 头来</w>
过 劳</w>
过 低</w>
过 会儿</w>
过 会</w>
过 份</w>
过 人</w>
迅 捷</w>
迂 腐</w>
迁 徙</w>
辽 宁
辻 彩</w>
边防 军</w>
边 陲</w>
边 框</w>
边 无际</w>
辩 证</w>
辩 护
辨 别
辦 法</w>
辣 手</w>
辟 邪</w>
辞 呈</w>
辛辛 苦苦</w>
辘 轳</w>
输送 机</w>
辆 通行</w>
载 重汽车</w>
载 入</w>
轻量 化</w>
轻 闲</w>
轻 装
轻 狂</w>
轻 柔</w>
轻 捷</w>
轻 工业</w>
轻 伤</w>
轰 动</w>
软 管</w>
软 和</w>
轮 轴</w>
轮 番</w>
轮 子</w>
转眼 之间</w>
转 意</w>
转 变成</w>
轨 电车</w>
车 速</w>
车 辆通行</w>
车 轴</w>
车 箱</w>
车 有</w>
车 到</w>
躲 过</w>
躲 躲
躲 藏</w>
躯 体</w>
身无 分文</w>
身心 健康</w>
身 经历</w>
身 教</w>
身 儿</w>
蹶 子</w>
蹭 蹭</w>
蹂 躏</w>
踪 者</w>
踢 踏
踢踏 舞</w>
踏 踏
踏踏 实实</w>
踏 着</w>
踏 出</w>
跷 跷
跷跷 板</w>
跷 着</w>
跳 跃</w>
路 障</w>
路 标</w>
路 易
路 一条</w>
跪 拜</w>
跨 过</w>
距 離</w>
跑 来
跑来 跑
跑来跑 去</w>
跑 不了</w>
趾 甲</w>
越 重</w>
越 轨</w>
越 权</w>
越 好</w>
超 帅</w>
起 飞
起 重</w>
起 跑</w>
起 诉
起 见</w>
起 航</w>
起 程</w>
起 居室</w>
起 因</w>
起 动</w>
起 个</w>
赶 车</w>
走 马灯</w>
走 族</w>
走 投
走投 无
走投无 路</w>
走 人</w>
赢 过</w>
赢 家</w>
赠 送给</w>
赠 给</w>
赞 歌</w>
赞 助
赞助 商</w>
赞 佩</w>
赛 宫</w>
赛 季</w>
赚 头</w>
赚 大钱</w>
赖 皮</w>
赐 教</w>
赐 予</w>
赎 回</w>
资 质</w>
资 历</w>
赃 物</w>
贿 受贿</w>
贼 赃</w>
费 尽
贵 贱</w>
贵 方</w>
贴 近</w>
贴 现</w>
贴 上去</w>
贯 注</w>
贯 性</w>
购 进</w>
贫 气</w>
贫 下
贫下 中农</w>
贪污 犯</w>
质 询</w>
货 量</w>
货 真
货真 价
货真价 实</w>
货 架</w>
货 人</w>
责任 编辑</w>
责 问</w>
责 所在</w>
财政 部</w>
财 源</w>
负 重</w>
负 起</w>
贞 节</w>
贝 尔
豪 杰</w>
豪 劣绅</w>
象征 性</w>
象 仪</w>
豆 沙</w>
豁 然
豁 出去</w>
豁 亮</w>
谬 误</w>
谬 论</w>
谩 骂</w>
谨 表</w>
谨 此</w>
谜 底</w>
谜 团</w>
谎 报</w>
谈 不到</w>
谄 媚</w>
调查 表</w>
调 皮
调 制</w>
调 儿</w>
谁 非</w>
谁 来</w>
谁 是
谁是 谁非</w>
读 者
读 后感</w>
读 入</w>
请 系</w>
请 愿
请愿 书</w>
请 举手</w>
说了 算</w>
说不 上来</w>
说 笑话</w>
说 穿</w>
说 瞎话</w>
说 的</w>
说 有
说有 笑</w>
说 唱</w>
说 到
说到 做到</w>
说 不得</w>
诱 人</w>
误 诊</w>
误 认</w>
误 工</w>
语言 不通</w>
语 速</w>
该 是</w>
该 不该</w>
话 虽
话虽 如此</w>
话 文</w>
话 实说</w>
话 头</w>
话 别</w>
话 会</w>
诚 挚</w>
诗 经</w>
诗 篇</w>
诗 班</w>
诗 意</w>
试用 期</w>
试 一次</w>
词 组</w>
词 夺
词夺 理</w>
诊 治</w>
诈 骗犯</w>
评 家</w>
评 委</w>
证 验</w>
证 明
证 据
设计 方案</w>
设 宴
论 斤</w>
论 据</w>
许 诺</w>
许 多
许 下</w>
讲 求</w>
记 录
记 分</w>
记 事</w>
讯 息</w>
议 长</w>
议 论
训 诲</w>
训 了</w>
让你 在</w>
认 领</w>
认 购</w>
认 识
认 罪</w>
订 立</w>
计 画</w>
计 价</w>
警 报
警 卫
課 題</w>
誊 写</w>
診 斷</w>
討 厭</w>
言不 讳</w>
言 谈
言 词</w>
言 文</w>
言 堂</w>
言 传</w>
言 两
言两 语</w>
解放 运动</w>
解剖 学</w>
解 除
解 闷</w>
解 说
解 渴</w>
解 劝</w>
角 形</w>
觉 察</w>
视频 会议</w>
视 而
视 点</w>
视 之</w>
视 为
规 格
规格 书</w>
观光 团</w>
观 礼</w>
见 效</w>
见 外</w>
见 世面</w>
要 道</w>
要 约</w>
要 犯</w>
要 旨</w>
要 冲</w>
要 不了</w>
西 风</w>
西 安</w>
西 医</w>
襲 擊</w>
褶 裙</w>
褶 皱</w>
褶 子</w>
褴 褛</w>
褥 子</w>
裸 体
裱 糊</w>
裡 面</w>
裝 飾</w>
裝 置</w>
装 点</w>
装 卸
装 到</w>
裁 缝</w>
裁 军</w>
被 誉为</w>
被 治好</w>
被 害者</w>
被 害人</w>
衷 肠</w>
衷 情</w>
衰 颓</w>
衰 败</w>
衰 减</w>
衬 托</w>
表示 祝贺</w>
表示 歉意</w>
表示 同意</w>
表 面
表 里</w>
表 彰</w>
补 足</w>
补 偿
补 习
补习 学校</w>
衣 间</w>
衣 襟</w>
衣 袖</w>
衣 衫
衣 冠</w>
衣 冠
街 边</w>
街 坊
行 迹</w>
行 话</w>
行 程表</w>
行 榜</w>
行 期</w>
行 文</w>
行 我素</w>
行 当</w>
行 列车</w>
行 使
血 红</w>
血 球</w>
血 清</w>
血 丝</w>
蠢 蛋</w>
螺丝 刀</w>
蝶 泳</w>
蜕 变</w>
蛰 伏</w>
蛮 力</w>
蛙 泳</w>
蛋 壳</w>
蛋 卷</w>
虫 类</w>
虚无 主义</w>
虚心 学习</w>
虚 浮</w>
虚 度</w>
虚 度
虚 实</w>
虚 夸</w>
虚 名</w>
虎 咽</w>
藏 身之处</w>
藏 身</w>
藏 到</w>
薪 酬</w>
薪 制</w>
薄 情</w>
蔷 薇</w>
蓝 领</w>
蓝 调</w>
蓝 藻</w>
蓝 眼睛</w>
蓝 本</w>
蓝 宝石</w>
蓑 衣</w>
蓄 电池</w>
蒸汽 机车</w>
蒙 住</w>
葱 茏</w>
葬 身
葡萄 架</w>
落 笔</w>
落 山</w>
落 地
落 后
萨斯 州</w>
萨 克
萨克 斯
萨克斯 管</w>
萧 萧</w>
萧 瑟</w>
营养 不良</w>
营 长</w>
营 销
菜 品</w>
菌 病</w>
获得 成功</w>
获 益</w>
获 悉</w>
莴 苣</w>
莱 尔</w>
莫 妮
莫妮 卡</w>
莎 士
莎士 比亚</w>
药 箱</w>
药 用</w>
药 物
药 性</w>
药 妆店</w>
药 丸</w>
荔 枝</w>
荒 野</w>
荒 谬</w>
荒 草</w>
荒 年</w>
草 率
茶 点</w>
茶 味</w>
茉莉 花茶</w>
茉莉 花</w>
范 本</w>
茂 密</w>
苹果 派</w>
苹 果树</w>
英雄 形象</w>
英雄 人物</w>
英语 论文</w>
英语 考试</w>
英语 翻译</w>
英语 口语</w>
英语 书</w>
英 模</w>
英 才</w>
英 尺</w>
英 姿
英 国人</w>
苦 钻研</w>
苦 练</w>
苦 笑</w>
苦 日子</w>
若 失</w>
苟 且
苟且 偷
苛 求</w>
花色 品种</w>
花生 米</w>
花样 滑冰</w>
花 语</w>
花 落</w>
花 白</w>
花 环</w>
花 椒</w>
花 旗</w>
花 心</w>
花 开</w>
花 岗
花岗 岩</w>
花 些</w>
芯 片</w>
芒 果</w>
节 食</w>
节 省
节 俭</w>
色彩 鲜艳</w>
色 粉</w>
色 泽</w>
色 情
良 言</w>
良 药</w>
良 心
船 运</w>
船 舶</w>
船 去</w>
船 体</w>
般 配</w>
航天 飞机</w>
航 路</w>
舞 弄</w>
舞 台
舒服 服</w>
舒 舒服服</w>
舀 水</w>
致命 伤</w>
致 癌
致 歉</w>
致 力</w>
至 宝</w>
至 关
至关 重要</w>
至 亲</w>
臭 娘们</w>
自给 率</w>
自由 自在</w>
自然 风景</w>
自我 陶醉</w>
自我 表现</w>
自古 以来</w>
自卫 队</w>
自动 扶梯</w>
自 首</w>
自 食
自 费</w>
自 若</w>
自 给</w>
自 爱</w>
自 杀
自 有</w>
自 救</w>
自 命
自 取
自取 灭亡</w>
自 发性</w>
自 传</w>
自 习
自习 室</w>
自 不
臆 断</w>
臂 力</w>
膏 药</w>
腿 肚子</w>
腾 起</w>
腺 炎</w>
腰 间</w>
腰 子</w>
腰 包</w>
腥 气</w>
腐 臭</w>
脸 色苍白</w>
脸 书</w>
脱离 现实</w>
脱 胎
脱胎 换
脱胎换 骨</w>
脱 不开</w>
脚 气</w>
脚 上</w>
脑 门</w>
脑 膜炎</w>
脑 肿瘤</w>
脑 溢
脑溢 血</w>
脑 汁</w>
脏 得</w>
脊 椎
脊椎 动物</w>
脉 脉</w>
脂 肪
脂 粉</w>
能源 消耗</w>
能 顶</w>
能 生</w>
能 当</w>
能 帮</w>
能 及</w>
能 别</w>
能 出</w>
能 先</w>
胶 水</w>
胶 原
胶原 蛋白</w>
胳 肢</w>
胡 须</w>
胡 椒
胡 志
胡 噜</w>
胡 作
胡作 非为</w>
胜 败</w>
胜 古迹</w>
背 书</w>
胆 敢</w>
胃 酸</w>
胃 肠</w>
胃 疼</w>
胃 溃疡</w>
肿 起来</w>
育 苗</w>
育 出</w>
育 人</w>
肩 而过</w>
肩 周炎</w>
肥 肥</w>
肥 肉</w>
肥 美</w>
肤 色</w>
肢 窝</w>
股 利</w>
股 价
股价 指数</w>
肛 门</w>
肉 片</w>
肉 汁</w>
肉 干</w>
肃 立</w>
聚 齐</w>
聚 变</w>
聘 书</w>
联系 实际</w>
联 动</w>
职业 性</w>
职 责所在</w>
职 者</w>
职 称</w>
聊 过</w>
聊 起来</w>
聊 聊
聊聊 吧</w>
耿 耿
耿 直</w>
耳 闻</w>
耳 洞</w>
耳 塞</w>
耕 牛</w>
耐 热
而 视</w>
而 精</w>
而 立</w>
而 活</w>
而 死</w>
而 无
而 去</w>
而 动</w>
而 上学</w>
考古 学家</w>
考 问题</w>
考 量</w>
考 查</w>
考 拉</w>
考 取</w>
考 个</w>
老太 爷</w>
老 高</w>
老 辣</w>
老 话</w>
老 规矩</w>
老 虎
老 红军</w>
老 病</w>
老 照片</w>
老 来
老 朽</w>
老 本</w>
老 族</w>
老 成
老 想</w>
老 弱</w>
老 干部</w>
老 家伙</w>
老 客户</w>
老 妇人</w>
老 八
老 兄</w>
老 不死</w>
老 一辈</w>
翻 过去</w>
翻 炒</w>
翻 到</w>
翩 翩</w>
翅 儿</w>
群众 路线</w>
群 起</w>
群 起
群 言堂</w>
羞 耻
羞 愤</w>
羔 羊</w>
美国 队</w>
美国 政府</w>
美 香</w>
美 酒</w>
美 術
美 莎</w>
美 美</w>
美 甲</w>
美 梦</w>
美 式
美 好
美 到</w>
美 人
羊 圈</w>
置之 不理</w>
置 喙</w>
罢 休</w>
罗 锅</w>
缺 额</w>
缺 课</w>
缺 欠</w>
缩 回去</w>
缩 写</w>
缠 身</w>
缠 绵</w>
缝 补</w>
缝 衣服</w>
缘 儿</w>
缘 体</w>
编 排</w>
缕 缕</w>
缔 造</w>
缓 冲
缆 车</w>
缀 着</w>
绿 油油</w>
绿 卡</w>
综合 征</w>
绵 软</w>
维护 费</w>
维多 利亚</w>
维 新</w>
维 持
维 亚</w>
绰 绰</w>
绰 号</w>
绯 红</w>
绮 丽</w>
绫 野</w>
统治 阶级</w>
统 筹</w>
统 制</w>
绝 缘体</w>
绝 技</w>
绝 不
络 腮
给 钱</w>
给 你
给你 个</w>
给 人以</w>
绕 道</w>
绕 在</w>
结结 实实</w>
结 识</w>
结 盟</w>
结 满</w>
结 合
结 出</w>
结 业</w>
经验 不足</w>
经营 权</w>
经 许可</w>
经 得起</w>
经 商</w>
经 典
经 久
绊 脚石</w>
绊 倒</w>
终端 设备</w>
终 身
终 场</w>
细 软</w>
细 说</w>
细 细
细 算</w>
组 件</w>
练 练</w>
线 虫</w>
线 型</w>
纽 带</w>
纸 质</w>
纸 机</w>
纸 包</w>
纷 纷
纷 乱</w>
纵 身</w>
纳 米</w>
纳 米
纱 布</w>
纯 水</w>
纯 文学</w>
纯 度</w>
纪念 册</w>
约 计</w>
约 略</w>
红红 的</w>
红 烧</w>
红 帽子</w>
繁荣 昌盛</w>
繁 茂</w>
繁 育</w>
繁 殖
絮 叨</w>
累 月</w>
紫 菜</w>
紧急 状态</w>
紧 跟</w>
索 然</w>
素 有</w>
系统 性</w>
系统 地</w>
系 列
系 亲属</w>
糨 糊</w>
糠 菜</w>
糜 烂</w>
精神 面貌</w>
精神 状态</w>
精疲力 竭</w>
精 髓</w>
精 辟</w>
精 深</w>
精 度</w>
精 干</w>
精 密
精密 仪器</w>
粼 粼</w>
粪 土</w>
粘 土</w>
粘 合剂</w>
粗 重</w>
粗 线条</w>
粗 粗</w>
粗 率</w>
粗 犷</w>
粒 状</w>
粉碎 机</w>
粉 尘</w>
类 人
类人 猿</w>
米 长</w>
米 色</w>
米 汤</w>
籍 贯</w>
簿 记</w>
簸 箕</w>
篮 球赛</w>
篮 球场</w>
箱 底</w>
管理 部</w>
管理 局</w>
管理 体制</w>
管 辖</w>
管 用</w>
管 弦
管 不了</w>
算 进去</w>
算 术</w>
简 练</w>
简 章</w>
简 朴</w>
简 单
签 订
签 到</w>
签 儿</w>
筹 集</w>
筹 码</w>
答 话</w>
答 如流</w>
筑 巢</w>
筑 地</w>
等闲 视之</w>
笼 屉</w>
第二 名</w>
第三 种</w>
第三 条</w>
第一 项</w>
第一 页</w>
第一 部</w>
第一 流</w>
第一 季度</w>
第 六</w>
第 一年</w>
符合 要求</w>
笤 帚</w>
笔墨 官司</w>
笔 调</w>
笔 杆子</w>
笔 录</w>
笑 骂</w>
笑 柄</w>
笑 容
竹 笋</w>
端 上来</w>
竭 尽
竭尽 所能</w>
章 法</w>
竟 成</w>
竞 走</w>
竞 标</w>
立方 米</w>
立 过</w>
立 法
立 方</w>
立 地</w>
立 修</w>
窝 藏</w>
窘 迫</w>
窗 台上</w>
窍 不通</w>
窃 笑</w>
突 击
穿 梭</w>
空白 处</w>
空气 清新</w>
空气 污染</w>
空 落落</w>
空 翻</w>
空 权</w>
空 房</w>
穷 困</w>
穷 困
穷困 潦倒</w>
稻 草人</w>
稳定 下来</w>
稳 练</w>
稳 稳</w>
稳 当</w>
稳 定性</w>
税 制</w>
稍 晚</w>
稍 息</w>
程序 设计</w>
程 图</w>
稀里 哗啦</w>
稀 疏
稀 烂</w>
稀 泥</w>
稀 有
称 心</w>
积极 因素</w>
积 蓄</w>
积 了</w>
秧 歌</w>
租 给</w>
租 房子</w>
科研 工作</w>
科 班</w>
科 室</w>
科 學</w>
秋 冬</w>
秉 性</w>
秃 秃</w>
私 货</w>
私 舞弊</w>
私 用</w>
私 有
私 房
私 愤</w>
私 募</w>
离 退休</w>
离 破碎</w>
离 心</w>
离 合
离合 器</w>
福 气</w>
禁 锢</w>
禁 欲</w>
禁 令</w>
祸 首</w>
祸 事</w>
祭 坛</w>
神经 外科</w>
神 采
神 道</w>
神 论</w>
神 秘
神 清
神清 气
神清气 爽</w>
神 志
神 异</w>
祝你 好运</w>
祝 词</w>
祈 福</w>
社会 风气</w>
社会 保障</w>
社 做</w>
礼拜 三</w>
礼品 券</w>
礼 帽</w>
示 着</w>
示 众</w>
磷 酸
磨 难</w>
磨 蹭蹭</w>
磨 磨蹭蹭</w>
磨 牙</w>
磨 刀
磨 不开</w>
磕 磕
磋 商</w>
磅 礴</w>
磁 石</w>
碰 运气</w>
碰 过</w>
碰 头
碰头 会</w>
碰 壁</w>
碎 纸机</w>
碎 末</w>
碎 布</w>
确 当</w>
硬 硬</w>
硬 棒</w>
硬 撑</w>
硝 烟</w>
破 获</w>
破 例</w>
研究 课题</w>
研究 班</w>
研究 成果</w>
矿 产</w>
石 流</w>
石 壁</w>
石 刻</w>
短 途
短 路</w>
短 距离</w>
短 程</w>
短 促</w>
知 青</w>
知 趣</w>
知 悉</w>
知 底</w>
知 不
知不 知道</w>
矛 头</w>
矗 立</w>
瞻 望</w>
瞻 仰</w>
瞧 不起
瞧不起 人</w>
瞠 目
瞠目 结舌</w>
睡觉 时间</w>
睡 魔</w>
睡 眼</w>
睡 好</w>
睡 够</w>
睡 不醒</w>
睁开 眼</w>
着 重</w>
着 歌</w>
着 实</w>
着 头脑</w>
眼 馋</w>
眼 见</w>
眼 睫毛</w>
眼 目</w>
眼 底下</w>
眼 底</w>
眼 圈</w>
真相 大白</w>
真 甜</w>
真 早</w>
真 情
真 差</w>
真 实
真 多</w>
真 叫</w>
真 假</w>
真 伪</w>
真 不少</w>
看 破</w>
看 牙</w>
看 新</w>
看 招</w>
看 得出</w>
看 个</w>
省 得</w>
省 委</w>
省 去</w>
盼 头</w>
相互 之间</w>
相 间</w>
相 聚</w>
相 结合</w>
相 知</w>
相 映</w>
相 接</w>
相 亲
相亲 相爱</w>
直接 经验</w>
直 译</w>
直 言不讳</w>
直 球</w>
直 溜</w>
直 流</w>
直 挺挺</w>
直 往</w>
直 属</w>
直 入</w>
盲 肠炎</w>
目标 值</w>
目 光
盛 情
盛 况</w>
盛 会</w>
盘 缠</w>
盘 桓</w>
盘 查</w>
盗 窃
盖 骨</w>
盖 起来</w>
盐 水</w>
盏 灯</w>
盆 景</w>
盆 会</w>
盂 兰
盂兰 盆会</w>
皱 起</w>
皮包 公司</w>
皮 特</w>
皮 毛</w>
皇 上</w>
百 感
百 家</w>
白皮 书</w>
白 面</w>
白 话文</w>
白 蒙蒙</w>
白 茫茫</w>
白 纸</w>
白 糖</w>
白 种人</w>
白 灰</w>
白 毛
白毛 女</w>
白 杨树</w>
白 杨</w>
白 晃晃</w>
白 昼</w>
白 天
白天 黑夜</w>
白 地</w>
白 兰
發 展</w>
登山 者</w>
痴 呆
痴呆 症</w>
痢 疾</w>
痛 而</w>
痛 哭</w>
痛 哭
病 状</w>
病 治好</w>
病 根</w>
病 好</w>
病 员</w>
病 变</w>
疲 塌</w>
疯 子</w>
疑 问
疏 阔</w>
略 知
略 略</w>
畜 生</w>
留 言
留 点</w>
留 有</w>
畏 难</w>
畏 避</w>
畏 怯</w>
畅销 书</w>
畅 游</w>
画 具</w>
画 上</w>
男女 平等</w>
男女 关系</w>
男 演员</w>
男 校</w>
电话 响</w>
电磁 炉</w>
电源 线</w>
电影 剧本</w>
电子 词典</w>
电器 店</w>
电 阻</w>
电 熨斗</w>
电 焊
电 炉</w>
电 机</w>
电 厂</w>
申请 表</w>
甲状 腺</w>
甲 壳
由 谁来</w>
田径 赛</w>
用 火</w>
用 工</w>
用 卡</w>
用 刀</w>
用 光</w>
用 以</w>
用 不上</w>
生活 道路</w>
生殖 器</w>
生日 派对</w>
生意 兴隆</w>
生态 平衡</w>
生产 能力</w>
生产 日期</w>
生 非</w>
生 路</w>
生 着</w>
生 水</w>
生 平</w>
生 啤酒</w>
甜 味</w>
甘 蔗
甘 苦</w>
瓦 瓦</w>
瓣 儿</w>
瓜 葛</w>
瓜 分</w>
琴 弦</w>
理 想
球 帽</w>
班 组</w>
班 制</w>
珠 算</w>
珍 珠
珍 爱</w>
珍 奇</w>
珊 瑚</w>
现 在
现在 起</w>
环境 卫生</w>
环 绕</w>
环 保
玩 法</w>
玩 开</w>
玩 嘛</w>
玩 具店</w>
王 法</w>
王 家</w>
玉米 粒</w>
玉 石</w>
玄 妙</w>
猴 儿</w>
献 词</w>
猫 头
猫头 鹰</w>
猪 圈</w>
猥 亵
猛 攻</w>
猛 劲儿</w>
猖 狂</w>
猎 狗</w>
猎 枪</w>
猎 杀</w>
狼 藉</w>
狼 吞
狼吞 虎咽</w>
狮 子
狭 长
独立 思考</w>
独木 舟</w>
独 有</w>
独 居</w>
狡 诈</w>
狠 命</w>
狗 腿子</w>
狗 熊</w>
狂 妄
狂妄 自大</w>
犹 太</w>
特立 独行</w>
特 阿拉伯</w>
特 质</w>
特 训</w>
特 约
特 此
特 律</w>
特 大号</w>
牵 累</w>
牵 牛
牵牛 花</w>
牵 掣</w>
牵 动</w>
物价 上涨</w>
物 证</w>
牡 丹</w>
牡 丹
牛 肉干</w>
牛 粪</w>
牛 皮</w>
牛 皮
牛 士</w>
牙 膏</w>
牙 痛</w>
牌 货</w>
片面 性</w>
片 断</w>
片 假名</w>
爾 蘭</w>
爽 爽
爽爽 快快</w>
爽 口</w>
父 子
爱护 公物</w>
爱 用</w>
爱 爱</w>
爱 死</w>
爱 是</w>
爱 情
爱 多</w>
爱 国主义</w>
爬山 虎</w>
爬 上来</w>
爬 上去</w>
爆 破</w>
爆 破
爆 炸
燒 定</w>
燃 机</w>
熟 女</w>
熏 染</w>
煮 熟</w>
照 进去</w>
照 护</w>
煤 球</w>
然大 悟</w>
然 後
焰 火晚会</w>
烽 火
热热 闹闹</w>
热情 高涨</w>
热情 帮助</w>
热 辣辣</w>
热 而</w>
热 死</w>
热 得快</w>
烫 手</w>
烧 得</w>
烦 死人</w>
烤 鸡</w>
烤 火</w>
烤 干</w>
烟 熏</w>
烟 灰</w>
烟 消
烟 叶</w>
烙 饼</w>
烈士 墓</w>
烈 酒</w>
烂 摊子</w>
炽 烈</w>
為 止</w>
点 菜</w>
点 缀着</w>
点 头
点 半
炸鸡 块</w>
炸 开</w>
炯 炯
炯炯 有神</w>
炮 兵</w>
炊事 员</w>
炊 事</w>
炉 火</w>
灿 灿</w>
灾 祸</w>
灾 物资</w>
灵活 性</w>
灵 验</w>
灵 灵</w>
灰 溜溜</w>
灯 油</w>
灯 下</w>
灭 迹</w>
灭 种</w>
灭 性</w>
火 鸡</w>
火 险</w>
火 种</w>
火 烧
火 灾
火 海</w>
火 柴
火柴 盒</w>
火 性</w>
火 头</w>
火 儿</w>
灌木 丛</w>
灌 注</w>
濒 于</w>
濒 临</w>
激 动
澡 后</w>
潺 潺</w>
潜 逃</w>
潜 伏
潇 潇</w>
漫 画书</w>
演 绎</w>
演 員</w>
演 了</w>
漏 掉</w>
漏 出</w>
漂 移</w>
滴 沥</w>
滨 市</w>
滤 嘴</w>
满足 感</w>
满满 当当</w>
满 眼</w>
满 目</w>
满 怀
满 开</w>
满 山</w>
满 头</w>
满 地</w>
滞 涩</w>
滚 蛋</w>
滚 热</w>
滚 圆</w>
滑翔 机</w>
滑 坡</w>
滋 贺</w>
滋 病</w>
滋 生</w>
滋 润</w>
滋 事</w>
溶 化</w>
溜 圆</w>
源 源
湿 布</w>
湮 没</w>
湖 畔</w>
湖 上</w>
游击 队员</w>
游 牧
游 民</w>
游 方</w>
游 斗</w>
游 手
游手 好闲</w>
游 动</w>
温 驯</w>
温 润</w>
温 习</w>
渣 子</w>
渔 村</w>
渔 利</w>
清真 寺</w>
清 越</w>
清 蒸</w>
清 瘦</w>
清 汤</w>
清 廉</w>
清 冷</w>
清 代</w>
添 上</w>
混 进去</w>
混 进</w>
混 纺</w>
混 淆
深表 遗憾</w>
深 造</w>
深 表</w>
深 蓝色</w>
深 究</w>
深 秋</w>
深 爱着</w>
深 水</w>
淫 荡</w>
淫 威</w>
淫 乱</w>
淤 积</w>
淤 塞</w>
淡 雅</w>
淡 季</w>
淑 女</w>
淋巴 结</w>
淋 巴</w>
涵 养</w>
液 晶
涨 落</w>
润 滑</w>
润 泽</w>
涡 轮</w>
涌 起</w>
涌 向</w>
消费 品</w>
消息 灵通</w>
消 释</w>
消 耗品</w>
涂 炭</w>
涂 满</w>
海水 浴场</w>
海 豹</w>
海 苔</w>
海 盗
海 牛</w>
海 潮</w>
海 洋
海 山</w>
海 口</w>
海 内</w>
海 之家</w>
浮 着</w>
浮 漂</w>
浮 游
浪 尖</w>
浪 头</w>
浓 重</w>
浓 淡</w>
浑身 是
浑身 上下</w>
浑 蛋</w>
测 试
测 器</w>
浇 铸</w>
浇 灌</w>
浆 洗</w>
浅 近</w>
流行 性</w>
流浪 者</w>
流浪 汉</w>
流动 资金</w>
流动 资产</w>
流 通
流 转</w>
流 程图</w>
流 畅地</w>
流 氓
[...]
