。 156119
的 93536
了 53820
我 52597
， 32127
你 29093
是 22099
他 20735
在 20367
？ 17889
很 10754
吗 10753
那个 10550
有 10141
不 8786
去 8615
就 8432
请 8232
我们 8127
和 8041
也 7958
都 7214
这个 7029
吧 6831
她 6813
人 6711
什么 6708
把 6399
想 6284
会 5821
啊 5724
好 5687
这 5680
要 5529
说 5517
着 5515
能 5328
没有 5143
上 5040
！ 4763
到 4565
来 4442
那 4421
对 4408
被 4379
给 4312
做 4122
呢 4093
... 3994
还 3905
的话 3884
可以 3857
今天 3677
地 3613
工作 3536
他们 3486
时候 3406
您 3282
从 3281
得 3115
一个 3103
用 3067
让 2950
因为 2901
里 2656
现在 2646
知道 2640
所以 2582
中 2572
看 2564
已经 2526
喜欢 2479
自己 2468
没 2409
过 2388
如果 2365
事 2320
吃 2320
开始 2295
不能 2288
一起 2274
公司 2269
个 2234
非常 2163
不是 2137
事情 2100
为 2068
很多 2061
日本 2040
进行 2004
不要 1974
再 1961
怎么 1944
问题 1899
为了 1869
觉得 1867
东西 1865
但是 1846
而 1804
这里 1784
应该 1773
又 1764
这样 1728
&quot; 1712
时间 1695
跟 1680
大家 1679
一下 1656
下 1653
多 1585
孩子 1540
明天 1511
你们 1504
向 1490
英语 1471
那里 1465
虽然 1449
地方 1444
买 1414
才 1406
走 1399
还是 1397
一直 1395
就是 1395
可能 1391
啦 1390
不会 1388
起来 1379
这种 1374
告诉 1370
这么 1370
谁 1363
之后 1359
月 1354
必须 1342
一 1330
正在 1327
一样 1306
我会 1272
朋友 1271
将 1264
同学 1261
学习 1250
为什么 1237
、 1233
一定 1231
关于 1228
最 1223
大 1207
等 1205
需要 1205
但 1188
们 1186
真的 1177
确认 1175
那么 1171
新 1156
听 1152
使用 1125
好像 1116
真是 1114
太 1113
希望 1110
后 1108
开心 1108
像 1102
儿 1092
老师 1089
点 1085
之前 1077
哦 1059
打算 1055
比 1026
想要 1018
这些 1018
与 1017
出 995
写 983
努力 974
住 967
打 956
生活 956
出来 950
时 945
这是 944
更 940
一@@ 920
家 915
学校 893
商品 890
参加 876
一次 868
一点 866
哪里 866
计划 865
以 863
准备 863
叫 854
昨天 852
这件 848
钱 848
抱歉 844
成为 842
两个 835
发生 831
期待 813
话 809
决定 808
还有 806
不@@ 804
每天 798
真 793
「 785
」 784
只 784
不过 783
那样 780
这次 778
特别 774
感觉 771
年 757
情况 757
别 752
并 752
帮 748
拿 747
快 741
由 741
看到 740
有点 734
谢谢 734
前 733
可 731
来说 730
感到 728
最近 728
找 725
一天 720
变得 719
邮件 704
作为 702
高兴 699
只是 696
死 684
能够 684
国家 682
过去 679
先生 673
重要 672
照片 670
方法 667
发送 665
起 665
认为 664
学生 657
说话 653
回来 652
总是 652
大@@ 649
别人 646
注意 646
小 645
所 641
带 637
见 637
衣服 635
妈妈 632
怎么样 631
经常 631
结束 629
只有 623
得到 623
联系 623
幸福 620
以前 619
完全 618
完成 618
那些 617
产品 616
敌人 615
书 608
对于 607
子 603
要是 603
理解 600
高 598
房间 597
结果 597
水 592
关系 590
好好 590
好吃 586
不好 584
旅行 584
比较 583
马上 579
玩 578
成 574
担心 571
电影 571
过来 571
见到 570
然后 569
身体 568
完 566
会议 563
通过 562
活动 560
对不起 555
于 552
忙 551
多少 550
么 547
早上 543
我要 542
收到 539
开 536
先 535
一些 533
今年 532
内容 530
问 530
坐 527
站 526
不了 525
中国 524
跑 519
无法 517
接受 516
日 516
见面 516
3 515
回家 515
穿 511
考虑 511
它 508
该 507
当 504
资料 504
小@@ 503
休息 502
名字 498
明白 498
几个 497
十分 497
性 497
根据 493
花 493
不想 492
世界 490
喂 488
下来 487
家里 484
就算 483
意见 483
由于 483
突然 483
今后 479
号 479
心情 478
说明 477
车 477
喝 475
爱 473
研究 473
使 471
可是 471
人们 470
本 470
讨厌 470
第一次 468
一边 467
意思 467
或者 462
最后 462
者 462
看起来 459
比赛 457
日语 456
画 455
只要 454
刚才 453
山田 450
帮助 450
变成 449
办法 447
必要 447
回 446
家伙 445
找到 445
其他 444
处理 443
大学 441
附近 440
连 439
终于 438
调查 438
声音 437
10 435
价格 433
样子 431
母亲 430
继续 430
呀 427
小时 427
睡 427
哪 426
可爱 424
生产 423
下次 421
不同 421
拜托 419
人@@ 418
1 417
5 416
东京 415
所有 415
看看 415
回答 414
嗯 412
嘛 409
能力 409
下去 408
热 408
父亲 407
干 402
而且 402
度过 401
精神 400
很大 397
要求 397
解决 395
听说 393
我@@ 393
哪个 392
手 392
有@@ 391
却 390
联络 390
送 390
信息 389
发现 389
成功 389
错误 389
心 387
2 385
学 384
支付 384
容易 383
有些 383
企业 382
原因 382
回去 382
机会 381
家人 379
一年 378
地@@ 377
之 375
上@@ 373
到底 373
店 373
出去 370
练习 370
全部 369
文件 369
人民 368
以后 368
几点 368
正确 368
仗助 367
心里 367
不行 364
内 364
再次 364
天 364
脸 364
花子 364
学姐 363
晚上 362
没事 362
麻烦 359
什么样 358
音乐 358
客人 357
感谢您 357
4 355
掉 355
里面 355
暑假 354
美国 354
那种 354
天气 353
正 352
路 352
通知 352
不用 351
笑 351
父母 350
不管 349
感谢 349
电话 349
? 348
头 348
报告 348
男人 348
有人 346
眼睛 345
长 345
为止 344
三@@ 343
病 342
出现 341
几天 340
错 340
课 339
不得不 338
吃饭 338
接下来 338
狗 338
菜 338
擅长 336
气 336
读 336
享受 335
发展 334
回复 334
奇怪 334
小心 334
已 334
约翰 334
倒 332
夹 332
生 332
制作 331
睡觉 331
加油 330
之间 329
想法 328
放 328
考试 328
运动 327
门 327
肯定 326
大概 323
我能 323
- 322
了解 321
兴趣 321
无@@ 321
水@@ 321
难 321
太好了 320
岁 320
绝对 319
任何 318
太郎 318
老 318
进 318
爸爸 317
许多 317
夏天 316
顾客 316
受 315
车站 315
提高 314
晚 314
本书 314
检查 314
中@@ 313
我家 313
才能 313
哭 312
发 311
结婚 309
预约 309
两@@ 308
日子 308
别的 307
技术 307
不到 306
因 306
行 306
没@@ 305
一种 303
一般 303
下周 303
困难 303
是不是 303
贵 303
快点 301
挺 301
那件事 301
影响 300
受到 299
存在 299
市场 299
猫 299
20 298
医生 298
姐姐 298
工厂 298
打@@ 298
部 298
那边 297
去年 294
药 294
化 292
厉害 292
听到 292
回到 291
增加 291
鱼 290
左右 289
明明 289
选择 289
公园 288
健康 287
改变 287
目标 287
上班 286
不好意思 286
就要 285
打电话 285
相信 285
他@@ 283
北京 283
多@@ 283
没能 283
离开 283
简单 283
间 283
力量 282
稍微 281
获得 280
之@@ 279
怎样 279
经验 279
细胞 278
下雨 277
女儿 277
至今 277
忘记 276
果然 276
社会 276
6 274
下@@ 274
不少 274
些 274
安排 274
教 274
替身 274
行动 274
认识 274
酒店 273
儿子 272
几乎 272
历史 272
数据 272
修改 270
医院 270
辛苦 270
介绍 269
更加 269
电车 269
确实 269
认真 269
清楚 268
其实 266
坏 266
提供 266
文章 265
服务 265
三个 264
消息 264
理由 264
酒 264
一切 263
中文 263
按照 263
人生 262
哥哥 262
产生 261
放在 261
桌子 261
梦想 261
生气 261
懂 260
飞机 260
一件 259
是因为 259
游泳 259
费用 259
午饭 258
字 258
房子 258
方便 258
日元 258
最好 258
7 257
将来 257
8 255
下午 255
我来 255
曾经 255
穿着 255
管理 255
心@@ 254
女性 253
人家 252
任务 252
分 252
发@@ 252
只能 252
看见 252
山 251
忘 251
温柔 251
直接 251
那位 251
作品 250
开@@ 250
经济 250
风 250
作 249
变 249
待 249
按 248
以为 247
天@@ 246
很难 245
重新 245
铃木 245
冷 244
引起 244
头发 243
放弃 243
照顾 243
道 243
变化 242
看着 242
记得 242
利用 241
外面 241
年轻 241
搞 241
遗憾 241
顺利 241
太@@ 240
支持 240
曾 240
汽车 240
高中 240
俩 239
去过 239
各种 239
实现 239
当然 239
有趣 239
没什么 239
身上 238
进入 238
员工 237
很快 237
方式 237
材料 236
状态 236
那家伙 236
销售 236
面 236
办 235
自行车 235
以下 234
出发 234
妻子 234
对方 234
机器 234
申请 234
设计 234
这边 234
一条 233
文化 233
个人 232
她们 232
讨论 232
革命 232
也许 231
可@@ 231
提出 231
讲 231
打开 230
期间 230
状况 230
食物 230
保持 229
出@@ 229
怎么办 229
总 229
法 229
漂亮 229
那天 229
这儿 228
颜色 228
饭 228
刚刚 227
没关系 227
机 226
等待 226
线 226
组织 225
负责 225
在家 224
环境 224
卖 223
累 223
群众 223
作业 222
而已 222
适合 222
女人 221
如何 221
行李 221
不错 220
康一 220
是否 220
便宜 219
思想 219
拿到 219
美丽 219
雨 219
...... 217
周末 217
回信 217
电脑 217
老@@ 217
危险 216
咱们 216
教育 216
早 216
是从 216
这家 216
送到 216
A 215
寂寞 215
政府 215
方面 215
劳动 214
哪儿 214
小姐 214
弄 214
条件 214
语言 214
银行 214
项目 214
几次 213
日程 213
那时 213
制度 212
建议 211
往 211
烟花 211
祈祷 211
竟然 211
比起 210
购买 210
下面 209
举行 209
习惯 209
信 209
做好 209
实在 209
舒服 209
以上 208
保护 208
原来 208
喝酒 208
家庭 208
干什么 208
正@@ 208
脚 207
船 207
来@@ 206
欢迎 206
出门 205
多么 205
有关 205
种 205
经过 205
带来 204
或 204
有没有 204
点儿 204
野崎 204
严重 203
全@@ 203
手@@ 203
详细 203
还要 203
事故 202
新@@ 202
早点 202
晚饭 202
订单 202
负责人 202
之一 201
四@@ 201
回忆 201
安全 201
态度 201
故事 201
棒球 201
全国 200
分钟 200
委托 200
常常 200
感冒 200
拉 200
每个 200
请求 200
交易 199
刚 199
料理 199
行为 199
身边 199
处 198
害怕 198
离 198
丈夫 197
拍 197
治疗 197
一片 196
借 196
允许 196
成绩 196
有名 196
量 196
高@@ 196
国外 195
电视 195
约 195
美 195
这@@ 195
30 194
事业 194
取得 194
失败 194
持续 194
提交 194
系统 194
光 193
名 193
接 193
日期 193
停止 192
开发 192
重 192
9 191
一会儿 191
一声 191
不怎么 191
加入 191
小说 191
居然 191
手续 191
在意 190
怎么回事 190
推荐 190
目的 190
事实 189
时代 189
几@@ 188
别@@ 188
愉快 188
指 188
次 188
知识 188
选 188
主要 187
人员 187
大阪 187
永远 187
演奏 187
美好 187
队 187
之内 186
各位 186
好@@ 186
工人 186
更改 186
起床 186
旅游 185
动物 184
多亏 184
式 184
成@@ 184
表示 184
上海 183
交给 183
人类 183
城市 183
外@@ 183
混蛋 183
满足 183
确定 183
表 183
除了 183
五@@ 182
件 182
差不多 182
前@@ 181
取消 181
球 181
真@@ 181
越来越 181
路上 181
远 181
面前 181
做出 180
出差 180
包 180
发货 180
口 180
同意 180
添麻烦 180
费 180
一周 179
先@@ 179
分析 179
唱 179
坐在 179
数 179
明年 179
茶 179
部分 179
同 178
少 178
开车 178
很棒 178
礼 178
纸 178
迟到 178
上课 177
商量 177
礼物 177
越 177
难道 177
领导 177
不够 176
代表 176
味道 176
弟弟 176
规定 176
力 175
吹 175
实施 175
想到 175
感动 175
换 175
生@@ 175
部门 175
一只 174
业务 174
低 174
分@@ 174
大会 174
女生 174
度 174
我国 174
攻击 174
机场 174
洗 174
肉 174
零件 174
国 173
性格 173
班 173
笨蛋 173
紧张 173
遇到 173
动 172
地区 172
意义 172
慢慢 172
杀 172
以@@ 171
作用 171
工资 171
火 171
合同 170
海外 170
游戏 170
米 170
货物 170
再见 169
多久 169
学长 169
家@@ 169
山@@ 169
战斗 169
之中 168
会@@ 168
发出 168
声 168
很@@ 168
装 168
首先 168
一部分 167
不可 167
有意思 167
派 167
留下 167
过@@ 167
实际 166
海@@ 166
传达 165
公@@ 165
制 165
发表 165
小学 165
改善 165
有着 165
每年 165
照 165
今晚 164
前面 164
自由 164
边 164
减少 163
预定 163
上面 162
不知 162
像是 162
女 162
没错 162
经营 162
这份 162
随时 162
亿泰 161
到达 161
拉@@ 161
拜访 161
效果 161
气@@ 161
巴士 160
张 160
星期 160
脸上 160
/ 159
一点儿 159
不断 159
十@@ 159
感情 159
根本 159
没想到 159
空气 159
靠 159
他会 158
似乎 158
前辈 158
翻译 158
表现 158
造成 158
二@@ 157
半@@ 157
小透 157
挂 157
时期 157
死@@ 157
油 157
票 157
责任 157
道路 157
随便 157
再@@ 156
出生 156
即使 156
嘴 156
工程 156
放@@ 156
来到 156
进来 156
平时 155
手术 155
白@@ 155
睡着 155
管 155
金额 155
强 154
无 154
无论 154
用@@ 154
箱子 154
记录 154
询问 154
调整 154
休假 153
放心 153
旧 153
歌 153
跳 153
道歉 153
一遍 152
太阳 152
妹妹 152
疼 152
肚子 152
蛋糕 152
表达 152
场 151
帮忙 151
树 151
祖国 151
笑容 151
糟糕 151
货 151
上周 150
以来 150
各种各样 150
器 150
实验 150
打扫 150
消失 150
痛苦 150
股票 150
一张 149
主义 149
少年 149
库存 149
成长 149
春天 149
更好 149
窗户 149
经历 149
自然 149
骑 149
一句 148
上学 148
出席 148
周围 148
够 148
大量 148
天空 148
头@@ 148
抱 148
教室 148
数量 148
时光 148
替 148
棒 148
漫画 148
举办 147
其 147
唱歌 147
定 147
干净 147
建设 147
最大 147
花@@ 147
距离 147
% 146
《 146
》 146
价值 146
加 146
垃圾 146
白 146
看来 146
等等 146
简直 146
评价 146
优秀 145
你好 145
充分 145
如 145
战争 145
投资 145
明日香 145
然 145
生日 145
相当 145
那@@ 145
防止 145
马 145
B 144
三 144
以及 144
得@@ 144
这项 144
透 144
长@@ 144
份 143
光@@ 143
参观 143
怕 143
日@@ 143
马@@ 143
一个月 142
万@@ 142
之类 142
充满 142
制造 142
单位 142
受欢迎 142
同@@ 142
员 142
大赛 142
布 142
手机 142
禁止 142
表情 142
谈 142
赢 142
这部 142
不安 141
伤 141
印象 141
对象 141
政策 141
未来 141
本来 141
条 141
苹果 141
订购 141
露伴 141
上午 140
互相 140
修理 140
全 140
加@@ 140
受伤 140
合适 140
外 140
失去 140
干部 140
应对 140
承太郎 140
抓住 140
暂时 140
正式 140
输入 140
上司 139
位置 139
办公室 139
取 139
弹 139
内@@ 138
同时 138
工 138
当时 138
早就 138
流@@ 138
算 138
老人 138
而是 138
同样 137
店里 137
文@@ 137
方案 137
时@@ 137
没法 137
读书 137
两次 136
久 136
交往 136
对@@ 136
期限 136
本田 136
热@@ 136
理论 136
落 136
速度 136
三年 135
事@@ 135
以外 135
做到 135
后@@ 135
大约 135
差 135
座位 135
感受 135
战士 135
有效 135
海 135
海边 135
篇文章 135
三天 134
咖啡 134
总之 134
旁边 134
水平 134
空 134
能@@ 134
进步 134
邀请 134
风@@ 134
尽早 133
拥有 133
政治 133
故障 133
有时 133
烦恼 133
直 133
访问 133
输 133
非 133
两 132
中心 132
厂 132
发给 132
悲伤 132
自@@ 132
范围 132
要@@ 132
餐厅 132
几年 131
后悔 131
因此 131
外国 131
学@@ 131
年前 131
快乐 131
早饭 131
期 131
正好 131
立刻 131
那本书 131
15 130
令人 130
八@@ 130
哎呀 130
土地 130
学会 130
尽 130
操作 130
正常 130
河 130
破 130
送给 130
一场 129
丢 129
参考 129
反@@ 129
少女 129
戴 129
拒绝 129
整理 129
斗争 129
眼 129
笔 129
腿 129
超过 129
便 128
吉他 128
失@@ 128
患者 128
挑战 128
无聊 128
曲子 128
每 128
率 128
由希 128
男朋友 128
社团 128
设定 128
鞋 128
假 127
农民 127
冬天 127
判断 127
型 127
屋里 127
恢复 127
托 127
指示 127
有点儿 127
清@@ 127
胜利 127
节 127
选手 127
青年 127
： 127
单@@ 126
可能性 126
品 126
图 126
思考 126
有个 126
木@@ 126
本@@ 126
毕竟 126
渐渐 126
看上去 126
真正 126
色 126
表演 126
迅速 126
你别 125
剩下 125
半天 125
吓 125
地址 125
女孩子 125
想起 125
散步 125
方向 125
达到 125
进展 125
两年 124
厕所 124
台 124
国际 124
大人 124
工作人员 124
怪 124
标准 124
程度 124
这位 124
区 123
安心 123
建筑 123
想象 123
感兴趣 123
毕业 123
油@@ 123
法律 123
活 123
满 123
火@@ 123
行@@ 123
要花 123
警察 123
设备 123
里@@ 123
不住 122
不去 122
不得 122
事先 122
利益 122
后面 122
地说 122
尽可能 122
控制 122
犯 122
相关 122
计算 122
转@@ 122
连@@ 122
重@@ 122
两天 121
入@@ 121
卡 121
姑娘 121
平@@ 121
年纪 121
意识 121
现象 121
训练 121
部队 121
队伍 121
黑@@ 121
12 120
从@@ 120
位 120
作@@ 120
全都 120
反对 120
坚持 120
如@@ 120
客户 120
寻找 120
导致 120
尽快 120
很少 120
望 120
热情 120
短 120
石头 120
积极 120
红 120
预算 120
不足 119
为@@ 119
你家 119
地上 119
当做 119
既 119
痛 119
破坏 119
职业 119
草 119
课程 119
谢谢您 119
这张 119
进去 119
乘坐 118
人物 118
做饭 118
健 118
包含 118
发行 118
可怕 118
各 118
愿意 118
成本 118
明@@ 118
爷爷 118
相@@ 118
院子 118
100 117
丰富 117
交 117
去世 117
发邮件 117
咨询 117
指定 117
疑问 117
而@@ 117
一份 116
儿@@ 116
再说 116
县 116
和@@ 116
如此 116
子@@ 116
干@@ 116
应当 116
总@@ 116
感 116
扔 116
板 116
椅子 116
牛奶 116
物 116
直@@ 116
约会 116
营业 116
交@@ 115
冷静 115
将会 115
报 115
普通 115
流 115
珍惜 115
皮 115
英国 115
足球 115
身 115
这块 115
遵守 115
长得 115
下个月 114
代替 114
入 114
养 114
前进 114
功能 114
同志 114
安@@ 114
强烈 114
我用 114
显示 114
点心 114
男生 114
网站 114
解释 114
骗 114
50 113
上来 113
制定 113
室 113
小时候 113
形式 113
想@@ 113
抓 113
搬 113
汇款 113
演员 113
留 113
科学 113
自动 113
近 113
这条 113
那儿 113
采取 113
面包 113
京都 112
付款 112
商店 112
回@@ 112
复杂 112
对话 112
批评 112
昨晚 112
逼 112
事件 111
千@@ 111
压力 111
安静 111
帽子 111
拼命 111
提问 111
灯 111
社团活动 111
神 111
第 111
简 111
长时间 111
一阵 110
乱 110
啤酒 110
困扰 110
地震 110
实行 110
尽管 110
屋子 110
异常 110
火车 110
烧 110
西@@ 110
请假 110
贴 110
11 109
似的 109
内部 109
变@@ 109
图书馆 109
基础 109
多次 109
如下 109
快@@ 109
搬家 109
既然 109
某个 109
看@@ 109
蔬菜 109
一家 108
一步 108
他人 108
务必 108
双@@ 108
好多 108
指导 108
提前 108
收@@ 108
替身使者 108
演讲 108
片 108
聪明 108
规则 108
黑 108
一位 107
來 107
停 107
免费 107
兵 107
受@@ 107
另外 107
应 107
快要 107
撞 107
救 107
楼 107
留学 107
病人 107
第一 107
至少 107
这座 107
那家 107
鸟 107
一时 106
合@@ 106
品质 106
开会 106
掌握 106
物品 106
相 106
社长 106
秋天 106
答案 106
粮食 106
至 106
记住 106
资金 106
过得 106
随着 106
预计 106
一半 105
任何人 105
会场 105
动作 105
国@@ 105
定@@ 105
情报 105
想着 105
成员 105
最终 105
牛 105
现场 105
用于 105
目前 105
相同 105
答复 105
辞职 105
过程 105
连续 105
难以 105
~ 104
上升 104
兴奋 104
到处 104
副 104
合作 104
听见 104
布@@ 104
并且 104
广告 104
开玩笑 104
收 104
杂志 104
梦 104
消除 104
种类 104
记忆 104
证明 104
词 104
诶 104
金 104
雪 104
中午 103
交换 103
人数 103
修 103
傻 103
冷@@ 103
原谅 103
各@@ 103
名@@ 103
土 103
女朋友 103
对策 103
年@@ 103
接近 103
景色 103
有空 103
桥 103
活着 103
点@@ 103
田 103
走路 103
那场 103
阶段 103
韩国 103
交流 102
伙伴 102
保险 102
做法 102
测试 102
硬 102
账单 102
转 102
难得 102
一副 101
一块 101
也好 101
亲切 101
价 101
值得 101
变更 101
口@@ 101
古@@ 101
多年 101
女@@ 101
奶奶 101
张@@ 101
当@@ 101
意大利 101
战略 101
手段 101
报纸 101
推@@ 101
生命 101
生病 101
系 101
一把 100
上去 100
交货 100
人口 100
从小 100
半 100
年龄 100
更新 100
权 100
植物 100
烟 100
红@@ 100
装置 100
躺 100
骂 100
魅力 100
七@@ 99
关 99
出口 99
反正 99
吃@@ 99
啥 99
巴黎 99
性@@ 99
恋爱 99
情绪 99
收拾 99
数字 99
洞 99
节目 99
起@@ 99
金@@ 99
露出 99
项 99
T 98
书@@ 98
事物 98
从来 98
内心 98
包@@ 98
只@@ 98
命 98
填写 98
季节 98
尽量 98
当地 98
意 98
打工 98
方 98
无论如何 98
日代 98
泡 98
狩生 98
答应 98
经 98
观察 98
诗 98
赶紧 98
软件 98
难@@ 98
集中 98
飞 98
· 97
一生 97
东@@ 97
伤口 97
保管 97
信@@ 97
双方 97
命令 97
想见 97
拍照 97
支援 97
新闻 97
明确 97
白细胞 97
科 97
秘密 97
细菌 97
說 97
请@@ 97
今日 96
值 96
偶尔 96
关心 96
单词 96
大部分 96
工业 96
年轻人 96
情@@ 96
手里 96
断 96
月份 96
枪 96
歌手 96
温度 96
草摩 96
血 96
语 96
账户 96
车@@ 96
这场 96
那条 96
采用 96
不敢 95
事项 95
办事 95
及 95
客气 95
战 95
架 95
烤 95
特@@ 95
空@@ 95
记载 95
讲话 95
设置 95
请问 95
足够 95
身@@ 95
高中生 95
一旦 94
不停 94
事儿 94
亮 94
刀 94
动@@ 94
十年 94
发言 94
小镇 94
工@@ 94
损失 94
措施 94
根 94
比@@ 94
求 94
爬 94
爱@@ 94
祖母 94
观光 94
闹 94
什麼 93
假期 93
其@@ 93
坐@@ 93
基本 93
好看 93
弊 93
很漂亮 93
恭喜 93
排@@ 93
放松 93
整@@ 93
来看 93
样品 93
每@@ 93
电 93
眼前 93
网 93
话题 93
说不定 93
钥匙 93
一致 92
也就是说 92
于@@ 92
伤害 92
体 92
修@@ 92
兄弟 92
吸引 92
周六 92
声@@ 92
完美 92
巨大 92
打扰 92
气氛 92
羡慕 92
落@@ 92
论文 92
账 92
走@@ 92
达成 92
这点 92
长期 92
不如 91
两人 91
中学 91
主意 91
六@@ 91
勇气 91
印度 91
叫做 91
周 91
地下 91
墙 91
就行了 91
建立 91
所@@ 91
打击 91
搭 91
正是 91
此 91
立即 91
街道 91
运动员 91
一下子 90
一名 90
借给 90
做@@ 90
军@@ 90
喊 90
嗎 90
对待 90
属于 90
市 90
干嘛 90
弄错 90
急 90
情 90
演出 90
福 90
脾气 90
记 90
这周 90
钢琴 90
限制 90
陪 90
鹿岛 90
一辈子 89
不仅 89
党 89
具有 89
原@@ 89
哟 89
喔 89
地球 89
块 89
巴@@ 89
心中 89
房 89
故意 89
有事 89
歌声 89
玻璃 89
生物 89
紧 89
聊天 89
那家店 89
那座 89
非@@ 89
鬼 89
专业 88
之外 88
人才 88
会计 88
住院 88
其中 88
具体 88
到来 88
办理 88
取@@ 88
外国人 88
婴儿 88
局 88
应@@ 88
想想 88
报道 88
提案 88
数学 88
服 88
未@@ 88
深@@ 88
苦 88
藏 88
要说 88
角色 88
遇见 88
遭到 88
面@@ 88
食品 88
一番 87
上次 87
不久 87
不见 87
中间 87
主@@ 87
倒@@ 87
公开 87
剂 87
力@@ 87
台风 87
四个 87
回国 87
固定 87
实@@ 87
小孩 87
居住 87
打扮 87
护照 87
接@@ 87
收入 87
时隔 87
温暖 87
理 87
画画 87
皮肤 87
言 87
那样的话 87
风险 87
鸡蛋 87
下降 86
两种 86
分配 86
听听 86
周日 86
封信 86
平 86
强@@ 86
形成 86
慢 86
摩托车 86
擦 86
文字 86
會 86
每次 86
没用 86
深 86
电@@ 86
自信 86
试试 86
调 86
轻松 86
运用 86
这事 86
阳光 86
风景 86
一股 85
一道 85
付 85
保存 85
分子 85
刚@@ 85
反应 85
吃惊 85
墙上 85
岛 85
彻底 85
念 85
战@@ 85
手表 85
接触 85
摆 85
收集 85
方@@ 85
明 85
死亡 85
氧气 85
汉语 85
法@@ 85
活儿 85
游 85
满意 85
目光 85
矛盾 85
老家 85
背 85
自 85
质量 85
过分 85
一段 84
一面 84
于是 84
仔细 84
他家 84
令 84
传来 84
体验 84
保证 84
农村 84
压@@ 84
发音 84
吸烟 84
呆 84
和平 84
响 84
实际上 84
床 84
惊讶 84
星期天 84
求@@ 84
满@@ 84
男子 84
白色 84
社 84
紧急 84
节日 84
跳舞 84
这篇 84
这话 84
镇 84
阿姨 84
面向 84
食 84
一口 83
不准 83
他俩 83
作家 83
发挥 83
因@@ 83
封 83
小鬼 83
总结 83
戏 83
承认 83
查 83
程序 83
维持 83
美元 83
老鼠 83
观点 83
购物 83
还好 83
这辆 83
非常感谢 83
顶 83
一顿 82
且 82
中有 82
亲 82
代@@ 82
做成 82
初中 82
害 82
寿司 82
州 82
异@@ 82
担任 82
拿出 82
据说 82
最@@ 82
浪费 82
為 82
特殊 82
理@@ 82
盘 82
省 82
血@@ 82
铁@@ 82
一点点 81
不太 81
专@@ 81
产 81
公寓 81
则 81
利@@ 81
包裹 81
化@@ 81
味 81
咦 81
咬 81
团队 81
女孩 81
妈 81
排 81
民@@ 81
游@@ 81
碰 81
美@@ 81
耳朵 81
论 81
词典 81
说@@ 81
部长 81
钱包 81
门@@ 81
传统 80
信用卡 80
军 80
出色 80
协助 80
土@@ 80
安装 80
执行 80
提 80
最高 80
活@@ 80
添加 80
电视剧 80
瘦 80
相比 80
糖 80
贡献 80
跟着 80
过度 80
这句 80
重视 80
钓鱼 80
靠近 80
音 80
一身 79
从事 79
作者 79
偶然 79
元 79
劲 79
只好 79
命运 79
商谈 79
培养 79
大雨 79
婚礼 79
师 79
恐怕 79
户 79
手指 79
数@@ 79
治 79
海崎 79
温泉 79
神@@ 79
网上 79
网球 79
职员 79
腰 79
长大 79
面试 79
饮料 79
修正 78
勉强 78
卷 78
各个 78
在@@ 78
大小 78
小孩子 78
希 78
带@@ 78
幸运 78
抽@@ 78
更换 78
杂@@ 78
松 78
款 78
理想 78
症状 78
盖 78
眼@@ 78
紫 78
误会 78
贩卖 78
赶上 78
身子 78
迎接 78
迷路 78
追加 78
顺序 78
一眼 77
乱@@ 77
二 77
亲@@ 77
儿童 77
去@@ 77
害羞 77
微笑 77
扩大 77
改革 77
教@@ 77
早上好 77
每周 77
汤 77
清 77
热闹 77
男 77
男性 77
红细胞 77
绳子 77
罪 77
裤子 77
课题 77
避免 77
陷入 77
领 77
鱼@@ 77
凉 76
反 76
多多关照 76
大声 76
感激 76
扫墓 76
投@@ 76
旧@@ 76
横@@ 76
活跃 76
牛@@ 76
相遇 76
真是太 76
艺术 76
设施 76
通常 76
领域 76
香 76
鼻子 76
不来 75
不让 75
低@@ 75
制@@ 75
单 75
原稿 75
台湾 75
后来 75
哇 75
国内 75
宣传 75
密码 75
尔 75
展开 75
弱 75
怀疑 75
教授 75
朝 75
死者 75
泥 75
王 75
祝 75
算了 75
脖子 75
装饰 75
西瓜 75
角 75
试验 75
这本 75
道理 75
集合 75
黄@@ 75
! 74
不吃 74
业 74
云 74
伟大 74
关@@ 74
关注 74
只会 74
外出 74
套 74
委员 74
安 74
家具 74
巧克力 74
座 74
建筑物 74
提@@ 74
支@@ 74
未 74
权利 74
村子 74
杜王 74
来自 74
模型 74
民族 74
添 74
炸弹 74
然@@ 74
照@@ 74
玩儿 74
直到 74
眼泪 74
移动 74
红色 74
股 74
脑子 74
英雄 74
著 74
装@@ 74
试着 74
跑步 74
还@@ 74
进@@ 74
一段时间 73
共同 73
创造 73
剩 73
努力学习 73
压 73
发送给 73
吹@@ 73
告知 73
地位 73
尊敬 73
小事 73
少@@ 73
尺寸 73
工具 73
师傅 73
年代 73
引@@ 73
扎 73
承担 73
招@@ 73
拿@@ 73
指@@ 73
敌军 73
教师 73
整个 73
烟@@ 73
现实 73
百@@ 73
空间 73
立 73
类型 73
网络 73
美味 73
裙子 73
西 73
轮 73
还给 73
醒 73
上个月 72
不再 72
不成 72
凭 72
合 72
吵 72
地图 72
宫前 72
平常 72
成果 72
换成 72
改 72
显得 72
混乱 72
爆炸 72
版 72
王子 72
甜 72
病@@ 72
百忙之中 72
碎 72
算是 72
背后 72
脚@@ 72
这一 72
退休 72
逐渐 72
降低 72
不幸 71
不起 71
久等 71
了不起 71
任 71
伞 71
加上 71
千万 71
吃晚饭 71
吉良吉影 71
女子 71
寄 71
层 71
左@@ 71
开展 71
放学 71
故乡 71
散 71
斯@@ 71
新年 71
旧社会 71
构造 71
柴 71
步 71
气候 71
物质 71
的确 71
相处 71
石 71
立@@ 71
背@@ 71
脸色 71
表面 71
证据 71
说出 71
谈话 71
轻 71
阅读 71
防@@ 71
鞋子 71
韩语 71
体内 70
你@@ 70
公里 70
养@@ 70
军队 70
农业 70
占 70
圆@@ 70
复@@ 70
夜 70
客 70
常@@ 70
常木 70
庆祝 70
急@@ 70
恐怖 70
成熟 70
改@@ 70
早起 70
毛 70
生意 70
看过 70
眼镜 70
符合 70
粉丝 70
草@@ 70
资产 70
赶快 70
越@@ 70
运费 70
通@@ 70
重复 70
门口 70
饿 70
鸡 70
． 70
一口气 69
一套 69
上述 69
主张 69
估计 69
佐仓 69
体@@ 69
先进 69
全世界 69
刺激 69
区域 69
半年 69
可惜 69
圈 69
场所 69
头上 69
学到 69
已@@ 69
愿望 69
批准 69
报@@ 69
提议 69
新鲜 69
樱花 69
河水 69
派对 69
煮 69
瞧 69
瞬间 69
类 69
绿色 69
背景 69
花费 69
药@@ 69
超市 69
还会 69
连接 69
迟 69
退 69
這個 69
食堂 69
一趟 68
下述 68
不必 68
个子 68
主 68
事务所 68
从不 68
写信 68
切@@ 68
北 68
北海道 68
叔叔 68
嘴里 68
多余 68
失望 68
奥运会 68
展示 68
怀念 68
或许 68
打破 68
海里 68
演 68
现金 68
着急 68
碰到 68
社会主义 68
究竟 68
练 68
肚子饿 68
脱 68
舞 68
证 68
追 68
配合 68
附件 68
需求 68
上级 67
久违 67
做事 67
几句 67
出售 67
南@@ 67
吐 67
含有 67
处于 67
就@@ 67
店铺 67
微@@ 67
德国 67
恶@@ 67
抽烟 67
收益 67
收购 67
断@@ 67
机@@ 67
机关 67
松@@ 67
案件 67
欺负 67
疾病 67
石@@ 67
破@@ 67
祖父 67
税 67
签名 67
虫 67
螺丝 67
街上 67
言@@ 67
许可 67
那份 67
不怕 66
休 66
俱乐部 66
分开 66
初@@ 66
原则 66
增长 66
大楼 66
好处 66
尽@@ 66
屋 66
岸边 66
干掉 66
床上 66
底 66
很长 66
所说 66
接收 66
敌 66
服装 66
机械 66
测量 66
爱好 66
玩具 66
班里 66
登记 66
肌肉 66
自我 66
良好 66
街 66
适应 66
随意 66
障碍 66
一座 65
一根 65
不下 65
买卖 65
兔子 65
冰@@ 65
分别 65
制造商 65
号码 65
基本上 65
外语 65
对手 65
對 65
工夫 65
或是 65
探讨 65
推进 65
敢 65
文 65
文学 65
无所谓 65
时机 65
本人 65
毫无 65
水果 65
沒 65
深刻 65
演唱会 65
留在 65
相见 65
看不见 65
真实 65
睡不着 65
空调 65
粉 65
约定 65
缺乏 65
蓝色 65
补 65
贸易 65
资格 65
赚 65
达 65
过于 65
酸 65
队长 65
香@@ 65
A@@ 64
一杯 64
不太好 64
五年 64
任性 64
传 64
余@@ 64
便当 64
克 64
友谊 64
同事 64
听@@ 64
地点 64
官 64
定期 64
心脏 64
折 64
招待 64
指出 64
早晨 64
星期六 64
春@@ 64
有用 64
森林 64
熟 64
特产 64
画面 64
疲惫 64
盯 64
空中 64
话说回来 64
负担 64
赛 64
那次 64
铁 64
难过 64
集 64
雇佣 64
鼓励 64
齐 64
一层 63
不上 63
中止 63
乐队 63
休息日 63
切 63
加工 63
区别 63
印刷 63
及时 63
另 63
可怜 63
可恶 63
夜@@ 63
尝试 63
常 63
总算 63
斯 63
最新 63
月@@ 63
毛@@ 63
没见 63
理所当然 63
症 63
知 63
碗 63
结构 63
胖 63
話 63
进口 63
逃 63
选@@ 63
销售额 63
一带 62
不良 62
五个 62
产业 62
传@@ 62
伦敦 62
假@@ 62
再也 62
到@@ 62
变动 62
各自 62
向前 62
嗓子 62
夏季 62
大忙 62
存 62
我军 62
所谓 62
推 62
晴天 62
本店 62
林 62
校长 62
正如 62
治愈 62
滑 62
火灾 62
界 62
病毒 62
祝贺 62
离@@ 62
稍后 62
组 62
翻@@ 62
考 62
肩膀 62
路线 62
针对 62
锅 62
阻止 62
除 62
领取 62
24 61
下班 61
不动 61
不满 61
丰收 61
了@@ 61
亲戚 61
估价 61
别说 61
包括 61
召开 61
吵架 61
基于 61
如今 61
实 61
实践 61
宾馆 61
小子 61
尔@@ 61
幼儿园 61
延长 61
往常 61
所有人 61
早餐 61
暖和 61
村 61
核@@ 61
此@@ 61
流行 61
烧@@ 61
牌 61
用户 61
相互 61
礼貌 61
立场 61
第一@@ 61
等到 61
糟 61
聚会 61
肉@@ 61
股价 61
臭 61
计 61
适用 61
那件 61
锻炼 61
附上 61
香港 61
马路 61
P@@ 60
一群 60
三班 60
买@@ 60
仓库 60
便利店 60
偷 60
冲@@ 60
卖@@ 60
危机 60
反复 60
君 60
当天 60
形势 60
抢 60
施工 60
晚餐 60
月亮 60
案 60
消@@ 60
牙 60
状 60
留@@ 60
白天 60
盐 60
相机 60
看电视 60
研讨会 60
统一 60
聊 60
职 60
舞蹈 60
超@@ 60
路@@ 60
远处 60
道@@ 60
饶 60
18 59
专家 59
专门 59
业绩 59
严厉 59
临时 59
代 59
保@@ 59
保重 59
修好 59
倾向 59
停@@ 59
充实 59
剑 59
北@@ 59
单纯 59
原 59
地面 59
太多 59
奇@@ 59
广场 59
强大 59
归 59
形 59
形状 59
形象 59
快速 59
指教 59
撒 59
机构 59
欧拉 59
特征 59
王@@ 59
电源 59
皮@@ 59
结@@ 59
给予 59
缺点 59
翻 59
血管 59
设计图 59
踩 59
身份 59
进一步 59
铁路 59
阿@@ 59
难道说 59
青@@ 59
40 58
万 58
下个 58
不肯 58
不该 58
严格 58
为难 58
二十@@ 58
人来 58
仍然 58
优先 58
克@@ 58
全身 58
冲 58
决不 58
利 58
劲儿 58
叫@@ 58
后天 58
回头 58
团 58
大海 58
居 58
展览会 58
彼此 58
御子 58
心意 58
成立 58
拍摄 58
改正 58
旅馆 58
暴露 58
更@@ 58
最初 58
模仿 58
注册 58
消灭 58
然而 58
玩笑 58
真相 58
竟 58
笔@@ 58
精@@ 58
级 58
组合 58
脑袋 58
舞台 58
荣幸 58
虽说 58
血液 58
被@@ 58
赞成 58
趟 58
这首 58
退货 58
酒@@ 58
铅笔 58
顺便 58
预测 58
题 58
东方仗助 57
个@@ 57
交通 57
他来 57
例子 57
借@@ 57
偏@@ 57
全是 57
共@@ 57
写@@ 57
列车 57
加以 57
加拿大 57
卡@@ 57
厂长 57
原来如此 57
周@@ 57
团体 57
地主 57
坏人 57
塔 57
增@@ 57
寒@@ 57
干活 57
建 57
性能 57
意@@ 57
意外 57
慊 57
手上 57
打网球 57
摸 57
放暑假 57
曲 57
木 57
杀手 57
查@@ 57
歌曲 57
法国 57
洪水 57
温@@ 57
湿 57
激烈 57
稳定 57
结 57
美妙 57
解除 57
转移 57
过头 57
造 57
道具 57
遭受 57
骄傲 57
一会 56
万日元 56
三次 56
不可思议 56
优点 56
促进 56
信心 56
做菜 56
光临 56
全体 56
冲绳 56
厚 56
原本 56
发烧 56
发给你 56
喜爱 56
喝@@ 56
地板 56
夏威夷 56
好事 56
延期 56
形@@ 56
恨 56
意志 56
找@@ 56
折@@ 56
抽 56
据 56
摆@@ 56
早人 56
明显 56
星 56
星@@ 56
月末 56
泰国 56
消费者 56
溜 56
犯人 56
男孩子 56
登录 56
看法 56
着@@ 56
睡眠 56
称 56
笔记 56
第一个 56
罗@@ 56
考虑一下 56
葡萄 56
见@@ 56
角度 56
认可 56
足 56
追求 56
送来 56
适当 56
邮寄 56
难受 56
需 56
额 56
鹿 56
不得了 55
不许 55
两周 55
之下 55
仍 55
全面 55
决心 55
劳@@ 55
卡车 55
参与 55
发售 55
同伴 55
周三 55
呼吸 55
哪@@ 55
夫 55
契约 55
山顶 55
庄稼 55
很会 55
忍耐 55
手法 55
效率 55
星星 55
有所 55
涂 55
特 55
犯罪 55
画@@ 55
盘子 55
眼光 55
神经 55
稿 55
第二 55
简@@ 55
红叶 55
结论 55
脱@@ 55
说好 55
调@@ 55
超级 55
这台 55
露 55
音@@ 55
13 54
25 54
一项 54
义务 54
九@@ 54
五 54
仗 54
信赖 54
冒 54
出租车 54
刮 54
刺 54
加班 54
包装 54
十分钟 54
印 54
合理 54
呃 54
周五 54
哎 54
团结 54
圣@@ 54
大事 54
天天 54
失误 54
好喝 54
存@@ 54
宽 54
屋子里 54
山上 54
开关 54
德@@ 54
恶心 54
惹 54
我刚 54
房屋 54
才行 54
投 54
换@@ 54
插 54
摔倒 54
收下 54
改进 54
整天 54
料 54
晒 54
权@@ 54
杞纱 54
树@@ 54
样本 54
气温 54
沙发 54
泡澡 54
洗澡 54
活力 54
班级 54
申请书 54
男孩 54
相反 54
离婚 54
老实 54
衷心 54
觉 54
详情 54
资源 54
逃走 54
那個 54
锁 54
面对 54
S@@ 53
o@@ 53
一向 53
一本 53
一辆 53
一颗 53
临@@ 53
产量 53
作出 53
信任 53
克服 53
冰箱 53
制服 53
劳动者 53
友好 53
口气 53
喂喂 53
四 53
因素 53
大神 53
头儿 53
妇女 53
守@@ 53
小伙子 53
小王 53
就让 53
左 53
庆典 53
弄@@ 53
患 53
战胜 53
技能 53
抱怨 53
拥挤 53
支 53
时常 53
林@@ 53
格@@ 53
治@@ 53
泳池 53
烂 53
牺牲 53
犹豫 53
瓶 53
田中 53
知@@ 53
窝 53
第二次 53
紧紧 53
聚集 53
色@@ 53
虽 53
解 53
警告 53
财产 53
车辆 53
这样的话 53
野 53
金钱 53
针 53
锐 53
锐君 53
非常高兴 53
须要 53
飞@@ 53
饭店 53
黑暗 53
.. 52
C@@ 52
一整天 52
下车 52
中央 52
以内 52
仿佛 52
光荣 52
公布 52
关上 52
农@@ 52
冰淇淋 52
准确 52
凉快 52
分类 52
医疗 52
反而 52
合格 52
吵死 52
品牌 52
善于 52
圆 52
城 52
堆 52
好玩 52
家务 52
宽@@ 52
小组 52
平静 52
往@@ 52
很帅 52
心灵 52
手续费 52
捡 52
政@@ 52
晚@@ 52
期望 52
杯 52
横滨 52
武器 52
汗 52
河里 52
法院 52
波@@ 52
澡 52
疼痛 52
登 52
皇后 52
硬@@ 52
第二天 52
经理 52
罢了 52
耳@@ 52
衣@@ 52
衬衫 52
袋子 52
观众 52
解开 52
诊断 52
该死 52
轻易 52
运输 52
铺 52
问问 52
阶级 52
饭菜 52
馆 52
骨 52
麻美子 52
黄 52
一头 51
两只 51
人士 51
从前 51
伤心 51
作战 51
做作业 51
其他人 51
冠军 51
准 51
减@@ 51
动物园 51
发型 51
口袋 51
唯一 51
商业 51
回收 51
图@@ 51
多长时间 51
头痛 51
姿势 51
完@@ 51
官@@ 51
宿舍 51
尽力 51
屋顶 51
帅 51
应付 51
归@@ 51
很小 51
恋人 51
感染 51
把手 51
抗@@ 51
支票 51
昨天晚上 51
显@@ 51
朝@@ 51
来得 51
杯子 51
极@@ 51
欣赏 51
江 51
炎热 51
物资 51
独立 51
电子邮件 51
疲劳 51
眼神 51
祝愿 51
称为 51
素 51
结算 51
老王 51
脸@@ 51
菜单 51
补习班 51
表@@ 51
重点 51
隐藏 51
集团 51
风格 51
飞行 51
驾驶 51
两位 50
乐器 50
争@@ 50
人去 50
今天下午 50
仪式 50
优惠 50
作文 50
傍晚 50
入侵 50
关照 50
出版 50
列@@ 50
删除 50
加强 50
华@@ 50
合并 50
吓了一跳 50
吸@@ 50
善@@ 50
墙壁 50
多田 50
大地 50
好久不见 50
好人 50
学期 50
实力 50
宠物 50
家乡 50
尊重 50
小学生 50
尝尝 50
居@@ 50
庭院 50
建造 50
开着 50
後 50
循环 50
挺@@ 50
接待 50
方针 50
早@@ 50
极 50
模式 50
段 50
沉@@ 50
洋@@ 50
洗@@ 50
浮@@ 50
用来 50
电池 50
目的地 50
睡得 50
章 50
红酒 50
细 50
缺 50
而言 50
舒适 50
若 50
药物 50
营养 50
被称作 50
规模 50
视 50
设 50
请教 50
谈判 50
谢 50
踢足球 50
达@@ 50
运气 50
这下 50
页 50
鲁迅 50
1000 49
a@@ 49
一人 49
不可@@ 49
不要紧 49
世 49
乡 49
亲自 49
人群 49
住宿 49
何@@ 49
作风 49
健三 49
入口 49
势 49
千 49
卡拉 49
即将 49
受理 49
变好 49
商 49
噢 49
困 49
守护 49
就业 49
居民 49
干劲 49
弹@@ 49
当成 49
护士 49
持有 49
指挥 49
按钮 49
挑@@ 49
挨 49
提升 49
放进 49
星期五 49
木头 49
本体 49
杀人 49
极了 49
汉字 49
泷 49
湖 49
熟悉 49
登上 49
目前为止 49
真理 49
神社 49
穿@@ 49
箭 49
组装 49
结账 49
自身 49
规格 49
这笔 49
远@@ 49
违反 49
途中 49
配@@ 49
问候 49
震惊 49
～ 49
OK 48
一对 48
义 48
云@@ 48
交涉 48
人会 48
会议室 48
入学 48
典型 48
出国 48
剧 48
剪 48
力气 48
发来 48
古老 48
吸收 48
国际@@ 48
坏事 48
坐下 48
夜晚 48
天下 48
太小 48
字@@ 48
学者 48
宇宙 48
尾 48
必@@ 48
我們 48
截止 48
扎@@ 48
打招呼 48
抹 48
拍@@ 48
拖 48
探@@ 48
无视 48
暑期 48
月底 48
汉堡 48
沙@@ 48
沿着 48
清单 48
炸 48
牛肉 48
独@@ 48
现状 48
癌症 48
相对 48
看书 48
私@@ 48
科目 48
笑脸 48
绝@@ 48
绿@@ 48
耍 48
股份 48
苦@@ 48
蛋 48
行程 48
补充 48
补考 48
见过 48
评论 48
诅咒 48
试@@ 48
请原谅 48
读者 48
过后 48
迎来 48
通 48
配 48
采访 48
重大 48
院 48
青春 48
领@@ 48
饮食 48
一夜 47
三年级 47
上下 47
不出 47
世纪 47
中暑 47
乐 47
今天天气 47
休@@ 47
优@@ 47
传说 47
做些 47
准@@ 47
列 47
初次见面 47
制品 47
前后 47
午餐 47
厨房 47
双手 47
嘉味田 47
士兵 47
备@@ 47
外边 47
大多数 47
大学生 47
太过 47
威胁 47
审查 47
宴会 47
局面 47
属 47
广播 47
开放 47
弹钢琴 47
愿 47
慎重 47
搭话 47
摔 47
放下 47
放到 47
族 47
春 47
枪@@ 47
某些 47
每月 47
比例 47
气味 47
河@@ 47
滑@@ 47
漏 47
现代化 47
盂 47
目 47
笨 47
经费 47
群 47
老婆 47
老板 47
肿 47
虚@@ 47
虫子 47
订 47
谅解 47
贷款 47
赶@@ 47
跳@@ 47
轻@@ 47
运营 47
运送 47
这幅 47
钟 47
问@@ 47
闻 47
难不成 47
雨@@ 47
饼 47
a 46
e 46
不然 46
世@@ 46
中意 46
乐@@ 46
乘 46
书包 46
争取 46
产@@ 46
人偶 46
令人@@ 46
作物 46
信用 46
八 46
升@@ 46
发了 46
发射 46
发布 46
另@@ 46
右边 46
回音 46
坚强 46
夹@@ 46
差异 46
带我去 46
很累 46
德 46
悠闲地 46
挖 46
揍 46
播放 46
收取 46
散@@ 46
斗 46
有力 46
有限 46
架子 46
某 46
标@@ 46
楼梯 46
武@@ 46
死去 46
毛病 46
民 46
沾 46
测定 46
漏@@ 46
烫 46
物价 46
猪 46
甚至 46
疯狂钻石 46
短@@ 46
笔记本 46
纠纷 46
给我发 46
编 46
缺席 46
老是 46
职位 46
般的 46
船@@ 46
货币 46
躲 46
较 46
这么晚 46
送@@ 46
首歌 46
鸣 46
16 45
i@@ 45
一到 45
三十@@ 45
不爽 45
不算 45
丝 45
主动 45
亚@@ 45
供应 45
八点 45
兰盆 45
关门 45
具 45
利润 45
句子 45
台@@ 45
史 45
各地 45
向@@ 45
和服 45
唱@@ 45
商@@ 45
嘴唇 45
多谢 45
大门 45
失礼 45
好了吗 45
宝宝 45
客@@ 45
尼@@ 45
展@@ 45
差点 45
席 45
平衡 45
很强 45
得出 45
心理 45
总有一天 45
成分 45
所示 45
扫 45
投入 45
招呼 45
挂@@ 45
挑 45
故@@ 45
教练 45
早已 45
星期一 45
暗@@ 45
有过 45
期@@ 45
校园 45
横 45
此事 45
母@@ 45
水分 45
治好 45
灯光 45
牙齿 45
特定 45
瓶子 45
石油 45
研修 45
米@@ 45
细@@ 45
经@@ 45
能否 45
致 45
航班 45
花儿 45
获胜 45
蓝 45
试 45
说实话 45
说明书 45
资本 45
赢得 45
赶 45
過 45
遭遇 45
邮票 45
醉 45
阴@@ 45
频繁 45
鼓 45
不论 44
主题 44
举 44
井@@ 44
亲人 44
住址 44
供 44
供@@ 44
修复 44
公主 44
冰 44
几 44
劝 44
只不过 44
可不是 44
告@@ 44
喜@@ 44
基准 44
堂 44
大型 44
奇迹 44
奖 44
宝贵 44
容@@ 44
对应 44
尾巴 44
左边 44
引进 44
惊@@ 44
感@@ 44
感想 44
我想 44
扯 44
抑制 44
报告书 44
拉面 44
按@@ 44
接着 44
整齐 44
新人 44
术 44
某种 44
树上 44
校@@ 44
样 44
概念 44
消费 44
深深 44
灭 44
炮 44
热烈 44
照相机 44
牙@@ 44
物@@ 44
现 44
球@@ 44
生长 44
电波 44
磨 44
秒 44
竞争 44
端 44
等@@ 44
箱 44
精彩 44
组成 44
继承 44
绿 44
罗 44
老虎 44
职务 44
胜 44
营 44
营销 44
衣 44
记者 44
证券 44
说些 44
赶不上 44
身材 44
运@@ 44
逃避 44
這@@ 44
铁塔 44
银@@ 44
隔 44
馒头 44
, 43
0 43
14 43
D@@ 43
S 43
一年级 43
一支 43
一百@@ 43
一脸 43
下单 43
不通 43
乒乓球 43
争论 43
价钱 43
会员 43
伤@@ 43
倍 43
利害 43
副@@ 43
功@@ 43
动摇 43
劳动@@ 43
升 43
即 43
厄运 43
发明 43
受不了 43
句 43
右手 43
同一 43
名单 43
吹奏乐 43
告 43
告白 43
味儿 43
咖喱 43
品@@ 43
喜悦 43
大自然 43
守 43
对面 43
尤其 43
幅 43
庙会 43
建@@ 43
心底 43
恐惧 43
找个 43
报价 43
指南 43
教训 43
斤 43
旋转 43
星期三 43
朝着 43
杀死 43
树木 43
步行 43
江@@ 43
没来 43
灵魂 43
灾害 43
熟练 43
独特 43
玩吧 43
电影院 43
电话号码 43
看吧 43
着手 43
秋@@ 43
竞赛 43
笑@@ 43
签 43
红茶 43
胃 43
艰难 43
花钱 43
藏@@ 43
视频 43
误解 43
说不出 43
请多关照 43
请来 43
谈谈 43
走向 43
超 43
过敏 43
运转 43
酒吧 43
闲 43
随@@ 43
餐 43
高级 43
2@@ 42
e@@ 42
一笔 42
乎 42
人事 42
低音 42
体育 42
何时 42
依赖 42
再见面 42
减轻 42
出身 42
前来 42
功 42
十二生肖 42
协商 42
反映 42
发动 42
咱 42
喉咙 42
喷@@ 42
地步 42
地笑 42
多种 42
好久 42
姓名 42
委员会 42
孙子 42
寻求 42
封@@ 42
小鱼 42
差别 42
广泛 42
底下 42
开口 42
影@@ 42
征@@ 42
得知 42
心眼儿 42
恶化 42
想像 42
批@@ 42
指标 42
撒@@ 42
救@@ 42
时刻 42
桌上 42
榊原君 42
汇报 42
浅 42
浑身 42
源 42
激动 42
生存 42
盛开 42
真心 42
种@@ 42
穿过 42
羽鸟 42
胳膊 42
脏 42
节@@ 42
英语会话 42
解决问题 42
言语 42
认定 42
议论 42
词语 42
说谎 42
贵@@ 42
钉 42
闹@@ 42
集体 42
雪@@ 42
顾问 42
预@@ 42
餐馆 42
首@@ 42
龙@@ 42
F@@ 41
一大 41
一手 41
一看 41
上涨 41
下雪 41
个儿 41
个性 41
举止 41
井 41
从没 41
企划 41
個 41
党@@ 41
兴@@ 41
兵@@ 41
凉爽 41
前途 41
动画 41
十个 41
厅 41
各国 41
同一个 41
同情 41
后背 41
否定 41
吴 41
回老家 41
垫 41
培育 41
基金 41
夜里 41
天堂 41
头疼 41
头脑 41
夸 41
实习 41
尖 41
布置 41
延迟 41
开门 41
引发 41
忽然 41
所在 41
打折 41
招募 41
挤 41
援助 41
摘 41
收音机 41
放入 41
李@@ 41
村庄 41
根@@ 41
歌唱 41
正当 41
洗手间 41
涨 41
漫画家 41
爱情 41
电梯 41
看不到 41
祝福 41
窗口 41
立马 41
粥 41
线@@ 41
终@@ 41
绕 41
薄 41
行业 41
袭击 41
觉悟 41
解@@ 41
订货 41
车上 41
车票 41
辣 41
运作 41
返还 41
這樣 41
造@@ 41
那辆 41
销 41
随 41
ABC 40
B@@ 40
O@@ 40
m@@ 40
万一 40
不小 40
人心 40
使@@ 40
兼职 40
净 40
出示 40
刚好 40
创作 40
前往 40
半夜 40
历@@ 40
反省 40
叫声 40
可靠 40
右 40
右@@ 40
咖啡店 40
喝茶 40
围 40
城镇 40
大厅 40
大规模 40
失 40
好不容易 40
字典 40
寺庙 40
帽 40
干雄 40
平均 40
底@@ 40
强化 40
情侣 40
房@@ 40
扔掉 40
承蒙 40
把门 40
招 40
指数 40
损害 40
描写 40
撒谎 40
斜@@ 40
无比 40
有利 40
杂 40
村@@ 40
村里 40
来回 40
格外 40
步骤 40
活下去 40
流动 40
浅@@ 40
滑雪 40
灰 40
独自 40
玉米 40
玩得 40
登山 40
积累 40
粗@@ 40
纪念 40
纸@@ 40
缺少 40
老头子 40
能量 40
落后 40
补@@ 40
西班牙 40
讲究 40
语法 40
说法 40
质 40
走上 40
走进 40
起到 40
运行 40
进攻 40
退@@ 40
送货 40
金属 40
阵地 40
附加 40
风纪 40
香蕉 40
骗人 40
4@@ 39
500 39
C 39
一双 39
一瞬间 39
一篇 39
不仅仅 39
不但 39
专心 39
严@@ 39
举@@ 39
乐罗 39
书店 39
份文件 39
使人 39
债券 39
做点 39
六 39
册 39
几岁 39
分成 39
刊登 39
划@@ 39
刷 39
刻 39
原料 39
古代 39
可不 39
可疑 39
命@@ 39
喜 39
围@@ 39
在于 39
地去 39
场合 39
塞 39
士 39
多多指教 39
好几个 39
子弹 39
富@@ 39
射 39
小狗 39
尽全力 39
尽情 39
展 39
山里 39
川 39
巨@@ 39
帅气 39
干涉 39
并@@ 39
开朗 39
弱点 39
当面 39
影 39
影片 39
忍受 39
怪@@ 39
恩 39
愚蠢 39
懂得 39
扇 39
托@@ 39
扬@@ 39
扭@@ 39
批判 39
抢@@ 39
护@@ 39
按时 39
挖@@ 39
搞错 39
放开 39
树枝 39
歪 39
残@@ 39
段时间 39
毛巾 39
深入 39
混@@ 39
演技 39
用心 39
男@@ 39
白痴 39
相似 39
睡眠不足 39
租 39
程 39
筷子 39
粗 39
结实 39
绝不 39
缴纳 39
美术馆 39
老年人 39
股东 39
自豪 39
花岛 39
英@@ 39
裂 39
讓 39
设立 39
诚实 39
费@@ 39
踢 39
身高 39
运 39
这人 39
透明 39
那张 39
酱 39
钉子 39
闷热 39
队员 39
顺@@ 39
预备 39
骨折 39
高度 39
200 38
M@@ 38
T@@ 38
d@@ 38
一批 38
不妙 38
不知不觉 38
中途 38
串@@ 38
久美 38
争 38
五分钟 38
从来不 38
付@@ 38
何必 38
保 38
假日 38
做梦 38
停留 38
健身房 38
公斤 38
分手 38
剪@@ 38
功夫 38
南 38
印@@ 38
友 38
发票 38
受试者 38
古 38
可别 38
司机 38
合宿 38
吉@@ 38
后辈 38
含 38
听懂 38
周一 38
咬@@ 38
哪些 38
嘴@@ 38
地向 38
基@@ 38
复印件 38
多多 38
好转 38
媒体 38
寻@@ 38
小花 38
干脆 38
平安 38
延@@ 38
张纸 38
强调 38
性质 38
慌 38
扑 38
打听 38
扫@@ 38
拔@@ 38
拼@@ 38
拿来 38
捏 38
搁 38
搜索 38
擅自 38
操纵 38
放着 38
是非 38
景象 38
月光 38
有种 38
有钱 38
杀@@ 38
构成 38
标记 38
没收 38
波 38
淡 38
滚 38
特意 38
现@@ 38
珍贵 38
眼看 38
确保 38
称呼 38
稍 38
笑话 38
签证 38
粒细胞 38
考@@ 38
联合 38
能干 38
苦恼 38
荒木 38
菲律宾 38
著名 38
见崎 38
观@@ 38
记@@ 38
语@@ 38
读完 38
调节 38
辛 38
选举 38
逮捕 38
那台 38
限定 38
雄@@ 38
雷@@ 38
骨@@ 38
黄色 38
一幅 37
严肃 37
主人 37
乌@@ 37
交到 37
会长 37
依@@ 37
依然 37
保留 37
养分 37
几位 37
刀@@ 37
前些天 37
功课 37
加热 37
动手 37
包围 37
十足 37
反革命 37
史密斯 37
吃了饭 37
呼 37
呼@@ 37
哼 37
地里 37
场面 37
处@@ 37
大哥 37
太快 37
始终 37
威@@ 37
孤独 37
它们 37
寄宿 37
寄给 37
小御子 37
小麦 37
帮@@ 37
幽灵 37
弓箭 37
很晚 37
怀着 37
情节 37
惨@@ 37
憧憬 37
才@@ 37
打起精神 37
批 37
把握 37
挡 37
政治@@ 37
於 37
无数 37
日常 37
早日 37
权力 37
李 37
来信 37
来往 37
树叶 37
模样 37
模特 37
毒 37
毒@@ 37
气息 37
没想 37
浴衣 37
清爽 37
港口 37
游泳池 37
潮 37
火箭 37
烦 37
物体 37
狠狠 37
玩耍 37
珍 37
电线 37
病情 37
痒 37
盛@@ 37
短信 37
礼@@ 37
穷@@ 37
第@@ 37
算@@ 37
翅膀 37
老公 37
耐心 37
背上 37
胡子 37
脑 37
腔 37
艰苦 37
英文 37
英语课 37
菜@@ 37
要点 37
评估 37
读@@ 37
豆腐 37
负@@ 37
越是 37
转换 37
软 37
边@@ 37
进货 37
退出 37
遵从 37
邮局 37
邻居 37
部@@ 37
金奖 37
闲@@ 37
雷 37
顶@@ 37
顺 37
预防 37
食@@ 37
食材 37
首 37
马拉松 37
骨头 37
鬼@@ 37
黑色 37
&apos; 36
* 36
下列 36
不愿 36
不明 36
不止 36
不用说 36
不顾 36
世上 36
业@@ 36
东 36
丝@@ 36
主任 36
乡@@ 36
事前 36
亏 36
亚洲 36
什 36
会上 36
位于 36
信封 36
傻瓜 36
免疫 36
公路 36
共 36
关西 36
关键 36
兴 36
冲击 36
决断 36
势力 36
十点 36
协议 36
博物馆 36
卫生 36
卷@@ 36
参@@ 36
参照 36
发动机 36
台阶 36
周四 36
咳嗽 36
哥 36
哩 36
四处 36
团@@ 36
坚决 36
塞@@ 36
大街 36
天气预报 36
套@@ 36
存货 36
室内 36
家族 36
对付 36
导@@ 36
射@@ 36
小船 36
屁股 36
巴 36
带你去 36
开动 36
开支 36
形态 36
從 36
心事 36
手脚 36
打倒 36
打败 36
报名 36
报酬 36
拯救 36
拳 36
指甲 36
推测 36
搞@@ 36
旋@@ 36
易@@ 36
有时候 36
服@@ 36
末 36
某@@ 36
树林 36
棉花 36
欧洲 36
氛围 36
污染 36
清扫 36
烤肉 36
煤 36
燃@@ 36
牲口 36
甩 36
由@@ 36
留宿 36
痛快 36
瞪 36
祭 36
秀 36
秋 36
窗帘 36
等候 36
管@@ 36
精力 36
红辣椒 36
纪律 36
经济@@ 36
绘理 36
缝 36
联@@ 36
聚@@ 36
脑@@ 36
艺术家 36
节约 36
草摩家 36
莫@@ 36
袋 36
观看 36
角@@ 36
财 36
贼 36
走廊 36
车间 36
这片 36
邮箱 36
配送 36
野@@ 36
铃 36
镜 36
隐@@ 36
零 36
青梅竹马 36
顺利进行 36
60 35
k@@ 35
一说 35
不太@@ 35
不开 35
久@@ 35
互@@ 35
亲近 35
优美 35
信号 35
债务 35
偷@@ 35
全球 35
击@@ 35
初期 35
务@@ 35
化学 35
去不去 35
又@@ 35
台词 35
合约 35
吉良 35
告别 35
嘲笑 35
在内 35
基地 35
填@@ 35
备 35
夏@@ 35
外套 35
大衣 35
夫人 35
夫妻 35
好些 35
好几@@ 35
完毕 35
寄@@ 35
屋@@ 35
幕 35
年级 35
待@@ 35
很久以前 35
很久没 35
很感兴趣 35
律师 35
念@@ 35
总统 35
恰当 35
意味着 35
愤怒 35
我读 35
戒指 35
执@@ 35
接到 35
放过 35
教给 35
敬@@ 35
数值 35
无论是 35
晚会 35
最低 35
极其 35
果 35
棚 35
步@@ 35
水面 35
汗@@ 35
法人 35
混合 35
热心 35
煎 35
玩@@ 35
电力 35
盘@@ 35
盼 35
种子 35
签字 35
类似 35
紧@@ 35
纳@@ 35
职工 35
肥 35
脚步 35
营业额 35
蛇 35
见解 35
规律 35
谨慎 35
负 35
追@@ 35
避开 35
邮箱地址 35
钮扣 35
错@@ 35
须 35
顽固 35
顿 35
饭团 35
香烟 35
. 34
2000 34
l@@ 34
一日 34
一路 34
上衣 34
两张 34
两点 34
主页 34
仰@@ 34
估算 34
充足 34
公共 34
减肥 34
出于 34
列表 34
到家 34
削减 34
劳动力 34
势@@ 34
勇敢 34
双 34
反动派 34
吃掉 34
吓人 34
含@@ 34
吸 34
品种 34
哪怕 34
回归 34
土豆 34
壮 34
处在 34
复习 34
外表 34
多人 34
大夫 34
天生 34
好久没 34
容 34
富士山 34
小鸟 34
巧 34
希美 34
年间 34
店@@ 34
当中 34
往往 34
微 34
怎 34
思@@ 34
总公司 34
恶劣 34
情形 34
我本 34
戴@@ 34
打个 34
找出 34
抓@@ 34
抽屉 34
拖@@ 34
掌@@ 34
提起 34
支撑 34
改造 34
放假 34
政 34
敌@@ 34
斜 34
时尚 34
明亮 34
月初 34
服务器 34
本质 34
本身 34
染 34
查明 34
格 34
棉@@ 34
欠 34
正一 34
正经 34
正面 34
永@@ 34
汇率 34
沉重 34
沙漠 34
浴室 34
深夜 34
温和 34
灵 34
灵活 34
炉子 34
点子 34
焦躁 34
熊 34
班上 34
瓦@@ 34
甚 34
留学生 34
目@@ 34
省@@ 34
真有 34
笔直 34
篮球 34
粮 34
給 34
综合 34
编@@ 34
编辑 34
脑子里 34
膝盖 34
茶@@ 34
草原 34
行情 34
表明 34
袜子 34
装备 34
要素 34
见识 34
规划 34
诞生 34
课@@ 34
豪华 34
買 34
足球比赛 34
软@@ 34
辈 34
输给 34
迟钝 34
逃跑 34
透@@ 34
逗留 34
道菜 34
遗@@ 34
金融 34
钱@@ 34
长江 34
门前 34
闭嘴 34
阳@@ 34
雾 34
露@@ 34
面子 34
鸡@@ 34
黄前 34
龙 34
1@@ 33
22 33
ReLIFE 33
一家人 33
一封信 33
一行 33
七点 33
下跌 33
专利 33
举动 33
之情 33
乔斯达 33
事态 33
交通@@ 33
仅 33
仅仅 33
今年夏天 33
以往 33
任@@ 33
企图 33
住所 33
体会 33
体制 33
例 33
保障 33
催 33
全力 33
八月 33
关闭 33
净@@ 33
凑@@ 33
几张 33
出演 33
出货 33
协定 33
厂里 33
厌烦 33
叶子 33
吊@@ 33
名古屋 33
名称 33
哈@@ 33
喝咖啡 33
喝点 33
回家吧 33
圣诞节 33
地域 33
地铁 33
夜明 33
大批 33
天上 33
天才 33
太大 33
太棒了 33
夫妇 33
存款 33
安慰 33
定义 33
寄送 33
密@@ 33
小孩儿 33
小重 33
尸体 33
尾@@ 33
已有 33
带给 33
康 33
异 33
引 33
当作 33
忍 33
手册 33
承受 33
抵达 33
拔 33
拨@@ 33
拿走 33
挨@@ 33
掌声 33
排球 33
推迟 33
摇@@ 33
改良 33
攻@@ 33
整体 33
早晚 33
明信片 33
星期四 33
是@@ 33
普遍 33
暴@@ 33
暴风雨 33
服用 33
望@@ 33
木板 33
杀掉 33
果汁 33
柔软 33
标志 33
校 33
检验 33
欢@@ 33
母 33
毛衣 33
水中 33
汁 33
沙子 33
派@@ 33
游行 33
湖面 33
溜@@ 33
滚@@ 33
濑尾 33
猛@@ 33
生动 33
痕迹 33
磨@@ 33
神色 33
空闲 33
突破 33
纷纷 33
职@@ 33
节奏 33
表扬 33
表白 33
试图 33
说服 33
象 33
趋势 33
近@@ 33
近来 33
这根 33
遍 33
道谢 33
酸@@ 33
采@@ 33
释放 33
重要性 33
雨水 33
青蛙 33
颇 33
鸡肉 33
齐@@ 33
2012 32
K@@ 32
一台 32
一连 32
一页 32
万元 32
不介意 32
丧@@ 32
二十 32
交谈 32
亩 32
他們 32
代理 32
以防万一 32
优势 32
住宅 32
住手 32
体温 32
依靠 32
停下 32
公 32
公交车 32
共享 32
关联 32
写文章 32
冬@@ 32
决@@ 32
冷淡 32
凭@@ 32
凶@@ 32
前方 32
割@@ 32
勒@@ 32
勤@@ 32
勾@@ 32
博客 32
即@@ 32
反动 32
叶 32
合计 32
吐@@ 32
商讨 32
喝醉 32
四年 32
坐飞机 32
垂@@ 32
境 32
增强 32
复制 32
夏日 32
外部 32
大胆 32
太太 32
太远 32
好好学习 32
好消息 32
姓 32
嫉妒 32
孤@@ 32
安定 32
导入 32
小偷 32
差@@ 32
带到 32
平等 32
幽@@ 32
废@@ 32
强制 32
录取 32
录用 32
忍不住 32
志 32
志@@ 32
性子 32
息 32
悠闲 32
扣 32
押 32
招聘 32
持 32
按摩 32
掉下来 32
搭@@ 32
政权 32
政治家 32
教科书 32
整 32
文件夹 32
日出 32
日式 32
春节 32
時候 32
暖 32
暴力 32
机器人 32
极大 32
柱 32
次@@ 32
毁 32
毕业生 32
没完 32
消沉 32
演@@ 32
熟人 32
父 32
狂 32
猜 32
生日快乐 32
电子 32
疏@@ 32
着想 32
确信 32
私人 32
种种 32
稿子 32
空着 32
第二@@ 32
筒 32
策略 32
米饭 32
纽约 32
统计 32
缩短 32
网页 32
罪犯 32
美容 32
美术 32
群@@ 32
耀 32
耐@@ 32
膜 32
蚊子 32
血细胞 32
装作 32
解放 32
讲座 32
词@@ 32
调动 32
谈@@ 32
货@@ 32
贴@@ 32
身体状况 32
运动会 32
這 32
遵循 32
钢 32
青 32
预想 32
高尔夫 32
17 31
19 31
CD 31
E@@ 31
G@@ 31
H@@ 31
W@@ 31
一共 31
一大早 31
一间 31
丁@@ 31
下载 31
不管怎么 31
专用 31
个别 31
丰@@ 31
今@@ 31
仪 31
价@@ 31
传真 31
传递 31
位子 31
借口 31
光辉 31
内裤 31
冒@@ 31
写字 31
军事 31
冤@@ 31
出院 31
动力 31
勤 31
华丽 31
厚@@ 31
反抗 31
品尝 31
响起 31
喝啤酒 31
园 31
国王 31
塑料 31
多个 31
大学毕业 31
夸奖 31
奇妙 31
好意 31
姐妹 31
姿态 31
子女 31
宫@@ 31
寒 31
将要 31
屈@@ 31
市@@ 31
常见 31
幻想 31
床@@ 31
弱@@ 31
很忙 31
心头 31
悬@@ 31
惩罚 31
惯 31
戴着 31
打动 31
投稿 31
捞 31
支出 31
文明 31
旗 31
无效 31
无敌 31
无辜 31
易懂 31
显著 31
曲@@ 31
有件事 31
本事 31
机票 31
条@@ 31
条约 31
枝@@ 31
栏 31
梨 31
槽 31
橘子 31
欺凌 31
欺骗 31
正义 31
法语 31
消 31
湖@@ 31
澳大利亚 31
灰@@ 31
炸@@ 31
燃料 31
狗@@ 31
疫苗 31
看样子 31
真好 31
短期 31
神情 31
积极性 31
称@@ 31
穷人 31
竹 31
竹@@ 31
第二个 31
篇 31
糖@@ 31
素材 31
织 31
绝 31
考上 31
联 31
胡@@ 31
自我介绍 31
船上 31
若@@ 31
萝卜 31
蓝@@ 31
虎@@ 31
蠢货 31
被子 31
西装 31
要死 31
讲@@ 31
诉讼 31
话语 31
误 31
谷 31
资产阶级 31
赤@@ 31
足@@ 31
蹲 31
车子 31
轮@@ 31
这点儿 31
迷 31
避难 31
重量 31
钢笔 31
键 31
问好 31
间@@ 31
防 31
阳台 31
阴谋 31
附 31
险 31
青年人 31
非洲 31
面积 31
高速 31
黄河 31
3@@ 30
r@@ 30
s 30
t@@ 30
主人公 30
乐趣 30
乡下 30
书籍 30
乳@@ 30
予以 30
二人 30
二楼 30
五点 30
人人 30
人气 30
介意 30
伦@@ 30
促销 30
债 30
做过 30
公车 30
动漫 30
十 30
半个 30
单独 30
卫星 30
厘米 30
名片 30
吻 30
周年 30
哈 30
商场 30
喵 30
困@@ 30
困惑 30
坏@@ 30
堵车 30
复 30
夕阳 30
多数 30
大雪 30
太热 30
夸张 30
契机 30
奥@@ 30
学好 30
密 30
射击 30
将@@ 30
尖@@ 30
尺 30
局势 30
工作者 30
平稳 30
建成 30
很困 30
很深 30
怀@@ 30
性情 30
总会 30
想不起来 30
成就 30
截@@ 30
打着 30
把@@ 30
抬 30
担@@ 30
拖拉机 30
拜@@ 30
换乘 30
故 30
教会 30
教导 30
施@@ 30
旅客 30
晕 30
板@@ 30
柴@@ 30
标签 30
欢迎光临 30
歇 30
歌@@ 30
止@@ 30
正要 30
残酷 30
水泥 30
没带 30
泄露 30
泳 30
浓@@ 30
海关 30
添@@ 30
清晰 30
温 30
游乐园 30
漆 30
灰色 30
炉 30
炎 30
点到 30
煤@@ 30
燃烧 30
爱着 30
特性 30
犬 30
猜@@ 30
甲@@ 30
电报 30
电视节目 30
登@@ 30
眉毛 30
瞎 30
矮 30
福冈 30
稍等一下 30
窗外 30
等于 30
网@@ 30
羊 30
老朋友 30
耳 30
肺炎 30
腰@@ 30
营@@ 30
表示感谢 30
西红柿 30
视线 30
议 30
评@@ 30
该@@ 30
败@@ 30
近期 30
那辆车 30
量@@ 30
销@@ 30
锐太 30
陷阱 30
顾虑 30
题目 30
食欲 30
鼓舞 30
70 29
80 29
一個 29
一员 29
一笑 29
一部 29
不愧 29
两国 29
两条 29
中性 29
主义者 29
义@@ 29
乐观 29
五十@@ 29
交朋友 29
亮@@ 29
人情 29
今 29
付钱 29
伏 29
余 29
余地 29
做不了 29
充@@ 29
公平 29
兵力 29
具备 29
内衣 29
冻 29
几分钟 29
分为 29
切断 29
别管 29
制成 29
券 29
刻@@ 29
前世 29
前去 29
勒 29
卖出 29
博@@ 29
卡片 29
却是 29
参赛 29
发火 29
发电 29
发誓 29
口子 29
吃药 29
听不懂 29
唉 29
噗 29
图书 29
图片 29
城@@ 29
墓 29
墨@@ 29
壁 29
外观 29
妨碍 29
委@@ 29
学问 29
宇治 29
宣布 29
害@@ 29
导弹 29
小小的 29
尚未 29
局长 29
山区 29
岁月 29
岗位 29
工地 29
希@@ 29
帐篷 29
带有 29
常识 29
年末 29
广@@ 29
广大 29
录 29
彩票 29
待遇 29
志愿者 29
忘不了 29
怒 29
惊人 29
我该 29
投资者 29
拧 29
挣扎 29
损坏 29
提示 29
操心 29
放置 29
文艺 29
新干线 29
日记 29
晚年 29
晚点 29
有话 29
杆 29
柜台 29
标 29
案@@ 29
桶 29
欠@@ 29
汇 29
汽油 29
沒@@ 29
沙 29
泡@@ 29
洗衣服 29
海洋 29
深深地 29
清理 29
潜水 29
灯@@ 29
灶 29
烟火 29
玩意 29
瓜 29
甘@@ 29
甚@@ 29
田@@ 29
电视机 29
男女 29
疙瘩 29
盒 29
直觉 29
看待 29
破产 29
福利 29
科学家 29
素@@ 29
细致 29
绝不会 29
缩@@ 29
置 29
美女 29
职场 29
自杀 29
至于 29
致力于 29
草案 29
葬礼 29
要命 29
要来 29
视@@ 29
视为 29
设想 29
证明书 29
语文 29
载@@ 29
辜负 29
选出 29
逛 29
遭 29
邂逅 29
那栋 29
铜@@ 29
阿 29
隔@@ 29
集@@ 29
饺子 29
饼干 29
魔@@ 29
90 28
一丝 28
一回 28
一圈 28
一方 28
一班 28
一阵子 28
三点 28
下个星期 28
不像 28
串 28
主席 28
之上 28
交付 28
伊@@ 28
余额 28
使得 28
健@@ 28
免 28
入住 28
关岛 28
再来 28
冻@@ 28
出手 28
击 28
列举 28
创@@ 28
利息 28
剧本 28
剩余 28
剪头发 28
务 28
卑鄙 28
占@@ 28
参加者 28
号@@ 28
响@@ 28
哑@@ 28
嘴巴 28
图像 28
土壤 28
土特产 28
坏话 28
坑 28
培训 28
基 28
多大 28
大幅 28
天色 28
女士 28
姐 28
嫌 28
宝 28
宪法 28
寄存 28
小野 28
展出 28
巨噬细胞 28
差距 28
平日 28
库 28
强度 28
心跳 28
态 28
怜子 28
性感 28
戏@@ 28
我点 28
手套 28
手工 28
打碎 28
抱住 28
指责 28
挑选 28
损伤 28
掌 28
排除 28
接电话 28
收据 28
整整 28
新宿 28
无关 28
无限 28
春咲 28
時 28
有限公司 28
板子 28
标题 28
样式 28
检测 28
欲望 28
气体 28
气球 28
水库 28
求婚 28
沙拉 28
河边 28
注意力 28
注意安全 28
注视 28
泪 28
洒 28
流氓 28
浣熊 28
浪 28
海上 28
润 28
清洁 28
清洗 28
清醒 28
港 28
热得 28
热水 28
照相 28
熬夜 28
爆 28
版本 28
物流 28
猴子 28
玉@@ 28
玉来 28
王老师 28
玩弄 28
用力 28
用品 28
画家 28
留言 28
登陆 28
监狱 28
盒子 28
盛 28
眉@@ 28
真对不起 28
真让人 28
研究所 28
称赞 28
移 28
稀@@ 28
窗 28
签订 28
精 28
精心 28
糊涂 28
纪念品 28
纵@@ 28
纹 28
线索 28
细节 28
绳 28
缩小 28
罚 28
美的 28
翻译成 28
育 28
自从 28
臭@@ 28
舞@@ 28
航 28
花瓶 28
荒@@ 28
荡 28
莫非 28
获 28
葡萄酒 28
蒙@@ 28
薄@@ 28
衣裳 28
观念 28
警@@ 28
记号 28
识别 28
话@@ 28
说来 28
赔偿 28
赛@@ 28
超越 28
越南 28
迄今为止 28
过多 28
这回 28
这天 28
进度 28
遮@@ 28
避@@ 28
還@@ 28
那本 28
那部 28
都行 28
酱油 28
镜头 28
隧道 28
零@@ 28
音乐会 28
页面 28
马来西亚 28
驾 28
麦子 28
齐全 28
I@@ 27
h@@ 27
i 27
t 27
一味 27
一律 27
万分 27
下流 27
不便 27
不定 27
不已 27
不快 27
不说 27
不远 27
丑@@ 27
丢人 27
中旬 27
主角 27
书写 27
书法 27
事例 27
二氧化碳 27
人住 27
伏@@ 27
体系 27
体重 27
依旧 27
侧 27
侵略者 27
信仰 27
信件 27
修学 27
倾听 27
儿女 27
元@@ 27
入场 27
六年 27
养老金 27
再三 27
划 27
初 27
利率 27
制裁 27
刷牙 27
刺@@ 27
办@@ 27
加深 27
劳 27
化妆 27
医学 27
印章 27
吩咐 27
呗 27
嘿 27
回应 27
回报 27
因為 27
围着 27
地带 27
坦率 27
堀 27
墙@@ 27
增产 27
外星人 27
大叔 27
好歹 27
妹子 27
娇@@ 27
客厅 27
家门 27
宿@@ 27
对比 27
小姑娘 27
就职 27
就行 27
工业@@ 27
工会 27
市内 27
市民 27
帝国主义 27
帮到 27
应征 27
府 27
废除 27
度@@ 27
开学 27
弯 27
彩 27
彩@@ 27
心思 27
志愿 27
思 27
急剧 27
恩@@ 27
情人节 27
想念 27
愣 27
我爱你 27
戒烟 27
扑@@ 27
打了个 27
打出 27
打印 27
打发 27
打得 27
持@@ 27
据点 27
搬运 27
搭配 27
收获 27
旁@@ 27
日程表 27
旱@@ 27
时请 27
智慧 27
暗 27
有害 27
果@@ 27
柱子 27
案子 27
棉 27
模糊 27
次数 27
歌词 27
毫不 27
沙滩 27
沟通 27
油漆 27
流利 27
浮现 27
海滩 27
渡 27
滞@@ 27
满脸 27
炼@@ 27
烟雾 27
熊猫 27
物理 27
牵@@ 27
狼 27
现代 27
玲奈 27
班主任 27
用到 27
疗法 27
疯 27
疯狂 27
目录 27
直线 27
看出 27
社@@ 27
端@@ 27
第一天 27
结合 27
结月 27
维修 27
缺陷 27
老头 27
耍@@ 27
联盟 27
胎 27
胜@@ 27
能源 27
脱离 27
苗 27
蒸@@ 27
虾 27
血压 27
衷心感谢 27
裤 27
解约 27
许 27
诗人 27
误@@ 27
课堂 27
谈论 27
谣言 27
谦虚 27
貌似 27
责备 27
质@@ 27
赖 27
走出 27
输@@ 27
输出 27
运动服 27
送达 27
道德 27
那句话 27
那幅 27
郁夫 27
都@@ 27
针@@ 27
钻 27
闻@@ 27
附@@ 27
降 27
除@@ 27
难题 27
零部件 27
频率 27
馬 27
鼠 27
； 27
31 26
6@@ 26
N@@ 26
er 26
g@@ 26
p@@ 26
い 26
一代 26
一击 26
一刻 26
一级 26
三周 26
不堪 26
不易 26
东方 26
两眼 26
五十 26
五月 26
交通工具 26
人儿 26
代表团 26
任意 26
传言 26
传闻 26
似地 26
住@@ 26
保密 26
停下来 26
兜 26
全家 26
兰@@ 26
关怀 26
典礼 26
出汗 26
分享 26
刑 26
刑@@ 26
创业 26
刮@@ 26
华 26
协调 26
单身 26
历史@@ 26
受灾 26
史@@ 26
同班同学 26
向着 26
告辞 26
哪天 26
哲学 26
嚼 26
四月 26
四次 26
国民 26
圆满 26
场@@ 26
埋 26
墨水 26
士@@ 26
夜见 26
天使 26
奉@@ 26
奔 26
奸@@ 26
妥当 26
婚@@ 26
学了 26
学家 26
学过 26
宫 26
富 26
寡@@ 26
封建 26
小猫 26
就是说 26
尿 26
尿@@ 26
履历 26
应用 26
店员 26
引入 26
弦 26
当前 26
往事 26
很近 26
忙于 26
怀 26
怎样才能 26
怒@@ 26
情景 26
意图 26
愚@@ 26
感到高兴 26
抛@@ 26
拜 26
拽 26
推销 26
提醒 26
搭乘 26
摇晃 26
撑 26
撑@@ 26
攀@@ 26
新车 26
无知 26
昏@@ 26
星期二 26
景 26
暖@@ 26
月刊 26
服从 26
木材 26
本地 26
来不及 26
染@@ 26
橡胶 26
欢乐 26
此人 26
武装 26
每天晚上 26
毫无@@ 26
注重 26
泪@@ 26
泼 26
洗完 26
流程 26
测验 26
海水 26
涨@@ 26
清除 26
漂@@ 26
激@@ 26
点击 26
牙医 26
特点 26
狠 26
狭窄 26
甘心 26
用功 26
用手 26
百货商店 26
眼里 26
研究室 26
确立 26
礼拜 26
票@@ 26
票据 26
祸 26
秋田 26
科@@ 26
移民 26
签约 26
精神@@ 26
累@@ 26
约@@ 26
纳 26
统治 26
缠 26
缺@@ 26
老人家 26
老太太 26
老爷 26
胆 26
胸 26
舌头 26
虎 26
蜜蜂 26
行事 26
行驶 26
解放前 26
解雇 26
议题 26
证书 26
评 26
说完 26
说起 26
豆子 26
赚钱 26
趁 26
路过 26
轮胎 26
载 26
辆 26
返回 26
这套 26
这趟 26
迷@@ 26
迹 26
追踪 26
遇 26
酸性 26
醋 26
钓 26
钢铁 26
错过 26
闪 26
闷 26
防水 26
降价 26
零钱 26
霜 26
顾@@ 26
预订 26
饱 26
驾照 26
高涨 26
鲁@@ 26
23 25
5@@ 25
I 25
L@@ 25
Misaki 25
c@@ 25
s@@ 25
u@@ 25
一首 25
七 25
三月 25
上映 25
上空 25
上边 25
不及格 25
不知@@ 25
与其 25
中断 25
临近 25
丽奈 25
之所以 25
乘客 25
九 25
书架 25
书记 25
了不得 25
事务 25
人材 25
亿日元 25
休息时间 25
估价单 25
位@@ 25
体力 25
体贴 25
信息@@ 25
停车场 25
偷偷 25
催促 25
光是 25
全员 25
写下 25
写得 25
凉@@ 25
出血 25
分数 25
到此结束 25
前天 25
动不动 25
千代 25
可真 25
吞@@ 25
否认 25
听课 25
周二 25
哆 25
唯@@ 25
商业@@ 25
商品目录 25
商量一下 25
喝一杯 25
回事 25
夏川 25
多岁 25
大大 25
大方 25
大显身手 25
大笑 25
大道 25
太忙 25
太累 25
太重 25
奇 25
契约书 25
女演员 25
奶 25
始@@ 25
婚姻 25
学院 25
宗教 25
审@@ 25
家长 25
差一点 25
己 25
市场营销 25
市政府 25
师@@ 25
带走 25
帮上 25
年度 25
并购 25
广阔 25
引导 25
引用 25
很久 25
很差 25
得救 25
必然 25
忘@@ 25
忠@@ 25
怕@@ 25
急忙 25
恶 25
慢@@ 25
打游戏 25
扶 25
披 25
抱@@ 25
抽出 25
拳@@ 25
排队 25
描绘 25
插@@ 25
搂 25
搬@@ 25
摄取 25
摇 25
播 25
操 25
擦@@ 25
敲@@ 25
料@@ 25
日益 25
早早 25
普@@ 25
智@@ 25
替换 25
有益 25
朴素 25
束缚 25
来讲 25
极端 25
枕头 25
枪声 25
柏林 25
核 25
栽 25
汇@@ 25
汉 25
泉水 25
波动 25
活泼 25
深厚 25
滞留 25
灰尘 25
炒 25
烤@@ 25
焦@@ 25
照着 25
熟@@ 25
熬 25
爬@@ 25
片@@ 25
特地 25
班长 25
理科 25
用不着 25
留下来 25
番茄 25
百万 25
福@@ 25
种植 25
站住 25
粉@@ 25
系@@ 25
索 25
绑 25
结成 25
给出 25
缸 25
考察 25
股市 25
肺 25
胸@@ 25
脚下 25
致@@ 25
舍 25
般 25
草莓 25
荞麦面 25
著作 25
蠢 25
行人 25
行政 25
裡 25
西方 25
计@@ 25
计算机 25
训斥 25
讲习 25
账号 25
起飞 25
跟踪 25
过日子 25
这批 25
这栋 25
述 25
送别 25
逗 25
通讯 25
速 25
遇上 25
遗产 25
酒精 25
重伤 25
钢@@ 25
难忘 25
雨下 25
预期 25
饭@@ 25
验@@ 25
验证 25
鱼谷 25
鲜@@ 25
b@@ 24
y 24
一块儿 24
一来 24
一组 24
不管怎样 24
不高 24
乌云 24
乐意 24
乘@@ 24
买来 24
事是 24
五天 24
从那之后 24
仙 24
仪器 24
任命 24
会变 24
伯@@ 24
低头 24
体检 24
依 24
便@@ 24
俗 24
停车 24
光明 24
光线 24
免@@ 24
免得 24
免税 24
六点 24
写出 24
凝@@ 24
几句话 24
几本书 24
分发 24
分散 24
初中生 24
初次 24
判决 24
别墅 24
别看 24
前线 24
劝@@ 24
动向 24
助 24
南方 24
发作 24
叫醒 24
各项 24
同班 24
启动 24
味@@ 24
哪家 24
哪边 24
嗜 24
四周 24
国家@@ 24
国籍 24
地响 24
场景 24
坚@@ 24
坦白 24
型@@ 24
堵 24
堵住 24
堵塞 24
壶 24
夏 24
够@@ 24
大致 24
天津 24
太晚 24
奏 24
好不好 24
如同 24
姑且 24
宝石 24
寄来 24
富裕 24
寒冷 24
察觉到 24
寿命 24
小利 24
小瞧 24
少数 24
山村 24
山路 24
巡@@ 24
帐 24
干燥 24
并非 24
幼@@ 24
庄严 24
废物 24
开个 24
强盗 24
当年 24
形容 24
得意 24
得来 24
总理 24
想过 24
慌张 24
成人 24
我方 24
户@@ 24
所知 24
打来 24
打架 24
扣子 24
抓紧 24
拐@@ 24
拢 24
拥抱 24
择@@ 24
拳头 24
挤@@ 24
捐赠 24
排列 24
摊 24
摩托 24
支配 24
收成 24
放手 24
放晴 24
政党 24
效 24
救护车 24
文物 24
新娘 24
新生 24
旅程 24
无力 24
时而 24
明星 24
普及 24
暴雨 24
末@@ 24
本社 24
机密 24
材质 24
来得及 24
核对 24
欲 24
欲@@ 24
歇@@ 24
没意思 24
法庭 24
泥@@ 24
洗手 24
洛@@ 24
派遣 24
流通 24
消化 24
混 24
游乐场 24
游客 24
灌 24
烈士 24
烧烤 24
爱人 24
狂@@ 24
独奏 24
环@@ 24
现有 24
琴 24
瓦 24
用水 24
田地 24
略 24
疑 24
痛@@ 24
白菜 24
看护 24
真想 24
眺望 24
着迷 24
示 24
祖先 24
神户 24
笑声 24
答 24
粒 24
纯洁 24
终止 24
维@@ 24
置@@ 24
羊@@ 24
美食 24
羞耻 24
老张 24
老李 24
耗费 24
股@@ 24
胆@@ 24
胜负 24
胶@@ 24
良@@ 24
艺人 24
草地 24
荒 24
莫名其妙 24
蒙 24
藤@@ 24
蜡烛 24
衫 24
角落 24
订正 24
设法 24
试穿 24
读过 24
课上 24
象征 24
财务 24
赞同 24
身体健康 24
转达 24
这双鞋 24
进城 24
远方 24
违背 24
送过来 24
逃@@ 24
选拔 24
那片 24
那项 24
郊游 24
里边 24
金牌 24
铺@@ 24
链接 24
镇上 24
長 24
问卷 24
附在 24
降@@ 24
隔阂 24
震@@ 24
顽强 24
预感 24
高价 24
高温 24
高龄 24
麦@@ 24
麻@@ 24
19@@ 23
26 23
35 23
365 23
9@@ 23
o 23
一碗 23
一贯 23
三神 23
上市 23
下手 23
不在乎 23
不看 23
不着 23
不问 23
东海 23
两倍 23
两家 23
丧 23
九点 23
二年级 23
人体 23
人力 23
今早 23
令@@ 23
众人 23
会来 23
会谈 23
传单 23
传播 23
伸@@ 23
佛 23
例外 23
侧@@ 23
們 23
倾@@ 23
做爱 23
像@@ 23
兼@@ 23
冒险 23
写作 23
冬季 23
出名 23
出场 23
切除 23
刊 23
创立 23
割 23
动人 23
区分 23
医@@ 23
十岁 23
协会 23
卖完 23
卫@@ 23
即便 23
友情 23
发自内心 23
发达 23
发送到 23
只用 23
叶@@ 23
同性恋 23
吴先生 23
吵@@ 23
哪有 23
商人 23
喜歡 23
噪音 23
壮观 23
声明 23
壳 23
外汇 23
大树 23
天亮 23
太过分 23
头部 23
妄想 23
娘 23
孔 23
安杰洛 23
宿 23
富有 23
察 23
射程 23
小张 23
小鸡 23
岩 23
左手 23
帅哥 23
带回去 23
干杯 23
庙 23
开设 23
强硬 23
当初 23
影子 23
往前 23
往后 23
很受 23
很早 23
忙碌 23
快到 23
怎麼 23
怨@@ 23
恶意 23
悠@@ 23
想来 23
慢跑 23
我下 23
我养 23
战场 23
戳 23
手腕 23
手艺 23
扒 23
执照 23
技术@@ 23
技术革新 23
投票 23
拼 23
捧 23
接送 23
揉 23
支笔 23
效@@ 23
教学 23
散布 23
敲 23
施 23
旁 23
无人 23
日常生活 23
时间表 23
星期日 23
暂停 23
本领 23
机能 23
来接 23
来过 23
果实 23
柜 23
树立 23
格式 23
梦@@ 23
棋 23
歧视 23
每人 23
毫无疑问 23
民主 23
沉 23
没说 23
沿@@ 23
泳衣 23
洗衣机 23
消极 23
消费税 23
液 23
淡@@ 23
游击队 23
游览 23
滋味 23
滴@@ 23
潜@@ 23
烈 23
熔@@ 23
版@@ 23
牛排 23
犯@@ 23
猛 23
猪肉 23
甩卖 23
电灯 23
痊愈 23
瘤 23
的@@ 23
盖@@ 23
相识 23
真凉 23
码头 23
破损 23
碍事 23
碰头 23
碰见 23
神秘 23
离别 23
稳 23
第一名 23
管制 23
索@@ 23
线路 23
组@@ 23
终 23
经营者 23
统@@ 23
续 23
维护 23
缘故 23
罐 23
罐头 23
老妈 23
肌肤 23
肥@@ 23
肥料 23
胀 23
背着 23
脆 23
腹@@ 23
花生 23
花粉 23
苏@@ 23
荣誉 23
菌 23
虚弱 23
蝴蝶 23
融化 23
补偿 23
补助 23
西服 23
规矩 23
视野 23
警 23
认 23
讨@@ 23
证券公司 23
证实 23
谎言 23
谱 23
负荷 23
财@@ 23
败 23
败者 23
账目 23
走过 23
跑@@ 23
跟头 23
蹭 23
转变 23
轰炸 23
辞 23
这封 23
这才 23
违法 23
逆@@ 23
速@@ 23
遥远 23
那首歌 23
门上 23
闪@@ 23
闲话 23
限度 23
难以置信 23
雅@@ 23
集会 23
静@@ 23
静脉 23
韭菜 23
风俗 23
风吹 23
食尘 23
鲜明 23
鸟@@ 23
黑板 23
8@@ 22
D 22
M 22
X 22
一一 22
一个@@ 22
一千@@ 22
一晚 22
一线 22
一通 22
上网 22
上车 22
不利 22
不如说是 22
不当 22
不清 22
不禁 22
与@@ 22
业界 22
丢脸 22
严 22
严谨 22
个个 22
个人信息 22
之心 22
乖 22
互联网 22
亲密 22
人民@@ 22
从中 22
付出 22
借用 22
偏 22
傻@@ 22
先到 22
先后 22
兑换 22
关税 22
养育 22
再生 22
写错 22
农场 22
冷静下来 22
减 22
出勤 22
出错 22
分布 22
到期 22
到货 22
前提 22
劣@@ 22
助手 22
劳累 22
包袱 22
化妆品 22
区@@ 22
千里 22
南京 22
去取 22
去死吧 22
受人 22
变强 22
变暖 22
叙述 22
台上 22
吃完饭 22
名叫 22
后续 22
向导 22
咖啡厅 22
哈哈 22
哪位 22
哭@@ 22
問題 22
图案 22
在世界上 22
在外 22
地形 22
坡 22
增多 22
复印 22
外地 22
大多 22
大米 22
太君 22
奈良 22
奔@@ 22
套餐 22
奶奶家 22
奶油 22
她家 22
妇@@ 22
字母 22
学费 22
完善 22
宝@@ 22
审判 22
寺 22
将军 22
小朋友 22
小河 22
小玉 22
小路 22
少爷 22
尝 22
尽头 22
岸 22
峰 22
工程师 22
工艺品 22
差额 22
常用 22
干得 22
幻@@ 22
开拓 22
开来 22
弥补 22
弹得 22
强行 22
录像 22
录音 22
待人 22
得以 22
心肠 22
急事 22
性命 22
悔 22
悲惨 22
房租 22
打包 22
扣除 22
扬 22
抄 22
抗原 22
折扣 22
抛弃 22
抢救 22
护 22
披@@ 22
披萨 22
抵@@ 22
指引 22
据@@ 22
探望 22
援@@ 22
摄影 22
摘@@ 22
摩@@ 22
撒娇 22
操@@ 22
敏感 22
救救 22
教育@@ 22
敬请 22
整顿 22
斗@@ 22
既@@ 22
时节 22
未咲 22
未必 22
杭州 22
极为 22
样儿 22
欠缺 22
毫@@ 22
汉@@ 22
池 22
汤姆 22
没到 22
洋 22
海啸 22
漫@@ 22
炕 22
点半 22
烹饪 22
熏@@ 22
爆发 22
爪 22
父@@ 22
爹 22
牌子 22
玩偶 22
班@@ 22
用作 22
瘦@@ 22
登载 22
知识分子 22
码 22
碰@@ 22
禁烟 22
秘书 22
租借 22
稳@@ 22
窒息 22
第三@@ 22
等级 22
类@@ 22
系列 22
素质 22
紧急情况 22
纤维 22
练@@ 22
绝望 22
缓 22
缓和 22
缘 22
罢工 22
羁绊 22
羞 22
肩上 22
至@@ 22
色彩 22
药品 22
袖子 22
見 22
解决方案 22
解答 22
警报 22
订@@ 22
认@@ 22
议@@ 22
诱惑 22
谋 22
谢绝 22
贪@@ 22
贫穷 22
购 22
贵社 22
资 22
赠送 22
赤泽 22
赴任 22
超人 22
足球队 22
转动 22
转学 22
轻浮 22
辫子 22
近年来 22
这所 22
退还 22
适@@ 22
适宜 22
逐步 22
這麼 22
避 22
部件 22
都市 22
钻@@ 22
铜 22
长处 22
阳 22
阴天 22
阻挡 22
附带 22
隔壁 22
难看 22
雅 22
零花钱 22
震动 22
鞋@@ 22
顺着 22
顾 22
骗子 22
骚动 22
骰子 22
高三 22
高峰 22
魔女 22
麻 22
黄油 22
） 22
21 21
300 21
7@@ 21
CM 21
DIO 21
H 21
w@@ 21
の 21
一堆 21
一瓶 21
一盘 21
上个星期 21
下山 21
下落 21
不光 21
不可或缺 21
不合 21
不多 21
不尽 21
不正 21
不至于 21
丢失 21
两件 21
两岸 21
两边 21
乔 21
乡村 21
交叉 21
亲手 21
人品 21
亿 21
仓 21
他用 21
他长 21
众多 21
伴随 21
佛@@ 21
供给 21
侵犯 21
修订 21
停电 21
公文 21
兰 21
其它 21
养成 21
决 21
冷冻 21
凌@@ 21
几件 21
几十@@ 21
凶 21
凶手 21
出乎意料 21
出去玩 21
刷@@ 21
剧情 21
剪刀 21
副作用 21
动身 21
化石 21
十月 21
升值 21
协@@ 21
卧@@ 21
厂@@ 21
厌倦 21
厌恶 21
发抖 21
发给您 21
发起 21
口水 21
口音 21
古董 21
叹 21
吃饱 21
吉娃娃 21
后方 21
启发 21
呐 21
哥@@ 21
哭泣 21
喘 21
囊 21
园@@ 21
圈@@ 21
坏蛋 21
坚定 21
坦克 21
城里 21
墨 21
壮@@ 21
夏纪 21
大使 21
夺@@ 21
好听 21
好开心 21
好痛 21
委屈 21
威 21
婚 21
完蛋 21
实物 21
尊严 21
小正 21
小羽 21
少见 21
局@@ 21
层@@ 21
屏幕 21
岂 21
市长 21
平凡 21
平静下来 21
年长 21
广州 21
开工 21
开幕 21
弄清楚 21
引擎 21
当场 21
当心 21
征收 21
待会儿 21
很痛 21
御@@ 21
心想 21
态@@ 21
怨 21
恋 21
恒一 21
悲@@ 21
情感 21
惊喜 21
我校 21
戒 21
扇子 21
打高尔夫 21
扣@@ 21
扰 21
护理 21
押@@ 21
拥@@ 21
拦@@ 21
指望 21
捕@@ 21
授予 21
掉@@ 21
控 21
提倡 21
搜集 21
携带 21
摔@@ 21
撤@@ 21
播种 21
效应 21
敌机 21
教堂 21
敲门 21
文献 21
断定 21
新加坡 21
新闻@@ 21
施行 21
景点 21
暑假作业 21
暴 21
最多 21
最快 21
最棒 21
权势 21
染上 21
桃@@ 21
检@@ 21
楼上 21
楼房 21
概括 21
欢 21
正规 21
步伐 21
民族@@ 21
气得 21
气象 21
水里 21
沉默 21
沟 21
泪水 21
泰@@ 21
流畅 21
浆 21
浇@@ 21
浪漫 21
海面 21
液体 21
渠道 21
演习 21
灯路 21
灵@@ 21
灾区 21
炒@@ 21
点头 21
照看 21
狂风 21
狡猾 21
狮子 21
生活费 21
用途 21
田里 21
甲 21
电缆 21
癌 21
癌细胞 21
登场 21
皇帝 21
皮鞋 21
监督 21
盖章 21
直说 21
相应 21
相符 21
看望 21
真的假 21
研究生 21
碎@@ 21
磁带 21
礼节 21
秀丽 21
私 21
积 21
积压 21
空白 21
签@@ 21
算盘 21
管道 21
粘 21
纯粹 21
给@@ 21
继续下去 21
缝@@ 21
罩 21
耀眼 21
肌 21
肚子痛 21
育@@ 21
肺部 21
背叛 21
自愿 21
舍不得 21
艰辛 21
苦难 21
英勇 21
虚假 21
蛋白质 21
街@@ 21
街头 21
补贴 21
被捕 21
裁 21
装有 21
装载 21
裕 21
覆盖 21
观 21
触@@ 21
让给 21
诚@@ 21
谎 21
谢@@ 21
贝@@ 21
路边 21
身影 21
轨 21
转告 21
轮船 21
边儿 21
迎@@ 21
这时 21
进修 21
连衣裙 21
退款 21
造型 21
逼@@ 21
遭@@ 21
那小子 21
部下 21
醒来 21
长城 21
长度 21
门外 21
闭@@ 21
闻名 21
阵 21
隐瞒 21
集训 21
静 21
项链 21
领导人 21
领带 21
颤抖 21
飘@@ 21
饮@@ 21
饰 21
高大 21
高山 21
鸟儿 21
鸣@@ 21
黄瓜 21
鼓@@ 21
鼻@@ 21
（ 21
0@@ 20
400 20
R@@ 20
X@@ 20
は 20
一体 20
一拳 20
一方面 20
一模一样 20
一门 20
丁 20
上山 20
下回 20
不平 20
丑 20
东北 20
两句 20
两手 20
举起 20
九月 20
也罢 20
买入 20
亏损 20
交际 20
享用 20
人工 20
人手 20
人能 20
介@@ 20
从未 20
优待 20
会儿 20
伤员 20
似 20
侵害 20
侵略 20
促@@ 20
俄罗斯 20
俗@@ 20
信念 20
修建 20
倒下 20
值@@ 20
偏偏 20
偏差 20
偿还 20
僵硬 20
兆 20
党员 20
公共汽车 20
公演 20
六个 20
兴趣爱好 20
再有 20
写日记 20
冢 20
凄@@ 20
几下 20
几号 20
凡 20
出入 20
刁难 20
分店 20
分红 20
判@@ 20
別 20
刨冰 20
利落 20
前边 20
勇@@ 20
勤奋 20
北京@@ 20
匪徒 20
午休 20
危害 20
卷入 20
原野 20
厨师 20
县@@ 20
及格 20
反射 20
取胜 20
变态 20
叛@@ 20
召集 20
吃个 20
吉田 20
名声 20
后边 20
吨 20
听力 20
咯 20
咱@@ 20
哄 20
哄@@ 20
哑 20
商务 20
商标 20
喽 20
器材 20
四点 20
图表 20
在场 20
在读 20
地望 20
地用 20
地问 20
坏掉 20
型号 20
垒 20
堕落 20
墨西哥 20
壁@@ 20
处境 20
外公 20
多管闲事 20
多钱 20
夜间 20
大火 20
大陆 20
太贵 20
太难 20
太高 20
失落 20
奋斗 20
奶@@ 20
好奇心 20
好评 20
嫩 20
季 20
学业 20
学习成绩 20
學 20
宁@@ 20
定价 20
实质 20
家中 20
容许 20
小提琴 20
就够 20
屈服 20
展现 20
履行 20
山坡 20
山脉 20
岩@@ 20
岩石 20
崩溃 20
工作@@ 20
差点儿 20
帕@@ 20
帖 20
干旱 20
年糕 20
广 20
康复 20
开头 20
开店 20
开花 20
开辟 20
弄脏了 20
归来 20
彩虹 20
徘徊 20
忍住 20
快去 20
快点儿 20
恐龙 20
惯例 20
惹@@ 20
愈 20
成天 20
成年人 20
户口 20
所属 20
手下 20
手中 20
打雷 20
扯@@ 20
扶@@ 20
抄@@ 20
抗议 20
拆 20
拆@@ 20
拍照片 20
指点 20
换上 20
接吻 20
掩@@ 20
描述 20
摸@@ 20
撇@@ 20
撕@@ 20
播@@ 20
收件人 20
收银台 20
改成 20
放出 20
教材 20
敢@@ 20
早期 20
旺 20
映 20
智力 20
暂且 20
曲线 20
更大 20
曼 20
有无 20
有钱人 20
服务员 20
杀伤性 20
极限 20
构@@ 20
构建 20
柔@@ 20
柳@@ 20
柿子 20
梦野 20
楼@@ 20
概@@ 20
欸 20
止 20
正直 20
死刑 20
比如 20
民主@@ 20
汇总 20
沉浸 20
河流 20
注射 20
流利地 20
测@@ 20
浪@@ 20
浮 20
海报 20
涌 20
深切 20
清晨 20
游戏厅 20
激励 20
火焰 20
炮@@ 20
点火 20
煞 20
熊@@ 20
爽快 20
特务 20
狼@@ 20
猛烈 20
猪@@ 20
献@@ 20
玉 20
玩游戏 20
甜@@ 20
生产@@ 20
甲板 20
电子@@ 20
男友 20
疑@@ 20
疑惑 20
皮球 20
监视 20
相当于 20
真叫人 20
睡午觉 20
瞄准 20
砌 20
研@@ 20
砖 20
确切 20
碍 20
碎片 20
祭典 20
秩序 20
称号 20
移@@ 20
突出 20
竖 20
糊 20
组胺 20
绣 20
续@@ 20
缔结 20
编号 20
罗马 20
美景 20
耶 20
肚子疼 20
肯 20
胸口 20
脸颊 20
自觉 20
舔 20
茶叶 20
萌姐 20
萌香 20
落下 20
虽@@ 20
被迫 20
袭 20
裙 20
要紧 20
计入 20
认同 20
讽刺 20
试试看 20
语气 20
请稍等 20
读物 20
谷@@ 20
豪@@ 20
财政 20
资本主义 20
赞 20
跌 20
跟上 20
躲开 20
轨道 20
转发 20
轻微 20
轻轻 20
辞掉 20
这么一来 20
这棵 20
这间 20
远远 20
连长 20
退学 20
那双 20
那名 20
那麼 20
郊外 20
酶 20
里装 20
重建 20
野营 20
铠 20
银领 20
销量 20
镜子 20
間 20
闷@@ 20
闸 20
闹钟 20
防御 20
陆@@ 20
陈述 20
除非 20
陷 20
隔离 20
难免 20
雷雨 20
霙 20
非法 20
面板 20
预先 20
额外 20
风味 20
食用 20
餐@@ 20
饲养 20
香味 20
魔 20
黄金 20
點 20
000 19
27 19
Great 19
Ma@@ 19
m 19
re@@ 19
一发 19
一同 19
一封 19
一提 19
一枪 19
一脚 19
三人 19
三分之一 19
三十分钟 19
三明治 19
下定决心 19
不巧 19
不會 19
不适 19
中学生 19
乙@@ 19
九州 19
习俗 19
书面 19
二百@@ 19
交货期 19
人为 19
人民币 19
仇 19
从而 19
仙台 19
以至于 19
伴 19
佩服 19
侦察 19
便是 19
修行 19
修饰 19
候@@ 19
假装 19
做完作业 19
先回去 19
光芒 19
全力以赴 19
共同@@ 19
兴起 19
写成 19
冠 19
冤枉 19
决不能 19
冷却 19
几家 19
出过 19
分明 19
分泌 19
分离 19
刊物 19
初始 19
到此为止 19
制止 19
刻苦 19
前年 19
剥削 19
副业 19
动机 19
助@@ 19
募集 19
包里 19
升级 19
协作 19
卖方 19
南北 19
卫生@@ 19
原文 19
参拜 19
发放 19
取出 19
取得联系 19
受害者 19
叮@@ 19
叼 19
合唱 19
呈 19
咽 19
哉 19
善良 19
喊@@ 19
喜好 19
四天 19
回过 19
圈子 19
圣诞 19
地毯 19
坐车 19
堆@@ 19
境地 19
增添 19
处分 19
备用 19
外交@@ 19
多加 19
夜景 19
大伙 19
大象 19
大风 19
夫@@ 19
头绪 19
夺 19
夺取 19
奏@@ 19
奔跑 19
奴隶 19
姑@@ 19
娃娃 19
存钱 19
季度 19
孤立 19
学术@@ 19
学科 19
宅 19
完整 19
审 19
容量 19
对抗 19
寻常 19
导游 19
导演 19
封锁 19
封面 19
尊@@ 19
就此 19
展览 19
山水 19
岁数 19
巡逻 19
左眼 19
差错 19
带上 19
干活儿 19
幻灯片 19
广濑康 19
廉价 19
延误 19
弄清 19
张嘴 19
往返 19
律@@ 19
忧郁 19
怀孕 19
思念 19
急速 19
总共 19
总有 19
惠 19
想不出 19
想不到 19
愁 19
我想@@ 19
或@@ 19
战术 19
投手 19
抖 19
折磨 19
担忧 19
拐 19
拙劣 19
指正 19
按下 19
捉弄 19
损 19
换个 19
掀起 19
排练 19
探 19
提到 19
提取 19
提早 19
摊@@ 19
收回 19
救命 19
整洁 19
新颖 19
旗@@ 19
日到 19
日本料理 19
显然 19
時@@ 19
晴@@ 19
智能手机 19
曼@@ 19
替@@ 19
月球 19
有点累 19
服务@@ 19
权限 19
束 19
极好 19
架@@ 19
柳树 19
根儿 19
栽@@ 19
检讨 19
榜样 19
模 19
欺@@ 19
款待 19
歪@@ 19
毕业典礼 19
水壶 19
没人 19
治安 19
沾@@ 19
法令 19
波浪 19
注意事项 19
洞@@ 19
洪@@ 19
测 19
浪费时间 19
海底 19
涌@@ 19
深度 19
深感 19
渣 19
湿度 19
漆黑 19
潜力 19
潮@@ 19
火柴 19
灾难 19
热爱 19
熟知 19
爬山 19
爽@@ 19
狭小 19
申报 19
界限 19
略@@ 19
疏忽 19
白费 19
盐@@ 19
盗窃 19
相片 19
看一看 19
真诚 19
睁 19
睡@@ 19
瞒 19
砍 19
硬币 19
磁@@ 19
禁@@ 19
空条 19
窟窿 19
章鱼 19
竭尽全力 19
竹子 19
第二颗 19
等会儿 19
筐 19
粮@@ 19
纠正 19
纠结 19
细腻 19
终点 19
缓解 19
罪@@ 19
罪行 19
老百姓 19
而来 19
联系方式 19
肥皂 19
胡闹 19
脂肪 19
脏@@ 19
臣 19
航空 19
艇 19
花粉症 19
若松 19
茫茫 19
获取 19
董事会 19
蘸 19
虚 19
蜡@@ 19
补习 19
表哥 19
规范 19
解放军 19
解析 19
言论 19
训 19
诉说 19
词汇 19
诗歌 19
误差 19
说不出来 19
请代 19
谋@@ 19
豆 19
财富 19
资@@ 19
赋予 19
赏 19
赶来 19
起得 19
趁着 19
跌@@ 19
路径 19
转载 19
轮流 19
轴 19
辅导 19
边境 19
过年 19
返@@ 19
这方面 19
这道题 19
进军 19
远离 19
连休 19
送出去 19
选项 19
途 19
通信 19
那间 19
郁闷 19
酷暑 19
采购 19
银 19
长寿 19
開始 19
闯 19
阴 19
阻碍 19
附属 19
陌生人 19
除去 19
难关 19
雄 19
雄伟 19
雕刻 19
音乐@@ 19
飞行员 19
高尚 19
魂 19
鳗鱼 19
鸭子 19
鹿儿岛 19
麻雀 19
黏@@ 19
&gt; 18
2010 18
28 18
5000 18
IT 18
h 18
in@@ 18
y@@ 18
し 18
た 18
一个个 18
一千 18
一号 18
一岁 18
一架 18
一棵 18
一点一点 18
上下班 18
下一代 18
下级 18
下边 18
不合理 18
不理 18
世界@@ 18
丝毫 18
中国@@ 18
临 18
丽@@ 18
买不到 18
买方 18
买票 18
二十岁 18
亡 18
京@@ 18
京剧 18
人影 18
从家 18
优惠券 18
伙 18
传到 18
似@@ 18
低下 18
侮辱 18
保守 18
倒霉 18
候 18
候选人 18
借款 18
偏见 18
做个 18
偶像 18
偷懒 18
催@@ 18
光滑 18
入学考试 18
公司员工 18
公民 18
六月 18
军事@@ 18
农药 18
冲浪 18
冲走 18
几种 18
凿 18
分割 18
分裂 18
判 18
到时候 18
削 18
前景 18
剧场 18
剧烈 18
劝告 18
劫@@ 18
劳力 18
匀 18
化学@@ 18
北方 18
十五年 18
单方面 18
卖场 18
占卜 18
占用 18
危@@ 18
去除 18
叉 18
及其 18
变差 18
叙@@ 18
口味 18
可不可以 18
司 18
合得来 18
合成 18
吉祥物 18
名为 18
名册 18
后退 18
向上 18
向来 18
君@@ 18
否则 18
听不见 18
听取 18
听过 18
吹得 18
呼叫 18
哀悼 18
响应 18
售@@ 18
囊@@ 18
固@@ 18
图纸 18
土匪 18
在线 18
地狱 18
地站 18
地走了 18
均 18
垮 18
城堡 18
堡 18
場 18
填 18
处处 18
大脑 18
天然 18
天花板 18
奖@@ 18
奖励 18
奶酪 18
好友 18
好坏 18
好容易 18
好险 18
妄@@ 18
妥协 18
始 18
娱乐 18
婆婆 18
季@@ 18
学妹 18
宝物 18
容器 18
小型 18
小看 18
小鹤 18
尚@@ 18
尴尬 18
尼 18
届 18
岛上 18
川@@ 18
差劲 18
幕@@ 18
平均@@ 18
平安夜 18
幸@@ 18
幸亏 18
座@@ 18
弃 18
弓 18
张开 18
往年 18
往来 18
得意忘形 18
心上 18
忘掉 18
忙@@ 18
忧虑 18
快递 18
忽视 18
怀里 18
怎么着 18
思想@@ 18
息@@ 18
悲痛 18
惯@@ 18
意愿 18
愤 18
慕 18
成田 18
我试 18
手头 18
打球 18
扩散 18
扫除 18
承@@ 18
承诺 18
技巧 18
投降 18
抗体 18
折旧 18
报价单 18
拘@@ 18
拜拜 18
拣 18
拨 18
拨打 18
拱@@ 18
拿手 18
指令 18
挠 18
振@@ 18
排斥 18
插入 18
握@@ 18
揭@@ 18
搅拌 18
搞定 18
摆脱 18
撕 18
撞@@ 18
收费 18
改建 18
散落 18
数据库 18
文化@@ 18
斥责 18
新型 18
无可@@ 18
无情 18
无论怎样 18
旧衣服 18
旱 18
时差 18
时髦 18
旺盛 18
易 18
晋级 18
晚霞 18
替代 18
最佳 18
最美 18
朋友家 18
本子 18
札幌 18
杏 18
来宾 18
東西 18
枉@@ 18
果断 18
枯@@ 18
某人 18
柔和 18
标准@@ 18
标本 18
株 18
核能 18
栽培 18
梅 18
棍子 18
模@@ 18
次序 18
欣@@ 18
歉意 18
武 18
毁@@ 18
毫米 18
民众 18
水稻 18
汗水 18
污@@ 18
沉迷于 18
流水 18
涂@@ 18
涨价 18
深处 18
渡过 18
湿透 18
溅 18
源@@ 18
潮流 18
激起 18
火山 18
火热 18
火锅 18
灭绝 18
無@@ 18
照射 18
爸妈 18
牧场 18
猜拳 18
猫@@ 18
玉米@@ 18
玩玩 18
珍@@ 18
瑟夫 18
甜点 18
生成 18
田野 18
电器 18
病房 18
皇@@ 18
盆 18
盖子 18
盲@@ 18
盲目 18
相逢 18
看家 18
看漏 18
真快 18
真面目 18
眼皮 18
着火 18
睡一觉 18
瞎@@ 18
砂糖 18
社员 18
神经@@ 18
禮 18
穴 18
穷 18
第三 18
第三个 18
笼 18
粘@@ 18
粪 18
红军 18
纪念日 18
纱 18
绕@@ 18
绫 18
罪恶感 18
美观 18
羽@@ 18
老老实实 18
而出名 18
耗 18
耽误 18
聚 18
肠 18
肩 18
肺@@ 18
胆子 18
膏 18
自尊心 18
自由@@ 18
致辞 18
舆论 18
舌 18
航线 18
航行 18
花纹 18
营业部 18
蒂 18
蒸 18
薪 18
虐待 18
血小板 18
西班牙语 18
观赏 18
规@@ 18
视力 18
计较 18
让步 18
记着 18
讲述 18
许@@ 18
许可证 18
论@@ 18
证@@ 18
诗@@ 18
说明会 18
说服力 18
请等一下 18
豆@@ 18
财物 18
责怪 18
贬值 18
贯彻 18
赌 18
赌博 18
赞扬 18
超出 18
跟不上 18
路口 18
辞去 18
迎 18
近况 18
这时候 18
这样一来 18
这门 18
违@@ 18
追上 18
那块 18
邪 18
邮@@ 18
钱财 18
镇@@ 18
长长的 18
開 18
闪耀 18
陈 18
限 18
雇用 18
雌@@ 18
雨天 18
面具 18
面孔 18
音乐剧 18
音乐家 18
颗 18
食物中毒 18
餐具 18
馅 18
香织 18
马达 18
骑车 18
骑马 18
高中毕业 18
高低 18
高楼 18
高达 18
鸭@@ 18
％ 18
&lt; 17
J@@ 17
V@@ 17
Y@@ 17
ar@@ 17
er@@ 17
on@@ 17
v@@ 17
一不小心 17
一分钟 17
一团 17
一天天 17
一所 17
一站 17
一类 17
一系列 17
上传 17
上当 17
上门 17
下达 17
不休 17
不变 17
不大 17
不得已 17
不曾 17
不由得 17
不难 17
个人@@ 17
为主 17
为何 17
主观 17
之际 17
乌龟 17
乐团 17
买进 17
乱来 17
事实上 17
亡@@ 17
产品质量 17
人真 17
人际关系 17
介 17
代码 17
传染 17
伯父 17
伸出 17
体育@@ 17
依据 17
侦@@ 17
俘虏 17
俯@@ 17
债@@ 17
兜风 17
全家人 17
公交 17
公共@@ 17
公正 17
共有 17
关节 17
军人 17
冬 17
冲洗 17
决议 17
准时 17
凝固 17
几分 17
几只 17
分外 17
划分 17
划算 17
列入 17
制订 17
前台 17
勤劳 17
匆匆 17
十二@@ 17
十五 17
十天 17
十萌 17
博士 17
压迫 17
友好相处 17
双胞胎 17
反馈 17
发愁 17
发电机 17
受够了 17
变多 17
古怪 17
只见 17
右转 17
各级 17
吉 17
名义 17
后援 17
听从 17
周边 17
咕嘟 17
咳 17
善 17
嘘 17
嘞 17
四十@@ 17
四方 17
回礼 17
回避 17
坚信 17
埋头 17
增殖 17
大伙儿 17
大河 17
大片 17
天地 17
太强 17
失踪 17
夺得 17
奖品 17
奖金 17
奸 17
妖@@ 17
委 17
孤单 17
学位 17
孩子气 17
安全性 17
家产 17
家住 17
家里人 17
寄信 17
寄到 17
寒风 17
察@@ 17
对战 17
对此 17
对立 17
尖锐 17
层次 17
山谷 17
崭新 17
工作日 17
己@@ 17
币 17
帆@@ 17
帘子 17
带领 17
平原 17
平安无事 17
幼稚 17
应酬 17
延伸 17
异性 17
式样 17
弟兄 17
强力 17
彼@@ 17
徒 17
徒弟 17
得不到 17
忍@@ 17
忠告 17
忧@@ 17
忽略 17
总而言之 17
恋@@ 17
惭愧 17
想得到 17
愣@@ 17
我先 17
战友 17
战略@@ 17
打乒乓球 17
打量 17
扭 17
报仇 17
报答 17
抵抗 17
拖鞋 17
招生 17
挫折 17
捣乱 17
推动 17
推翻 17
提意见 17
握手 17
搜查 17
摩擦 17
撤退 17
操作方法 17
攻 17
教徒 17
敬 17
敷衍 17
文艺@@ 17
旅@@ 17
无意 17
无线电 17
日去 17
日后 17
日夜 17
日文 17
时钟 17
昆虫 17
映@@ 17
晚安 17
晴 17
晴朗 17
暗示 17
最合适 17
有会 17
有意 17
望远镜 17
本能 17
朵花 17
杀害 17
松树 17
果树 17
柔道 17
株式会社 17
核武器 17
桥@@ 17
桥梁 17
止住 17
殿 17
毫 17
气质 17
水上 17
水流 17
汤@@ 17
汽@@ 17
泉 17
泛@@ 17
波士顿 17
注 17
活不下去 17
流传 17
流逝 17
海崎新 17
涉@@ 17
淘气 17
渠 17
渴 17
溜溜 17
满怀 17
演讲会 17
漫长 17
瀑布 17
火车站 17
灰心 17
灿烂 17
烦@@ 17
烦死 17
照明 17
爽 17
牌@@ 17
物理学 17
物种 17
犯错误 17
狐狸 17
独处 17
率@@ 17
王先生 17
玩意儿 17
玫瑰 17
环保 17
球赛 17
生物@@ 17
用具 17
用场 17
町 17
疲倦 17
百 17
皱纹 17
盛大 17
知名 17
短时间 17
矿@@ 17
砸 17
碰巧 17
祖父母 17
科学技术 17
积攒 17
移植 17
税率 17
窜 17
竞争对手 17
笨拙 17
笼@@ 17
簿 17
籍 17
粉碎 17
繁荣 17
红旗 17
纲 17
细心 17
经受 17
绒@@ 17
结了 17
结婚典礼 17
结局 17
绞@@ 17
缩 17
罪名 17
美容师 17
美金 17
羞愧 17
翼 17
老爸 17
考验 17
而成 17
耕地 17
聊@@ 17
肠@@ 17
肿瘤 17
胆小 17
脑海 17
脑筋 17
腾 17
自家 17
致死 17
舍@@ 17
舱 17
船只 17
艘 17
艺 17
艺@@ 17
芭蕾舞 17
花束 17
花样 17
芽 17
苍@@ 17
英语单词 17
茬 17
荣@@ 17
行军 17
行李箱 17
补助金 17
表格 17
被选为 17
装船 17
製 17
见见 17
视察 17
言辞 17
认证 17
讲课 17
设计师 17
诊 17
语句 17
说不出口 17
说到底 17
请勿 17
请客 17
课文 17
谢谢你们 17
谴责 17
负债 17
责 17
责编 17
货车 17
贴着 17
贴纸 17
赏花 17
赞赏 17
赶到 17
赶走 17
起义 17
起伏 17
趣 17
跟@@ 17
跟前 17
路程 17
跳动 17
身后 17
身旁 17
轧 17
轻快 17
轻轻地 17
辅助 17
输掉 17
辣@@ 17
辩论 17
边疆 17
边缘 17
辽阔 17
迎风 17
这群 17
远大 17
退社 17
逃离 17
通红 17
遵照 17
還是 17
那首 17
郎 17
钟@@ 17
锅@@ 17
锻炼身体 17
长相 17
门面 17
闭 17
阴暗 17
附和 17
陪@@ 17
隐形眼镜 17
隐蔽 17
雨停 17
零售 17
需@@ 17
震 17
青少年 17
靡 17
面临 17
面貌 17
頭 17
预料 17
领土 17
风见 17
马虎 17
骑@@ 17
高尔夫球 17
魔法 17
鲜 17
鲜艳 17
150 16
3000 16
P 16
Y 16
an@@ 16
f@@ 16
一再 16
一匹 16
一大堆 16
一排 16
一曲 16
一般@@ 16
万人 16
三文治 16
三遍 16
上星期 16
下起 16
下集 16
不宜 16
不感兴趣 16
不灵 16
不胜 16
世间 16
丢@@ 16
两者 16
严峻 16
中奖 16
中是 16
之处 16
之旅 16
乍@@ 16
争吵 16
争夺 16
争执 16
事要 16
云彩 16
亚 16
交通事故 16
京 16
亲热 16
人口@@ 16
人工@@ 16
人心@@ 16
仁 16
仅@@ 16
从此 16
他病 16
份儿 16
休息室 16
众@@ 16
优良 16
优雅 16
会见 16
但@@ 16
使劲 16
使唤 16
供应商 16
依照 16
侦探 16
侧面 16
修补 16
假设 16
做人 16
元素 16
充 16
充电 16
免除 16
八十 16
公务员 16
冰激凌 16
冻得 16
凑巧 16
几十年 16
出事 16
出息 16
出轨 16
函 16
分化 16
分辨 16
切成 16
刚刚开始 16
创意 16
初学者 16
别动 16
别忘了 16
到手 16
剑道 16
劈 16
加速 16
劳驾 16
勇 16
卫 16
厂商 16
原件 16
原价 16
原样 16
原理 16
反面 16
发泄 16
发牢骚 16
受了伤 16
叛徒 16
叮 16
合身 16
同居 16
后代 16
后果 16
吓死 16
听众 16
吴@@ 16
吾 16
员@@ 16
周到 16
呼呼 16
响亮 16
啪 16
喇叭 16
嘱咐 16
四十 16
国民经济 16
地想 16
坦@@ 16
垂 16
埋伏 16
堂@@ 16
堆积 16
塌@@ 16
塔@@ 16
处置 16
复原 16
外交 16
外人 16
外宾 16
多重 16
夜班 16
大吃一惊 16
大意 16
大有 16
大车 16
天真 16
太短 16
失业 16
头晕 16
她@@ 16
好几遍 16
好帅 16
好心 16
好笑 16
妆 16
姨@@ 16
娶 16
媳妇 16
子弟 16
字幕 16
字迹 16
学历 16
宇@@ 16
官方 16
实话 16
宣@@ 16
对照 16
导 16
小声 16
小屋 16
小爱 16
尝@@ 16
屎 16
山下 16
岩濑健 16
席@@ 16
常有 16
干吗 16
幽默 16
广岛 16
应聘 16
废 16
庭 16
庸@@ 16
庸俗 16
开幕式 16
开得 16
弄坏了 16
弯@@ 16
归于 16
当事人 16
录音机 16
彩色 16
征 16
径 16
很想 16
心爱 16
必要性 16
忌 16
忠实 16
恨@@ 16
恶作剧 16
患@@ 16
患有 16
您好 16
惊 16
惟@@ 16
惠顾 16
想开 16
愁@@ 16
愚弄 16
愧@@ 16
慌@@ 16
懒 16
我受 16
我过 16
手动 16
手枪 16
才华 16
打印机 16
打篮球 16
打过 16
技@@ 16
折腾 16
抬@@ 16
担保 16
拉链 16
拜读 16
拥 16
指向 16
挑衅 16
挖掘 16
挽回 16
捉@@ 16
捞@@ 16
损@@ 16
换衣服 16
插图 16
握 16
搜@@ 16
摸索 16
播出 16
支柱 16
收割 16
敬意 16
斤@@ 16
新手 16
施加 16
无偿 16
日光 16
时会 16
显出 16
显微镜 16
晨@@ 16
晾 16
暴跌 16
曲折 16
最早 16
有助于 16
有效率 16
期权 16
本周 16
本年度 16
本次 16
杉树 16
材 16
架飞机 16
标语 16
校服 16
梅@@ 16
梗 16
梨@@ 16
森 16
概要 16
模范 16
欢笑 16
款@@ 16
步子 16
武力 16
母语 16
比喻 16
气势 16
气压 16
气魄 16
氣 16
水准 16
没准 16
没这回事 16
泄@@ 16
泰山 16
泳装 16
泼@@ 16
流失 16
流淌 16
涮 16
液@@ 16
淋浴 16
淘汰 16
清新 16
渐@@ 16
游得 16
湖水 16
潦草 16
灌@@ 16
灭@@ 16
灰姑娘 16
灾 16
炉@@ 16
点燃 16
烈火 16
烦躁 16
烧掉 16
焊接 16
焦 16
燕子 16
牢 16
牢@@ 16
牢骚 16
狂热 16
猎人 16
猫咪 16
环 16
珠 16
生于 16
生人 16
用纸 16
由衷 16
电压 16
电流 16
电视台 16
电车站 16
男子汉 16
画像 16
疏 16
白金之星 16
看穿 16
眼儿 16
眼罩 16
睡衣 16
砍@@ 16
研究会 16
碉堡 16
碴儿 16
礼堂 16
礼服 16
社会@@ 16
社的 16
祖@@ 16
禮@@ 16
科长 16
秤 16
积@@ 16
积分 16
稍稍 16
窄 16
竞技 16
等一等 16
策 16
简历 16
篮子 16
精密 16
糕点 16
累死 16
级@@ 16
纪 16
组长 16
终生 16
绘画 16
缓@@ 16
缘分 16
缴@@ 16
羊肉 16
美容院 16
者@@ 16
耕 16
耳环 16
联想 16
联谊 16
聘 16
聚在一起 16
肩@@ 16
胃@@ 16
背影 16
胡乱 16
胶 16
脉 16
脚踝 16
脸儿 16
腿@@ 16
膝 16
舒展 16
航@@ 16
花园 16
药剂 16
获@@ 16
落地 16
著@@ 16
蜘蛛 16
蝗虫 16
被告 16
装饰品 16
观测 16
請 16
订货单 16
认知 16
讲师 16
讲解 16
识 16
诈骗 16
诊察 16
试一下 16
诚恳 16
详细情况 16
说说话 16
说错 16
谎话 16
货款 16
赤 16
赤字 16
赫@@ 16
走来 16
跨@@ 16
躲@@ 16
躲避 16
轧@@ 16
转向 16
转让 16
辞@@ 16
这会儿 16
这支 16
这颗 16
连年 16
迫害 16
迹象 16
追问 16
适度 16
逃脱 16
逊 16
這種 16
通往 16
遇到困难 16
遍地 16
遮住 16
那个游戏 16
那笔 16
醉@@ 16
重任 16
重叠 16
野兽 16
铁丝 16
链 16
镇压 16
镇子 16
长假 16
闯@@ 16
防守 16
防灾 16
阶级斗争 16
附身 16
陈@@ 16
除掉 16
陶@@ 16
雨来 16
雪白 16
雪花 16
霸 16
面谈 16
革命@@ 16
顿@@ 16
预报 16
领会 16
食谱 16
香气 16
马桶 16
高一 16
高地 16
高速公路 16
鸭 16
麻醉 16
199@@ 15
2013 15
37 15
45 15
ID 15
K 15
L 15
O 15
is@@ 15
な 15
一万@@ 15
一九@@ 15
一分 15
一列 15
一动不动 15
一天到晚 15
一心 15
一斤 15
一月 15
一枚 15
一楼 15
一樣 15
一滴 15
一见 15
一轮 15
七月 15
万岁 15
三十 15
三岁 15
上层 15
上游 15
下巴 15
下水 15
下过 15
不动产 15
不及 15
不干 15
不必要 15
不忍 15
不留 15
不能@@ 15
不過 15
不饿 15
专注 15
丘@@ 15
严密 15
丧失 15
中等 15
也@@ 15
买点 15
事事 15
事迹 15
五百 15
亭 15
人格 15
人选 15
人间 15
人马 15
从容 15
仪@@ 15
价格@@ 15
优子 15
优胜 15
伤痕 15
住房 15
何 15
使命 15
侵入 15
俄@@ 15
保险@@ 15
信号灯 15
倒闭 15
借书 15
储@@ 15
储备 15
傲 15
兄弟姐妹 15
光泽 15
兜@@ 15
入睡 15
全场 15
全垒打 15
公安人员 15
公安局 15
六十@@ 15
共事 15
共鸣 15
关东煮 15
具@@ 15
兽 15
再现 15
农作物 15
农具 15
冲动 15
决策 15
况且 15
凑 15
几口 15
几处 15
击球 15
则@@ 15
刮风 15
刹车 15
削@@ 15
前一天 15
前野 15
剥@@ 15
剪子 15
劈@@ 15
办完 15
办成 15
動 15
北美 15
医师 15
危险性 15
卸@@ 15
压抑 15
反倒 15
发扬 15
发觉 15
发过来 15
取决于 15
受损 15
受过 15
变为 15
变身 15
口号 15
口头 15
口罩 15
只顾 15
可口 15
吃亏 15
合同书 15
吊 15
名人 15
后门 15
吓@@ 15
告诉您 15
命名 15
咧 15
哀@@ 15
售 15
商品@@ 15
啰嗦 15
喉@@ 15
喝了酒 15
喝水 15
嘟 15
嘴角 15
器@@ 15
嚣张 15
嚷 15
回转 15
地被 15
场地 15
坠 15
垄断 15
垢 15
垫@@ 15
基本@@ 15
塌 15
增大 15
声部 15
外貌 15
多长 15
大军 15
大妈 15
大幅度 15
大扫除 15
大炮 15
大爷 15
天晴 15
天黑 15
太冷 15
太阳@@ 15
奉 15
奢侈 15
女主角 15
女仆 15
好几年 15
好意思 15
好话 15
妄图 15
妳 15
威风 15
娘@@ 15
娘家 15
嫁 15
学术 15
完工 15
宏@@ 15
宗 15
定额 15
宣言 15
宰 15
家电 15
家门口 15
宽敞 15
宿醉 15
寂静 15
寒假 15
察觉 15
寥@@ 15
将近 15
少量 15
岗 15
工作室 15
巴西 15
师生 15
带子 15
带路 15
干不了 15
平息 15
幼儿 15
应有 15
康@@ 15
开水 15
异议 15
张卡 15
强迫 15
当上 15
影像 15
彻@@ 15
彼 15
待在家里 15
很慢 15
很瘦 15
很饱 15
徒@@ 15
微波炉 15
微风 15
心胸 15
必需 15
念头 15
思维 15
怪物 15
总要 15
总部 15
恒一君 15
悬崖 15
悲剧 15
悲哀 15
想干什么 15
想当 15
惶恐 15
憋 15
我学 15
我开 15
我累 15
我花 15
戴眼镜 15
扇门 15
手臂 15
打中 15
托儿所 15
扫地 15
把头 15
抚养 15
抛 15
报导 15
担 15
担子 15
担当 15
拉开 15
招牌 15
拳击 15
拼写 15
挂号 15
挥@@ 15
捂 15
捐款 15
掠 15
接手 15
摄@@ 15
摇动 15
摘下 15
收缩 15
改为 15
放大 15
数百@@ 15
斩 15
新开 15
新郎 15
旋 15
族@@ 15
旗子 15
无产阶级 15
无人@@ 15
无能 15
时要 15
明日 15
明细 15
智能 15
晾干 15
暂@@ 15
曝光 15
替代品 15
最长 15
會@@ 15
有效期 15
有能 15
未能 15
本词典 15
机型 15
杂草 15
权威 15
杉杉 15
条款 15
来访 15
果子 15
枝 15
查看 15
栞 15
桩 15
榜 15
此外 15
武士 15
武装@@ 15
每当 15
比率 15
氏 15
水管 15
江水 15
污 15
沮丧 15
法案 15
法西斯 15
活用 15
浓厚 15
浓度 15
浩@@ 15
浮动 15
海滨 15
消耗 15
涩谷 15
清澈 15
渡@@ 15
渴望 15
湖边 15
溺水 15
滚滚 15
满心 15
滴 15
漏洞 15
演戏 15
潜入 15
潜在 15
火力 15
火星 15
火烧 15
烦人 15
熏 15
片子 15
牛仔裤 15
牧@@ 15
特有 15
独角 15
猎@@ 15
玻璃@@ 15
珍妮 15
球队 15
理念 15
理智 15
瓜@@ 15
生产力 15
生鱼片 15
用法 15
用过 15
电费 15
留意 15
痴@@ 15
白薯 15
百分之@@ 15
皆 15
皱 15
益@@ 15
监察 15
相声 15
眉 15
看不出 15
看不起 15
真没想到 15
眼界 15
短发 15
矮@@ 15
矿石 15
碰上 15
碱 15
神圣 15
神气 15
离不开 15
离得 15
科学研究 15
租@@ 15
租赁 15
积雪 15
稀 15
税金 15
稻@@ 15
稻子 15
穿鞋 15
窗@@ 15
窝@@ 15
站@@ 15
章鱼烧 15
第一步 15
筋 15
答@@ 15
策划 15
筹备 15
简洁 15
管理者 15
粒子 15
糟@@ 15
繁忙 15
繁殖 15
纯 15
纸张 15
细小 15
织@@ 15
终日 15
绒 15
维生素 15
美人 15
美国@@ 15
美学 15
老工人 15
而出 15
肝脏 15
育儿 15
胃口 15
胖重 15
胡 15
胸怀 15
脆弱 15
脱鞋 15
脸红 15
腐烂 15
腰带 15
膨胀 15
自主 15
臭味 15
致以 15
舒@@ 15
舟 15
航空公司 15
节省 15
荣耀 15
药店 15
莱@@ 15
菜刀 15
著作权 15
董事 15
蓝天 15
虚构 15
蛇@@ 15
蜡 15
融@@ 15
蠢@@ 15
表决 15
衬@@ 15
被叫 15
裁@@ 15
西湖 15
认错 15
记在 15
设有 15
诉 15
译@@ 15
语言学 15
诱导 15
请吃 15
诺 15
读懂 15
调配 15
谈一谈 15
谋求 15
谢意 15
贫@@ 15
购@@ 15
费劲 15
赔 15
跑道 15
跨越 15
身为 15
身心 15
轮廓 15
轻便 15
输血 15
运输@@ 15
还清 15
这段 15
进化 15
进门 15
远距离 15
迪 15
追赶 15
送行 15
递 15
通报 15
遗漏 15
那年 15
酷 15
金色 15
金鱼 15
金黄色 15
鉴 15
钩 15
锁@@ 15
锐利 15
锯 15
长久 15
长短 15
问过 15
阁 15
附有 15
陵 15
难怪 15
难民 15
雾@@ 15
靠@@ 15
音色 15
预习 15
风暴 15
饿@@ 15
首都 15
马路上 15
驱动 15
驴 15
高中时代 15
高档 15
鲜花 15
鸡尾酒 15
鹰 15
麻痹 15
黎明 15
默@@ 15
鼻涕 15
齿 15
０ 15
2011 14
65 14
: 14
DVD 14
York 14
b 14
d 14
en@@ 14
n@@ 14
一新 14
一次性 14
一路上 14
七十 14
上周末 14
上身 14
上锁 14
下决心 14
下功夫 14
下属 14
不信 14
不在意 14
不对劲 14
不屈 14
不带 14
不然的话 14
不经意 14
不耐烦 14
不能不 14
与其说是 14
专 14
两份 14
两名 14
两岁 14
两根 14
个体 14
中毒 14
丰盛 14
主持 14
丽 14
乏 14
习@@ 14
习气 14
乱七八糟 14
二十年 14
二百 14
亏@@ 14
互相帮助 14
五百万 14
交情 14
交易@@ 14
交易所 14
人多 14
人种 14
人行道 14
今天上午 14
从今以后 14
从那以后 14
仓@@ 14
以免 14
以此 14
仰 14
仰慕 14
休学 14
众 14
会想 14
传送 14
低落 14
体操 14
作响 14
你們 14
便利 14
保全 14
保养 14
信儿 14
俱@@ 14
借钱 14
值班 14
倾斜 14
儿地 14
儿童@@ 14
先行 14
光照 14
兴致 14
养着 14
内在 14
内定 14
再用 14
冤 14
冲着 14
决算 14
冷得 14
冷酷 14
凭借 14
出席会议 14
函@@ 14
刀子 14
分给 14
分量 14
创 14
创伤 14
创设 14
初恋 14
判定 14
刨 14
别过来 14
剧团 14
办公 14
办得 14
勃@@ 14
化合物 14
北京大学 14
十五@@ 14
升起 14
午睡 14
半截 14
卖光 14
卖得 14
卖掉 14
占领 14
卧室 14
卸 14
卻 14
压制 14
友@@ 14
友人 14
双眼 14
双重 14
叙 14
口感 14
只管 14
可耻 14
可要 14
叶月 14
吃点 14
各人 14
合法 14
吉影 14
名堂 14
名词 14
向往 14
含义 14
吵醒 14
周期 14
命中 14
咕 14
咸 14
品味 14
喧@@ 14
喧哗 14
器具 14
回顾 14
围绕 14
固定资产 14
固执 14
地理 14
均@@ 14
坏心眼 14
坦率地 14
垃圾箱 14
填补 14
墓地 14
处理@@ 14
外头 14
夜空 14
够呛 14
大娘 14
大病 14
大蒜 14
太久 14
太多@@ 14
太极拳 14
夸@@ 14
夹克 14
妇 14
妹 14
姐@@ 14
委员长 14
孔@@ 14
存放 14
孟@@ 14
学生@@ 14
安全@@ 14
定为 14
实实 14
审视 14
客观 14
家属 14
宽广 14
寫 14
导向 14
小康 14
尼泊尔 14
屈 14
山丘 14
岭 14
崩 14
工事 14
工农@@ 14
工序 14
巧@@ 14
巨额 14
巾 14
市区 14
市场@@ 14
布局 14
布料 14
幾@@ 14
庄 14
度假 14
座谈会 14
廉@@ 14
延 14
开业 14
开封 14
异物 14
弄坏 14
弄脏 14
引诱 14
弟 14
张票 14
当真 14
当着 14
征服 14
很配 14
徒步 14
得分 14
微妙 14
微微 14
心地 14
志气 14
忘却 14
忽@@ 14
怒气 14
怔 14
思路 14
急躁 14
性别 14
怨恨 14
恐@@ 14
恐慌 14
恭@@ 14
悔恨 14
悠悠 14
惠@@ 14
想一想 14
愿@@ 14
懊悔 14
我怕 14
我见 14
扁 14
打交道 14
打气 14
打赢 14
扰乱 14
抖@@ 14
报刊 14
抬起 14
抱紧 14
抵 14
抹布 14
拉拉 14
拾@@ 14
指纹 14
按计划 14
挚友 14
挪@@ 14
捣@@ 14
授@@ 14
掐 14
控制@@ 14
推广 14
推行 14
揭穿 14
搞不好 14
搞不懂 14
搭档 14
摄影师 14
摔跤 14
支部 14
收买 14
收支 14
收藏 14
放在心上 14
教养 14
教学@@ 14
散发 14
散散步 14
散文 14
斟酌 14
新来 14
旁人 14
旅游@@ 14
旋律 14
无可奈何 14
无理 14
无耻 14
早点儿 14
星球 14
显 14
晒黑 14
晕车 14
智 14
曲奇 14
最先 14
最坏 14
最少 14
有病 14
朗@@ 14
望月 14
朝向 14
期末考试 14
朦胧 14
机制 14
机械@@ 14
杀人犯 14
杠 14
来临 14
构思 14
标明 14
树苗 14
校对 14
校舍 14
桃子 14
桌布 14
档 14
梯子 14
棒球队 14
棘手 14
機 14
欢呼 14
欢喜 14
歉 14
止不住 14
此处 14
死人 14
残忍 14
毁灭 14
毅力 14
每晚 14
比如说 14
毛线 14
民兵 14
民间 14
气概 14
氧@@ 14
水位 14
水族馆 14
水源 14
永恒 14
汽车@@ 14
沸腾 14
治理 14
法则 14
法子 14
法律@@ 14
注@@ 14
注入 14
泵 14
洗车 14
流感 14
流血 14
浇 14
浴@@ 14
浸@@ 14
消毒 14
消费@@ 14
深入@@ 14
混凝土 14
清算 14
港@@ 14
游玩 14
湿气 14
溶@@ 14
满身 14
漂浮 14
漏水 14
演奏家 14
澡堂 14
激光 14
激素 14
灯泡 14
炮弹 14
烫伤 14
热带 14
煞@@ 14
照应 14
照料 14
熟练地 14
熬@@ 14
燕@@ 14
爱惜 14
爱意 14
爸爸妈妈 14
片刻 14
特价 14
特技 14
犯罪分子 14
玻璃杯 14
珠子 14
理会 14
理津子 14
甜食 14
生下 14
生态 14
生死 14
生活@@ 14
生物学 14
用语 14
用餐 14
电视@@ 14
电话会议 14
留心 14
留神 14
皮带 14
直爽 14
相连 14
看热闹 14
看透 14
真情 14
眼下 14
眼球 14
着眼 14
矣 14
碧@@ 14
祝您 14
祭@@ 14
禁 14
离职 14
秋风 14
稍作 14
稻草 14
竖@@ 14
站台 14
简易 14
算了吧 14
箱根 14
粗暴 14
粗糙 14
精致 14
精通 14
糖尿病 14
級 14
素描 14
紧密 14
累计 14
纠缠 14
纤细 14
纯@@ 14
纸币 14
组建 14
绅士 14
终身 14
继 14
绷@@ 14
缓慢 14
缩减 14
罕见 14
羞辱 14
群体 14
翘 14
老娘 14
老師 14
耐用 14
职业@@ 14
职责 14
股票市场 14
肾脏 14
背面 14
胜任 14
胶带 14
胸膛 14
能治好 14
脂 14
脚步声 14
自学 14
自我@@ 14
舌@@ 14
舰 14
良心 14
艳 14
芝士 14
苍蝇 14
苦于 14
草摩@@ 14
荷 14
荷@@ 14
董事长 14
葬 14
蔓延 14
薪水 14
蘑菇 14
虹村 14
行使 14
行进 14
被褥 14
裁判 14
裸体 14
西洋 14
观望 14
触 14
誉 14
警惕 14
讨 14
议会 14
讯 14
访 14
诚意 14
诱@@ 14
说了半天 14
诸@@ 14
诺@@ 14
课长 14
谈到 14
谓 14
谢罪 14
豁@@ 14
购入 14
赌@@ 14
赏@@ 14
赔@@ 14
起源 14
越发 14
越过 14
跌倒 14
路面 14
踏@@ 14
踏上 14
車 14
车厢 14
车里 14
转发给 14
转弯 14
转身 14
输送 14
辩解 14
迁 14
过世 14
过时 14
过生日 14
这么回事 14
这道 14
迷信 14
追查 14
這裡 14
通用 14
遇事 14
遗传 14
遗体 14
還有 14
那篇 14
邦 14
郊区 14
酝酿 14
采 14
重新考虑 14
野心 14
钓到 14
钙 14
链球菌 14
锡 14
长发 14
长着 14
长胖 14
门儿 14
门票 14
队@@ 14
际 14
除此之外 14
险@@ 14
陪伴 14
静静地 14
非常适合 14
面目 14
须@@ 14
顽皮 14
顿时 14
题@@ 14
题材 14
风雨 14
飘 14
飞快 14
饭碗 14
饮 14
首尔 14
驱@@ 14
驾驶员 14
骚扰 14
高品质 14
高效 14
高贵 14
魔王 14
鲜血 14
齿@@ 14
18@@ 13
Act.3 13
Don 13
JOJO 13
U 13
U@@ 13
❤ 13
か 13
る 13
一个劲儿 13
一串 13
一伙 13
一地 13
一局 13
一栏 13
一百元 13
一肚子 13
万事 13
万人迷 13
三百@@ 13
上任 13
上台 13
上场 13
上天 13
上钩 13
下半身 13
下放 13
下星期 13
不周 13
不惜 13
不时 13
不景气 13
不服 13
不爱 13
专政 13
业余 13
东京证券交易所 13
丢弃 13
两面 13
个头 13
丫 13
丫头 13
中伤 13
中国队 13
为此 13
主持人 13
之星 13
之门 13
乌冬面 13
乌黑 13
乎乎 13
乐谱 13
乖乖 13
乘着 13
乙 13
书上 13
买下 13
买到 13
争斗 13
争端 13
事到如今 13
事宜 13
交替 13
产品@@ 13
人事部 13
人头 13
人用 13
人要 13
付给 13
代理店 13
任凭 13
企@@ 13
休养 13
优秀@@ 13
会计@@ 13
会话 13
会面 13
传感器 13
伤感 13
低价 13
体育馆 13
作弊 13
你老 13
佳 13
佳菜 13
侵蚀 13
倍@@ 13
候补 13
假话 13
偏离 13
做做 13
做生意 13
做起 13
储蓄 13
傻子 13
億泰 13
先前 13
先是 13
兎 13
全局 13
全班 13
公众 13
公式 13
公款 13
具体@@ 13
典 13
兼顾 13
冈山 13
冒昧 13
农 13
冰冷 13
决定性 13
决赛 13
冷漠 13
凡@@ 13
出动 13
出卖 13
出版社 13
出路 13
击中 13
分公司 13
刘@@ 13
创新 13
删@@ 13
刨@@ 13
制约 13
力争 13
办事处 13
办公楼 13
办到 13
办理手续 13
动员 13
动工 13
努@@ 13
劲@@ 13
募捐 13
包涵 13
医 13
十万 13
十二点 13
十字路口 13
千米 13
升高 13
半小时 13
印度尼西亚 13
卸货 13
厂家 13
厌 13
原材料 13
去掉 13
参考书 13
友好@@ 13
发声 13
发生变化 13
发育 13
发车 13
发错 13
叔父 13
变冷 13
变弱 13
叛乱 13
叠@@ 13
口渴 13
古文 13
另一方面 13
号召 13
司@@ 13
各处 13
各有 13
名牌 13
向日葵 13
吞 13
听得 13
听话 13
吵闹 13
吹奏 13
吹风机 13
吼 13
呕吐 13
和善 13
和睦 13
和谐 13
咒语 13
咖啡馆 13
咸@@ 13
咿@@ 13
哎哟 13
唱片 13
喷上 13
嘻嘻 13
噌 13
器械 13
噩梦 13
嚷嚷 13
四岁 13
四月份 13
四面八方 13
团子 13
困境 13
围巾 13
国际化 13
圆形 13
圈套 13
在乎 13
在我看来 13
地为 13
埋怨 13
基因 13
境@@ 13
境界 13
增 13
多半 13
夜色 13
大体 13
大便 13
大厦 13
天性 13
天边 13
太慢 13
太早 13
太长 13
太高兴 13
头顶 13
奈 13
好办 13
好大 13
好奇 13
好孩子 13
如实 13
妙@@ 13
威力 13
娜 13
婉@@ 13
嫌疑 13
学得 13
學@@ 13
宁可 13
宝贝 13
实验室 13
室外 13
宴 13
家庭@@ 13
宾@@ 13
寿@@ 13
射中 13
小儿 13
小溪 13
小灯 13
尘 13
尚 13
展品 13
展示会 13
属@@ 13
山峰 13
岂@@ 13
崽 13
川尻早 13
工程@@ 13
工艺 13
差价 13
布丁 13
带狗 13
帶 13
平价 13
平均值 13
平坦 13
年来 13
庆 13
应用程序 13
延后 13
建筑@@ 13
开启 13
开张 13
弃@@ 13
弓@@ 13
张老师 13
弯儿 13
弹性 13
归还 13
彼此彼此 13
往上 13
往外 13
很胖 13
徐@@ 13
心理学 13
心血 13
忠诚 13
忽 13
怕生 13
急急忙忙 13
总务 13
恐 13
患上 13
惊醒 13
想学 13
想试 13
憎恨 13
懒@@ 13
成本计算 13
我以 13
我带 13
我错 13
戒@@ 13
戴上 13
房顶 13
扁@@ 13
手势 13
打入 13
打到 13
扩@@ 13
批发 13
承 13
技术人员 13
投球 13
投诉 13
抗 13
报上 13
抵制 13
拉扯 13
招人 13
挣 13
挣@@ 13
振作 13
捕 13
捷@@ 13
排出 13
接过 13
掩护 13
揭露 13
揽 13
搅@@ 13
搏斗 13
搓@@ 13
摆着 13
摇头 13
摇摇晃晃 13
撇 13
擦掉 13
攀 13
攒 13
改到 13
敝 13
敞开 13
敬语 13
数目 13
整形 13
新家 13
无事 13
无声 13
无私 13
无非 13
日渐 13
早些 13
早日康复 13
早睡 13
旬 13
时分 13
旷@@ 13
昏迷 13
春风 13
晓@@ 13
晕@@ 13
普通人 13
普通话 13
暗号 13
最小 13
有机 13
朝阳 13
期满 13
未知 13
本家 13
朱@@ 13
机车 13
杜@@ 13
条路 13
杯酒 13
柄 13
树脂 13
样@@ 13
样样 13
桌 13
桌@@ 13
梳@@ 13
检查一下 13
棍 13
棒@@ 13
棱@@ 13
植@@ 13
模具 13
模拟 13
欢快 13
欢迎会 13
欧@@ 13
歲 13
歹徒 13
殊@@ 13
残留 13
母子 13
每隔 13
毫不@@ 13
气量 13
求救 13
汇票 13
汇集 13
江户 13
污点 13
汪汪 13
沉思 13
沉着 13
没个 13
没吃过 13
没救 13
法是 13
泛 13
泡沫 13
泽@@ 13
津 13
流行@@ 13
涂料 13
涂黑 13
涉及 13
涩 13
深受 13
清清楚楚 13
清白 13
渗透 13
渲染 13
湿@@ 13
满满的 13
演说 13
潇洒 13
潮湿 13
澎湃 13
炎症 13
炒面 13
炖@@ 13
炫耀 13
烂@@ 13
烧酒 13
热忱 13
照耀 13
爵士 13
犹@@ 13
狭隘 13
猎物 13
献给 13
现出 13
珠@@ 13
理发店 13
琢磨 13
瓶装 13
生产线 13
用处 13
用药 13
电动 13
电影票 13
畅销 13
當@@ 13
癖 13
白云 13
百姓 13
百货商场 13
皮儿 13
盈亏 13
盏 13
盯上 13
直播 13
相投 13
看做 13
真不错 13
眼色 13
着陆 13
瞩目 13
知名度 13
矫正 13
碰面 13
示@@ 13
祝@@ 13
神话 13
秃 13
积极@@ 13
稍@@ 13
究@@ 13
竞@@ 13
端正 13
第一位 13
笼子 13
筛 13
筹@@ 13
筹划 13
简短 13
管子 13
管理员 13
篷 13
精细 13
糟蹋 13
索取 13
累累 13
累赘 13
纤维蛋白 13
约束 13
纵 13
纸巾 13
纽扣 13
细微 13
结尾 13
绷 13
编制 13
缴 13
罚金 13
美洲 13
羽毛 13
羽毛球 13
老子 13
考生 13
聆听 13
联欢会 13
聚餐 13
肝@@ 13
肯@@ 13
胡说 13
胸部 13
能来 13
能用 13
脚印 13
腹 13
自然环境 13
自行 13
致命 13
舵 13
船员 13
良种 13
芝麻 13
花朵 13
苦头 13
英明 13
英语水平 13
茄子 13
茶道 13
萨 13
蒂@@ 13
蒙受 13
虐 13
虚心 13
蛋@@ 13
蝉 13
融 13
融资 13
行走 13
表兄弟 13
衰退 13
裹 13
覆 13
观光客 13
视觉 13
解放后 13
謝謝 13
警戒 13
讨论会 13
让座 13
训@@ 13
许久 13
论点 13
识破 13
试探 13
说道 13
请用 13
读取 13
读的书 13
调到 13
调味 13
谨@@ 13
责骂 13
货品 13
货色 13
贫 13
贫困 13
购物中心 13
赐 13
赞@@ 13
赞美 13
走走 13
起火 13
跑出去 13
距 13
路亚 13
跳进 13
踏实 13
车胎 13
轴@@ 13
较@@ 13
辉煌 13
辨别 13
辩 13
迎合 13
近年 13
这有 13
这盘 13
进屋 13
连队 13
适可而止 13
逃掉 13
选中 13
逗@@ 13
這是 13
通宵 13
通行 13
通风 13
逝 13
遂 13
遥控 13
還 13
配置 13
酒会 13
醒过来 13
释 13
里会 13
里加 13
重写 13
重重 13
野蛮 13
钓@@ 13
钟头 13
银奖 13
销路 13
锋 13
长年 13
长进 13
长野 13
门窗 13
间接 13
闻到 13
阐述 13
阔 13
阻@@ 13
阿绫 13
难以@@ 13
雇 13
雖然 13
露营 13
霸@@ 13
非得 13
靠着 13
面对面 13
面粉 13
音量 13
顺从 13
顺便去 13
风情 13
风浪 13
飘扬 13
飞去 13
飞舞 13
首次 13
香肠 13
马车 13
验 13
高原 13
高级中学 13
高考 13
魄力 13
魔术 13
鹿@@ 13
黎@@ 13
00 12
198@@ 12
20@@ 12
AAA 12
G 12
Knock 12
T恤 12
V 12
g 12
l 12
‖ 12
〇 12
に 12
一切顺利 12
一听 12
一塌糊涂 12
一处 12
一幕 12
一度 12
一气 12
一派 12
一流 12
一米 12
万事@@ 12
万吨 12
丈 12
三号 12
三张 12
三条 12
三角形 12
上放 12
上班时间 12
下一话 12
下乡 12
下棋 12
不值 12
不像话 12
不免 12
不凡 12
不前 12
不善 12
不如说 12
不怕@@ 12
不掉 12
不敢相信 12
专辑 12
丘 12
丝绸 12
丢下 12
两块 12
两头 12
两本 12
两道 12
中外 12
中队 12
临床 12
丸 12
为啥 12
主办 12
乖@@ 12
乘船 12
乘车 12
习性 12
亏了 12
五百@@ 12
交了 12
交代 12
交接 12
交货单 12
交通费 12
产假 12
亲手做 12
亲爱 12
人份 12
人性 12
人造卫星 12
仁@@ 12
从今天起 12
从今往后 12
他学 12
仙@@ 12
代表性 12
令人满意 12
价值观 12
任职 12
仿@@ 12
伐 12
伐@@ 12
传开 12
传染病 12
伪@@ 12
伸手 12
低迷 12
住处 12
体格 12
体育运动 12
体谅 12
体质 12
何处 12
作法 12
依法 12
侵@@ 12
俏 12
保健 12
保证书 12
保质期 12
修缮 12
借鉴 12
做买卖 12
健全 12
偶@@ 12
元旦 12
光顾 12
兔 12
入境 12
全厂 12
全国@@ 12
全校 12
八十@@ 12
八年 12
公司@@ 12
关键时刻 12
兴旺 12
养猫 12
内战 12
农田 12
冲破 12
冻结 12
几声 12
几本 12
几遍 12
凯@@ 12
凶狠 12
出租 12
凿@@ 12
分解 12
切实 12
利亚 12
别往 12
刻画 12
剃@@ 12
前人 12
力学 12
力度 12
办不到 12
办公@@ 12
功劳 12
加班费 12
动听 12
动弹 12
动静 12
劫 12
勋章 12
勾 12
勿 12
匆忙 12
匪@@ 12
十八岁 12
十几年 12
千万别 12
千亿 12
升职 12
半路 12
博 12
博得 12
历 12
压缩 12
原先 12
原子弹 12
县城 12
友爱 12
双簧管 12
发光 12
发出声音 12
发展中国家 12
发掘 12
发疯 12
发短信 12
口红 12
古人 12
古典 12
可行 12
各式各样 12
合乎 12
同行 12
名胜 12
后院 12
吟 12
启@@ 12
告状 12
呦 12
咋 12
咋@@ 12
和尚 12
咕咕 12
咻 12
員 12
唧@@ 12
商议 12
喋喋不休 12
喳喳 12
嗓音 12
嗨 12
嘿嘿 12
器官 12
四季 12
回乡 12
因而 12
园子 12
困了 12
围墙 12
国会 12
图形 12
图钉 12
在职 12
地势 12
地开 12
地读 12
地过 12
地道 12
地雷 12
均衡 12
坊 12
坑@@ 12
坚固 12
埋@@ 12
堡垒 12
复仇 12
复兴 12
大众 12
大力支持 12
大坝 12
大城市 12
大巴 12
大豆 12
天安门 12
失恋 12
奉承 12
奖学金 12
女孩儿 12
好好儿 12
好感 12
好汉 12
好运 12
妥 12
姆@@ 12
姿 12
嫌弃 12
孝@@ 12
孽 12
宁 12
宇航员 12
安稳 12
宗旨 12
定制 12
定期存款 12
实地 12
实惠 12
审计 12
宣传@@ 12
寄出 12
寄生 12
寄生虫 12
寸@@ 12
寿司店 12
小怜 12
小样 12
小满 12
小说家 12
尤@@ 12
就会 12
就别 12
尸 12
屁@@ 12
属性 12
屡次 12
山岸 12
山川 12
崇拜 12
崇高 12
工作效率 12
帝@@ 12
带薪休假 12
干干净净 12
干扰 12
平平@@ 12
幸 12
幸好 12
幼小 12
庄重 12
庆贺 12
废话 12
开除 12
异样 12
引人注目 12
弗@@ 12
弱小 12
強@@ 12
当下 12
当众 12
当局 12
当当 12
当选 12
影响力 12
往前走 12
很花 12
德语 12
德里 12
心动 12
心得 12
心来 12
心理@@ 12
心痛 12
必不可少 12
忧 12
快死了 12
恍@@ 12
恐怖@@ 12
恰@@ 12
恰好 12
悦耳 12
情愿 12
惧 12
感人 12
感性 12
感慨 12
憎恶 12
戏剧 12
戏弄 12
成年 12
成本@@ 12
我查 12
我门 12
战线 12
截 12
房地产 12
扇@@ 12
手绢 12
打不开 12
打人 12
打断 12
打针 12
扛 12
扩张 12
扰@@ 12
抚育 12
抡 12
报应 12
报警 12
报销 12
抹@@ 12
拌 12
拙@@ 12
招待会 12
招惹 12
招手 12
招揽 12
招来 12
拟 12
拥护 12
拧紧 12
拿下 12
挂念 12
指挥@@ 12
挑起 12
挤满 12
振动 12
挽 12
捎 12
捏@@ 12
捕鱼 12
损耗 12
换气 12
掏 12
掘@@ 12
探索 12
推开 12
搁置 12
搓 12
搬到 12
搭讪 12
摆出 12
摸摸 12
撤回 12
放不下 12
敌对 12
敢于 12
整修 12
整治 12
文学@@ 12
斑@@ 12
斜坡 12
斩@@ 12
新鲜@@ 12
旅途 12
无味 12
无处 12
无心 12
无用 12
无穷 12
无趣 12
时不时 12
时速 12
昂贵 12
昏暗 12
時間 12
晋升 12
晒@@ 12
晓 12
普遍@@ 12
景@@ 12
期末 12
本市 12
朴实 12
杂菌 12
杆菌 12
杏@@ 12
条例 12
来源 12
来电 12
松懈 12
板儿 12
极力 12
枕 12
枕@@ 12
标价 12
校正 12
核心 12
框 12
桌椅 12
梢 12
森@@ 12
楼下 12
榊 12
次品 12
正午 12
武术 12
歪曲 12
死后 12
殷勤 12
每逢 12
比不上 12
毙 12
气愤 12
气派 12
气象@@ 12
氣@@ 12
水道 12
永不 12
求职 12
沒有 12
河道 12
沿 12
沿海 12
泉@@ 12
法官 12
法规 12
洁@@ 12
洋葱 12
洒@@ 12
流出 12
流感病毒 12
流星 12
流浪 12
流量 12
流露 12
浇水 12
济@@ 12
浏览 12
浓郁 12
浴池 12
海军 12
海岸 12
浸泡 12
润@@ 12
淋@@ 12
淘@@ 12
深远 12
淹死 12
清凉 12
溢 12
滚开 12
满满 12
滥@@ 12
滩 12
滾 12
漆@@ 12
灵感 12
炒饭 12
点前 12
点钟 12
烙 12
烧伤 12
烫@@ 12
热气 12
焦急 12
焰火 12
煎饼 12
煤气 12
牢记 12
牵手 12
牵连 12
犁 12
犯困 12
狱 12
猪排 12
献出 12
环节 12
理论@@ 12
瑞士 12
生命@@ 12
生来 12
生活习惯 12
申@@ 12
电力@@ 12
电台 12
电气 12
电路 12
画出 12
畜@@ 12
畫 12
疏通 12
疾@@ 12
病倒 12
病床 12
病魔 12
痒痒 12
百分之百 12
皮革 12
盛夏 12
相册 12
盼望 12
看得 12
真令人 12
真会 12
真够 12
真心话 12
真棒 12
眠 12
瞅 12
矿 12
确 12
确@@ 12
磨练 12
示威 12
示范 12
礼品 12
离去 12
离家 12
离家出走 12
秀@@ 12
科技 12
秧 12
稀奇 12
税@@ 12
稚气 12
空前 12
突@@ 12
窝儿 12
立志 12
站立 12
竟敢 12
童年 12
笔画 12
笔迹 12
算计 12
管理层 12
糊@@ 12
紧迫 12
累坏 12
累积 12
給@@ 12
繁@@ 12
繁华 12
红灯 12
纪@@ 12
纳入 12
组织@@ 12
绝佳 12
绝境 12
绽放 12
缭绕 12
罐子 12
网络@@ 12
罪恶 12
群山 12
老化 12
老同学 12
耳机 12
耳边 12
聪明@@ 12
肌@@ 12
肚 12
肥大 12
背诵 12
胡同 12
脉@@ 12
腐败 12
自来水 12
自立 12
艺术@@ 12
花哨 12
草坪 12
草稿 12
荒唐 12
荣 12
菠菜 12
营业时间 12
落实 12
蓄@@ 12
虑 12
虚伪 12
融入 12
融合 12
蟑螂 12
蟹 12
行政@@ 12
衔 12
衰 12
袭@@ 12
裂缝 12
规 12
解散 12
言行 12
议价 12
记述 12
讲演 12
论述 12
设@@ 12
识@@ 12
试用 12
话剧 12
详@@ 12
语调 12
语音 12
请别 12
请谅解 12
课本 12
财务@@ 12
财政@@ 12
账款 12
质地 12
贫乏 12
贵重 12
贼@@ 12
资助 12
走运 12
起不来 12
起來 12
起舞 12
趋@@ 12
足球赛 12
跃进 12
跨 12
路费 12
跳槽 12
转行 12
转过 12
轰 12
辅助性 12
辉@@ 12
辑 12
辣椒 12
过剩 12
过失 12
过敏原 12
过错 12
迎面 12
返 12
这具 12
这出 12
这头 12
这布 12
这棵树 12
连锁 12
迷惑 12
追究 12
退休金 12
退房 12
逃犯 12
逐@@ 12
递@@ 12
递交 12
递给 12
途径 12
通知书 12
通货膨胀 12
通道 12
逞强 12
逸@@ 12
逻辑 12
逼人 12
遍@@ 12
遗忘 12
那封 12
邻@@ 12
部署 12
酱汁 12
酸痛 12
重逢 12
野外 12
金枪鱼 12
钦佩 12
钻石 12
钻进 12
锁上 12
锁门 12
错觉 12
镇定 12
门户 12
门缝 12
问卷调查 12
闲暇 12
闲着 12
间隙 12
阔@@ 12
防备 12
阴影 12
阴沉 12
陋 12
降临 12
降落 12
限@@ 12
限于 12
陪同 12
陶器 12
陷@@ 12
陷于 12
隆@@ 12
随后 12
雄厚 12
集中精力 12
集体@@ 12
雨后 12
雷达 12
電@@ 12
雾气 12
霉@@ 12
霍@@ 12
露天 12
革新 12
鞭子 12
韵@@ 12
项@@ 12
顺手 12
预见 12
领先 12
颓@@ 12
风光 12
风声 12
风筝 12
飞翔 12
飞跃 12
饮用 12
饱@@ 12
饿死 12
首位 12
首长 12
香水 12
骂人 12
骗局 12
骚乱 12
骨气 12
高产 12
高声 12
高潮 12
高烧 12
高额 12
髮 12
魚 12
鲸鱼 12
鸽子 12
麵 12
麻子 12
齿轮 12
龌龊 12
.@@ 11
2007 11
CHANCE 11
E 11
F 11
New 11
Q@@ 11
n 11
on 11
で 11
り 11
一两个 11
一侧 11
一去 11
一小撮 11
一惊 11
一朵 11
一桩 11
一泡 11
一点@@ 11
一箱 11
一览表 11
一连串 11
一齐 11
三倍 11
三十年 11
三种 11
三角 11
下周一 11
下场 11
下方 11
下游 11
下着雨 11
下结论 11
不买 11
不全 11
不坏 11
不大@@ 11
不怎么样 11
不是故意 11
不朽 11
不比 11
不热 11
不良@@ 11
不要脸 11
不解 11
不输给 11
专业@@ 11
世人 11
丙@@ 11
丛 11
丛@@ 11
两半 11
两腿 11
两项 11
中世纪 11
中来 11
之交 11
之地 11
乍 11
乐园 11
乒乓 11
乘务员 11
乞@@ 11
书本 11
书架上 11
买回来 11
了结 11
事上 11
事由 11
事请 11
二十分钟 11
二手 11
二手车 11
二次 11
五块 11
五米 11
交出 11
交通规则 11
亦 11
产地 11
享乐 11
亲事 11
人声 11
人太 11
人有 11
仅限 11
他气 11
以下内容 11
休闲 11
优 11
优厚 11
优异 11
会用 11
会计师 11
伪装 11
位数 11
低沉 11
佛像 11
作废 11
作曲家 11
你们好 11
使出 11
使用@@ 11
侄女 11
例@@ 11
依次 11
保证金 11
保险公司 11
保龄球 11
修养 11
倾诉 11
假说 11
做手术 11
停不下来 11
傢 11
傲慢 11
僻 11
儒@@ 11
光亮 11
光景 11
克斯 11
党中央 11
入伍 11
入迷 11
全年 11
兩@@ 11
公报 11
六岁 11
关头 11
关掉 11
其余 11
养狗 11
兼 11
兽@@ 11
内外 11
冲突 11
冷水 11
冷笑 11
减速 11
几条 11
几步 11
几道 11
凡是 11
凯 11
凶暴 11
出众 11
出头 11
刃@@ 11
分到 11
刚到 11
判处 11
别哭 11
别国 11
别处 11
别扭 11
刮起 11
到位 11
刺刀 11
前任 11
前夕 11
前头 11
剑@@ 11
剥 11
剥落 11
副社长 11
力求 11
动画片 11
动脉 11
助力 11
助理 11
劲头 11
勅 11
化学物质 11
匠 11
十几岁 11
十分@@ 11
升学 11
午觉 11
半价 11
卑@@ 11
单子 11
单核细胞 11
博多 11
卡路里 11
卵@@ 11
厉 11
原型 11
去一趟 11
去向 11
去往 11
友好关系 11
反驳 11
发呆 11
发酵 11
取暖 11
变色 11
变量 11
变革 11
叠 11
句@@ 11
可笑 11
可见 11
右侧 11
司令 11
吃力 11
吉利 11
同学会 11
名誉 11
向右转 11
含糊 11
听讲 11
吸尘器 11
和蔼 11
咕噜咕噜 11
咱俩 11
哈哈哈 11
哨 11
哪一天 11
哪条 11
唱得 11
啃 11
喜庆 11
喝太多 11
嘟嘟 11
回响 11
回家路上 11
回想起来 11
因人而异 11
团聚 11
围裙 11
国庆 11
图书室 11
圣诞树 11
地爱 11
地看 11
坛 11
坠@@ 11
垫子 11
埃及 11
培@@ 11
基层 11
堤 11
塑@@ 11
处方 11
处罚 11
多方 11
大不了 11
大体上 11
大分 11
大局 11
大水 11
大王 11
天前 11
天安门广场 11
太弱 11
太空 11
太紧 11
太阳光 11
夺目 11
奈@@ 11
奏响 11
套装 11
女友 11
好了吧 11
好球 11
好莱坞 11
妥善 11
妻 11
娱乐@@ 11
婆 11
婴儿车 11
媒介 11
嫌@@ 11
孕妇 11
字体 11
存折 11
孙 11
学习@@ 11
学园 11
宇宙飞船 11
宏观 11
宗@@ 11
客房 11
宣传册 11
宣告 11
害人 11
家境 11
寂 11
寿 11
封建主义 11
射线 11
小号 11
小林 11
少许 11
就诊 11
屋外 11
屏住 11
屡@@ 11
山东 11
山河 11
巢 11
工资@@ 11
巧合 11
巩固 11
巴掌 11
巴结 11
市里 11
帆 11
带伞 11
帮手 11
常人 11
常去 11
幅@@ 11
幕后 11
干预 11
平行 11
平面 11
年份 11
年老 11
幽静 11
广播@@ 11
庆@@ 11
应届 11
底子 11
店主 11
庞大 11
座儿 11
建了 11
开出 11
开枪 11
开阔 11
异乡 11
弥@@ 11
强健 11
强有力 11
形兆 11
往下 11
很早以前 11
很着急 11
很贵 11
很重 11
很闲 11
微弱 11
心儿 11
心切 11
心怀 11
心态 11
必 11
忍着 11
怒火 11
思绪 11
急切 11
急需 11
恣@@ 11
恶习 11
恶魔 11
悄悄 11
悄悄地 11
悉 11
悉尼 11
悟 11
情意 11
惋惜 11
惨 11
惩@@ 11
想必 11
慢走 11
懂@@ 11
懒惰 11
懒散 11
我发 11
我爸 11
战火 11
房东 11
手巾 11
手帕 11
打个招呼 11
打字 11
打扰到 11
打搅 11
打瞌睡 11
打错 11
扔@@ 11
扫描 11
扮演 11
承包 11
拆开 11
拉拢 11
拐杖 11
拘泥于 11
拟定 11
拾 11
挖出 11
挣钱 11
挥 11
挨着 11
捆 11
捆@@ 11
捉 11
捋 11
捐@@ 11
换钱 11
排成 11
接连 11
推辞 11
掷 11
提及 11
摄影@@ 11
摇滚 11
撩@@ 11
操作@@ 11
攀登 11
收录 11
收敛 11
收益率 11
改写 11
改掉 11
放声 11
敏锐 11
教诲 11
散开 11
整晚 11
料子 11
料理店 11
斯特 11
新建 11
旅行者 11
无从 11
无法忍受 11
无畏 11
日历 11
日本@@ 11
日用 11
旨 11
时有 11
明朗 11
明治 11
是夜 11
昼夜 11
显眼 11
晃 11
普 11
普通@@ 11
景观 11
暗中 11
最深 11
最高@@ 11
有件 11
有利于 11
有理 11
有课 11
服药 11
朗诵 11
期货 11
木匠 11
本意 11
本月 11
术@@ 11
机灵 11
李老师 11
条子 11
松散 11
柠檬 11
查收 11
柱@@ 11
标识 11
栖息 11
根据地 11
桃 11
桃花 11
框架 11
桥本 11
检查@@ 11
检票口 11
棉袄 11
棵 11
椅 11
機@@ 11
款项 11
正合适 11
正宗 11
正想 11
正月 11
正经@@ 11
步入 11
残 11
毒性 11
比賽 11
气馁 11
氧 11
永久 11
汇合 11
池@@ 11
池塘 11
沉睡 11
沙龙 11
没完没了 11
沦@@ 11
油田 11
治病 11
泡温泉 11
泥土 11
洗脸 11
津贴 11
浓 11
浪潮 11
浴缸 11
海浪 11
消防 11
深呼吸 11
深沉 11
混入 11
清水 11
游击 11
湖里 11
湾 11
溢出 11
滞 11
满口 11
漫步 11
漱口 11
火线 11
灭亡 11
灵巧 11
烘@@ 11
烟头 11
焉 11
照例 11
熟睡 11
爸 11
牙疼 11
牢靠 11
物件 11
牺牲者 11
犯下 11
犯法 11
狩猎 11
玄关 11
玛@@ 11
玩家 11
玩过 11
珍重 11
班车 11
球员 11
瑜伽 11
生效 11
生日礼物 11
生锈 11
用人 11
画个 11
界@@ 11
番 11
疑虑 11
疲@@ 11
疲乏 11
病症 11
痕 11
瘾 11
發@@ 11
百元 11
百出 11
盈余 11
盖饭 11
直面 11
相互@@ 11
相差 11
相扑 11
相继 11
相近 11
相配 11
盼望着 11
看清 11
真挚 11
真热 11
真能 11
眨眼 11
眼角 11
睁开眼睛 11
知晓 11
石油@@ 11
破烂 11
硕@@ 11
碗@@ 11
碾@@ 11
磨蹭 11
礼拜一 11
祈愿 11
祖 11
离奇 11
秋收 11
秋田县 11
科学@@ 11
科研 11
税款 11
空想 11
窘 11
竟@@ 11
章@@ 11
竣工 11
竹竿 11
符 11
第一线 11
第二次世界大战 11
第四@@ 11
笼罩着 11
筑 11
简的 11
管理@@ 11
粗心大意 11
精明 11
精英 11
糊弄 11
糖果 11
索引 11
經@@ 11
繁重 11
纳税 11
纳豆 11
终究 11
终结 11
经销商 11
绳@@ 11
罗勒 11
罗蕾莱 11
罪过 11
羊毛 11
美少女 11
翘@@ 11
翻修 11
老头儿 11
老鹰 11
耗@@ 11
耗子 11
耳光 11
聊聊 11
肮脏 11
肺泡 11
胆量 11
背包 11
胎@@ 11
胡萝卜 11
胸前 11
脆@@ 11
脱下 11
脱水 11
腰疼 11
腺 11
腾@@ 11
臂 11
自动化 11
自在 11
致敬 11
舞会 11
舞者 11
色情 11
色调 11
艳@@ 11
节假日 11
芭蕾 11
花瓣 11
花草 11
花边 11
若无其事 11
苦涩 11
英 11
英俊 11
英语@@ 11
茶杯 11
草木 11
荒废 11
荷兰 11
萎缩 11
萧条 11
萨@@ 11
落叶 11
葱@@ 11
虔诚 11
蚀 11
蜂@@ 11
螃蟹 11
行不通 11
衡 11
衬衣 11
衰@@ 11
袖 11
被动 11
被车撞 11
装修 11
装扮 11
装进 11
裤@@ 11
裸@@ 11
裹@@ 11
西边 11
要么 11
要花费 11
见习 11
视角 11
觉@@ 11
触摸 11
語 11
論 11
警方 11
议事录 11
议案 11
记不住 11
证人 11
评定 11
诉@@ 11
说不@@ 11
说教 11
调去 11
调解 11
谈恋爱 11
象@@ 11
豪 11
貌 11
贝壳 11
财务报表 11
责任感 11
贤@@ 11
贱 11
贵重物品 11
费心 11
贺@@ 11
赠@@ 11
赫 11
走开 11
走私 11
起码 11
起身 11
跌落 11
跪 11
路子 11
路灯 11
輕@@ 11
车床 11
车轮 11
轮到 11
轻率 11
较量 11
辞退 11
辨@@ 11
辰 11
辱 11
迁@@ 11
过不去 11
迈@@ 11
迈着 11
这番话 11
这碗 11
连天 11
迟早 11
迪@@ 11
迫 11
迷人 11
迷住 11
退回 11
退换 11
选拔赛 11
透顶 11
通电话 11
逛@@ 11
造访 11
逢 11
遗留 11
遛 11
邀请函 11
邊 11
那可真 11
那就好 11
那有 11
那樣 11
那艘 11
配备 11
酷热 11
醇 11
醒悟 11
里头 11
重新@@ 11
野生 11
野餐 11
鉴定 11
铃美 11
铅@@ 11
铝 11
铲 11
铺上 11
锅里 11
锯@@ 11
镶 11
长满 11
长跑 11
长远 11
開@@ 11
闪闪发光 11
闭上眼睛 11
闹腾 11
阅览 11
阵@@ 11
附加文件 11
附着 11
陶瓷 11
隆 11
隐约 11
难办 11
雕 11
難 11
雨淋 11
雪地 11
零食 11
霉素 11
非正式 11
靠不住 11
面容 11
鞍@@ 11
鞭 11
音符 11
類 11
领导班子 11
颜 11
颜料 11
额头 11
飞过 11
饥@@ 11
饱受 11
驻 11
骆驼 11
验收 11
骨干 11
高性能 11
高昂 11
高超 11
高高的 11
鲑鱼 11
鲤鱼 11
鹿肉 11
黑夜 11
黑白 11
鼓掌 11
鼻 11
 11
) 10
1500 10
29 10
NK 10
R 10
Z 10
al@@ 10
it@@ 10
iv@@ 10
st@@ 10
x 10
z@@ 10
〔 10
が 10
っ 10
て 10
と 10
れ 10
一个半 10
一个班 10
一事 10
一元 10
一如既往 10
一寸 10
一想 10
一期 10
一百 10
一百块 10
一腔 10
一臂之力 10
一般来说 10
一角 10
一闪 10
万幸 10
三家 10
三楼 10
上书 10
上床 10
上方 10
上海@@ 10
上演 10
上班族 10
上瘾 10
上街 10
上铺 10
下海 10
不下雨 10
不中用 10
不予 10
不冷 10
不同之处 10
不响 10
不容 10
不惯 10
不懂事 10
不振 10
不符 10
不管是谁 10
不讲道理 10
不识@@ 10
与否 10
专属 10
世界各地 10
世界杯 10
业余@@ 10
丢掉 10
两座 10
两条@@ 10
两米 10
严禁 10
个人电脑 10
中央@@ 10
中招 10
中日 10
中立 10
中肯 10
丰满 10
为期 10
主力 10
主義者 10
举手 10
乃 10
之作 10
之意 10
之见 10
乌鸦 10
乏力 10
乐曲 10
习 10
书里 10
乱动 10
乳 10
予@@ 10
事后 10
事想 10
事来 10
二十一 10
于人 10
五千 10
五岁 10
人事@@ 10
人到 10
人手不足 10
什@@ 10
仍旧 10
从早到晚 10
代理人 10
企 10
休克 10
休想 10
会到 10
会晚 10
伤疤 10
伦理 10
伪造 10
估@@ 10
伶俐 10
伺候 10
低声 10
佐 10
体现 10
体积 10
体面 10
作成 10
例如 10
侮@@ 10
侵占 10
保护@@ 10
保持联系 10
保险费 10
倒入 10
值日 10
倾倒 10
做得好 10
停住 10
偷偷地 10
傲@@ 10
傻话 10
像样 10
僧 10
充分发挥 10
充当 10
光彩 10
兜售 10
入内 10
入场券 10
全球化 10
全盘 10
全能 10
八个 10
公分 10
公认 10
公道 10
其一 10
其事 10
内政 10
再发 10
再次发生 10
农产品 10
决不会 10
况 10
冷风 10
净化 10
凉风 10
减价 10
几根 10
出产 10
出道 10
分歧 10
分组 10
切开 10
切换 10
刑事@@ 10
刚来 10
别来 10
到访 10
刷新 10
刺儿 10
刺身 10
前期 10
剧院 10
剩@@ 10
劝说 10
动态 10
动荡 10
动词 10
助威 10
劳苦 10
势头 10
勃勃 10
勇猛 10
勉 10
勺 10
勾当 10
勾起 10
包子 10
化为 10
北风 10
匹 10
匹配 10
区区 10
十月份 10
十萌姐 10
华侨 10
卓越 10
单元 10
南瓜 10
占据 10
卢@@ 10
卧床不起 10
印记 10
厌@@ 10
厘@@ 10
原始 10
及早 10
发动群众 10
发射@@ 10
发病 10
受苦 10
变卖 10
变回 10
变大 10
变异 10
变换 10
另行 10
只得 10
只怕 10
召@@ 10
叹息 10
吃过饭 10
合不来 10
同期 10
同类 10
后期 10
向前走 10
吝啬 10
启 10
吱@@ 10
吸取 10
吸引力 10
吹飞 10
吼@@ 10
呐喊 10
周内 10
周旋 10
周游 10
周转率 10
呼唤 10
呼噜 10
命中注定 10
咒 10
品位 10
品格 10
响声 10
哪种 10
哼哼 10
唔 10
唠叨 10
唤 10
唾沫 10
啪啦 10
喀@@ 10
喂食 10
喘@@ 10
喝牛奶 10
喧嚣 10
喷 10
嘉@@ 10
嘟噜 10
嘭 10
嘻@@ 10
四人 10
四面 10
回头@@ 10
回想 10
回程 10
团员 10
团长 10
困苦 10
围住 10
国债 10
国庆节 10
图画 10
图章 10
圆润 10
圈儿 10
圣诞老人 10
坂上 10
坏习惯 10
坚持不懈 10
埃 10
堂兄弟 10
塞子 10
墓@@ 10
增长率 10
壁橱 10
士气 10
声响 10
声誉 10
夕@@ 10
外国语 10
外形 10
外界 10
外行 10
多方面 10
大拇指 10
大桥 10
大理石 10
天妇 10
天真无邪 10
太好 10
太少 10
失陪 10
夺走 10
奇特 10
奋 10
奔走 10
奖牌 10
奥 10
奴@@ 10
好几 10
好学 10
好闻 10
妈@@ 10
妖精 10
姬 10
娇 10
嫁@@ 10
嫩@@ 10
子儿 10
子公司 10
孝敬 10
孤岛 10
学期开始 10
学生会 10
学说 10
学部 10
宁静 10
宏大 10
官僚主义 10
官司 10
定位 10
定性 10
宜@@ 10
实用 10
实绩 10
实验@@ 10
宰@@ 10
害虫 10
宽阔 10
寓@@ 10
对外 10
导师 10
對@@ 10
小人 10
小宝宝 10
小巧 10
小裕 10
尼亚 10
屁 10
屁事 10
层面 10
展销会 10
山本 10
山林 10
山梨 10
山沟 10
山洞 10
山羊 10
岁@@ 10
岔@@ 10
岸@@ 10
峡谷 10
崇@@ 10
崎 10
巡回 10
左侧 10
左转 10
巴巴 10
巴斯 10
市中心 10
帆船 10
帝 10
带回家 10
帽@@ 10
干起 10
平和 10
平安地 10
年初 10
年终 10
广告@@ 10
床单 10
序@@ 10
应急 10
店面 10
府@@ 10
废品 10
废弃 10
康复训练 10
延安 10
开办 10
开发@@ 10
开往 10
开放@@ 10
开销 10
式@@ 10
引退 10
张罗 10
弥漫 10
弯曲 10
弹奏 10
当个 10
形容词 10
彩电 10
影儿 10
征求 10
征集 10
很酷 10
律 10
徒刑 10
得起 10
循@@ 10
微观 10
必将 10
必要条件 10
忧伤 10
快给我 10
怎@@ 10
思索 10
急促 10
急性 10
怪异 10
总在 10
总经理 10
恕 10
恭候 10
悦 10
悬 10
惊吓 10
惊呆 10
惜 10
惶@@ 10
意向 10
意大利语 10
感到@@ 10
感覺 10
慢点 10
懂吗 10
懈怠 10
成见 10
我同 10
我想试 10
我长 10
我领 10
或者说 10
戴帽子 10
扁担 10
手写 10
才刚 10
扑克牌 10
打下 10
打起 10
打麻将 10
扔下 10
扩展 10
扳 10
扳@@ 10
技艺 10
抓紧时间 10
投标 10
投资信托 10
抗旱 10
抚@@ 10
护身符 10
报复 10
拂 10
拟@@ 10
拧@@ 10
拴 10
挂号信 10
按期 10
挖出来 10
挟@@ 10
挤得 10
挥动 10
振作起来 10
振奋 10
挽救 10
捅 10
捎@@ 10
捐 10
捕捉 10
捺 10
掏出 10
掐@@ 10
排挤 10
探险 10
接待客人 10
接球 10
措辞 10
揉@@ 10
描@@ 10
提不起 10
提前完成 10
援 10
搞不清楚 10
搞清楚 10
摇滚乐 10
摇篮 10
摘下来 10
摘要 10
摘除 10
摧毁 10
撅 10
操场 10
支持者 10
支架 10
收场 10
收款 10
改动 10
改编 10
改装 10
攻势 10
放映 10
放水 10
放肆 10
故宫 10
救济 10
教书 10
教学楼 10
整合 10
文具 10
斗志 10
新兴 10
新式 10
新桥 10
方言 10
施展 10
旗帜 10
无奈 10
无所 10
无所@@ 10
无所事事 10
无数次 10
既有 10
早退 10
时去 10
时时 10
时用 10
旺@@ 10
昨夜 10
昨日 10
昭@@ 10
是否是 10
晶莹 10
暧昧 10
暮@@ 10
更强 10
更想 10
曾@@ 10
最强 10
有余 10
有多@@ 10
服装店 10
望去 10
木工 10
本性 10
杂交 10
权贵 10
李白 10
材料费 10
束@@ 10
松弛 10
松饼 10
松鼠 10
极度 10
果酱 10
枪支 10
某天 10
染色 10
柜子 10
树下 10
校门 10
核实 10
核算 10
根底 10
案例 10
桌面 10
桔子 10
梁 10
梁@@ 10
梦境 10
梯 10
检 10
森下 10
森严 10
棱 10
楚 10
樂@@ 10
樱桃 10
樱花树 10
橡皮@@ 10
欺侮 10
止血 10
正事 10
正视 10
步枪 10
歼灭 10
比亚 10
毛骨悚然 10
民法 10
气儿 10
氧化@@ 10
水彩画 10
水桶 10
水槽 10
水池 10
水灾 10
水野 10
江湖 10
池袋 10
污水 10
汪@@ 10
沙哑 10
没拿到 10
没点 10
河堤 10
油画 10
泄 10
泄气 10
泄漏 10
法定 10
泥沙 10
注销 10
泳@@ 10
泽 10
洛杉矶 10
洲 10
活在 10
派出所 10
流汗 10
济 10
海豚 10
海鲜 10
消散 10
淋 10
淋湿 10
淋漓 10
淡淡的 10
淫@@ 10
淹没 10
清朝 10
渗@@ 10
游乐 10
溃@@ 10
溶液 10
溶解 10
滑倒 10
滑行 10
满面 10
滥用 10
滨@@ 10
滴答 10
演唱 10
火光 10
灾情 10
炎@@ 10
炭 10
炮声 10
炸死 10
点滴 10
炼 10
烈@@ 10
热带@@ 10
热门 10
爱慕 10
爱护 10
爷 10
牛仔 10
牟@@ 10
牢固 10
物质@@ 10
特此 10
犹太人 10
狗狗 10
狭 10
献 10
献上 10
献血 10
玉美 10
王牌 10
玫瑰花 10
环游世界 10
现役 10
现款 10
玻璃窗 10
珍宝 10
球拍 10
瑕疵品 10
用车 10
用量 10
甭 10
甲子 10
申诉 10
画儿 10
畅 10
畅@@ 10
畅快 10
畏@@ 10
留念 10
留给 10
疏漏 10
疗养 10
病例 10
病后 10
痰 10
登记@@ 10
白白 10
盎然 10
直率 10
相貌 10
相隔 10
眉头 10
看好 10
看重 10
真实感 10
眨 10
眼珠 10
眼科 10
着眼于 10
知县 10
知觉 10
破旧 10
破绽 10
破裂 10
硬度 10
碍@@ 10
碳 10
磕 10
社交 10
祝你幸福 10
神奈川 10
神来 10
祸@@ 10
禁止入 10
私事 10
种菜 10
租车 10
租金 10
称作 10
移交 10
移开 10
稀少 10
程@@ 10
稱 10
稻 10
穗 10
究 10
空洞 10
空虚 10
空运 10
突击 10
突变 10
窍门 10
窗子 10
窥视 10
立下 10
立体 10
章程 10
笛 10
筛@@ 10
算数 10
管理系统 10
粉色 10
粒@@ 10
精神力 10
精美 10
紧急@@ 10
红花 10
纤@@ 10
纪录 10
纵横 10
纸箱 10
纺@@ 10
结晶 10
绘@@ 10
绝路 10
继@@ 10
绪 10
绿化 10
编写 10
缘@@ 10
缝儿 10
缝纫机 10
罪人 10
羞@@ 10
翻身 10
老乡 10
老大娘 10
老爹 10
老练 10
耕@@ 10
耸@@ 10
聽 10
肃清 10
肉体 10
肝炎 10
肥胖 10
肿@@ 10
胆小鬼 10
胖子 10
胸脯 10
胺 10
能克服 10
能耐 10
能行 10
脑后 10
脓@@ 10
脾@@ 10
腌 10
腐@@ 10
腐朽 10
腐蚀 10
腔@@ 10
膏@@ 10
臃肿 10
臊 10
自助餐 10
自然灾害 10
自称 10
致富 10
良 10
花木 10
花盆 10
芳 10
苦战 10
英语老师 10
英雄@@ 10
范@@ 10
茧 10
荒凉 10
荡@@ 10
药剂师 10
莫大 10
菊 10
营业员 10
落到 10
葡萄球菌 10
藤 10
虹 10
蜂 10
蜜 10
蜿蜒 10
血栓 10
血腥 10
行家 10
行踪 10
行车 10
衣柜 10
表亲 10
袖@@ 10
裂@@ 10
装在 10
装成 10
装满 10
装货 10
西式 10
覺 10
见过面 10
觉察到 10
觉醒 10
解脱 10
触动 10
試 10
誰 10
计量 10
订婚 10
认真@@ 10
讨论一下 10
议程 10
记下 10
记下来 10
记入 10
讲义 10
论断 10
评语 10
识字 10
诈 10
译 10
诗句 10
诡@@ 10
详情请 10
诬蔑 10
说一说 10
说得对 10
请以 10
请试 10
诸 10
诸位 10
诸多 10
诸葛亮 10
诺言 10
调味料 10
谈过 10
谜 10
谢礼 10
貌@@ 10
财团 10
货到付款 10
贩卖机 10
贪污 10
贫农 10
贫苦 10
贱@@ 10
贵宾 10
贸易@@ 10
资本家 10
赖@@ 10
赛马 10
赠 10
走不动 10
走来走去 10
走近 10
赴 10
赶着 10
起头 10
趁@@ 10
趁现在 10
趣味 10
足以 10
跪下 10
践踏 10
踩@@ 10
踹 10
身份证 10
车祸 10
轻佻 10
轻巧 10
轻盈 10
轻重 10
轿车 10
辐射 10
辙 10
辛辣 10
运到 10
近几年 10
还原 10
这伙 10
这药 10
这身 10
进出 10
进发 10
远山 10
违 10
连夜 10
迷茫 10
送上 10
送回 10
适于 10
逃到 10
逆 10
透过 10
逐年 10
途@@ 10
通关 10
通向 10
通讯@@ 10
通话 10
通顺 10
連@@ 10
進 10
逾@@ 10
遇@@ 10
遗失 10
遛狗 10
遭殃 10
遵守规则 10
邋遢 10
那扇 10
那要 10
邪@@ 10
邪恶 10
邮政 10
邻 10
邻家 10
郊 10
部位 10
酒屋 10
酒量 10
酒馆 10
酣@@ 10
酥@@ 10
酷@@ 10
重力 10
重担 10
重病 10
野草 10
金融机构 10
钞票 10
钻研 10
链@@ 10
锥子 10
镇静 10
长距离 10
關@@ 10
闪光灯 10
闲逛 10
阅 10
阅@@ 10
防治 10
阵痛 10
阵雨 10
阻 10
阿拉伯 10
陈设 10
降到 10
降温 10
限期 10
除以 10
随心所欲 10
难为情 10
难吃 10
难堪 10
雅致 10
雨伞 10
青春期 10
非常简单 10
面条 10
鞋带 10
鞋柜 10
鞭策 10
音石明 10
顷 10
顿饭 10
预言 10
额度 10
风波 10
飘荡 10
食粮 10
饥饿 10
饶恕 10
首相 10
香草 10
马列主义 10
马铃薯 10
驳 10
高坂 10
高点 10
高空 10
鱼类 10
鲁 10
鲍勃 10
鲜美 10
鳥 10
鸟类 10
鹅 10
麦田 10
麻木 10
黑人 10
默默 10
默默地 10
點@@ 10
鼓动 10
鼠@@ 10
＋ 10
３ 10
1200 9
1999 9
2008 9
32 9
33 9
6000 9
800 9
95 9
Act.2 9
OS 9
cosplay 9
en 9
et 9
ill@@ 9
ing 9
ir@@ 9
k 9
r 9
こ 9
一万 9
一交 9
一倍 9
一出 9
一动 9
一千元 9
一小 9
一巴掌 9
一心一意 9
一有 9
一本正经 9
一枝 9
一溜 9
一片@@ 9
一环 9
一缕 9
一节 9
一见钟情 9
一郎 9
一顿饭 9
一點 9
七咲 9
万千 9
万物 9
万美元 9
三件 9
三月份 9
三百 9
三重 9
上下@@ 9
上周五 9
上限 9
下课 9
不倒 9
不倦 9
不可避免 9
不向 9
不含税 9
不堪@@ 9
不妨 9
不得@@ 9
不早了 9
不服输 9
不熟 9
不离 9
不累 9
不言 9
不讲理 9
不语 9
不进 9
专职 9
丛生 9
东边 9
两三个 9
两下 9
两分钟 9
两千@@ 9
两句话 9
两只手 9
两国人民 9
两国关系 9
两本书 9
两翼 9
两遍 9
严冬 9
严守 9
严寒 9
个体@@ 9
中华 9
中期 9
中游 9
中药 9
临时工 9
丹 9
为人@@ 9
主教 9
主演 9
主菜 9
乃@@ 9
久久 9
之徒 9
之道 9
乔@@ 9
乡亲们 9
乱跑 9
予 9
事会 9
事务@@ 9
事有 9
互 9
互相理解 9
五号 9
五四运动 9
交纳 9
交通堵塞 9
产品开发 9
产物 9
享@@ 9
享有 9
亲口 9
亲属 9
亲生 9
亲眼 9
亲身 9
人人@@ 9
人生@@ 9
人质 9
人造 9
人造@@ 9
仇@@ 9
仇恨 9
他光 9
他常 9
代谢 9
令人作呕 9
仲裁 9
件产品 9
价格上涨 9
伊东 9
优劣 9
优惠@@ 9
会下 9
会计部 9
会议记录 9
传统@@ 9
伤人 9
伦 9
伴@@ 9
伴奏 9
低于 9
住在一起 9
体育场 9
体育课 9
何况 9
佛教 9
作画 9
作祟 9
佳@@ 9
使用者 9
使用费 9
侄子 9
供奉 9
侵袭 9
保卫祖国 9
保持@@ 9
保险金 9
修订版 9
倚 9
借着 9
债权 9
倾 9
倾注 9
倾盆大雨 9
停滞 9
停着 9
健壮 9
偷走 9
储存 9
僵 9
僵局 9
儿时 9
充分@@ 9
先去 9
先来 9
先给 9
光光 9
光灯 9
光阴 9
兒 9
入手 9
全额 9
八成 9
八点半 9
公平@@ 9
公开@@ 9
公用电话 9
公社 9
六十 9
共产党 9
共同体 9
共存 9
共计 9
关在 9
养殖 9
兽医 9
内侧 9
内情 9
冈 9
再聊 9
冤屈 9
冰镇 9
冷气 9
冷清 9
准许 9
减去 9
几千@@ 9
几棵 9
凡事 9
凤 9
凭单 9
凶猛 9
出声 9
出奇 9
出没 9
出钱 9
分担 9
分清 9
刑法 9
列出 9
刘海 9
创办 9
別@@ 9
别装 9
别跟我 9
别针 9
到场 9
到头来 9
剛才 9
办好 9
功绩 9
加快 9
加算 9
加重 9
动乱 9
动手术 9
努 9
努力下去 9
劳务 9
勘@@ 9
勾引 9
化妆@@ 9
北部 9
匹@@ 9
千里@@ 9
午@@ 9
半岛 9
半辈子 9
卒 9
单一 9
单价 9
单单 9
南中 9
博士学位 9
占有 9
卦 9
卧 9
危急 9
即可 9
厕纸 9
厚度 9
原则上 9
原处 9
原子@@ 9
原著 9
参 9
参加考试 9
参考资料 9
双脚 9
反响 9
反扑 9
发亮 9
发小 9
发现自己 9
发球 9
发表意见 9
发霉 9
受尽 9
受累 9
变坏 9
变热 9
口信 9
口角 9
古今 9
古巴 9
可可 9
可谓 9
叹@@ 9
吃饺子 9
各色 9
合力 9
合拍 9
同等 9
同胞 9
名儿 9
名利 9
名气 9
名流 9
后事 9
后进 9
吐司 9
吓一跳 9
吓唬 9
吞噬 9
吧嗒 9
听觉 9
吱 9
呈现 9
告诫 9
呜 9
呜@@ 9
呜呜 9
呼啦 9
和解 9
咧咧 9
咬牙 9
咲 9
咽@@ 9
哈里 9
哗哗 9
售票处 9
售货员 9
商务@@ 9
啊啊啊 9
啰 9
善意 9
喜事 9
喝多 9
喝杯 9
喷嘴 9
喻 9
嗅觉 9
嘀咕 9
嘴上 9
嘴儿 9
嘴边 9
嘿咻 9
回个 9
回路 9
因果关系 9
国内外 9
国土 9
国旗 9
国歌 9
国防 9
国防@@ 9
图画书 9
國@@ 9
圣 9
地写 9
地方@@ 9
均匀 9
坐位 9
坐火车 9
坐船 9
坐车去 9
块@@ 9
块钱 9
垛 9
埃@@ 9
埋葬 9
域 9
培根 9
堆满 9
堵@@ 9
堵墙 9
塑造 9
填入 9
墨镜 9
壁画 9
壮丽 9
壮大 9
壮实 9
声乐 9
备齐 9
复活 9
外交部 9
外婆 9
外带 9
外甥 9
外科 9
多会儿 9
夜深 9
大不相同 9
大为 9
大件 9
大叫 9
大国 9
大大的 9
大有@@ 9
大气 9
大臣 9
大都 9
大队 9
大雾 9
天下@@ 9
天桥 9
天线 9
太粗 9
太迟 9
太阳能 9
失掉 9
失效 9
失眠 9
失调 9
头一回 9
头牛 9
奔波 9
女装 9
奶茶 9
好怀念 9
如意 9
姑 9
姓@@ 9
威严 9
威信 9
婚事 9
婚姻@@ 9
婶婶 9
嫡@@ 9
子孙 9
字画 9
孙@@ 9
孤儿 9
学学 9
学派 9
孵化 9
它会 9
宅@@ 9
宇宙@@ 9
守门员 9
安详 9
宋@@ 9
官僚 9
官员 9
定居 9
宜 9
实况 9
宠物@@ 9
宣传单 9
宣扬 9
宣泄 9
宣读 9
家事 9
家家 9
容忍 9
容貌 9
寄回 9
富余 9
寒碜 9
實 9
寨 9
寻 9
封建社会 9
封闭 9
射穿 9
尊 9
小信 9
小吃 9
小咲 9
小品 9
小屁孩 9
小山 9
小岛 9
小店 9
小猪 9
小猫咪 9
小票 9
尘土 9
尝一尝 9
尺码 9
尾声 9
局部 9
屋内 9
屑 9
展望 9
履@@ 9
山中 9
山地 9
山形 9
岛屿 9
崎@@ 9
崭@@ 9
川尻浩作 9
巢@@ 9
工作岗位 9
工作量 9
左派 9
左脚 9
巧妙 9
市政厅 9
帅呆了 9
希罕 9
希腊 9
带动 9
師 9
常年 9
干坏事 9
干巴巴 9
年底 9
幸存 9
庄稼人 9
店有 9
庙里 9
废弃物 9
度数 9
度日 9
座谈 9
延续 9
开场 9
开满 9
开采 9
弄死 9
弟子 9
张望 9
弦@@ 9
强项 9
当头 9
当日 9
役 9
往回 9
往日 9
征兆 9
征税 9
径@@ 9
待客 9
很严 9
很甜 9
很窄 9
御 9
微小 9
心愿 9
心机 9
心理准备 9
心脏病 9
必定 9
必需品 9
忌日 9
快餐店 9
急用 9
怪怪的 9
怵 9
总和 9
总计 9
总额 9
恒@@ 9
恳求 9
恶霸 9
悉@@ 9
悔@@ 9
情人 9
情理 9
情谊 9
惑 9
惯用 9
想不起 9
愉悦 9
感到遗憾 9
慰@@ 9
慰藉 9
慰问 9
慷慨 9
憔悴 9
憩 9
應該 9
戏剧性 9
成绩@@ 9
我出 9
我前 9
我快 9
我进 9
战役 9
战战兢兢 9
战斗力 9
戳穿 9
房檐 9
房里 9
所处 9
所得税 9
手镯 9
扎实 9
扎根 9
扑灭 9
打响 9
打扑克 9
打赌 9
托付 9
扣儿 9
扩充 9
扭曲 9
扮@@ 9
找不出 9
找零 9
抓挠 9
投机 9
投递 9
抗日战争 9
抠@@ 9
抢劫 9
抢走 9
抢走了 9
报考 9
披上 9
抬头 9
抿 9
拉拉队 9
拉肚子 9
拍卖 9
拒@@ 9
拓展 9
拔掉 9
拘谨 9
择 9
括@@ 9
拿回去 9
持久 9
挂帅 9
指使 9
按键 9
挖苦 9
挡住 9
挥舞 9
振 9
振兴 9
捉摸 9
捏造 9
捐献 9
捕获 9
捡@@ 9
换算 9
捧@@ 9
捻 9
掉队 9
排水口 9
掠夺 9
接住 9
接力 9
接种 9
接通 9
推后 9
推理 9
掩盖 9
掩饰 9
措@@ 9
描 9
提了 9
提拔 9
提防 9
插手 9
揭 9
揭发 9
揭开 9
揽@@ 9
搞好关系 9
搞笑 9
摄像机 9
摆在 9
摊子 9
摩 9
撕下 9
撕掉 9
撤销 9
擅@@ 9
改天 9
放在眼里 9
放慢 9
效益 9
救出 9
教教 9
敞@@ 9
散漫 9
敷@@ 9
文书 9
文学家 9
文稿 9
文笔 9
斑 9
斥 9
断然 9
断言 9
新书 9
新兴国家 9
新旧 9
方形 9
旅 9
无名@@ 9
无法@@ 9
日本政府 9
日本银行 9
日本队 9
日落 9
日起 9
日趋 9
早熟 9
时令 9
昂@@ 9
明智 9
明知 9
明静 9
昏 9
春雨 9
晕过去 9
晾@@ 9
暂定 9
暂行 9
暖气 9
暮色 9
曙光 9
更会 9
更能 9
更衣室 9
更进一步 9
最有 9
最能 9
有意识 9
有所@@ 9
有毒 9
有点像 9
有要 9
有误 9
服务台 9
朝霞 9
期盼 9
木料 9
本国 9
本钱 9
朴@@ 9
朵 9
机枪 9
杀人狂 9
杂乱 9
杆@@ 9
杉 9
材@@ 9
杠@@ 9
杠子 9
杯@@ 9
杰作 9
松动 9
枝条 9
枣@@ 9
枯竭 9
架势 9
查询 9
柬埔寨 9
栋 9
校规 9
桑@@ 9
档案 9
梅雨 9
梦见 9
梳着 9
棉衣 9
棋@@ 9
棒子 9
棺材 9
植保 9
植物@@ 9
概率 9
榻榻米 9
欢呼声 9
欤 9
欧洲@@ 9
正中 9
正确@@ 9
正题 9
此次 9
武汉 9
歪斜 9
死活 9
殷@@ 9
殿下 9
毁掉 9
每周日 9
每日 9
比基尼 9
比较@@ 9
毫无意义 9
氏@@ 9
民歌 9
民间@@ 9
水坝 9
水是 9
水泵 9
求求 9
汇钱 9
汉堡包 9
汉子 9
江山 9
污渍 9
污辱 9
汤里 9
汽笛 9
沉痛 9
沉静 9
沏 9
沐浴 9
没落 9
泊 9
泛滥 9
泛起 9
泣 9
泻 9
泼春 9
活生生 9
派上用场 9
流着 9
浏览器 9
浪花 9
浮肿 9
浸 9
涉 9
涌出 9
涛 9
深情 9
混杂 9
添附 9
清仓 9
清净 9
清淡 9
清点 9
清香 9
清高 9
渍 9
渔@@ 9
温饱 9
溜达 9
溢@@ 9
溺爱 9
滑梯 9
满员 9
满天 9
满月 9
滿@@ 9
漂 9
演奏会 9
漠@@ 9
火把 9
火红 9
火腿 9
灵活运用 9
灾@@ 9
炊烟 9
炸药 9
点去 9
点来 9
烟草 9
热乎乎 9
热血 9
热衷于 9
热诚 9
焕发 9
焦点 9
照办 9
熄灭 9
爆@@ 9
爱国@@ 9
爱好者 9
爷爷奶奶 9
爹@@ 9
爽朗 9
牵 9
特大 9
特殊@@ 9
犁@@ 9
犬@@ 9
犯错 9
狗屎 9
狠心 9
独创 9
独创性 9
狰狞 9
猎 9
猎犬 9
猛地 9
猜测 9
猥琐 9
献身 9
率领 9
玛丽 9
现世 9
现货 9
班机 9
理学 9
瓦解 9
生死@@ 9
生涯 9
生生 9
生育 9
生计 9
用钱 9
甩@@ 9
田园 9
田径 9
田间 9
由希@@ 9
电影吧 9
电话@@ 9
男主角 9
界线 9
畏 9
畏惧 9
留个 9
略微 9
疏远 9
疗养院 9
疮 9
疯@@ 9
疲软 9
疾 9
症@@ 9
瘫痪 9
白板 9
皆@@ 9
皮包 9
皮子 9
盆@@ 9
盈盈 9
益处 9
监护人 9
盗@@ 9
盘旋 9
盟@@ 9
盲 9
相会 9
相助 9
相爱 9
相等 9
看不出来 9
看似 9
看成 9
看病 9
真切 9
真大 9
眼中 9
眼花 9
着落 9
睡醒 9
瞥 9
瞧不起 9
瞧瞧 9
矢 9
矢@@ 9
知己 9
短短的 9
短篇小说 9
石灰@@ 9
矿山 9
砂 9
研讨 9
硕士 9
硬化 9
硬要 9
碟 9
碧蓝 9
磅 9
磨炼 9
礼仪 9
社会秩序 9
社区 9
神明 9
祭祀 9
禁不住 9
私心 9
私语 9
科技@@ 9
科研@@ 9
秘@@ 9
秘方 9
秦@@ 9
秦始皇 9
税务 9
稳固 9
空地 9
穿成 9
穿越时空 9
窄@@ 9
立论 9
竞争力 9
竞技场 9
童 9
竭力 9
端的 9
笑了笑 9
笔尖 9
笛子 9
符号 9
符合条件 9
笼罩 9
等不及 9
策@@ 9
筹措 9
管教 9
篠 9
篮@@ 9
粗壮 9
粗心 9
粘膜 9
精灵 9
精神饱满 9
紊乱 9
紫色 9
累得 9
繁多 9
纠@@ 9
红润 9
红线 9
纯真 9
纱@@ 9
纷@@ 9
纸条 9
细细 9
细雨 9
终端 9
绚丽 9
统计学 9
继续前进 9
绩 9
维系 9
绵@@ 9
缓缓 9
编造 9
缠@@ 9
缴获 9
缺口 9
缺水 9
缺货 9
罚款 9
美满 9
群众运动 9
翁 9
老远 9
而定 9
而过 9
耕作 9
耻 9
耻辱 9
耽搁 9
聊天儿 9
联邦 9
肉丝 9
肢 9
肢体 9
肥沃 9
胆怯 9
背心 9
胖@@ 9
胜地 9
胶卷 9
脉搏 9
脱下来 9
脱掉 9
脱落 9
脸孔 9
脸皮 9
腔调 9
腹部 9
腺@@ 9
腻 9
膘 9
自以为是 9
自大 9
自如 9
自尊 9
自居 9
自幼 9
自得 9
自演 9
自私 9
自责 9
致谢 9
船长 9
艰巨 9
芝加哥 9
芥末 9
花香 9
芳@@ 9
苏联 9
苗条 9
若干 9
苦水 9
英文@@ 9
英格玛 9
茂盛 9
荒地 9
药水 9
莫名 9
莲@@ 9
菌@@ 9
萨克斯 9
落空 9
葫芦 9
葬@@ 9
葱 9
蓄 9
蓝图 9
蔫 9
薄煎饼 9
薄饼 9
藉 9
虫@@ 9
蚂蚁 9
蚕@@ 9
蝉@@ 9
蝶 9
螺母 9
血流 9
血症 9
行市 9
行径 9
衣物 9
衬 9
袖口 9
被炸飞 9
裁员 9
裂痕 9
装出 9
装得 9
装束 9
装潢 9
装着 9
裔 9
裡@@ 9
裤腿 9
要学 9
觀@@ 9
见闻 9
解决不了 9
解决办法 9
触及 9
記@@ 9
警官 9
计划书 9
计算方法 9
订阅 9
认得 9
让@@ 9
让开 9
讫 9
记性 9
讲讲 9
论战 9
评为 9
诡异 9
诱发 9
说不上 9
请示 9
读读 9
谁家 9
调停 9
调和 9
调查结果 9
谊 9
谱@@ 9
豁 9
责@@ 9
败露 9
货单 9
贩 9
贫寒 9
贫血 9
贿赂 9
赛跑 9
赞叹 9
赢@@ 9
走动 9
起初 9
起哄 9
趴 9
踴跃 9
蹦 9
蹬 9
身躯 9
躲起来 9
车是 9
车道 9
转校 9
转职 9
软绵绵 9
轰@@ 9
轻度 9
边上 9
边际 9
迁就 9
过儿 9
过好 9
过河 9
过渡 9
过硬 9
过问 9
运动@@ 9
运动神经 9
运势 9
近视 9
这帮 9
这病 9
进不去 9
进而 9
远程 9
远行 9
连声 9
连续剧 9
连连 9
迟早会 9
迟迟 9
述说 9
追击 9
退化 9
送信 9
逆转 9
透露 9
逞 9
造反 9
造就 9
造诣 9
逢@@ 9
過@@ 9
道别 9
遗嘱 9
遗迹 9
那人 9
那群 9
那趟 9
邮 9
部员 9
酒杯 9
酮 9
酱@@ 9
鉴赏 9
针灸 9
钳子 9
铁板 9
铁道 9
银座 9
铸@@ 9
销毁 9
错字 9
长存 9
长官 9
长崎 9
长征 9
长江@@ 9
长笛 9
长者 9
长靴 9
长高 9
门开 9
闪光 9
闪闪 9
阀门 9
阅览室 9
防卫 9
阳性 9
阴郁 9
阵子 9
阿晓 9
阿羽 9
陈列 9
陈旧 9
限额 9
陡@@ 9
除夕 9
随之 9
随机 9
随身 9
隐 9
隐私 9
隔绝 9
难听 9
难懂 9
雀@@ 9
雄性 9
集装箱 9
雨衣 9
零售店 9
雷声 9
電影 9
雾果 9
需要的话 9
霜@@ 9
静养 9
靠得住 9
面包@@ 9
面包店 9
面色 9
革 9
革@@ 9
革命者 9
靴 9
靴子 9
鞋店 9
鞭炮 9
韩@@ 9
顾忌 9
颂 9
预告 9
领袖 9
颈 9
频道 9
额@@ 9
颠 9
颠倒 9
颤动 9
风度 9
飞往 9
饶@@ 9
馆内 9
马力 9
驰@@ 9
驳@@ 9
驳斥 9
驶@@ 9
驾@@ 9
骑兵 9
骑着 9
骨肉@@ 9
骨髓 9
高于 9
高级@@ 9
鬼屋 9
魔法师 9
鲜红 9
鳞@@ 9
鹤 9
黄金周 9
黏 9
黑压压 9
鼓起勇气 9
龟友 9
( 8
17@@ 8
IgE 8
J 8
LED 8
Moge 8
SNS 8
URL 8
al 8
an 8
docus 8
patzul 8
th@@ 8
ut@@ 8
『 8
』 8
を 8
ん 8
一世 8
一两天 8
一切都是 8
一利 8
一包 8
一命 8
一响 8
一堂 8
一家子 8
一席 8
一席话 8
一并 8
一旁 8
一望无际 8
一桶 8
一棵树 8
一概 8
一百个 8
一票 8
一笔@@ 8
一粒 8
一经 8
一色 8
一袋 8
一觉 8
一记 8
一车 8
一辆车 8
一队 8
一阵风 8
一面@@ 8
一顶 8
七个 8
七十@@ 8
七天 8
万难 8
三分 8
三分钟 8
三峡 8
上周三 8
上市公司 8
上楼 8
上画 8
上船 8
下一@@ 8
下层 8
下雨天 8
下马 8
不合@@ 8
不困 8
不妥 8
不息 8
不甘 8
不祥 8
不能取消 8
不负责任 8
不达 8
不齐 8
与其说 8
丑闻 8
丑陋 8
专利@@ 8
专利权 8
专门@@ 8
世紀 8
业务@@ 8
业者 8
东京都 8
东南亚 8
两三天 8
两件事 8
两口 8
两台 8
两声 8
两把 8
两斤 8
两旁 8
两条腿 8
两组 8
两面@@ 8
严格遵守 8
丧气 8
中去 8
中山@@ 8
中年 8
中弹 8
丸子 8
为生 8
为首 8
主力部队 8
主妇 8
主导 8
主管 8
举着 8
久保 8
之分 8
之计 8
乒@@ 8
九月份 8
书面@@ 8
买好 8
买家 8
买菜 8
乱码 8
乱糟糟 8
乳房 8
乾@@ 8
事理 8
事端 8
二号 8
二等@@ 8
二级 8
云集 8
云雾 8
互利 8
互相@@ 8
五人 8
五分 8
五十万 8
五次 8
亚洲@@ 8
交换意见 8
交流会 8
亮堂堂 8
亲吻 8
人中 8
人太多 8
人干 8
人权 8
亿@@ 8
亿元 8
亿美元 8
从头 8
他作 8
他教 8
代价 8
代表@@ 8
令人遗憾 8
以便 8
仰望 8
任期 8
企业@@ 8
伏击 8
众所周知 8
优化 8
优越 8
伙@@ 8
会为 8
伞@@ 8
伟绩 8
传承 8
传给 8
伤势 8
伪善 8
伸 8
低估 8
低级 8
低血压 8
住宅区 8
佐@@ 8
佐藤 8
何不 8
余力 8
侍@@ 8
侨@@ 8
侯 8
便于 8
俗气 8
保修 8
保健室 8
保卫 8
保有 8
保险箱 8
信内 8
信徒 8
信誉 8
信里 8
修剪 8
修整 8
俯冲 8
俳句 8
倔 8
倔强 8
借出 8
借来 8
倡议 8
假定 8
做主 8
停放 8
偷盗 8
偿 8
偿@@ 8
僵@@ 8
僻@@ 8
充裕 8
先烈 8
光头 8
光学 8
光明@@ 8
光荣@@ 8
党内 8
党委书记 8
入会 8
入浴 8
入狱 8
內 8
全体人员 8
全市 8
全新 8
全部都是 8
全集 8
公关 8
公告 8
公然 8
公鸡 8
共产主义 8
共同点 8
共识 8
关系@@ 8
兴高采烈 8
兹 8
内会 8
内有 8
内阁 8
再会 8
写个 8
农家 8
冠@@ 8
冥想 8
冬海 8
冷落 8
冷饮 8
凄惨 8
准备金 8
凝结 8
凝视着 8
几块 8
几小时 8
几度 8
几样 8
几百@@ 8
几经 8
凭证 8
凶恶 8
凸@@ 8
凹 8
凹@@ 8
出世 8
出口@@ 8
出新 8
出現 8
出自 8
出行 8
出面 8
函数 8
刁@@ 8
刃 8
分不清 8
分工 8
切切 8
别想 8
别用 8
别闹 8
刮得 8
刮胡子 8
刺耳 8
剂@@ 8
前行 8
剖析 8
力图 8
劝慰 8
功效 8
加固 8
加油站 8
动心 8
动物@@ 8
勇于 8
勤俭 8
勤勉 8
勿@@ 8
匀@@ 8
匀称 8
化肥 8
化身 8
北京队 8
医治 8
医疗@@ 8
十二个 8
十八@@ 8
十几@@ 8
十块钱 8
千古 8
千古@@ 8
千叶 8
千年 8
千曳 8
升降 8
半导体 8
半点 8
半边天 8
协 8
卑劣 8
南边 8
危 8
却@@ 8
卷子 8
历代 8
历史性 8
历害 8
压住 8
厚厚的 8
原委 8
县长 8
双亲 8
双人 8
双双 8
反弹 8
反思 8
反感 8
反过来 8
发热 8
发着 8
发笑 8
发脾气 8
发言人 8
发货单 8
发黑 8
取得成功 8
取笑 8
变小 8
变质 8
叛逆 8
口头禅 8
口香糖 8
句句 8
可悲 8
右眼 8
叽@@ 8
吃些 8
合作@@ 8
吉田礼 8
同伙 8
同步 8
名画 8
名额 8
后会 8
向下 8
君子 8
否 8
含税 8
含蓄 8
听错 8
启事 8
启迪 8
呈@@ 8
告发 8
周几 8
周密 8
呵 8
呵呵 8
呼啸 8
呼喊 8
呼声 8
咂@@ 8
咕@@ 8
咽下 8
哆嗦 8
哈利 8
哈密瓜 8
响彻 8
哎呀呀 8
哨兵 8
哪来 8
哪辆 8
唐@@ 8
唤醒 8
唧 8
啪嗒 8
喂@@ 8
喜讯 8
喜鹊 8
嘀@@ 8
嘚 8
嘤 8
嘶 8
囚禁 8
四化 8
四年级 8
回忆起 8
团团转 8
团圆 8
团结一致 8
园丁 8
困得 8
图书@@ 8
圆滑 8
圈圈 8
在一起 8
在群众中 8
地利 8
地干 8
地玩 8
地质 8
场上 8
址 8
坐上 8
坐公车 8
坐地铁 8
坐席 8
坐满 8
坐立不安 8
坚 8
坦然 8
垫付 8
城墙 8
堪@@ 8
塑料袋 8
塞满 8
塞班岛 8
塞进 8
增汤 8
处以 8
备受 8
复印机 8
复苏 8
外交官 8
外卖 8
外国@@ 8
外币 8
外衣 8
多元化 8
多病 8
多远 8
夜宵 8
夜战 8
夜见北 8
够受的 8
大人物 8
大使馆 8
大减价 8
大力 8
大功 8
大包 8
大好@@ 8
大师 8
大权 8
大祸 8
大肆 8
大路 8
大酒店 8
大麻 8
天大 8
天数 8
天涯海角 8
太平洋 8
太棒 8
太窄 8
夫子 8
失灵 8
失物 8
夷@@ 8
夸大 8
夹君 8
夹攻 8
奉献给 8
奋@@ 8
奔驰 8
女王 8
好下场 8
好儿 8
好好看 8
好棒 8
好比 8
好羡慕 8
好重 8
好难 8
如山 8
如果说 8
妥@@ 8
妨害 8
姑母 8
姓氏 8
委会 8
威士忌 8
婆@@ 8
嫁给 8
嫰 8
孕 8
孕@@ 8
孕育 8
字数 8
字眼 8
字眼儿 8
孤零零 8
学员 8
学识 8
安全帽 8
安危 8
安好 8
安宁 8
安置 8
完全@@ 8
完备 8
完完全全 8
实情 8
实用@@ 8
客服 8
客观@@ 8
客车 8
宣判 8
室内装饰 8
宪@@ 8
家畜 8
容纳 8
寄放在 8
密切 8
密封 8
寝 8
察看 8
實@@ 8
对岸 8
对峙 8
寺院 8
封建@@ 8
導@@ 8
小便 8
小儿子 8
小石 8
小费 8
少不了 8
少年时代 8
少有 8
就任 8
层层 8
屈辱 8
屋久岛 8
屏@@ 8
展露 8
山头 8
山石 8
山脚下 8
岔 8
岔开 8
峡 8
工农 8
工匠 8
已經 8
帝国 8
带去 8
带头 8
带点 8
带薪 8
常客 8
常规 8
干劲儿 8
干完 8
干的事 8
干草 8
平分 8
平头 8
平底锅 8
平缓 8
年岁 8
并排 8
幸福生活 8
幻觉 8
庆幸 8
应允 8
应收 8
应时 8
应答 8
底儿 8
庞杂 8
庭@@ 8
开发新 8
开发部 8
开窗 8
式化 8
弭 8
張 8
强壮 8
强校 8
当代 8
当好 8
录@@ 8
彗星 8
彩排 8
往里 8
径直 8
很广 8
很粗 8
很脏 8
後@@ 8
徐徐 8
得失 8
循环@@ 8
微型 8
微薄 8
心弦 8
志向 8
忘不掉 8
忙不过来 8
忠于 8
快樂 8
快逃 8
念书 8
怀抱 8
怜悯 8
怪人 8
怯 8
总体 8
总得 8
总能 8
恐怖电影 8
恢复原状 8
恨不得 8
恭 8
恼 8
悍 8
悠久 8
悠长 8
悬挂 8
情势 8
情调 8
情面 8
惊慌 8
惑@@ 8
惟 8
惧怕 8
想不通 8
想家 8
想得 8
想通 8
意味 8
愛@@ 8
愤@@ 8
慈善 8
慈祥 8
慢性 8
慢慢来 8
懊恼 8
懦弱 8
戏剧社 8
成就感 8
成效 8
我放 8
我犯 8
戗 8
战乱 8
战地 8
战败 8
截稿 8
所愿 8
所长 8
手巧 8
手拿着 8
手提包 8
手榴弹 8
才干 8
扑腾 8
打仗 8
打包带 8
打声 8
打打 8
打扫卫生 8
打猎 8
打进 8
打通 8
托人 8
扫兴 8
扶手 8
批量 8
找茬 8
承包@@ 8
承接 8
抄袭 8
投机@@ 8
抗争 8
折叠 8
折断 8
抚摸 8
抛售 8
抵押 8
拉上 8
拉斯 8
拍子 8
拍手 8
拐角 8
拒 8
招标 8
拦 8
括 8
拱 8
持股 8
挂科 8
指导员 8
挥手 8
挪 8
挺不错 8
挽留 8
捉迷藏 8
捡回来 8
捣 8
授 8
掉下去 8
排泄 8
排球队 8
掖 8
探究 8
探险家 8
接头 8
接班人 8
控诉 8
推特 8
掩 8
插嘴 8
握住 8
搀@@ 8
搁@@ 8
搪@@ 8
携 8
携@@ 8
摄像头 8
摆弄 8
撩 8
撮 8
操控 8
據 8
擦伤 8
擦破 8
攒@@ 8
攒钱 8
攥 8
收件 8
收尾 8
改正错误 8
改订 8
攻克 8
放任 8
放进去 8
效力 8
救人 8
救助 8
敦@@ 8
敬请期待 8
数儿 8
数十年 8
整年 8
敷 8
文人 8
文件@@ 8
文化节 8
文坛 8
文本 8
断断续续 8
断绝 8
新华社 8
新奇 8
新学期 8
新店 8
新房 8
方便@@ 8
方才 8
施工@@ 8
旅店 8
旅行@@ 8
无名 8
无形 8
无故 8
无疑 8
日代千鹤 8
日照 8
日用品 8
日语@@ 8
旧书 8
旧思想 8
时事 8
时价 8
时间段 8
昆@@ 8
明快 8
春假 8
春季 8
春秋 8
昨天夜里 8
昵称 8
晕倒 8
晚婚 8
晨雾 8
晶@@ 8
暂 8
暑 8
暑@@ 8
暗自 8
暴徒 8
曰 8
更为 8
更是 8
更正 8
最低工资 8
最差 8
最热 8
最贵 8
月票 8
月经 8
月色 8
有价证券 8
有形 8
有损 8
有望 8
有机@@ 8
有生以来 8
有益于 8
有罪 8
服务中心 8
服饰 8
朝南 8
期货交易 8
未曾 8
未起隆 8
本地人 8
朴 8
机会难得 8
机床 8
机械化 8
机种 8
杀人@@ 8
杈 8
来晚 8
杨@@ 8
杰@@ 8
杰克 8
杰出 8
松开 8
松永 8
板凳 8
极恶 8
林立 8
果园 8
枣儿 8
柏油路 8
柔弱 8
柳枝 8
柴火 8
栅栏 8
栏杆 8
树干 8
树荫下 8
栓 8
栓@@ 8
桂@@ 8
框@@ 8
档@@ 8
桥头 8
桥牌 8
梅干 8
梅花 8
梅雨季节 8
梳 8
椰@@ 8
榊原 8
榨 8
樣子 8
横着 8
橄榄球 8
欢度 8
欢迎您 8
欣慰 8
欧 8
欺诈 8
歌儿 8
歌剧 8
歌颂 8
正气 8
正确性 8
正赛 8
正道 8
此地 8
此时此刻 8
死伤 8
死心 8
殉@@ 8
毅然 8
母鸡 8
比方 8
毛毯 8
毫不犹豫 8
气流 8
气色 8
氨@@ 8
水利 8
水淹 8
水珠 8
水瓶 8
水田 8
水龙头 8
求学 8
汉语拼音 8
池子 8
污垢 8
污浊 8
汪 8
決定 8
汽水 8
沉默寡言 8
沒錯 8
没事儿 8
没听说过 8
没有@@ 8
没睡 8
没辙 8
没那回事 8
河岸 8
油腻 8
油门 8
波纹 8
注释 8
泼辣 8
洋溢着 8
洗刷 8
洗涤剂 8
洗澡水 8
洗礼 8
洗脑 8
津@@ 8
洪流 8
活该 8
洽谈 8
流下 8
流毒 8
流泪 8
流露出 8
流鼻涕 8
浑 8
海带 8
海绵 8
涂成 8
涂抹 8
消化@@ 8
消磨 8
消逝 8
涌出来 8
淋巴细胞 8
深奥 8
深山老林 8
深思 8
深渊 8
混合@@ 8
混在 8
混血 8
添乱 8
清脆 8
渊博 8
渔业 8
温哥华 8
温水 8
游人 8
游荡 8
渺茫 8
源泉 8
溜儿 8
溪水 8
滋@@ 8
滑板 8
滑雪板 8
满是 8
满载 8
滤@@ 8
滾@@ 8
滿 8
漂泊 8
漂白 8
漫 8
潜伏 8
激发 8
灌木 8
火炉 8
灶@@ 8
炫@@ 8
炮火 8
点事 8
炽热 8
烈性 8
烟囱 8
烟灰缸 8
烧香 8
热情洋溢 8
热气球 8
热潮 8
热量 8
無法 8
焦虑 8
煎@@ 8
照亮 8
照样 8
照镜子 8
煮@@ 8
爪子 8
爱上 8
爱上你 8
爱戴 8
爱河 8
父辈 8
片面 8
牌价 8
牙科 8
牧 8
牲畜 8
牵着手 8
特许 8
犀利 8
犯罪@@ 8
犹豫不决 8
独 8
独占 8
独当一面 8
独自一人 8
狼狈 8
猎取 8
猛然 8
猜中 8
玄 8
玩乐 8
环境保护 8
现金@@ 8
现金支付 8
現@@ 8
現在 8
理发师 8
琐事 8
瑞典 8
瓣 8
瓶@@ 8
瓶口 8
甜甜 8
生产率 8
生日蛋糕 8
生机 8
生理 8
由此 8
申请@@ 8
电冰箱 8
电动机 8
电影@@ 8
电脑@@ 8
画廊 8
畔 8
留存 8
留恋 8
留着 8
畜 8
當 8
疼得 8
瘪 8
登台 8
白人 8
白话 8
百货公司 8
皮艇 8
盆地 8
益 8
监@@ 8
目睹 8
直升机 8
直射 8
相互作用 8
相像 8
盼@@ 8
看不下去 8
看中 8
看清楚 8
真不愧是 8
真亏 8
真傻 8
真帅 8
真格的 8
真诚地 8
真话 8
着力 8
短暂 8
短裤 8
石块 8
码@@ 8
砂@@ 8
研究生院 8
砖@@ 8
砖头 8
破灭 8
破碎 8
硬是 8
碑 8
磁铁 8
磨成 8
示弱 8
礼拜六 8
礼拜天 8
祈求 8
祖宗 8
神仙 8
神经质 8
神魂颠倒 8
禀@@ 8
福岛 8
离子@@ 8
秋千 8
科医生 8
秘鲁 8
秧苗 8
移居 8
稳重 8
稻田 8
空子 8
空隙 8
穿越 8
窃@@ 8
竞选 8
竹林 8
第三方 8
第三次 8
第二年 8
筑@@ 8
筛选 8
简在 8
管理人员 8
篡改 8
簇@@ 8
籽 8
粉末 8
粉笔 8
粘着 8
粪便 8
精华 8
精巧 8
精神病 8
精采 8
糊涂@@ 8
系数 8
素子 8
線 8
红日 8
红白 8
纤 8
纲领 8
细心地 8
细长 8
终年 8
终极 8
绊 8
绊@@ 8
经不起 8
经济危机 8
经济学 8
结了婚 8
结石 8
统治者 8
缘由 8
缝纫 8
网点 8
罗列 8
罪状 8
置办 8
置疑 8
置身 8
羊羔 8
羊群 8
翻滚 8
老大 8
老太婆 8
老年 8
老汉 8
老爷子 8
考核 8
而行 8
而起 8
耐 8
耐寒 8
耕种 8
耳鸣 8
聋 8
职能 8
肃@@ 8
肇事 8
肚里 8
肝 8
股东大会 8
股票交易 8
股票价格 8
肤浅 8
胆固醇 8
背德 8
背背 8
背负着 8
背过 8
胜过 8
胶片 8
脂@@ 8
脚尖 8
脚底 8
脱离群众 8
脸子 8
脸来 8
脸盆 8
腊@@ 8
腋下 8
腌@@ 8
腰痛 8
腼腆 8
腾腾 8
臂@@ 8
自然而然 8
自由主义 8
自言自语 8
自负 8
舍得 8
艰苦奋斗 8
艰苦朴素 8
艺术品 8
节制 8
芦@@ 8
芭菲 8
花布 8
花盆里 8
苏 8
苦心 8
苦闷 8
英雄事迹 8
茂 8
范畴 8
茬儿 8
茶壶 8
荒山 8
荤 8
荧@@ 8
药方 8
荷花 8
莽@@ 8
菊花 8
萌发 8
萝卜@@ 8
著称 8
葡萄糖 8
蒲@@ 8
蒸汽 8
蒸馏 8
蓄意 8
蔓@@ 8
蕴藏 8
薯条 8
藻 8
蛋包饭 8
蛋白 8
蜂蜜 8
蜇 8
螺丝钉 8
螺旋 8
蠢话 8
血汗 8
血液循环 8
血迹 8
行星 8
衣着 8
补救 8
补课 8
表妹 8
被告人 8
被盗 8
裂开 8
裸 8
褪 8
褪色 8
西藏 8
要不是 8
要强 8
要用 8
要领 8
視 8
親@@ 8
规章制度 8
解不开 8
解放@@ 8
解放出来 8
解说 8
言行@@ 8
記 8
該 8
誓@@ 8
警备 8
警察局 8
计算@@ 8
认出 8
讨好 8
议员 8
讯问 8
记笔记 8
讲台 8
讲得 8
讹诈 8
访@@ 8
证券交易 8
评分 8
评判 8
评选 8
诈@@ 8
诊所 8
试制 8
试行 8
诡计 8
该厂 8
详细信息 8
语系 8
说句 8
说得好 8
说点 8
说真的 8
诵 8
请读 8
请速 8
读书@@ 8
读得 8
诽谤 8
调皮 8
谈心 8
谋生 8
谓@@ 8
谜语 8
谣传 8
谷物 8
豆腐@@ 8
象牙 8
负伤 8
负有 8
账本 8
账簿 8
质朴 8
质检 8
质问 8
贵族 8
贷 8
贸然 8
贺 8
资格证 8
赋@@ 8
赌气 8
赏月 8
赛车 8
走到 8
赴@@ 8
赶得上 8
赶忙 8
起居 8
起点 8
起诉 8
起重机 8
越狱 8
趣@@ 8
足迹 8
跃@@ 8
跑得快 8
跑掉 8
踢球 8
蹦@@ 8
車@@ 8
輕 8
车开 8
车门 8
轻视 8
载货 8
辅导班 8
辛@@ 8
辛劳 8
辩护 8
辱@@ 8
迂@@ 8
过个 8
过期 8
过高 8
近乎 8
还行 8
这么久 8
这么些 8
这份儿 8
这太 8
这算 8
这般 8
这菜 8
这辈子 8
这顶 8
进到 8
进口@@ 8
远去 8
远景 8
远期 8
远点 8
远足 8
远远地 8
违抗 8
违法行为 8
连绵 8
迟@@ 8
迫不及待 8
迫切 8
迷上 8
迷失 8
迷迷糊糊 8
追过来 8
追逐 8
退场 8
送错 8
适 8
适量 8
选票 8
透镜 8
這次 8
通俗易懂 8
逸 8
逼真 8
達 8
遗址 8
遮 8
選@@ 8
那会 8
那匹马 8
那支 8
邮件地址 8
邮购 8
邮递 8
郎@@ 8
郑重 8
鄙@@ 8
酸溜溜 8
采纳 8
里种 8
重地 8
重新认识 8
重组 8
野崎@@ 8
野猪 8
野生动物 8
金子 8
金黄 8
釜山 8
錢 8
钝 8
钟声 8
钠 8
钢琴家 8
铁丝网 8
铅 8
铲除 8
银牌 8
销售员 8
销售量 8
锅炉 8
锋利 8
锣鼓 8
锤子 8
锥 8
镐 8
镰 8
长号 8
长成 8
长期@@ 8
长期以来 8
门牙 8
问个 8
问到 8
问得 8
问路 8
闲聊 8
间谍 8
闺女 8
阁下 8
阁楼 8
防晒霜 8
阴性 8
阴险 8
阻力 8
陆续 8
降低成本 8
降雨 8
院里 8
险恶 8
陵@@ 8
陷害 8
隅 8
隆隆 8
随和 8
随手 8
随身携带 8
随随便便 8
隙 8
难闻 8
雄辩 8
雕@@ 8
雪山 8
雷鸣 8
露水 8
霸道 8
青叶 8
青森 8
青色 8
非常@@ 8
非要 8
鞋底 8
鞭@@ 8
音响 8
顺利完成 8
顺序排列 8
顾及 8
预付 8
颈@@ 8
频频 8
颜@@ 8
风气 8
风琴 8
飘着 8
餓 8
饭后 8
饮用水 8
饮酒 8
饰@@ 8
饱含 8
饲 8
饲料 8
馅饼 8
馆@@ 8
香油 8
香甜 8
驯鹿 8
驱逐 8
驳回 8
驻@@ 8
骗@@ 8
骨肉 8
高血压 8
鲣鱼 8
鸣叫 8
麦 8
黄昏 8
鼻血 8
龄 8
.5 7
1.5 7
1146 7
160 7
1960 7
196@@ 7
1980 7
2015 7
350 7
38 7
72 7
Freeze 7
HI@@ 7
ME 7
PDF 7
SG 7
SPW 7
Sir 7
Yes 7
ac@@ 7
am@@ 7
ant@@ 7
ap@@ 7
lo@@ 7
一不@@ 7
一个团 7
一个多月 7
一举 7
一亩 7
一代@@ 7
一任 7
一叠 7
一周年 7
一如 7
一年四季 7
一日@@ 7
一早 7
一晃 7
一朵花 7
一束 7
一死 7
一比 7
一百年 7
一盆 7
一眨眼 7
一码事 7
一线希望 7
一言不发 7
一路@@ 7
一转眼 7
一阵阵 7
七分 7
七嘴八舌 7
七年 7
万丈 7
万圣节 7
万年 7
万能 7
万里 7
丈@@ 7
三十岁 7
三块 7
三天三夜 7
三日 7
三角@@ 7
上上下下 7
上半身 7
上周日 7
上头 7
上盖 7
上能 7
上菜 7
上诉 7
上课时 7
下不@@ 7
下台 7
下意识 7
下旬 7
下期 7
下调 7
下酒菜 7
不利于 7
不听话 7
不太会 7
不太能 7
不容许 7
不差 7
不忙 7
不晚 7
不由 7
不知所措 7
不羁 7
不见@@ 7
不计@@ 7
不论@@ 7
不论是 7
不详 7
不足为@@ 7
不迭 7
不顺心 7
世故 7
世界观 7
世界遗产 7
丝丝 7
两夜 7
两层 7
两支 7
两样 7
两用 7
两用@@ 7
严加 7
严格@@ 7
严正 7
严酷 7
严重性 7
个数 7
中东 7
中国共产党 7
中型 7
中将 7
中川 7
中文@@ 7
中转 7
中部 7
丹@@ 7
为人所知 7
为时@@ 7
为荣 7
主子 7
主权 7
主流 7
主管@@ 7
主语 7
主题曲 7
举杯 7
之家 7
之恩 7
之感 7
乒乓@@ 7
乓 7
九个 7
习功课 7
习惯性 7
习题 7
乡亲 7
乡里 7
书中 7
书房 7
买个 7
买卖@@ 7
买房子 7
乱说 7
乳头 7
争议 7
事业部 7
二位 7
二分之一 7
二十世纪 7
二十多年 7
二月 7
五十米 7
些@@ 7
交上去 7
交响@@ 7
交配 7
交错 7
产生@@ 7
京都府 7
亮光 7
亲信 7
亲友 7
人不@@ 7
人世 7
人之@@ 7
人命 7
人工呼吸 7
人才@@ 7
人民解放军 7
什锦 7
介入 7
介绍所 7
他出 7
他费 7
仙人掌 7
令人讨厌 7
令人高兴 7
仨 7
们儿 7
价值@@ 7
任用 7
份@@ 7
仿 7
伊 7
伊藤 7
伎俩 7
休业 7
优先@@ 7
优质 7
优质@@ 7
伙计 7
伙食 7
会出 7
会合 7
会回 7
会开 7
会花 7
传授 7
传遍 7
伤亡 7
伫@@ 7
伯母 7
伸直 7
低着头 7
住宿费 7
住院@@ 7
佐伯 7
体力劳动 7
体型 7
余兴 7
余年 7
作曲 7
你会@@ 7
佩@@ 7
佩带 7
佬 7
侠 7
便衣 7
便饭 7
促 7
促使 7
俏皮 7
保佑 7
保姆 7
保暖 7
保育 7
信奉 7
信托 7
信服 7
修理@@ 7
修罗场 7
倒数 7
倚@@ 7
倾心 7
偏僻 7
做作 7
停顿 7
健三@@ 7
健健康康 7
健康成长 7
健美 7
偶数 7
偶遇 7
偷东西 7
储 7
储藏 7
儿上 7
元件 7
兆@@ 7
先别 7
先辈 7
先进经验 7
光溜溜 7
光看 7
兑 7
兔@@ 7
党派 7
入社 7
內@@ 7
全数 7
全班同学 7
全盘@@ 7
八千 7
公物 7
公粮 7
六十公里 7
共产@@ 7
共和国 7
共度 7
兴建 7
兵役 7
典@@ 7
养女 7
养老 7
内能 7
冈@@ 7
再也不会 7
再犯 7
冒烟 7
冒犯 7
冗长 7
写法 7
军民@@ 7
军舰 7
农业@@ 7
冰雹 7
冲过来 7
决战 7
冷僻 7
冷冰冰 7
冽 7
凄凉 7
凉水 7
凌辱 7
凑合 7
凝神 7
凝胶 7
几月 7
几秒 7
几篇 7
几针 7
凤@@ 7
凹陷 7
出击 7
出力 7
出土 7
出土文物 7
出气 7
出海 7
出狱 7
出生地 7
出远门 7
出马 7
击打 7
分之一 7
分头 7
分娩 7
分期付款 7
划船 7
创可贴 7
创造性 7
创造者 7
初一 7
删掉 7
利用职权 7
别去 7
别太 7
别理 7
到头 7
制作方法 7
制药 7
制造@@ 7
刹住 7
刺绣 7
剃 7
前例 7
前兆 7
前所未有 7
前有 7
前段时间 7
前程 7
剥削@@ 7
剥夺 7
剥掉 7
剧@@ 7
剩饭 7
剪纸 7
劝导 7
劝解 7
功臣 7
加把劲 7
加紧 7
加藤 7
务请 7
劣势 7
动力学 7
动弹不得 7
动脑筋 7
劳改 7
勘 7
勾结 7
化学药品 7
化工厂 7
化脓 7
区间 7
十分高兴 7
十四@@ 7
十字@@ 7
十年间 7
千斤 7
千金 7
半场 7
半路上 7
半途而废 7
华盛顿 7
单调 7
单间 7
卖不出去 7
卖出去 7
卖弄 7
卖点 7
卖空 7
博览会 7
卤@@ 7
印刷@@ 7
印度@@ 7
印度人 7
危难 7
卵 7
卷起 7
厂房 7
厉@@ 7
压不住 7
厚意 7
原作 7
原始@@ 7
原子 7
原子能 7
原定 7
原意 7
原有 7
原油 7
原籍 7
去处 7
县里 7
参军 7
参谋 7
叉@@ 7
双层 7
反击 7
反动分子 7
反常 7
反应堆 7
反攻 7
反胃 7
发售日 7
发明@@ 7
发电站 7
发痒 7
发行@@ 7
发财 7
发麻 7
叔伯 7
取得胜利 7
取缔 7
受害 7
受罪 7
变化@@ 7
变少 7
变形 7
变故 7
口中 7
口令 7
口吃 7
口头上 7
口才 7
口碑 7
另一边 7
只身 7
可喜 7
可燃 7
可贵 7
右派 7
司法@@ 7
吃不饱 7
吃大亏 7
吃零食 7
各类 7
吆喝 7
合唱团 7
合奏 7
合影 7
合理化 7
合金 7
同一天 7
同年 7
同性 7
同盟 7
同级生 7
名次 7
后生 7
后腿 7
后要 7
吞没 7
听不进去 7
听来 7
听歌 7
启程 7
启蒙 7
吱吱 7
吵起来 7
吸入 7
吸引住 7
吸气 7
吸烟区 7
吹响 7
呆呆 7
呆呆地 7
周全 7
周转 7
呱嗒 7
呼吸@@ 7
呼吸道 7
呼呼地 7
咂 7
咆哮 7
和歌山 7
咖@@ 7
咖啡吧 7
咖喱饭 7
咚 7
咨询@@ 7
哑巴 7
哒 7
哧 7
哪一年 7
哪能 7
哪门子 7
哮喘 7
哲@@ 7
哼@@ 7
唇 7
唠唠叨叨 7
唬 7
商业街 7
商标@@ 7
啧 7
啸@@ 7
啼@@ 7
喂养 7
喉咙痛 7
喊声 7
喝下去 7
喝彩 7
喷出 7
嗓子疼 7
嘁@@ 7
嘈杂 7
嘻 7
噎 7
噔 7
噪 7
噪@@ 7
噱头 7
嚼@@ 7
四口 7
四川 7
四川@@ 7
回事儿 7
回升 7
团伙 7
团团 7
团结起来 7
园地 7
园林 7
围棋 7
围起来 7
固 7
固然 7
国务院 7
国际性 7
圆熟 7
圆珠笔 7
土耳其 7
土豆泥 7
圣经 7
在我心中 7
在生活上 7
地下@@ 7
地下室 7
地中海 7
地买 7
地学 7
地往 7
坏分子 7
坑坑洼洼 7
坛@@ 7
坝 7
坟墓 7
坠入 7
垂柳 7
垒球 7
城市@@ 7
培植 7
基板 7
基督教 7
塑料@@ 7
塞住 7
墙角 7
增减 7
增援 7
墩 7
墩墩 7
壤 7
壮志 7
壮烈 7
声称 7
壶里 7
处世 7
处女@@ 7
备份 7
夕 7
外勤 7
外号 7
外壳 7
外敌 7
外流 7
外调 7
多事 7
多云 7
多佳子 7
多天 7
多时 7
多样性 7
夜市 7
大丰收 7
大作 7
大字 7
大學 7
大展宏图 7
大山 7
大碗 7
大道理 7
天主教 7
天体 7
天内 7
天热 7
天皇 7
太帅 7
太平@@ 7
太沉 7
太鼓 7
夫妻@@ 7
夫妻俩 7
央 7
失禁 7
失色 7
头号 7
头巾 7
夹住 7
奇数 7
奈何 7
奉献 7
奉还 7
奋勇 7
奥林匹克 7
女婿 7
好点 7
好萌 7
好过 7
好长时间 7
妓女 7
妖怪 7
妙 7
妩媚 7
妻@@ 7
委婉 7
委曲 7
威尼斯 7
娓@@ 7
婉转 7
婴@@ 7
婴儿@@ 7
嫂子 7
存活 7
季堂 7
季节性 7
学习外语 7
学徒 7
安乐死 7
安全带 7
安安@@ 7
安顿 7
完事 7
完澡 7
完结 7
定下 7
定期检查 7
定量 7
宛@@ 7
实体 7
实践@@ 7
宣誓 7
宫殿 7
家常 7
家庭主妇 7
宽容 7
宽度 7
宿命 7
寄出去 7
寄托 7
密度 7
寇 7
富含 7
富翁 7
寒暄 7
对头 7
对视 7
封印 7
專@@ 7
小伤 7
小便宜 7
小偷儿 7
小国 7
小女孩 7
小姬 7
小小 7
小弟弟 7
小拇指 7
小数点 7
小透@@ 7
小道 7
小钱 7
小额 7
小鶴 7
小鸟儿 7
小麦粉 7
少数民族 7
尖儿 7
尖利 7
尤 7
尸@@ 7
尺@@ 7
尺度 7
尻 7
尼斯 7
尽其@@ 7
层楼 7
居中 7
届时 7
屏 7
屏蔽 7
屏障 7
屠杀 7
履 7
山势 7
山县 7
山水画 7
山海关 7
岐@@ 7
岛@@ 7
峭 7
峻@@ 7
巍巍 7
川崎 7
巡 7
巡游 7
工作作风 7
工作服 7
工整 7
巨大@@ 7
巫@@ 7
差事 7
已成 7
布满 7
希腊@@ 7
帘 7
帮不了 7
帮帮我 7
帮得 7
常在 7
常来 7
干事 7
干裂 7
平板 7
年纪轻轻 7
年薪 7
年轻@@ 7
年轻一代 7
年迈 7
年青人 7
幸代 7
幸运地 7
幹什麼 7
幼年 7
幽 7
广东 7
广告牌 7
序列号 7
应不应该 7
应援 7
应用软件 7
店长 7
废墟 7
度蜜月 7
庶@@ 7
廊 7
开创 7
开开 7
开过 7
开通 7
异国 7
异国@@ 7
弊@@ 7
弓和箭 7
张家 7
弧@@ 7
弹药 7
强劲 7
强暴 7
当地人 7
当季 7
当家 7
录像机 7
录制 7
彩旗 7
彬彬有礼 7
往下@@ 7
往东 7
征文 7
征求意见 7
很多@@ 7
很惨 7
很淡 7
很烂 7
很痒 7
很穷 7
很香 7
徒劳 7
得上 7
得动 7
得名 7
得多 7
得罪 7
微不足道 7
心怀@@ 7
心气 7
心灵@@ 7
心疼 7
心病 7
心目 7
心里话 7
必有@@ 7
忘带 7
忘得 7
快车 7
怎能 7
怏@@ 7
怜@@ 7
思量 7
怠慢 7
急刹车 7
性格开朗 7
性骚扰 7
怪不得 7
怯懦 7
恋情 7
恒星 7
恕@@ 7
恢复健康 7
恩师 7
恩惠 7
恭敬不如从命 7
恳@@ 7
悠悠@@ 7
患难 7
悦目 7
悲 7
惊慌失措 7
惦记着 7
惨败 7
惩办 7
想些 7
想先 7
想出 7
想得@@ 7
惹怒 7
愈加 7
愈合 7
意料@@ 7
愚昧 7
感伤 7
感冒药 7
感应器 7
感激不尽 7
愤慨 7
慈@@ 7
慢慢儿 7
慢慢说 7
慢点儿 7
慰问@@ 7
慷慨@@ 7
憋@@ 7
應 7
戏里 7
成交 7
成功@@ 7
成型 7
成群 7
我妈 7
我定 7
我心 7
我愿 7
我教 7
我敢 7
我活 7
我照 7
我生 7
我输 7
戒酒 7
战壕 7
战斗@@ 7
战斗机 7
战机 7
截断 7
房门 7
所在地 7
所有者 7
所用 7
所见 7
所述 7
手印 7
手指头 7
手掌 7
手风琴 7
扒手 7
打小@@ 7
打消 7
打车 7
打转 7
打造 7
打铁 7
执导 7
执行@@ 7
扫荡 7
扭转 7
批发@@ 7
批改 7
技术员 7
把子 7
抑@@ 7
抑郁 7
抑郁症 7
抒情 7
抓不住 7
投篮 7
投资@@ 7
投进 7
抗日 7
折中 7
抚慰 7
抠 7
抢先 7
护发素 7
报国 7
报社 7
披肩 7
披露 7
抽水机 7
抽空 7
抽象 7
拂@@ 7
拂晓 7
拄着 7
担负 7
拉手 7
拉门 7
拌@@ 7
拍张 7
拐弯 7
拐弯抹角 7
拖延 7
拖拖拉拉 7
拘束 7
拘留 7
拢@@ 7
拴@@ 7
拾掇 7
持枪 7
指头 7
指导@@ 7
指甲@@ 7
指着 7
按着 7
挑剔 7
挑着 7
挡@@ 7
挪用 7
挺好吃 7
挺拔 7
挼 7
挽@@ 7
换换 7
捧腹大笑 7
捷 7
掉落 7
掌柜 7
掏钱 7
排场 7
掘 7
探照灯 7
接纳 7
控@@ 7
推崇 7
掩蔽 7
掰 7
插上 7
插头 7
插座 7
插画 7
插秧机 7
揣 7
揣@@ 7
搀和 7
搏@@ 7
搡 7
搬进 7
摁 7
摄入 7
摆布 7
摆设 7
摇曳 7
摇滚@@ 7
摔下来 7
摔了一跤 7
摧残 7
摸不着 7
撂 7
撂@@ 7
撕毁 7
撞车 7
播送 7
擀 7
擊 7
操劳 7
擞 7
擦拭 7
攀岩 7
攘@@ 7
支乐队 7
支应 7
收养 7
收听 7
收货 7
改日 7
改變 7
攻略 7
放回 7
放宽 7
放射@@ 7
政变 7
敌情 7
敌意 7
敌我 7
敏捷 7
救援 7
救济@@ 7
教员 7
散失 7
敬礼 7
数学@@ 7
数年 7
数落 7
敲打 7
整整齐齐 7
文化宫 7
文学作品 7
斋@@ 7
斑点 7
斑马 7
料到 7
斡旋 7
斥@@ 7
新兵 7
新年快乐 7
新生力量 7
新疆 7
新股 7
新西兰 7
新鲜空气 7
无不 7
无余 7
无几 7
无可 7
无常 7
无恙 7
无意识 7
无暇 7
无机@@ 7
无益 7
无端 7
无罪 7
无误 7
无谓 7
无边 7
无须 7
日程安排 7
日经 7
早来 7
时代@@ 7
时效 7
旷 7
明后天 7
昏倒 7
昏过去 7
星光 7
星空 7
昧 7
昭彰 7
显而易见 7
显贵 7
晃动 7
晃晃 7
晋@@ 7
晓得 7
晚到 7
晚期 7
晚间 7
晨风 7
景气 7
景物 7
暂住 7
暖炉 7
暗处 7
暴动 7
更何况 7
曾祖母 7
最为 7
最晚 7
有何 7
有效期限 7
有权 7
有缘 7
有雨 7
朋@@ 7
服务业 7
朗 7
朗朗 7
木棍 7
未免 7
未满 7
末班 7
本厂 7
本名 7
本届 7
本想 7
本期 7
本馆 7
机会主义 7
朽@@ 7
杂技 7
杂种 7
杂货 7
村上 7
来头 7
来时 7
東尼奧 7
杵 7
枕头@@ 7
林中 7
枚 7
枝叶 7
枪口 7
某处 7
某种程度 7
染红 7
柠檬@@ 7
查找 7
栈 7
栏目 7
栗@@ 7
核桃 7
根基 7
根本@@ 7
格格 7
框框 7
梗@@ 7
條 7
梦幻 7
梳子 7
检点 7
检索 7
棒极了 7
植被 7
楚@@ 7
楞 7
業 7
模拟@@ 7
橄榄油 7
橡皮 7
欢欣 7
欢腾 7
欢送会 7
欣然 7
欺压 7
款子 7
款式 7
歇斯底里 7
歇歇 7
正值 7
正大 7
正文 7
正统 7
正色 7
此时 7
步调 7
死亡@@ 7
死因 7
死水 7
歼 7
残暴 7
残疾 7
殖民地 7
殴打 7
每到 7
毒素 7
比价 7
比利时 7
比拟 7
比方说 7
毕@@ 7
毛皮 7
毛笔 7
毛细血管 7
民主主义 7
民警 7
气力 7
气来 7
氢 7
氢@@ 7
氯@@ 7
水利工程 7
水力 7
水性 7
水有 7
水来 7
水泡 7
水洗 7
水质 7
水陆@@ 7
永 7
永别 7
汀 7
求人 7
汇兑 7
汉奸 7
汚 7
污秽 7
汹汹 7
汹涌 7
汽油@@ 7
沃@@ 7
沉沉 7
沖 7
没买 7
没人@@ 7
没去 7
没多久 7
没理 7
油亮 7
油光 7
油黑 7
治水 7
治疗@@ 7
沼@@ 7
沾染 7
沾满 7
沿岸 7
泡面 7
波折 7
波长 7
泥坑 7
泥泞 7
注明 7
注解 7
洋装 7
洗个 7
洗衣 7
活得 7
活活 7
派出 7
流入 7
流放 7
流水@@ 7
流派 7
流过 7
测量@@ 7
浑@@ 7
海域 7
海外@@ 7
消极@@ 7
消防车 7
涉谷 7
涝 7
涮@@ 7
涵@@ 7
淡水 7
淡薄 7
淤@@ 7
深山 7
深思熟虑 7
深重 7
深长 7
混合物 7
混沌 7
淹@@ 7
清朗 7
清闲 7
清静 7
渊@@ 7
渔夫 7
渔船 7
温厚 7
游击@@ 7
游历 7
游船 7
游览@@ 7
湘@@ 7
滑冰 7
滑稽 7
漂流 7
漫漫 7
澄@@ 7
澄清 7
澄澄 7
澳@@ 7
澳洲 7
激情 7
灌溉 7
火候 7
火山@@ 7
火花 7
灰暗 7
灵敏 7
炖 7
炫 7
炸飞 7
点单 7
点时 7
点着 7
点起 7
点餐 7
烂漫 7
烘烘 7
烟斗 7
烟酒 7
烤面包 7
烧水 7
烧焦 7
热度 7
热腾腾 7
热饮 7
焊@@ 7
焐 7
焰 7
煤炭 7
照搬 7
煽动 7
熊熊 7
熏陶 7
熟识 7
熨 7
燃 7
燥 7
爆竹 7
爆胎 7
爱看 7
爱过 7
爵士乐 7
牢笼 7
牧师 7
物产 7
物理@@ 7
物美价廉 7
牵扯 7
特制 7
特等 7
特色 7
特辑 7
犹如 7
狠@@ 7
独生女 7
独立@@ 7
狼狈@@ 7
玄@@ 7
王国 7
现今 7
现代@@ 7
现如今 7
现实主义 7
现成 7
现行 7
现阶段 7
玷污 7
珍藏 7
現 7
球场 7
理发 7
琼斯 7
瑕疵 7
瑞 7
瓦斯 7
瓶盖 7
瓷器 7
瓷砖 7
生吃 7
生性 7
生殖 7
生理学 7
生硬 7
生词 7
用得着 7
用心@@ 7
用性 7
用户@@ 7
用词 7
甩开 7
甩掉 7
申告 7
电影明星 7
电线杆 7
男士 7
男女@@ 7
男高音 7
画作 7
画卷 7
画得 7
畅饮 7
留到 7
疏导 7
疑似 7
疗效 7
疫 7
疼疼 7
病毒感染 7
痉挛 7
痘 7
痛心 7
瘦得 7
瘫 7
發 7
白眼 7
白酒 7
百年 7
皂 7
皇 7
皮肤科 7
盈 7
盈利 7
盖上 7
目送 7
直截了当 7
相交 7
相亲 7
相向 7
相撞 7
相邻 7
省略 7
省里 7
省钱 7
看不@@ 7
看不懂 7
看不清 7
看不清楚 7
看人 7
看作 7
看得见 7
真不知道 7
真像 7
真巧 7
真行 7
眯@@ 7
眼力 7
眼睁睁 7
眼红 7
着凉 7
着脸 7
着装 7
睁开 7
睁眼 7
督@@ 7
短篇 7
矮子 7
石棉 7
石膏 7
研究员 7
研究者 7
破壳 7
确凿 7
碍眼 7
碧绿 7
磕@@ 7
磨破 7
礼炮 7
神儿 7
神奇 7
神志 7
神态 7
神论者 7
票子 7
祸害 7
福音 7
离子 7
秀气 7
私下 7
私有 7
私立 7
秋季 7
种地 7
种族歧视 7
种田 7
种花 7
科学知识 7
秘诀 7
租用 7
秧子 7
称之为 7
稳定@@ 7
稽 7
稿@@ 7
空位 7
空军 7
空头 7
空房间 7
空手道 7
穿戴 7
突 7
窃 7
窒@@ 7
窖 7
窝囊 7
窝心 7
立意 7
立足于 7
站不住 7
站稳 7
童@@ 7
童子军 7
笑一笑 7
笑眯眯 7
笔力 7
笔记本电脑 7
笨@@ 7
笨手笨脚 7
笨重 7
第三者 7
第六@@ 7
第十@@ 7
筒@@ 7
简便 7
简称 7
箍 7
算啦 7
算账 7
篇章 7
篮 7
类固醇 7
粉红色 7
粗大 7
粗野 7
粗鲁 7
粘贴 7
精力充沛 7
精确 7
糕 7
糟透了 7
素食主义者 7
索尼 7
紫@@ 7
紫外线 7
結束 7
絕對 7
絮 7
纯情 7
纵容 7
纶 7
纸上 7
纹理 7
纺织@@ 7
织品 7
经他 7
经验丰富 7
结交 7
给与 7
络@@ 7
绝交 7
绝妙 7
绝缘 7
统统 7
继任 7
继承人 7
绿茶 7
绿豆 7
缉@@ 7
编辑部 7
缺乏经验 7
缺勤 7
缼 7
罕 7
罗马@@ 7
罩子 7
罪证 7
置身于 7
美式 7
美术@@ 7
美极了 7
羞惭 7
羞涩 7
群众@@ 7
羽 7
翅 7
翻新 7
翻腾 7
老一套 7
老伴 7
老大爷 7
老奶奶 7
老少 7
老母 7
老牌 7
考得 7
考试成绩 7
而论 7
耐性 7
耙 7
耳钉 7
耸 7
联合国 7
联结 7
联络@@ 7
联谊会 7
聽@@ 7
肃静 7
肆@@ 7
肉眼 7
肉麻 7
肖像画 7
股权 7
育种 7
胃壁 7
背负 7
胡涂 7
胸中 7
能手 7
能过 7
脏东西 7
脏兮兮 7
脖@@ 7
脚儿 7
脱节 7
腳 7
腹肌 7
腿脚 7
膛 7
膝@@ 7
自制 7
自助 7
自卑 7
自卫 7
自带 7
自治 7
自满 7
自行@@ 7
至上 7
至多 7
與 7
舍弃 7
舒心 7
航向 7
航空@@ 7
航空邮件 7
舱@@ 7
色狼 7
艺术作品 7
节哀顺变 7
节能 7
节课 7
芯 7
花园里 7
花色 7
芹 7
苏州 7
苗@@ 7
苟@@ 7
苦干 7
茎 7
茶水 7
草丛 7
草摩由希 7
荫 7
荷叶 7
莫斯科 7
获奖 7
菊@@ 7
菜肴 7
菠萝 7
营业所 7
营企业 7
营垒 7
营造 7
落榜 7
落水 7
葵 7
蒙蔽 7
蒜 7
蒜@@ 7
蒸发 7
蓬 7
薪金 7
藏书 7
虞@@ 7
蚕 7
蛀@@ 7
蛀牙 7
蛋糕店 7
蜗牛 7
蜘蛛网 7
蜜@@ 7
蜻蜓 7
融洽 7
蟋蟀 7
蠢事 7
血型 7
血统 7
行船 7
衍生 7
衣架 7
衰弱 7
衷 7
被窝 7
裁决 7
裁判员 7
装傻 7
装运 7
裝@@ 7
裸露 7
西南 7
西路 7
要害 7
見@@ 7
见了面 7
见崎鸣 7
见笑 7
观察@@ 7
解读 7
触发 7
触感 7
言不@@ 7
說@@ 7
說過 7
變得 7
计划生育 7
计划表 7
计算机@@ 7
认清 7
认输 7
讥@@ 7
记恨 7
讲故事 7
讲礼貌 7
讲道理 7
讳 7
论坛 7
论者 7
论证 7
论题 7
证件 7
评论家 7
词儿 7
词句 7
译成 7
译文 7
试点 7
话儿 7
详 7
详尽 7
误以为 7
诱饵 7
说会 7
请指示 7
读书人 7
谁@@ 7
调子 7
调换 7
调查@@ 7
调理 7
谙 7
谣 7
谷子 7
豌豆 7
象棋 7
豪爽 7
豹 7
财务部 7
责任@@ 7
责任人 7
贤 7
货店 7
货船 7
质量@@ 7
贩@@ 7
贪婪 7
购物袋 7
贵国 7
贵姓 7
贸易协定 7
费事 7
费力 7
赋 7
赌上 7
赔偿金 7
赘@@ 7
赞助 7
赢利 7
走下坡路 7
走散 7
赶出去 7
赶回 7
起劲 7
起立 7
起落 7
趁热 7
越高 7
足球@@ 7
趴在 7
跟班 7
跳下来 7
跳得 7
跳板 7
跳水 7
跺 7
踏 7
踢@@ 7
踪 7
踵@@ 7
蹄 7
蹲@@ 7
身亡 7
身份证明 7
軍 7
转入 7
转化 7
转晴 7
转机 7
转账 7
轮机 7
轮椅 7
软弱 7
轱辘 7
轴承 7
轻蔑 7
轿 7
较大 7
辛勤 7
辞典 7
辫 7
边界 7
辽远 7
达成协议 7
迅@@ 7
过往 7
过手 7
过火 7
过目 7
过重 7
过量 7
近代 7
近距离 7
近郊 7
这么点儿 7
这会 7
这使 7
这样儿 7
这班 7
这类 7
进出口 7
进水 7
远眺 7
违法乱纪 7
违犯 7
连在一起 7
连忙 7
连日 7
连累 7
连饭 7
迫使 7
迷恋 7
迹@@ 7
追上去 7
追着 7
追随 7
退烧 7
退缩 7
退职 7
退让 7
退路 7
送走 7
适应@@ 7
适时 7
逃不掉 7
逃出去 7
逃窜 7
选举权 7
选取 7
选择@@ 7
逊@@ 7
逊色 7
透出 7
透视 7
逐个 7
通气 7
通电 7
造谣 7
逻辑@@ 7
逼供 7
逼近 7
遊 7
過去 7
遗书 7
遗留下来 7
遗言 7
遣 7
遥@@ 7
遥控器 7
遮蔽 7
避暑 7
邀 7
邀@@ 7
那会儿 7
那好 7
那该 7
那请 7
那起 7
邪龙族 7
郁 7
郁郁 7
部落 7
郭@@ 7
配不上 7
配件 7
配角 7
配音演员 7
酒席 7
酬@@ 7
酵素 7
酿@@ 7
醋@@ 7
重回 7
重心 7
重演 7
重现 7
野花 7
量计 7
金融@@ 7
钉@@ 7
钢材 7
钦@@ 7
钱花 7
铃响 7
铃声 7
铭记 7
铸造 7
铺盖 7
锄 7
锅底 7
锉 7
锐@@ 7
锐气 7
错误@@ 7
锣 7
锦@@ 7
镶嵌 7
长大成人 7
长辈 7
關 7
闪亮 7
闪烁 7
闪烁着 7
闪着 7
问话 7
闲人 7
闲谈 7
间房 7
队友 7
防洪 7
阴凉 7
阴茎 7
阵容 7
阶级@@ 7
阿谀奉承 7
陀螺 7
陆 7
陌生 7
陡 7
除此以外 7
隆冬 7
隐秘 7
障碍物 7
雀 7
集中@@ 7
集中力 7
雇@@ 7
雇主 7
雇佣@@ 7
雇工 7
雌性 7
雙@@ 7
難@@ 7
雪亮 7
雪橇 7
零工 7
零点 7
零用钱 7
零碎 7
零落 7
震撼 7
露天@@ 7
青山 7
靡@@ 7
面儿 7
靶 7
音节 7
韵 7
顶上 7
顶端 7
项目@@ 7
顺风 7
预兆 7
预谋 7
预赛 7
预选 7
领了 7
领导者 7
领队 7
颇@@ 7
颇为 7
颖@@ 7
颗粒 7
颠@@ 7
风头 7
风水 7
风采 7
飞机票 7
飞来 7
飞驰 7
餐饮店 7
饮食@@ 7
饰品 7
饱满 7
马克 7
驱 7
骄@@ 7
骑车去 7
骗取 7
骡子 7
高傲 7
高出 7
高压 7
高压@@ 7
高层 7
高水平 7
高等@@ 7
高粱 7
高速@@ 7
鬼脸 7
鬼话 7
鬼门关 7
魁梧 7
鱼肉 7
鲸 7
鹤@@ 7
麦克 7
麦苗 7
麻利 7
麽 7
黄豆 7
黄金@@ 7
黑影 7
默 7
黝黑 7
齐心协力 7
龙骑士 7
.3 6
10000 6
121314 6
12@@ 6
1983 6
2002 6
2005 6
39 6
50@@ 6
660 6
85 6
CEO 6
KTV 6
Mast 6
Phil 6
Prince 6
ak@@ 6
c 6
hi@@ 6
or@@ 6
ve 6
w 6
yp@@ 6
】 6
〕 6
あ 6
う 6
き 6
く 6
だ 6
ら 6
一二 6
一二三 6
一代新人 6
一分@@ 6
一堵 6
一声@@ 6
一尊 6
一届 6
一干二净 6
一年一度 6
一床 6
一扇 6
一无所知 6
一时半@@ 6
一时间 6
一条@@ 6
一条心 6
一段@@ 6
一溜@@ 6
一片空白 6
一百多 6
一百多@@ 6
一盘@@ 6
一科 6
一秒 6
一種 6
一空 6
一端 6
一等 6
一课 6
一身@@ 6
一辈 6
一进 6
一锅 6
一阵儿 6
七八@@ 6
七千 6
七岁 6
七月份 6
万万 6
万块 6
万端 6
三份 6
三名 6
三角裤 6
三轮车 6
上岸 6
上旬 6
上行 6
上野 6
上长 6
上阵 6
上马 6
下会 6
下图 6
下坡 6
下沉 6
下腔 6
下落不明 6
下贱 6
下跪 6
不一 6
不为@@ 6
不会错 6
不分@@ 6
不同@@ 6
不周到 6
不均 6
不好@@ 6
不好办 6
不定期 6
不屑 6
不幸遭遇 6
不应 6
不懂装懂 6
不懈 6
不成器 6
不提 6
不改 6
不敢当 6
不早 6
不死 6
不深 6
不用谢 6
不稳 6
不胜@@ 6
不能自拔 6
不良倾向 6
不觉 6
不解@@ 6
不顺 6
不高兴地 6
与众不同 6
与会者 6
丑恶 6
专制 6
专攻 6
专长 6
且@@ 6
世代@@ 6
东北地区 6
丝带 6
丝绸之路 6
两下子 6
两代 6
两口子 6
两回 6
两国之间 6
两地 6
两杯 6
两码事 6
两篇 6
两类 6
两队 6
两首 6
严苛 6
丧命 6
个人利益 6
个人得失 6
个面 6
中共 6
中国女排 6
中小企业 6
中尾君 6
中枢 6
中篇小说 6
临别 6
临床@@ 6
丸@@ 6
为名 6
主体 6
主儿 6
主办方 6
主见 6
举例 6
久别重逢 6
之大 6
之物 6
之词 6
乌 6
乌冬 6
乎@@ 6
乐得 6
乘凉 6
乙雅 6
九折 6
乞 6
乞求 6
乡间 6
书信 6
书刊 6
书本上 6
书签 6
买下来 6
买不起 6
乱子 6
乳制品 6
争得 6
争辩 6
事不@@ 6
事已至此 6
事真 6
事能 6
二十四 6
二手@@ 6
二月份 6
二百块 6
二连 6
于心 6
亏空 6
云层 6
云海 6
云霞 6
五十年 6
五名 6
五彩@@ 6
五百元 6
亚军 6
些许 6
亞 6
交叉路口 6
交织 6
享 6
亮堂 6
亮晶晶 6
亲亲 6
亲自@@ 6
人参 6
人大 6
人大@@ 6
人来人往 6
人民代表大会 6
人民日报 6
人民法院 6
人称 6
人组 6
人身@@ 6
人里 6
亿万@@ 6
仅供参考 6
仅限于 6
今儿 6
今儿个 6
今年以来 6
今年冬天 6
今年年初 6
从头开始 6
从未见过 6
仓皇 6
仔细听 6
仔细阅读 6
他会来 6
他净 6
他准 6
他成 6
他换 6
他本 6
付清 6
付诸@@ 6
代理@@ 6
以色列 6
以防 6
仪表 6
件事 6
价格便宜 6
份子 6
份额 6
企业家 6
企鹅 6
伊朗 6
优生 6
优等生 6
会员@@ 6
会因 6
会弹 6
会演 6
会试 6
会费 6
会输 6
伟@@ 6
传出 6
传票 6
传输 6
伤口处 6
伤情 6
伤痛 6
伤者 6
伪君子 6
伯伯 6
伴侣 6
伴儿 6
伸过来 6
但愿 6
低档 6
何尝 6
何种 6
余晖 6
作好 6
你治好 6
佣@@ 6
佩 6
例会 6
供应@@ 6
供求 6
供电 6
依赖@@ 6
依附 6
侦查 6
侨胞 6
侵扰 6
便利@@ 6
俊@@ 6
俗套 6
保健@@ 6
保守@@ 6
保守主义 6
保安 6
保护环境 6
信得过 6
信条 6
信用@@ 6
俭朴 6
修理工 6
修路 6
修长 6
俱 6
俱全 6
倍增 6
倒不如说 6
倒退 6
候选 6
倚仗 6
倡导 6
倦@@ 6
值得一看 6
值得纪念 6
倾泻 6
假如 6
假面 6
偏要 6
偏高 6
做好事 6
做错 6
停当 6
停运 6
健康检查 6
健康状况 6
偷看 6
偷窥 6
傳@@ 6
儿来 6
儿科 6
允 6
兄 6
充分利用 6
充沛 6
充盈 6
先不说 6
先天 6
先进@@ 6
先锋 6
先驱 6
光圈 6
光天化日 6
克服困难 6
免税店 6
兑现 6
入座 6
入神 6
入耳 6
入门 6
入馆 6
全书 6
全军 6
全心全意 6
全权 6
全村 6
全校@@ 6
全线@@ 6
全部@@ 6
全靠 6
全面@@ 6
八折 6
八百 6
八路军 6
公债 6
公安@@ 6
公断 6
公有@@ 6
公约 6
六年级 6
共同努力 6
共通 6
共青团 6
关切 6
关键@@ 6
其次 6
其间 6
养大 6
内向 6
内心深处 6
内部@@ 6
冈田 6
冉@@ 6
再作 6
再谈 6
冒出来 6
军民 6
军阀 6
冤家 6
冲冲 6
冲刷 6
冲刺 6
决不允许 6
决斗 6
决胜 6
决胜负 6
冷汗 6
冻僵 6
冻死 6
准则 6
凉丝丝 6
凌晨 6
减弱 6
凛然 6
几千年 6
几台 6
几名 6
几朵 6
几杯 6
几楼 6
几页 6
凯西 6
凳 6
凳子 6
出丑 6
出人意料 6
出來 6
出借 6
出千 6
出发点 6
出台 6
出品 6
出境 6
出局 6
出展 6
出格 6
出港 6
出门时 6
分不开 6
分子@@ 6
分寸 6
分心 6
分析家 6
分析师 6
分析法 6
分镜 6
刊载 6
刑场 6
刑罚 6
划伤 6
划拉 6
划时代 6
划破 6
刚一 6
创下 6
初步 6
利害@@ 6
利润率 6
利诱 6
别光 6
别无@@ 6
别着急 6
别跑 6
刮目相看 6
制动 6
制式 6
制造厂 6
刷卡 6
刺骨 6
刻板 6
削弱 6
前要 6
剔@@ 6
剖@@ 6
剥离 6
剧中 6
剩余@@ 6
剪掉 6
剪裁 6
剪除 6
劝阻 6
办不成 6
办公用品 6
办手续 6
功勋 6
加倍 6
加大 6
加工@@ 6
加急 6
加进 6
劣质 6
动植物 6
动脑 6
努力做到 6
劫持 6
劳动基准 6
劳顿 6
勉勉强强 6
動@@ 6
動物 6
勖 6
勘探 6
勤快 6
勺子 6
包容 6
包装@@ 6
匆匆忙忙 6
匕首 6
化作 6
北京烤鸭 6
匠@@ 6
匮乏 6
医务室 6
医药 6
医药@@ 6
匿@@ 6
十一点 6
十三@@ 6
十二 6
十二岁 6
十几个 6
十多年 6
十里 6
千克 6
千叶县 6
午夜 6
半句 6
半月 6
半生 6
半角 6
半身 6
半边 6
华美 6
协力 6
卓著 6
单人 6
单向 6
单是 6
卖家 6
博弈 6
卜 6
卢 6
印刷品 6
印刷机 6
印在 6
印着 6
危及 6
压倒@@ 6
压缩机 6
厕 6
厚生 6
原住民 6
原告 6
厢 6
去路 6
参数 6
参考价值 6
及@@ 6
双倍 6
双向 6
双打 6
双料 6
反作用 6
反问 6
发圈 6
发工资 6
发性 6
发白 6
发色 6
发芽 6
发达国家 6
发高烧 6
叔@@ 6
取下 6
取代 6
受得了 6
受气 6
受潮 6
受灾地区 6
受益 6
变凉 6
变化无常 6
口供 6
口吻 6
口岸 6
口径 6
口译 6
古代@@ 6
另有 6
只读 6
叫喊 6
叫花子 6
召唤 6
可乐 6
可好 6
可用 6
可真@@ 6
台下 6
台北 6
台布 6
台数 6
台球 6
右心房 6
右拐 6
右翼 6
叹气 6
叽 6
吃不下 6
吃光 6
吃得@@ 6
吃醋 6
合伙 6
合算 6
同乡 6
同名 6
同龄 6
名家 6
名曲 6
后仰 6
后台 6
后头 6
后悔@@ 6
向左转 6
君主@@ 6
吝啬鬼 6
吟@@ 6
否决 6
吧台 6
含着 6
听不清 6
听得懂 6
听得见 6
吵吵闹闹 6
吸走 6
吻合 6
呀呀 6
呆子 6
呈报 6
告一段落 6
呛@@ 6
周前 6
周折 6
周有 6
呱呱 6
呼扇 6
和平@@ 6
和缓 6
咒@@ 6
咖啡@@ 6
咚咚 6
咬住 6
咯吱咯吱 6
咻@@ 6
哀求 6
哇哇地 6
哇啦 6
哈哈哈哈 6
哈哈大笑 6
哈欠 6
哐啷 6
哗 6
哗啦哗啦 6
哥儿 6
哧@@ 6
哪一位 6
哪件 6
哪裡 6
哭声 6
哲学家 6
唐 6
唐代 6
售后服务 6
唯 6
唯独 6
唾@@ 6
商家 6
商法 6
商社 6
問 6
啤酒@@ 6
啯 6
啰@@ 6
啰唆 6
啷 6
喜不喜欢 6
喜剧演员 6
單@@ 6
喷射 6
嗜@@ 6
嘱托 6
嘴脸 6
噙 6
囚犯 6
四十岁 6
四发 6
四肢 6
四舍五入 6
回來 6
回合 6
回声 6
回得 6
回扣 6
回旋 6
因病 6
囡 6
团结@@ 6
囫囵 6
困住 6
困死 6
困难@@ 6
围成 6
国人 6
国境 6
国家队 6
国有 6
国语 6
圆盘 6
國 6
國家 6
在世 6
在此期间 6
在精神上 6
地下资源 6
地处 6
地方法院 6
地来 6
地流 6
坐得 6
坐等 6
块儿 6
坚守 6
坚持@@ 6
坚持下去 6
坚果 6
坠落 6
垃圾邮件 6
埋藏 6
城楼 6
埠 6
基础@@ 6
堂堂正正 6
堕@@ 6
堤@@ 6
堤坝 6
塑像 6
填上 6
增收 6
增高 6
墻 6
壮胆 6
声势 6
处决 6
备战 6
复辟 6
夏令@@ 6
外债 6
外向 6
外场 6
外援 6
外文 6
外来 6
外汇@@ 6
外资 6
外路 6
外院 6
多一点 6
多元 6
多嘴 6
多家 6
多少度 6
多年@@ 6
多得 6
多汁 6
多点 6
多田@@ 6
多谢您 6
夜行 6
大伯 6
大力@@ 6
大堤 6
大大@@ 6
大头贴 6
大奖 6
大学@@ 6
大步 6
大灾难 6
大熊猫 6
大略 6
大腿 6
大都市 6
大门口 6
大驾光临 6
天上飞 6
天去 6
天气晴朗 6
天鹅@@ 6
太低 6
太吵 6
太天真 6
太平 6
太松 6
太浅 6
太脏 6
夭折 6
央@@ 6
央求 6
失事 6
失利 6
失职 6
失足 6
头子 6
头里 6
夸克 6
夹子 6
夺冠 6
奇异 6
奉命 6
奉陪 6
奋勇@@ 6
奔腾 6
女主 6
女巫 6
女方 6
女神 6
奶粉 6
好似 6
好多年 6
好快 6
好烦 6
好色 6
好长 6
如期 6
妆容 6
妇人 6
妖 6
姆 6
委托书 6
威望 6
威武 6
娃 6
娱 6
娴熟 6
婆家 6
婚纱 6
媳妇儿 6
媽媽 6
嫂 6
嫌疑犯 6
嬉@@ 6
子气 6
子皮 6
孔子 6
字句 6
字形 6
孝 6
孤寂 6
学弟 6
学龄@@ 6
孩童 6
孰@@ 6
學校 6
安息 6
安打 6
完全一致 6
完全恢复 6
宗教@@ 6
宗派 6
官僚@@ 6
官兵 6
定金 6
宜人 6
实习@@ 6
实心 6
实时 6
宠 6
客船 6
客观规律 6
室温 6
宴@@ 6
家业 6
家乡@@ 6
家们 6
家园 6
家庭成员 6
家庭环境 6
宽大 6
宾 6
宾语 6
寄过来 6
密密@@ 6
密林 6
富山 6
富豪 6
富贵 6
寐 6
寒潮 6
寓意 6
寸 6
对不上 6
对冲 6
对准 6
对劲 6
对外贸易 6
对联 6
寻觅 6
射门 6
尊称 6
小不@@ 6
小妹 6
小字 6
小巷 6
小惠 6
小明 6
小春 6
小李 6
小桃 6
小汽车 6
小燕子 6
小男孩 6
小礼 6
小结 6
小规模 6
小雨 6
小露 6
小龙虾 6
少子 6
少年@@ 6
尝过 6
就是指 6
就读 6
尽心@@ 6
尿布 6
局促 6
居酒 6
山大 6
山岭 6
山间 6
屹立 6
岂能 6
岛国 6
岳@@ 6
崽子 6
嵌 6
嶙峋 6
巡视 6
巡逻@@ 6
工作调动 6
工作过度 6
工农业 6
工科 6
工薪阶层 6
工龄 6
巨响 6
差异化 6
己见 6
已久 6
已满 6
巷 6
市面上 6
布鞋 6
师父 6
师资 6
希特勒 6
席位 6
帮不上忙 6
帮帮 6
帮帮忙 6
常委会 6
幅度 6
干儿 6
干洗 6
平反 6
平台 6
平地 6
平局 6
平方 6
平方@@ 6
平民 6
平淡 6
平衡@@ 6
年事已高 6
年内 6
年头 6
年头儿 6
年收入 6
年青 6
并举 6
并列 6
并肩 6
庄@@ 6
庆祝会 6
序 6
应征者 6
店家 6
庶 6
康德 6
廣@@ 6
建国 6
建设@@ 6
开了@@ 6
开刀 6
开演 6
开火 6
开起 6
弄伤 6
弄掉 6
弊病 6
引出 6
引爆 6
张脸 6
张表上 6
弥漫着 6
强势 6
强国 6
强弱 6
强求 6
强烈@@ 6
强风 6
当即 6
录下来 6
录像带 6
形迹 6
彷徨 6
往右 6
很能 6
很难说 6
得住 6
得出结论 6
得力 6
得太多 6
從@@ 6
循 6
德国人 6
心扉 6
心绪 6
忌@@ 6
忌讳 6
忍耐力 6
忏悔 6
忘我 6
忠厚 6
忧患 6
忧愁 6
快快 6
快来 6
快活 6
快餐 6
怀旧 6
怀有 6
怒吼 6
怕人 6
急性子 6
性价比 6
性急 6
性欲 6
怯@@ 6
总归 6
总汇 6
总爱 6
恂 6
恋歌 6
恐吓 6
恢复@@ 6
恩情 6
恩雅 6
恫吓 6
恭维 6
恰巧 6
恳请 6
恶性 6
恼@@ 6
悄声 6
悉心 6
悔悟 6
悔改 6
悟@@ 6
悠 6
悠扬 6
悠闲@@ 6
悬殊 6
悬空 6
悲观 6
情态 6
情操 6
惊叹 6
惚 6
惦记 6
惬意 6
想将来 6
想用 6
惺惺 6
愉 6
意大利人 6
意志坚强 6
意想不到 6
意旨 6
感叹 6
感慨@@ 6
愧 6
慈爱 6
慢腾腾 6
戈 6
戏法 6
成不了 6
成品 6
成心 6
成灾 6
我休 6
我作 6
我困 6
我换 6
我画 6
我算 6
我行 6
戒备 6
战局 6
战时 6
房产 6
所困 6
所言 6
扁桃体 6
手办 6
手心 6
手持 6
手机号码 6
手杖 6
手稿 6
才智 6
扑通一声 6
打住 6
打开门 6
打折扣 6
打捞 6
打死 6
打盹 6
打鼓 6
扛@@ 6
扣款 6
扦@@ 6
执念 6
执意 6
执拗 6
扩建 6
扫描仪 6
扭扭 6
扮 6
批判性 6
批发商 6
批量生产 6
扼@@ 6
找回 6
找麻烦 6
承担@@ 6
承担责任 6
承认错误 6
技 6
技术性 6
把儿 6
把柄 6
抓到 6
投合 6
投掷 6
投机倒把 6
抗拒 6
折射 6
折纸 6
抛出 6
抢夺 6
报关 6
报名@@ 6
抬起头来 6
抵押@@ 6
抵触 6
抽不出 6
抽签 6
拂面 6
拃 6
拆除 6
拉伸 6
拉得 6
拍个 6
拍卖会 6
拍得 6
拍打 6
拙 6
招引 6
拦路@@ 6
拼了命 6
拼死 6
拼盘 6
拿不住 6
拿个 6
拿给 6
挂名 6
指挥员 6
指摘 6
指甲油 6
挑拨 6
挡风@@ 6
挤出 6
挥之不去 6
挥棒 6
挪动 6
挺直 6
捍卫 6
损益 6
捡起 6
捡起来 6
换句话说 6
换洗 6
捯 6
捶@@ 6
捻@@ 6
掀 6
掀@@ 6
掀动 6
授粉 6
掌管 6
排放 6
排除@@ 6
探求 6
接受@@ 6
接济 6
接续 6
推销员 6
掯 6
掸 6
提供@@ 6
提包 6
提琴 6
提着 6
提高@@ 6
插秧 6
插花 6
插进 6
握有 6
揣测 6
揪 6
搅 6
搜寻 6
搜捕 6
搞好 6
搞好工作 6
搞砸 6
搬走 6
摄影机 6
摄氏 6
摄氏度 6
摇着 6
摈@@ 6
摊儿 6
摔坏 6
摔打 6
摘录 6
撒气 6
播报 6
播音员 6
撰@@ 6
撵 6
支派 6
收容 6
收藏家 6
收购@@ 6
攻下 6
放心不下 6
放炮 6
放点 6
放鞭炮 6
政界 6
故事情节 6
故作 6
敏@@ 6
救治 6
救生@@ 6
教学方法 6
教学计划 6
敞着 6
散播 6
敬佩 6
敬爱 6
数不清 6
数名 6
数据@@ 6
数日 6
数码相机 6
整套 6
整肃 6
數 6
數@@ 6
文化大革命 6
文化差异 6
文化遗产 6
文墨 6
文科 6
文艺界 6
文辞 6
文采 6
文静 6
斑斓 6
斩断 6
新任 6
新作 6
新品种 6
新旧社会 6
新闻报道 6
新鞋 6
方位 6
施肥 6
旅行包 6
旅行团 6
旋风 6
无人岛 6
无可替代 6
无垠 6
无害 6
无核 6
无止境 6
无理要求 6
无穷的 6
无言 6
既然如此 6
日内 6
日前 6
日常用品 6
日日夜夜 6
日有 6
旧书店 6
旨@@ 6
早会 6
早先 6
早安 6
早有 6
早睡早起 6
时兴 6
时日 6
旷工 6
旺季 6
昌 6
昌盛 6
明儿 6
明媚 6
明月 6
明细@@ 6
昏昏沉沉 6
星云 6
春光 6
春咲@@ 6
春咲千 6
春耕 6
昨天下午 6
昭雪 6
显露 6
晃@@ 6
晒干 6
晕船 6
普照 6
景仰 6
暇 6
暖流 6
暗暗 6
暗淡 6
暗算 6
暗里 6
暢@@ 6
暴利 6
曲奇饼 6
更替 6
更让人 6
最怕 6
最难 6
月饼 6
有位 6
有何@@ 6
有名气 6
有多远 6
有心 6
有戏 6
有效性 6
有数 6
有股 6
有钱@@ 6
有點 6
朋克 6
服装@@ 6
朗读 6
望见 6
朝气 6
朝鲜 6
期求 6
朦@@ 6
木偶 6
未咲@@ 6
未经 6
未遂 6
末年 6
本来面目 6
本部 6
机器翻译 6
杀气 6
杂事 6
杂文 6
杂色 6
杆子 6
杉浦 6
李先生 6
杏仁 6
村民 6
束手无策 6
杠杆 6
条儿 6
条形码 6
条河 6
条纹 6
来意 6
杰 6
杰森 6
松快 6
松手 6
松柏 6
极小 6
构筑 6
果冻 6
果子@@ 6
枢纽 6
枪响 6
枪手 6
枯萎 6
某位 6
查出 6
查字典 6
标注 6
栏里 6
树荫 6
栖息地 6
栗子 6
根源 6
格斗 6
桂林 6
梗阻 6
梦野咲子 6
械 6
棉布 6
棋子 6
棒球场 6
森森 6
棺@@ 6
植树 6
植树造林 6
榨@@ 6
樣 6
横眉@@ 6
橙@@ 6
橱窗 6
檀@@ 6
檐 6
權 6
次要 6
欧姆 6
欧美 6
歇会儿 6
歌舞伎 6
止痛药 6
正中间 6
正为 6
正义@@ 6
正向 6
正当@@ 6
正忙着 6
正规@@ 6
正门 6
武断 6
武艺 6
歧@@ 6
歪歪@@ 6
歹@@ 6
死劲儿 6
死抠 6
死板 6
残余 6
残次品 6
殓 6
殴 6
殷实 6
毋@@ 6
母校 6
母猪 6
每位 6
每周六 6
毒草 6
毒辣 6
比分 6
比去 6
比试 6
比赛结果 6
比较简单 6
毕 6
毕业论文 6
毕业证书 6
毕生 6
毫升 6
民用@@ 6
气不@@ 6
气坏 6
气度 6
气泡 6
气管 6
气象台 6
气闷 6
氨酸 6
水仙 6
水儿 6
水手服 6
水晶 6
水果@@ 6
水母 6
水泥@@ 6
水电站 6
水量 6
永泽 6
汗腺 6
江边 6
污蔑 6
汲取 6
汽船 6
沈@@ 6
沉稳 6
没人会 6
没出息 6
没变 6
没处 6
没干 6
没戏 6
没法儿 6
没理由 6
没错儿 6
沤 6
沥青 6
沫 6
河上 6
河原 6
河面上 6
油子 6
油水 6
油泥 6
油炸 6
沿袭 6
沿路 6
泌@@ 6
法国@@ 6
法国人 6
泛出 6
泡个 6
泡汤 6
泡沫@@ 6
泡菜 6
波涛 6
波澜 6
注目 6
洁 6
洋子 6
洋溢 6
洒水 6
洒落 6
洗发@@ 6
洞里 6
洪 6
活像 6
活塞 6
活性 6
洼 6
洼@@ 6
洽 6
流向 6
流行歌曲 6
流言 6
流速 6
浅草 6
浆@@ 6
浑厚 6
浓密 6
浮沉 6
浴 6
海拔 6
海水浴 6
海湾 6
海运 6
浸透 6
涂上 6
涂得 6
消停 6
消去 6
消气 6
消防@@ 6
涌现 6
涣散 6
液化 6
淌 6
淘 6
淡化 6
深信 6
深刻理解 6
深表歉意 6
淳朴 6
混淆 6
混账 6
淹 6
清查 6
清清@@ 6
清秀 6
渗透@@ 6
渣@@ 6
温室 6
温情 6
游戏机 6
游泳@@ 6
游走 6
湛蓝 6
湿润 6
源于 6
溜走 6
溪 6
溶 6
溺@@ 6
滑雪场 6
滚出去 6
滚出来 6
滚烫 6
滞纳金 6
滞销 6
满脑子 6
滴下来 6
漂亮@@ 6
漏气 6
演化 6
演变 6
演讲@@ 6
漠 6
漫天 6
漱 6
潜水艇 6
潜艇 6
潮水 6
澈 6
激光@@ 6
激怒 6
激活 6
濒临灭绝 6
灌输 6
火上 6
火大 6
火暴 6
火气 6
火箭@@ 6
火药 6
火辣辣 6
灭火 6
灯亮了 6
灯火 6
灵敏度 6
灵通 6
炭火 6
点亮 6
点会 6
点名 6
点点 6
為@@ 6
烈日 6
烘 6
烛@@ 6
烟袋 6
烟袋@@ 6
烤肉店 6
烦心事 6
烦闷 6
烧毁 6
烧瓶 6
烧饼 6
热切 6
烹调 6
焊 6
焚@@ 6
焦糖 6
煤气@@ 6
煦 6
照明弹 6
照管 6
煲 6
煳 6
熏制 6
熔炼 6
熟透 6
熨@@ 6
熬过 6
燃起 6
燎 6
燥@@ 6
爬行 6
爱劳动 6
爱怜 6
爱我吗 6
父子 6
爷@@ 6
爷们 6
爿 6
片儿 6
牛羊 6
牛肉饼 6
牛马 6
牢房 6
牧民 6
牧羊人 6
牵引 6
牵引@@ 6
牵挂 6
特典 6
特权 6
特长 6
犯罪行为 6
犯规 6
犯过 6
犹 6
狂欢 6
狐@@ 6
狙击 6
独一无二 6
狱@@ 6
玄虚 6
率直 6
环境污染 6
环游 6
现存 6
现实生活 6
现身 6
现金流量 6
玲@@ 6
珍珠 6
珠儿 6
班会 6
班委会 6
球形 6
球迷 6
理事会 6
理所应当 6
理睬 6
琵琶 6
瓤儿 6
瓷@@ 6
甄别 6
甘蔗 6
甜美 6
生产队 6
生出 6
生前 6
生命力 6
生态@@ 6
生态系统 6
生日会 6
生氣 6
生火 6
生疏 6
用尽 6
用意 6
用户名 6
用油 6
用电 6
甫 6
由贵惠 6
电子计算机 6
电站 6
电筒 6
电风扇 6
男主 6
男方 6
画图 6
畦 6
疏散 6
疑团 6
疑心 6
疚 6
痂 6
病假 6
病势 6
病菌 6
痘痘 6
痛得 6
瘦下来 6
發現 6
白发 6
白旗 6
白花 6
白血病 6
百倍 6
百叶窗 6
百多 6
百里 6
皆知 6
皇家 6
皑皑 6
皮箱 6
皮肉 6
盆栽 6
监护 6
监控 6
监禁 6
盒@@ 6
盖住 6
盘儿 6
盘点 6
盘算 6
盘问 6
盛行 6
盛装 6
盟 6
目不@@ 6
目击 6
目击者 6
盯@@ 6
直到现在 6
直升飞机 6
直响 6
直径 6
直销 6
相仿 6
相传 6
相劝 6
相称 6
相通 6
盹儿 6
盾 6
省事 6
看不惯 6
看不起人 6
看得@@ 6
看板 6
看错 6
真人 6
真可怜 6
真名 6
真皮 6
真遗憾 6
真难 6
真香 6
眷 6
眼熟 6
睁不开 6
睡个 6
睡前 6
睡意 6
睡懒觉 6
睡过 6
督促 6
睫毛 6
瞄@@ 6
瞎说 6
瞒@@ 6
瞭望台 6
知识@@ 6
知识产权 6
短处 6
石桥 6
矿井 6
砍掉 6
研发 6
砰 6
破坏力 6
破破烂烂 6
破解 6
砺 6
硅@@ 6
硫@@ 6
碟子 6
碰触 6
碳@@ 6
磁性 6
磨灭 6
礁石 6
社会活动 6
社论 6
祈@@ 6
祖祖辈辈 6
祛除 6
神往 6
神速 6
祥@@ 6
票价 6
禁忌 6
禁止通行 6
福利待遇 6
福建 6
离远 6
秀美 6
私生活 6
私自 6
秃@@ 6
秆@@ 6
秉@@ 6
种族 6
秧@@ 6
秸 6
稀有 6
稀薄 6
稔 6
稠 6
稠密 6
種 6
稳稳@@ 6
稿件 6
空气@@ 6
窄小 6
窍 6
窗前 6
窜@@ 6
窥探 6
立式 6
站不起来 6
竞争者 6
章节 6
童话 6
竭@@ 6
端午节 6
竿@@ 6
笃@@ 6
笑意 6
笑笑 6
笑脸相迎 6
笑颜 6
笔挺 6
笔法 6
笔盒 6
笔试 6
笔误 6
笔钱 6
第五 6
答辩 6
策动 6
签合同 6
简介 6
简化 6
简陋 6
算不上 6
算不了 6
算出 6
箱@@ 6
篓 6
篝火 6
篡@@ 6
篱 6
粗气 6
粗细 6
粪@@ 6
精悍 6
精湛 6
糖浆 6
糙 6
糟害 6
系统@@ 6
約 6
紅@@ 6
素来 6
索道 6
紧凑 6
紧要关头 6
紧闭 6
結婚 6
繁盛 6
繪理 6
繼續 6
红着脸 6
红绿灯 6
红豆 6
约期 6
纪录片 6
纪念活动 6
纱窗 6
纲@@ 6
纲要 6
纸片 6
纹身 6
练习@@ 6
组队 6
细密 6
终归 6
经典 6
经常出现 6
经济学家 6
经验@@ 6
结余 6
结冰 6
结核 6
绕弯子 6
绚烂 6
络 6
绝对@@ 6
绝非 6
绝顶 6
绞 6
统一@@ 6
统合 6
绣@@ 6
绣花 6
维修@@ 6
绷带 6
绿洲 6
缅怀 6
缆@@ 6
缓冲 6
编码 6
缝制 6
缝里 6
缺氧 6
罐@@ 6
罐装 6
罗林斯 6
署 6
署名 6
羊毛衫 6
羊皮 6
羞怯 6
群众性 6
羹 6
羽田机场 6
翅@@ 6
習 6
翠 6
翠绿 6
翩@@ 6
翰 6
翻天 6
翻过来 6
翼@@ 6
老先生 6
老实人 6
老将 6
老年@@ 6
老旧 6
考不上 6
考场 6
考完试 6
考察@@ 6
而战 6
耗尽 6
耳目 6
耳语 6
聊得 6
职业生涯 6
职人员 6
联合@@ 6
联欢 6
联赛 6
联运 6
联防 6
聘@@ 6
肃穆 6
肆 6
肆意 6
肇@@ 6
肉饼 6
肠子 6
股票@@ 6
肤 6
肩负着 6
肺癌 6
肾@@ 6
胁迫 6
胃痛 6
胆儿 6
胚胎 6
胞胎 6
胡椒 6
胰@@ 6
胳臂 6
胸襟 6
能比 6
能游 6
能见 6
脊 6
脊@@ 6
脑儿 6
脓 6
脚痛 6
脚腕 6
脸蛋儿 6
腕力 6
腥 6
腥@@ 6
腹痛 6
腾出 6
臥@@ 6
自作主张 6
自作自受 6
自便 6
自力更生 6
自慰 6
自暴自弃 6
自然风光 6
自理 6
自由职业者 6
自私自利 6
臭架子 6
致词 6
臼 6
舅 6
舆论@@ 6
舉@@ 6
舒坦 6
舒暢 6
舞姿 6
航天@@ 6
航海 6
航道 6
般地 6
船身 6
良久 6
良田 6
色拉 6
色色 6
艳丽 6
艾@@ 6
节节 6
节骨眼 6
芬@@ 6
芬兰 6
芬芳 6
芭@@ 6
花火 6
芳香 6
芽孢 6
苇@@ 6
苍白 6
苏格拉底 6
苗头 6
若有 6
苦衷 6
英二 6
英國 6
英武 6
英烈 6
英语学校 6
英豪 6
英里 6
英镑 6
苹果@@ 6
茁壮 6
茁壮成长 6
茅@@ 6
茅屋 6
茫@@ 6
茶具 6
茶碗 6
草药 6
草裙舞 6
荞麦 6
荡荡 6
荧光 6
荫@@ 6
莅@@ 6
莎@@ 6
莘@@ 6
菜园 6
菜里 6
菲@@ 6
萌芽 6
营业日 6
落下来 6
落伍 6
落得 6
蒙古 6
蒙混过关 6
蒸气 6
蓝光 6
蓬蓬 6
薄礼 6
藉口 6
蘋果 6
虎口 6
虚线 6
虚荣 6
號 6
虫病 6
虫蛀 6
蚊帐 6
蛔虫 6
蛤@@ 6
蛮 6
蜂巢 6
蝴蝶结 6
螺@@ 6
螺丝@@ 6
螺旋桨 6
蠕动 6
行医 6
行李@@ 6
衔@@ 6
衔接 6
衡量 6
补丁 6
补正 6
表现力 6
表达方式 6
衰竭 6
衷心希望 6
袁@@ 6
袄 6
袍 6
袒露 6
装订 6
装配@@ 6
褂 6
褐色 6
褒奖 6
襻 6
西北 6
西部 6
西雅图 6
要不得 6
要不然 6
要作 6
要开 6
要职 6
要钱 6
覆@@ 6
覆没 6
覺得 6
见证 6
见鬼 6
观光旅游 6
规制 6
规劝 6
规章 6
视听 6
觉着 6
角儿 6
触犯 6
触碰 6
誉@@ 6
誊@@ 6
誓约 6
變 6
變成 6
计划性 6
计程车 6
订购单 6
认真学习 6
让路 6
讯@@ 6
记不清 6
记忆力 6
记忆里 6
讲习会 6
许愿 6
讹@@ 6
论理 6
设计@@ 6
诀 6
诀窍 6
评级 6
诉苦 6
试一试 6
试用品 6
诗文 6
诙谐 6
诚心 6
话筒 6
诡辩 6
诬@@ 6
诬告 6
说梦话 6
说说看 6
说闲话 6
请勿@@ 6
请帖 6
请往 6
请求书 6
诸君 6
诺亚 6
读出 6
读生 6
课外活动 6
课桌 6
调情 6
调来 6
调职 6
调遣 6
谋划 6
谐 6
谚语 6
谦让 6
谨 6
谬 6
谱儿 6
豆浆 6
賣 6
質 6
负债表 6
负面 6
责任制 6
贤惠 6
贤明 6
败局 6
败给 6
账@@ 6
货币@@ 6
质疑 6
贫民 6
贬@@ 6
贬低 6
购买力 6
购置 6
贯穿 6
贴切 6
贷@@ 6
贺电 6
贻@@ 6
赛场 6
赭@@ 6
走失 6
走得 6
走起路来 6
走钢丝 6
赵 6
赶上来 6
赶出 6
起义军 6
起色 6
趁机 6
超级大国 6
超群 6
超飞 6
越来越少 6
趋 6
趋向 6
足有 6
跃 6
跟我来 6
跟随 6
跳伞 6
践 6
踉跄 6
踌躇 6
踏板 6
踪@@ 6
蹒跚 6
身姿 6
身穿 6
轉@@ 6
车夫 6
车灯 6
轩昂 6
转折 6
转眼间 6
轮换 6
轮班 6
软软 6
轰鸣 6
轻信 6
轻型 6
轻而易举 6
辆车 6
辈@@ 6
辈子 6
辉 6
辉日东 6
输出@@ 6
输赢 6
辛亥革命 6
辛酸 6
辞令 6
辟@@ 6
辨 6
辩证法 6
辩驳 6
辱骂 6
边远 6
迅猛 6
过关 6
过家家 6
过得去 6
过敏性 6
过早 6
过滤 6
过滤器 6
过路人 6
过长 6
迈出 6
迎头 6
运河 6
运货 6
近几年来 6
还击 6
还款 6
还用 6
这一着 6
这么着 6
这匹马 6
这堆 6
这水 6
这艘 6
这阵儿 6
进晚餐 6
远房 6
远近 6
连个 6
连同 6
连带 6
连接起来 6
连环 6
连续@@ 6
连载 6
迫@@ 6
迷你 6
迷糊 6
追不上 6
追溯 6
退步 6
退还给 6
送点 6
送礼物 6
送还 6
适中 6
逃出来 6
选择性 6
选用 6
选集 6
透彻 6
透析 6
通俗 6
通勤 6
通车 6
逛街 6
造田 6
造谣@@ 6
逼迫 6
遇难 6
遍体鳞伤 6
道场 6
遗传基因 6
遣@@ 6
遮挡 6
遮掩 6
那事 6
那头 6
那才 6
那棵树 6
那段 6
那片海 6
那股 6
那裡 6
那颗 6
邮政@@ 6
邮费 6
邻近 6
酒后 6
酒疯 6
酪 6
酵@@ 6
酿酒 6
醒目 6
醫@@ 6
采集 6
释@@ 6
里子 6
重价 6
重大@@ 6
重归于好 6
重整 6
金融市场 6
钉钉子 6
钙@@ 6
钢丝 6
钮 6
铁匠 6
铁桥 6
铃@@ 6
铭记在心 6
铸 6
铺设 6
锁定 6
锁链 6
锅盖 6
锈 6
锈@@ 6
锈了 6
错乱 6
锣@@ 6
锥@@ 6
锭 6
镀@@ 6
镜@@ 6
镜片 6
镰刀 6
镶@@ 6
长出 6
长子 6
长江大桥 6
长眠 6
长达 6
长途旅行 6
開心 6
门诊@@ 6
门锁 6
闪电 6
闪耀着 6
闭门羹 6
问讯 6
闲气 6
闷闷不乐 6
闸@@ 6
闸门 6
闹病 6
闺@@ 6
闻风@@ 6
阀 6
阉@@ 6
防护@@ 6
防线 6
阴冷 6
阶 6
阶段性 6
阻拦 6
阿嚏 6
阿诺 6
附加费 6
附属品 6
附送 6
际@@ 6
陈规 6
降雨量 6
陛下 6
院校 6
院长 6
险些 6
陷入@@ 6
随地 6
随机@@ 6
随风 6
隐性 6
障@@ 6
难于 6
难以想象 6
难处 6
雁 6
雁@@ 6
集结 6
集资 6
雏@@ 6
雕塑 6
離 6
雨季 6
雨点 6
雨量 6
雪片 6
零售业 6
零散 6
霉 6
霍尔 6
霭 6
露珠 6
霸凌 6
青天 6
青岛 6
青睐 6
静寂 6
静悄悄 6
静止 6
静静 6
非常容易 6
非议 6
面部 6
革命家 6
鞘 6
鞭打 6
音石 6
領@@ 6
顶峰 6
顶撞 6
顶点 6
顷@@ 6
须知 6
顾不上 6
预知 6
领到 6
领地 6
领教 6
领略 6
颊 6
频@@ 6
颤 6
风云 6
风寒 6
风尚 6
风扇 6
风流 6
飘动 6
飘飘@@ 6
飞扬 6
飞过去 6
餐会 6
饵 6
饺 6
馅儿 6
馆子 6
馈@@ 6
首席 6
首要 6
首饰 6
香山 6
马背上 6
马蜂窝 6
马马虎虎 6
驮 6
驮子 6
驯@@ 6
驱使 6
驱除 6
驾车 6
骑士 6
骑着马 6
骨骼 6
高个子 6
高利贷 6
高处 6
高明 6
高興 6
高跟鞋 6
高高 6
鬼把戏 6
魆 6
鱼饵 6
鱿鱼 6
鳕鱼 6
鸟兽 6
鸡毛@@ 6
鸡皮疙瘩 6
鸡蛋@@ 6
鸿@@ 6
鹅@@ 6
麦克风 6
麻婆豆腐 6
麻烦事 6
麻袋 6
黄山 6
黄色@@ 6
黄鼠狼 6
黑子 6
黑漆漆 6
黑黑 6
默契 6
默认 6
鼎@@ 6
鼾声 6
龙头 6
２ 6
&#91; 5
&#93; 5
&amp; 5
.1 5
1.@@ 5
120 5
180 5
2001 5
2004 5
2006 5
2009 5
200@@ 5
2014 5
2B 5
525 5
57 5
600 5
82 5
CC 5
Co@@ 5
DNA 5
Ind@@ 5
MD 5
Me@@ 5
Q 5
RO@@ 5
St@@ 5
TO@@ 5
The 5
Z@@ 5
ad@@ 5
as@@ 5
at 5
at@@ 5
ation 5
by 5
chi@@ 5
com 5
ers 5
ess 5
et@@ 5
he@@ 5
ice 5
ie@@ 5
me 5
ok 5
ol@@ 5
one 5
ow@@ 5
p 5
ug@@ 5
um@@ 5
ur@@ 5
us@@ 5
え 5
ち 5
め 5
ー 5
一丁点儿 5
一万元 5
一上 5
一上午 5
一下@@ 5
一丝不苟 5
一个劲 5
一个劲地 5
一个包 5
一事无成 5
一体化 5
一决胜负 5
一刀 5
一分钱 5
一半儿 5
一去不@@ 5
一团@@ 5
一块钱 5
一大@@ 5
一大批 5
一大步 5
一大群 5
一字@@ 5
一季度 5
一小@@ 5
一帮 5
一幢 5
一年到头 5
一开 5
一成不变 5
一户 5
一担 5
一拐 5
一招 5
一捆 5
一揽子 5
一摞 5
一摸 5
一放 5
一整套 5
一时@@ 5
一条龙 5
一格 5
一桌 5
一死@@ 5
一洗 5
一清二楚 5
一番话 5
一百日 5
一股风 5
一致意见 5
一艘 5
一言@@ 5
一语@@ 5
一读 5
万人次 5
万全 5
万古@@ 5
万状 5
万里@@ 5
万里长城 5
三匹 5
三十分 5
三千 5
三口 5
三只 5
三国@@ 5
三大 5
三尺 5
三层 5
三番两次 5
三道 5
三部 5
三间 5
上交 5
上坡 5
上帝 5
上心 5
上报 5
上海队 5
上策 5
上线 5
上花 5
上要 5
上调 5
下不来 5
下品 5
下地干活 5
下文 5
下流@@ 5
下滑 5
下节 5
下行 5
下课后 5
下象棋 5
下身 5
下酒 5
不三不四 5
不亦乐乎 5
不作 5
不作@@ 5
不佳 5
不减当年 5
不受 5
不可开交 5
不夠 5
不好受 5
不如@@ 5
不对头 5
不得而知 5
不慎 5
不成问题 5
不抱 5
不接 5
不整 5
不明@@ 5
不是味儿 5
不是太好 5
不正经 5
不法@@ 5
不活 5
不浅 5
不犯 5
不由自主 5
不相干 5
不相称 5
不笑 5
不缺 5
不胜感激 5
不自禁 5
不至 5
不良少年 5
不见得 5
不规则 5
不计其数 5
不认 5
不诚实 5
不负 5
不起作用 5
不起眼 5
不足以 5
不辞@@ 5
不过@@ 5
不顾一切 5
与会 5
与共 5
专卖 5
专科学校 5
世事 5
世界性 5
世纪末 5
丛书 5
东亚 5
东京@@ 5
东升 5
东张西望 5
东照 5
丝袜 5
两场 5
两块钱 5
两大 5
两枚 5
两栖 5
两步 5
两片 5
两臂 5
两袋 5
两间 5
两颊 5
两颗 5
严严@@ 5
严实 5
严重@@ 5
严重后果 5
严重破坏 5
严防 5
並 5
中介 5
中午饭 5
中华人民共和国 5
中年@@ 5
中标 5
中秋 5
中说 5
中长期 5
中音 5
中餐 5
丰田 5
临别@@ 5
临头 5
临界@@ 5
临行 5
为数不多 5
主办@@ 5
主厨 5
主心骨 5
主持@@ 5
主编 5
主義的 5
主要矛盾 5
举世@@ 5
举个 5
举出 5
久远 5
义词 5
之人 5
之力 5
之声 5
之敌 5
之缘 5
之花 5
之苦 5
之论 5
乎其@@ 5
乏@@ 5
乐于 5
乐在其中 5
乐子 5
乙烯 5
乡土 5
乡镇企业 5
书夹 5
书法家 5
买车 5
了事 5
事业@@ 5
事使 5
事关 5
事实@@ 5
二十五 5
二十四@@ 5
二哥 5
二年 5
二百元 5
二线 5
二者 5
云霄 5
互助 5
互换 5
互相交换 5
互通 5
五十元 5
五千@@ 5
五年计划 5
五月份 5
五郎 5
亚美 5
亚非 5
亟@@ 5
交上 5
交加 5
交叉@@ 5
交流经验 5
产权 5
产销 5
享有@@ 5
亭@@ 5
亭子 5
亮亮 5
亮亮的 5
亮度 5
亲兄弟 5
亲切感 5
亲子 5
亲戚家 5
亲眼@@ 5
亲笔@@ 5
人为@@ 5
人事制度 5
人修 5
人前 5
人力@@ 5
人味 5
人因 5
人均 5
人声@@ 5
人寿保险 5
人心弦 5
人死 5
人民政府 5
人民英雄纪念碑 5
人渣 5
人物形象 5
人生观 5
人真@@ 5
人行 5
人话 5
人道 5
人际交往 5
仅仅只是 5
仅凭 5
仆人 5
今年@@ 5
仍@@ 5
从严 5
从容@@ 5
从根本上 5
从那时起 5
他发 5
他同 5
他国 5
他算 5
他读 5
仗@@ 5
代为 5
代代相传 5
代销 5
令人震惊 5
以下几点 5
以至 5
仰仗 5
仰卧起坐 5
件@@ 5
件数 5
价格竞争 5
价格表 5
任何@@ 5
任务@@ 5
伊斯兰教 5
伐木 5
众生 5
优生学 5
优良品种 5
优裕 5
会寄到 5
会带 5
会计年度 5
会议@@ 5
会读 5
伟 5
伟大@@ 5
传下去 5
传唤 5
传扬 5
传染给 5
传真@@ 5
传送带 5
伤病 5
伪军 5
伴有 5
伴着 5
伸出手 5
伺机 5
低廉 5
低成本 5
低语 5
住嘴 5
住民 5
住进 5
佐佐木 5
体上 5
体字 5
体统 5
体育锻炼 5
何以 5
何如 5
何时何地 5
何等 5
余烬 5
余热 5
作乐 5
作势 5
作怪 5
作案 5
作梗 5
作证 5
作词 5
你养 5
佳人 5
佳节 5
使不得 5
使者 5
侃@@ 5
來@@ 5
供求@@ 5
依依不舍 5
依恋 5
依法@@ 5
依稀 5
侦察@@ 5
侦察兵 5
侯@@ 5
便会 5
便携式 5
便条 5
係 5
俄国 5
俄语 5
俏@@ 5
俗话说 5
保住 5
保持沉默 5
保持良好 5
保证质量 5
保送 5
保释 5
保镖 5
信上 5
信号@@ 5
信箱 5
俨然 5
俭@@ 5
修成 5
修正主义 5
修辞 5
俯卧撑 5
俺 5
倒卖 5
倒塌 5
倒流 5
借到 5
借給 5
借贷 5
倦 5
值钱 5
倾吐 5
倾斜@@ 5
假名 5
假扮 5
假牙 5
假象 5
假面具 5
偌大 5
做会 5
做工 5
停业 5
停停 5
停妥 5
停留时间 5
健忘 5
偷偷摸摸 5
偷情 5
偷拍 5
偷窃 5
偷袭 5
偻 5
傀儡@@ 5
備 5
儿去 5
儿媳 5
儿童节 5
儿里 5
兀@@ 5
元气 5
兄@@ 5
充斥 5
充血 5
先例 5
光彩@@ 5
光明媚 5
光环 5
光盘 5
光脚 5
免受 5
免疫力 5
免疫系统 5
党委 5
党的@@ 5
入味 5
入团 5
入场费 5
入港 5
入账 5
入院 5
全体@@ 5
全体成员 5
全城 5
全景 5
全民@@ 5
全然 5
全给 5
全胜 5
全裸 5
全身心 5
兩個 5
八小时 5
公交车站 5
公公 5
公关@@ 5
公司债券 5
公司法 5
公安机关 5
公家 5
公尺 5
公差 5
公民@@ 5
公用 5
公立 5
六月份 5
六点钟 5
六百 5
兮 5
共用 5
关卡 5
关口 5
关窗户 5
关联性 5
关进 5
兴办 5
兴奋剂 5
兴盛 5
兴隆 5
其人 5
其實 5
其词 5
具体情况 5
典故 5
典籍 5
养鱼 5
内疚 5
内科 5
内线 5
内脏 5
内部矛盾 5
冉冉 5
再也不能 5
再多@@ 5
再好不过 5
再添 5
冒失 5
冒尖 5
冕@@ 5
冗 5
写作@@ 5
写实 5
写生 5
军装 5
农忙 5
农户 5
农民@@ 5
冥@@ 5
冥福 5
冬海爱 5
冰上 5
冰凉 5
冲出 5
冲向 5
冲天 5
冲澡 5
冲锋 5
决裂 5
冷冻@@ 5
冷战 5
冷水@@ 5
凄清 5
准确@@ 5
凉意 5
凉鞋 5
凉飕飕 5
凌乱 5
减退 5
凝聚 5
几何@@ 5
几内亚 5
几回 5
几率 5
几百年 5
几间 5
几首 5
凭吊 5
凭着 5
凭空 5
凶残 5
凶险 5
凹凸不平 5
出不来 5
出了名 5
出人头地 5
出厂 5
出外 5
出战 5
出炉 5
出版@@ 5
出版物 5
出租汽车 5
出纳 5
出风头 5
击败 5
凿子 5
刁 5
分家 5
分居 5
分批 5
分支 5
分晓 5
分期 5
分级 5
分身 5
分辨率 5
分配@@ 5
切削 5
切合 5
切掉 5
切记 5
切除术 5
刊@@ 5
划着 5
划过 5
列为 5
列席 5
刘 5
刚强 5
创建 5
初三 5
初始化 5
初春 5
初级 5
判别 5
利弊 5
利息@@ 5
别以为 5
别提 5
别有 5
别有@@ 5
别致 5
制宜 5
制造业 5
券@@ 5
刺伤 5
刺眼 5
刺青 5
刻度 5
刻意 5
剁@@ 5
削去 5
剋 5
前后@@ 5
前女友 5
前导 5
前岛君 5
前脚 5
剐 5
剔除 5
剧烈地 5
剧痛 5
剧目 5
副本 5
副标题 5
劈成 5
劈里啪啦 5
力量@@ 5
办起 5
功能性 5
功过 5
加利 5
加利福尼亚 5
加到 5
加快@@ 5
加斯 5
加薪 5
加速器 5
务员 5
动员@@ 5
动用 5
助于 5
助兴 5
努力@@ 5
努力奋斗 5
努力实现 5
劳动模范 5
勋@@ 5
勘测 5
勝@@ 5
募 5
募@@ 5
勤俭@@ 5
勤务 5
包儿 5
包办 5
匆促 5
化剂 5
北边 5
区政府 5
医学院 5
医疗队 5
匿迹 5
十一月 5
十五分钟 5
十五岁 5
十元 5
十八 5
十六号 5
十分注意 5
十号 5
十日 5
十有 5
千万@@ 5
千奈 5
午 5
半周 5
半山腰 5
半左右 5
半点儿 5
协同 5
卓@@ 5
卓绝 5
单据 5
单杠 5
单薄 5
单身@@ 5
卖国 5
南下 5
南方人 5
南部 5
南非 5
卡住 5
卡斯@@ 5
卡罗@@ 5
卧床 5
印发 5
印花 5
印证 5
即便如此 5
即逝 5
却没能 5
卷进 5
卸下 5
卸下来 5
历史博物馆 5
历史舞台 5
历年 5
历练 5
压下去 5
压低 5
压倒 5
压根儿 5
压缩@@ 5
厚颜无耻 5
原则性 5
原形 5
原点 5
厢房 5
厨 5
厨@@ 5
县委 5
参与者 5
参演 5
参考文献 5
參加 5
叉子 5
双面胶 5
反动势力 5
反复@@ 5
反对@@ 5
反射@@ 5
反派 5
发布会 5
发懒 5
发挥作用 5
发掉 5
发条 5
发榜 5
发消息 5
发炎 5
发生意外 5
发表声明 5
发言@@ 5
发酸 5
叔 5
取乐 5
取材 5
受到@@ 5
受奖 5
受益@@ 5
变红 5
口儿 5
口腔@@ 5
口臭 5
口述 5
古典文学 5
古城 5
古籍 5
古迹 5
另一面 5
叨@@ 5
叩@@ 5
只差 5
只带 5
只靠 5
叫住 5
叫唤 5
叫嚷 5
叫康 5
可以信赖 5
可否 5
可得 5
可比 5
可知 5
可行@@ 5
台车 5
叱责 5
史册 5
右倾 5
右心室 5
右手边 5
右旋 5
叵@@ 5
号声 5
号子 5
号码牌 5
号角 5
叽叽喳喳 5
吃喝@@ 5
吃纳豆 5
吃苦 5
吃食 5
各不相让 5
各个部门 5
各别 5
各界 5
各省 5
合作伙伴 5
合作社 5
合同@@ 5
合辙 5
吉他手 5
吉姆 5
吊唁 5
吊销 5
同意书 5
同感 5
同行业 5
名利@@ 5
后勤 5
后备@@ 5
后座 5
后盾 5
后能 5
后脚 5
后藤 5
后账 5
后路 5
吐出来 5
向南 5
向心 5
吕@@ 5
吞吞吐吐 5
否决权 5
吧唧 5
含糊@@ 5
听不进 5
听候 5
听写 5
听筒 5
听腻 5
听诊器 5
吭@@ 5
吭哧 5
启示 5
吸烟室 5
吸血鬼 5
吹吹@@ 5
吹嘘 5
告终 5
周年纪念 5
周身 5
周转@@ 5
呵@@ 5
呸 5
咀嚼 5
和睦相处 5
咎 5
咏 5
咔嚓 5
咧@@ 5
咪@@ 5
咬紧牙关 5
咽喉 5
哀 5
哀痛 5
品德 5
品种@@ 5
哄哄 5
哇塞 5
哈佛大学 5
哏 5
哗@@ 5
哥伦布 5
哨子 5
哩哩啦啦 5
哪些地方 5
哪样 5
哪见 5
哭鼻子 5
哺乳@@ 5
哽@@ 5
唆 5
唇舌 5
唐诗 5
唠 5
唤@@ 5
唯心论 5
唱个 5
唱歌跳舞 5
唱起歌 5
唷 5
啃@@ 5
商品种类 5
啊@@ 5
啐 5
啥@@ 5
啦@@ 5
啸 5
善战 5
喇叭@@ 5
喊道 5
喘息 5
喜剧 5
喜报 5
喜马拉雅山 5
喝完 5
喝汤 5
喧闹 5
喷发 5
喷嚏 5
喷雾 5
嗒 5
嗓门儿 5
嗬 5
嗵 5
嗷@@ 5
嘎啦 5
嘎嘎 5
嘱 5
嘲弄 5
嘲讽 5
嘶@@ 5
嘹亮 5
噎住 5
噩耗 5
嚎啕大哭 5
四下 5
四十年 5
四千 5
四处奔走 5
四张 5
四肢@@ 5
四起 5
回不来 5
回归@@ 5
回手 5
回晚 5
因子 5
因有 5
团体@@ 5
固定@@ 5
国力 5
国度 5
国立 5
国际形势 5
国际象棋 5
图标 5
圆圈 5
圆满@@ 5
國人 5
團 5
土地改革 5
土墙 5
土木 5
土质 5
圣地 5
圣诞@@ 5
在建 5
在生活中 5
在野 5
地下水 5
地主阶级 5
地儿 5
地名 5
地唱 5
地喊 5
地平线 5
地摇 5
地教 5
地是 5
地段 5
地盘 5
地落 5
地谈 5
地震@@ 5
圳 5
场院 5
坂 5
坂@@ 5
坎@@ 5
坏水 5
坐不住 5
坐地 5
坐视@@ 5
坐过 5
坑道 5
坚决@@ 5
坚实 5
坚持到底 5
坚毅 5
坚硬 5
坦诚 5
坯 5
垂下来 5
垂直 5
垃圾焚烧 5
垃圾袋 5
垄断@@ 5
垒@@ 5
垦 5
垦@@ 5
埋头@@ 5
城乡@@ 5
城外 5
域@@ 5
基督 5
基础知识 5
堆土 5
堆积@@ 5
堆起来 5
報@@ 5
塊 5
塑料瓶 5
塑胶 5
填平 5
墙脚 5
增值 5
增设 5
增进 5
墨汁 5
壁纸 5
壅@@ 5
壮举 5
声讨 5
声调 5
売 5
处长 5
复健 5
复发 5
复合 5
复员 5
复职 5
复读 5
外交关系 5
外侧 5
外加 5
外科手术 5
外语@@ 5
外露 5
多地 5
多多@@ 5
多得多 5
多心 5
多情 5
多样 5
多着呢 5
多难 5
多项 5
大丈夫 5
大不一样 5
大个儿 5
大儿子 5
大写字母 5
大力发展 5
大办 5
大势@@ 5
大半 5
大口 5
大名 5
大头 5
大嫂 5
大宗 5
大庆 5
大志 5
大战 5
大旱 5
大气污染 5
大溪地 5
大热天 5
大红 5
大肠杆菌 5
大西洋 5
大计 5
大陆@@ 5
大霉 5
大面积 5
大鱼 5
天儿 5
天后 5
天堑 5
天快 5
天文@@ 5
天来 5
天灾 5
天阴 5
太平天国 5
太深 5
太瘦 5
太硬 5
太空@@ 5
太软 5
太近 5
太黑 5
失地 5
失措 5
失散 5
头像 5
夸耀 5
夹克衫 5
夹带 5
夹杂 5
夹着尾巴 5
夺回 5
奄@@ 5
奋发@@ 5
奋战 5
奋斗@@ 5
契 5
契@@ 5
奓 5
奖状 5
奖赏 5
套儿 5
奘 5
奚@@ 5
奠@@ 5
奠基@@ 5
奢华 5
奢望 5
奥秘 5
奥绘理 5
女工 5
女排 5
奴 5
奴隶主 5
奶嘴 5
奶昔 5
好怕 5
好手 5
好找 5
好收成 5
好日子 5
好痒 5
好美 5
好觉 5
如春 5
如期完成 5
妆@@ 5
妆饰 5
妹@@ 5
始于 5
始终@@ 5
委任 5
委托人 5
委派 5
姻缘 5
姿@@ 5
威吓 5
娇气 5
娶@@ 5
婀@@ 5
婚约 5
媒 5
嫌恶 5
嫖@@ 5
子之@@ 5
子孙@@ 5
孔雀 5
孔雀@@ 5
存储器 5
存档 5
孙悟空 5
孢@@ 5
学坏 5
学生会长 5
学风 5
孵出 5
宇 5
守住 5
守候 5
守旧 5
安上 5
安乐 5
安妮 5
安抚 5
安杰 5
安生 5
安着 5
安逸 5
安静下来 5
完会 5
完后 5
完成度 5
完款 5
宏伟 5
官方@@ 5
定向 5
定律 5
定时 5
定理 5
宜居 5
宝库 5
实事求是 5
实例 5
实感 5
实战 5
实权 5
宠@@ 5
审判员 5
审核 5
审理 5
审问 5
审阅 5
客户服务 5
宣称 5
宣讲 5
室友 5
宪 5
害死 5
害臊 5
家务事 5
家务活 5
家居@@ 5
家常@@ 5
家庭教师 5
家有 5
宽恕 5
宽裕 5
寄放 5
密切@@ 5
密布 5
富于 5
寝室 5
寥 5
寸步@@ 5
对不住 5
对本 5
对称 5
对讲机 5
对证 5
对调 5
对贵 5
封口 5
封建思想 5
射出 5
射进来 5
對方 5
小丑 5
小册子 5
小写 5
小哥 5
小型@@ 5
小学@@ 5
小弟 5
小提琴手 5
小時 5
小气 5
小流氓 5
小睡 5
小米 5
小组讨论 5
小绿 5
小考 5
小聪明 5
小肠 5
小节 5
小菜 5
小调 5
小辫子 5
少年时期 5
尖端 5
尘@@ 5
就义 5
就学 5
尽力而为 5
尿床 5
层叠 5
居室 5
屈原 5
届@@ 5
展览馆 5
屡建 5
履行@@ 5
山口 5
山峦 5
山形县 5
山野 5
岂敢 5
岐阜县 5
峭壁 5
峻 5
崖 5
崩@@ 5
崩坏 5
崴 5
巍@@ 5
巍峨 5
川岛 5
州@@ 5
工业区 5
工人@@ 5
工会@@ 5
工会主席 5
工学 5
工时 5
工钱 5
左耳 5
巨人 5
差得 5
已到 5
巴儿 5
巴西@@ 5
巷@@ 5
市场份额 5
市场占有率 5
市面 5
布偶 5
帅@@ 5
希美@@ 5
希腊语 5
带入 5
带头@@ 5
带式 5
帮办 5
帷幕 5
常态 5
常理 5
帽儿 5
幕后@@ 5
干巴 5
干得了 5
干枯 5
平假名 5
平定 5
平底 5
平手 5
平等@@ 5
平素 5
平行@@ 5
年华 5
年幼 5
年景 5
并不一定 5
并发症 5
幸存者 5
幺 5
幼师 5
幼虫 5
幽会 5
幽美 5
幽默感 5
广义 5
广告公司 5
广大群众 5
序幕 5
库@@ 5
应付@@ 5
应尽 5
应诺 5
应邀 5
底稿 5
底细 5
店内 5
废气 5
废水 5
废纸 5
座楼 5
廉洁 5
廓 5
廚@@ 5
延宕 5
建筑师 5
建筑材料 5
建设项目 5
开会时间 5
开到 5
开端 5
开走 5
开赴 5
异地 5
异常情况 5
弃权 5
式子 5
引文 5
弯子 5
弯弯曲曲 5
弯路 5
弱鸡 5
强制@@ 5
强加 5
强加于 5
强烈要求 5
彈 5
归公 5
归咎于 5
归根结底 5
归案 5
归类 5
归纳 5
当兵 5
当班 5
当铺 5
录取@@ 5
录音@@ 5
形体 5
形迹可疑 5
彩色@@ 5
彩霞 5
影视@@ 5
役使 5
彻底@@ 5
彼此@@ 5
往复 5
征程 5
征询 5
征购 5
很响 5
很坏 5
很多年 5
很密 5
很沉 5
很浓 5
很爽 5
很空 5
很辣 5
很远 5
徒然 5
得开 5
得意@@ 5
得病 5
得直 5
微波 5
微生物 5
微调 5
徽 5
心境 5
心如@@ 5
心急 5
心悸 5
心满意足 5
心眼 5
心胸@@ 5
心腹 5
心酸 5
必修 5
必有 5
必須 5
忌妒 5
志士 5
忙乱 5
忠 5
快艇 5
念叨 5
忽悠 5
忽而 5
忽闪 5
怄 5
怄@@ 5
怜惜 5
思想感情 5
思潮 5
急得 5
急救 5
性交 5
性儿 5
性情@@ 5
性认识 5
怪事 5
怪怪 5
怯弱 5
总结@@ 5
总说 5
恤@@ 5
恭贺 5
恼火 5
悠着点 5
悬念 5
悲伤地 5
悲凉 5
悲愤 5
情书 5
情怀 5
情绪高涨 5
惊动 5
惊叫 5
惊奇 5
惊愕 5
惜@@ 5
惜别 5
惟一 5
想住 5
想想看 5
惹事 5
惹人 5
惹人@@ 5
意味@@ 5
意志@@ 5
意料 5
意气用事 5
意气相投 5
感受@@ 5
感应 5
感恩@@ 5
感知 5
感觉@@ 5
愤恨 5
慈善@@ 5
慌慌@@ 5
慎重@@ 5
慕尼黑 5
慨@@ 5
慰劳 5
憋气 5
憨@@ 5
憨厚 5
懂事 5
懈@@ 5
懒得 5
懒汉 5
懒洋洋 5
懦夫 5
成一团 5
成人@@ 5
成家 5
成红 5
我些 5
我付 5
我住 5
我厂 5
我变 5
我哥 5
我常 5
我弹 5
我往 5
我想学 5
我晚 5
我游 5
我省 5
我祝 5
我离 5
我记 5
我边 5
我醒 5
我露 5
戒严 5
战事 5
战俘 5
戥 5
截击 5
截止日 5
戳@@ 5
所得@@ 5
所有权 5
所能 5
手提 5
扎眼 5
扑克 5
扑哧 5
扑打 5
扒拉 5
打个比方 5
打乱 5
打垮 5
打字机 5
打成 5
打磨 5
托业 5
托付给 5
扣留 5
执着 5
扩音器 5
扭伤 5
扶助 5
扶持 5
批次 5
抄写 5
把力 5
把戏 5
把酒 5
抑 5
抒@@ 5
抒发 5
抓起 5
投了 5
投影仪 5
投身 5
抗战 5
抗生素 5
折不@@ 5
折价 5
折服 5
抚摩 5
抛开 5
护住 5
护送 5
报告会 5
报恩 5
报表 5
抬举 5
抵消 5
抹掉 5
抽奖 5
抽时间 5
抽血 5
拆掉 5
拉丁@@ 5
拉拉@@ 5
拉车 5
拉过 5
拉近 5
拍下来 5
拍马 5
拓@@ 5
拗@@ 5
招致 5
拥堵 5
拦住 5
拳脚 5
拷打 5
拼凑 5
拿手菜 5
拿话 5
持续@@ 5
持续增长 5
挂牌 5
指拨 5
指挥棒 5
指明 5
按住 5
按捺不住 5
按理说 5
挎包 5
挎着 5
挑出来 5
挓 5
挚 5
挥手告别 5
挥霍 5
挨打 5
挪开 5
挫 5
挫伤 5
挫败 5
振奋@@ 5
挲 5
捂住 5
捂着 5
捅@@ 5
捆绑 5
捉住 5
捎带 5
捐给 5
换代 5
换取 5
捷报 5
掇 5
授权 5
掉以轻心 5
掌舵 5
掏@@ 5
排名 5
排字 5
排序 5
排放量 5
排水@@ 5
排着 5
排解 5
排长 5
掠过 5
探听 5
探查 5
探测 5
探访 5
接二连三 5
接力@@ 5
控告 5
推卸 5
推定 5
推敲 5
推断 5
推荐信 5
推车 5
掺@@ 5
揄 5
描摹 5
描画 5
提货 5
提起过 5
握手言@@ 5
揩 5
揪@@ 5
搂@@ 5
搅和 5
搋 5
搏 5
搔 5
搜 5
搜刮 5
搞上去 5
搬出去 5
搭载 5
摆好 5
摆放 5
摆渡 5
摇摆 5
摇摆@@ 5
摇摇@@ 5
摞 5
摸不透 5
摸清 5
撂下 5
撑起 5
撒尿 5
撒开 5
撒手 5
撞击 5
撤 5
撤走 5
撩拨 5
播放器 5
撮@@ 5
撮合 5
撸 5
撼动 5
擂@@ 5
擅长于 5
操场上 5
操练 5
操行 5
擎@@ 5
擤 5
支吾 5
支承 5
支支吾吾 5
支棱 5
支歌 5
支流 5
收工 5
收拢 5
收视率 5
收钱 5
改了 5
改姓 5
改良@@ 5
改过 5
攻读 5
放任不管 5
放大镜 5
放射 5
放射性 5
放牧 5
放纵 5
放荡 5
放走 5
放飞 5
故事片 5
救急 5
救灾 5
教他 5
教条 5
敛@@ 5
散发出 5
散地 5
散场 5
散散 5
散热 5
敬仰 5
数额 5
敲门声 5
整容 5
整数 5
整日 5
整编 5
整训 5
整风 5
文凭 5
文化部 5
文档 5
文艺创作 5
斗牛 5
料想到 5
斟@@ 5
断货 5
斯文 5
新世界 5
新买 5
新华书店 5
新品 5
新太 5
新婚 5
新山 5
新意 5
新歌 5
新泻 5
新潮 5
新盖 5
新药 5
新闻记者 5
新风 5
方向盘 5
旁观者 5
旅行社 5
旅途@@ 5
旗袍 5
无业 5
无关@@ 5
无处可@@ 5
无尽 5
无情地 5
无所不@@ 5
无所畏惧 5
无方 5
无条件 5
无法控制 5
无济于事 5
无碍 5
无缘 5
无赖 5
无足@@ 5
无量 5
无间 5
无需 5
日中 5
日光浴 5
日月 5
日照@@ 5
日见 5
旧习 5
早到 5
早婚 5
早早儿 5
旱灾 5
时时刻刻 5
时薪 5
时装 5
时装@@ 5
明摆着 5
明细表 5
昏厥 5
易于 5
昔 5
昔日 5
星际 5
映照 5
映衬 5
昧@@ 5
昭著 5
显明 5
晃晃@@ 5
晃来晃去 5
晃荡 5
晌 5
晒太阳 5
普查 5
智商 5
智谋 5
智障 5
暂时性 5
暂缓 5
暑热 5
暖洋洋 5
暴乱 5
暴涨 5
暴行 5
暴露@@ 5
曝@@ 5
曲曲@@ 5
曲里拐弯 5
更上一层楼 5
更深 5
更生 5
更要 5
更难 5
更高 5
曾多次 5
最低@@ 5
最新消息 5
最爱 5
最高值 5
有功 5
有劲 5
有劳 5
有史以来 5
有待 5
有所不同 5
有把握 5
有方 5
有条 5
有水 5
有点痛 5
有用吗 5
有线@@ 5
有车 5
服务公司 5
服务费 5
朝地 5
朝夕 5
朝气蓬勃 5
期限内 5
木质 5
未婚夫 5
未婚妻 5
未成年 5
末班车 5
本上 5
本儿 5
本职工作 5
本该 5
术语 5
机关枪 5
机耕 5
机舱 5
机遇 5
杀光 5
杂念 5
杂技演员 5
杂烩 5
杂质 5
杂费 5
权主义 5
权力@@ 5
权衡@@ 5
杉@@ 5
杉本铃美 5
李平 5
杜鹃花 5
条件@@ 5
条条 5
条目 5
来付 5
来历 5
来取 5
来客 5
来来往往 5
来杯 5
来路 5
杳@@ 5
板球 5
板着脸 5
极尽 5
果敢 5
枣 5
枯 5
架不住 5
枷锁 5
柏青哥 5
染成 5
染色体 5
柜@@ 5
查清 5
查问 5
柳絮 5
标杆 5
栏@@ 5
栏内 5
树根 5
树梢 5
树皮 5
校车 5
校门口 5
核电 5
根本原因 5
根本性 5
根深蒂固 5
根苗 5
栽种 5
栽赃 5
桀@@ 5
桂林山水 5
桂花 5
桃李@@ 5
桌面上 5
桑 5
档子 5
档次 5
桥墩 5
梗塞 5
梦里 5
梯田 5
检修 5
检察@@ 5
检阅 5
棍儿 5
棚@@ 5
棱角 5
椅@@ 5
植 5
楦 5
業@@ 5
楼顶 5
概念化 5
榨取 5
榫@@ 5
樂 5
横向 5
横穿 5
横穿马路 5
横行 5
樯 5
樱 5
樱木 5
橘 5
橘色 5
橡胶@@ 5
檐下 5
檢@@ 5
次于 5
次日 5
欢心 5
欣喜 5
欧元 5
欧盟 5
款单 5
歇息 5
歌舞 5
正业 5
正前方 5
正巧 5
正常化 5
正是如此 5
正月@@ 5
正正 5
正正@@ 5
正派 5
正说 5
此刻 5
此机会 5
此案 5
步兵 5
步走 5
歧路 5
死党 5
死地 5
死沉 5
死胡同 5
死鬼 5
歼@@ 5
残局 5
残废 5
残疾人 5
残障 5
殖民 5
殖民@@ 5
段落 5
殷切 5
毁坏 5
母亲节 5
毒品 5
毒蛇 5
比作 5
比前 5
比画 5
比重 5
毕业班 5
毗@@ 5
毛发 5
毛巾@@ 5
毛笔字 5
毛茸茸 5
毡@@ 5
气势@@ 5
气场 5
气筒 5
气节 5
氢弹 5
氯 5
水会 5
水力@@ 5
水土 5
水土流失 5
水手 5
水晶@@ 5
水沟 5
水泄不通 5
水火@@ 5
水费 5
永久性 5
汁@@ 5
汆 5
汇到 5
汇编 5
汞 5
江面 5
污染物 5
汤汁 5
汤面 5
沉入 5
沉甸@@ 5
沓 5
沙滩@@ 5
沟@@ 5
沟渠 5
没出 5
没劲 5
没叫 5
没开 5
没得 5
没法用 5
没洗 5
没电 5
没空 5
没考上 5
没读 5
没趣 5
没过 5
沦为 5
沦落 5
沪 5
河口 5
河床 5
河滩 5
河面 5
油压 5
油滑 5
油灯 5
治不好 5
沾边 5
泄密 5
法制 5
法定@@ 5
法式 5
法西斯@@ 5
波浪@@ 5
波特 5
注册费 5
泪花 5
泰语 5
泻@@ 5
洁白 5
洋气 5
洋车 5
洗一洗 5
洗净 5
洗头 5
洗掉 5
洗洗 5
洗衣@@ 5
洗衣粉 5
洗过 5
洛 5
洞口 5
洞窟 5
津津有味 5
活儿干 5
活動 5
活泼@@ 5
洽@@ 5
洽商 5
派头 5
派系 5
流下来 5
流动性 5
流气 5
流浪@@ 5
流眼泪 5
流落 5
浅显 5
浅薄 5
测出 5
济南 5
浑浊 5
浑身@@ 5
浓烟 5
浓缩 5
浙@@ 5
浚 5
浦@@ 5
浩瀚 5
浩繁 5
浪荡 5
浮泛 5
浮躁 5
浮雕 5
海关@@ 5
海岛 5
海岸线 5
涂装 5
涂饰 5
涂鸦 5
消毒@@ 5
消炎 5
消瘦 5
消遣 5
消防员 5
涉猎 5
涔涔 5
涕@@ 5
涟漪 5
润滑油 5
涧 5
涨势 5
淀@@ 5
淅淅沥沥 5
淋巴管 5
淋淋 5
淋漓尽致 5
淡定 5
淡漠 5
淫 5
淬@@ 5
深入群众 5
深层 5
深得 5
深意 5
深浅 5
深邃 5
混战 5
混浊 5
混混 5
混熟 5
清凉@@ 5
清早 5
清明 5
清清 5
清账 5
清贫 5
渔场 5
渔民 5
渔网 5
渗出 5
渠@@ 5
温存 5
温室效应 5
温差 5
温热 5
温顺 5
測@@ 5
游戏吧 5
游记 5
渺小 5
湖泊 5
湾@@ 5
湿地 5
溜边 5
溶解@@ 5
滋养 5
滋长 5
滑动 5
滑落 5
滑雪@@ 5
滔滔 5
滔滔不绝 5
滚回去 5
滞后 5
满分 5
满嘴 5
满座 5
满意度 5
满满地 5
满腔 5
满腹 5
漂漂亮亮 5
漉漉 5
演奏者 5
演得 5
演示 5
演算 5
漠然 5
漩涡 5
潜水@@ 5
澡@@ 5
激战 5
激昂 5
激荡 5
濑 5
濒@@ 5
濒危 5
濛 5
火势 5
火坑 5
火炬 5
火苗 5
火车头 5
火速 5
灯不亮 5
灯塔 5
灯火@@ 5
灯灭了 5
灯笼 5
灵便 5
灵光 5
灼热 5
炉灶 5
炒菜 5
炙烤 5
炭@@ 5
炮制 5
炸鸡 5
点心店 5
点播 5
点水 5
点灯 5
点缀 5
烂掉 5
烂泥 5
烙@@ 5
烙印 5
烛 5
烤箱 5
烧开 5
热心肠 5
热情@@ 5
热气腾腾 5
热热 5
热茶 5
烯@@ 5
烷@@ 5
焉@@ 5
焖 5
焚 5
焰@@ 5
煌@@ 5
煎蛋 5
煤矿 5
照会 5
照常 5
照抄 5
照相@@ 5
照面 5
煩 5
煮饭 5
熄@@ 5
熟习 5
熟读 5
燕 5
爆头 5
爱国 5
爱尔兰 5
爱恋 5
爱抚 5
爱犬 5
爵士@@ 5
爽脆 5
爾@@ 5
片段 5
牙刷 5
牙碜 5
牙龈 5
牛车 5
牢牢 5
物价指数 5
牵着 5
特级 5
特集 5
犒劳 5
状@@ 5
状元 5
犹太教 5
狂暴 5
狂欢节 5
狂笑 5
狄@@ 5
狗叫 5
独唱 5
独裁 5
独裁者 5
独身 5
独轮车 5
狮 5
猖獗 5
猜疑 5
猫猫 5
献花 5
猴 5
玄乎 5
王位 5
王八蛋 5
玩儿@@ 5
玩水 5
环抱 5
现场@@ 5
现场直播 5
现时 5
玲珑 5
珍视 5
珠宝 5
珠穆朗玛峰 5
班子 5
班有 5
球棒 5
球菌 5
理事 5
理性 5
琉@@ 5
琐 5
琐@@ 5
琐碎 5
琼@@ 5
瑞@@ 5
瑟瑟 5
瑶@@ 5
環境 5
瓢@@ 5
瓤 5
瓷 5
甘当 5
甜甜的 5
甜蜜 5
生产指标 5
生产方式 5
生产者 5
生子 5
生怕 5
生意人 5
生活用品 5
產@@ 5
用布 5
用用 5
用笔 5
田园@@ 5
田径比赛 5
田径运动 5
田径队 5
由不得 5
甲型 5
申辩 5
电动汽车 5
电器产品 5
电子商务 5
电子邮箱 5
电扇 5
电极 5
电表 5
电话费 5
电铃 5
电镀 5
男儿 5
男同志 5
男爵 5
甸 5
画册 5
画展 5
画布 5
画成 5
畀 5
畅谈 5
畏缩 5
留情 5
留用 5
留级 5
略加 5
略有 5
番茄酱 5
畫@@ 5
當作 5
畸形 5
疲 5
疹 5
疼@@ 5
病死 5
病能 5
病重 5
痔疮 5
痛处 5
痛感 5
痛楚 5
痛痛快快 5
痛骂 5
痣 5
痴呆 5
瘟 5
瘤子 5
癌@@ 5
癖好 5
白白@@ 5
白白地 5
白花花 5
白费@@ 5
白领 5
百分@@ 5
百分之十 5
百分点 5
百米 5
百般@@ 5
百花@@ 5
百货 5
百货大楼 5
的歌 5
皮划艇 5
皮大衣 5
皮肤病 5
皱@@ 5
盅 5
盐分 5
盐酸 5
监 5
监管 5
盖儿 5
盘剥 5
盘存 5
盛产 5
盛情 5
盤 5
盯住 5
直待 5
直立 5
直至 5
直言 5
直达 5
直通 5
相互理解 5
相互间 5
相好 5
相待 5
相抵 5
相比之下 5
相距 5
省心 5
眉目 5
看一遍 5
看准 5
看家@@ 5
看报 5
看点 5
看管 5
看齐 5
真敢 5
真本事 5
真爱 5
真空 5
真糟糕 5
真货 5
眩晕 5
眷@@ 5
眷顾 5
眼中钉 5
眼珠子 5
眼病 5
眼瞅 5
着头 5
着手于 5
着重于 5
瞌睡 5
瞒不过 5
瞬 5
知事 5
知性 5
知识青年 5
矫健 5
短工 5
短期内 5
短短 5
短裙 5
矮小 5
石灰 5
矿产资源 5
矿泉水 5
矿物质 5
矿藏 5
砍伐 5
研磨 5
砧@@ 5
砰砰 5
破格 5
破败 5
破除 5
硫酸 5
硬实 5
硬席 5
硬邦邦的 5
确保安全 5
确确实实 5
确认书 5
碌 5
碌碌 5
碎掉 5
碑文 5
碗筷 5
碱性 5
碾子 5
磊落 5
磕头 5
磨损 5
磷@@ 5
磷酸 5
示好 5
示威游行 5
示意 5
礼拜二 5
礼拜五 5
社会制度 5
社会治安 5
祥 5
祸根 5
禁运 5
离散 5
离港 5
离过婚 5
离间 5
秀才 5
私塾 5
秃头 5
秋叶原 5
秋后 5
秋雨 5
秒杀 5
秒钟 5
秧儿 5
积德 5
积木 5
积极向上 5
移动@@ 5
稀疏 5
税务师 5
税收 5
税是 5
税法 5
稳健 5
稳妥 5
稳步 5
稽@@ 5
稿费 5
穗子 5
穴位 5
空余 5
空儿 5
空心 5
空心@@ 5
空栏 5
空洞@@ 5
空谈 5
突兀 5
突如其来 5
突然袭击 5
窃取 5
窑 5
窗上 5
窗边 5
窟 5
立业 5
立体@@ 5
立功 5
立定 5
立春 5
立案 5
立正 5
立着 5
立脚点 5
竖立 5
站不稳 5
竟是 5
端庄 5
端详 5
竹刀 5
笑了起来 5
笑语 5
笔墨 5
笔杆 5
笔锋 5
笛声 5
符合@@ 5
第一任 5
第一局 5
第一轮 5
第三天 5
第几次 5
第页 5
等级制度 5
筋骨 5
答卷 5
答谢 5
筹 5
筹集资金 5
签上 5
签了 5
简略 5
算法 5
算错 5
管束 5
篇@@ 5
篙 5
篮球队 5
簇 5
米兰 5
米希尔 5
类别 5
粉身碎骨 5
粉黑 5
粗笨 5
粘性 5
粮食产量 5
粹 5
粽子 5
精光 5
糕@@ 5
糗 5
糜@@ 5
糟粕 5
糠 5
系得 5
系统化 5
素不相识 5
素养 5
素菜 5
素面 5
索要 5
紧接着 5
紧缩 5
結果 5
給我 5
絮絮叨叨 5
統 5
編@@ 5
總 5
總是 5
红了脸 5
红宝石 5
红彤彤 5
红晕 5
红楼梦 5
红火 5
红薯 5
纤巧 5
纤弱 5
约翰逊 5
级别 5
纨@@ 5
纪念@@ 5
纪念碑 5
纪念章 5
纬度 5
纯净 5
纯正 5
纯白 5
纽约@@ 5
线上 5
线图 5
线条 5
细碎 5
细菌性 5
织布 5
经不住 5
经手 5
经济效益 5
经理部 5
经由 5
经纪人 5
经营@@ 5
绑@@ 5
绑架 5
绑腿 5
结婚仪式 5
结核@@ 5
结核病 5
绕圈子 5
绘制 5
绝伦 5
绝密 5
统 5
统一战线 5
统称 5
统计@@ 5
绪@@ 5
绰 5
绳索 5
维他命 5
维尔 5
绵绵 5
绸子 5
绺 5
综合性 5
综合症 5
绿叶 5
缀 5
缄默 5
缉 5
编成 5
编织 5
缝上 5
缠上 5
缠绕 5
缤纷 5
缥缈 5
缰@@ 5
缴付 5
缴款 5
罗盘 5
罚@@ 5
罢@@ 5
罪孽 5
罪孽深重 5
置之@@ 5
署@@ 5
罹@@ 5
美分 5
美得 5
美德 5
美绪 5
美貌 5
群岛 5
翘首@@ 5
翱翔 5
翻译@@ 5
翻过 5
老二 5
老前辈 5
老天爷 5
老师傅 5
老底 5
老手 5
老板娘 5
老爷爷 5
老账 5
老龄化 5
考了 5
考试合格 5
而不@@ 5
而后 5
而生 5
而逃 5
耍弄 5
耍赖 5
耳鼻科 5
耶穌 5
耷拉 5
耸立 5
聋@@ 5
职工@@ 5
聖@@ 5
聘用 5
聚众 5
聪@@ 5
聲 5
聲音 5
職@@ 5
肉食 5
肋 5
肖@@ 5
肚@@ 5
肚皮 5
肝火 5
肠胃 5
股票投资 5
肥大细胞 5
肥皂泡 5
肫 5
育成 5
肿胀 5
胁从 5
胃癌 5
胃里 5
背地里 5
胎儿 5
胜利@@ 5
胜者 5
胡扯 5
胡来 5
胡琴 5
胡说八道 5
胳 5
胳膊肘 5
胸怀@@ 5
胸腺 5
能为 5
能住 5
能动 5
能夠 5
能教 5
脆脆 5
脊背 5
脏水 5
脏话 5
脑中 5
脖儿 5
脚踏@@ 5
脫@@ 5
脸庞 5
脸肿 5
脸膛儿 5
脸蛋 5
脸面 5
腌菜 5
腐化 5
腮 5
腮帮子 5
腰身 5
腰部 5
腰里 5
腱 5
膀@@ 5
膀子 5
膜@@ 5
膞 5
膺 5
自习 5
自修 5
自动@@ 5
自动铅笔 5
自卑感 5
自古 5
自夸 5
自我批评 5
自来 5
自治@@ 5
自然@@ 5
自知之明 5
自给自足 5
自重 5
至此 5
至诚 5
致意 5
舀 5
舒 5
舒缓 5
舞动 5
舞弊 5
舟@@ 5
航天 5
航班信息 5
航运 5
船头 5
良多 5
艰险 5
花丛 5
花圈 5
花坛 5
花店 5
花招 5
花生@@ 5
花篮 5
花言巧语 5
苍老 5
苍苍 5
苍茫 5
苏格兰 5
苗儿 5
苛刻 5
若能 5
苦苦 5
苫 5
英国@@ 5
英姿 5
英寸 5
英语教育 5
英语版 5
茧子 5
茨@@ 5
茫然 5
茵 5
茶色 5
草丛里 5
草帽 5
草料 5
荒芜 5
荚膜 5
荡漾 5
荣升 5
药是 5
莫格 5
莱 5
获救 5
莽撞 5
菜花 5
菜谱 5
菩萨 5
萌@@ 5
萎@@ 5
营业@@ 5
营养师 5
营店 5
萧索 5
萬@@ 5
落寞 5
落差 5
落拓 5
落泪 5
落脚 5
落落 5
落选 5
著名作家 5
葡萄干 5
葬送 5
葱葱 5
蒙着 5
蒙骗 5
蒼蠅 5
蓄水 5
蓝布 5
蓬勃 5
蓬松 5
蔓 5
蕩 5
蕾 5
蕾丝 5
薄冰 5
薄弱 5
薄膜 5
薅 5
薪资 5
藥@@ 5
虚拟@@ 5
虫害 5
虫牙 5
虹@@ 5
虽小 5
虾@@ 5
虾仁 5
蚀@@ 5
蚊蝇 5
蚤 5
蛮干 5
蜂拥而至 5
蜜瓜 5
蜡样 5
蜥蜴 5
蝶@@ 5
螺栓 5
螺钉 5
血泪 5
血糖值 5
血色 5
行不行 5
行为规范 5
行列 5
行动计划 5
行无@@ 5
行礼 5
行行好 5
行踪不明 5
衣料 5
衣食 5
表是 5
表演@@ 5
表現 5
表示@@ 5
表达出来 5
表述 5
表露 5
衰老 5
袅袅 5
袖章 5
裁减 5
裁定 5
裂口 5
裂纹 5
装入 5
装本 5
装箱 5
装饰@@ 5
裆 5
裕@@ 5
裙@@ 5
西亚 5
西北风 5
西洋@@ 5
西面 5
要件 5
要挟 5
要换 5
要涂 5
要读 5
见北 5
见识一下 5
见谅 5
见面会 5
观主义 5
观众们 5
观经济 5
觑 5
角落里 5
解冻 5
解剖 5
解放以前 5
解放战争 5
解毒 5
解释一下 5
言之@@ 5
言谈 5
設計 5
認為 5
誓言 5
論@@ 5
識 5
警卫 5
變@@ 5
计算出来 5
订得 5
认人 5
认生 5
认真对待 5
认真思考 5
认账 5
认路 5
讨人喜欢 5
让人 5
议书 5
记叙 5
记录下来 5
记日记 5
记账 5
讲习班 5
许过 5
论调 5
访问@@ 5
评价者 5
评比 5
识趣 5
诊@@ 5
诊疗 5
词藻 5
译本 5
试吃 5
试映 5
试运行 5
诚 5
诞 5
该选 5
诧异 5
诬陷 5
误事 5
误认为 5
诱骗 5
说不完 5
说声 5
说大话 5
说定了 5
说得@@ 5
说理 5
诵@@ 5
请便 5
请回去 5
请戴 5
请贵 5
请过 5
诸事 5
读法 5
读音 5
课书 5
课后 5
调剂 5
调味汁 5
调料 5
调货 5
谈不上 5
谈吐 5
谈得 5
谈笑 5
谐@@ 5
谐音 5
谒 5
谦@@ 5
谦逊 5
谱写 5
谷穗 5
豆芽 5
豪迈 5
贝 5
贝类 5
贞@@ 5
负于 5
财务部门 5
责难 5
败仗 5
败坏 5
账面 5
货源 5
货轮 5
贩子 5
贪 5
贪心 5
贫弱 5
贬 5
贯 5
贯@@ 5
贯通 5
贸@@ 5
费工夫 5
费时间 5
费解 5
贺卡 5
贺年卡 5
贾 5
赃 5
赃款 5
资企业 5
资料@@ 5
资金周转 5
赎罪 5
赔本 5
赔款 5
赚@@ 5
赠与 5
赤裸裸 5
走神 5
走私@@ 5
走访 5
走边 5
走远 5
走错 5
赵@@ 5
赶先进 5
赶路 5
起家 5
起步 5
起泡 5
起草 5
起誓 5
起货 5
起风 5
趁早 5
超前 5
超大 5
超支 5
超生 5
超重 5
超额 5
超额完成 5
越南语 5
越岭 5
越野 5
趔趄 5
趣事 5
足下 5
足足 5
跑过来 5
距@@ 5
跟进 5
路人 5
路旁 5
路途 5
跳出 5
跳绳 5
跳远 5
跳高 5
踏步 5
踪迹 5
蹄@@ 5
蹩脚 5
躁 5
身体@@ 5
身处 5
躯 5
躲到 5
躲躲 5
车库 5
车时 5
车来 5
车窗 5
转世 5
转到 5
转卖 5
转换成 5
转播 5
转来 5
转正 5
转盘 5
转眼 5
转转 5
转过身 5
轮驱动 5
软席 5
软式 5
软弱@@ 5
轰隆 5
轻量级 5
轻飘飘 5
轿子 5
辄 5
辅@@ 5
辅导员 5
辉日 5
辍学 5
辗转 5
辘辘 5
辛勤@@ 5
辦 5
辨认 5
辩@@ 5
边区 5
边防战士 5
达尔文 5
达意 5
迁移 5
迂回 5
过夜 5
过工 5
过敏反应 5
过活 5
过激 5
过病 5
过继 5
过节 5
迈 5
迈克尔 5
迈向 5
迈进 5
迎着 5
运动场 5
运动鞋 5
近亲 5
近日 5
近路 5
还价 5
还手 5
还来 5
还醒 5
这一@@ 5
这下子 5
这俩 5
这口 5
这待 5
这招 5
这期 5
这枚 5
这架 5
这桩 5
这番 5
这节 5
这花 5
这要 5
进取 5
进款 5
进程 5
进食 5
远望 5
远路 5
远道 5
远道而来 5
违反@@ 5
违心 5
连锁店 5
迟缓 5
迪士尼 5
述@@ 5
迸@@ 5
追逼 5
退一步 5
退会 5
送往 5
送货上门 5
逃命 5
逃学 5
逃荒 5
逃过 5
逃避现实 5
选他 5
选民 5
选派 5
透了 5
逐 5
逐一 5
這些 5
這邊 5
通称 5
通融 5
逝世 5
速写 5
造作 5
造福 5
逮 5
進@@ 5
逶迤 5
逾 5
逾期 5
逾越 5
遂@@ 5
遍布 5
遏制 5
遐@@ 5
遒劲 5
道士 5
遗 5
遗传@@ 5
遗弃 5
遗物 5
遛@@ 5
遠 5
遣散 5
遣返 5
遥遥@@ 5
遮拦 5
遵 5
遵守纪律 5
邃 5
還以 5
那一刻 5
那么些 5
那匹 5
那回事 5
那晚 5
那棵 5
那点 5
那種 5
那算 5
邦交 5
邪念 5
邮筒 5
邮资 5
邻居家 5
邻里 5
邻镇 5
郁@@ 5
郁积 5
郑@@ 5
都还没 5
酗酒 5
酥 5
酥软 5
酬 5
酷刑 5
酿 5
醛 5
醬 5
采取措施 5
采取行动 5
采摘 5
采药 5
里人 5
里外 5
重围 5
重新启动 5
重点高中 5
重置 5
野味 5
野性 5
野鸡 5
野鸭 5
金属板 5
金星 5
金泽 5
针脚 5
钢丝@@ 5
钢筋 5
钢铁厂 5
钱儿 5
钱来 5
铁打 5
铅笔盒 5
铆@@ 5
铰@@ 5
银幕 5
银色 5
银行@@ 5
销售@@ 5
销售价格 5
销售点 5
销行 5
锃亮 5
锄@@ 5
锅中 5
锅台 5
锐敏 5
错别字 5
锤 5
锹 5
镇里 5
长势 5
长椅 5
长篇 5
长篇小说 5
长袖 5
长谈 5
长远@@ 5
长途电话 5
长队 5
門 5
閃 5
门卫 5
门帘 5
门路 5
门道 5
门铃 5
闭上 5
问下 5
问出 5
闯进 5
闰@@ 5
闲事 5
闲散 5
闲杂人等 5
间谍活动 5
间距 5
间隔 5
闹别扭 5
闹矛盾 5
闹翻 5
阐明 5
防尘 5
防护 5
防火 5
防范 5
阳光@@ 5
阳历 5
阴毒 5
阴谋家 5
阵亡 5
阵线 5
阵阵 5
阻塞 5
阻挠 5
阿健 5
阿姬 5
阿拉伯@@ 5
阿拉斯加 5
附录 5
陆军 5
陆地 5
陆离 5
陈列@@ 5
降水 5
限量 5
院内 5
险峻 5
险阻 5
陪审员 5
陪我玩 5
陵园 5
陶艺 5
隆重 5
随处可见 5
隐讳 5
隐隐约约 5
隔板 5
隔膜 5
隶属于 5
难以启齿 5
难保 5
难度 5
难当 5
难点 5
雄健 5
雄心 5
雇员 5
雌雄 5
雏鸟 5
雕琢 5
雞 5
雨雪 5
雪天 5
雪茄 5
零分 5
零星 5
雷劈 5
雷电 5
雷阵雨 5
震怒 5
震灾 5
震耳欲聋 5
霞光 5
露西 5
露骨 5
青年@@ 5
青筋 5
青翠 5
靖 5
非人 5
非凡 5
非常复杂 5
非常感激 5
面上 5
面朝 5
面目@@ 5
革除 5
靶心 5
韧 5
音响@@ 5
頭@@ 5
顧 5
页数 5
顶尖 5
顺其自然 5
顺口 5
顺应 5
顺路 5
顺路去 5
顽症 5
顾不了 5
顾不得 5
预产期 5
预估 5
预防针 5
领事 5
领口 5
领子 5
领情 5
颐和园 5
频 5
频传 5
额上 5
颠簸 5
颤@@ 5
風 5
风中 5
风力 5
风向 5
风吹雨打 5
风景优美 5
风沙 5
风流@@ 5
风湿病 5
风潮 5
风趣 5
风车 5
风雨@@ 5
飘忽 5
飘洒 5
飘落 5
飘零 5
飛 5
飞出去 5
飞到 5
飞得 5
飞船 5
飞走 5
飞速 5
食店 5
饥 5
饲养员 5
馋 5
首页 5
香川 5
香料 5
香花 5
香菇 5
香里 5
香鱼 5
马克@@ 5
马克思主义 5
马屁 5
马蹄声 5
马里 5
驯 5
驯服 5
驰骋 5
驱散 5
驱车 5
驳倒 5
驼@@ 5
驾驶证 5
骂@@ 5
骄傲@@ 5
骄傲自满 5
骇@@ 5
骗过 5
骤然 5
骨力 5
骨子里 5
骸 5
髓 5
高下 5
高举 5
高林君 5
高梁 5
高汤 5
高耸 5
高远 5
高频 5
高高@@ 5
高高兴兴 5
髻 5
鬆 5
魁 5
魁@@ 5
魂@@ 5
魅@@ 5
魇 5
鱼儿 5
鱼子酱 5
鱼虾 5
鱼雷 5
鲍@@ 5
鲜嫩 5
鲜活 5
鲽 5
鳍 5
鸽 5
鹰@@ 5
鹿角 5
鹿鹿 5
麦当劳 5
麻布 5
麻绳 5
麻药 5
麼 5
黄浦江 5
黄牛 5
黄道@@ 5
黄酒 5
黎黑 5
黏着 5
黏糊糊 5
黑手 5
黑洞 5
黑糊糊 5
黑线 5
默不作声 5
默哀 5
黯然@@ 5
鼓噪 5
鼓起 5
鼻息 5
齐备 5
龙灯 5
－ 5
１ 5
９ 5
# 4
10@@ 4
110 4
14@@ 4
1970 4
1987 4
1990 4
1995 4
2.5 4
24@@ 4
36 4
4000 4
48 4
54 4
55 4
5g 4
60@@ 4
700 4
750 4
89 4
93 4
99 4
BOS@@ 4
Boss 4
CV 4
Career 4
Crimson 4
Ernesto 4
FREEZE 4
Facebook 4
Fashion 4
GEL 4
GERMAIN 4
Glo@@ 4
Good 4
HTML 4
Hello 4
Ken 4
LINE 4
LS 4
MA 4
MEGA 4
Ne@@ 4
Patio 4
SAINT 4
SE 4
Santa 4
US@@ 4
Yoljo 4
ame 4
ang 4
ate 4
bi@@ 4
ci@@ 4
cm 4
eb@@ 4
ed@@ 4
enn 4
es 4
ff@@ 4
fight 4
hedge 4
ic@@ 4
ication 4
ing@@ 4
io 4
ion 4
it 4
le 4
li 4
ll@@ 4
mare 4
oc@@ 4
od 4
oo@@ 4
oph@@ 4
orning 4
ra@@ 4
ri@@ 4
se@@ 4
te 4
to 4
tt@@ 4
u 4
ul@@ 4
un@@ 4
utlet 4
℃ 4
○ 4
さ 4
ば 4
ま 4
み 4
も 4
や 4
ラ 4
ル 4
一丈 4
一下头 4
一不留神 4
一个多 4
一个组 4
一举一动 4
一亮 4
一仗 4
一会儿@@ 4
一住 4
一例 4
一册 4
一写 4
一刻@@ 4
一力 4
一升 4
一去不复@@ 4
一坛 4
一堂课 4
一壶@@ 4
一大笔 4
一大跳 4
一字一句 4
一季 4
一年@@ 4
一房 4
一抹 4
一挂 4
一挥 4
一改 4
一数 4
一文不值 4
一斑 4
一无@@ 4
一日之@@ 4
一时冲动 4
一望@@ 4
一杆 4
一栋 4
一步棋 4
一毛@@ 4
一热 4
一瓢 4
一百分 4
一盏 4
一盒 4
一着 4
一石@@ 4
一码 4
一窍不通 4
一窝 4
一等功 4
一等奖 4
一箭@@ 4
一簇 4
一纸 4
一翻 4
一股@@ 4
一览 4
一言不合 4
一言堂 4
一跤 4
一针 4
一锅@@ 4
丁当 4
丁零 4
七上八下 4
七号 4
七大 4
七折 4
七级 4
万不得已 4
万亩 4
万多 4
万斤 4
万美金 4
丈量 4
三万元 4
三下 4
三军 4
三分之二 4
三千米 4
三味@@ 4
三声 4
三振出局 4
三文鱼 4
三斤 4
三本 4
三枚 4
三段 4
三番五次 4
三百元 4
三等@@ 4
三篇 4
三米 4
三级 4
三要素 4
三门 4
上前 4
上千 4
上半场 4
上吊 4
上层建筑 4
上工 4
上年 4
上文 4
上有@@ 4
上查 4
上流 4
上浮 4
上火 4
上级指示 4
上结 4
上色 4
上装 4
上角 4
上访 4
上路 4
上过 4
上风 4
下划线 4
下坡路 4
下定 4
下工夫 4
下有@@ 4
下楼梯 4
下水道 4
下留情 4
下脚 4
下要 4
下辈子 4
下颌 4
下饭 4
不争气 4
不二 4
不亮 4
不人道 4
不仅如此 4
不以 4
不依 4
不公 4
不关 4
不兴 4
不决 4
不分 4
不卖 4
不厌 4
不发 4
不可分割 4
不可收拾 4
不可逾越 4
不唧 4
不回 4
不在@@ 4
不堪设想 4
不太远 4
不失 4
不好过 4
不如意 4
不宁 4
不容分说 4
不寒而栗 4
不尽相同 4
不屈不挠 4
不得要领 4
不忍心 4
不惜@@ 4
不惜一切 4
不成@@ 4
不打@@ 4
不拔 4
不拘 4
不拘@@ 4
不拘小节 4
不择@@ 4
不揍 4
不敢@@ 4
不料 4
不断@@ 4
不断进步 4
不服@@ 4
不治之症 4
不法 4
不法之徒 4
不济 4
不爱@@ 4
不畏 4
不白 4
不着@@ 4
不知其@@ 4
不移 4
不算什么 4
不紧 4
不腻 4
不自在 4
不舍 4
不计 4
不误 4
不调 4
不贵 4
不足之处 4
不轻 4
不透 4
不配 4
不醒 4
不锈钢 4
不错呀 4
不长 4
不难@@ 4
不顾@@ 4
与此同时 4
专业人士 4
专业性 4
专业术语 4
专人 4
专务 4
专卖店 4
专断 4
专栏 4
专科医生 4
专诚 4
世上无难事 4
世代 4
世界冠军 4
世界末日 4
世道 4
世面 4
业余爱好 4
业务员 4
业家 4
丛林 4
丛集 4
东南@@ 4
东奔西@@ 4
东流 4
东风 4
丝线 4
丢开 4
两三年 4
两千年 4
两回事 4
两国@@ 4
两幅 4
两性@@ 4
两扇 4
两方 4
两桶 4
两段 4
两派 4
两班 4
两省 4
两站 4
两者之间 4
两脚 4
两节课 4
两败 4
两路 4
两辆 4
两面派 4
两鬓 4
严办 4
严厉@@ 4
严惩 4
严明 4
严格执行 4
严格要求 4
严禁@@ 4
严紧 4
丧事 4
丧气话 4
个别@@ 4
个头儿 4
个月 4
中不@@ 4
中为 4
中二@@ 4
中人 4
中共@@ 4
中农 4
中医 4
中天 4
中央委员会 4
中央集权 4
中学@@ 4
中层 4
中常 4
中年人 4
中庸 4
中得 4
中心@@ 4
中心思想 4
中档 4
中秋@@ 4
中耳 4
中能 4
中观 4
中计 4
中起 4
中间人 4
丰富@@ 4
丰富多彩 4
丰年 4
丰收@@ 4
丰硕 4
临危@@ 4
临时@@ 4
丹麦 4
为准 4
为国 4
为国@@ 4
为民@@ 4
为辅 4
为重要 4
主动权 4
主将 4
主席团 4
主干 4
主治医生 4
主義 4
主義@@ 4
主题@@ 4
主食 4
丽莎 4
举办活动 4
举手@@ 4
举止@@ 4
乃至 4
义务劳动 4
之以@@ 4
之势 4
之士 4
之夜 4
之子 4
之後@@ 4
之手 4
之日起 4
之时 4
之母 4
之流 4
之源 4
之火 4
之美 4
之能事 4
之言 4
之谈 4
之谜 4
之路 4
之辈 4
之高 4
乌拉圭 4
乌涂 4
乌贼 4
乐于助人 4
乐呵呵 4
乐罗@@ 4
乒坛 4
乘机 4
乙型 4
九天 4
九年 4
九点钟 4
乞讨 4
习作 4
习惯于 4
习惯势力 4
乡下人 4
乡民 4
书信@@ 4
书来 4
书架子 4
书生 4
书画 4
书香 4
买单 4
买手机 4
买过 4
乱写 4
乱分子 4
乱叫 4
乱扣帽子 4
乱用 4
乳液 4
亂 4
了又@@ 4
了然 4
争先 4
争嘴 4
事业单位 4
事发 4
事变 4
事无@@ 4
二两 4
二十八 4
二十几个 4
二十块 4
二十米 4
二千 4
二层 4
二班 4
二重@@ 4
亏得 4
亏本 4
云散 4
云霄飞车 4
互不@@ 4
互相学习 4
互让 4
互通@@ 4
五倍 4
五六@@ 4
五十公里 4
五十岁 4
五千元 4
五口 4
五大洲 4
五尺 4
五年级 4
五彩 4
五指 4
五斤 4
五日 4
五楼 4
五种 4
五金 4
五颜六色 4
井下 4
亘 4
亚利桑@@ 4
亚运会 4
些微 4
些时候 4
亡命 4
交个 4
交割 4
交战 4
交易会 4
交汇 4
交流中心 4
交税 4
交通网 4
交通要道 4
交通警 4
交钱 4
交集 4
产业@@ 4
产业省 4
产卵 4
产品编号 4
亨利 4
亩@@ 4
亮片 4
亮相 4
亮色 4
亲嘴 4
亲密@@ 4
亲昵 4
亲身经历 4
人一 4
人事变动 4
人事科 4
人体@@ 4
人发 4
人口密度 4
人口普查 4
人员@@ 4
人带 4
人往 4
人待 4
人格@@ 4
人民代表 4
人民大会堂 4
人烟稀少 4
人物@@ 4
人種 4
人行横道 4
人进 4
人迹 4
人造黄油 4
人问 4
亿泰哥 4
仁慈 4
仅供 4
仅此而已 4
仇人 4
仇视 4
今年年底 4
从下 4
从中@@ 4
从今开始 4
从头到@@ 4
从桥 4
从现在起 4
从简 4
从贵 4
从这以后 4
仑 4
仔@@ 4
仔仔细细 4
他乡 4
他妈的 4
他怕 4
他游 4
他生 4
他进 4
仗势 4
付现 4
付费 4
仙女 4
仙花 4
仙贝 4
代名词 4
代购 4
以为@@ 4
以资 4
仲@@ 4
价出售 4
仿效 4
企划案 4
企划部 4
伊斯兰 4
伍 4
伏案 4
休会 4
休养@@ 4
休整 4
众望 4
优异@@ 4
优良传统 4
优越感 4
会发 4
会受 4
会后 4
会员制 4
会成 4
会救 4
会有 4
会治好 4
会计准则 4
会过 4
伟人 4
传入 4
传导 4
传布 4
传球 4
传过来 4
传送@@ 4
传阅 4
伤残 4
伤神 4
伤脑筋 4
伯 4
估 4
估量 4
伶仃 4
伸向 4
伸展 4
伸缩 4
伽利略 4
但会 4
低劣 4
低温 4
低烧 4
低矮 4
低音@@ 4
住房@@ 4
住房贷款 4
佐贺 4
体态 4
何苦 4
何足挂齿 4
余波 4
余生 4
余粮 4
佛罗@@ 4
作业@@ 4
作个 4
作乱 4
作假 4
作品@@ 4
作罢 4
作难 4
你会用 4
你学 4
佩戴 4
佯@@ 4
佳作 4
佳肴 4
佳话 4
使劲儿 4
使用方便 4
侉 4
例假 4
例文 4
侍奉 4
供参考 4
供水 4
供认 4
供餐 4
依从 4
依傍 4
依着 4
依靠群众 4
侥@@ 4
侵略战争 4
便宜货 4
便服 4
便池 4
便秘 4
便签 4
俄 4
俄勒冈州 4
俊 4
俊俏 4
俏丽 4
俘获 4
保不住 4
保人 4
保修期 4
保存@@ 4
保险柜 4
信不信 4
信中 4
信以为真 4
信任@@ 4
信口@@ 4
信用调查 4
信访@@ 4
俩@@ 4
修书 4
修得 4
修课 4
修通 4
修配 4
俯瞰 4
倆 4
倒也@@ 4
倒挂 4
倔@@ 4
借阅 4
倫@@ 4
债权@@ 4
值得@@ 4
值班@@ 4
倾销 4
假想 4
偏向 4
偏心 4
偏颇 4
偏食 4
做声 4
做太多 4
做礼拜 4
停产 4
停歇 4
停止使用 4
停职 4
停课 4
停靠 4
健儿 4
健康长寿 4
健说 4
健谈 4
健身 4
偶 4
偷吃 4
傀儡 4
储物柜 4
催眠@@ 4
傷 4
傷@@ 4
傻事 4
傻呵呵 4
傻笑 4
傾@@ 4
働 4
僵化 4
僻静 4
儒 4
儒家 4
優@@ 4
儿童文学 4
兄妹 4
兄弟@@ 4
兄弟俩 4
兄长 4
充值 4
充满活力 4
充滿 4
充钱 4
先人 4
先代 4
先回 4
先头 4
先放 4
先用 4
先觉 4
先说 4
先走 4
先进人物 4
光凭 4
光度 4
光影 4
光耀 4
光芒四射 4
光阴@@ 4
光靠 4
克制 4
克里@@ 4
克里斯 4
免疫@@ 4
免费@@ 4
兑换@@ 4
入世 4
入伙 4
入口处 4
入席 4
入库 4
入梦 4
入部 4
全体会议 4
全党 4
全副@@ 4
全县 4
全套 4
全好 4
全文 4
全权@@ 4
全球性 4
全看 4
全能@@ 4
全貌 4
全身@@ 4
兩人 4
八字 4
八点钟 4
八股 4
公事 4
公交站 4
公共场所 4
公共秩序 4
公务 4
公害 4
公所 4
公民权 4
公的 4
公营 4
公费@@ 4
六万 4
六天 4
六本木 4
六点半 4
六豹 4
共和党 4
共患难 4
共进午餐 4
关上门 4
关东 4
关心群众 4
关着 4
关节炎 4
关键词 4
兴修水利 4
兴味 4
兴致@@ 4
兴许 4
兴趣@@ 4
兵器 4
兵士 4
兵马@@ 4
其他同学 4
其实不然 4
其言 4
典当 4
典雅 4
兹@@ 4
养子 4
养料 4
养活 4
养老院 4
养花 4
兼任 4
内容@@ 4
内皮细胞 4
内行 4
内销 4
内陆@@ 4
再婚 4
再版 4
再试一次 4
冒充 4
冒冒失失 4
冗@@ 4
写写 4
写字@@ 4
写明 4
写照 4
写诗 4
军国主义 4
军官 4
军服 4
农业税 4
农副产品 4
冤大头 4
冬眠 4
冰块 4
冰窖 4
冲击@@ 4
冲锋@@ 4
决不@@ 4
决口 4
决定权 4
冶炼 4
冷不防 4
冷冷地 4
冷却@@ 4
冷却系统 4
冷场 4
冷暖 4
冷炮 4
冷箭 4
冷艳 4
冷藏库 4
冷面 4
准儿 4
准备@@ 4
凉亭 4
凉凉的 4
凉拌 4
凉棚 4
凋零 4
凌空 4
凑个 4
凛@@ 4
凛冽 4
凝思 4
凝血因子 4
几万 4
几件事 4
几份 4
几何 4
几千元 4
几圈 4
几支 4
几斤 4
几滴 4
几点钟 4
几眼 4
凯旋@@ 4
凶器 4
凶犯 4
凸显 4
出个 4
出乎 4
出了门 4
出国@@ 4
出水 4
出游 4
出生年月 4
出生率 4
出界 4
出神 4
出笼 4
出血性 4
出诊 4
出资 4
击倒 4
击战 4
击手 4
函告 4
刀伤 4
刀割 4
刀枪 4
分派 4
分清@@ 4
分离出来 4
分类@@ 4
切不可 4
切勿 4
切忌 4
切碎 4
刑警 4
划艇 4
刚下 4
刚出生 4
刚学 4
刚度 4
刚进 4
创始人 4
创造力 4
初中部 4
初吻 4
初战告捷 4
初级@@ 4
初高中 4
删 4
判明 4
利于@@ 4
利用@@ 4
别名 4
别当真 4
别急 4
别掉 4
别死 4
别碰 4
别称 4
别老 4
别老是 4
别误 4
刮倒 4
到校 4
制伏 4
制片 4
制版 4
制空权 4
刷子 4
刹@@ 4
刺痛 4
刻毒 4
刻薄 4
剂量 4
削价 4
削得 4
前两天 4
前列@@ 4
前前后后 4
前嫌 4
前沿 4
前男友 4
前端 4
前者 4
剔 4
剖腹@@ 4
剧社 4
剪得 4
剪成 4
副食品 4
劈啪 4
劈头 4
劈山 4
劑 4
力戒 4
力所能及 4
力敌 4
劝勉 4
办喜事 4
办妥 4
加倍努力 4
加强锻炼 4
加料 4
加班加点 4
务农 4
劣迹@@ 4
动真格的 4
动着 4
劳教 4
劳资 4
勇士 4
勉励 4
務 4
勤苦 4
勾搭 4
勾销 4
匀实 4
包下来 4
包了 4
包围圈 4
包干 4
包庇 4
包扎 4
匍匐 4
化名 4
化成 4
化疗 4
化验@@ 4
北上 4
北京市 4
北美洲 4
北面 4
匙 4
匪 4
匹马 4
区域@@ 4
医务 4
医务人员 4
医学部 4
医疗机构 4
医科大学 4
医药品 4
十七岁 4
十三 4
十三万 4
十九 4
十九世纪 4
十九岁 4
十二万 4
十二分 4
十五分 4
十五日 4
十佳 4
十八个 4
十六 4
十六@@ 4
十六岁 4
十名 4
十周年 4
十四 4
十多@@ 4
十字 4
十年@@ 4
十成 4
十来 4
十点钟 4
千元 4
千方百计 4
千金@@ 4
升华 4
升学考试 4
升降@@ 4
午饭时间 4
半吊子 4
半数 4
半斤 4
半死 4
半殖民地 4
半百 4
半空 4
华北 4
华里 4
协和 4
卑贱 4
卑鄙@@ 4
卒@@ 4
单上 4
单人房 4
单人间 4
单片 4
单程 4
单行道 4
单靠 4
单项 4
卖国贼 4
卖票 4
卖身@@ 4
南京长江大桥 4
南极 4
南面 4
卡尔加里 4
卧铺@@ 4
卯绪 4
印儿 4
印刷厂 4
印得 4
印有 4
印第@@ 4
危亡 4
危机意识 4
危机感 4
即刻 4
卷心菜 4
卸载 4
厂内 4
厂子 4
厂方 4
厄@@ 4
历史潮流 4
历届 4
压价 4
压得 4
压表 4
厌弃 4
厌气 4
厚实 4
厚脸皮 4
原原本本 4
原地@@ 4
原始森林 4
原封 4
原物 4
原生 4
原田 4
原装 4
厢情愿 4
厮@@ 4
去做 4
县政府 4
县级 4
参半 4
参看 4
参谋长 4
又惊又喜 4
及时@@ 4
友善 4
友好访问 4
友田@@ 4
双人房 4
双人间 4
双全 4
双床 4
双边@@ 4
双重@@ 4
双鞋 4
反动@@ 4
反坦克 4
反复无常 4
反差 4
反手 4
反转 4
发不出 4
发传真 4
发信 4
发冷 4
发凉 4
发到 4
发大水 4
发展@@ 4
发展前途 4
发扬@@ 4
发源 4
发狂 4
发现异常 4
发生@@ 4
发生冲突 4
发电机组 4
发育@@ 4
发言权 4
发软 4
发送信息 4
发送数据 4
发青 4
取名为 4
取向 4
取悦 4
取经 4
取钱 4
受到好评 4
受够 4
受惊 4
受热 4
受苦@@ 4
变压器 4
变天 4
变性 4
变暗 4
变相 4
变长 4
变高 4
叛卖 4
叠起来 4
口之家 4
口井 4
口交 4
口粮 4
口舌 4
口语 4
口风 4
古典小说 4
古典音乐 4
古希腊 4
古文字 4
古玩 4
句话 4
另行通知 4
叨 4
叨叨 4
只卖 4
只怕有心人 4
只求 4
只羊 4
只限 4
叫卖 4
叫屈 4
叫松永 4
叫苦@@ 4
召 4
叮嘱 4
可丽饼 4
可喜可贺 4
可多 4
可惡 4
可真会 4
可着 4
台场 4
右脚 4
号会 4
号称 4
号线 4
号门 4
司令员 4
司令部 4
司法 4
吁 4
吃不上 4
吃喝 4
吃大@@ 4
吃太多 4
吃法 4
吃紧 4
吃苦头 4
各个@@ 4
各方 4
各界人士 4
吆喝声 4
合不@@ 4
合乎@@ 4
合口味 4
合同工 4
合成@@ 4
合法化 4
合理@@ 4
吉斯 4
吉普@@ 4
吉祥 4
吉隆坡 4
吊儿郎当 4
同为 4
同声 4
同學 4
同岁 4
同情心 4
同校 4
同龄人 4
名产 4
名作 4
名牌产品 4
名胜古迹 4
名著 4
后任 4
后半@@ 4
后空翻 4
后者 4
吐气 4
吐露 4
向阳 4
吓坏 4
吝惜 4
吟游 4
吟诗 4
吣 4
吨位 4
含笑 4
含糊其辞 4
听信 4
听闻 4
吭 4
启用 4
吵吵嚷嚷 4
吸取教训 4
吸食 4
吹口哨 4
吹牛 4
吹过 4
吹风 4
呆@@ 4
告密 4
呐@@ 4
员额 4
呛 4
呢@@ 4
呣 4
周刊 4
周天 4
周游世界 4
周知 4
周章 4
周边@@ 4
周遭 4
呱呱@@ 4
呲 4
呵斥 4
呵欠 4
呻吟 4
呻吟声 4
呼吁 4
咄咄@@ 4
和和气气 4
咏@@ 4
咕咚咕咚 4
咕哝 4
咕唧 4
咖啡因 4
咖啡杯 4
咖啡豆 4
咣 4
咣当 4
咲@@ 4
咳@@ 4
哀叹 4
品店 4
品德高尚 4
品牌@@ 4
品行 4
哇哇 4
哈腰 4
哗啦@@ 4
哝 4
哥伦@@ 4
哥儿俩 4
哪一点 4
哪份 4
哪会 4
哪去 4
哪句 4
哭哭啼啼 4
哭闹 4
哺乳 4
唆@@ 4
唐朝 4
唐突 4
唑 4
唤起 4
售票@@ 4
售票机 4
唯物@@ 4
唯物主义 4
唱工 4
唱戏 4
唱着歌 4
唱诗班 4
唾弃 4
商品价格 4
商定 4
商榷 4
啧啧 4
啪啪 4
喀嚓 4
喃 4
喃喃@@ 4
喇@@ 4
喉结 4
喊叫 4
喘气 4
喜人 4
喜气 4
喜色 4
喝得 4
喝药 4
喧嚷 4
喷喷 4
喷气@@ 4
喷洒 4
喷漆 4
喷火 4
喷香 4
喻@@ 4
嗅 4
嗅@@ 4
嗓@@ 4
嗜好 4
嗡嗡 4
嗤 4
嗦嗦 4
嗨哟 4
嗳 4
嘉味田@@ 4
嘎@@ 4
嘟@@ 4
嘟囔 4
嘴尖 4
嘶叫 4
嘻哈 4
嘿@@ 4
嘿哈 4
噎着 4
器重 4
噴@@ 4
嚓 4
嚓@@ 4
嚯 4
四人帮 4
四只 4
四叶草 4
四四方方 4
四围 4
四国 4
四扇 4
四散 4
四海 4
四目 4
四种 4
回击 4
回味 4
回心转意 4
回报率 4
回溯 4
回荡 4
回话 4
回购 4
回顾过去 4
因公 4
因故 4
因缘 4
囤@@ 4
围剿 4
围攻 4
围观 4
固体 4
固守 4
国主义者 4
国产 4
国宝 4
国家主权 4
国泰@@ 4
国界 4
国道 4
国防力量 4
国际主义 4
国际收支 4
国难@@ 4
图样 4
圆咕 4
圆脸 4
圈起来 4
園 4
土产 4
土地@@ 4
土堆 4
土豆@@ 4
圣战者 4
圣日耳曼 4
在历史上 4
在座 4
在握 4
在案 4
在野党 4
圭@@ 4
地主家 4
地价 4
地动 4
地區 4
地叹 4
地基 4
地壳 4
地层 4
地拉 4
地握 4
地放 4
地方色彩 4
地有 4
地活 4
地热 4
地皮 4
地租 4
地而@@ 4
地要 4
地记 4
地质@@ 4
地起 4
地转 4
场里 4
坎儿 4
坎坷 4
坏主意 4
坏消息 4
坐不稳 4
坐困 4
坐堂 4
坐电梯 4
坐船去 4
坐视 4
坐车来 4
坐进 4
坡@@ 4
坡儿 4
坡度 4
坦桑尼亚 4
坯@@ 4
垂头丧气 4
垂询 4
垃圾@@ 4
垃圾桶 4
垄@@ 4
垛@@ 4
垮@@ 4
城乡 4
培养@@ 4
基因@@ 4
基本工资 4
基督教徒 4
基质 4
堂堂 4
堂房 4
堅@@ 4
堆砌 4
堆雪人 4
報 4
塌实 4
塑 4
塔克 4
塔斯@@ 4
塘 4
塞儿 4
塞得 4
塞车 4
填空 4
塾 4
境内 4
墒 4
墙缝 4
增产节约 4
墨盒 4
墨黑 4
壁垒 4
壑 4
声优 4
声儿 4
声张 4
声望 4
声说 4
壳@@ 4
处事 4
处方药 4
处死 4
处理品 4
备尝 4
备考 4
备荒 4
备金 4
复合@@ 4
复数 4
复述 4
夏威夷岛 4
夏收 4
外侮 4
外包 4
外国游客 4
外寇 4
外快 4
外来@@ 4
外汇市场 4
外线 4
外遇 4
外长 4
夙愿 4
多出 4
多发 4
多嘴多舌 4
多学 4
多少岁 4
多得@@ 4
多月 4
多汗 4
多种@@ 4
多种多样 4
多端 4
多部 4
多采 4
夜壶 4
夜幕 4
夜校 4
够不着 4
够劲儿 4
够戗 4
大业 4
大举 4
大事不好 4
大于 4
大众传媒 4
大写 4
大到 4
大卖 4
大发雷霆 4
大号 4
大吵@@ 4
大哭 4
大大提高 4
大好 4
大姑娘 4
大婶儿 4
大寿 4
大展@@ 4
大度 4
大手大脚 4
大排@@ 4
大提琴 4
大梁 4
大气层 4
大浪 4
大清早 4
大点声 4
大狗 4
大猩猩 4
大老粗 4
大而 4
大船 4
大虾 4
大闹 4
大院 4
大雨倾盆 4
大雪纷飞 4
天一 4
天候 4
天山@@ 4
天文 4
天文学 4
天日 4
天气@@ 4
天涯 4
天然@@ 4
天然气 4
天白日 4
天神 4
天要 4
太厚 4
太困 4
太急 4
太惨 4
太暗 4
太漂亮 4
太烫 4
太稀 4
太美 4
太老 4
太薄 4
太轻 4
太辣 4
太陡 4
夭@@ 4
央告 4
失业率 4
失学 4
失明 4
失火 4
失言 4
失足@@ 4
失足青年 4
头去 4
头寸 4
头晕@@ 4
头盖骨 4
头目 4
头羊 4
夺去 4
夺回来 4
奇葩 4
奇袭 4
奇闻 4
奉告 4
奉承话 4
奋力 4
奋斗目标 4
奋起 4
奏曲 4
奔忙 4
奔放 4
奖杯 4
奢@@ 4
奥妙 4
奥巴马 4
奥林匹克@@ 4
奪 4
女厕所 4
女士@@ 4
女性朋友 4
女篮 4
女郎 4
奴役 4
奴隶@@ 4
奴隶社会 4
奶牛 4
好使 4
好几张 4
好好@@ 4
好家伙 4
好心@@ 4
好恶 4
好惹 4
好慢 4
好戏 4
好战 4
好时机 4
好玩儿 4
好端端 4
好象 4
好队 4
如上所述 4
如初 4
如命 4
如泥 4
妇产科 4
妇女@@ 4
妖气 4
妖艳 4
姊妹 4
姐妹俩 4
委书记 4
委内瑞拉 4
姗@@ 4
姜 4
姥@@ 4
姨 4
姿色 4
威逼 4
威震 4
娃@@ 4
娇滴滴 4
娘儿@@ 4
娘炮 4
娜@@ 4
娱乐活动 4
婆娘 4
婆婆妈妈 4
婉 4
婚期 4
婚禮 4
婶 4
媒@@ 4
媚 4
媚@@ 4
媛 4
媳 4
嫁人 4
嫁出去 4
嫉妒心 4
嫣@@ 4
嫩芽 4
嬉戏 4
嬉皮笑脸 4
孔丘 4
字儿 4
字样 4
字面上 4
存入 4
孙中山 4
孜孜@@ 4
孝顺 4
孤军@@ 4
孤苦@@ 4
学习班 4
学分 4
学堂 4
学着 4
学籍 4
学系 4
孪生@@ 4
孬 4
孱@@ 4
孳生 4
學園 4
學生 4
孺@@ 4
守夜 4
守望 4
守法 4
安保 4
安全装置 4
安安静静 4
安德@@ 4
安检 4
安身 4
宋 4
完好 4
完满 4
官吏 4
官架子 4
定了 4
宝座 4
宝藏 4
宝贝@@ 4
宝贵时间 4
实况转播 4
实在@@ 4
实干 4
实用性 4
实证 4
实际@@ 4
实际行动 4
实验性 4
审判@@ 4
审定 4
审慎 4
审计工作 4
客套 4
客栈 4
客观事物 4
宣传部 4
宣傳 4
宣告@@ 4
室内@@ 4
宦@@ 4
宫女 4
宫崎 4
害得 4
宴席 4
宴请 4
家之@@ 4
家信 4
家养 4
家子 4
家家@@ 4
家庭妇女 4
家当 4
家政 4
家教 4
家景 4
家来 4
家电@@ 4
容积 4
宽慰 4
宽松 4
宽绰 4
宽银幕 4
宽限 4
寂@@ 4
寄上 4
寄存处 4
密切联系 4
密密 4
密西西比河 4
密集 4
密集型 4
富农 4
寒冬 4
寒毛 4
寒气 4
寡妇 4
實驗 4
寨子 4
寮 4
对人 4
对半 4
对口 4
对号入座 4
对外@@ 4
对小透 4
对抗@@ 4
对折 4
对敌 4
对立@@ 4
寻人 4
寻思 4
寻找@@ 4
导航 4
封建礼教 4
封建统治 4
封锁线 4
射精 4
將 4
尊崇 4
小两口 4
小人物 4
小伙伴 4
小保 4
小凛 4
小刀 4
小包 4
小卖部 4
小厂 4
小吃@@ 4
小天使 4
小女儿 4
小姐姐 4
小学教师 4
小小年纪 4
小心@@ 4
小手 4
小报 4
小摊 4
小杏 4
小树 4
小混混 4
小火 4
小白@@ 4
小石头 4
小纱 4
小羊 4
小胡子 4
小腿 4
小艇 4
小菜一碟 4
小跑 4
小辫儿 4
小酌 4
小青年 4
少先队 4
少废话 4
少说@@ 4
尔塔 4
尖刀 4
尜 4
就位 4
就此结束 4
就照 4
就绪 4
就范 4
尺子 4
尼亚州 4
尽兴 4
尽到 4
尾儿 4
尾灯 4
局里 4
屁用 4
屁股@@ 4
居于 4
居里夫人 4
屈服于 4
屎@@ 4
屏息 4
屑@@ 4
展会 4
展期 4
展翅@@ 4
展览@@ 4
属狗 4
屡遭 4
屯 4
山岗 4
山崖 4
山洪 4
山洪暴发 4
山红 4
山羊@@ 4
山腰 4
岌@@ 4
岗@@ 4
岗哨 4
岩浆 4
岩濑 4
岳母 4
峥@@ 4
峦@@ 4
峭拔 4
峰骆驼 4
崇敬 4
崎岖 4
崖@@ 4
崩塌 4
嵬 4
巡查 4
工件 4
工伤 4
工伤@@ 4
工作日程 4
工种 4
工程学 4
左倾 4
左手边 4
左撇子 4
巧遇 4
巨浪 4
巨蛋 4
差使 4
差别化 4
巴金 4
巴黎@@ 4
市价 4
市场部 4
市委 4
市容 4
布衫 4
布鲁@@ 4
帆布 4
师爷 4
师表 4
师长 4
希图 4
希奇 4
帐@@ 4
帝王 4
带个 4
带劲 4
带病 4
帧 4
席卷全国 4
席子 4
帮个 4
帶@@ 4
常务@@ 4
常情 4
常数 4
常青 4
幌子 4
幢 4
幫 4
干出 4
干劲@@ 4
干尽 4
干线 4
干越 4
干酪 4
干重 4
平均气温 4
平复 4
平庸 4
平方米 4
平易 4
平板@@ 4
平生 4
年会 4
年少 4
年累月 4
年薪制 4
年金 4
年限 4
年龄段 4
并不@@ 4
并不知道 4
并存 4
并未 4
并用 4
幸子 4
幹 4
幹雄 4
幻 4
幼 4
幼教 4
幽婉 4
幽情 4
幽深 4
广东话 4
广为人知 4
广告费 4
广大@@ 4
广播体操 4
广播电台 4
广播节目 4
广濑 4
庄稼@@ 4
庄稼地 4
庆功宴 4
庇@@ 4
庇荫 4
床边 4
库里 4
应募 4
应变 4
应变@@ 4
应名儿 4
应声 4
应承 4
应用@@ 4
应试 4
庙宇 4
府上 4
废止 4
度假@@ 4
度外 4
度表 4
度计 4
座椅 4
康一@@ 4
廂 4
廉耻 4
廳 4
延缓 4
延请 4
廷 4
建交 4
建筑工地 4
开了个 4
开去 4
开垦 4
开幕词 4
开开心心 4
开心起来 4
开怀@@ 4
开户 4
开手 4
开拓者 4
开河 4
开花结果 4
开荒 4
开药 4
开讲 4
开路 4
开阔@@ 4
异域 4
异己 4
弄到手 4
弄混 4
弓形 4
引人入胜 4
引人注意 4
引以为@@ 4
引以为傲 4
引以为豪 4
引得 4
引逗 4
弟@@ 4
张口 4
张图 4
张大@@ 4
张张 4
弦月 4
弯弯@@ 4
強 4
弹力 4
弹弹 4
弹琴 4
弹簧 4
弹跳 4
强人所难 4
强制性 4
强加@@ 4
强压 4
强奸 4
强心剂 4
强者 4
强词夺理 4
强辩 4
归宿 4
归纳@@ 4
归结 4
归航 4
归队 4
归齐 4
当众出丑 4
当家@@ 4
当期 4
录影@@ 4
形而上学 4
形象@@ 4
彩礼 4
彩绘 4
往上@@ 4
往下掉 4
往南 4
往昔 4
往起 4
征伐 4
征兵 4
征讨 4
征途 4
待业 4
待机 4
徇@@ 4
徇私 4
很久很久 4
很怪 4
很正 4
很美 4
很足 4
很软 4
很静 4
徒劳@@ 4
徒手 4
徒步走 4
得了 4
得奖 4
得当 4
得慢 4
得过 4
御用 4
徽章 4
心不在焉 4
心人 4
心会 4
心像 4
心地@@ 4
心地善良 4
心坎 4
心形 4
心急@@ 4
心情舒畅 4
心术不正 4
心烦 4
心神 4
心神@@ 4
心计 4
心醉 4
心锁 4
必争 4
忍受着 4
忍痛 4
忖@@ 4
志同道合 4
志趣 4
忘光 4
忙忙碌碌 4
忠良 4
忤@@ 4
忧心 4
快些 4
快感 4
快用 4
念起来 4
怀揣 4
怂恿 4
怅@@ 4
怎么@@ 4
怒放 4
怒火@@ 4
怜恤 4
思想体系 4
思想斗争 4
思考问题 4
思虑 4
急遽 4
怦怦 4
性格@@ 4
性状 4
怪圈 4
怪气 4
总产值 4
总体@@ 4
总务处 4
总司令 4
总工程师 4
总想 4
总数 4
恋着 4
恍然大悟 4
恐高 4
恒 4
恢复正常 4
恣情 4
恩典 4
恩爱 4
恩赐 4
恬静 4
恭恭敬敬 4
息肉 4
恰恰 4
恳 4
恳恳 4
恶性肿瘤 4
恶棍 4
恶毒 4
恶霸地主 4
悄@@ 4
悄悄@@ 4
悄然 4
悍@@ 4
患病 4
您@@ 4
悬案 4
悬赏 4
悲惨@@ 4
悼念 4
情况紧急 4
情报@@ 4
情敌 4
情況 4
情由 4
情绪低落 4
情趣 4
惊扰 4
惟有 4
惡@@ 4
惦@@ 4
惨叫 4
惨淡 4
惨痛 4
惨白 4
惨遭 4
惬@@ 4
惯常 4
想不开 4
想个办法 4
想太多 4
想曲 4
想错 4
惶惑 4
惹不起 4
惹恼 4
愁苦 4
愈@@ 4
愈发 4
意外@@ 4
意外事故 4
意式 4
意见@@ 4
意译 4
愛 4
愛爾蘭 4
感情用事 4
感触 4
愤懑 4
愤激 4
愤然 4
愿心 4
慈母 4
態度 4
慌乱 4
慌忙 4
慎 4
慑 4
慑服 4
慢待 4
慢性@@ 4
憾 4
戀愛@@ 4
戆@@ 4
戈@@ 4
戈比 4
戎马@@ 4
戏曲 4
戏谑 4
成千上万 4
成堆 4
成套设备 4
成正比 4
成语 4
我交 4
我伤 4
我俩 4
我入 4
我和@@ 4
我姐 4
我市 4
我种 4
我订 4
我选 4
戒律 4
战争贩子 4
战刀 4
战抖 4
战斗英雄 4
战果 4
戮 4
户头 4
户籍 4
戾 4
房客 4
房屋@@ 4
所向无敌 4
所得 4
所想 4
所料 4
所迫 4
扇形 4
手工业 4
手工艺品 4
手术@@ 4
手术室 4
手机@@ 4
手机号 4
手来 4
手柄 4
手球 4
手语 4
手软 4
手边 4
扎针 4
扑棱 4
打不@@ 4
打击乐器 4
打击报复 4
打卡 4
打听一下 4
打哈欠 4
打喷嚏 4
打埋伏 4
打定主意 4
打成一片 4
打战 4
打水 4
打灯笼 4
打烊 4
打电报 4
打算盘 4
打翻 4
打草稿 4
打输 4
打飞 4
打高达 4
扔进 4
托出 4
托管 4
托词 4
托运 4
扛着 4
扣押 4
执 4
执政党 4
执法@@ 4
执笔 4
执著 4
扫帚 4
扫雪 4
扬声器 4
扬扬 4
扬起 4
扳手 4
扶住 4
扶梯 4
扶植 4
批示 4
批评家 4
批货 4
扼杀 4
扼要 4
找会 4
找寻 4
找钱 4
承办 4
技师 4
技术改造 4
技术水平 4
技法 4
抄家 4
抄送 4
抉择 4
抓得 4
投出 4
投奔 4
投射 4
投放 4
投缘 4
投诚 4
投资人 4
投靠 4
抖动 4
抖搂 4
抖索 4
抗击 4
抗癌 4
折叠@@ 4
折扣店 4
抛锚 4
抢险 4
护养 4
报废 4
报机 4
报请 4
抨击 4
抬高 4
抱不平 4
抹杀 4
抽泣 4
拂拂 4
拆散 4
拆穿 4
拉丁语 4
拉倒 4
拉圾 4
拉夫 4
拉开@@ 4
拉德福 4
拉拉扯扯 4
拉着 4
拉走 4
拉长 4
拍到 4
拍手@@ 4
拍拍 4
拐走 4
拓 4
拖下去 4
拖后腿 4
拖拉机@@ 4
拖欠 4
拖沓 4
拖累 4
拖车 4
拚命 4
招展 4
招工 4
招式 4
招待@@ 4
招待所 4
招收 4
招架 4
招考 4
招聘@@ 4
招领 4
拜会 4
拟人@@ 4
拟订 4
拣@@ 4
拥塞 4
拥抱着 4
拥着 4
拧上 4
拨开 4
择偶 4
拷贝 4
拷问 4
拼音@@ 4
拾起 4
拿不定 4
拿不起来 4
拿掉 4
拿稳 4
持有人 4
挂彩 4
挂满 4
挂钩 4
指南@@ 4
指名 4
指导方针 4
指战员 4
指挥者 4
指控 4
指路 4
指针 4
指靠 4
挈 4
挑战@@ 4
挑战者 4
挟 4
挠@@ 4
挡不住 4
挣脱 4
挤压 4
挨户 4
挨饿 4
挫@@ 4
振兴@@ 4
挺大 4
挺秀 4
挺立 4
挺进 4
捂@@ 4
捉拿@@ 4
捏造@@ 4
捕到 4
换人 4
换掉 4
换来 4
换班 4
捣蛋 4
据此 4
据理 4
捲 4
掀开 4
授意 4
授课 4
排气 4
排水 4
排水管 4
排涝 4
排球比赛 4
排行榜 4
掛 4
掠@@ 4
接上 4
接下 4
接任 4
接合 4
接待处 4
接待室 4
接收@@ 4
接替 4
接管 4
接线员 4
接见 4
推到 4
推却 4
推理小说 4
推算 4
掰断 4
掷@@ 4
掷铁饼 4
掼 4
提出异议 4
提前@@ 4
提单 4
提名 4
提得 4
提纲 4
提高警惕 4
插队 4
揪住 4
揪心 4
揭晓 4
援手 4
援救 4
搀 4
搁下 4
搁不下 4
搁不住 4
搁浅 4
搅拌机 4
搌 4
損@@ 4
搞坏 4
搞垮 4
搞对象 4
搪塞 4
搬东西 4
搬迁 4
搭个 4
搭伙 4
搭搭 4
搭理 4
携手 4
搾 4
摄像 4
摆动 4
摆摊子 4
摔得 4
摘掉 4
摩天@@ 4
摸不着头脑 4
摹 4
摽 4
撒满 4
撤消 4
撤离 4
撬 4
撬@@ 4
播下 4
撰写 4
擁@@ 4
擅自行动 4
擊@@ 4
操作规程 4
操纵@@ 4
擒 4
擦屁股 4
擦擦 4
擦肩而过 4
支农 4
支持@@ 4
支气管 4
支气管炎 4
收不到 4
收住 4
收容所 4
收效 4
收款人 4
收盘@@ 4
收盘价 4
收看 4
收购价格 4
攸关 4
改变@@ 4
改变现状 4
改换 4
改正过来 4
改组 4
改行 4
改观 4
改革开放 4
攻击@@ 4
攻击力 4
放上 4
放久 4
放哨 4
放在@@ 4
放声大哭 4
放射性@@ 4
放屁 4
放映@@ 4
放烟火 4
放轻 4
放风 4
效劳 4
效率高 4
敌后 4
敌对@@ 4
敌手 4
敌方 4
救灾物资 4
救生 4
救生圈 4
教义 4
教委 4
教我如何 4
教练员 4
教育学 4
教育家 4
教育界 4
敛 4
散乱 4
散散心 4
敬候 4
敬老院 4
敬请@@ 4
数千@@ 4
数字@@ 4
数学家 4
数学题 4
数百万 4
数百年 4
整备 4
整形@@ 4
整饬 4
敷衍@@ 4
文件名 4
文体 4
文具店 4
文学创作 4
文本@@ 4
文盲 4
文艺作品 4
文选 4
文集 4
文革 4
文风 4
斗不过 4
斗志昂扬 4
斗牛士 4
斗量 4
斧头 4
断绝@@ 4
斯卡 4
斯坦 4
新人新事 4
新到 4
新婚旅行 4
新居 4
新换 4
新星 4
新生儿 4
新的一页 4
新禧 4
新装 4
新郎新娘 4
方方 4
方程式 4
施放 4
旅居 4
旅游景点 4
旅费 4
旋绕 4
族人 4
旗手 4
无一 4
无从@@ 4
无价 4
无休止 4
无依无靠 4
无关紧要 4
无可争辩 4
无可救药 4
无妨 4
无完@@ 4
无度 4
无形资产 4
无忧无虑 4
无意间 4
无愧于 4
无日 4
无期徒刑 4
无法回答 4
无法形容 4
无法挽回 4
无烟@@ 4
无精打采 4
无线@@ 4
无能为力 4
无表情 4
无论谁 4
无话@@ 4
无路可@@ 4
无边无际 4
无遗 4
无门 4
无限期 4
日制 4
日志 4
日报 4
日新月异 4
日晒 4
日本式 4
日来 4
日益@@ 4
日裔 4
旧物 4
旧车 4
早产儿 4
早班 4
早稻 4
早说 4
旮旯@@ 4
时不@@ 4
时局 4
时才 4
时装模特 4
时说 4
时起 4
时针 4
时长 4
旺旺 4
昂 4
明早 4
明朝 4
明灯 4
明示 4
明说 4
昏庸 4
昏沉 4
昏迷@@ 4
易地 4
易手 4
易碎 4
昙@@ 4
星夜 4
星子 4
映着 4
映红 4
春夏秋冬 4
春日 4
春秋@@ 4
昧心 4
显性 4
晃悠 4
晓示 4
晚一点 4
晚交 4
晚宴 4
晚才 4
晚来 4
晤@@ 4
晦气 4
普及@@ 4
普普通通 4
景致 4
晴空 4
晶 4
智利 4
智力@@ 4
智能@@ 4
智香 4
暖暖的 4
暗地里 4
暗杀 4
暗礁 4
暗示着 4
暗藏 4
暮 4
暴力@@ 4
暴走 4
暴躁 4
暴风雪 4
曲解 4
更动 4
更变 4
更少 4
更美 4
更近 4
更长 4
曹@@ 4
曹操 4
曾住 4
最优化 4
最会 4
最受 4
最多能 4
最大化 4
最想 4
最新@@ 4
最短 4
最起码 4
最高分 4
最高法院 4
會來 4
月台 4
月子 4
月季花 4
月度 4
月经@@ 4
有两下子 4
有事吗 4
有利@@ 4
有声 4
有奖 4
有如 4
有幸 4
有条@@ 4
有氧 4
有生之年 4
有的是 4
有眼力 4
有神 4
有线 4
有话@@ 4
有话要说 4
有说有笑 4
有鬼 4
服从组织 4
服务区 4
服务生 4
服务部 4
服役 4
朔@@ 4
朝前 4
朝天 4
朝廷 4
期中考试 4
木下 4
木制 4
木柴 4
木桶 4
木船 4
未付 4
未免太 4
未婚 4
未定 4
未尝 4
未干 4
未成年人 4
未经许可 4
末儿 4
末梢 4
末路 4
本位 4
本分 4
本心 4
本文 4
本案 4
本着 4
本色 4
本院 4
札 4
机动 4
机动车 4
机密@@ 4
机智 4
杀人案件 4
杀伐 4
杀出 4
杀菌 4
杂凑 4
杂着 4
杂音 4
杂项 4
杂食 4
权是 4
权法 4
权益 4
杆儿 4
杏仁@@ 4
杏儿 4
村落 4
杖 4
杜 4
杜王鎮 4
杜绝 4
杜鹃 4
杞纱@@ 4
束手@@ 4
条文 4
来函 4
来势@@ 4
来得快 4
来来@@ 4
来稿 4
杨柳 4
杪 4
杰克逊 4
東@@ 4
松垮 4
松松垮垮 4
松林 4
松永@@ 4
松软 4
极其重要 4
极品 4
极点 4
析@@ 4
林子 4
林木 4
林间 4
果品 4
果然如此 4
枝头 4
枢@@ 4
枫叶 4
枯叶 4
枯燥 4
架设 4
柏拉图 4
柏油 4
某某 4
某种意义 4
染料 4
柔媚 4
柔软@@ 4
柔顺 4
查一查 4
查办 4
查究 4
标号 4
标有 4
树长 4
栖身 4
校风 4
栩栩@@ 4
样机 4
样板 4
核桃@@ 4
根子 4
根烟 4
格言 4
桅@@ 4
桐@@ 4
桔@@ 4
桨 4
梃 4
梢儿 4
梯队 4
械斗 4
检定 4
棍球 4
棒球帽 4
棒球赛 4
棕色 4
森林@@ 4
森然 4
棵@@ 4
椎 4
楔@@ 4
楞@@ 4
楼层 4
楼梯@@ 4
概不 4
概况 4
榆树 4
槌 4
模型@@ 4
模子 4
模模糊糊 4
模糊不清 4
模范@@ 4
横幅 4
横生 4
樱@@ 4
樹 4
橐 4
橙 4
橙色 4
橹 4
檸檬 4
權@@ 4
欢乐@@ 4
欢声雷动 4
欢畅 4
欢聚 4
欢迎@@ 4
欢送 4
欣然@@ 4
欧森 4
欲速@@ 4
欺瞒 4
款人 4
歇业 4
歉收 4
歌唱家 4
歐洲 4
止咳药 4
止步 4
正儿八经 4
正合我意 4
正因 4
正因如此 4
正坐 4
正当行为 4
正愁 4
正浓 4
正确理解 4
正赶上 4
正身 4
正音 4
此文 4
步前进 4
步行者 4
武功 4
歪歪 4
死去活来 4
死神 4
残存 4
残杀 4
殖@@ 4
殖民主义 4
段@@ 4
殷殷 4
殺 4
殿@@ 4
毁灭性 4
毅 4
毋庸@@ 4
母乳 4
母马 4
每件 4
每户 4
每股 4
毒手 4
毒药 4
比一比 4
比特 4
比肩 4
比赛@@ 4
比较忙 4
毕露 4
毛子 4
毛孔 4
毛料 4
毛织品 4
毛虫 4
毫不掩饰 4
毯子 4
民主革命 4
民工 4
民房 4
民政策 4
民族特色 4
民间艺术 4
气候@@ 4
气喘 4
气死@@ 4
气焰 4
氟 4
氟@@ 4
氢气 4
氣氛 4
水下 4
水从 4
水利@@ 4
水域 4
水天 4
水洼 4
水溶液 4
水滴 4
水牛 4
水磨@@ 4
水草 4
水资源 4
水车 4
水里@@ 4
永无 4
永生 4
求和 4
求职者 4
汉日 4
汗液 4
汗珠 4
汗衫 4
汛 4
汛@@ 4
江南 4
江河 4
決 4
汽 4
沉寂 4
沉没 4
沉淀 4
沉船 4
沉落 4
沉闷 4
沒關 4
沙丘 4
沙土 4
沙沙 4
沙特阿拉伯 4
沙锅 4
沟里 4
没上 4
没人敢 4
没命 4
没好 4
没少 4
没工夫 4
没用过 4
没病 4
没精打采 4
没良心 4
没说的 4
没货 4
没道理 4
没钱 4
没长 4
没门儿 4
沢 4
沥 4
沥@@ 4
沦陷 4
沧@@ 4
沫@@ 4
河北省 4
河南 4
油井 4
油布 4
油彩 4
油条 4
油渍 4
油箱 4
油轮 4
治伤 4
治学 4
治愚 4
治疗法 4
治穷 4
沼 4
沾手 4
沾湿 4
沿河 4
沿海@@ 4
泅@@ 4
泌尿@@ 4
法中 4
法师 4
法来 4
法治 4
法纪 4
泡泡@@ 4
波及 4
波斯@@ 4
波涛汹涌 4
波澜@@ 4
泣@@ 4
泥巴 4
泥浆 4
泥石流 4
泥里 4
注定 4
泪下 4
泪珠 4
泪痕 4
泰 4
洁净 4
洋基队 4
洋洋@@ 4
洋货 4
洒满 4
洒脱 4
洗出来 4
洗劫 4
洗涤 4
洗碗 4
洗碗@@ 4
洗练 4
洗衣店 4
洗雪 4
洛克 4
洞察力 4
洞庭湖 4
洞穴 4
活化 4
活命 4
活来 4
活计 4
活路 4
派别 4
派司 4
派性 4
派生 4
流亡 4
流亡@@ 4
流动资金 4
流氓@@ 4
流浪汉 4
流浪者 4
流畅地 4
流落@@ 4
流行性 4
流转 4
流通@@ 4
浅近 4
浆洗 4
浇灌 4
浇铸 4
浊 4
浊@@ 4
测器 4
测试@@ 4
浑蛋 4
浑身上下 4
浑身是@@ 4
浓淡 4
浓重 4
浩大 4
浩浩荡荡 4
浪头 4
浪尖 4
浮夸 4
浮游@@ 4
浮漂 4
浮着 4
海之家 4
海内 4
海口 4
海山 4
海水浴场 4
海洋@@ 4
海牛 4
海盗 4
海盗@@ 4
海苔 4
涂满 4
涂炭 4
消受 4
消息灵通 4
消耗品 4
消费品 4
消释 4
消防队员 4
涌向 4
涌起 4
涎 4
涡轮 4
润泽 4
润滑 4
液晶@@ 4
涵养 4
淆@@ 4
淋巴 4
淋巴结 4
淑女 4
淡季 4
淡忘 4
淡雅 4
淤塞 4
淤积 4
淫乱 4
淫威 4
淫荡 4
淮河 4
深山@@ 4
深水 4
深爱着 4
深秋 4
深究 4
深蓝色 4
深表 4
深表遗憾 4
淳@@ 4
混淆@@ 4
混进 4
添上 4
清代 4
清冷 4
清廉 4
清汤 4
清瘦 4
清真寺 4
清蒸 4
渐 4
渔利 4
渔村 4
渗入 4
渝 4
温习 4
温润 4
温馨 4
温驯 4
渴求 4
游击队员 4
游到 4
游动 4
游手好闲 4
游斗 4
游方 4
游牧@@ 4
游离 4
渺@@ 4
湖上 4
湖畔 4
湮没 4
湿布 4
湿淋淋 4
源源@@ 4
溜冰 4
溜圆 4
溪流 4
溫@@ 4
溶于 4
滋事 4
滋润 4
滋滋 4
滋生 4
滋贺 4
滑坡 4
滑翔机 4
滚动 4
滚圆 4
滚蛋 4
满地 4
满头 4
满开 4
满怀@@ 4
满目 4
满眼 4
满足条件 4
滴沥 4
漂移 4
漆器 4
漏出 4
漏掉 4
演了 4
演員 4
演绎 4
漫画书 4
漱@@ 4
漾 4
潜伏@@ 4
潜逃 4
潟 4
潦@@ 4
潭@@ 4
潲 4
潸@@ 4
潺潺 4
澡后 4
澥 4
激动@@ 4
濒临 4
濒于 4
濡@@ 4
灌木丛 4
灌注 4
灌溉@@ 4
火儿 4
火头 4
火海 4
火灾@@ 4
火烧@@ 4
火种 4
火险 4
火鸡 4
灭火器 4
灭种 4
灭迹 4
灯下 4
灰溜溜 4
灵灵 4
灼 4
災 4
灾民 4
灾祸 4
灿灿 4
炉火 4
炊事 4
炊事员 4
炔 4
炖菜 4
炙@@ 4
炝 4
炮兵 4
炸开 4
点半@@ 4
点头@@ 4
点缀着 4
点菜 4
為止 4
炽烈 4
烂摊子 4
烈士@@ 4
烈士墓 4
烈酒 4
烊 4
烙饼 4
烟叶 4
烟灰 4
烟熏 4
烤鸡 4
烦死人 4
烧得 4
烧死 4
烫手 4
热天 4
热情帮助 4
热情高涨 4
热死 4
热烈@@ 4
热烈欢迎 4
热热闹闹 4
热而 4
热辣辣 4
烹 4
烹@@ 4
烽@@ 4
烽火@@ 4
焚烧 4
無 4
焰火晚会 4
然大@@ 4
然後@@ 4
煤球 4
照明@@ 4
照映 4
照进去 4
煨 4
煮熟 4
煽@@ 4
熄 4
熏染 4
熟女 4
燃机 4
燈@@ 4
燒定 4
營@@ 4
爆炸@@ 4
爆破 4
爆破@@ 4
爪@@ 4
爬上去 4
爬上来 4
爬山@@ 4
爬山虎 4
爬起来 4
爱国主义 4
爱多 4
爱是 4
爱死 4
爱爱 4
爱用 4
爵 4
父亲节 4
父子@@ 4
父母@@ 4
爽口 4
爽爽快快 4
片假名 4
片断 4
片面性 4
版面设计 4
牌货 4
牙痛 4
牙膏 4
牛皮 4
牛粪 4
牛肉干 4
牛脾气 4
牡丹 4
牡丹@@ 4
物力 4
牵制 4
牵动 4
牵掣 4
牵牛花 4
牵累 4
特写 4
特效药 4
特此@@ 4
特约@@ 4
特训 4
牺牲@@ 4
犊@@ 4
犹太 4
狀@@ 4
狂妄自大 4
狗熊 4
狗腿子 4
狠命 4
狡@@ 4
狡诈 4
独居 4
独有 4
独木舟 4
独立思考 4
狮子@@ 4
狸 4
狸@@ 4
狼吞虎咽 4
狼藉 4
猎杀 4
猎枪 4
猎狗 4
猖狂 4
猛攻 4
猩@@ 4
猪圈 4
猫头鹰 4
献词 4
猴儿 4
猿 4
猿人 4
獎 4
玄妙 4
玉米粒 4
王法 4
玍 4
玛 4
玩嘛 4
玩开 4
环境@@ 4
环绕 4
现代人 4
珍品 4
珍奇 4
珍爱 4
珍珠@@ 4
珠算 4
班制 4
理事长 4
理屈 4
理想@@ 4
琴声 4
瓜葛 4
瓦瓦 4
甘蔗@@ 4
甚远 4
甜味 4
生事 4
生产日期 4
生产能力 4
生啤酒 4
生存@@ 4
生态平衡 4
生息 4
生意兴隆 4
生日派对 4
生殖器 4
生水 4
生活作风 4
生活道路 4
生理@@ 4
生理期 4
生路 4
生非 4
用不上 4
用以 4
用光 4
用刀 4
用劲 4
用卡 4
用工 4
用火 4
由谁来 4
甲壳@@ 4
甲状腺 4
申请表 4
电厂 4
电器店 4
电子词典 4
电影剧本 4
电机 4
电气@@ 4
电流@@ 4
电源线 4
电炉 4
电焊@@ 4
电熨斗 4
电磁炉 4
电话亭 4
电话响 4
男女关系 4
男女平等 4
男校 4
男演员 4
画具 4
画好 4
畅游 4
畏怯 4
畏避 4
畏难 4
留点 4
留言@@ 4
畜生 4
略略 4
番话 4
異@@ 4
疏阔 4
疑问@@ 4
疑难@@ 4
疙疙瘩瘩 4
疟@@ 4
疫@@ 4
疯子 4
疲塌 4
疼爱 4
病变 4
病员 4
病好 4
病是 4
病根 4
病治好 4
病状 4
病理学 4
痛哭 4
痛而 4
痢疾 4
痴呆症 4
瘆 4
瘟@@ 4
療 4
癞@@ 4
登山@@ 4
登山者 4
登山队 4
發展 4
白昼 4
白晃晃 4
白杨树 4
白毛女 4
白灰 4
白皮书 4
白种人 4
白糖 4
白纸 4
白茫茫 4
白蒙蒙 4
白话文 4
白面 4
百万@@ 4
百家 4
百年@@ 4
百般 4
皇上 4
皮包公司 4
皮特 4
皱着眉头 4
皱起 4
皿 4
盂兰盆会 4
盆景 4
盏灯 4
盐水 4
盔 4
盖起来 4
盗窃@@ 4
盘查 4
盘桓 4
盛会 4
盛况 4
盛开着 4
目光@@ 4
目标值 4
盲肠炎 4
直入 4
直往 4
直截 4
直挺挺 4
直接@@ 4
直接经验 4
直流 4
直溜 4
直球 4
直角 4
直译 4
直走 4
相亲相爱 4
相似@@ 4
相对@@ 4
相性 4
相接 4
相映 4
相知 4
相结合 4
相聚 4
相间 4
盼头 4
盾@@ 4
省去 4
省得 4
看个 4
看招 4
看牙 4
看破 4
真不@@ 4
真不容易 4
真不少 4
真伪 4
真假 4
真叫 4
真多 4
真实@@ 4
真差 4
真早 4
真甜 4
真相大白 4
眼圈 4
眼底 4
眼底下 4
眼目 4
眼眶 4
眼睫毛 4
眼见 4
眼馋 4
睁开眼 4
睡不醒 4
睡够 4
睡好 4
睡觉时间 4
睡魔 4
督 4
睬 4
瞧不起人 4
瞪@@ 4
瞻 4
瞻仰 4
瞻望 4
矛 4
矛头 4
矜@@ 4
知不知道 4
知底 4
知悉 4
知趣 4
矫@@ 4
矬 4
短促 4
短浅 4
短程 4
短缺 4
短距离 4
短路 4
矮胖 4
石刻 4
石壁 4
石子 4
石碑 4
矿产 4
矿工 4
研究@@ 4
研究成果 4
研究班 4
研究课题 4
砥@@ 4
破坏@@ 4
破获 4
硝@@ 4
硝烟弥漫 4
硫 4
硬件 4
硬撑 4
硬朗 4
硬棒 4
硬硬 4
确当 4
碌@@ 4
碎布 4
碎末 4
碜 4
碰壁 4
碰头会 4
碰过 4
碰运气 4
碱@@ 4
碴 4
確@@ 4
碾 4
磁 4
磅礴 4
磋商 4
磕磕@@ 4
磨不开 4
磨牙 4
磨磨蹭蹭 4
磨难 4
磷酸@@ 4
礦 4
礼拜三 4
社会保险 4
社会保障 4
社会风气 4
祈福 4
祖传 4
祝词 4
神异 4
神清气爽 4
神秘@@ 4
祭坛 4
祸事 4
祸首 4
禁令 4
禁锢 4
禁闭 4
禄 4
福气 4
离心 4
离退休 4
禽@@ 4
禾@@ 4
私募 4
私愤 4
私有@@ 4
私用 4
私立学校 4
私舞弊 4
私货 4
秆 4
秉性 4
科學 4
科室 4
科班 4
科研工作 4
秒@@ 4
秘 4
租房子 4
租给 4
秧歌 4
积了 4
积极因素 4
积水 4
称心 4
称霸 4
稀有@@ 4
稀松 4
稀泥 4
稀烂 4
稀疏@@ 4
程序@@ 4
程序设计 4
稍晚 4
税制 4
稳定下来 4
稳定性 4
稳当 4
稳稳 4
稳练 4
稻草人 4
穴@@ 4
穷困 4
穷困潦倒 4
空中@@ 4
空房 4
空气污染 4
空气清新 4
空白处 4
空落落 4
空话 4
穿梭 4
穿著 4
窃笑 4
窗台上 4
窘迫 4
窝藏 4
窸 4
立修 4
立地 4
立方米 4
立法@@ 4
立过 4
竜 4
竞走 4
竟会 4
章法 4
竭 4
竭尽所能 4
端上来 4
竹笋 4
笑容@@ 4
笑骂 4
笔录 4
笔杆子 4
笔芯 4
笔调 4
笠 4
笤帚 4
符@@ 4
符合要求 4
第一周 4
第一年 4
第一批 4
第一部 4
第一页 4
第一项 4
第三条 4
第三种 4
第二名 4
第二张 4
第六 4
笼屉 4
等闲视之 4
筋@@ 4
筐子 4
筑地 4
筑巢 4
答如流 4
答话 4
筛子 4
筝 4
筹码 4
筹集 4
签儿 4
签到 4
签订@@ 4
简了 4
简单@@ 4
简朴 4
简练 4
算术 4
算进去 4
管不了 4
管不着 4
管理体制 4
管理制度 4
管理局 4
管理部 4
管用 4
管辖 4
箧 4
箭@@ 4
箱底 4
篮球赛 4
篱@@ 4
篱笆 4
簸箕 4
簿记 4
籍贯 4
米汤 4
米色 4
米酒 4
米长 4
类人猿 4
粉尘 4
粉碎机 4
粒状 4
粗犷 4
粗率 4
粗粗 4
粗重 4
粘合剂 4
粘土 4
粼粼 4
精制 4
精密仪器 4
精干 4
精深 4
精疲力竭 4
精神压力 4
精神状态 4
精神面貌 4
精辟 4
精髓 4
糜烂 4
糠菜 4
糨糊 4
系亲属 4
系列@@ 4
系统地 4
系统性 4
紙 4
素有 4
索然 4
紧张局势 4
紧急状态 4
紧要 4
紧跟 4
紫菜 4
終@@ 4
絮叨 4
維 4
總@@ 4
繁星 4
繁殖@@ 4
繁育 4
繁茂 4
繪@@ 4
續 4
红帽子 4
红烧 4
红红的 4
纤维@@ 4
约略 4
约翰@@ 4
约计 4
纪念册 4
纯水 4
纱布 4
纳米 4
纳米@@ 4
纵身 4
纷乱 4
纸包 4
纸烟 4
纸质 4
纹@@ 4
纺车 4
纽带 4
线型 4
线性 4
线虫 4
练出 4
练就 4
练练 4
组员 4
细算 4
细细@@ 4
细说 4
织物 4
终古 4
终场 4
终端设备 4
终身@@ 4
绊倒 4
绊脚石 4
绍@@ 4
经商 4
经得起 4
经营权 4
经验不足 4
绒毛 4
结业 4
结出 4
结合@@ 4
结满 4
结盟 4
结结实实 4
结结巴巴 4
结识 4
绕在 4
绕道 4
给人以 4
给你个 4
给钱 4
络腮@@ 4
绝不@@ 4
绝不能 4
绝技 4
绝缘体 4
统治阶级 4
统筹 4
继承@@ 4
绫@@ 4
绮丽 4
绯红 4
绰号 4
绰绰 4
维亚 4
维护费 4
绵软 4
综@@ 4
综合征 4
绽@@ 4
绾 4
绿油油 4
绿灯 4
绿豆@@ 4
缆车 4
缔造 4
缕缕 4
编排 4
缝衣服 4
缝隙 4
缠绵 4
缠身 4
缩写 4
缩回去 4
缰 4
缺损 4
缺欠 4
缺课 4
缺额 4
网球场 4
罗锅 4
罢 4
罢休 4
罩@@ 4
置换 4
羅 4
美人@@ 4
美到 4
美国政府 4
美国队 4
美感 4
美甲 4
美美 4
美莎 4
美酒 4
美香 4
羔@@ 4
羚 4
羚@@ 4
羞愤 4
羞耻@@ 4
羡 4
群众路线 4
群言堂 4
群起 4
翅儿 4
翠@@ 4
翹 4
翻炒 4
翻过去 4
老一辈 4
老不死 4
老兄 4
老大@@ 4
老大难 4
老太爷 4
老客户 4
老家伙 4
老干部 4
老式 4
老想 4
老本 4
老朽 4
老来@@ 4
老照片 4
老爷@@ 4
老病 4
老红军 4
老虎@@ 4
老规矩 4
老话 4
老资格 4
老高 4
考个 4
考勤@@ 4
考取 4
考古学家 4
考拉 4
考究 4
考试@@ 4
考量 4
而入 4
而动 4
而去 4
而发 4
而异 4
而无@@ 4
而死 4
而立 4
而精 4
而视 4
耐热@@ 4
耕牛 4
耳塞 4
耳洞 4
耳闻 4
耶@@ 4
耿直 4
聊聊吧 4
聊起来 4
职业性 4
职权 4
联动 4
联系实际 4
联邦@@ 4
聖 4
聘书 4
聘请 4
聚齐 4
肃立 4
肉汁 4
肉片 4
肖 4
肘 4
肛门 4
股利 4
肢窝 4
肤色 4
肥田 4
肥皂@@ 4
肥美 4
肥肉 4
肥肥 4
肩周炎 4
育出 4
育苗 4
肿起来 4
胃溃疡 4
胃疼 4
胃肠 4
胃酸 4
背书 4
胖胖的 4
胡作非为 4
胡噜 4
胡志@@ 4
胡椒@@ 4
胡须 4
胭@@ 4
胳肢 4
胶原蛋白 4
胶水 4
能先 4
能出 4
能别 4
能带 4
能帮 4
能当 4
能源消耗 4
能生 4
能顶 4
脂粉 4
脊椎动物 4
脏得 4
脑汁 4
脑海中 4
脑溢血 4
脑肿瘤 4
脑膜炎 4
脚上 4
脚踏 4
脱不开 4
脱胎换骨 4
脸书 4
脸色苍白 4
腐臭 4
腐败@@ 4
腕 4
腥气 4
腰包 4
腰子 4
腺炎 4
腻烦 4
腾起 4
腿肚子 4
膀 4
膈 4
膊 4
膏药 4
臂力 4
臆@@ 4
臆断 4
臟 4
臨 4
自习室 4
自动扶梯 4
自卫队 4
自发性 4
自取灭亡 4
自古以来 4
自命@@ 4
自我意识 4
自我表现 4
自我陶醉 4
自有 4
自然科学 4
自然风景 4
自爱 4
自给 4
自给率 4
自若 4
自费 4
自首 4
臭娘们 4
臭小子 4
至亲 4
至宝 4
致力 4
致命伤 4
致歉 4
致电 4
舅@@ 4
舒畅 4
舒舒服服 4
舞蹈@@ 4
航天飞机 4
航路 4
般@@ 4
般配 4
舰@@ 4
船体 4
船舶 4
艮 4
良心@@ 4
良药 4
良言 4
艰苦@@ 4
色彩鲜艳 4
色情@@ 4
色泽 4
色粉 4
节俭 4
节约@@ 4
节食 4
芒果 4
芜 4
芜@@ 4
芝麻酱 4
芩 4
花些 4
花开 4
花旗 4
花样滑冰 4
花生米 4
花白 4
花色品种 4
花落 4
花语 4
芽@@ 4
苍 4
苛求 4
苟且偷@@ 4
若失 4
苦日子 4
苦笑 4
苦练 4
苯@@ 4
英尺 4
英模 4
英语口语 4
英语考试 4
英语论文 4
英雄人物 4
英雄形象 4
苹果派 4
茂密 4
范 4
范本 4
茅 4
茅草 4
茉莉花 4
茉莉花茶 4
茨 4
茶味 4
茶点 4
茶花 4
荆@@ 4
草率@@ 4
荐 4
荒年 4
荒草 4
荒谬 4
荒野 4
荔枝 4
荡秋千 4
荣获 4
药丸 4
药妆店 4
药房 4
药用 4
药箱 4
荷包蛋 4
莉 4
莎士比亚 4
莫 4
莫妮卡 4
莱尔 4
莴苣 4
获利 4
获得@@ 4
获得成功 4
获悉 4
获益 4
菌病 4
菜品 4
菲 4
萌 4
萍 4
萝 4
营养@@ 4
营养不良 4
营养素 4
营销@@ 4
营长 4
萦@@ 4
萧萧 4
萨克斯管 4
落后@@ 4
落地@@ 4
落山 4
落户 4
落笔 4
葛@@ 4
葡萄架 4
葱茏 4
葵@@ 4
蒙住 4
蒙蒙 4
蒸汽机车 4
蓄电池 4
蓑衣 4
蓝本 4
蓝眼睛 4
蓝藻 4
蓝调 4
蓝领 4
蓬@@ 4
蓬勃发展 4
蔑 4
蔚蓝 4
蔫@@ 4
蕉 4
薄情 4
薄片 4
薪酬 4
藏到 4
藏身 4
藏身之处 4
藐 4
蘇 4
蘭@@ 4
虐@@ 4
虔@@ 4
處 4
虚名 4
虚夸 4
虚度 4
虚度@@ 4
虚心学习 4
虚无主义 4
虚浮 4
虫类 4
蚁@@ 4
蚂@@ 4
蚊 4
蚊@@ 4
蛆 4
蛋卷 4
蛋壳 4
蛐@@ 4
蛮力 4
蛰 4
蛰伏 4
蜕变 4
蝇 4
蝶泳 4
螺 4
螺丝刀 4
螺旋@@ 4
蟲 4
蠢蛋 4
血清 4
血球 4
血红 4
血肉@@ 4
行列车 4
行当 4
行文 4
行期 4
行程表 4
行者 4
行装 4
行话 4
行迹 4
衍@@ 4
街边 4
衡@@ 4
衣冠@@ 4
衣衫@@ 4
衣袖 4
衣襟 4
补偿@@ 4
补足 4
表中 4
表彰 4
表快 4
表现@@ 4
表皮 4
表示歉意 4
表示祝贺 4
表达@@ 4
表里 4
表面@@ 4
衬托 4
衰减 4
衰败 4
衷心祝愿 4
袒 4
袜 4
被压迫 4
被害人 4
被害者 4
被誉为 4
裁缝 4
装点 4
装病 4
補@@ 4
裝置 4
裝飾 4
裱 4
裸体@@ 4
褐@@ 4
褒贬 4
褥子 4
褴褛 4
襟 4
襲擊 4
西安 4
西风 4
要不了 4
要冲 4
要出 4
要旨 4
要约 4
覇 4
覺@@ 4
见不得人 4
见世面 4
见外 4
见怪 4
见效 4
观光团 4
规格书 4
规程 4
视为@@ 4
视点 4
览 4
角度看 4
角形 4
解劝 4
解放运动 4
解渴 4
解闷 4
解除@@ 4
言传 4
言文 4
言词 4
言谈@@ 4
討厭 4
診斷 4
試@@ 4
誊写 4
認@@ 4
課題 4
調 4
講@@ 4
警卫@@ 4
计价 4
计画 4
订立 4
认出来 4
认识@@ 4
认购 4
认领 4
让出 4
讪@@ 4
训了 4
训诲 4
议事 4
议事@@ 4
议长 4
讯息 4
记事 4
记录@@ 4
记忆犹新 4
讲卫生 4
讲求 4
讳言 4
许下 4
许多@@ 4
许诺 4
论斤 4
设计方案 4
证据@@ 4
证验 4
评委 4
评论员 4
诊治 4
词组 4
试卷 4
试用期 4
试验品 4
诗篇 4
诗经 4
诚挚 4
话会 4
话别 4
话头 4
话虽如此 4
诞@@ 4
诟@@ 4
询@@ 4
该是 4
语言不通 4
语速 4
误诊 4
诱人 4
说三道四 4
说不上来 4
说不得 4
说了算 4
说到做到 4
说句话 4
说唱 4
说破 4
说穿 4
说笑话 4
说话@@ 4
请柬 4
请系 4
读后感 4
读者@@ 4
课外@@ 4
谁是谁非 4
调儿 4
调制 4
调查表 4
调皮@@ 4
谄媚 4
谅 4
谅@@ 4
谈不到 4
谎@@ 4
谎报 4
谕 4
谜团 4
谜底 4
谤 4
谨此 4
谨表 4
谩骂 4
谬@@ 4
谬误 4
豁亮 4
豁出去 4
豆沙 4
豚 4
豪杰 4
賛 4
質@@ 4
贞 4
贞节 4
负有责任 4
负起 4
负重 4
财源 4
责任编辑 4
责任重大 4
责问 4
货人 4
货架 4
质询 4
贪污犯 4
贫下中农 4
购进 4
贯性 4
贯注 4
贴上去 4
贴现 4
贵惠 4
贵方 4
贵贱 4
贼赃 4
赃物 4
资历 4
资质 4
资金@@ 4
赎 4
赎回 4
赐予 4
赘 4
赚大钱 4
赚头 4
赛季 4
赞佩 4
赞助商 4
赞歌 4
赠给 4
赠送给 4
赢家 4
赤蝶 4
走人 4
走投无路 4
赶车 4
起个 4
起动 4
起因 4
起居室 4
起程 4
起航 4
起见 4
起诉@@ 4
起跑 4
起重 4
起飞@@ 4
超声波 4
超帅 4
越好 4
越权 4
越来越@@ 4
越轨 4
越重 4
趴下 4
趾甲 4
跐 4
跑不了 4
跑来跑去 4
跑车 4
距離 4
跟上来 4
跨过 4
路来 4
路标 4
路痴 4
路障 4
跳跃 4
跳过 4
跷着 4
跷跷板 4
踉@@ 4
踏着 4
踏踏实实 4
踢踏舞 4
踪者 4
踱 4
踵 4
蹂躏 4
蹑@@ 4
蹙 4
蹚 4
蹴@@ 4
蹶子 4
蹽 4
身世 4
身儿 4
身分 4
身心健康 4
身手 4
身无分文 4
躯体 4
躲过 4
輯 4
车到 4
车有 4
车箱 4
车轴 4
车辆通行 4
车速 4
车间主任 4
车骑 4
轨@@ 4
轨电车 4
轩@@ 4
转变成 4
转车 4
轮子 4
轮番 4
轮轴 4
软和 4
软管 4
轰动 4
轰炸机 4
轻伤 4
轻工业 4
轻捷 4
轻柔 4
轻狂 4
轻装@@ 4
轻轻松松 4
轻量化 4
轻闲 4
载入 4
载重汽车 4
较劲 4
辅 4
辍 4
输入@@ 4
输送机 4
辖@@ 4
辘轳 4
辛辛苦苦 4
辞呈 4
辟 4
辟邪 4
辦法 4
辨别@@ 4
辩证 4
边框 4
边防军 4
辻彩 4
辽宁@@ 4
迁徙 4
迂腐 4
迅捷 4
过人 4
过会 4
过会儿 4
过头来 4
过奖 4
过学 4
过山车 4
过敏症 4
过来人 4
过滤@@ 4
过路 4
过门 4
迎战 4
运了 4
运往 4
运算 4
运走 4
运输机 4
运输量 4
近代化 4
近似 4
近处 4
近藤 4
近邻 4
返工 4
还会来 4
还算@@ 4
这一下 4
这一仗 4
这事@@ 4
这倒 4
这幢 4
这来 4
这步田地 4
这路 4
这部分 4
这酒 4
这钱 4
这页 4
进化论 4
进村 4
进纸 4
远东 4
远扬 4
远景规划 4
远洋 4
远远@@ 4
违约 4
违规 4
连体 4
连假 4
连心 4
连环画 4
连络 4
迟延 4
迟滞 4
迫近 4
述评 4
迷了路 4
迷倒 4
迷惘 4
迷雾 4
追悼 4
追捕 4
追杀 4
追溯到 4
退休年龄 4
退伙 4
退却 4
退席 4
送些 4
逃不过 4
逃出 4
逃进 4
逆境 4
逆差 4
逆流 4
逆流而上 4
逆行 4
选定 4
选送 4
选配 4
选错 4
透亮 4
透明@@ 4
透着 4
递延 4
逗乐 4
這塊 4
這張 4
通县 4
通告 4
通婚 4
通缉 4
通通 4
逞@@ 4
速食 4
造出 4
造化 4
造林 4
造血 4
逢年过节 4
逮@@ 4
逸乐 4
遁 4
道儿 4
道德@@ 4
遗传因子 4
遗容 4
遗志 4
遗症 4
適合 4
遮盖 4
遮羞 4
遮起来 4
遵命 4
選手 4
避难所 4
那一 4
那不勒斯 4
那么回事 4
那么点儿 4
那去 4
那堂 4
那套 4
那子 4
那就算了 4
那州 4
那怎么行 4
那架 4
那能 4
那面 4
邪行 4
邪说 4
邪道 4
邮包 4
邮政编码 4
邮送 4
邮递员 4
邻居们 4
邻邦 4
郊@@ 4
部里 4
都会 4
都市生活 4
鄙视 4
酌 4
酌情 4
配给 4
配色 4
配音 4
酒味 4
酒意 4
酒类 4
酒精@@ 4
酒色 4
酰@@ 4
酱料 4
酷无情 4
酸味 4
酸奶 4
酸疼 4
酸辛 4
酿成 4
酿造 4
醇@@ 4
醇厚 4
醉醺醺 4
醒@@ 4
醒醒 4
里亚 4
里程 4
重了 4
重于泰山 4
重修 4
重修旧好 4
重利 4
重压 4
重型 4
重头 4
重头戏 4
重提 4
重播 4
重物 4
重要@@ 4
重蹈覆辙 4
重重的 4
野地 4
野狗 4
野猫 4
野菜 4
野鸟 4
量产 4
鉴@@ 4
鉴于 4
针刺 4
针刺麻醉 4
针眼 4
针线 4
钢厂 4
钢板 4
钢琴@@ 4
钥 4
钩@@ 4
钩子 4
钳 4
铀 4
铁人三项 4
铁路@@ 4
铁轨 4
铅球 4
铐 4
铜钱 4
铝@@ 4
铣床 4
铲雪 4
银行存款 4
银行职员 4
铸成 4
铺垫 4
铺子 4
铺展 4
铺张浪费 4
销售部 4
锄头 4
锋@@ 4
锋芒 4
锌 4
锔 4
错开 4
错案 4
锤@@ 4
锤炼 4
锦标赛 4
键盘 4
锯齿 4
镜框 4
长久以来 4
长叹 4
长安@@ 4
长工 4
长期性 4
长期贷款 4
长途@@ 4
长野县 4
門@@ 4
门子 4
门把手 4
门诊 4
闪动 4
闪开 4
闪着光 4
闪闪@@ 4
闭塞 4
闭幕 4
闭眼 4
问一问 4
问号 4
问答 4
问罪 4
问讯处 4
问道 4
闯入 4
闯进来 4
间休息 4
间断 4
闷气 4
闹事 4
闹着玩儿 4
闹饥荒 4
阁@@ 4
阅读@@ 4
阑@@ 4
阔气 4
阕 4
阙@@ 4
阜 4
队形 4
防汛 4
防盗 4
防空 4
防空洞 4
阴历 4
阴霾 4
阵营 4
阶层 4
阻隔 4
阿保 4
阿尔@@ 4
阿谀 4
阿里 4
附赠 4
陈腐 4
降伏 4
降服 4
降落伞 4
陡坡 4
陡峭 4
院@@ 4
除名 4
除外 4
除草 4
陨@@ 4
陨石 4
险境 4
险要 4
陪护 4
陪陪 4
陶艺家 4
陷落 4
随口 4
随波逐流 4
隐伏 4
隐匿 4
隐微 4
隐情 4
隔开 4
障眼法 4
隶属 4
隻 4
难事 4
难以忍受 4
难以相信 4
难缠 4
雀跃 4
雄壮 4
雄赳赳 4
雄鹰 4
雄鹿 4
雅兴 4
集合地点 4
集合起来 4
集邮 4
雌 4
雌鹿 4
雕像 4
雜誌 4
雨下个 4
雨会 4
雨声 4
雨滴 4
雨过天晴 4
雪原 4
雪线 4
雪耻 4
零售价 4
零售商 4
零零@@ 4
雷击 4
雷鸣般 4
雾蒙蒙 4
霍华德 4
霍霍 4
霏 4
霞 4
露台 4
露着 4
露面 4
霸权 4
霹雳 4
霹雳舞 4
青春@@ 4
青松 4
青青 4
静电 4
非常少 4
非难 4
靠你了 4
靠在 4
靠山 4
靠岸 4
靠拢 4
靠背 4
靠边儿站 4
面人物 4
面向@@ 4
面团 4
面图 4
面熟 4
面相 4
面罩 4
面试官 4
革命先烈 4
革命战争 4
革新@@ 4
靶子 4
鞍 4
鞍子 4
鞠 4
鞭笞 4
韦@@ 4
韩元 4
音乐室 4
音乐界 4
音信 4
音域 4
響 4
顆 4
页@@ 4
顶住 4
顶头 4
顶替 4
顺带 4
顺眼 4
顺顺 4
顽@@ 4
顽抗 4
颁@@ 4
颁布 4
颂扬 4
预 4
预售 4
预备@@ 4
预想到 4
预演 4
预祝 4
预防措施 4
领受 4
颐 4
颗@@ 4
额定 4
颠覆 4
风传 4
风化 4
风大 4
风景画 4
风色 4
风貌 4
风雪 4
风风雨雨 4
飛機 4
飞溅 4
飞过来 4
食性 4
食用油 4
飯 4
養 4
餐费 4
饭吃 4
饭桌 4
饭桶 4
饭量 4
饭锅 4
饭馆 4
饮食业 4
饷 4
饿得 4
馅@@ 4
馈 4
馏@@ 4
首尾 4
首脑 4
香味儿 4
香槟 4
香菜 4
馥@@ 4
馬@@ 4
騙 4
马上@@ 4
马在 4
驯化 4
驱赶 4
驴@@ 4
驴子 4
驾驶@@ 4
骄 4
骄傲自大 4
骄横 4
骑驴 4
骗走 4
骚@@ 4
骨干@@ 4
骨碌 4
高个儿 4
高二 4
高亢 4
高唱 4
高射炮 4
高峰期 4
高度@@ 4
高度评价 4
高林 4
高歌@@ 4
高深 4
高炉 4
高空作业 4
高端 4
高能 4
高薪 4
高速度 4
高音 4
高飞 4
鬓@@ 4
鬼子 4
鬼牌 4
魔术师 4
鱼刺 4
鱼水@@ 4
鱼群 4
鱼跃 4
鱼钩 4
鲁莽 4
鲁道夫 4
鲈鱼 4
鸡汤 4
鸣放 4
鸦 4
鸦@@ 4
鸦片 4
鹅毛 4
鹦鹉 4
麦穗 4
麻花 4
麻醉@@ 4
黄莺 4
黏土 4
黑儿 4
黑手党 4
黑春 4
黑暗面 4
黑枪 4
黑沉沉 4
黑油油 4
黑色@@ 4
黑龙江 4
默默@@ 4
鼎沸 4
鼓吹 4
鼓手 4
鼓鼓的 4
鼠标 4
鼻儿 4
鼻子@@ 4
鼻粘膜 4
齉 4
齐心 4
齐截 4
龄@@ 4
龙井茶 4
龙卷风 4
龛 4
龟 4
龟@@ 4
８ 4
100@@ 3
105 3
4.@@ 3
42 3
AA@@ 3
AI@@ 3
AN@@ 3
BC 3
CS@@ 3
Ch@@ 3
Chance 3
Gra@@ 3
Hand 3
LI@@ 3
ME@@ 3
Mas@@ 3
Mo@@ 3
N 3
Play 3
RE@@ 3
SP@@ 3
UV 3
aki 3
and 3
ce 3
es@@ 3
ig@@ 3
ight 3
ir 3
la@@ 3
nd@@ 3
ook 3
op@@ 3
ork 3
os@@ 3
qu@@ 3
ty 3
x@@ 3
z 3
β 3
☆ 3
々 3
げ 3
じ 3
す 3
せ 3
そ 3
ょ 3
よ 3
わ 3
ト 3
リ 3
ン 3
・ 3
一丝不@@ 3
一举@@ 3
一九四@@ 3
一付 3
一切@@ 3
一吹 3
一场@@ 3
一对一 3
一干@@ 3
一族 3
一次@@ 3
一溜烟 3
一滑 3
一致@@ 3
一览@@ 3
一讲 3
一谈 3
一问 3
一阵@@ 3
万个 3
万年前 3
三中全会 3
三位一体 3
三千@@ 3
三国 3
三百多 3
三言两语 3
三顿 3
上半期 3
上用 3
下一场 3
下不去 3
下回分解 3
下部 3
下风 3
不久@@ 3
不久前 3
不乐 3
不像@@ 3
不出所料 3
不切实际 3
不在少数 3
不容@@ 3
不容忽视 3
不帮 3
不才 3
不正之风 3
不甘落后 3
不畏@@ 3
不相@@ 3
不相容 3
不离@@ 3
不笨 3
不管@@ 3
不绝 3
不绝@@ 3
不胜其@@ 3
不能不要 3
不能自己 3
不起@@ 3
不足@@ 3
不道德 3
不錯 3
丐 3
世界大战 3
东道@@ 3
丝网 3
两侧 3
两户 3
两秒 3
两部 3
並@@ 3
个别人 3
丫@@ 3
中华民族 3
中式 3
中选 3
中间@@ 3
丰厚 3
临到 3
临界 3
为害 3
为己有 3
为贵 3
主义@@ 3
主导@@ 3
主席@@ 3
举行@@ 3
义务@@ 3
义理 3
之差 3
之年 3
之风 3
乌云密布 3
九十 3
书页 3
买点儿 3
乱花钱 3
乳腺癌 3
了个 3
争着 3
事业有成 3
事人 3
二乎 3
二氧化@@ 3
于世 3
于事 3
五百响 3
亘@@ 3
亚历@@ 3
亚州 3
亚非@@ 3
亢@@ 3
交学费 3
交界 3
交还 3
交道 3
亥@@ 3
产量比 3
产阶级 3
亨 3
亨@@ 3
京广@@ 3
亮光光 3
亲戚@@ 3
亳 3
人力物力 3
人影儿 3
人意 3
人缘儿 3
亿泰@@ 3
仆@@ 3
介绍@@ 3
从头@@ 3
从宽 3
从未有过 3
从水里 3
仓鼠 3
仔 3
仔细@@ 3
仔细观察 3
他养 3
他变 3
他哥 3
他开 3
他手 3
他肯 3
仗恃 3
令人吃惊 3
以待 3
以致 3
价比 3
休息@@ 3
众目@@ 3
优待@@ 3
会以 3
会心 3
伛@@ 3
传下来 3
传动@@ 3
伤到 3
伸长 3
似曾相识 3
佈 3
住家 3
佐仓@@ 3
体燃料 3
体育比赛 3
何在 3
余下 3
作出@@ 3
作呕 3
作為 3
作答 3
你会读 3
佢 3
佣 3
佳音 3
來過 3
侈@@ 3
例证 3
侍 3
侦 3
侮 3
俐@@ 3
俑 3
保修@@ 3
保值 3
保卫@@ 3
保护法 3
信人 3
信能 3
信贷 3
俭 3
倘@@ 3
借助 3
値 3
倩@@ 3
假声 3
偉@@ 3
偎 3
偎@@ 3
偏激 3
偕@@ 3
停车@@ 3
傀@@ 3
價@@ 3
優 3
儿有 3
元宵 3
充满@@ 3
先兆 3
先写 3
光秃秃 3
克服@@ 3
免不了 3
免去 3
入党 3
入微 3
全球@@ 3
全线 3
公关小姐 3
公子 3
公私@@ 3
共性 3
关店 3
兴奋不已 3
兵团 3
养病 3
冀 3
内心@@ 3
册@@ 3
再办 3
再度 3
再生@@ 3
写作文 3
冢@@ 3
冰场 3
决定@@ 3
决权 3
决然 3
冴@@ 3
况@@ 3
冶 3
冶@@ 3
冷冷@@ 3
冷冷清清 3
冷藏 3
冷藏@@ 3
净净 3
凌 3
几时 3
几片 3
几笔 3
几颗 3
凡尔赛宫 3
凸 3
出山 3
出师 3
出点 3
出租@@ 3
出走 3
刀口 3
分析@@ 3
分田 3
分管 3
划线 3
利于 3
利亚@@ 3
制剂 3
制片厂 3
刻苦钻研 3
剀切 3
前哨 3
前言 3
副职 3
割草 3
剽@@ 3
剽窃 3
剿 3
办事@@ 3
加剧 3
加奈 3
加拿@@ 3
加油@@ 3
加点 3
劣 3
助长 3
努力提高 3
劳保 3
労 3
勃 3
勋 3
匈牙@@ 3
匍@@ 3
化验 3
北京站 3
北岛 3
匝@@ 3
区划 3
區 3
十万人 3
十字军 3
十米 3
千里之外 3
升空 3
半儿 3
半晌 3
半期 3
半瓶@@ 3
华贵 3
卑微 3
单相思 3
卜@@ 3
占有率 3
卤 3
卯 3
危险@@ 3
即席 3
卷儿 3
卿@@ 3
历来 3
厘 3
原君 3
厥 3
厮 3
厲@@ 3
參@@ 3
及至 3
友军 3
友好条约 3
友田 3
反帝 3
反面人物 3
反面教材 3
发动@@ 3
发挥@@ 3
发电@@ 3
取回 3
取巧 3
取景 3
受贿 3
变回去 3
变迁 3
变通 3
口处 3
口服 3
口齿@@ 3
古旧 3
古画 3
可以@@ 3
叱 3
叱@@ 3
史蒂@@ 3
叶儿 3
司令@@ 3
司仪 3
吁@@ 3
吁吁 3
吃不@@ 3
吃不消 3
吃面 3
合唱@@ 3
合璧 3
吉祥@@ 3
吊环 3
吊车 3
名医 3
名号 3
名牌货 3
后备 3
后见 3
吏 3
吐槽 3
向贵 3
吓倒 3
吠 3
否@@ 3
吨@@ 3
含着泪 3
吮吸 3
启齿 3
吸收@@ 3
吸毒 3
吹奏@@ 3
吾@@ 3
呆滞 3
呈现出 3
告人 3
告密者 3
呐喊助威 3
呤 3
呱@@ 3
味无穷 3
呼吸器 3
命運 3
咎@@ 3
咕噜 3
咛 3
咝 3
咫@@ 3
咯@@ 3
咴 3
哆@@ 3
哇@@ 3
員@@ 3
哥儿@@ 3
哲 3
哺@@ 3
唁@@ 3
唇@@ 3
唉@@ 3
唠@@ 3
啃老族 3
啄@@ 3
商业机会 3
問@@ 3
啜@@ 3
啤 3
啤@@ 3
啪@@ 3
啭 3
啶 3
啼 3
啾 3
喀 3
喁 3
善感 3
喉 3
喜剧@@ 3
單 3
喷出来 3
嗖 3
嗝@@ 3
嗡@@ 3
嘈@@ 3
嘉 3
嘉奖 3
嘉宾 3
嘎巴 3
嘣 3
嘬 3
嘶哑 3
噗@@ 3
噜 3
噱 3
嚄 3
嚣 3
囔 3
囔@@ 3
囚@@ 3
四邻 3
四野 3
回家途中 3
回忆@@ 3
回电 3
囹@@ 3
国境线 3
国家元首 3
国民@@ 3
囿@@ 3
圄 3
圆规 3
圖 3
團@@ 3
圣人 3
在你看来 3
在编 3
圩 3
地作 3
地板@@ 3
地表 3
坍@@ 3
坎 3
坐庄 3
坚定不移 3
坟 3
坟@@ 3
坦 3
坦白@@ 3
坨 3
坳 3
垂钓 3
垡 3
垣 3
埂 3
埋入 3
基督@@ 3
堀@@ 3
堇 3
堰 3
場@@ 3
塑料薄膜 3
塘@@ 3
墁 3
境签证 3
墅@@ 3
增税 3
墩@@ 3
壞 3
士学位 3
复查 3
外墙 3
外景 3
外科医生 3
夙@@ 3
多少@@ 3
多米@@ 3
夜以继日 3
夜路 3
夢 3
大众@@ 3
大刀 3
大化 3
大头@@ 3
大树下 3
大样 3
大白天 3
大眼 3
大石头 3
大礼堂 3
大葱 3
大褂 3
大賽 3
大革命 3
天上@@ 3
天太热 3
天象仪 3
太挤 3
太旧 3
太细 3
太阳眼镜 3
夯 3
头来 3
头皮 3
夷 3
夸夸 3
夾@@ 3
套利 3
奥运 3
好了 3
好人好事 3
好客 3
如何是好 3
如流 3
妒@@ 3
妓@@ 3
妖风 3
妣 3
妨 3
妨@@ 3
妻管严 3
妾 3
姆斯 3
始发 3
姓张 3
姜@@ 3
姫@@ 3
娄 3
娄@@ 3
娑 3
娘们 3
娴@@ 3
婵@@ 3
媛@@ 3
媲@@ 3
嫌疑@@ 3
子弟兵 3
存亡 3
存有 3
孤儿@@ 3
孤寡 3
学力 3
学术界 3
学考试 3
学而 3
孽@@ 3
它@@ 3
守规矩 3
安插@@ 3
安放 3
安然@@ 3
安装@@ 3
完全符合 3
宏图 3
宕 3
官场 3
定向@@ 3
宝贝儿 3
实学 3
实话实说 3
宠爱 3
宣 3
室@@ 3
宥 3
宰割 3
家常菜 3
家父 3
寄予 3
密克罗尼西亚 3
密切相关 3
密歇@@ 3
密闭 3
富强 3
寐@@ 3
寝@@ 3
寝具 3
对子 3
封建王朝 3
射箭 3
尉 3
尋@@ 3
導 3
小圈子 3
小气鬼 3
小箱子 3
小紫@@ 3
小组@@ 3
小草 3
小车 3
尖刻 3
尖叫 3
尖子班 3
尥 3
尥@@ 3
就业@@ 3
尹 3
尽我所能 3
尿裤子 3
屈指可数 3
屉 3
屐 3
展现出 3
屠@@ 3
屬 3
屯@@ 3
山东@@ 3
山有 3
岁月@@ 3
岡@@ 3
岷@@ 3
峡@@ 3
峨 3
峭@@ 3
崛@@ 3
嵌镶 3
嵘 3
巅 3
川尻@@ 3
巡回@@ 3
巡回演出 3
工具书 3
工分 3
巳 3
巴士站 3
巾@@ 3
市侩 3
市场经济 3
布朗 3
帕 3
帙@@ 3
帥 3
带些 3
帷@@ 3
幡 3
幣 3
干干@@ 3
平平 3
平整 3
平淡@@ 3
年里 3
年龄@@ 3
并肩@@ 3
幸福@@ 3
幹@@ 3
幼年@@ 3
幽娴 3
幽暗 3
庆祝@@ 3
庐@@ 3
库存@@ 3
底特律 3
康复@@ 3
庸 3
廉 3
建厂 3
建在 3
开会@@ 3
开国@@ 3
开学典礼 3
开春 3
异己分子 3
弄湿 3
弑@@ 3
弗吉@@ 3
张大 3
弧 3
弹簧@@ 3
弹道导弹 3
强占 3
强悍 3
归途 3
当官 3
形容@@ 3
彦 3
彪@@ 3
役@@ 3
彻 3
往上爬 3
往西 3
很准 3
很烦 3
後悔 3
徐 3
徕 3
得晚 3
徙 3
德才兼备 3
心劲 3
心协力 3
心情@@ 3
心窍 3
心虚 3
心里@@ 3
必然@@ 3
忆@@ 3
忍心 3
忍者 3
忒 3
忖 3
快地 3
忱 3
忸怩 3
态度@@ 3
怃@@ 3
怆 3
怔@@ 3
怙@@ 3
怠@@ 3
怨气 3
总务部 3
总让 3
恃 3
恋不舍 3
恙 3
恢@@ 3
恪@@ 3
恬@@ 3
恶搞 3
悖@@ 3
悚然 3
悸 3
悸@@ 3
悻@@ 3
情境 3
情绪@@ 3
惕 3
惚@@ 3
惧@@ 3
惩戒 3
惮 3
惰@@ 3
想象力 3
惶 3
惺@@ 3
意境 3
意气@@ 3
愚 3
感恩 3
慈悲 3
態 3
慎@@ 3
慢性子 3
慰 3
慶@@ 3
憎 3
憧 3
憷 3
戍@@ 3
成是 3
成虫 3
我念 3
我爱@@ 3
我练 3
我行我素 3
我起 3
戒掉 3
战功 3
战备 3
戚风 3
戰 3
戰@@ 3
戴高帽子 3
所有制 3
手不管 3
手滑 3
扑鼻 3
扒@@ 3
扒开 3
打偏 3
打击@@ 3
打包@@ 3
打呼噜 3
打眼 3
打闹 3
打零工 3
托盘 3
扣帽子 3
扶贫 3
扽 3
找事 3
找人 3
找死 3
找遍 3
技術 3
把住 3
把守 3
抓好 3
抓捕 3
抔 3
投币式 3
投来 3
折腰 3
抝 3
抱抱 3
抵抗力 3
抵赖 3
抻 3
拆下来 3
拇指 3
拎 3
拘 3
拘于 3
招干 3
招摇撞骗 3
拮@@ 3
拼音 3
挂心 3
挂钟 3
按规定 3
挎 3
挑出 3
挥手@@ 3
挨整 3
挨骂 3
捣毁 3
捶 3
捽 3
掂@@ 3
掇@@ 3
掊 3
排行 3
排骨 3
接线@@ 3
接触@@ 3
推论 3
措 3
掬 3
掭 3
掰@@ 3
掳 3
揎 3
提出@@ 3
提高产量 3
揢 3
揶@@ 3
損 3
搪 3
搬开 3
搬弄 3
摄 3
摇摇 3
摇钱树 3
摩托@@ 3
摸透 3
播种@@ 3
撺 3
撺@@ 3
撼@@ 3
擂 3
擒@@ 3
擩 3
攘 3
支离破碎 3
收发室 3
收录机 3
收藏@@ 3
攻心 3
放大@@ 3
放心@@ 3
放眼@@ 3
放马过来 3
政局 3
故事@@ 3
故人 3
敌不过 3
敌伪 3
敌舰 3
敏 3
敗 3
教皇 3
教过 3
敝@@ 3
敞 3
敦 3
数码 3
敲诈 3
整形外科 3
文明@@ 3
文法 3
斐@@ 3
斑斑 3
料费 3
斧@@ 3
斧子 3
新修 3
新兴@@ 3
新房子 3
新生事物 3
斷 3
方向性 3
旁观 3
旋涡 3
旌@@ 3
无地@@ 3
无声无@@ 3
无形@@ 3
无数@@ 3
无能@@ 3
无邪 3
无际 3
日内瓦 3
旦 3
早地 3
早市 3
早年 3
早春 3
旱烟 3
时习 3
时宜 3
时所 3
时限 3
昂扬 3
昆 3
昆明 3
明确@@ 3
是我@@ 3
是非曲直 3
昼@@ 3
晏@@ 3
晓之圣 3
晦 3
晦@@ 3
景德镇 3
暁 3
暄 3
暇@@ 3
暢 3
暴走族 3
曜@@ 3
曳 3
書@@ 3
最令 3
最小限度 3
最忙 3
最迟 3
最高潮 3
有为 3
有偿 3
有头@@ 3
有机物 3
有者 3
有远见 3
朋 3
服务态度 3
服服帖帖 3
期徒刑 3
未能@@ 3
末尾 3
末日 3
本报 3
朵@@ 3
朵朵 3
机动@@ 3
杀虫@@ 3
杂技@@ 3
权谋 3
杯水 3
松松 3
构 3
枉 3
枝子 3
枪机 3
枪法 3
枫@@ 3
枯槁 3
架上 3
枷 3
柏 3
柏@@ 3
某种@@ 3
柔 3
柔嫩 3
柞@@ 3
查阅 3
柩 3
栃 3
栋@@ 3
树突 3
栖@@ 3
栗 3
株@@ 3
株连 3
根本就是 3
桂 3
桄@@ 3
桅 3
桎@@ 3
桐 3
桦@@ 3
梅子 3
梆子 3
梏 3
梓 3
條@@ 3
梢@@ 3
梦话 3
梨子 3
梭@@ 3
梯己 3
械@@ 3
梳理 3
棄 3
棍@@ 3
椋 3
椒@@ 3
楂 3
楚楚 3
極@@ 3
楷 3
概 3
榄 3
榆@@ 3
榴@@ 3
榻 3
樘 3
権 3
横冲直@@ 3
横滨市 3
橱 3
欣幸 3
欷 3
欺 3
歉@@ 3
歌舞@@ 3
歔 3
止痛@@ 3
正传 3
正旺 3
歪风邪气 3
歷@@ 3
歹 3
死了 3
死角 3
死路一条 3
殃 3
殆@@ 3
殊 3
殡@@ 3
殷 3
母公司 3
母女 3
毒害 3
毙@@ 3
毛主席 3
毫不差 3
毽@@ 3
气性 3
气昂昂 3
气气 3
气鬼 3
氮 3
水乡 3
水手@@ 3
水渠 3
氽 3
汇入 3
汗淋淋 3
汹@@ 3
沁 3
沉不住气 3
沏@@ 3
沐@@ 3
沛 3
没法子 3
沱 3
河川 3
河沟 3
沸 3
沸@@ 3
治罪 3
泊@@ 3
法事 3
法网 3
泡茶 3
注册商标 3
泯 3
泯@@ 3
泱@@ 3
泷@@ 3
泸@@ 3
泻药 3
泼剌 3
洋相 3
洗发水 3
洗涤@@ 3
洗牌 3
洲@@ 3
活动室 3
活动家 3
活火山 3
流动@@ 3
流动资产 3
流程图 3
浓雾 3
浦 3
海豹 3
消息@@ 3
涎@@ 3
涓@@ 3
涕 3
涟 3
涨落 3
涵 3
涸 3
涼 3
淄@@ 3
淅@@ 3
淋巴@@ 3
淙 3
淙@@ 3
淤 3
深造 3
混纺 3
混进去 3
清越 3
渊 3
渎 3
渎@@ 3
渗 3
渣子 3
渣滓 3
渦@@ 3
渴@@ 3
游戏@@ 3
游民 3
游移 3
湮@@ 3
溃 3
溃疡 3
準@@ 3
溟 3
溪@@ 3
溯 3
溶化 3
溶血性 3
溺 3
滂@@ 3
滚热 3
滞涩 3
滟 3
满不在乎 3
满山 3
满满当当 3
满足@@ 3
满足感 3
滤嘴 3
滥 3
漸 3
漸@@ 3
潞@@ 3
潦倒 3
潸 3
激 3
濑@@ 3
濛@@ 3
濟 3
濤 3
瀨@@ 3
火性 3
火柴盒 3
灯油 3
灵活性 3
灵验 3
灼@@ 3
灿@@ 3
炀@@ 3
炊@@ 3
炕@@ 3
炜 3
炯炯有神 3
炸鸡块 3
点点头 3
炽 3
炽@@ 3
烁烁 3
烟消@@ 3
烤干 3
烤火 3
烬 3
热得快 3
烯 3
烷 3
焌 3
焕@@ 3
煊@@ 3
煌 3
照得 3
照护 3
照量 3
煺 3
熘 3
熟练@@ 3
熥 3
熨斗 3
熱 3
熱@@ 3
燈 3
燎@@ 3
燒 3
爰 3
爱好@@ 3
爱情@@ 3
爱护公物 3
片海 3
牛皮@@ 3
牡@@ 3
物价上涨 3
特大号 3
特立独行 3
特质 3
犄角 3
犟 3
犟@@ 3
犯了错 3
状况不佳 3
犹疑 3
狀 3
狂喜 3
狂妄 3
狗屁 3
狞恶 3
狡辩 3
狩生@@ 3
独到之处 3
独生子 3
独立性 3
独立自主 3
狭@@ 3
狭长的 3
猎头 3
猎猎 3
猖@@ 3
猛兽 3
猛劲儿 3
猛进 3
猥亵 3
猥亵行为 3
猫儿 3
猫和老鼠 3
猴@@ 3
猶太@@ 3
獨 3
獨角@@ 3
獸 3
率地 3
率性 3
率真 3
玉兔 3
玉器 3
玉石 3
玉米面 3
玉色 3
玉雕 3
王八 3
王大妈 3
王家 3
王族 3
王明 3
王星 3
王朝 3
玩伴 3
玩儿完 3
玩具店 3
玩具箱 3
玩味 3
玩完 3
玩弄@@ 3
玩忽 3
玩忽职守 3
玩法 3
玩物 3
玩球 3
玩腻 3
玩艺儿 3
环儿 3
环境卫生 3
环球 3
环球@@ 3
环行 3
环视 3
现代文学 3
现出来 3
现卖 3
现场表演 3
现实@@ 3
现异常 3
现眼 3
现金交易 3
玻@@ 3
玻璃板 3
玻璃球 3
珊瑚 3
珊瑚礁 3
珍海@@ 3
珠轴承 3
班时间 3
班组 3
球儿 3
球技 3
球是 3
球状 3
球类运动 3
球门@@ 3
琅@@ 3
琅琅@@ 3
理不@@ 3
理化 3
理发@@ 3
理子 3
理疗 3
理解@@ 3
理解能力 3
琐屑 3
琦@@ 3
琳@@ 3
琴@@ 3
琴弦 3
琴瑟@@ 3
琵琶@@ 3
瑕 3
環 3
瓜子儿 3
瓜果 3
瓢 3
瓣儿 3
瓦亮 3
瓦屋 3
瓦房 3
瓦砾 3
瓦隆 3
瓶塞 3
瓷瓶 3
甘美 3
甘苦 3
甚为 3
甚佳 3
甚广 3
甜头 3
甜度 3
甜言蜜语 3
生产商 3
生产成本 3
生产量 3
生俱来 3
生养 3
生动@@ 3
生动物 3
生命不息 3
生命体 3
生姜 3
生就 3
生平 3
生惯养 3
生意@@ 3
生成@@ 3
生死存亡 3
生殖器官 3
生活水准 3
生活资料 3
生物学家 3
生简章 3
生铁 3
用兵 3
用后 3
用地 3
用电器 3
用皮 3
用红 3
用红字 3
用网 3
用脚 3
用铁 3
甩手 3
甭@@ 3
甭提 3
田径赛 3
田敏 3
田站 3
由市 3
由希是 3
由来 3
由此@@ 3
甲天下 3
甲烷 3
甲状旁腺 3
甲队 3
申 3
申斥 3
申请者 3
电图 3
电子游戏 3
电子琴 3
电子管 3
电子邮件发送 3
电性 3
电报@@ 3
电灯泡 3
电视新闻 3
电视转播 3
电解@@ 3
电话卡 3
电话线 3
电量 3
电阻 3
电阻@@ 3
男主@@ 3
男孩儿 3
男装 3
甸@@ 3
町@@ 3
画上 3
画些 3
画纸 3
画质 3
画集 3
畅销书 3
畏畏缩缩 3
畏罪@@ 3
留守 3
留待 3
留有 3
留校 3
留证 3
畜养 3
略知一二 3
畦田 3
番薯 3
畴 3
當然 3
畸@@ 3
疆 3
疆@@ 3
疏懒 3
疏松 3
疑云 3
疑忌 3
疑案 3
疑点 3
疑神疑鬼 3
疑难 3
疑难杂症 3
疗 3
疗养所 3
疤 3
疤痕 3
疫病 3
疮@@ 3
疮疤 3
疼死 3
疾书 3
疾苦 3
疾驰 3
病危 3
病因 3
病复发 3
病夫 3
病学 3
病态 3
病患 3
病榻 3
病痛 3
症候 3
痕@@ 3
痛医@@ 3
痛恨 3
痛痛 3
痛风 3
痞 3
痰盂 3
痱子粉 3
痴 3
痴迷 3
瘋@@ 3
瘦小 3
瘦弱 3
瘦瘠 3
瘪瘪 3
瘫@@ 3
瘸 3
癖性 3
癢 3
癫@@ 3
癫狂 3
登机@@ 3
登记簿 3
登门 3
發射 3
發生 3
白三烯 3
白之冤 3
白光 3
白兰地 3
白净 3
白地 3
白大褂 3
白天黑夜 3
白头发 3
白毛 3
白浆 3
白玉 3
白皙 3
白石 3
白胡子 3
白色恐怖 3
白衣 3
白衬衣 3
白費 3
白雪 3
白饭 3
白鸟 3
百万雄@@ 3
百分之 3
百分之二十 3
百分之六十 3
百十户 3
百合 3
百吉饼 3
百年不遇 3
百感交集 3
百战不殆 3
百斤 3
百科@@ 3
百米赛跑 3
的人 3
的是 3
的确如此 3
皆大欢喜 3
皇族 3
皎洁 3
皓@@ 3
皮包@@ 3
皮匠 3
皮毛 3
皮相@@ 3
皮肤@@ 3
皮肤感染 3
皮袄 3
皮靴 3
皮鞭 3
皱巴巴 3
皲裂 3
皺 3
盆花 3
盆里 3
盈@@ 3
盈利性 3
盈门 3
益虫 3
盐湖 3
监控@@ 3
监牢 3
监视器 3
盔甲 3
盖个 3
盖得 3
盖房 3
盖盖 3
盖着 3
盖起 3
盗 3
盗匪 3
盘价 3
盘缠 3
盘踞 3
盛世 3
盛典 3
盛情款待 3
盟约 3
盥洗室 3
目的@@ 3
目眩 3
目瞪口呆 3
目鱼 3
目黑 3
盲人 3
盲犬 3
直向 3
直奔 3
直属 3
直属@@ 3
直心眼儿 3
直感 3
直拨 3
相与 3
相争 3
相互之间 3
相伴 3
相关@@ 3
相匹配 3
相合 3
相吻合 3
相告 3
相宜 3
相左 3
相差@@ 3
相当可观 3
相持 3
相提并论 3
相片儿 3
相认 3
相连接 3
相随 3
盹 3
盼儿 3
盼望已久 3
省人事 3
省份 3
省城 3
省委 3
省级 3
眉大眼 3
眉头一皱 3
看上 3
看不得 3
看守 3
看得出 3
看得出来 3
看押 3
看新 3
看海 3
看涨 3
眍 3
真万确 3
真不简单 3
真为 3
真传 3
真可笑 3
真心实意 3
真情实感 3
真沉 3
真知 3
真空@@ 3
真笨 3
真糟 3
真细 3
真美 3
真身 3
真高 3
眠@@ 3
眠药 3
眨巴 3
眨巴眼 3
眬 3
眯 3
眯眯 3
眶 3
眶@@ 3
眼前亏 3
眼前利益 3
眼巴巴 3
眼泪汪汪 3
眼生 3
眼皮底下 3
眼相看 3
眼睑 3
眼药 3
眼药水 3
眼部 3
着实 3
着床 3
着意 3
着烟 3
着重 3
睁大眼睛 3
睏 3
睡到 3
睡吧 3
睡梦中 3
睡眼 3
睡过去 3
睦 3
睫毛@@ 3
瞄 3
瞅见 3
瞟 3
瞠目结舌 3
瞥一眼 3
瞧的 3
瞧见 3
瞬息万变 3
瞭望 3
瞻顾 3
瞽 3
矗立 3
知其然 3
知己@@ 3
知心@@ 3
知数 3
知照 3
知音 3
矩阵 3
矫捷 3
短文 3
短期贷款 3
短见 3
短跑 3
短途旅行 3
石像 3
石头@@ 3
石子儿 3
石川 3
石材 3
石板 3
石柱 3
石榴 3
矿物 3
码头@@ 3
砂子 3
砌@@ 3
砍柴 3
研 3
研制 3
研成 3
研究院 3
砖坯 3
砚 3
砢 3
破例 3
破土 3
破土@@ 3
破晓 3
破案 3
破落 3
破费 3
破除迷信 3
砸@@ 3
砸碎 3
砾 3
硫化@@ 3
硬化@@ 3
硬拉@@ 3
硬拼 3
硬挺 3
硬气 3
硬着头皮 3
硬结 3
确信无疑 3
确凿@@ 3
确有 3
确证 3
确诊 3
硼@@ 3
碍交通 3
碍难 3
碎纸机 3
碑@@ 3
碰撞 3
碰破 3
碰碰 3
碳酸 3
碳酸@@ 3
磁场 3
磁场强度 3
磁石 3
磅@@ 3
磕打 3
磕碰 3
磙子 3
磨光 3
磨嘴皮 3
磨机 3
磨烦 3
磨磨 3
磴 3
磺 3
礵 3
示例 3
示器 3
示灯 3
示牌 3
示范@@ 3
礼品券 3
礼帽 3
礼拜堂 3
礼数 3
礼花 3
礼让 3
社交界 3
社会变革 3
社会性 3
社做 3
祁@@ 3
祖师 3
祖辈 3
祝你好运 3
神志昏迷 3
神教 3
神灵 3
神父 3
神经外科 3
神经系统 3
神道 3
神采@@ 3
神龛 3
祥地 3
祥林嫂 3
票入场 3
票面价值 3
祭奠 3
祷告 3
祸国 3
祸患 3
禀赋 3
禁不起 3
禁受 3
禁欲 3
禁止停车 3
禁酒 3
禅寺 3
福利事业 3
福建省 3
福枪 3
福音书 3
离世 3
离合器 3
离弃 3
离谱 3
离题万里 3
禽 3
禾 3
私人@@ 3
私仇 3
私利 3
私吞 3
私底下 3
私房 3
私房钱 3
私股 3
私营 3
私通 3
秃顶 3
秉承 3
秋夜 3
秋收@@ 3
秋本 3
秋筱姬 3
秋色 3
种子岛 3
种子选手 3
种得 3
种族隔离 3
种苗 3
种颜色 3
科员 3
科委 3
科学实验 3
科学性 3
科学院 3
科尔 3
科幻小说 3
科幻电影 3
科普读物 3
科罗拉@@ 3
秘书处 3
秘密@@ 3
秘密武器 3
租房 3
租船 3
租赁契约 3
秣 3
秦 3
秦国 3
秩序@@ 3
积肥 3
积蓄 3
称快 3
秽闻 3
稀里哗啦 3
稀里糊涂 3
程子 3
程式 3
稍息 3
税务局 3
税壁垒 3
稚@@ 3
稳产高产 3
稳住 3
稳便 3
稳拿 3
稻穗 3
稽之谈 3
穆@@ 3
穆斯林 3
穗@@ 3
穷人家 3
空出 3
空头支票 3
空战 3
空手 3
空腹 3
空荡荡 3
空虚感 3
空调设备 3
空間 3
空间@@ 3
穿孔@@ 3
穿小鞋 3
穿插 3
穿行 3
穿衣 3
穿衣服 3
突出@@ 3
突发 3
突起 3
突飞猛进 3
窃据 3
窃窃@@ 3
窃行为 3
窑@@ 3
窘@@ 3
窜犯 3
窝火 3
窥@@ 3
窥测 3
窥镜 3
立即行动 3
立在 3
立宪@@ 3
立断 3
立方 3
立方@@ 3
立时 3
竖琴 3
站长 3
竞标 3
竞相 3
章杂志 3
竣 3
童工 3
童心 3
端丽 3
端子 3
竹井 3
竹篱笆 3
笋 3
笑嘻嘻 3
笑料 3
笑柄 3
笑纳 3
笔下 3
笔墨官司 3
笔端 3
笙 3
第一号 3
第一场 3
第一季度 3
第一次世界大战 3
第一流 3
第一面 3
第三代 3
第三位 3
第二代 3
第二位 3
第二周 3
第五@@ 3
第五次 3
第十年 3
第四 3
第四个 3
等同 3
等式 3
等待时间 3
等我 3
等着瞧 3
等等等等 3
等货 3
筋道 3
筏 3
筏子 3
答对 3
答答 3
答题 3
策马 3
筹办 3
签好 3
签字仪式 3
签收 3
签署 3
简报 3
简讯 3
简说 3
箅子 3
箔 3
算上 3
算來 3
算卦 3
算命 3
算好 3
算术题 3
管事 3
管如此 3
管家 3
管弦乐 3
管得 3
管理卡 3
管理课 3
管理费 3
管账 3
管闲事 3
箭头 3
箭射 3
箭步 3
箭牌 3
箱门 3
節 3
篇幅 3
篦 3
篮球场 3
篷@@ 3
簡@@ 3
簧管 3
簪 3
簪@@ 3
簿子 3
籍华人 3
米歇尔 3
米波 3
米粉 3
米面 3
籴 3
粉丝团 3
粉刷 3
粉刺 3
粉底 3
粉红 3
粉黛 3
粒儿 3
粗制滥造 3
粗劣 3
粗浅 3
粗略 3
粗线条 3
粘稠 3
粪土 3
粮棉 3
粱@@ 3
粲@@ 3
精准 3
精妙 3
精子 3
精度 3
精彩@@ 3
精心@@ 3
精确度 3
精神分裂 3
精神力量 3
精简 3
糊口 3
糊糊 3
糊糊涂涂 3
糜 3
糨子 3
糯米 3
系带 3
系长 3
紀@@ 3
紐@@ 3
紙@@ 3
素净 3
素食 3
索性 3
索赔 3
紧俏 3
紧俏商品 3
紧密配合 3
紧巴巴 3
紧急会议 3
紧急停车 3
紧拳头 3
紧绷 3
紧身 3
累进税 3
細@@ 3
終 3
結 3
絮烦 3
絮絮 3
絮聒 3
網站 3
緊@@ 3
練 3
總算 3
總覺 3
繁密 3
繁荣富强 3
繁荣昌盛 3
繁衍 3
織 3
纂@@ 3
红了眼 3
红人 3
红利 3
红头发 3
红潮 3
红艳艳 3
红过 3
红霞 3
红领巾 3
红骨髓 3
约旦 3
约莫 3
约言 3
纪念照 3
纪念邮票 3
纯属 3
纯文学 3
纯熟 3
纯爱 3
纰漏 3
纳凉 3
纳粹 3
纵火 3
纵火@@ 3
纵然 3
纷争 3
纷纭 3
纷纷扬扬 3
纸伞 3
纸板 3
纸板箱 3
纸篓 3
纸袋 3
纸钱 3
纹儿 3
纹路 3
纺 3
纺成 3
纺纱@@ 3
纺织品 3
纽@@ 3
线圈 3
线头儿 3
练习场 3
练习赛 3
练习题 3
练球 3
组件 3
组合而成 3
组织学 3
组织细胞 3
细分 3
细嫩 3
细巧 3
细挑 3
细看 3
细胞@@ 3
细胞分裂 3
细胞膜 3
细节决定 3
细菌@@ 3
细软 3
织女 3
织布@@ 3
织着 3
织锦 3
终端@@ 3
绉 3
绊子 3
经久不息 3
经典著作 3
经售 3
经得住 3
经济作物 3
经济周期 3
经济基础 3
经管 3
经考验 3
经营方式 3
绑住 3
结下 3
结为 3
结伙 3
结婚@@ 3
结巴 3
结拜 3
结社 3
结膜炎 3
结集 3
绕脖子 3
绕行 3
绕过 3
绕远儿 3
绗 3
给面子 3
络绎不绝 3
绝大部分 3
绝版 3
绝种 3
绞车 3
统制 3
统筹@@ 3
统考 3
统计数据 3
统领 3
绥@@ 3
继任@@ 3
继母 3
继而 3
绩效 3
续杯 3
维多利亚 3
维护和平 3
维持现状 3
维特 3
维艰 3
绵 3
绵亘 3
绵羊 3
绵长 3
绸 3
绸@@ 3
综上所述 3
绽开 3
绿卡 3
绿树 3
绿色@@ 3
缀@@ 3
缀文 3
缄@@ 3
缎@@ 3
缎子 3
缐 3
缒 3
缓冲@@ 3
缓坡 3
缓急 3
缔@@ 3
缕 3
缕@@ 3
编剧 3
编程 3
编纂 3
编织物 3
编结 3
编辑@@ 3
缚 3
缜密 3
缠住 3
缨@@ 3
缩微 3
缩水 3
缭乱 3
缯 3
缲 3
缸@@ 3
缺德 3
缺德@@ 3
缺门 3
罄 3
罄@@ 3
罐儿 3
网上@@ 3
网兜 3
网店 3
网打尽 3
网球拍 3
网络游戏 3
网购 3
罕@@ 3
罗马尼亚 3
罗马教皇 3
罪恶滔天 3
置之不理 3
置于 3
置信 3
置喙 3
置评 3
罱 3
羅@@ 3
羊圈 3
美利坚合众国 3
美化 3
美发 3
美國 3
美好@@ 3
美式足球 3
美梦 3
美男子 3
羞得 3
羞答答 3
羟基 3
群书 3
群居 3
群峰 3
群情 3
群情@@ 3
義 3
義@@ 3
羽毛@@ 3
翅目 3
翔@@ 3
翕然 3
翘着 3
翘课 3
翘首以待 3
翠柏 3
翩翩@@ 3
翳 3
翻到 3
翻动 3
翻脸 3
翻脸@@ 3
翻译机 3
翻车 3
翻阅 3
翻飞 3
翼翼 3
耀@@ 3
老八@@ 3
老几 3
老外 3
老天 3
老妇人 3
老婆@@ 3
老婆婆 3
老小 3
老弱 3
老房子 3
老舍 3
老花眼镜 3
老路 3
老辣 3
老迈 3
老鼠@@ 3
老龄 3
考勤表 3
考卷 3
考查 3
考证 3
考试及格 3
者事竟成 3
而作 3
而卧 3
而变 3
而就 3
而活 3
而胜 3
而至 3
耍滑头 3
耐久 3
耐久性 3
耐人寻味 3
耐热 3
耐震 3
耗竭 3
耘 3
耙子 3
耩 3
耪 3
耳子 3
耳朵@@ 3
耳根 3
耳熟 3
耳背 3
耶稣 3
耶稣@@ 3
耸立着 3
耸肩 3
耻@@ 3
耻笑 3
耿@@ 3
聊以@@ 3
聊聊天 3
聊表 3
聊过 3
职分 3
职守 3
职教师 3
职称 3
职责所在 3
聒@@ 3
联合会 3
联合国@@ 3
联合国教科文组织 3
联名 3
联系地址 3
联系群众 3
聘礼 3
聘者 3
聚一堂 3
聚变 3
聚合物 3
聚拢 3
聚焦 3
聞 3
聞@@ 3
聪慧 3
聪明伶俐 3
聯@@ 3
肄业 3
肆意妄为 3
肉冻 3
肉包子 3
肉头 3
肉末 3
肉汤 3
肉类 3
肉酱 3
肋骨 3
肌体 3
肘@@ 3
肚子@@ 3
肚脐 3
肠寸断 3
股东权益 3
股价指数 3
股份@@ 3
股份公司 3
股息 3
股指 3
肤@@ 3
肥猪 3
肥皂水 3
肥胖@@ 3
肩头 3
肩并肩 3
肩负 3
育人 3
肽 3
肾 3
肾上腺素 3
肾功能 3
肾炎 3
肿得 3
胀@@ 3
胁 3
胃病 3
胃镜 3
胆敢 3
背离 3
背运 3
背阴 3
胖胖 3
胚子 3
胜于 3
胜似 3
胜利果实 3
胜败 3
胞 3
胞兄弟 3
胡兰 3
胡思乱想 3
胡搅 3
胡言 3
胡言乱语 3
胧 3
胫@@ 3
胰岛@@ 3
胱@@ 3
胳膊肘子 3
胸围 3
胸腔 3
胸臆 3
能学 3
能换 3
能看懂 3
能进 3
脂民膏 3
脂肪酸 3
脂膏 3
脉脉 3
脊柱 3
脊椎 3
脏字 3
脑皮层 3
脑膜 3
脑血管 3
脑部 3
脑门 3
脚气 3
脚累 3
脚脖子 3
脚趾 3
脚跟 3
脚麻 3
脯 3
脱发 3
脱手 3
脱毛 3
脱离@@ 3
脱离现实 3
脱胎 3
脱衣服 3
脱逃 3
脱销 3
脱险 3
脸红@@ 3
腊 3
腊月 3
腐 3
腐败现象 3
腕子 3
腥味 3
腮@@ 3
腰围 3
腰杆子 3
腰来 3
腰眼 3
腰腿 3
腰间 3
腳@@ 3
腸@@ 3
腾空 3
腿就跑 3
膜炎 3
膝下 3
膨张 3
膳 3
膻 3
臀@@ 3
臆测 3
臊@@ 3
臨@@ 3
自不@@ 3
自个儿 3
自乘 3
自以 3
自传 3
自动售货机 3
自动车 3
自卫@@ 3
自发 3
自吹自擂 3
自喜 3
自大狂 3
自封 3
自小 3
自尽 3
自恃 3
自恋 3
自成 3
自成@@ 3
自我中心 3
自找 3
自救 3
自新 3
自杀@@ 3
自来水管 3
自流 3
自然法则 3
自然界 3
自然规律 3
自由市场 3
自由竞争 3
自由自在 3
自白 3
自相@@ 3
自耕农 3
自行车@@ 3
自觉@@ 3
自说自话 3
自转 3
自遣 3
自问 3
自食其力 3
自馁 3
臭名@@ 3
臭名远扬 3
臭未干 3
至关重要 3
至极 3
至终 3
致哀 3
致癌 3
臻 3
舀@@ 3
舀水 3
舂 3
舅舅 3
舆 3
舆@@ 3
舒了 3
舞台剧 3
舞弄 3
舞曲 3
航站楼 3
舰队 3
舷 3
舷@@ 3
船舱 3
船运 3
良家妇女 3
良机 3
良策 3
艰苦环境 3
艰难@@ 3
艱@@ 3
色子 3
色带 3
色彩@@ 3
色素 3
艺术节 3
艾 3
艾滋 3
艾滋病 3
节奏@@ 3
节操 3
节日@@ 3
节点 3
节电 3
节目@@ 3
节约用电 3
节问题 3
芋 3
芝麻@@ 3
芥菜 3
芥蒂 3
芦笋 3
芦苇 3
芬 3
芭蕾舞者 3
芯片 3
花一现 3
花光 3
花头 3
花岗岩 3
花式 3
花心 3
花椒 3
花灯 3
花环 3
花生仁 3
花美男 3
花花@@ 3
花花绿绿 3
花茶 3
花都 3
花鸟画 3
芸@@ 3
芹菜 3
苍翠 3
苍鹰 3
苏州@@ 3
苏杭 3
苏醒过来 3
苏里@@ 3
苑 3
苔 3
苛@@ 3
苞 3
苞@@ 3
苟 3
苟同 3
苟活 3
苟言笑 3
若两人 3
若悬河 3
苦人家 3
苦功 3
苦口@@ 3
苦熬 3
苦痛 3
英华 3
英名 3
英国人 3
英姿@@ 3
英式 3
英才 3
英文版 3
英格兰 3
英語 3
英语书 3
英语歌 3
苹果树 3
茉@@ 3
茨城 3
茫 3
茫然@@ 3
茬口 3
茴香 3
茶会 3
茶叶@@ 3
茶淡饭 3
茸毛 3
荆棘@@ 3
草丛生 3
草书 3
草图 3
草摩泼 3
草率 3
草芥 3
草草 3
荒僻 3
荒原 3
荒谬绝伦 3
荚 3
荣归 3
荣辱 3
荤食 3
荧光屏 3
荨麻疹 3
荫庇 3
药业 3
药包 3
药性 3
药材 3
药物学 3
药罐子 3
药能 3
药草 3
荷兰@@ 3
荷尔蒙 3
莉@@ 3
莫及 3
莫测 3
莫纳卡 3
莫须有 3
莱姆 3
莲 3
获奖者 3
莸 3
莹 3
莺@@ 3
菇 3
菌类 3
菜太@@ 3
菜汁 3
菜汤 3
菜篮子 3
菠@@ 3
菱 3
菲薄 3
萃 3
萃@@ 3
萊@@ 3
萝@@ 3
萤火虫 3
营养价值 3
营养学 3
营利 3
营地 3
营房 3
营生 3
萦回 3
萦绕 3
萧瑟 3
萨斯 3
萨斯州 3
萬物 3
落个 3
落儿 3
落入法网 3
落日 3
落水狗 3
落泊 3
落花流水 3
落花生 3
著作@@ 3
著名@@ 3
葡萄牙语 3
葬身@@ 3
葺 3
蒂利亚 3
蒙上 3
蒙古@@ 3
蒙眬 3
蒙蒙@@ 3
蒸汽@@ 3
蒸腾 3
蓄养 3
蓄水池 3
蓄积 3
蓝宝石 3
蓝莓 3
蓝靛 3
蓦@@ 3
蓬乱 3
蔑@@ 3
蔫不唧 3
蔬@@ 3
蔷薇 3
蔼可亲 3
蔽@@ 3
蔽日 3
蕴@@ 3
蕴涵 3
蕴蓄 3
蕴藉 3
薄利多销 3
薮 3
薯片 3
藏掖 3
藐@@ 3
藝@@ 3
藤冈@@ 3
虎气 3
虎穴 3
處@@ 3
虚妄 3
虚实 3
虚幻 3
虚惊 3
虚报 3
虚拟 3
虚掷 3
虚饰 3
虞 3
虱子 3
蚂蚱 3
蛊@@ 3
蛋白@@ 3
蛎 3
蛙 3
蛙泳 3
蛛@@ 3
蛮横 3
蛾 3
蜂拥 3
蜈蚣 3
蜕 3
蜕@@ 3
蜜月旅行 3
蜡黄 3
蜷 3
蜷缩 3
蜻@@ 3
蝇头@@ 3
蝇拍 3
蝉翼 3
蝎@@ 3
蝙蝠 3
螟 3
蟹@@ 3
蠓 3
蠕蠕 3
血丝 3
血债 3
血性 3
血浆 3
血液@@ 3
血管@@ 3
血糖 3
血缘 3
血缘关系 3
血肉 3
衅 3
行不@@ 3
行不端 3
行为@@ 3
行凶 3
行动@@ 3
行各业 3
行善 3
行将 3
行止 3
行為 3
行行 3
行道 3
術@@ 3
街区 3
街坊 3
街坊@@ 3
街市 3
街景 3
街灯 3
街示众 3
衝@@ 3
衣冠 3
衣库 3
衣衫 3
补习学校 3
补充@@ 3
补短 3
补给 3
补补 3
表上 3
表姐 3
表层 3
表带 3
表弟 3
表演者 3
表示同意 3
表请 3
表里如一 3
衰亡 3
衰颓 3
衷肠 3
衾 3
袋@@ 3
袋熊 3
袋鼠 3
袒@@ 3
袖手旁观 3
袖扣 3
袖珍 3
被关 3
被判 3
被治好 3
被装 3
被雷击 3
袭人 3
袴@@ 3
裁军 3
裁剪 3
裁量权 3
裂化 3
裂着 3
装上 3
装假 3
装做 3
装到 3
装卸货物 3
装模作样 3
装蒜 3
装袋 3
装配 3
裉 3
裕如 3
裕子 3
裡的 3
裡面 3
裤脚 3
裤腰带 3
裨@@ 3
裱糊 3
裹腿 3
褊@@ 3
褪@@ 3
褶 3
褶儿 3
褶子 3
褶皱 3
褶裙 3
西伯利亚 3
西医 3
西南北 3
西地区 3
西头 3
西村 3
西芹 3
要价 3
要你管 3
要告 3
要地 3
要塞 3
要往 3
要放 3
要数 3
要演 3
要犯 3
要种 3
要給 3
要订 3
要闻 3
要饭 3
規@@ 3
規定 3
視@@ 3
親 3
见势不妙 3
见山 3
见崎@@ 3
见异思迁 3
见得 3
见机@@ 3
见票@@ 3
见长 3
观众@@ 3
观光@@ 3
观摩 3
观摩@@ 3
观测点 3
观礼 3
规约 3
规规矩矩 3
觅食 3
视而不见 3
视频会议 3
觉察 3
角处 3
角色扮演 3
解乏 3
解了 3
解人意 3
解体 3
解决矛盾 3
解剖学 3
解嘲 3
解放思想 3
解救出来 3
解数 3
解说员 3
触即发 3
触目@@ 3
触礁 3
言人 3
言冷语 3
言听计从 3
言归正传 3
言相劝 3
言表 3
言重 3
計@@ 3
設 3
設@@ 3
許 3
訴 3
評論 3
詞 3
詹姆斯 3
誕@@ 3
請@@ 3
諾 3
警备@@ 3
警报器 3
警车 3
警钟 3
计时 3
计步器 3
计算器 3
计算尺 3
计议 3
订书机 3
订单号 3
订购者 3
认不出来 3
认个 3
认了 3
认罪 3
认股@@ 3
讨人@@ 3
讨债 3
让你在 3
讪 3
训导 3
训班 3
训练@@ 3
训练班 3
训话 3
议论纷纷 3
记不起来 3
记号笔 3
记员 3
记忆卡 3
记本 3
记错 3
讲完 3
讲演@@ 3
讲理 3
许人 3
许许多多 3
讹 3
论不休 3
论处 3
论据 3
讽 3
讽刺@@ 3
讽刺画 3
设下 3
设在 3
设备@@ 3
设宴招待 3
设问 3
证券@@ 3
证券交易所 3
证券市场 3
证物证 3
评审 3
评议 3
评述 3
诅 3
识渊博 3
诈骗犯 3
诉衷情 3
诉说着 3
诊室 3
诊断书 3
诊疗@@ 3
诌 3
词汇量 3
词源 3
译者 3
试剂 3
试办 3
试管 3
试衣间 3
试验田 3
诗意 3
诗歌@@ 3
诗集 3
话匣子 3
话连篇 3
话音 3
诠@@ 3
询 3
该不该 3
该来 3
该轮 3
详悉 3
详明 3
语意 3
语感 3
语法错误 3
语言学家 3
误入 3
误工 3
误认 3
诱拐 3
说下去 3
说不清楚 3
说头儿 3
说得上 3
说得着 3
说成 3
说活 3
说白了 3
说瞎话 3
说空话 3
说胡话 3
说走就走 3
说辞 3
请下 3
请举手 3
请人 3
请助 3
请客送礼 3
请愿 3
请愿书 3
请查 3
请留步 3
请空 3
请罪 3
请进来 3
请选 3
诸神 3
诺贝尔@@ 3
读入 3
读写 3
读到 3
[...]
