#version: 0.2
었 다</w>
ㄴ 다</w>
으 로</w>
에 서</w>
아 다</w>
사 람</w>
니 다</w>
어 서</w>
우 리</w>
하 고</w>
에 게</w>
어 야</w>
ㅂ 니다</w>
그 녀</w>
에 는</w>
습 니다</w>
못 하</w>
위 하</w>
는 다</w>
다 는</w>
아 니</w>
모 두</w>
이 번</w>
지 만</w>
보 이</w>
t ;</w>
까 지</w>
면 서</w>
q u
qu o
quo t;</w>
& quot;</w>
생 각</w>
에 서
너 무</w>
시 간</w>
시 키</w>
소 리</w>
문 제</w>
없 이</w>
아 주</w>
마 음</w>
으 면</w>
부 터</w>
아 이</w>
ㄴ 데</w>
거 리</w>
대 하</w>
회 사</w>
이 미</w>
정 말</w>
만 들</w>
따 르</w>
시 작</w>
p o
s ;</w>
po s;</w>
a pos;</w>
& apos;</w>
도 록</w>
때 문</w>
버 리</w>
보 다</w>
머 니</w>
매 우</w>
어 도</w>
오 르</w>
니 까</w>
자 신</w>
다 르</w>
자 기</w>
다 니</w>
오 늘</w>
지 금</w>
모 르</w>
스 럽</w>
아 직</w>
에서 는</w>
동 안</w>
이 런</w>
가 지</w>
내 리</w>
처 럼</w>
그 렇</w>
는 데</w>
모 든</w>
라 는</w>
이 나</w>
아 버
어 렵</w>
으 니</w>
대 로</w>
당 신</w>
바 라</w>
0 0
정 부</w>
학 교</w>
아버 지</w>
가 장</w>
었 습니다</w>
필 요</w>
다 리</w>
친 구</w>
아 이
이 렇</w>
다 시</w>
겠 다</w>
자 들</w>
려 고</w>
하 나</w>
에 도</w>
중 국</w>
마 르</w>
생 활</w>
으 로
었 던</w>
얼 굴</w>
사 회</w>
자 리</w>
선 생
생 기</w>
다 면</w>
다 가</w>
선생 님</w>
보 내</w>
지 나</w>
달 리</w>
어 머니</w>
그 러</w>
ㄴ 지</w>
사 랑</w>
만 나</w>
정 도</w>
서 로</w>
여 기</w>
느 끼</w>
이 야
통 하</w>
여 러</w>
머 리</w>
는 지</w>
들 이</w>
누 구</w>
어 떤</w>
아 무
영 화</w>
시 오</w>
셨 다</w>
나 무</w>
어 떻</w>
사 람
새 롭</w>
마 다</w>
해 서</w>
경 기</w>
한 국</w>
어 리</w>
어 나</w>
함 께</w>
이 상</w>
이야 기</w>
었 어</w>
부 분</w>
빠 지</w>
바 로</w>
드 리</w>
이 루</w>
러 나</w>
부 르</w>
당 하</w>
계 속</w>
배 우</w>
세 계</w>
었 는데</w>
기 업</w>
전 히</w>
아이 들</w>
반 드
반드 시</w>
나 라</w>
모 습</w>
사람 들</w>
다 른</w>
요 즘</w>
더 니</w>
생 들</w>
어 라</w>
1 0
시 ㄴ</w>
상 황</w>
사 건</w>
사 이</w>
어 지</w>
었 지만</w>
ㄴ 다는</w>
처 리</w>
그 리</w>
방 법</w>
시 험</w>
사 용</w>
지 역</w>
경 제</w>
민 호</w>
아 름
이 제</w>
학 생들</w>
조 금</w>
무 슨</w>
발 전</w>
중 요</w>
최 근</w>
세 우</w>
사 업</w>
학 생</w>
공 부</w>
대 학</w>
관 계</w>
주 의</w>
일 어나</w>
우 리
기 술</w>
하 늘</w>
경 찰</w>
라 도</w>
국 민</w>
아름 답</w>
물 건</w>
음 식</w>
려 면</w>
제 품</w>
에 게
올 해</w>
미 국</w>
ㄹ 까</w>
처 음</w>
아 침</w>
노 력</w>
이 것</w>
사 실</w>
시 장</w>
아 들</w>
나 타
다 음</w>
잘 못</w>
민 들</w>
심 하</w>
항 상</w>
었 을</w>
행 동</w>
어 디</w>
그 러나</w>
마 치</w>
걸 리</w>
운 동</w>
기 다리</w>
더 욱</w>
수 록</w>
지 키</w>
결 과</w>
계 획</w>
구 나</w>
작 품</w>
마 시</w>
먼 저</w>
날 씨</w>
빨 리</w>
나 쁘</w>
교 육</w>
인 터
무 엇</w>
갑 자기</w>
흐 르</w>
정 신</w>
그 것</w>
여 자</w>
힘 들</w>
십 시오</w>
밖 에</w>
한 국
밝 히</w>
어 느</w>
바 람</w>
하 루</w>
아 프</w>
원 들</w>
세 상</w>
결 혼</w>
ㄴ 가</w>
오 래</w>
이 곳</w>
이 르</w>
알 리</w>
경 우</w>
성 공</w>
거 나</w>
사 장</w>
서 는</w>
자 동
해 결</w>
가 격</w>
가 득</w>
시 대</w>
는 가</w>
그 리
회 의</w>
떠 나</w>
대 회</w>
울 리</w>
여 행</w>
아 무</w>
2 0
의 견</w>
마 을</w>
동 생</w>
시 다</w>
나 누</w>
뜨 리</w>
었 으
이 름</w>
결 정</w>
피 하</w>
강 하</w>
환 경</w>
바 꾸</w>
국 가</w>
현 재</w>
모 이</w>
일 본</w>
이 용</w>
내 용</w>
ㄹ 수록</w>
걱 정</w>
인 간</w>
빠 르</w>
어 제</w>
만 큼</w>
심 히</w>
마 련</w>
어 다</w>
결 국</w>
시 ㄹ</w>
도 시</w>
올 리</w>
가 족</w>
준 비</w>
들 리</w>
하 기</w>
연 구</w>
겠 습니다</w>
가 능</w>
자동 차</w>
문 화</w>
과 정</w>
아 내</w>
높 이</w>
건 강</w>
ㄴ 다면</w>
일 부</w>
돌 리</w>
싸 우</w>
자 주</w>
었 다는</w>
소 식</w>
위 기</w>
정 책</w>
야 지</w>
아 아</w>
업 무</w>
두 르</w>
ㅂ 니까</w>
여 전히</w>
열 심히</w>
전 쟁</w>
끝 나</w>
상 품</w>
일 으
이 해</w>
매 일</w>
일으 키</w>
얼 마
성 적</w>
프 로
지 난
소 설</w>
정 치
요 구</w>
었 으니</w>
인 하</w>
인터 넷</w>
지 르</w>
ㄹ 지</w>
태 도</w>
외 국</w>
사 고</w>
나타 나</w>
개 발</w>
바 닥</w>
남 자</w>
전 혀</w>
가 슴</w>
능 력</w>
성 격</w>
사 이
분 위기</w>
떨 어지</w>
느 냐</w>
대 부분</w>
기 록</w>
맞 추</w>
집 안</w>
아무 리</w>
공 장</w>
선 수
모 으</w>
기 대</w>
관 리</w>
새 로</w>
아 래</w>
구 들</w>
행 사</w>
차 례</w>
엄 마</w>
려 는</w>
부 모</w>
의 사</w>
기 쁘</w>
한 번</w>
행 위</w>
언 제
러 지</w>
얼마 나</w>
컴 퓨
준 기</w>
의 하</w>
단 히</w>
바 쁘</w>
기 간</w>
마 음
어 린
발 표</w>
나 오</w>
이 유</w>
부 모
나 가</w>
사 들</w>
전 문
상 대</w>
조 사</w>
으로 는</w>
지 내</w>
인 사</w>
건 물</w>
나 서</w>
상 태</w>
너 지</w>
므 로</w>
경 제
습 니까</w>
컴퓨 터</w>
남 편</w>
베 이
발 생</w>
관 심</w>
거 의</w>
ㅂ 시다</w>
활 동</w>
중 국
눈 물</w>
언제 나</w>
얼 마</w>
놀 라</w>
가 리</w>
혼 자</w>
저 녁</w>
스 로</w>
비 행
전 하</w>
할 머니</w>
1 9
나 이</w>
방 식</w>
공 사</w>
할 아버지</w>
부 족</w>
부 리</w>
몹 시</w>
께 서</w>
2 00
었 는지</w>
생 산</w>
바 르</w>
붙 이</w>
효 과</w>
향 하</w>
여 름</w>
전 화</w>
작 업</w>
훈 련</w>
으 며</w>
정 적</w>
겠 어</w>
손 님</w>
그 들</w>
취 하</w>
지 원</w>
그리 고</w>
직 접</w>
관 련</w>
사 회
정 보</w>
버 스</w>
유 명</w>
이 후</w>
구 하</w>
환 자</w>
반 대</w>
갖 추</w>
라 면</w>
현 상</w>
음 악</w>
설 명</w>
감 독</w>
잘 하</w>
만 약</w>
도 착</w>
기 르</w>
그 래
고 향</w>
아 ㅂ니다</w>
마 디</w>
다 하</w>
방 안</w>
끄 럽</w>
잠 시</w>
도 움</w>
더 라도</w>
기 회</w>
조 심</w>
스 스로</w>
부모 님</w>
경 험</w>
친 구들</w>
열 리</w>
르 치</w>
진 행</w>
대 표</w>
최 고</w>
선 물</w>
변 화</w>
줄 곧</w>
절 대</w>
인 기</w>
역 사</w>
신 문</w>
상 대
주 장</w>
이 러
완 전히</w>
이 기</w>
운 동
예 정</w>
연 기</w>
자 르</w>
을 까</w>
가 운
조 건</w>
었 더니</w>
가운 데</w>
벌 써</w>
한 테</w>
비행 기</w>
여 성</w>
아 기</w>
아 ㄴ데</w>
설 치</w>
예 쁘</w>
모 양</w>
자 연</w>
의 미</w>
우 선</w>
었 고</w>
이 익</w>
라 지</w>
체 적</w>
노 동
3 0
현 장</w>
인 정</w>
관 하</w>
선수 들</w>
에서 도</w>
병 원</w>
라 서</w>
시 절</w>
에게 는</w>
지 나
바 다</w>
끝 내</w>
실 패</w>
행 복</w>
정 하</w>
기 억</w>
특 히</w>
정 치</w>
사 상</w>
노 래</w>
그 램</w>
대 한</w>
지 방</w>
어 들</w>
어 야지</w>
옮 기</w>
무 리</w>
마 자</w>
건 설</w>
시 ㅁ</w>
부 부</w>
확 인</w>
표 정</w>
소 재</w>
서 울</w>
히 려</w>
오 히려</w>
지나 치</w>
제 대로</w>
자 마자</w>
올 림
약 속</w>
규 모</w>
결 코</w>
가 락</w>
피 우</w>
순 간</w>
연 히</w>
피 부</w>
축 구</w>
움 직
며 칠</w>
만 한</w>
약 간</w>
판 매</w>
리 어</w>
바 지</w>
표 현</w>
여 러
같 이</w>
겨 울</w>
민 족</w>
합 격</w>
수 준</w>
부 드
사 과</w>
점 점</w>
움직 이</w>
었으 나</w>
께 서는</w>
공 연</w>
위 험</w>
부드 럽</w>
기 분</w>
국 내</w>
요 리</w>
어 는</w>
시 ㄴ다</w>
수 업</w>
사 진</w>
견 디</w>
라 고</w>
기 관</w>
마 지
고 치</w>
가 르치</w>
차 리</w>
즐 기</w>
가 들</w>
전 체</w>
훌 륭</w>
실 수</w>
의 자</w>
고 생</w>
이 란</w>
살 피</w>
은 행</w>
실 력</w>
려 움</w>
카 드</w>
기 적</w>
각 종</w>
우리 들</w>
어 찌</w>
대 상</w>
단 체</w>
가 치</w>
지 식</w>
인 생</w>
영 향</w>
교 적</w>
남 기</w>
세 계
보 호</w>
평 가</w>
주 변</w>
목 소리</w>
평 소</w>
의 식</w>
문 화
고 서</w>
가 정</w>
당 시</w>
펼 치</w>
상 적</w>
비 록</w>
수 입</w>
거 두</w>
자 식</w>
식 당</w>
스 타
올림 픽</w>
냄 새</w>
우 승</w>
가 깝</w>
스 트
선 거</w>
비 하</w>
마 리</w>
원 하</w>
정 리</w>
원 래</w>
발 견</w>
로 는</w>
인 물</w>
이 전</w>
기 계</w>
예 상</w>
단 지</w>
공 기</w>
뿌 리</w>
서 비
고 르</w>
방 송</w>
듯 하</w>
동 물</w>
교 통
자 금</w>
일 반
. .
젊 은
인 상</w>
예 전</w>
마 침
현 실</w>
시 원</w>
빌 리</w>
보 다는</w>
정 확</w>
재 산</w>
미 치</w>
성 장</w>
사 무
출 발</w>
아 파
변 하</w>
로 부터</w>
담 배</w>
괜 찮</w>
즐 겁</w>
오 후</w>
신 경</w>
무 척</w>
정 한</w>
선 택</w>
분 명</w>
감 정</w>
가 볍</w>
자 유</w>
로 운</w>
프로 그램</w>
상 자</w>
가 능
지 도</w>
여러 분</w>
든 지</w>
대 단히</w>
공 격</w>
깨 끗</w>
전 자</w>
잡 히</w>
뜨 겁</w>
었 기</w>
산 업</w>
경 쟁</w>
레 이
대 화</w>
임 무</w>
사 라지</w>
개 혁</w>
옛 날</w>
노 인</w>
겨 우</w>
고 기</w>
충 분
심 각</w>
생 산
무 르</w>
과 거</w>
감 사</w>
흘 리</w>
하 시</w>
아파 트</w>
과 학</w>
어 울리</w>
문 장</w>
지 도
역 시</w>
살 리</w>
마침 내</w>
소 문</w>
교 육
고 는</w>
1 00
책 임
지 연</w>
주 인</w>
조 직</w>
승 리</w>
고 급</w>
언 제</w>
주 로</w>
어 둡</w>
과 학
비 판</w>
사 태</w>
평 생</w>
제 도</w>
입 장</w>
슬 프</w>
검 사</w>
키 우</w>
직 장</w>
참 가</w>
새 벽</w>
미 터</w>
ㄴ 들</w>
직 원</w>
가능 성</w>
녀 석</w>
전 국</w>
서비 스</w>
사 전</w>
주 위</w>
어 려움</w>
자 라</w>
꺼 내</w>
함 부
지 하
분 야</w>
구 름</w>
아 마</w>
습 관</w>
불 리</w>
마지 막</w>
함부 로</w>
다 투</w>
다 가
국 회</w>
고 통</w>
협 상</w>
어 서
무 섭</w>
드 라
식 사</w>
소 비
과 일</w>
치 료</w>
오 랫
시 아</w>
예 요</w>
객 들</w>
전 망</w>
오랫 동안</w>
동 네</w>
5 0
제 공</w>
정 권</w>
역 할</w>
세 력</w>
드 러나</w>
기 차</w>
겠 는가</w>
시 설</w>
깊 이</w>
과 는</w>
1 2
하 지만</w>
약 하</w>
장 사</w>
일 찍</w>
이 들</w>
던 지</w>
자 료</w>
그 만
관 적</w>
판 단</w>
원 인</w>
온 통</w>
사 적</w>
리 적</w>
화 장
지 구</w>
유 행</w>
아 나</w>
실 히</w>
대 답</w>
해 지</w>
이 트</w>
이 날</w>
바 탕</w>
미 래</w>
맛 있</w>
겠 다는</w>
주 택</w>
비 전</w>
공 원</w>
계 시</w>
정 상</w>
아 ㄹ</w>
서 두르</w>
말 씀</w>
개 월</w>
목 표</w>
청 소
실 시</w>
어 깨</w>
그 릇</w>
에 만</w>
바 뀌</w>
돌 아
쌓 이</w>
존 재</w>
위 원
시 계</w>
날 리</w>
그 냥</w>
가 게</w>
풀 리</w>
칭 찬</w>
비 싸</w>
물 론</w>
놓 이</w>
해 외</w>
주 머니</w>
대 체</w>
넘 치</w>
거 짓
텔 레
차 이</w>
제 일</w>
영 어</w>
분 명
방 향</w>
다 보</w>
끊 임
증 가</w>
작 년</w>
비 교적</w>
구 조</w>
훨 씬</w>
주 요</w>
대 표
권 력</w>
헤 어지</w>
자 세</w>
언 론</w>
아 ㄴ</w>
세 월</w>
검 찰</w>
책 상</w>
외 국
드 러
인 재</w>
다 이
다 며</w>
가 죽</w>
생 명</w>
목 숨</w>
마음 속</w>
강 화</w>
한국 의</w>
무 대</w>
국 제
일 정</w>
기 업
지 적</w>
시 기</w>
대 중</w>
그 때</w>
교 수</w>
아 지</w>
부 딪
느 라</w>
3 년</w>
문 학</w>
졸 업</w>
임 금</w>
솜 씨</w>
자 전
도 로</w>
기 울
계 약</w>
거짓 말</w>
파 악</w>
에 너지</w>
거 지</w>
기 사</w>
지 는</w>
상 처</w>
명 령</w>
기울 이</w>
먹 이</w>
발 언</w>
더 라</w>
고 개</w>
희 망</w>
주 말</w>
어 쩌</w>
고 요</w>
조 용
완 성</w>
상 당
급 하</w>
구 성</w>
베이 징</w>
반 응</w>
농 촌</w>
텔레 비전</w>
지난 해</w>
금 지</w>
1 년</w>
요 일</w>
에 요</w>
부 담</w>
두 렵</w>
두 들</w>
공 개</w>
10 년</w>
장 소</w>
성 과</w>
방 문</w>
모 두들</w>
다 지</w>
지 치</w>
연 구
축 하</w>
조 국</w>
전 부</w>
오 염</w>
소 개</w>
서 관</w>
단 계</w>
구 멍</w>
치 르</w>
언 니</w>
사 정</w>
디 오</w>
느 리</w>
논 문</w>
기 능</w>
자 꾸</w>
이러 하</w>
성 실</w>
거 칠</w>
주 의
온 갖</w>
수 사</w>
분명 히</w>
멈 추</w>
막 히</w>
그 곳</w>
결 혼
대 적</w>
광 고</w>
화 하</w>
저 히</w>
장 면</w>
범 인</w>
내 년</w>
극 복</w>
풍 부</w>
편 하</w>
조 치</w>
전 통</w>
자전 거</w>
속 도</w>
머 리
자 신
셔 츠</w>
떠 오르</w>
끊임 없이</w>
연 락</w>
아 지만</w>
포 함</w>
유 럽</w>
오 전</w>
또 한</w>
드러 내</w>
강 조</w>
고 양
중 들</w>
무 겁</w>
거 치</w>
가 는</w>
의 원</w>
쓰 이</w>
근 거</w>
그 대로</w>
계 산</w>
조 차</w>
교 사</w>
청 소</w>
예 술</w>
말 로</w>
금 방</w>
했 다</w>
태 어나</w>
채 우</w>
참 여</w>
선 생</w>
그 러
고 도</w>
고 대</w>
투 자</w>
국 제</w>
평 화</w>
상 사</w>
민 주
목 적</w>
경 영</w>
커 피</w>
자 랑</w>
었 지</w>
안 정</w>
수 단</w>
부 탁</w>
누 르</w>
고양 이</w>
중국 어</w>
종 일</w>
일반 적</w>
오 빠</w>
업 체</w>
부 대</w>
한 참</w>
푸 르</w>
오 해</w>
연 습</w>
비 용</w>
발 휘</w>
무 기</w>
면 적</w>
넘 기</w>
이 끌</w>
열 차</w>
양 국</w>
운 영</w>
생 활
근 무</w>
거 래</w>
여 금</w>
아무 런</w>
시 위</w>
시 선</w>
발 달</w>
듯 이</w>
가 방</w>
왕 칭</w>
생 각
사 항</w>
몰 리</w>
조 정</w>
일 반</w>
범 죄</w>
현 대</w>
내 부</w>
운동 장</w>
무 릎</w>
공 간</w>
한 창</w>
중 심</w>
무 너지</w>
허 리</w>
물 들</w>
멀 리</w>
들 어서</w>
드라 마</w>
극 적</w>
의 지</w>
성 들</w>
방 금</w>
전 기</w>
이 론</w>
복 잡</w>
디 어</w>
1 5
혐 의</w>
파 견</w>
이 불</w>
우 수</w>
집 중</w>
저 지르</w>
디 자
도 서관</w>
다 만</w>
호 텔</w>
태 풍</w>
우리 나라</w>
수 많</w>
분 석</w>
밀 리</w>
이 웃</w>
수 리</w>
상대 방</w>
방 송
통 과</w>
종 이</w>
언 어</w>
시 스
다 섯</w>
널 리</w>
고 객</w>
흔 들</w>
죽 음</w>
자 연
었 다가</w>
긴 장</w>
충분 히</w>
인 류</w>
앞 서</w>
나 무
후 보</w>
추 진</w>
업 계</w>
앞 두</w>
실 제</w>
불 법</w>
리 치</w>
명 절</w>
당 국</w>
2 년</w>
확 실</w>
대 형</w>
규 정</w>
가 로
인 구</w>
어 른</w>
스 타</w>
묘 사</w>
덩 이</w>
꾸 미</w>
게 임</w>
건 너</w>
개 인</w>
가 을</w>
전 문</w>
위 치</w>
만 족</w>
다 치</w>
기 준</w>
그래 서</w>
군 대</w>
구 체적</w>
1 0</w>
점 차</w>
비 난</w>
망 치</w>
동 시
나타 내</w>
교 통</w>
협 력</w>
주 식</w>
동 산</w>
노 동</w>
고 자</w>
개 선</w>
장 관</w>
인 들</w>
우 주</w>
아 리</w>
벌 이</w>
기 구</w>
혹 시</w>
제 시</w>
소 한</w>
불 과</w>
보 통</w>
동 의</w>
도 는</w>
대 통
당 기</w>
피 곤</w>
재 미
으 려고</w>
오 랜</w>
없 애</w>
더 하</w>
아 끼</w>
신 청</w>
내 일</w>
낯 설</w>
남 녀</w>
진 실</w>
급 히</w>
그 립</w>
절 대로</w>
쓰 레
시 합</w>
부 인</w>
가 루</w>
자 세
상 하</w>
별 로</w>
다 랗</w>
눈 앞</w>
권 리</w>
감 히</w>
회 장</w>
확 보</w>
형 편</w>
참 석</w>
영 화
그 대</w>
온 몸</w>
모 델</w>
눈 빛</w>
고 장</w>
회 담</w>
절 약</w>
재 능</w>
작 용</w>
자 는</w>
스 트</w>
도 둑</w>
달 러</w>
그 림</w>
표 시</w>
촬 영</w>
종 류</w>
연 출</w>
명 예</w>
직 원들</w>
버 릇</w>
경 쟁
풀 이</w>
직 업</w>
장 점</w>
유 학</w>
산 물</w>
비 밀</w>
부 들</w>
물 리</w>
특 별
토 론</w>
무 원</w>
무 시</w>
구 두</w>
광 장</w>
하 자</w>
중 시</w>
작 가</w>
비 슷</w>
방 해</w>
맡 기</w>
따 로</w>
대 학
거 절</w>
확 대</w>
진 짜</w>
제 거</w>
정 신
자 체</w>
용 서</w>
등 장</w>
동시 에</w>
휴 가</w>
품 질</w>
질 문</w>
지 니</w>
주 일</w>
정 원</w>
자 원</w>
으 면서</w>
웃 음</w>
신 중</w>
사무 실</w>
불 안</w>
레 스</w>
적 절</w>
영 원
에 선</w>
신 부</w>
세 대</w>
글 자</w>
회 복</w>
장 님</w>
이 라
오 늘
연 주</w>
다가 오</w>
하 여금</w>
창 문</w>
조 각</w>
식 물</w>
등 학교</w>
챙 기</w>
입 술</w>
미 리</w>
미 국
처 지</w>
지하 철</w>
재미 있</w>
알 아
승 부</w>
서 의</w>
다 루</w>
각 자</w>
손 가락</w>
관 광
가 까
확 실히</w>
풍 기</w>
저 리</w>
예 산</w>
수 술</w>
부 족
라 이
현 대
햇 빛</w>
치 우</w>
이 상
위원 회</w>
웬 웬</w>
다 양</w>
공 항</w>
점 심</w>
으로 부터</w>
유 리</w>
사 원</w>
특 징</w>
운 전
세 금</w>
부 끄럽</w>
방 지</w>
그 동안</w>
귀 엽</w>
감 추</w>
가 리
5 년</w>
차 량</w>
조 절</w>
시 아
수 학</w>
떠 들</w>
디자 인</w>
도 대체</w>
대 책</w>
기 념
즉 시</w>
저 희</w>
인 트</w>
엄 격</w>
스타 일</w>
매 년</w>
풍 경</w>
으로 써</w>
수 박</w>
무 역</w>
기 장</w>
공 급</w>
지 진</w>
이 사</w>
었 으면</w>
비 치</w>
동 적</w>
고 민</w>
화장 실</w>
지 경</w>
시스 템</w>
따 뜻
휴 대
치 마</w>
놓 치</w>
구 매</w>
활 용</w>
핵 심</w>
택 시</w>
어 야
쌍 방</w>
보 도</w>
돌 보</w>
닥 치</w>
그래 도</w>
흥 분</w>
최 대</w>
찌 르</w>
장 고</w>
자 유
시 어서</w>
시 골</w>
부 치</w>
그만 두</w>
가 족
호 사</w>
학 기</w>
침 대</w>
천 천
잠 기</w>
방 면</w>
라 디오</w>
농 담</w>
경 치</w>
ㄴ 단</w>
한 마디</w>
천천 히</w>
조 심
잘 못
용 기</w>
범 위</w>
바 치</w>
몰 래</w>
가 난</w>
투 자
주 인
이 치</w>
원 칙</w>
영원 히</w>
다 양
기 본</w>
각 각</w>
형 제</w>
전 력</w>
부 동산</w>
놀 이</w>
구 입</w>
관 점</w>
최 선</w>
지 출</w>
실 현</w>
라 인</w>
결 론</w>
케 이
용 감</w>
어 리
실 천</w>
비 로
가 수</w>
가 끔</w>
희 정</w>
화 점</w>
학 년</w>
아 는지</w>
불 만</w>
난 히</w>
편 안</w>
커 다랗</w>
주 문</w>
비로 소</w>
문 자</w>
마 당</w>
나 중</w>
00 0
주 제</w>
의 혹</w>
여 론</w>
번 호</w>
둥 이</w>
동 작</w>
단 속</w>
기 술
그 런
국 가
유 리
요 청</w>
수 영</w>
상 승</w>
모 자</w>
후 회</w>
현 지</w>
하 얗</w>
조 리</w>
월 드
연 극</w>
얼 른</w>
사 귀</w>
본 적</w>
법 원</w>
덕 분</w>
냉 장고</w>
견 해</w>
격 적</w>
환 영</w>
처 하</w>
제 작</w>
잖 아</w>
으 니까</w>
안 개</w>
신 발</w>
소 금</w>
배 치</w>
도 리</w>
누 군
교통 사고</w>
페 이
채 소</w>
우 유</w>
모 집</w>
둘 러
돌아 다니</w>
그 룹</w>
화 제</w>
철 저히</w>
질 적</w>
주 민들</w>
젊은 이</w>
유 난히</w>
예 술
야 말로</w>
스 포
부딪 치</w>
부 정</w>
보 험</w>
경 영
거 울</w>
틀 리</w>
운 명</w>
아 시아</w>
손 해</w>
상 부</w>
사 관</w>
반 짝
렬 한</w>
결혼 식</w>
겠 니</w>
한 다</w>
집 단</w>
전 달</w>
여 행
부 장</w>
끓 이</w>
검 증</w>
거 기</w>
태 양</w>
처 벌</w>
물 질</w>
대 우</w>
너 희</w>
가리 키</w>
특 별</w>
죽 이</w>
작 물</w>
양 보</w>
아 가
시 달리</w>
시 는</w>
년 대</w>
1 1
현 금</w>
한 편</w>
피 해</w>
진 상</w>
지 시</w>
랑 이</w>
따 위</w>
글 씨</w>
공 동</w>
희 생</w>
형 태</w>
태 우</w>
일 단</w>
연 결</w>
어린 이</w>
았 다</w>
아무 렇</w>
식 품</w>
랜 드</w>
공 업</w>
착 하</w>
으 나</w>
유 산</w>
우리 집</w>
안 전
아 예</w>
로 서</w>
기 자</w>
곳 곳</w>
향 기</w>
중 단</w>
양 식</w>
세 요</w>
사 방</w>
부 지
독 립</w>
담 기</w>
그 저</w>
것 들</w>
조 그
전 략</w>
이 미
여 자
수 출</w>
속 담</w>
방 학</w>
눈 길</w>
규 칙</w>
홍 수</w>
절 차</w>
장 비</w>
업 자</w>
아무 것</w>
선 진
사이 즈</w>
매 장</w>
단 어</w>
농 사</w>
날 짜</w>
개 방</w>
가 스</w>
추 구</w>
주 먹</w>
저 기</w>
재 미</w>
상 관</w>
백 화점</w>
무 지</w>
모 시</w>
더 위</w>
고 프</w>
겠 습니까</w>
투 표</w>
장 기</w>
소 비</w>
색 깔</w>
비 추</w>
멋 지</w>
대 단</w>
뉴 스</w>
눈 치</w>
기 존</w>
고 집</w>
특 정</w>
정 보
잠 깐</w>
상 점</w>
불 편</w>
도 적</w>
대 사</w>
너 무
가 구</w>
하 나
포 기</w>
지 위</w>
제 때</w>
이 하</w>
월 급</w>
영 상</w>
어 뜨리</w>
어 떠
시 민들</w>
시 면</w>
순 서</w>
방 울</w>
대통 령</w>
당 연</w>
니 스</w>
그 치</w>
판 매
틀 림
카 메
축 구
재 주</w>
월드 컵</w>
생 일</w>
반 복</w>
농 업</w>
과 장</w>
거 든</w>
허 가</w>
학 문</w>
실 적</w>
신 문
기업 들</w>
계 절</w>
건 조</w>
파 괴</w>
정치 적</w>
안 되</w>
심 사</w>
미 안</w>
머 지</w>
료 들</w>
똑 똑
기 초</w>
교 류</w>
관 념</w>
친 하</w>
출 장</w>
작 성</w>
요 소</w>
실 제
빨 갛</w>
려 들</w>
독 특</w>
는 구나</w>
누군 가</w>
끼 치</w>
끼 리</w>
과 의</w>
공 적</w>
추 위</w>
정 의</w>
자신 감</w>
인 력</w>
에게 서</w>
선 발</w>
석 유</w>
새 우</w>
밤 새</w>
날 개</w>
가 만
출 근</w>
청 나</w>
증 거</w>
전문 가</w>
와 는</w>
영 국</w>
에서 의</w>
숨 기</w>
매 력</w>
르 르</w>
또 는</w>
누 리</w>
노 랗</w>
낭 비</w>
나 뭇
구 경</w>
고 맙</w>
결 승
한 바탕</w>
탁 자</w>
추 억</w>
추 세</w>
조용 히</w>
제 기</w>
정 성</w>
전 통
일 자리</w>
열 쇠</w>
안 경</w>
사이 트</w>
바 퀴</w>
메 이
4 0
취 미</w>
젊은 이들</w>
재 료</w>
인 도</w>
인 간
이 혼</w>
여 부</w>
반 영</w>
무 료</w>
교 실</w>
향 상</w>
햇 볕</w>
학 습</w>
진 출</w>
유 혹</w>
운 행</w>
시 지</w>
설 립</w>
서 류</w>
부 패</w>
뛰 어
누 나</w>
경 찰
타 이
중 간</w>
제 출</w>
엄 청나</w>
어 지
불 구</w>
부 상</w>
맥 주</w>
단 련</w>
규 제</w>
학 자</w>
카메 라</w>
체 제</w>
종 교</w>
쟁 이</w>
스트 레스</w>
세계 적</w>
부 시</w>
바 닷
들 이
놀 리</w>
허 락</w>
총 리</w>
주 년</w>
장 식</w>
이미 지</w>
위 험
위 원</w>
아 군</w>
시 행</w>
사회 적</w>
뻔 하</w>
트 럭</w>
장 애</w>
의 심</w>
음 식
원 고</w>
여 름
관 계
곤 란</w>
검 토</w>
체 면</w>
외 부</w>
성 질</w>
보 급</w>
박 물
미 루</w>
리 는</w>
로 잡</w>
대 출</w>
다 수</w>
년 들</w>
경 계</w>
힘 쓰</w>
헌 법</w>
프 랑
편 리</w>
제 한</w>
적 극적</w>
예 방</w>
얘 기</w>
손 자</w>
백 성</w>
마 비</w>
관 리
과 자</w>
환 경
화 재</w>
청소 년</w>
입 구</w>
스 크
수 요</w>
라 리</w>
나 머지</w>
지도 자</w>
정 식</w>
자세 히</w>
인 원</w>
으로 도</w>
실 망</w>
속 적</w>
보 장</w>
마 구</w>
당 연히</w>
과 적</w>
공 무원</w>
경제 적</w>
4 년</w>
1 6
형 성</w>
혁 명</w>
하 루
청 년</w>
전 시
연 필</w>
쓰레 기</w>
시 적</w>
소 통</w>
민 간</w>
대 량</w>
환 율</w>
형 식</w>
진 정한</w>
장 치</w>
우 주
신 뢰</w>
삼 촌</w>
박물 관</w>
따 뜻</w>
데 리</w>
게 으
1 8
통 신</w>
외 모</w>
에 어
아 빠</w>
쓰 러지</w>
사 막</w>
버 티</w>
묻 히</w>
님 들</w>
노동 자</w>
해 석</w>
취 소</w>
책임 지</w>
운 전</w>
와 의</w>
아 다는</w>
대 접</w>
기 념</w>
군 사</w>
구 석</w>
경 향</w>
겠 지</w>
파 도</w>
자 녀</w>
쓸 데
신 용
수 도
부 서</w>
말 리</w>
만 은</w>
뚜 렷</w>
때 리</w>
확 정</w>
해 당</w>
평 등</w>
통 제</w>
치 열</w>
지 로</w>
줄 어들</w>
실 험</w>
시 도</w>
수 건</w>
뒤 집</w>
대 응</w>
대 비</w>
담 당</w>
고 추</w>
흔 들리</w>
주인 공</w>
일 부
이 웃
위 안</w>
박 수</w>
따뜻 한</w>
동 료</w>
도 입</w>
금 융
결 심</w>
제 안</w>
었으 며</w>
시 비</w>
본 래</w>
바 위</w>
기 운</w>
가 르</w>
한 동안</w>
필 요
팔 리</w>
질 서</w>
연 장</w>
아가 씨</w>
비 교</w>
몇 몇</w>
드 물</w>
두 드리</w>
다이 어
눈 부시</w>
투 쟁</w>
철 저</w>
주 민</w>
장 난
일 주일</w>
예 의</w>
어떠 하</w>
쇼 핑</w>
돼 지</w>
너무 나</w>
과 연</w>
거 듭</w>
화 물</w>
학 적</w>
진 지</w>
조 선</w>
재 배</w>
자 네</w>
온 종일</w>
었 구나</w>
억 울</w>
아 쉽</w>
설 비</w>
배 경</w>
물 고기</w>
몸 매</w>
메 달</w>
다 도</w>
괴 롭</w>
거 세</w>
가족 들</w>
회 의
확 히</w>
평 범</w>
종 사</w>
자 국</w>
어서 야</w>
사 용
사 물</w>
보 다도</w>
박 사</w>
문 제
마 땅
로 이</w>
다양 한</w>
까 지는</w>
기 세</w>
그 야말로</w>
0 년대</w>
훔 치</w>
평 균</w>
집 어
적 당</w>
우 체
외 출</w>
속 하</w>
소 용</w>
더 럽</w>
허 용</w>
죄 송</w>
전문 가들</w>
연 속</w>
여 동생</w>
에 야</w>
어 느
서 리</w>
상당 히</w>
단 순</w>
그 날</w>
폭 력</w>
컬 러</w>
제 외</w>
자 격</w>
위 반</w>
오늘 날</w>
영 광</w>
실제 로</w>
시 각</w>
수 수</w>
부 풀</w>
낮 추</w>
교 훈</w>
희 정
지 를</w>
전 적</w>
농 민들</w>
농 민</w>
논 의</w>
구 조
교 환</w>
고 속
간 부</w>
차 별</w>
차 림</w>
재 판</w>
아 깝</w>
스 마
서 울
빌 딩</w>
마 찬
마 저</w>
돌 파</w>
달 하</w>
내 밀</w>
개 최</w>
활 발</w>
지 혜</w>
중 히</w>
위 로</w>
오 랜
었 음</w>
소비 자</w>
불 러
부 정
마찬 가지</w>
다 들</w>
나 비</w>
기 후</w>
기 울</w>
구 리</w>
걸 음</w>
프 리
특별 히</w>
청 바지</w>
장 난</w>
연 애</w>
사 실
방 침</w>
마 침</w>
다이어 트</w>
귀 하</w>
관 찰</w>
19 9
피 아
페이 지</w>
튼 튼</w>
킬 로
즈 음</w>
주 목</w>
적 합</w>
서 도</w>
사 망</w>
법 률</w>
바 람
바 라
다 듬</w>
게으 르</w>
개 념</w>
. .</w>
채 용</w>
일부 러</w>
오랜 만</w>
영 혼</w>
씌 우</w>
식 적</w>
식 량</w>
새 끼</w>
상 식</w>
만 지</w>
침 묵</w>
초 래</w>
조 화</w>
미 소</w>
괴 롭
공 주</w>
걸 이</w>
희 들</w>
행 정</w>
하 면</w>
피 로</w>
지 배
장 부</w>
이 동</w>
우 들</w>
어 기</w>
압 박</w>
시 즌</w>
소 년</w>
발 적</w>
도 전</w>
꼼 꼼
국 민들</w>
강 물</w>
준 비
적 용</w>
잘못 된</w>
인 사
으 리
완 화</w>
오 리</w>
아 서</w>
손 상</w>
성 명</w>
섞 이</w>
서 명</w>
생 선</w>
사 자</w>
사 리</w>
뛰 어들</w>
국 적</w>
과 목</w>
골 목</w>
감 소</w>
지 정</w>
여 기
어린 아이</w>
시 험
센 터</w>
사 례</w>
맞 이</w>
들 어
꾼 들</w>
근 처</w>
그 림
괴롭 히</w>
결 점</w>
걸 치</w>
가까 이</w>
가 라
호 흡</w>
협 조</w>
한 데</w>
창 고</w>
으 려</w>
유 지</w>
실 리</w>
수 행</w>
부 터
보 편
반 기</w>
대 중
당 한</w>
노 조</w>
깨 우</w>
테 이
촉 진</w>
진 정</w>
일 대</w>
으 시
우 정</w>
왜 곡</w>
심 판</w>
시 간
솔 직
새 기</w>
불러 일으키</w>
명 성</w>
마 무리</w>
따 라서</w>
남 자
공 정</w>
곧 바로</w>
거 대</w>
핸 드
지 불</w>
지 급</w>
중 앙</w>
전 개</w>
신 화</w>
신 분</w>
소 중</w>
반 면</w>
공 공
퇴 근</w>
토 록</w>
출 신</w>
지 들</w>
지 각</w>
조 성</w>
점 수</w>
전 공</w>
적 군</w>
일 한</w>
시 내</w>
부 자</w>
보 관</w>
기 들</w>
근 심</w>
구 속</w>
격 히</w>
강 아지</w>
2 1
10 0</w>
큰 일</w>
자 극</w>
익 히</w>
으로 서</w>
양 말</w>
분 하</w>
남 쪽</w>
기 름
권 위</w>
군 사
거 예요</w>
흔 히</w>
학 위</w>
주 도
정 상적</w>
우체 국</w>
에어 컨</w>
양 심</w>
싸 이</w>
소 녀</w>
부 럽</w>
만 화</w>
달 아나</w>
기 침</w>
근 육</w>
교 장</w>
호 수</w>
판 결</w>
체 하</w>
임 명</w>
우 산</w>
신 호</w>
스포 츠</w>
불 가
리 그</w>
력 적</w>
드 디어</w>
동 원</w>
깨 닫</w>
00 0</w>
침 체</w>
직 하</w>
증 상</w>
중 요
조 사
위 협</w>
여기 저기</w>
었 네</w>
어 긋
심 리</w>
보 수</w>
박 히</w>
바 이러
동 료들</w>
는 다는</w>
내 려
그런 데</w>
과 제</w>
파 업</w>
증 명</w>
주 사</w>
전 시</w>
임 신</w>
으 셨다</w>
외 치</w>
악 화</w>
스 런</w>
숙 제</w>
수 익</w>
수 법</w>
속 히</w>
소 파</w>
성 분</w>
부 문</w>
놀 랍</w>
너 희들</w>
국 민
흐 리</w>
협 정</w>
프로 젝
진 심</w>
졸 업
정 당</w>
원 단</w>
우 려</w>
외 교</w>
옆 집</w>
얼 음</w>
숙 이</w>
소 방
소 득</w>
선 보이</w>
병 사들</w>
물 가</w>
단 결</w>
충 분</w>
추 정</w>
중 앙
주 도</w>
잘 되</w>
으 므로</w>
운 드</w>
완 전</w>
억 지로</w>
다 소</w>
2 0</w>
휴 식</w>
혼 란</w>
품 들</w>
클 럽</w>
체 계</w>
차 원</w>
차 라리</w>
온 도</w>
여 유</w>
어긋 나</w>
아 니
승 진</w>
순 조</w>
수 확</w>
사 고
무 늬</w>
무 게</w>
당 장</w>
꼬 리</w>
기 억
근 로
공 포</w>
감 당</w>
8 년</w>
프랑 스</w>
풍 속</w>
의 무</w>
소 화</w>
상 금</w>
부 정적</w>
법 적</w>
벌 금</w>
바이러 스</w>
동 정</w>
극 히</w>
겨 울
프로젝 트</w>
포 장</w>
초 청</w>
질 병</w>
지 대</w>
적 응</w>
입 학</w>
일 종</w>
이 윤</w>
야 구</w>
실 행</w>
면 하</w>
마 하</w>
등 산</w>
대 문</w>
기 도</w>
구 분</w>
겸 손</w>
거 품</w>
개 성</w>
감 각</w>
가만 히</w>
1 3
효 과적</w>
확 산</w>
해 소</w>
친 절</w>
창 작</w>
지 갑</w>
점 검</w>
에 다</w>
었 다면</w>
야 당</w>
번 역</w>
받 치</w>
마땅 히</w>
떨 어뜨리</w>
대 사관</w>
논 란</w>
기 한</w>
금 씩</w>
6 0
해 안</w>
체 들</w>
지 방
전 화
전 자
음 모</w>
아 저
신 선
신 들</w>
생 물</w>
사 장님</w>
발 행</w>
매 달리</w>
떨 리</w>
두 껍</w>
그 루</w>
교 체</w>
건 축
강 제</w>
합 리적</w>
포 인트</w>
조 약</w>
유 통</w>
성 한</w>
사 무</w>
복 지</w>
미 술</w>
문화 재</w>
리 하</w>
대 기업</w>
노 리</w>
극 장</w>
균 형</w>
.. .</w>
후 보
호 랑이</w>
이상 한</w>
영 업</w>
열 정</w>
신 랑</w>
시 민</w>
생산 량</w>
살 짝</w>
몰 아
는 다면</w>
남 북</w>
객 관적</w>
감 격</w>
간 장</w>
호 소</w>
해 치</w>
프 로</w>
파 랗</w>
축 제</w>
이 젠</w>
연 예
어 쩌
어 선</w>
수 집</w>
수 십</w>
상 징</w>
불 가능</w>
남 성</w>
강 요</w>
취 업</w>
청 춘</w>
줄 이</w>
용 품</w>
옷 차림</w>
예 측</w>
에게 도</w>
어 젯
수 용</w>
선 정</w>
보 고</w>
방송 국</w>
뒤 지</w>
대 비
답 니다</w>
달 래</w>
거 짓</w>
협 회</w>
합 치</w>
주의 해</w>
종 종</w>
조 금씩</w>
요 금</w>
오 래
역 대</w>
어 른
약 점</w>
알 맞</w>
아 르
아 랫
산 책</w>
보 충</w>
백 성들</w>
미 끄
리 아</w>
다 음
농 작물</w>
노동 자들</w>
까 지도</w>
기 원</w>
금 년</w>
권 하</w>
거 부</w>
간 호사</w>
휴 대</w>
행 히</w>
충 격</w>
존 중</w>
조 상</w>
잔 뜩</w>
이 틀</w>
음 악
완 수</w>
여 권</w>
어젯 밤</w>
애 쓰</w>
아저 씨</w>
신 입
물 품</w>
모 자라</w>
멋 대로</w>
매 번</w>
기 차
2 5
체 력</w>
청 와
지 어</w>
장 래</w>
장 군</w>
잠 들</w>
외 지</w>
언 젠
신 체</w>
스 리</w>
병 들</w>
경쟁 력</w>
가 입</w>
협 의</w>
추 천</w>
천 재</w>
정 확히</w>
위 성</w>
양 쪽</w>
스 레</w>
바라 보</w>
등 록</w>
도 덕
나 날</w>
그 래</w>
그 다지</w>
구 역</w>
관 광</w>
고 정</w>
계 약
홍 콩</w>
청와 대</w>
중 소
임 시</w>
원 망</w>
완 벽</w>
엔 진</w>
소 음</w>
설 계</w>
서 적</w>
디 지
대 신</w>
단 점</w>
나 마</w>
피아 노</w>
충 돌</w>
좌 석</w>
자 면</w>
일 치</w>
연 말</w>
업 종</w>
슈 퍼
송 이</w>
생 생
비 롯</w>
분 노</w>
무 장</w>
도 구</w>
더 미</w>
단 단히</w>
기 자들</w>
교 과
공 식</w>
결 정
7 년</w>
투 명</w>
진 보</w>
지 붕</w>
조심 해</w>
조그 맣</w>
전 환</w>
저 런</w>
잡 이</w>
작 전</w>
욕 심</w>
어 쨌
쓸데 없</w>
심 장</w>
시 집
숭 이</w>
선 거
서 양</w>
빨 래</w>
나 는</w>
교 제</w>
거 리
감 동</w>
희정 이</w>
취 재</w>
출 입</w>
차 갑</w>
주 시
좌 우</w>
전 선</w>
잡 지</w>
언젠 가</w>
숫 자</w>
순 위</w>
선 언</w>
딱 하</w>
들 썩
두 부</w>
농 구</w>
녀 들</w>
관 중</w>
터 리</w>
집 행</w>
진 주</w>
지난 달</w>
지 속</w>
절 반</w>
일 관</w>
실 내</w>
수 들</w>
세 트</w>
분 간</w>
모 임</w>
마 라
내 세우</w>
관 련
측 은</w>
종 업
접 시</w>
접 근</w>
저 것</w>
안 타
선 명</w>
생 존</w>
상 호</w>
브 랜드</w>
바 이
명 품</w>
매 달</w>
더 기</w>
대 체
대 규모</w>
다 스리</w>
궁 금</w>
공 평</w>
강 도</w>
카 롭</w>
정 복</w>
재 난</w>
일 상</w>
영 토</w>
열 매</w>
연 합</w>
연 이</w>
에 겐</w>
업 적</w>
엄 하</w>
어쨌 든</w>
어리 석</w>
심 지어</w>
실 종</w>
손 실</w>
상 실</w>
무 지
독 립
날 카롭</w>
끊 이</w>
거 행</w>
간 단</w>
3 0</w>
확 신</w>
통 일</w>
체 결</w>
정 비</w>
장 수</w>
이 행</w>
위 엔</w>
외 교
불 행</w>
부 엌</w>
본 인</w>
바 이</w>
문 명</w>
대표 적</w>
대 한
대 기</w>
꾸 리</w>
고 전</w>
건 드리</w>
핑 계</w>
요 인</w>
오 직</w>
었 나</w>
어 오르</w>
안타 깝</w>
시 청
스 승</w>
수 한</w>
손 님들</w>
고 용</w>
고 사</w>
학 원</w>
집 안
적 극</w>
원 수</w>
외국 어</w>
역 사적</w>
어야 겠다</w>
신 용</w>
신 세</w>
소 홀
세 포</w>
사 기
분 쟁</w>
부 하</w>
미국 은</w>
목 욕</w>
늦 추</w>
기 본적</w>
귀 찮</w>
경 비</w>
각 국</w>
가 짜</w>
훼 손</w>
활 짝</w>
합 의</w>
피 스</w>
편 견</w>
터 뜨리</w>
찬 성</w>
조 급</w>
요 즈음</w>
엘 리
압 력</w>
부 처</w>
밖 에도</w>
모 래
똑똑 하</w>
답 답</w>
논 리</w>
고 하</w>
고 등학교</w>
경 기장</w>
결 합</w>
각 지</w>
1 위</w>
휴대 전화</w>
합 격
풍 조</w>
틀림 없이</w>
통 화</w>
테 니스</w>
최 고
쳐 다보</w>
자 본</w>
자 루</w>
이 리</w>
의 존</w>
음식 점</w>
유 출</w>
소 프
사 탕</w>
사 법
봉 투</w>
며 느리</w>
머 무르</w>
논 쟁</w>
남 동생</w>
끈 하</w>
그림 자</w>
계 기</w>
침 착</w>
최 대한</w>
짐 작</w>
으 려면</w>
외국 인</w>
올 바르</w>
연 설</w>
성 화</w>
사 진
부 근</w>
밤 낮</w>
미 군</w>
메 시지</w>
마 주
덮 이</w>
대 장</w>
깨 끗
깔 리</w>
기 온</w>
고 루</w>
계 획
겠 느냐</w>
거 실</w>
가 뭄</w>
홀 로</w>
청 하</w>
주 가</w>
제 의</w>
정신 적</w>
정 력</w>
장 성</w>
이 별</w>
으 라</w>
원 숭이</w>
오 토
여 섯</w>
억 제</w>
승 낙</w>
수 수
소 장</w>
비 비</w>
분 배</w>
배 출</w>
바 보</w>
머리 카
드 러지</w>
대 처</w>
당 부</w>
기 둥</w>
금 속</w>
1 4
.. ..</w>
회 원</w>
한국 어</w>
파 티</w>
최 초</w>
즐 거
제 법</w>
잡 아
입 맛</w>
이 리
이 라도</w>
유 물</w>
유 명
웃 음
여 인</w>
어느 새</w>
어 둠</w>
안 심</w>
신 비</w>
시 끄럽</w>
사 업
비 율</w>
봉 사</w>
보 험
반 찬</w>
무 역
무 사
머리카 락</w>
둘러 싸</w>
동 쪽</w>
동 지</w>
도 중</w>
도 망
대 충</w>
당 당</w>
눈 썹</w>
깃 발</w>
김 치</w>
교 재</w>
고속 도로</w>
고 리</w>
허 물</w>
폭 발</w>
침 략</w>
추 측</w>
총 명</w>
재 정</w>
인 민</w>
이 마</w>
워 낙</w>
우 스</w>
영 역</w>
소 송</w>
소 매</w>
세 차</w>
설 사</w>
상 상</w>
빛 나</w>
비 리</w>
병 사</w>
범 하</w>
머 릿
막 대</w>
란 히</w>
달 걀</w>
다 운</w>
깜 짝</w>
그리 움</w>
교과 서</w>
과학 적</w>
곡 식</w>
힘 껏</w>
확 장</w>
항 공
판 사</w>
투 입</w>
토 지</w>
친 척</w>
체 포</w>
찾 아
주 방</w>
조 작</w>
전 면적</w>
적 어도</w>
어른 들</w>
설 득</w>
생생 하</w>
변 경</w>
명 확</w>
마 약</w>
당 신들</w>
경 력</w>
개 발
1 7
초 등학교</w>
체 육</w>
체 육
천 하</w>
주 택
절 히</w>
적 지</w>
자 재</w>
자 산</w>
일 생</w>
여 당</w>
아이 템</w>
신 념</w>
술 집</w>
수 립</w>
소 란</w>
브 라
범 죄
명 단</w>
맛 보</w>
말 투</w>
마 주</w>
레 이</w>
내 리
겠 지만</w>
2 4
헤 아리</w>
한 계</w>
탁 월</w>
타 협</w>
착 용</w>
지 표</w>
장 한</w>
일 요일</w>
여 성들</w>
엉 덩이</w>
양 측</w>
안 전</w>
아 오르</w>
소홀 히</w>
셨 습니다</w>
보 존</w>
발 전
발 급</w>
만 일</w>
만 이</w>
라 며</w>
과 도</w>
고 들</w>
건 강
9 월</w>
환 상</w>
테 러</w>
침 해</w>
정 상
접 대</w>
장 애
이리 저리</w>
이라 크</w>
의 도</w>
은 혜</w>
우 치</w>
요 새</w>
연 못</w>
아 면</w>
아 다가</w>
시 체</w>
색 상</w>
비 유</w>
보 호
벽 돌</w>
벗 기</w>
뭉 치</w>
똑 같</w>
도망 가</w>
뇌 물</w>
기 상
공 중</w>
게 요</w>
각 기</w>
황 제</w>
황 금</w>
혜 택</w>
한 가</w>
처 녀</w>
제 재</w>
정치 권</w>
전시 회</w>
이 해
의 학</w>
위 대</w>
오토 바이</w>
여 지</w>
아름 다
아름다 움</w>
실 례</w>
소 모</w>
뿐 만</w>
빼 앗</w>
부 탁
발 굴</w>
바 둑</w>
문 예</w>
마라 톤</w>
긴 급</w>
결승 전</w>
헛 되</w>
햇 살</w>
하 이
타 인</w>
천 연
지 하</w>
정 세</w>
인 격</w>
유 치
위험 한</w>
예 외</w>
언 덕</w>
애 정</w>
신 기</w>
수 정</w>
성 사</w>
선진 국</w>
불 길</w>
부딪 히</w>
모 순</w>
둘 째</w>
더 러</w>
대 전</w>
구 르</w>
관 객들</w>
관 객</w>
공 동
강 의</w>
갈 리</w>
9 년</w>
활 약</w>
표 면</w>
지 점</w>
조 용</w>
전통 적</w>
작 업
이 자</w>
이 거</w>
었 었다</w>
었 니</w>
앞 뒤</w>
선 호</w>
서 쪽</w>
북 쪽</w>
민주 주의</w>
물 결</w>
멘 트</w>
메 우</w>
맞 서</w>
기 상</w>
광 경</w>
감 싸</w>
흥 미</w>
화 물
출 산</w>
초 대</w>
저 축</w>
저 렇</w>
인 민
음 료</w>
으 세요</w>
연 하</w>
에 이</w>
아 주머니</w>
아 는</w>
불 평</w>
불 빛</w>
베 풀</w>
미끄 러지</w>
문 학
로 써</w>
동 감</w>
꾸 준
기 타</w>
계 단</w>
휘 두르</w>
화 장</w>
한 층</w>
크 리
커 녕</w>
칙 적</w>
취 급</w>
총 장</w>
처 분</w>
짜 리</w>
제 하</w>
정 기</w>
저 장</w>
인 형</w>
이 야</w>
욕 망</w>
에 이
신문 사</w>
사실 상</w>
부족 한</w>
발 음</w>
반짝 이</w>
바 늘</w>
매 체</w>
랍 니다</w>
동 물
단 정</w>
다 롭</w>
꺼 지</w>
까 다롭</w>
기차 역</w>
금 융</w>
금 메달</w>
금 리</w>
국 면</w>
구 별</w>
거 스
거 래
거 라</w>
가 시</w>
핸드 폰</w>
하 락</w>
평 화
처 리
책임 자</w>
지 껄
즐거 움</w>
존 경</w>
젓 가락</w>
자 기
일 제</w>
일 어서</w>
원 한</w>
어지 럽</w>
양 해</w>
신 제품</w>
스 토
수 상</w>
센 트</w>
사 납</w>
빈 곤</w>
무 조건</w>
마 찰</w>
리 었다</w>
렸 다</w>
런 히</w>
등 록
들 르</w>
되 찾</w>
대체 로</w>
다 행히</w>
나 르</w>
꾸준 히</w>
관 중들</w>
건 의</w>
회 전</w>
피 해
클 래
종업 원</w>
잘 나</w>
이 른
을 수록</w>
원 리</w>
영 장</w>
영 양
아 몬
성 숙</w>
설 탕</w>
선 두</w>
생 태
살 이</w>
산 업
사 양</w>
사 소한</w>
부 두</w>
독 자</w>
대 략</w>
내 외</w>
끌 리</w>
기 부</w>
구 성
고 의</w>
게 시
감 상</w>
6 월</w>
6 년</w>
형 사</w>
한 숨</w>
케이 크</w>
칠 하</w>
출 판</w>
최 종</w>
주 관</w>
졌 다</w>
정 면</w>
재 촉</w>
이 념</w>
우 울</w>
왕 왕</w>
아몬 드</w>
아 고</w>
식 구</w>
시 고</w>
수 입
솔직 히</w>
소 포</w>
선 수</w>
생각 나</w>
산 소</w>
보 증</w>
베 개</w>
법 안</w>
배 제</w>
발 사</w>
바 로잡</w>
민 준</w>
두 루</w>
도 덕</w>
늘 리</w>
넓 히</w>
개 인
3 일</w>
, 000
혹 은</w>
행 하</w>
한 테
풍 습</w>
충분 한</w>
찌 개</w>
직 위</w>
지 원
점 잖</w>
적 당
적 거리</w>
인 가</w>
이 요</w>
이 내</w>
의 문</w>
으 러</w>
영 원</w>
엄 금</w>
언 급</w>
알아 듣</w>
식 간</w>
시 ㅂ니다</w>
수 비</w>
석 탄</w>
바 이트</w>
밀 가루</w>
믿 음</w>
모 범</w>
대 대적</w>
당 황</w>
달 성</w>
끌 어
껍 질</w>
꺼 리</w>
길 이</w>
결 정적</w>
가 량</w>
표 준
파 이
측 면</w>
직 면</w>
중 대한</w>
주 최</w>
접 어들</w>
전 제</w>
일 곱</w>
이른 바</w>
이 래</w>
의 료
역 량</w>
신선 한</w>
신 사</w>
수 속</w>
소 홀</w>
성 공적</w>
섭 취</w>
서 예</w>
붙 잡</w>
보편 적</w>
벌 레</w>
미 술
들 뜨</w>
도 달</w>
대 들</w>
농 산물</w>
노 트
난 처</w>
나뭇 가지</w>
급 증</w>
개 정</w>
강 연</w>
감 시</w>
8 월</w>
화 학</w>
현 명</w>
헤 치</w>
헤 매</w>
표 준</w>
추 석</w>
증 세</w>
중 독</w>
접 촉</w>
적 시</w>
잇 따르</w>
어 머
안 내
식 민
시 원
손 톱</w>
선 박</w>
사 격</w>
별 도</w>
멍 하</w>
마 땅</w>
로 만</w>
디 디</w>
동 기</w>
대 다수</w>
담 그</w>
느 낌</w>
놀 이
구 축</w>
하 이</w>
탄 생</w>
채 택</w>
차 도</w>
중소 기업</w>
종 목</w>
제 멋대로</w>
정치 인</w>
정 직</w>
전문 적</w>
입 시</w>
일 정한</w>
외 롭</w>
신 선</w>
시 ㅂ니까</w>
승 객</w>
순 수</w>
생 동감</w>
불 교</w>
부 산</w>
배 추</w>
반 지</w>
민 족
문 서</w>
디지 털</w>
대 선</w>
금 액</w>
구 상</w>
구 니</w>
광 범위</w>
건 네</w>
개 설</w>
강 력
가 지
휴 일</w>
혈 압</w>
특 수</w>
통 치</w>
텐 데</w>
킬로 미터</w>
충 실</w>
집안 일</w>
중 한</w>
접 수</w>
장 하</w>
익 숙</w>
용 돈</w>
외 우</w>
오 차</w>
아르 바이트</w>
아 동</w>
실 질적</w>
시 인</w>
상 가</w>
보 유</w>
도 박</w>
도 무지</w>
대 폭</w>
깨끗 이</w>
깔 끔</w>
기 질</w>
기 관
3 명</w>
1 일</w>
항 의</w>
한 미</w>
청소 년들</w>
창 조</w>
지 배</w>
전 반
재 물</w>
자 질</w>
잇 달</w>
응 시</w>
유 치</w>
위 대한</w>
오 리
영 업
안 팎</w>
실 패
스마 트
수 도</w>
속 이</w>
소프 트
부탁 드리</w>
부 수</w>
반 대
무 렵</w>
만 두</w>
마 감</w>
되 돌</w>
꿈 꾸</w>
기 하</w>
5 월</w>
20 년</w>
행 정
해 방</w>
토 끼</w>
철 수</w>
집 회</w>
지난 날</w>
지 민</w>
전 술</w>
자 본
일 본
인터 뷰</w>
이 제
유 일한</w>
웨 어</w>
왼 쪽</w>
염 려</w>
앉 히</w>
식 들</w>
시 멘트</w>
법 정</w>
무 덥</w>
못 되</w>
만 큼
마 이
따 라
당 분간</w>
단 적</w>
냉 정</w>
꼽 히</w>
까 닭</w>
강 력</w>
감 옥</w>
갇 히</w>
형 적</w>
한 지</w>
학 계</w>
파 고들</w>
탁 구</w>
출 연</w>
초 콜
찍 이</w>
인 체</w>
신 경
수 적</w>
솔 직</w>
세 탁</w>
서 야</w>
삼 키</w>
삼 성</w>
빠 뜨리</w>
불 량
보 름</w>
모 욕</w>
리 라</w>
러 시아</w>
더 욱
노 출</w>
노 릇</w>
고 기
계 란</w>
가라 앉</w>
항 구</w>
트 이</w>
착 실</w>
종 합
정 지</w>
인 근</w>
으로 만</w>
우 선
양 복</w>
쓸 쓸</w>
붐 비</w>
번 영</w>
민 국</w>
데 요</w>
당 초</w>
다이 아몬드</w>
다 툼</w>
다 름
깨 뜨리</w>
기 색</w>
근 본적</w>
그 분</w>
교 묘</w>
개 혁
개 미</w>
5 0</w>
3 월</w>
호 랑</w>
퍼 붓</w>
측 정</w>
집 착</w>
이 성</w>
의 외</w>
응 하</w>
육 지</w>
용 차</w>
요 리
영 웅</w>
엄 격히</w>
양 성</w>
아이 디어</w>
아 프리
쌍 둥이</w>
신용 카드</w>
시 집</w>
순 식간</w>
소비 자들</w>
상 들</w>
사 원들</w>
사 랑
비 상
북 방</w>
보 완</w>
두 드러지</w>
동 영상</w>
도 자</w>
느 라고</w>
노트 북</w>
끼 우</w>
국 수</w>
건 설
2 명</w>
회 계</w>
할 인</w>
포 도</w>
페 인트</w>
팡 이</w>
창 의
질 기</w>
지 우</w>
좀 처럼</w>
전 등</w>
원 피스</w>
영 감</w>
앞 당기</w>
시 시
수 량</w>
병 력</w>
무사 히</w>
머릿 속</w>
매 주</w>
마음 씨</w>
동 력</w>
꼭 대기</w>
규 율</w>
관계 자</w>
계 적</w>
가 축</w>
7 월</w>
흔 적</w>
화 면</w>
충 고</w>
출 국</w>
추 가</w>
초 과</w>
체 험</w>
채 널</w>
참 가
즉 각</w>
중 학교</w>
종 자</w>
장난 감</w>
자 발적</w>
육 성</w>
용 모</w>
어쩌 면</w>
어린 이들</w>
시 들</w>
순 환</w>
소 원</w>
사 일</w>
북 한</w>
부 과</w>
보 살피</w>
반 갑</w>
민 주</w>
돋 보이</w>
단 위</w>
단 독</w>
녹 음</w>
나 물</w>
굽 히</w>
국 방
구 호</w>
학 설</w>
패 션</w>
통 증</w>
타 격</w>
초콜 릿</w>
차 피</w>
차 적</w>
짜 증</w>
징 수</w>
진 작</w>
진 입</w>
지 휘
조 합</w>
저 자</w>
이 드</w>
의 사
연 대</w>
언 론
어 차피</w>
애 완
시 야</w>
상대 적</w>
비 준</w>
변 명</w>
베이 터</w>
법 칙</w>
반 발</w>
맞 히</w>
마주 치</w>
마 루</w>
라 니</w>
동 전</w>
다 리
났 다</w>
남 방</w>
꼼꼼 하</w>
근 면</w>
구 단</w>
관 건</w>
계 층</w>
격 차</w>
플 라
풍 격</w>
편 집
터 널</w>
탐 구</w>
착 수</w>
지 체</w>
지 역
지 속적</w>
주 권</w>
져 우</w>
정 규
정 경</w>
전 설</w>
인 질</w>
이 랑</w>
이 것
위원 장</w>
우 스
외 투</w>
오 로
오 가</w>
엘리 베이터</w>
소 리치</w>
서 히</w>
서 서히</w>
생 계</w>
삼 성
사 치</w>
붕 괴</w>
부 채</w>
바 나
리 한</w>
대 학생</w>
냐 는</w>
나무 라</w>
기 지</w>
굴 복</w>
국 물</w>
고 소</w>
경 고</w>
결 승</w>
게 다가</w>
거스 르</w>
갑 작</w>
가 정
30 분</w>
하 지</w>
하 고는</w>
파 리</w>
택 하</w>
첨 단</w>
채 권</w>
조 각
제 1
전 파</w>
적 발</w>
자 니</w>
이 때</w>
워 크</w>
우 승
옷 감</w>
연 간</w>
아 우
세 련</w>
석 방</w>
사고 방식</w>
비 누</w>
본 격적</w>
배 들</w>
만 을</w>
대 학교</w>
달 라</w>
내 다보</w>
난 관</w>
공 자</w>
계약 서</w>
견 제</w>
겠 네</w>
거 르</w>
3 개월</w>
허 위</w>
하 찮</w>
출 시</w>
최 소한</w>
직 무</w>
주 류</w>
정 서</w>
장 마</w>
임 하</w>
인 사들</w>
인 공
엎 드리</w>
식민 지</w>
스 터</w>
수 지</w>
뽐 내</w>
바닷 가</w>
물 리치</w>
모 래</w>
말 다툼</w>
덧 붙이</w>
대 립</w>
대 가</w>
근 대</w>
그 럽</w>
국 정</w>
공 장
고 비</w>
격 려</w>
갖 가지</w>
감 염</w>
4 월</w>
홍 보</w>
한 강</w>
패 턴</w>
천 적</w>
집 중
중 지</w>
주 전자</w>
주 자</w>
좌 절</w>
접 적</w>
자 존
입 원</w>
입 사</w>
이것 저것</w>
이 름
용 의자</w>
여 객
에서 부터</w>
얻 어
시 어</w>
슬 리</w>
소 나무</w>
비 우</w>
복 도</w>
변 호사</w>
밤 중</w>
모 험</w>
맴 돌</w>
리 티</w>
떨 치</w>
등 급</w>
둥 글</w>
도 둑
과 시</w>
곤 충</w>
고 인</w>
고 속</w>
고 백</w>
가 슴
학 업</w>
평 가
퍼 지</w>
퍼 센트</w>
치 안</w>
지 근
주 름</w>
종 합</w>
제 사</w>
제 목</w>
전 반</w>
재 정
잠 자</w>
자 제</w>
입 히</w>
일 류</w>
인 권</w>
이 키</w>
유 독</w>
유 니
우 습</w>
예 약</w>
열 풍</w>
어 들
싸 움</w>
스마트 폰</w>
스 치</w>
수 습</w>
세 한</w>
선 배</w>
부터 는</w>
부 합</w>
부 위</w>
밧 줄</w>
발 효</w>
밀 접</w>
며 칠
데 이트</w>
단 장</w>
날 씬</w>
기 본
19 8
효 율</w>
활 한</w>
혁 신</w>
허 리
합 법적</w>
학 대</w>
퇴 직</w>
토 마
타이 어</w>
지난 번</w>
전 후</w>
전 투
재 해</w>
일 제
유 도</w>
우 표</w>
요 란</w>
오 르
여 덟</w>
안 보</w>
심 정</w>
스 키</w>
속 임
설 마</w>
사 령
볶 음</w>
보 고서</w>
문 물</w>
모 처럼</w>
매 력적</w>
말 하기</w>
말 씀
로 움</w>
로 도</w>
딱 딱하</w>
동 화</w>
당 선</w>
금 하</w>
근로 자</w>
구 두
가 꾸</w>
티 셔츠</w>
특 성</w>
투 수</w>
토 양</w>
콤 한</w>
짐 승</w>
중 심
조 카</w>
제 발</w>
적 하</w>
저 항</w>
잠 자리</w>
작 정</w>
유 형</w>
여 자들</w>
업 무
실 용
순 히</w>
소 수</w>
성 향</w>
선 진</w>
산 문</w>
사 흘</w>
비 행</w>
비 밀
북 경</w>
미 끄럽</w>
란 한</w>
뚱 하</w>
드 리
도덕 적</w>
대한 민국</w>
달 빛</w>
다 정</w>
느 니</w>
근 본</w>
그 라
공 헌</w>
경 지</w>
감 사
흔 하</w>
회 상</w>
화장 품</w>
폭 우</w>
패 배</w>
통 계</w>
주 유
조 차도</w>
정 통</w>
정 착</w>
적 진</w>
적 자</w>
잠 재
일 처리</w>
일 찍이</w>
의 회</w>
의 상</w>
유 머</w>
연예 인</w>
었 을까</w>
아 까</w>
심 혈</w>
시아 오
속임 수</w>
생 명
불 황</w>
배 고프</w>
발 걸음</w>
바 짝</w>
머 물</w>
매 이</w>
매 끄럽</w>
로 의</w>
되 풀이</w>
도 장</w>
대비 해</w>
대 개</w>
노 인들</w>
그 늘</w>
구 제</w>
교 수
관광 객</w>
걸 음
개 편</w>
2 8
희 미</w>
함 정</w>
파 손</w>
태 극
치 기</w>
천 지</w>
창 업</w>
지 사</w>
정 월</w>
자 살</w>
입 니</w>
일 일</w>
인 내
이라 이</w>
응 원</w>
온 라인</w>
오로 지</w>
연 회</w>
연 맹</w>
여름 철</w>
언 행</w>
심 한</w>
시 하</w>
수 분</w>
소 속</w>
소 박</w>
성 장
성 이</w>
사 안</w>
사 로잡</w>
분 리</w>
보 석</w>
벼 락</w>
발 목</w>
바나 나</w>
묵 히</w>
몰 려들</w>
면 모</w>
람 회</w>
떠 들썩
돼 지
도 망치</w>
도 리어</w>
대 지</w>
달 려들</w>
다가 가</w>
다 행</w>
낙 관적</w>
길 가</w>
관 들</w>
고 시</w>
고 무
거 꾸
개 입</w>
희 생
호 적</w>
해 외
하 마
하 구</w>
탈 락</w>
재 수</w>
자존 심</w>
자 식들</w>
일 깨우</w>
이 한</w>
이 달</w>
의 료</w>
유 통
원 장</w>
운 반</w>
온 화</w>
염 병</w>
여자 친구</w>
신입 생</w>
식 히</w>
시 력</w>
상당 한</w>
무 언
맺 히</w>
도 모</w>
다 시
네 트
넘 어서</w>
꾸 짖</w>
까 맣</w>
글 로
고 무</w>
가 위</w>
가 사</w>
7 0
5 00
한 결</w>
토 론
천 장</w>
진 단</w>
제 조
정 체</w>
접 하</w>
저 버리</w>
자 적</w>
인 연</w>
위 주</w>
액 체</w>
액 수</w>
아프리 카</w>
싱 싱</w>
식 장</w>
시 리
손 짓</w>
서 이</w>
서 술</w>
사 냥
범 행</w>
번 에</w>
배 열</w>
배 상</w>
배 달</w>
방 영</w>
물 체</w>
멸 망</w>
마 켓</w>
들 추</w>
단 호</w>
노 예</w>
노 선</w>
긍 정적</w>
국 무
교 회</w>
교 정</w>
고 상</w>
건 너
가 을
흠 뻑</w>
활 기</w>
항 공</w>
하 고도</w>
판 정</w>
틀림 없</w>
통 신
터 지</w>
타 오르</w>
클래 식</w>
총 알</w>
지 금
중 계</w>
주유 소</w>
조 선
정 부
전 원</w>
장 나</w>
인 쇄</w>
은 은</w>
은 색</w>
원 만</w>
연 료</w>
었으 므로</w>
야 채</w>
시 해</w>
시 위대</w>
습 기</w>
스 크</w>
수 리
쇼 핑
복 권</w>
복 구</w>
보 상</w>
박 한</w>
바람 직하</w>
문 지르</w>
문 득</w>
매 사</w>
말 썽</w>
리 ㄴ</w>
러 움</w>
떠들썩 하</w>
덕 이</w>
더 듬</w>
노 사</w>
네 티
기 력</w>
귀 국</w>
구 절</w>
가로 막</w>
4 명</w>
30 년</w>
20 1
한 두</w>
학 자들</w>
하 룻
프 린
퉁 이</w>
코 치</w>
출 동</w>
창 밖</w>
참 신</w>
착 오</w>
쫓 기</w>
질 환</w>
질 하</w>
지껄 이</w>
중 점</w>
일 해</w>
일 할</w>
일 상
유 능</w>
위 적</w>
외 면</w>
왕 래</w>
예 보</w>
여 태
에 까지</w>
엉 뚱</w>
억 압</w>
양 념</w>
아이 돌</w>
실 은</w>
스타 들</w>
수 치</w>
수 위</w>
소프트 웨어</w>
사 발</w>
비 타
비 상</w>
부지 런히</w>
부 작용</w>
복 지
복 용</w>
번 지</w>
배 우들</w>
무 성</w>
명 적</w>
멋 있</w>
럽 히</w>
뒤 집어
동 포</w>
돋 우</w>
더 이상</w>
대 원들</w>
대 열</w>
낚 시</w>
나 뉘</w>
깨 달
기 개</w>
공 약</w>
계 곡</w>
각 오</w>
3 00
휴대 폰</w>
회의 장</w>
현 실적</w>
항 목</w>
학 력</w>
하 천</w>
하 길</w>
취 직</w>
철 학</w>
착 륙</w>
진 귀</w>
직 자</w>
지 극히</w>
종 적</w>
의 치</w>
의 논</w>
의 기
음 료
유 권
원 화</w>
열 렬한</w>
업 체들</w>
어머 님</w>
안 주</w>
심 사
신 속</w>
신 고</w>
승 용차</w>
습 격</w>
스 피
세 균</w>
성 인</w>
상 담</w>
삼 림</w>
사 직</w>
부모 들</w>
복 사</w>
베이 징
번 쩍</w>
무지 개</w>
무 력</w>
모 금</w>
면 제</w>
률 적</w>
략 적</w>
뚜 껑</w>
두 려움</w>
돌 이키</w>
도 저히</w>
대표 팀</w>
대 원</w>
대 륙</w>
단 호
는 군</w>
기 반</w>
그러 하</w>
그 르치</w>
국 장</w>
구 실</w>
고 구
건 립</w>
개 국</w>
강 좌</w>
갈 아
간 신
항 해</w>
통 성</w>
첫 째</w>
차 단</w>
주 소</w>
조 직
조 적</w>
조 만
조 르</w>
정 자</w>
장 기간</w>
일 시적</w>
유 쾌</w>
위 축</w>
영 양</w>
연 합
역 사상</w>
여태 껏</w>
에서 만</w>
어린 애</w>
야 단
앞 날</w>
알 레
안 목</w>
아 침
아 래
시 로</w>
스 케
수 익
소 유
세 탁
성 미</w>
선 고</w>
부지 런</w>
복 장</w>
민 감
맹 목적</w>
만 회</w>
르 기</w>
두 텁</w>
도 시
데 이
대 출
대 목</w>
당 사자</w>
다름 없</w>
다 짐</w>
녹 이</w>
꺼 이</w>
기 증</w>
기 꺼이</w>
괜 히</w>
경 화</w>
겹 치</w>
결 함</w>
게 재</w>
간 직</w>
4 0</w>
횡 령</w>
플 레이</w>
탓 하</w>
침 범</w>
춤 추</w>
짜 기</w>
지 휘</w>
지 탱</w>
지 저
지 루</w>
죄 인</w>
조그 마하</w>
점 령
전 면</w>
적당 히</w>
재 앙</w>
은 퇴</w>
유 엔</w>
용 어</w>
야 기</w>
쓸 모</w>
손 발</w>
섹 시</w>
상 품
산 맥</w>
비 즈
무 릅
무릅 쓰</w>
목 걸이</w>
면 접</w>
맹 렬</w>
리 ㄴ다</w>
로 맨
뚱 뚱하</w>
등 불</w>
들 여
꼭 지</w>
기 선</w>
기 량</w>
그러 면</w>
귀 중</w>
공 산
골 프</w>
골 짜기</w>
가 늘</w>
ㄴ 다며</w>
50 0</w>
해 결
하마 터
하마터 면</w>
풍 자</w>
품 종</w>
코 트</w>
최 소</w>
청 년들</w>
조만 간</w>
제 작
전 용</w>
저 녁
장 학
잘 것
잘것 없</w>
자세 한</w>
자 만</w>
자 리
일 체</w>
일 시</w>
이웃 집</w>
이야 말로</w>
의 원들</w>
은 가</w>
우 물</w>
우 뚝</w>
요 원</w>
쏠 리</w>
시 신</w>
수 염</w>
수 백</w>
성 행</w>
상대 편</w>
상 해</w>
상 치</w>
비 평</w>
분 투</w>
부 주의</w>
부 유</w>
부 서
병 세</w>
뭔 가</w>
무 한</w>
마 케
락 하</w>
뛰어 다니</w>
단 락</w>
단 단</w>
누 설</w>
농 부</w>
내 막</w>
나 이
나 름</w>
나 란히</w>
그만 하</w>
군 데</w>
고 수</w>
고 발</w>
결 말</w>
감 치</w>
가 동</w>
10 월</w>
회 피</w>
화 나</w>
화 가</w>
호 되</w>
한 평생</w>
한 눈</w>
피해 자</w>
파 산</w>
통 합</w>
텐 트</w>
타 이르</w>
커 트</w>
축 적</w>
추 적</w>
최 후</w>
초 빙</w>
천 국</w>
책 임</w>
찍 히</w>
직 전</w>
주 저
주 리</w>
정 당한</w>
정 답</w>
잔 소리</w>
입 금</w>
일 등</w>
이 완</w>
의 욕</w>
의 안</w>
음료 수</w>
위 력</w>
운 용</w>
알아 차리</w>
안 내</w>
아 다니</w>
실 로</w>
수 송</w>
소 매
성 취</w>
성 냥</w>
색 채</w>
산 길</w>
삭 제</w>
사 법</w>
부 진</w>
부 적</w>
봉 건
법 관</w>
번 쩍
반 장</w>
묶 이</w>
무 례</w>
리 듬</w>
띄 우</w>
똑똑 히</w>
든 든</w>
동 굴</w>
나 들</w>
군 인</w>
6 명</w>
흡 수</w>
호 의</w>
하 늘
필 연
플 레이
폭 탄</w>
퍼 뜨리</w>
틀 어
코 스</w>
치 솟</w>
처 방</w>
조 명</w>
제 정</w>
절 대적</w>
전 도</w>
재 판
장 서</w>
장 만</w>
인 내</w>
율 적</w>
영 예</w>
연구 소</w>
야 간</w>
알레 르기</w>
악 기</w>
씨 름</w>
신 혼
스 웨
스 러
세 심</w>
상 쾌</w>
바 깥</w>
민 간
면 화</w>
마음 껏</w>
렁 이</w>
땅 콩</w>
딸 아이</w>
다 물</w>
눌 리</w>
너 스</w>
끊 기</w>
그 지
국 어</w>
경 솔</w>
겨 루</w>
게시 판</w>
2 차</w>
휩 싸이</w>
확 립</w>
한 꺼
폐 쇄</w>
페 인</w>
투 표
탄 탄</w>
카 페</w>
충 성</w>
초 리</w>
째 서</w>
진 동</w>
정 박</w>
전 보</w>
재 빨리</w>
자 동</w>
이 외</w>
영 향
열 악</w>
연 휴</w>
역 사
어 째서</w>
약 탈</w>
야 근</w>
아 시아
신 앙</w>
승 인</w>
슈퍼 마켓</w>
수 해</w>
서 점</w>
서 가</w>
샹 하이</w>
상 세</w>
본 질</w>
바 구니</w>
물 거리</w>
묵 묵히</w>
모 범
막 내</w>
떡 하</w>
도 처</w>
대 중들</w>
기 풍</w>
관 람</w>
고 려</w>
경 주</w>
간신 히</w>
간 절히</w>
가 닥</w>
ㄴ 다
T V</w>
황 금
호 응</w>
형 세</w>
함 께
한꺼 번에</w>
학 술
학 생
폭 로</w>
출 발
지 폐</w>
제 치</w>
정 기적</w>
전 투</w>
전 지</w>
전 국적</w>
적 합
장 차</w>
장 미</w>
장 가</w>
자 원
이 쪽</w>
이 슬
유 지
우 연히</w>
얽 히</w>
어 르
아 네</w>
싱 겁</w>
실 업</w>
식 탁</w>
시 끌
수 시로</w>
손 질</w>
세 일</w>
사 한</w>
사 소</w>
비 결</w>
불 편
불 량</w>
밤 하늘</w>
밤 늦</w>
몸 집</w>
모 방</w>
말 랑
마음 먹</w>
때 로</w>
때 때로</w>
등 산
돌아 서</w>
도 다</w>
덩 어리</w>
대 조</w>
대 리
노 랫
노 라</w>
기 금</w>
구 경
교 양</w>
광 고
곤 두
결 제</w>
간 섭</w>
가 공</w>
5 일</w>
화 해</w>
행 동
합 작</w>
학 과</w>
하룻 밤</w>
하나 씩</w>
평 평</w>
편 집</w>
편 성</w>
큰 소리</w>
출 세</w>
최 신</w>
쳐 들</w>
지 수</w>
전반 적</w>
전 장</w>
잠 그</w>
입 장
일제 히</w>
일 삼</w>
인 식</w>
이 륙</w>
이 가</w>
육 상</w>
약 화</w>
안 녕</w>
아니 하</w>
시 점</w>
시 범</w>
시 니</w>
수 원</w>
세 기</w>
설 령</w>
상 승
부 도</w>
부 녀
부 금</w>
보 잘것없</w>
배 우
배 송</w>
반 짝</w>
바 가지</w>
밀 수
미 련</w>
무언 가</w>
매 매</w>
만 연</w>
뒤 떨어지</w>
독 자들</w>
대 꾸</w>
답 변</w>
다 더니</w>
남자 친구</w>
나뭇 잎</w>
끝 났다</w>
꼼꼼 히</w>
꼼 짝</w>
그 토록</w>
규 칙적</w>
구 불
관 측</w>
과 감</w>
고 장나</w>
계 급</w>
경 로</w>
거꾸 로</w>
개 막</w>
20 세</w>
1 억</w>
힘 차</w>
허 둥
합격 자</w>
한 차례</w>
학 비</w>
평 양</w>
타 파</w>
코 끼리</w>
침 투</w>
치 레</w>
취 득</w>
초 원</w>
체 류</w>
차 마</w>
찌 감치</w>
진 하</w>
직 접적</w>
지 독</w>
줄 기</w>
준비 해</w>
주시 길</w>
전 형적</w>
전 체적</w>
전 기
저 쪽</w>
으리 어는</w>
유 럽
유 감</w>
위 생</w>
운전 사</w>
여 들</w>
약 물</w>
아버 님</w>
신 입</w>
시 세</w>
수도 권</w>
손 바닥</w>
성 하</w>
상 급
부 친</w>
반 하</w>
민 호
몰아 치</w>
모 함</w>
모 질</w>
모 색</w>
만 하</w>
만 원</w>
마케 팅</w>
르 르
또 다시</w>
동 창
도 한</w>
덮 치</w>
단 서</w>
네트 워크</w>
꼬 박</w>
글로 벌</w>
교 외</w>
관 람
고 유</w>
고 난</w>
거 론</w>
개 막
가 스
200 0
12 월</w>
험 하</w>
함께 하</w>
한 잔</w>
한 글</w>
평 상
투 르</w>
캐 릭
치 료
취 지</w>
출 현</w>
천 연</w>
참 견</w>
진 영</w>
지 식
중 대</w>
주 차
제 주</w>
정 해</w>
정 취</w>
전 쟁
전 염병</w>
적 막</w>
입 증</w>
인 심</w>
인 색</w>
이 슬</w>
운 송</w>
운 송
우 의</w>
요 령</w>
옥 수수</w>
오 류</w>
열 거</w>
엉 망</w>
얽 매이</w>
약 품</w>
야 외</w>
아 라</w>
성 어</w>
설 날</w>
상 업</w>
상 당</w>
산 뜻</w>
비 스
비 단</w>
분 류</w>
보 장하</w>
번 창</w>
방 적</w>
바 삭
무 너
목 적지</w>
되 돌리</w>
능 하</w>
기 숙
그 럴
그 러지</w>
궁 리</w>
구성 원</w>
교 활</w>
공 책</w>
결 성</w>
거 주</w>
감 독
가 져
6 시</w>
활 성화</w>
호 화</w>
함 유</w>
학 술</w>
품 목</w>
팽 팽
토 막</w>
탄 복</w>
타 결</w>
칠 판</w>
치 장</w>
처 량</w>
진 학</w>
지 성</w>
줄 거리</w>
주도 하</w>
주 력</w>
족 하</w>
정 당
정 교</w>
전 세</w>
작 별</w>
이 식</w>
의 류</w>
응 당</w>
유리 한</w>
유 행
운 전자</w>
우 편</w>
왕 자</w>
연 인</w>
연 락
엔 이</w>
업 신
엄 숙</w>
어 휘</w>
어 붙</w>
야 구
안 색</w>
아 구나</w>
시 청</w>
시 중</w>
손 길</w>
소 설
소 득
성 능</w>
서 투르</w>
사 위</w>
불 안
부 지</w>
부 르
복 원</w>
복 습</w>
미 움</w>
무너 뜨리</w>
무 술</w>
멍 청</w>
만 리
로 서는</w>
뒤 섞이</w>
둘 레</w>
대 나무</w>
대 강</w>
남 자들</w>
나무 들</w>
끝 없이</w>
꼬 마</w>
기상 청</w>
기 물</w>
그런 대</w>
규 명</w>
굳 이</w>
국 가들</w>
공 공</w>
공 개
골 고루</w>
고 용
건축 물</w>
강 제
강 렬한</w>
가 득
2 7
활 력</w>
포 도
토마 토</w>
초 반</w>
창 출</w>
쪼 개</w>
집 값</w>
지 앙</w>
주 차</w>
조용 한</w>
조 항</w>
절 로</w>
전 날</w>
저 절로</w>
장학 금</w>
장 마
자 치
입 학
임 대</w>
일 손</w>
이 따
이 도</w>
외 적</w>
왕 성</w>
영향 력</w>
연 한</w>
연 예</w>
연 루</w>
업신 여기</w>
억 지</w>
어 떡하</w>
앗 기</w>
않 았다</w>
안 부</w>
신 분
신 기록</w>
스 카
소 유</w>
세 수</w>
선 출</w>
삼 가</w>
사 생활</w>
빼 앗기</w>
비 바람</w>
부 끄
법 규</w>
방 어</w>
민주 화</w>
무 더기</w>
모 여들</w>
린 다</w>
란 다</w>
뛰어 넘</w>
똑 같이</w>
둔 하</w>
대 국</w>
담 장</w>
달 콤한</w>
다 주</w>
는 커녕</w>
녹 색</w>
노랫 소리</w>
년 간</w>
냄 비</w>
급 여</w>
공 격
고 서야</w>
결 산</w>
가 물</w>
3 개</w>
10 분</w>
1 명</w>
흩 어지</w>
회 화</w>
한 껏</w>
파 일</w>
투 리</w>
통 보</w>
토 요일</w>
캐릭 터</w>
침 입</w>
추 궁</w>
초 조</w>
찬 물</w>
지 지
지 명</w>
재 킷</w>
의 적</w>
유 전자</w>
완 공</w>
예 절</w>
예 금</w>
여 태</w>
어 쩐
안 건</w>
실 성</w>
신 호
신 축
식 초</w>
시 급</w>
스 틱</w>
스 커트</w>
소 중히</w>
서 민</w>
생태 계</w>
상 류</w>
사 찰</w>
사 과
비타 민</w>
불 법
불 꽃</w>
부서 지</w>
발 송</w>
받 침</w>
밀 히</w>
민 심</w>
무 덤</w>
무 더위</w>
목 재</w>
매 진</w>
려 니</w>
독 재</w>
독 일</w>
단호 히</w>
단 다</w>
내 보내</w>
납 부</w>
낙 엽</w>
기숙 사</w>
그지 없</w>
그 머니</w>
경 시</w>
개 업</w>
간 판</w>
가 로</w>
2 위</w>
, 000</w>
효 력</w>
화 폐</w>
행 운</w>
해 양</w>
한국 인</w>
한 복</w>
평 원</w>
투 성이</w>
탐 사</w>
타 리</w>
퀄 리티</w>
축 소</w>
청 산</w>
집 히</w>
질 책</w>
증 권</w>
주 간</w>
정 전</w>
전 진</w>
장 단</w>
일 찌감치</w>
은 편</w>
유 창</w>
울 타리</w>
예 민</w>
여 야</w>
었 죠</w>
약 자</w>
안 기</w>
아이 스크
쑤 시</w>
시 겠습니까</w>
숨 에</w>
수 천</w>
수 중</w>
수 색</w>
손 목
소 문
선 율</w>
새 벽
상 상
사 유</w>
뽑 히</w>
비 판
브 리
방 대</w>
반 전</w>
미 처</w>
문 헌</w>
문 구</w>
무 상</w>
명 서</w>
맞 은편</w>
말 없이</w>
만리 장성</w>
레이 스</w>
떠 돌</w>
동 자</w>
동 맹</w>
독 창
던 가</w>
더 불</w>
대 로이</w>
단 숨에</w>
단 번</w>
눈 짓</w>
누 명</w>
까 지
김 없이</w>
기 획</w>
근 무
극 성</w>
국 주의</w>
교수 님</w>
교 만</w>
고 문</w>
거 슬리</w>
개 척</w>
간 단히</w>
가 옥</w>
2 개</w>
화 분</w>
홈 페이지</w>
협 박</w>
해 치우</w>
해 롭</w>
한 가운데</w>
필요 한</w>
폭 행</w>
파 트
투 항</w>
터 무
추 락</w>
체 조</w>
차 분</w>
질 구
중 간
주저 앉</w>
주 식
절 벽</w>
자 수</w>
입 자</w>
인 용</w>
윤 곽</w>
유 전</w>
원 자
우 세</w>
용 납</w>
영 문</w>
열 사</w>
열 대</w>
연 령</w>
연 금</w>
었 다며</w>
억 누르</w>
어쩐 지</w>
야 단</w>
아이스크 림</w>
아 랑
아 들
심 화</w>
심 적</w>
심 리적</w>
실 정</w>
실 마리</w>
신 형</w>
승 객들</w>
수 면</w>
쇠 고기</w>
소 질</w>
소 독</w>
세 밀</w>
석 양</w>
상 환</w>
상 인</w>
상 영</w>
살 인
사 인</w>
빗 물</w>
부 득
버 무리</w>
발 령</w>
발 랄</w>
민감 한</w>
미 신</w>
만 여</w>
렬 히</w>
려 다</w>
답 안</w>
단 순히</w>
농 가</w>
넉 넉</w>
낭 만
날 뛰</w>
난 로</w>
기 획
금 세</w>
그 렇
귀 신</w>
국 회
국 경</w>
교 차</w>
고 등
고 되</w>
거 느리</w>
개 의치</w>
2 월</w>
흉 악</w>
후보 자</w>
회 견</w>
해 명</w>
핏 하면</w>
품 위</w>
특 유</w>
트 리</w>
투자 자</w>
통 치
총 선</w>
총 각</w>
챔 피
찐 빵</w>
지 장</w>
지 상
주의 적</w>
주 체</w>
주 시</w>
제 압</w>
정 책
접 속</w>
재 산
자 매</w>
자 락</w>
입 찰</w>
인내 심</w>
인 종</w>
이 용
이 득</w>
유 발</w>
원 활</w>
얼 음
어 째</w>
어 미</w>
실 감</w>
신축 성</w>
시집 가</w>
시 사</w>
시 길</w>
상 급</w>
사기 꾼</w>
빈 번</w>
분 별</w>
분 발</w>
복 숭
보 조</w>
번 거</w>
반 들
바닷 물</w>
밀 한</w>
문제 점</w>
문 학적</w>
만 물</w>
렁 거리</w>
란 드</w>
뜻 밖</w>
때 우</w>
들여 다보</w>
동 반</w>
대 결</w>
당 대</w>
기름 지</w>
기 밀</w>
근 한</w>
극 도</w>
그러 자</w>
교 대</w>
관 습</w>
관 성</w>
과학 자</w>
경 극</w>
경 계
겠 소</w>
걸 핏하면</w>
개 봉</w>
강 산</w>
간 절</w>
가 이드</w>
9 0
8 0
5 분</w>
3 분</w>
1 등</w>
후 배</w>
환 자들</w>
화 책</w>
한 결
폭 풍</w>
폭 력
테 일</w>
출 판사</w>
출 범</w>
출 간</w>
진 압</w>
직 업
조 수</w>
정 돈</w>
점 심
저 작</w>
입 력</w>
이 사회</w>
융 통성</w>
원 천</w>
원 조</w>
웅 장</w>
예 리</w>
여 성
에 나</w>
얼 굴
언 정</w>
어서 ㄴ</w>
애 석</w>
아우 르</w>
아 홉</w>
쓰레 기
실 속</w>
신 나</w>
수 선</w>
수 명</w>
수 당</w>
손목 시계</w>
속 속</w>
성 공
삼 십</w>
살 아
산 속</w>
사 퇴</w>
사 사
비 료</w>
불 합격</w>
분 포</w>
분 열</w>
부정 부패</w>
본 보</w>
보 적</w>
보 기</w>
별 적</w>
방 치</w>
문화 유산</w>
무 용</w>
목 격</w>
매 기</w>
막 론</w>
동물 원</w>
동 반
도 도</w>
대학 원</w>
농 업
까 마
기 일</w>
기 이</w>
기 법</w>
규 정하</w>
구 석
고구 마</w>
고 지</w>
경 선</w>
거 액</w>
개 별</w>
갓 난
감사 드리</w>
4 개</w>
흡 연</w>
훈 련
필연 적</w>
표 지</w>
폭 포</w>
파이 프</w>
트 렌
통 장</w>
테이 프</w>
태 양
코 드</w>
커 튼</w>
지근 하</w>
지 언정</w>
지 않</w>
조 류</w>
전 염</w>
전 신</w>
재 단</w>
장 히</w>
작 동</w>
자 태</w>
이 롭</w>
유 용</w>
유 달리</w>
원 료</w>
우 호적</w>
우 편
어 때</w>
시리 즈</w>
스 티
수 출
속 박</w>
성 품</w>
성 립</w>
설 정</w>
설 이</w>
설 레</w>
선 전</w>
새 해</w>
상 의</w>
사 명</w>
불 의</w>
부 쩍</w>
부 각</w>
본 사</w>
보 전</w>
변 신</w>
배 척</w>
배 역</w>
민 생</w>
문화 적</w>
무 용
먹 거리</w>
망 정</w>
망 설이</w>
망 가지</w>
려 던</w>
들 었다</w>
드 름</w>
뒤 집히</w>
독 촉</w>
대통 령
대 학생들</w>
닫 히</w>
니 다만</w>
논 리적</w>
노 을</w>
길 거리</w>
국 자</w>
구 슬</w>
굉 장히</w>
관 직</w>
공 짜</w>
곤 경</w>
계 좌</w>
경 기
거 닐</w>
개 구리</w>
가 장
30 0</w>
1 월</w>
훌 쩍</w>
회 사들</w>
확 고</w>
화 상</w>
화 살</w>
향 후</w>
한 자리</w>
특 색</w>
치 미</w>
철 강</w>
진 료</w>
지 우
지 옥</w>
지 구
주 석</w>
주 문
제 조</w>
정 연</w>
전 사</w>
전 방</w>
장 기
작 은
입 국</w>
이해 관계</w>
이 동
이 는</w>
음 력</w>
원 시</w>
우주 선</w>
왕 림</w>
오래 전</w>
오 락</w>
역 전</w>
었 는가</w>
압 축</w>
심 심</w>
실패 한</w>
신 장</w>
시 장
수 호</w>
셨 어</w>
새 것</w>
상 기</w>
삼성 전자</w>
산 보</w>
산 골</w>
비 자</w>
비 위</w>
블 라
부 추
부 임</w>
보 답</w>
벨 트</w>
배 정</w>
배 부르</w>
반 죽</w>
바 삐</w>
민 감</w>
물 씬</w>
문 예
무 수한</w>
무 사</w>
망 신</w>
말씀 드리</w>
만 만
따 라</w>
동 요</w>
달 콤</w>
단 추</w>
눈 초리</w>
노 트</w>
냇 물</w>
내 기</w>
내 걸</w>
날 마다</w>
낙 후</w>
근 히</w>
공 연히</w>
공 로</w>
골 치</w>
곧 장</w>
곡 절</w>
계 열</w>
견 지</w>
격 렬한</w>
겠 나</w>
건 지</w>
개 통</w>
감 동적</w>
갈 증</w>
각 적</w>
5 명</w>
3 대</w>
환경 오염</w>
형 님</w>
해 체</w>
패 션
판 단
테 러
킬로 그램</w>
촉 하</w>
체 중</w>
집 합</w>
집 집</w>
집 주인</w>
진 흙</w>
진 화</w>
지배 하</w>
줄 줄</w>
조 립</w>
제 자</w>
적 히</w>
장 려</w>
잡 담</w>
자 자</w>
자 금
자 격
이 재
의 장</w>
의 거</w>
음 식물</w>
음 소리</w>
연 관</w>
얼 거리</w>
애 인</w>
앞 장서</w>
시 겠어</w>
스 무</w>
스 님</w>
선 포</w>
생각 지도</w>
상 반기</w>
빠 져
빙 빙</w>
비즈 니스</w>
분 수</w>
부추 기</w>
배 양</w>
발 명</w>
박 차</w>
바 깥
밀 어
몽 땅</w>
못 지않</w>
명 예
명 분</w>
면 밀</w>
마 중</w>
마 누
마누 라</w>
마 냥</w>
르르 하</w>
례 적</w>
드 나들</w>
두 리</w>
도 발</w>
더욱 더</w>
느 슨</w>
꽂 히</w>
깨달 았다</w>
깨 물</w>
기념 일</w>
과학 기술</w>
공 업
공 고</w>
검 거</w>
개 조</w>
강 경</w>
감 돌</w>
각 성</w>
가져 다주</w>
가 치
훈 장</w>
후 반</w>
획 득</w>
활 기차</w>
혹 적</w>
해 변</w>
한 순간</w>
투자 하</w>
통 행</w>
탄 압</w>
크 한</w>
축 하
촛 불</w>
초 점</w>
초 등
체 크</w>
청 자</w>
징 역</w>
지 능</w>
증 인</w>
증 언</w>
증 기</w>
주 스</w>
작 자</w>
자 취</w>
일 선</w>
일 상적</w>
이 중</w>
의 는</w>
위 엄</w>
와 이
예 선</w>
여 건</w>
었 습니까</w>
알 코
실 컷</w>
식 구들</w>
수 줍</w>
수 령</w>
소 집</w>
산 하</w>
사무 소</w>
사 가</w>
비밀 번호</w>
불 쌍</w>
발전 소</w>
발 길</w>
박 이</w>
민 준
면 허</w>
름 하</w>
또 렷
떠 올리</w>
딱 지</w>
등록 금</w>
등 등</w>
대 낮</w>
꾸 중</w>
까 짓</w>
기 슭</w>
기 소</w>
급 격히</w>
그 물</w>
국제 적</w>
국 왕</w>
국 기</w>
공 용</w>
고 교</w>
고 객들</w>
강 변</w>
감 안</w>
감 기</w>
가슴 속</w>
20 0</w>
100 0
10 시</w>
후 군</w>
한 없이</w>
한 반</w>
하 물
하물 며</w>
표 명</w>
펄 럭
펀 드</w>
팽 창</w>
타 자</w>
크 로
침 략
지도 부</w>
지 향</w>
증 후군</w>
증 권
제 비</w>
저 수지</w>
재 간</w>
자 질구
인 파</w>
이름 나</w>
의사 소통</w>
응 용</w>
위 해</w>
욕 구</w>
왠 지</w>
왜 냐
왜냐 하면</w>
어서 다</w>
씨 앗</w>
실 업
시 자</w>
시 어야</w>
숟 가락</w>
수도 꼭지</w>
수 험
수 표</w>
수 양</w>
수 성</w>
수 사
소 풍</w>
소 주</w>
성 의</w>
서 민들</w>
샹 하</w>
샤 워</w>
생 태</w>
상당 수</w>
사이 버</w>
사용 자</w>
사 의</w>
비 틀
비 탈</w>
비 서</w>
분 별
부정 행위</w>
별 다르</w>
변 동</w>
배우 자</w>
받 아
받 들</w>
미 인</w>
물 들이</w>
무 죄</w>
몰 두</w>
목 욕
모 델
명 사</w>
명 문</w>
매 출</w>
럭 저
능 숙</w>
끈 기</w>
긴 장
군 은</w>
구 사</w>
구 먼</w>
구 기</w>
광 활한</w>
과 외</w>
과 도한</w>
공 문</w>
경 위</w>
경 관</w>
결승 점</w>
겨울 철</w>
검 색</w>
6 일</w>
19 7
홍 보
항 공기</w>
하 다</w>
플 래
통 지</w>
테 스트</w>
태극 기</w>
타 이</w>
타 당</w>
크 림</w>
촉 촉하</w>
청 사</w>
질 리</w>
지 주</w>
지 면</w>
조 종</w>
조 달</w>
정 화</w>
정 밀</w>
점령 하</w>
적합 한</w>
장 기적</w>
자질구 레</w>
일 쑤</w>
인 품</w>
이 를</w>
윗 사람</w>
우 쭐
우 렁
외 선</w>
영 웅
여 물</w>
엇 갈리</w>
앞 다투</w>
안 배</w>
쓰레기 통</w>
신 하</w>
스 테
수 다</w>
소 감</w>
서 른</w>
색 시</w>
사 연</w>
비 중</w>
비 웃</w>
보 름
별 히</w>
벅 적하</w>
박 사
밑 천</w>
민 첩</w>
민 속
문 법</w>
무 장
무 려</w>
메이 저
리 우
로 서의</w>
력 자</w>
럭저 럭</w>
라 오
땅 바닥</w>
뒷 받침</w>
도 들</w>
데 님</w>
대 신
대 담</w>
대 금</w>
달 아오르</w>
꿈 치</w>
기 자
기 왕</w>
기 습</w>
극 심한</w>
그리 스</w>
권 한</w>
국 내외</w>
교 역</w>
과 일
강력 한</w>
강 구</w>
감 탄</w>
간 주</w>
가까 스로</w>
6 개월</w>
3 시</w>
21 세</w>
1 5</w>
흰 색</w>
흉 하</w>
화 학
행 진</w>
한국 에서</w>
피 어오르</w>
틈 타</w>
칼 라</w>
취 업
축 복</w>
추 모</w>
창 피</w>
찬 바람</w>
준 수</w>
조 상들</w>
점 들</w>
전 복</w>
적 잖</w>
저 번</w>
임 기</w>
일상 생활</w>
일 꾼</w>
이제 야</w>
의 무
의 뢰</w>
요 약</w>
예술 적</w>
영 수
연 상</w>
연 기자</w>
었 느냐</w>
엄 청</w>
양 상</w>
아랑 곳</w>
수 하</w>
수 업
수 석</w>
수 배</w>
수 레</w>
소 형</w>
소 요</w>
서 너</w>
생활 비</w>
사 료</w>
브라 질</w>
브 레이
불 필요한</w>
보 따
발 탁</w>
바 싹</w>
물 러
무 선</w>
무 르
모 퉁이</w>
명 문
말 하
마 트</w>
리 ㅁ</w>
로 잡히</w>
동 양
대 항</w>
대 변
담 판</w>
달 라
단 풍</w>
논 밭</w>
너 라</w>
나 절</w>
꿰 뚫</w>
꾸 지
껴 안</w>
기 재</w>
기 어
기 미</w>
기 독
그 윽</w>
국방 부</w>
국 토</w>
국 립
공 화
공 포
공 통
공 중
공 존</w>
경 사</w>
거 린다</w>
간 혹</w>
각 별히</w>
8 0</w>
4 강</w>
15 일</w>
12 시</w>
흉 내</w>
호 주머니</w>
행 렬</w>
한 밤중</w>
하루 아침</w>
필요 성</w>
포 위</w>
포 로</w>
튀 기</w>
출 마</w>
직 후</w>
지 상</w>
중국 인</w>
중 동</w>
제 주도</w>
정규 직</w>
정 규</w>
전 담</w>
재 원</w>
일반 인</w>
인 도
이 상적</w>
의 식적</w>
응 급
은 행
은 폐</w>
으 시ㄴ</w>
유 가</w>
위 원들</w>
원 전</w>
영 리</w>
연 계</w>
여 우</w>
었 군</w>
심 리
신 상품</w>
시끌 벅적하</w>
시 리</w>
시 름</w>
시 련</w>
수 학
수 영장</w>
속 력</w>
소 위</w>
소 나
설 계
석 유
서비 스
생 신</w>
사 지</w>
사 로잡히</w>
분 주</w>
부 당한</w>
본 부</w>
복 잡
발 표
문 자
명 칭</w>
메 뉴</w>
머 지
만 의</w>
마 취</w>
론 적</w>
란 색</w>
디 테일</w>
디 션</w>
동 양</w>
독 재
더 군</w>
당 첨</w>
단 절</w>
노동 력</w>
넥 타이</w>
끔 찍</w>
꾸지 람</w>
꾸 러
깜 짝
김 새</w>
그럴 듯하</w>
권 익</w>
권 위
권 세</w>
군 중들</w>
구 비</w>
공장 장</w>
고 추
고 이</w>
개막 식</w>
강 철</w>
강 가</w>
감 축</w>
간 부들</w>
5 개</w>
흩 날리</w>
황 하</w>
화 이
혼 인</w>
형 제
형 사
혈 액</w>
향 수</w>
행 인</w>
합 리</w>
한 기</w>
하 들</w>
필 름</w>
폭 죽</w>
포 착</w>
평상 시</w>
팽팽 하</w>
특 기</w>
통 화
터 득</w>
탐 욕</w>
콘 서
측 이</w>
출 석</w>
천 성</w>
책 장</w>
질 질</w>
지 서</w>
조 언</w>
저 고리</w>
잡 다</w>
잔 디</w>
자 주
임 자</w>
음 성</w>
윤 기</w>
유리 창</w>
위 장</w>
용 도</w>
요 법</w>
와 도</w>
오늘 따라</w>
예 민
연 봉</w>
에게 나</w>
엉 키</w>
었 다니</w>
어 조</w>
양 반</w>
애완 동물</w>
시 정</w>
순 찰</w>
수 비
수 고</w>
서 툴</w>
생 김새</w>
새 끼
뿌 리
비 키</w>
부 채
부 담
보 드</w>
범죄 자</w>
물 하</w>
문 회</w>
멸 시</w>
만 족
마 술</w>
로 그</w>
똑 바로</w>
뒤 늦</w>
동 호
동 성</w>
동 물들</w>
독 자적</w>
더 구나</w>
대 안</w>
대 수</w>
대 기
담 당
놀 림</w>
너 그럽</w>
남 녀
나 돌</w>
기 초
급 한</w>
그 럭저럭</w>
구 매
구 도</w>
관 문</w>
관 료
과 태
공 정
골 동
곡 물</w>
계 산
경 비
경 멸</w>
결 실</w>
겠 다며</w>
갈 망</w>
가라 앉히</w>
가 전
가 요</w>
가 상</w>
흥 겹</w>
흔 들
환 기</w>
확 충</w>
화 내</w>
호 한</w>
호 전</w>
현대 인</w>
현 안</w>
합 동</w>
한 시</w>
한 마음</w>
학 급</w>
하 긴</w>
필 사적</w>
품 성</w>
표 창</w>
폭 풍
패 스</w>
캐 주
카 운
최 악</w>
천 막</w>
찬 란한</w>
차 근
질 주</w>
중 화
졸 리</w>
조 짐</w>
젊 음</w>
전 사들</w>
재 고</w>
장 인</w>
잠 수
자신 들</w>
자 백</w>
일 보</w>
일 률적</w>
일 각</w>
인 상적</w>
유치 원</w>
유 익</w>
우 아</w>
용 하</w>
오 줌</w>
예 산
예 사</w>
영화 관</w>
역 경</w>
얼 어붙</w>
어르 신</w>
암 석</w>
아 자</w>
실 직</w>
시 종</w>
스 키
순 하</w>
숙 소</w>
쇠 퇴</w>
서 부</w>
서 구</w>
생 물
새 까맣</w>
사 각
빛 깔</w>
비판 적</w>
비 관적</w>
붙 잡히</w>
분 기</w>
봉 지</w>
봉 우리</w>
본 선</w>
보 태</w>
보 조
벼 르</w>
벌 리</w>
반 박</w>
바 래</w>
무르 익</w>
먹 고</w>
매 섭</w>
러 들</w>
따 갑</w>
뒤 따르</w>
돌 이</w>
독 하</w>
독 감</w>
대출 금</w>
대 변</w>
니 트</w>
네 이
내 뱉</w>
남 짓</w>
나 사</w>
끼 어들
끔 히</w>
금 연</w>
그렇 다면</w>
그 중</w>
권 유</w>
구 출</w>
과태 료</w>
공 금</w>
고 집
고 약</w>
고 야</w>
고 래</w>
결 의</w>
겁 쟁이</w>
강 사</w>
강 당</w>
갈아 입</w>
7 시</w>
6 0</w>
24 시간</w>
2 5</w>
10 일</w>
흥 행</w>
항 복</w>
토 대</w>
테이 블</w>
출 전</w>
촉 구</w>
청 구</w>
천연 가스</w>
챔피 언</w>
참 석
차 이
쭉 하</w>
직 책</w>
지 팡이</w>
조 로운</w>
제 약</w>
정 문</w>
절 제</w>
전 한</w>
저 곳</w>
재 생</w>
장 병</w>
장 벽</w>
장 거리</w>
인 명</w>
이야 기
이 왕</w>
이 력
의 존
의 의</w>
으리 라</w>
으로 서의</w>
유명 한</w>
웬 만하</w>
원 자</w>
외 로움</w>
오 한</w>
오 른
알코 올</w>
안 면</w>
악 하</w>
아 ㅁ</w>
쓸데 없이</w>
십 여</w>
신분 증</w>
신 중히</w>
식 욕</w>
스타 일
스크 린</w>
수 능</w>
상 화</w>
상 심</w>
사회 주의</w>
사람 됨</w>
사 절</w>
사 망
사 나이</w>
빈 틈
비 극</w>
블라 우스</w>
브레이 크</w>
불 우</w>
발 상</w>
반 성</w>
미 덕</w>
미 니
문 건</w>
무 궁
몸 소</w>
멀 쩡</w>
마 흔</w>
레 하</w>
러 뜨리</w>
뒤 덮</w>
두 어</w>
도 약</w>
더 럽히</w>
단 편
다음 주</w>
다시 피</w>
능 적</w>
농 약</w>
노 르</w>
노 래
남 다르</w>
끝 없</w>
꽃 잎</w>
기 름</w>
기 계
근 래</w>
권 고</w>
국 외</w>
구 간</w>
관 세</w>
관 례</w>
공 해</w>
고 층</w>
개 장</w>
강 탈</w>
강 의
9 명</w>
1 초</w>
흥 미
활 발
혐 오</w>
혈 관</w>
하나 님</w>
필 수적</w>
포 부</w>
평 론</w>
파 병</w>
파 문</w>
트 집</w>
탐 색</w>
타 입</w>
콘서 트</w>
코 디
치 명적</w>
축구 팀</w>
천 만</w>
차 림
증 오</w>
주 름
제 복</w>
제 국주의</w>
정치 인들</w>
정 안</w>
점 거</w>
장마 철</w>
장 르</w>
잘 생기</w>
잔 돈</w>
이력 서</w>
이 탈
이 민</w>
이 룩</w>
위 안
우 상</w>
올 라서</w>
온 난
오르 내리</w>
영수 증</w>
여 관</w>
어 떨
양 도</w>
아 줌
아 비</w>
아 먹</w>
아 동
슈 퍼</w>
수수 께
수 축</w>
손 목</w>
소 스</w>
소 리
세 히</w>
서 방</w>
살아 남</w>
삭 이</w>
사진 기</w>
뻔 뻔</w>
부 상자</w>
보따 리</w>
변 화
물러 서</w>
물 질적</w>
무 관심</w>
무 관</w>
멜 로
머지 않
매 월</w>
등 반</w>
뒷 산</w>
뒤 흔들</w>
뒤 덮이</w>
도 태</w>
대표 단</w>
대 처
대 북</w>
대 교</w>
누 이</w>
내려 앉</w>
낭 독</w>
꽁 꽁</w>
귀 가</w>
군 을</w>
국회 의원</w>
국 정원</w>
국 들</w>
구 타</w>
골동 품</w>
곧 이
겨 냥</w>
거 렸다</w>
거 들</w>
가 산</w>
가 다듬</w>
8 시</w>
흑 자</w>
휴 가
화 초</w>
화 목</w>
화 력</w>
허 풍</w>
해 수
한 사
하 리</w>
프 라이
팬 츠</w>
파 종</w>
컬 러
카 드
친 환경</w>
체 질</w>
청 년
창 장</w>
창 립</w>
차 츰</w>
진 열</w>
지 형</w>
지 리</w>
지 름
지 니
존 엄</w>
정 오</w>
절 실</w>
쟁 반</w>
장애 인</w>
장 례
일 련</w>
이 십</w>
이 대</w>
음 주</w>
음 반</w>
유 력</w>
위 권</w>
원 치</w>
울 음소리</w>
운 항</w>
우 아
우 물
우 대</w>
용 사</w>
외 환
왕 조</w>
완 료</w>
연예 계</w>
연 마</w>
여자 아이</w>
에서 나</w>
압 적</w>
아 슬
아 부</w>
실 하</w>
신 속히</w>
신 비
식 하</w>
시원 시
시원시 원하</w>
시 어머니</w>
시 민
수수께 끼</w>
속 한</w>
소문 나</w>
소나 기</w>
선 물
새 파랗</w>
살 찌</w>
산 꼭대기</w>
사 내
비행 장</w>
블 랙</w>
부 축</w>
본 문</w>
복 수</w>
보 안</w>
별 명</w>
벼 슬</w>
배 불리</w>
방 사
박 스</w>
모 친</w>
말하 자면</w>
말 라
련 한</w>
라 기</w>
뚫 리</w>
득 점</w>
드리 우</w>
데 이</w>
대 거</w>
당 직</w>
단 조</w>
뉴 욕</w>
누 리
너 덜
낙 관</w>
나 들이</w>
그 놈</w>
구석 구석</w>
공 직
공 무
공 교</w>
고 위
건너 편</w>
건 장</w>
거 북</w>
객 실</w>
각 색</w>
가 문</w>
7 명</w>
200 2년</w>
휘 날리</w>
회 식</w>
호 감</w>
협 약</w>
헌 재</w>
헌 법
허 약</w>
합 의
한 류</w>
폭풍 우</w>
포 럼</w>
터 우</w>
탄 알</w>
타 락</w>
큰 돈</w>
침 몰</w>
치 밀</w>
총 소리</w>
책임 감</w>
착 취</w>
차근 차
지름 길</w>
지 요</w>
지 력</w>
중요 성</w>
주 부</w>
주 변
종 교적</w>
종 교
조 회</w>
제 창</w>
정 작</w>
점 원</w>
전 념</w>
저 러
쟁 취</w>
장 작</w>
장 담</w>
작 문</w>
작 거리</w>
자 물
자 그
자 가
임 금
인 공</w>
이 면</w>
이 라</w>
유 적</w>
유 입</w>
워 지</w>
우스 갯
용 량</w>
요 점</w>
연 소</w>
역 력</w>
었 다
어 디
쌀 쌀
실용 적</w>
실 업자</w>
실 상</w>
신 적</w>
슬 그머니</w>
수 장</w>
송 금</w>
성 대</w>
성 기</w>
선 적</w>
서 랍</w>
서 늘</w>
상상 력</w>
상 거래</w>
사 형</w>
사 냥</w>
뾰 족하</w>
불 합리</w>
분 양
복 제</w>
보 수
보 건
밥 상</w>
받 이</w>
민주 적</w>
미 모</w>
뮤 니
문제 들</w>
모 니
며칠 째</w>
맹 세</w>
매 혹적</w>
맞 대</w>
말 끔히</w>
만 만</w>
따라 다니</w>
등 지</w>
두 부
더 없이</w>
대 형
대 요</w>
대 외</w>
담 회</w>
다 발</w>
다 년간</w>
느 릿
내리 쬐</w>
난 징</w>
꺾 이</w>
기억 력</w>
기술 자</w>
기 백</w>
금 품</w>
그 르</w>
국 방</w>
구 급
교 섭</w>
과 실</w>
공 식적</w>
고 조</w>
고 위</w>
계 집
계 승</w>
견 고</w>
격 화</w>
격 하</w>
격 자</w>
개 치</w>
갈 색</w>
간 행
가 락
ㄴ 답니다</w>
20 10년</w>
10 명</w>
1 학년</w>
1 시간</w>
훈 계</w>
후 원</w>
호 화
형 상</w>
한사 코</w>
학 회</w>
표준 어</w>
폭 넓</w>
파 워</w>
통 상</w>
토론 회</w>
태 세</w>
코 너</w>
치 질</w>
치 약</w>
청 결</w>
천 사</w>
척 결</w>
창 구</w>
지저 분</w>
증 시</w>
중 점
중 재</w>
주 범</w>
주 둔</w>
주 되</w>
제 3
정 거리</w>
절 감</w>
전 람회</w>
전 락</w>
재 개</w>
장 례</w>
잡 초</w>
입 대</w>
일 부분</w>
인터 넷
인 성</w>
이 럴</w>
이 놈</w>
으로 의</w>
유 하</w>
유 의</w>
위 상</w>
운 영
우렁 차</w>
우 유
우 월
완 전
온난 화</w>
예 년</w>
염 색
연 장
여객 기</w>
여 전</w>
여 보
에 스
양 양</w>
앨 범</w>
안 지</w>
아랫 사람</w>
아 낙
쓸 리</w>
신 랑
시험 지</w>
시 작
슬 쩍</w>
스토 리</w>
스 라
숨 지</w>
수 영
솟 아오르</w>
세 뱃
세뱃 돈</w>
성 대한</w>
서 재</w>
상 반</w>
상 공</w>
사령 관</w>
뻔 히</w>
붉 히</w>
부 닥치</w>
볶 이</w>
복 종</w>
보 라</w>
뱅 이</w>
반짝 반짝</w>
무 산</w>
무 분별
무 리한</w>
모 형</w>
머지않 아</w>
머 금</w>
매 치</w>
매 니
만 에</w>
린 내</w>
리 스트</w>
리 더
떳 떳</w>
드라 이
뒤집어 쓰</w>
동 아
돌 려
독창 적</w>
도 취</w>
댄 스</w>
대 법원</w>
담 뱃
단 원</w>
단 기</w>
니 들</w>
농 사일</w>
노 화</w>
낭만 적</w>
나 라
꿀 벌</w>
꽃 밭</w>
기독 교</w>
기 호</w>
급 적</w>
금 치</w>
근 원</w>
그 걸</w>
궤 도</w>
군 사적</w>
구 태
구 치</w>
교 도
괄 적</w>
관 심사</w>
관 료</w>
관 대</w>
과 세</w>
곰 팡이</w>
골 목
고 히</w>
고 귀</w>
경 과</w>
견 학</w>
거 장</w>
거 들뜨</w>
강 한</w>
간 호</w>
각 도</w>
흐 릿</w>
회 수</w>
홈 런</w>
현 대적</w>
헤 엄
해 야</w>
해 산</w>
학 식</w>
학 교
하 반기</w>
폭 설</w>
평 안</w>
파트 너</w>
파 운드</w>
통 지서</w>
태 산</w>
탈 출</w>
코 미
커 뮤니
치 수</w>
충 족</w>
최 우선</w>
체 성</w>
청 문회</w>
차 려
진 흥</w>
지난 주</w>
지 지</w>
지 작거리</w>
지 문</w>
지 각
증 정</w>
중 도</w>
죄 수</w>
정 수</w>
정 계</w>
절 망</w>
전 례</w>
전 략적</w>
자격 증</w>
자 칫</w>
자 욱</w>
일 방적</w>
일 년</w>
익 숙
이 탈</w>
이 런
의기 소
유 기
움 츠
외 할머니</w>
완 비</w>
오 락
어야 겠어</w>
어느 덧</w>
어 질</w>
어 색</w>
어 렴
양 도
야 심</w>
액 션</w>
애 호
압 도</w>
악 취</w>
아 첨</w>
쓰 리</w>
싸 늘</w>
심 해</w>
실 험
실 사
신 상</w>
시 한</w>
스포 츠
스 캔
술 잔</w>
술 자리</w>
순 간
소매 치기</w>
소 외</w>
섬 기</w>
선 회</w>
석 상</w>
생 사</w>
빨 간
분 담</w>
부족 해</w>
부끄 러움</w>
부 들
봉 사
복 판</w>
복 귀</w>
보 물</w>
보 리
보 람</w>
벽 지</w>
배 당</w>
배 기</w>
밟 히</w>
발 산</w>
바이 올
민준 이</w>
미 녀</w>
무 리
몸 살</w>
목 표
면 접
면 전</w>
메 일</w>
메 마르</w>
막 상</w>
마 늘</w>
림 질</w>
로 봇</w>
또렷 하</w>
떠 돌아다니</w>
두 리
돌 진</w>
독 점</w>
도 산</w>
도 매</w>
당 선
답 안지</w>
달 러
다 림질</w>
느 끼
논 하</w>
넘 쳐
날 아다니</w>
근로 자들</w>
근 거
그 네</w>
귀 사</w>
국 산</w>
구 왕
공 세</w>
공 기업</w>
공 군</w>
고 스
계획 하</w>
결 여</w>
결 단</w>
겠 죠</w>
감 자</w>
갈 아</w>
갈 기</w>
가전 제품</w>
가 짐</w>
9 일</w>
8 명</w>
7 일</w>
200 8년</w>
힘 겹</w>
희 망
홍 색</w>
혹 독</w>
호 주</w>
헤 어
험 담</w>
허 점</w>
행 성</w>
한 정</w>
하루 하루</w>
하 여</w>
필 수
피 곤
평 온</w>
팽 개치</w>
파 묻히</w>
퉁 불
취 향</w>
추 리</w>
초 월</w>
체 구</w>
체 계적</w>
차림 새</w>
지 막</w>
증 발</w>
중 복</w>
주 한</w>
주 먹
조 리
제 방</w>
정 반대</w>
전화 기</w>
전 형</w>
전 역</w>
전 국
저 물</w>
잔 잔
자물 쇠</w>
임 용</w>
인 천</w>
인 선</w>
인 부들</w>
인 력
유지 하기</w>
위 신</w>
원 유</w>
운전 기사</w>
운동 회</w>
우선 적</w>
욕 적</w>
오 징
오 묘</w>
예 언</w>
염 치</w>
연구 원</w>
연 주
연 성</w>
여행 객</w>
여 배우</w>
여 간</w>
어 딘
양 고기</w>
앞 길</w>
쌀 밥</w>
소 지</w>
세 제</w>
세 서리</w>
성 상</w>
성 별</w>
선 량
서 먹
생 일
생 소</w>
상 표</w>
상 관
살 살</w>
살 림
빽 빽
비 아</w>
비 례</w>
브라 운</w>
불 쾌</w>
분 양</w>
봉 건</w>
보 유
변 형</w>
배 회</w>
방 위</w>
반 사</w>
무분별 한</w>
명 의</w>
멸 종</w>
메이저 리그</w>
먹 구름</w>
매 각</w>
만 지작거리</w>
로맨 틱</w>
딸 기</w>
따 스</w>
따 돌리</w>
들 키</w>
들 기</w>
드 레스</w>
동 참</w>
동 지들</w>
동 아리</w>
동 서</w>
도 청</w>
도 맡</w>
덕 거리</w>
대 해</w>
대 치</w>
대 입</w>
대 보름</w>
대 도시</w>
단 체
는 게</w>
내려 다보</w>
나 팔</w>
나 부
깔 보</w>
기 치</w>
금 물</w>
근 질
근 거리</w>
극 단</w>
그 나마</w>
권 자</w>
국 정
국 세
공 통</w>
공 구</w>
공 감</w>
고 달
계 통</w>
결 핍</w>
겨 를</w>
겠 구나</w>
감 성</w>
갈 래</w>
각 계</w>
가로 지르</w>
9 시</w>
30 일</w>
200 5년</w>
휩 쓸</w>
훤 하</w>
효 율적</w>
혼 잡</w>
혼 나</w>
헤엄 치</w>
향 적</w>
합 병</w>
할 게요</w>
한 곳</w>
프린 트</w>
품 격</w>
폐 수</w>
판 자</w>
퉁 하</w>
퇴 장</w>
토 의</w>
터무 니
터무니 없</w>
태 권
탈 북
큰 길</w>
캄 하</w>
캄 캄하</w>
치 하</w>
춧 가루</w>
출 생</w>
추 진
추 산</w>
추 방</w>
청 중</w>
천 재
착 용감</w>
차근차 근</w>
집 계</w>
중 년</w>
주차 장</w>
종합 적</w>
종 이
졸업 생</w>
조 어</w>
정 의
전 승</w>
재 질</w>
장 강</w>
작 품들</w>
작 가들</w>
입 각</w>
임 원</w>
인 해</w>
이 주</w>
을 래</w>
으 쓱
으 시오</w>
유니 크한</w>
위 생
원 작</w>
원 소</w>
웃음 거리</w>
울 퉁불
우 호</w>
우 연</w>
우 두
외 환</w>
외 한</w>
영 하</w>
연 달</w>
에이 즈</w>
에게 만</w>
었 어도</w>
엄 지
얼마 간</w>
얼 룩</w>
어 우
액 세서리</w>
아줌 마</w>
싫 증</w>
신 구</w>
시 해서</w>
시 공</w>
시 ㄴ다면</w>
승 부
스 터
수 납</w>
손 잡이</w>
소 연</w>
성 금</w>
섭 씨</w>
섬 유</w>
섬 세</w>
생 전</w>
새 삼</w>
사 육</w>
비 틀</w>
비 방</w>
비 관</w>
불 쑥</w>
분 들</w>
부 활</w>
본 능</w>
베 끼</w>
번 뇌</w>
버 섯</w>
백 한</w>
배 분</w>
배 드
방송 사</w>
방 심</w>
방 문
발 하</w>
반 도
문 외한</w>
무 엇
무 심
무 상
무 디</w>
명 실
매 스
매 료</w>
말 고</w>
만 터우</w>
만 발</w>
만 년
막 막</w>
렌 즈</w>
라 운드</w>
떨 어
들 녘</w>
덩 치</w>
당 뇨
단 백
니 스
눅 하</w>
눅 눅하</w>
농 사
네티 즌</w>
남자 아이</w>
남 용</w>
난 방</w>
까 불</w>
그만 이</w>
국 내
구 걸</w>
관계 자들</w>
공 사장</w>
공 모</w>
곧 잘</w>
경찰 관</w>
경 보</w>
격 렬</w>
건 조
개혁 개방</w>
개 헌</w>
개 운</w>
강 구
간행 물</w>
가치 관</w>
가 미</w>
가 마</w>
가 늠</w>
가 급적</w>
200 9년</w>
15 년</w>
11 월</w>
1 차</w>
휘 발
휘 말리</w>
훗 날</w>
효 성</w>
회 계
협 력
헬 스
헛 소문</w>
허 벅
허 덕이</w>
행 적</w>
해 제</w>
항공 편</w>
합 류</w>
한테 서</w>
하 류</w>
푸 르
포 대</w>
평 정</w>
평 선</w>
편 찬</w>
펄럭 이</w>
파 장</w>
틀어 박
트 로
칭 송</w>
춘 기</w>
총 회</w>
총 기</w>
체육 관</w>
체 증</w>
청 장</w>
첫 날</w>
창 가</w>
집중 적</w>
집 권</w>
준 우승</w>
준 기
주 춤</w>
주 재</w>
좌 파</w>
조용 해지</w>
조사 해</w>
제 자들</w>
제 국</w>
정상 회담</w>
정 리
전 액</w>
전 공
저 렴</w>
장 갑</w>
잔 혹</w>
자유 무역
자 상</w>
일 러</w>
인 테
인 위적</w>
인 권
이 목</w>
의기소 침</w>
의 식
유권 자들</w>
웅 장한</w>
웃음 소리</w>
용 지</w>
욕 장</w>
오 염
었 던가</w>
어 민</w>
어 딜</w>
얌 전</w>
약 국</w>
야 생
안 정적</w>
아 리
실 종자</w>
신입 사원</w>
신 체
신 성한</w>
신 설</w>
습 득</w>
스 위
스 며
스며 들</w>
쇠 약</w>
속 셈</w>
소 동</w>
셋 째</w>
센 티
선 발
선 반</w>
석 사</w>
생 존
새 하얗</w>
상 업
산 행</w>
산 비탈</w>
사 표</w>
빈 틈</w>
불 타</w>
부 디</w>
보 리</w>
보 관
벌 벌</w>
번 지
뱃 속</w>
배드 민
배 신</w>
바이올 린</w>
밀 도</w>
믿 음
무 식</w>
무 릇</w>
무 능</w>
묘 지</w>
못 나</w>
먹 다</w>
만 성</w>
만 년</w>
떡 볶이</w>
들 먹거리</w>
돼지 고기</w>
동호 회</w>
동 그
도 끼</w>
더욱 이</w>
대통령 의</w>
대 고</w>
당뇨 병</w>
단 행</w>
눈 동자</w>
농 구
너 머</w>
냉 담</w>
남 색</w>
꿋 꿋
꿈 속</w>
꼬 집</w>
깜짝 하</w>
기 록
긋 하</w>
극 단적</w>
규 탄</w>
굴 리</w>
광 산</w>
관련 해</w>
공 연장</w>
공 백</w>
고 적</w>
경 전</w>
건 축</w>
건 국</w>
갑 작
간 지</w>
가 혹</w>
가 파
가 중</w>
가 세</w>
가 설</w>
가 마
l t;</w>
g t;</w>
& lt;</w>
& gt;</w>
흡 사</w>
휴 지</w>
화이 트
화 성</w>
현 황</w>
험 난</w>
함 성</w>
할 부</w>
한 대</w>
폭 격</w>
편 히</w>
페 인
통 통하</w>
턱 대고</w>
태권 도</w>
타 지</w>
침 실</w>
치 한</w>
치 켜
치 중</w>
청 중들</w>
참 새</w>
참 관하</w>
착 각</w>
집 단
진 적</w>
지니 어</w>
지 리
중요 시</w>
중 고</w>
종 양</w>
조 장</w>
정 립</w>
정 류
점 령</w>
전쟁 터</w>
저 항
재 래
재 계</w>
잡아 당기</w>
잘못 한</w>
자 위</w>
자 외선</w>
입 안</w>
임 시
인 질
인 생
유 언
웠 다</w>
원 형</w>
움 켜
우스갯 소리</w>
우 여
외 세</w>
영화 제</w>
영 수</w>
영 국
열 정적</w>
었 거든</w>
얼 룩
얻어 맞</w>
어 수선</w>
어 르</w>
압 수</w>
악 랄</w>
아 메
심 부
신 조어</w>
신 규</w>
식 사
시 속</w>
승 패</w>
승 자</w>
솔직 한</w>
손 들</w>
소 망</w>
소 가죽</w>
성 인
서 양
상승 세</w>
산 불</w>
사람 만</w>
사 님</w>
비 디오</w>
비 닐
불 공평</w>
분 히</w>
부채 질</w>
부 당</w>
봄 날</w>
보 증
보 너스</w>
베 이</w>
번 화</w>
번 갈아</w>
방 바닥</w>
반 환</w>
박 하</w>
물 자</w>
문 턱</w>
무 턱대고</w>
무 단</w>
몸 부
모 조리</w>
명 함</w>
매 몰</w>
매 끈하</w>
맞 춤
리더 십</w>
뚝 뚝</w>
따뜻 해지</w>
드 문
둥 거리</w>
된 장
동 포
대 장
대 부</w>
대 구</w>
단백 질</w>
다 오</w>
늘 어서</w>
누 비</w>
누 락</w>
농 부들</w>
논 증</w>
노 총</w>
끈 질기</w>
김 치
기술 적</w>
기 교</w>
기 강</w>
구 토</w>
구 역
교육 부</w>
교 란</w>
공개 적</w>
골목 길</w>
골 프
고 려
경 축</w>
경 청</w>
겸 허</w>
결 백</w>
개 울</w>
강 남</w>
각 고</w>
k m</w>
6 개</w>
3 위</w>
2 일</w>
2 배</w>
12 년</w>
1 ,
희생 자</w>
확 률</w>
화물 선</w>
호 황</w>
허벅 지</w>
허둥 지
해 상</w>
한 탄</w>
하 필</w>
푸 리</w>
편 리
퍼 렇</w>
특 성상</w>
톡 톡</w>
탑 승</w>
큰 비</w>
크리 스마
코미 디</w>
케이 스</w>
컨 대</w>
치 우치</w>
치 밀
출 퇴근</w>
출 액</w>
축 축하</w>
총 애</w>
철 도</w>
진 찰</w>
지휘 관</w>
지우 개</w>
증 진</w>
쥐 어
준 공</w>
주 연</w>
주 무르</w>
족 히</w>
족 들</w>
져 우
제 각기</w>
정신 력</w>
정 국</w>
접 실</w>
점 프</w>
절 기</w>
전 철</w>
전 수</w>
전 교
적 들</w>
재 빠르</w>
장 착</w>
장 내</w>
잣 집</w>
잔 치</w>
자유 로운</w>
자 이
자 율</w>
자 연히</w>
자 비</w>
자 부
인 지</w>
인 기
이따 금</w>
이 익
이 례적</w>
음악 회</w>
으 스
유 효</w>
위 배</w>
월 요일</w>
원 금</w>
원 가</w>
우 울
왁 자
오래 도록</w>
오 렌
예민 한</w>
예 비</w>
예 비
영 어
열 흘</w>
열 등
연 세</w>
여 리</w>
엔 지니어</w>
었 더라</w>
었 는</w>
업 소</w>
어 두
애 도</w>
아 쉬
심 신</w>
심 상치</w>
신 음</w>
시청 자</w>
시 사
승 무원</w>
슬 림
수업 시간</w>
수 저</w>
수 작</w>
손 수</w>
속 마음</w>
성 원</w>
성 나</w>
설 적</w>
설 득
선진 적</w>
살인 범</w>
사냥 꾼</w>
사 시</w>
사 설</w>
사 병</w>
빚 지</w>
비 린내</w>
불편 한</w>
불가 피하</w>
불 경기</w>
부 착</w>
부 조리</w>
보 조금</w>
변 치</w>
베 트
번 역
번 개</w>
밴 드</w>
배드민 턴</w>
배 후</w>
배 터리</w>
반 복
박 람회</w>
미 숙</w>
미 끼</w>
물 거품</w>
무 작정</w>
목 화</w>
모래 사장</w>
명 확히</w>
명 소</w>
먼 트</w>
매 수</w>
령 화</w>
둘러 싸이</w>
되 살</w>
동 북
동 경</w>
도둑 질</w>
도 망</w>
덜 렁
단 체들</w>
농 장</w>
농 성</w>
논 평</w>
녹 화</w>
녹 차</w>
년 기</w>
내 키</w>
내 각</w>
납 치</w>
납 득</w>
나 긴</w>
군사 력</w>
군 것
국 익</w>
구조 조정</w>
구 애</w>
구 려</w>
공 예</w>
골 머리</w>
고스 란히</w>
고 춧가루</w>
고 깃
경영 자</w>
경영 권</w>
격 전</w>
겉 치레</w>
건 성</w>
감 행</w>
각 별</w>
가 담</w>
7 0</w>
3 6
21 일</w>
20 일</w>
20 대</w>
후보 들</w>
환 호</w>
화 단</w>
호 칭</w>
호 박</w>
행 태</w>
해외 여행</w>
한결 같이</w>
하 시길</w>
하 소연</w>
피 부
플라 스틱</w>
풍 년</w>
포 장
퍼 스</w>
파 헤치</w>
통 한</w>
태 평양</w>
키 스</w>
크 리</w>
치 아</w>
출 제</w>
출 연
출 가</w>
총 탄</w>
체 격</w>
처리 해</w>
채 취</w>
채 무</w>
찾아 뵙
찾아 다니</w>
참 관
차 지</w>
집어 넣</w>
짐 없이</w>
지식 인</w>
지 겹</w>
중 립</w>
주 주</w>
주 의자</w>
주 둥이</w>
좁 히</w>
조 롱</w>
제 2</w>
제 2
정보 화</w>
정류 장</w>
점 포</w>
전 송</w>
저 가</w>
장난 치</w>
잡아 먹</w>
잔잔 한</w>
자유무역 협정</w>
자부 심</w>
자 욱
일 행</w>
인간 성</w>
인 재
익숙 해지</w>
이 토록</w>
이 사
응 접실</w>
음 미</w>
으 론</w>
유 사</w>
유 래</w>
웃 기</w>
운동 화</w>
우편 물</w>
우여 곡절</w>
우아 한</w>
욕 설</w>
요 지</w>
열 렬히</w>
열 두</w>
여 학생</w>
여 왕</w>
여 느</w>
었으 니까</w>
얼 버무리</w>
언 어
어우 러지</w>
얕 보</w>
양 성
양 산</w>
약 재</w>
악 수</w>
아쉬 움</w>
씀 이</w>
씀 씀이</w>
심 오한</w>
심 기</w>
실사 구
신호 등</w>
시 커
시 차</w>
시 대적</w>
습 하</w>
습 니</w>
습 관적</w>
스캔 들</w>
소 지
소 인</w>
소 규모</w>
성 급</w>
선 비</w>
생 장</w>
샐 러
상 징
삼 각
산 품</w>
사 춘기</w>
사 상자</w>
뻣 뻣
빠 짐없이</w>
빗 나가</w>
빈 약</w>
붙 어</w>
불 평등</w>
분 장</w>
분 산</w>
부득 이</w>
부 잣집</w>
부 동
병 행</w>
별 나</w>
백 신</w>
반 격</w>
미 래
물 놀이</w>
문 안</w>
무 성한</w>
목 록</w>
맨 발</w>
망 망
말 씨</w>
리 즘</w>
들이 키</w>
득 히</w>
득 실</w>
뒹 굴</w>
뒤 쪽</w>
동반 자</w>
동 향</w>
동 창</w>
도 서</w>
대 장부</w>
담 보</w>
다 그치</w>
누 적</w>
놔 두</w>
노 인
낮 잠</w>
남 북
꼬 이</w>
기 입</w>
기 어오르</w>
기 수</w>
긍 정</w>
금 지
금 전</w>
근 절</w>
그 쪽</w>
굽 이</w>
국가 적</w>
구 적</w>
골 드</w>
고달 프</w>
계 발</w>
격 식</w>
검 은색</w>
걸 맞</w>
건 전지</w>
거 니</w>
개 별적</w>
가로 채</w>
가득 차</w>
가 죽
가 전</w>
가 망</w>
가 려
가 계</w>
20 분</w>
2 억</w>
흐 트
훤 히</w>
획 기적</w>
회 색</w>
황 허</w>
화 원</w>
혼 방</w>
헛 소리</w>
허리 띠</w>
허 튼
향 긋</w>
행 방</w>
핵 무기</w>
합 니다만</w>
학 부모</w>
하나 하나</w>
프랑 스
폴 리</w>
판매 량</w>
판단 력</w>
틀어박 혀</w>
토 로</w>
커 피
취 재
출 구</w>
추 태</w>
추 수</w>
최 저</w>
촘 촘
철 거</w>
천 성적</w>
천 둥</w>
챵 지앙</w>
참 되</w>
찌 푸리</w>
진 행
주 행</w>
주 저</w>
종 족</w>
종 래</w>
조 부</w>
제 철</w>
제 자리</w>
정 중</w>
저 작
장 시간</w>
장 사
장 교</w>
잠재 력</w>
잔 디
자본 주</w>
자그 마하</w>
자 초</w>
자 손</w>
인간 적</w>
이재 민</w>
이 벤
이 모</w>
이 곳
응 급</w>
음 주
으 랴</w>
유 망</w>
유 람
웨 이
원 시
워 싱</w>
용 인</w>
와이 셔츠</w>
오 십</w>
여객 선</w>
여 보</w>
에 워
었 어야</w>
엄 한</w>
어 음</w>
애 플</w>
앞 세우</w>
악 몽</w>
아 원</w>
신 뢰
스 름하</w>
순 전히</w>
순 결</w>
숙 한</w>
수 상자</w>
속 세</w>
속 삭이</w>
소 장
소 멸</w>
센티 미터</w>
세탁 기</w>
성 년
선수 단</w>
선생 님들</w>
선 행</w>
선 사</w>
서 부터</w>
생산 성</w>
생 동적</w>
새 빨갛</w>
상 장</w>
살 갗</w>
사이 좋</w>
사 칭</w>
뿌 리치</w>
빈 부</w>
비스 듬
비 열</w>
비 기</w>
부녀 자</w>
부 차적</w>
부 부
봉 급</w>
복숭 아</w>
보편 화</w>
버 드
배 색</w>
방 황</w>
방 비</w>
발 버
발 동</w>
반 항</w>
반 듯하</w>
밀어 붙이</w>
물 정</w>
문 단</w>
무 료
묘 하</w>
몸 무게</w>
몰 수</w>
모니 터</w>
만 화책</w>
만 사</w>
마 구
릴 게요</w>
랑 거리</w>
뚝 하</w>
떠 다니</w>
따라 잡</w>
들어 맞</w>
들 다</w>
드 릴게요</w>
뒤 엎</w>
두 루
동 행</w>
돈 독</w>
도 주</w>
덮 어
대 상자</w>
당 내</w>
단편 적</w>
니 깐</w>
누 렇</w>
내 용
날 조</w>
난 간</w>
나부 끼</w>
나 리
나 귀</w>
끊임 없</w>
깨 우치</w>
깜 빡</w>
길 들이</w>
기 지
급 속히</w>
그 해</w>
규 범</w>
권 총</w>
궁 금
굴 하</w>
국세 청</w>
관광 지</w>
관광 객들</w>
관 청</w>
과학 자들</w>
과 거
공화 국</w>
고 모</w>
거 드름</w>
가 요
가 가</w>
8 0년대</w>
30 대</w>
25 일</w>
2000 년</w>
15 분</w>
1 개</w>
희 귀
흥미 진
흥미진 진</w>
휘발 유</w>
후 회
후 방</w>
후 련</w>
황 급히</w>
화 시키</w>
화 산</w>
혼 례</w>
호 흡
현 대화</w>
허 황</w>
허 사</w>
행동 거지</w>
해수 욕장</w>
해 졌다</w>
해 방
해 고</w>
항 로</w>
학 우들</w>
하 우스</w>
플레이 션</w>
프리 미
폐 기물</w>
평 판</w>
평 균
팔 짱</w>
특 수
트 레이
통 계
탱 크</w>
콘 크리
컴 하</w>
컴 컴하</w>
캠 프</w>
친 척
추 출</w>
총 괄</w>
천 년</w>
참 사</w>
찰 력</w>
차 질</w>
지 탄</w>
지 세</w>
지 리적</w>
지 극</w>
중점 적</w>
중 고
주 입</w>
주 관적</w>
종 전</w>
제 도적</w>
정 기
정 각</w>
절 묘</w>
저 금</w>
재 차</w>
자 빠지</w>
임 대
인민 폐</w>
이탈 리아</w>
이제 껏</w>
이런 저런</w>
이곳 저곳</w>
이 로써</w>
이 나마</w>
은 데요</w>
율 성</w>
유 포</w>
위 탁</w>
원 지</w>
원 대한</w>
울퉁불 퉁하</w>
우 미</w>
우 르르</w>
요 건</w>
외 관</w>
왕 씨</w>
옹 호</w>
옛 일</w>
영 입</w>
여 행사</w>
에워 싸</w>
어 찌
어 이</w>
알 뜰</w>
악 마</w>
악 당</w>
아 시
아 득</w>
심 플
심 문</w>
실 증</w>
실 거리</w>
식 품
식 기</w>
시 동</w>
시 게</w>
스웨 터</w>
수 용
수 산물</w>
수 놓</w>
소유 자</w>
소 개
선수 권</w>
선 동</w>
석 들</w>
서 럽</w>
서 나</w>
샤 오
생 애</w>
생 수</w>
생 략</w>
상 속</w>
상 세히</w>
상 세한</w>
산 더미</w>
삭 감</w>
사이 버
사 각</w>
빈 곤
비 어</w>
비 명</w>
붉 은색</w>
불 안정</w>
불 거지</w>
봉 쇄</w>
봄 바람</w>
본 성</w>
볶 음
변 질</w>
배 합</w>
배 반</w>
밥 그릇</w>
반 영
바 위
민 요</w>
미 스</w>
미 료</w>
미 디어</w>
물 량</w>
문자 메시지</w>
무 부</w>
못 쓰</w>
멜로 디</w>
망 가
만년 필</w>
만 도</w>
막 판</w>
막 강한</w>
러 시아
뛰 치</w>
듬 뿍</w>
둥 지</w>
된 장</w>
되 기</w>
동그 랗</w>
독 서</w>
데 뷔</w>
덕 택</w>
더 더욱</w>
대중 교통</w>
대 야</w>
대 단
담당 자</w>
단 골</w>
놀 러
네 들</w>
내 리치</w>
나 리</w>
꼿 꼿
깃 들</w>
긴장 감</w>
기 약</w>
기 나긴</w>
급 등</w>
금 요일</w>
근 성</w>
그 다음</w>
그 간</w>
국제 사회</w>
국 력</w>
국 경
구 현</w>
구 원</w>
교육 비</w>
교 량</w>
광 복</w>
관 행</w>
관 절</w>
공 들</w>
고 혈압</w>
고 급
계 열사</w>
결정 해</w>
겠 는데</w>
건 전</w>
값 지</w>
가파 르</w>
가장 자리</w>
가 엾</w>
가 속</w>
4 시</w>
28 일</w>
10 대</w>
휴 지
화 사</w>
혼 사</w>
협 곡</w>
혐 오
현 혹</w>
허 비</w>
허 가
행 군</w>
합 성</w>
한 복판</w>
학 부모들</w>
하루 빨리</w>
풍 토</w>
푸 른
펄 펄</w>
패 러
판 소리</w>
파 이</w>
티 켓</w>
틈 새</w>
특 집</w>
트렌 드</w>
투자 자들</w>
통 역</w>
태 연</w>
콘크리 트</w>
캠 페인</w>
충 만</w>
출 토</w>
출 산
추 상적</w>
최 강</w>
초 라</w>
청 렴</w>
첫 사랑</w>
참가 자들</w>
진 한</w>
지 목</w>
지 류</w>
중 화</w>
주시 하</w>
주도 면밀</w>
좌 우
젖 히</w>
정 장</w>
정 성
절 실히</w>
절 부
절부 절</w>
절 박</w>
전투 기</w>
적 절히</w>
저 우</w>
장 황</w>
장 중</w>
장 병들</w>
장 롱</w>
잔디 밭</w>
자연 적</w>
자가 용</w>
자 못</w>
읽 히</w>
이 틀
이 산
이 기
이 걸</w>
은 이</w>
융 합</w>
육 박</w>
위 조</w>
월 말</w>
원 경</w>
웅 크리</w>
우물 쭈
우리 측</w>
용 맹</w>
옷 깃</w>
오징 어</w>
오 이</w>
오 만</w>
오 너</w>
예술 가</w>
열 성</w>
열 띠</w>
연 자
연 쇄</w>
연 령
연 기
엔 의</w>
었 듯이</w>
어 버
어 귀</w>
야 만</w>
애 매</w>
안 절부절</w>
아 물</w>
씩 씩</w>
쌀쌀 하</w>
실 한</w>
신 진
시시 각각</w>
습 적</w>
순간 적</w>
순 진</w>
숙 고</w>
수험 생</w>
수 월</w>
손 수건</w>
속 성</w>
소득 세</w>
소 작
소 생</w>
세 상
선 하</w>
선 택
선 별</w>
생 성</w>
샘 물</w>
상 여금</w>
산 봉우리</w>
사 후</w>
사 기</w>
비 들</w>
비 둘
블 루</w>
블 로그</w>
불 규칙</w>
분 분</w>
부 하들</w>
부 스러
부 분
부 류</w>
방 화</w>
방 도</w>
발 자국</w>
바 느
밑 바닥</w>
물 의</w>
무 니</w>
목 장</w>
명실 상부</w>
망가 뜨리</w>
망 상</w>
말랑 하</w>
말랑 말랑하</w>
말 단</w>
막 중</w>
마이 크</w>
마 들</w>
리 학</w>
레 스토
드 넓</w>
뒷 모습</w>
둘 이</w>
두 뇌</w>
도시 락</w>
데이 터</w>
데 우</w>
당 원</w>
다음 달</w>
다 니까</w>
능 력
늑 대</w>
눈 물
네 덜
내 쉬</w>
난 감</w>
낙 심</w>
꽂 이</w>
깎 이</w>
까지 이</w>
까 지만</w>
까 봐</w>
기 압</w>
기 만</w>
기 능
급 제</w>
귀 빈</w>
국민 적</w>
국 한</w>
구역 질</w>
구 멍
관 여</w>
공 정한</w>
고 지식</w>
고 분
고 갈</w>
곁 들이</w>
경찰 들</w>
겹 겹</w>
결 재</w>
결 석</w>
걷 어
거 푸</w>
개 정안</w>
개 교</w>
갓 집</w>
각 박</w>
가 끔
6 자</w>
5 시</w>
5 000
3 8
2 층</w>
1 인
1 ,000
힘 입</w>
희 귀</w>
휘 젓</w>
후 왕
후 배들</w>
회 원들</w>
활 활</w>
홀 가
혼 내</w>
헐 후</w>
해결 책</w>
해 양
해 산물</w>
한 적</w>
한 겨울</w>
하 시오</w>
프로 야구</w>
표 적</w>
폭 파</w>
편 안
팔 꿈치</w>
탄 력</w>
크리스마 스</w>
켤 레</w>
캠 퍼스</w>
침 수</w>
취 약</w>
출 항
출 중</w>
총 액</w>
초 록
천 여</w>
천 리</w>
창 한</w>
차 차</w>
찌 꺼
찌꺼 기</w>
집 필</w>
직 종</w>
직 스럽</w>
즌 들</w>
중 순</w>
주 역</w>
주 들</w>
종 점</w>
존 엄
조 이</w>
조 문</w>
제 보</w>
정 체성</w>
절 하</w>
전통 문화</w>
저 명</w>
저 렴
재 치</w>
장 판</w>
장 신구</w>
장 대</w>
자신 만</w>
자 전</w>
자 녀들</w>
입 주</w>
입 양</w>
입 법
임 의</w>
임 박</w>
일 거리</w>
인 계</w>
이벤 트</w>
이 집
이 질</w>
이 스라
의 금</w>
응 답</w>
을 리</w>
으 시ㄹ</w>
육 군</w>
유언 비어</w>
유권 자</w>
유 언</w>
위 태</w>
위 조
원 칙적</w>
원 자재</w>
우승 자</w>
용 감히</w>
외 화</w>
완 고</w>
오 죽</w>
였 다</w>
엿 보</w>
염 원</w>
염 색</w>
염 두</w>
연 애
연 습
여 위</w>
에서 야</w>
었 잖아</w>
어 떤
야 생</w>
암 시</w>
안 방</w>
아 마
아 느냐</w>
아 가</w>
십 상</w>
심 지</w>
실 장</w>
실 무
신랑 감</w>
신 도시</w>
시청 률</w>
스타일 링</w>
스케 줄</w>
수도 관</w>
수 거</w>
손 끝</w>
소 탕</w>
소 수
성 도</w>
섭 섭</w>
서 글
새벽 녘</w>
새 들</w>
상품 권</w>
상 냥</w>
산 림</w>
사회 자</w>
사 투리</w>
사 악</w>
사 내</w>
뼈 다
뻣뻣 하</w>
빠 듯</w>
비 장</w>
비 서관</w>
비 뚤
비 꼬</w>
불 쌍
분 실</w>
부 양</w>
부 속
부 러움</w>
본 받</w>
본 뜨</w>
범 람</w>
백 사장</w>
배 탈</w>
방송 이</w>
방 울
방 석</w>
반도 체</w>
반 수</w>
반 도</w>
밀수 품</w>
미 안
뮤 지
문 적</w>
무 효</w>
무 책임</w>
목 수</w>
명 심</w>
명 료</w>
며칠 간</w>
멀 미</w>
먹 었다</w>
머 뭇
매 입</w>
만큼 은</w>
만만 치</w>
막 연</w>
마구 잡이</w>
르 륵</w>
룩 하</w>
로 비</w>
로 마</w>
런 민
락 거리</w>
뛰어 오르</w>
또 래</w>
듬 거리</w>
들 러
드문 드
드문드 문</w>
뒤 엉키</w>
두 통</w>
동 하</w>
덤 비</w>
덜 미</w>
대 화
대 체적</w>
대 세</w>
담 배
달 력</w>
단 조로운</w>
다 량</w>
다 급</w>
니 와</w>
늦 잠</w>
뉘 우치</w>
놀이 터</w>
녹 음
노 년</w>
넘 어뜨리</w>
냉 혹</w>
냉 각</w>
내 뿜</w>
낭 비
낙 담</w>
나 팔
끝 마치</w>
꽁 무니</w>
까 지나</w>
기어 코</w>
기 승</w>
급 급</w>
근 데</w>
그 거</w>
구 제
교통 경찰</w>
괴 로움</w>
광 대</w>
공동 체</w>
공 학</w>
공 인</w>
공 사
공 단</w>
공 권력</w>
곡 조</w>
고 정
고 물</w>
견 고
겉 보기</w>
걸 상</w>
강의 실</w>
강력 히</w>
강 점</w>
강 대국</w>
갑 갑</w>
가락 질</w>
ㄹ 지언정</w>
5 000</w>
4 일</w>
3 번</w>
16 일</w>
100 0</w>
흥 정</w>
흡 연
흐 느끼</w>
휩 쓸리</w>
후 하</w>
황 폐</w>
홀가 분</w>
형 수</w>
혈 액
현 실
헛 수고</w>
헛 디디</w>
한 방</w>
학 점</w>
하 락
하 고
폭 발
편 의
팩 스</w>
파 격적</w>
팀 장</w>
통 용</w>
톡 톡
토 리</w>
탄 성</w>
쿵 저러
쾌 히</w>
코 디</w>
커 플
칼 날</w>
침 식</w>
충 격적</w>
출 판
추 하</w>
체 온</w>
체 내</w>
철 회</w>
천 문학적</w>
척 도</w>
창의 성</w>
창의 력</w>
참 을
찬 사</w>
차려 입
찔 리</w>
짜 내</w>
진 도</w>
직 공</w>
지원 자</w>
지금 껏</w>
증 명서</w>
중 세</w>
주 전</w>
주 민
좀 더</w>
제 갈
정 황</w>
정 거장</w>
전 해</w>
전 력
저 하</w>
재 발</w>
장애 물</w>
장 들</w>
장 구</w>
작업 장</w>
잊 히</w>
입장 권</w>
입 수</w>
입 법</w>
일 화</w>
일 주</w>
인 상
이슬 람</w>
이러 쿵저러
이 점</w>
의 원
음 향</w>
은 근히</w>
유 예</w>
유 아</w>
위 문
위 기
원 정</w>
원 서</w>
원 생</w>
원 동력</w>
왕 국</w>
옷 장</w>
열 의</w>
열 성적</w>
열 광</w>
연 방</w>
연 명</w>
연 꽃</w>
여 비</w>
엄 밀</w>
어 이
애 타</w>
애 국
아 웃
아 며</w>
실 체</w>
신 원</w>
식 별</w>
식 단</w>
시간 대</w>
시 가</w>
수 필</w>
수 없이</w>
손 재주</w>
손 꼽</w>
셨 다는</w>
세계 화</w>
세 태</w>
성 실히</w>
설득 력</w>
선 도</w>
상급 자</w>
상 위</w>
살 인</w>
살 림</w>
산 악</w>
사 병들</w>
빳 빳
빨간 색</w>
비 뚤</w>
블 록</w>
불 허</w>
불 어
부 유
보 트</w>
보 류</w>
보 강</w>
병 상</w>
변 수</w>
벽 화</w>
벼 들</w>
법 석</w>
번 복</w>
백 만</w>
방 출</w>
방 아</w>
발 등</w>
미 한</w>
미 암</w>
뮤지 컬</w>
물 살</w>
문 의</w>
무 안</w>
무 럭
목 청</w>
목 마르</w>
모 호</w>
모 양
모 닥
모닥 불</w>
맹 이</w>
맞 물리</w>
말 솜씨</w>
말 미암</w>
말 대꾸</w>
마 작</w>
름 한</w>
런 던</w>
랜 드
래 요</w>
라 스</w>
따 끔</w>
등 교</w>
뒷 면</w>
뒷 걸음
뒤 돌</w>
두 들기</w>
동 떨어지</w>
덤 벼들</w>
대변 인</w>
대 두</w>
눈 매</w>
내 구성</w>
난 제</w>
끄 덕이</w>
꽃 병</w>
기 예</w>
기 묘</w>
기 말
기 대
긁 어
그 름</w>
귓 가</w>
국무 총리</w>
구태 여</w>
구 식</w>
구 미</w>
교 내</w>
괜 하</w>
과 잉</w>
과 음</w>
과 녁</w>
공 급
곡 히</w>
계집 애</w>
경찰 서</w>
경 매</w>
결 제
검 정</w>
걸 림
걷 히</w>
건 달</w>
거리 끼</w>
객 차</w>
감 수</w>
갈 비</w>
간 첩</w>
가 난
가 격
7 개</w>
40 대</w>
40 0</w>
200 6년</w>
2 시간</w>
흐트 러지</w>
휘 감</w>
회 답</w>
현 관</w>
헹 구</w>
허튼 소리</w>
행 보</w>
해 법</w>
한 일</w>
한 여름</w>
학 습
피 차</w>
풍 족</w>
풍 작</w>
풍 선</w>
포 털</w>
평화 적</w>
편 의</w>
판매 원</w>
티 브</w>
튕 기</w>
통신 망</w>
통 곡</w>
택 배</w>
컨 디션</w>
커뮤니 티</w>
친 선</w>
친 밀</w>
출 처</w>
척 척</w>
채 팅</w>
채 찍</w>
채 로운</w>
참을 성</w>
징 조</w>
지 적
중 시해</w>
중 기</w>
주도 권</w>
주 파
주 야</w>
종 료</w>
졸 이</w>
조심 조심</w>
조 잡</w>
정 확
절 정</w>
전 시장</w>
적 정</w>
적 성</w>
재 활
재 벌</w>
재 개발</w>
장 악하</w>
잠 자
잠자 코</w>
자 문</w>
일 용품</w>
일 리</w>
인간 관계</w>
인 데요</w>
이스라 엘</w>
이 슈</w>
의 연</w>
으 시면</w>
위 아래</w>
우 기</w>
외교 부</w>
왔 다
오 지</w>
연 약</w>
여 사</w>
엑 스
엉 터리</w>
어 물
어 림
양 호한</w>
양 호</w>
양 지</w>
양 자</w>
양 심적</w>
애완 견</w>
애 초</w>
알아 맞히</w>
아메 리
쓰 라리</w>
쏘 이</w>
썰 렁</w>
썩 이</w>
싸 움
싱 글
싱 가
싱가 포
심 심
신 인</w>
신 병</w>
식 용</w>
식 물
시 어도</w>
시 냇물</w>
시 내
승 차</w>
승 강
스 코</w>
순 박</w>
숙 련</w>
수 화</w>
수 증기</w>
손 대</w>
소 재
소 변</w>
소 들</w>
세계 대전</w>
세 자</w>
세 관</w>
섬 세한</w>
설 화</w>
서 커
생각 해</w>
샘 플</w>
새 싹</w>
산 골짜기</w>
산 간</w>
사무 치</w>
사 체</w>
사 색</w>
뼈다 귀</w>
비스듬 히</w>
비둘 기</w>
비 서
불안 감</w>
불량 배</w>
불 투명</w>
분 할</w>
분 비</w>
부 호</w>
부 처
부 재</w>
부 장님</w>
부 상
부 동</w>
부 단히</w>
부 님</w>
봉 하</w>
보 도
번 번
백 색</w>
배 포</w>
방 한</w>
방 망
발 판</w>
발 육</w>
반 년</w>
미 사</w>
문 책</w>
무 진</w>
몰아 넣
명 하</w>
면 목</w>
며 시</w>
멀 리하</w>
망 원경</w>
마지 못하</w>
리 성</w>
레스토 랑</w>
렁 하</w>
뛰 기</w>
때 론</w>
땅 속</w>
딸 리</w>
디지 털
동 상</w>
돌 멩
독 성</w>
덩 굴</w>
더 더기</w>
대중 적</w>
대 피
단 연</w>
다음 날</w>
다리 미</w>
다 운
니 즘</w>
네티 즌들</w>
냉 철</w>
내 적</w>
남 매</w>
남 극</w>
끼 니</w>
꾸 물거리</w>
깡 통</w>
깡 그리</w>
깜 찍</w>
길 래</w>
기 율</w>
기 어</w>
급 격</w>
금 속
권 장</w>
굴 뚝</w>
굳 세</w>
군 더더기</w>
구 부리</w>
과 수원</w>
과 로</w>
공 무</w>
고추 장</w>
고분 고
고 삐</w>
고 만
고 금</w>
고 국</w>
격 파</w>
겨 지</w>
검 소</w>
걸림 돌</w>
걸 려
거 야</w>
개 학</w>
개 최
개 체</w>
강 자</w>
갓난 아기</w>
값 비싸</w>
간 호
간 행</w>
가 쁘</w>
가 누</w>
ㄴ 다니</w>
8 일</w>
50 명</w>
4 00
200 4년</w>
200 3년</w>
2 3
10 개</w>
흐 로</w>
휴가 철</w>
훌 쩍
후 퇴</w>
회의 실</w>
회 원
환 산</w>
호 숫
호 르
혐오 감</w>
헐 떡
헌 신</w>
허 세</w>
허 공</w>
할 인
하 드
피 의자</w>
표 결</w>
평 안
평 론
편 지</w>
파 괴
투 정</w>
투 박</w>
투 기
타 개</w>
친 정</w>
치 욕</w>
치 닫</w>
추 론</w>
최 종적</w>
최 고치</w>
초등 학생</w>
청 거리</w>
처 마</w>
참가 자</w>
참 혹</w>
찬 란</w>
째 로</w>
집 세</w>
진 급</w>
지 명
증 산</w>
중 하</w>
주 거</w>
종 소리</w>
조 예</w>
조 세</w>
제 품들</w>
제 물</w>
정치 가</w>
정상 화</w>
정 시</w>
정 사</w>
전화 번호</w>
재 직</w>
자리 잡</w>
자 한</w>
자 정</w>
자 율적</w>
자 기들</w>
입 체적</w>
입 문</w>
일 거
인 솔
이웃 과</w>
이 삿
이 사장</w>
은 커녕</w>
유 교</w>
위 쪽</w>
위 세</w>
웬 일</w>
원 해</w>
워 싱
우 화</w>
우 위</w>
오렌 지</w>
열 심</w>
역 하</w>
여 정</w>
었 더
언제 쯤</w>
어 슬
양 안</w>
야 흐로</w>
악 한</w>
아이 스
아 프
씨 들</w>
심부 름</w>
실사구 시</w>
식 견</w>
시청 자들</w>
시집 보내</w>
시 일</w>
시 나</w>
시 골
스피 드</w>
스트 레
스트 라이
스 위치</w>
술 수</w>
수 평선</w>
수 첩</w>
수 요
쇼핑 몰</w>
속 해서</w>
소 환</w>
소 용
소 모
소 견</w>
셨 는데</w>
성장 률</w>
성 가시</w>
선수 권
선수권 대회</w>
선량 한</w>
서울 대</w>
서 화</w>
서 류
생 리</w>
새 색시</w>
살 해</w>
산업 화</w>
산 산
산 간
사회 생활</w>
사랑 해</w>
사 정
사 리
사 당</w>
붕 대</w>
불 화</w>
불 면
불면 증</w>
불 균형</w>
분 량</w>
부 적절</w>
보 일러</w>
보 살
범 벅</w>
번지 르르하</w>
번 호
배 웅</w>
방 불
반짝 거리</w>
반 신</w>
반 란</w>
바느 질</w>
바 야흐로</w>
바 닥
밀 리
미 스
미 성년
무럭 무
무럭무 럭</w>
몽 둥이</w>
못 살</w>
목 격자</w>
모 터
모 종</w>
모 내기</w>
모 나</w>
명 시</w>
면 역</w>
멤 버</w>
메이 크
메 모
멍 청
매 출액</w>
말 끝</w>
만 점</w>
만 류</w>
마음 가짐</w>
마 크</w>
마 는</w>
마 개</w>
리 본</w>
리 라는</w>
리 더</w>
랭 킹</w>
디자 이
들어 차</w>
들 하</w>
두 세</w>
되 살리</w>
동 해</w>
동 서
돌멩 이</w>
독 단적</w>
도덕 성</w>
대학 들</w>
대 행</w>
대 륙
달러 화</w>
달 구</w>
다 더</w>
느 냐는</w>
눈 코</w>
노 점</w>
네덜 란드</w>
내 장</w>
내 달</w>
납 품</w>
남 부</w>
나 태</w>
나 위</w>
나 른</w>
끄 집</w>
꿰 매</w>
기 품</w>
기 이한</w>
기 류</w>
급 우들</w>
귀 띔</w>
권 력
궁 지</w>
굼 뜨</w>
굳 히</w>
군것 질</w>
구 덩이</w>
관계 없이</w>
과 열</w>
과 반수</w>
공 조</w>
공 유</w>
공 상</w>
고 충</w>
고 립</w>
계 략</w>
겸 하</w>
결 의안</w>
결 단
결 근</w>
결 과적</w>
겨 누</w>
강 렬</w>
강 도
강 국</w>
감 사원</w>
간 소화</w>
간 결</w>
가 공
9 0</w>
5 억</w>
4 대</w>
19 6
13 일</w>
1 분</w>
희 끗
흐 뭇</w>
흐 리
효 자</w>
활 동
화 합</w>
화 기
호르 몬</w>
헝 클
허 설</w>
항 공사</w>
학 부</w>
학 부
표 류</w>
포 즈</w>
포 수</w>
펑 크</w>
팔 찌</w>
팔 이</w>
파 적</w>
특 이한</w>
튀 김</w>
투 지</w>
투 기</w>
통 풍</w>
통 째로</w>
통 로</w>
탕 진</w>
탄 소</w>
타이 틀</w>
타 령</w>
클 로
코 앞</w>
코 스
카운 터</w>
칭 호</w>
치 부</w>
충 전</w>
총 수</w>
초 가
체 감</w>
천 명</w>
쪽 지</w>
집 행
진 술</w>
진 보적</w>
직 시</w>
지하 수</w>
지껄 하</w>
지 한</w>
지 피</w>
지 칭</w>
지 기</w>
증 서</w>
증 대</w>
중국 에서</w>
중 이</w>
중 반</w>
줄 기
준비 한</w>
주 도적</w>
조 합
조 율</w>
조 미료</w>
절 개</w>
저 술</w>
저 놈</w>
쟁 점</w>
재 채
재 우</w>
잔 인</w>
자금 난</w>
자 치</w>
입 김</w>
일 품</w>
일 꾼들</w>
인 구
익 살</w>
이집 트</w>
이 중
이 빨</w>
의 문
의 도적</w>
육 상
유니 폼</w>
유 흥
유 죄</w>
유 람</w>
우 러나</w>
우 거
욕 실</w>
왁자 지껄하</w>
온 순</w>
옥 상</w>
예 상치</w>
예 견</w>
옆 구리</w>
열등 감</w>
연 거푸</w>
여행 지</w>
었 단</w>
언 뜻</w>
어지 럽히</w>
어렴 풋
어 설
약 적</w>
야단 치</w>
야 위</w>
액 자</w>
앞 쪽</w>
아 삭
쑥 스럽</w>
싱가포 르</w>
심 의</w>
심 각성</w>
신진 대사</w>
신 혼</w>
신 통</w>
신 식</w>
식 수</w>
시 퍼렇</w>
시 찰</w>
슴 푸
숨 결</w>
순 회</w>
수 확
수 탈</w>
수 질</w>
수 련</w>
손 놀림</w>
손 녀</w>
소유 권</w>
소 방</w>
소 련</w>
성 적
설 거지</w>
선 풍기</w>
선 조</w>
선 장</w>
서 운</w>
새 장</w>
상관 없이</w>
상 응</w>
삽 입</w>
사 자들</w>
사 건
뻗 치</w>
빨 랫
빈 티
비 통</w>
브 로
붙 들</w>
불가 피</w>
불 신</w>
불 법적</w>
분 화</w>
분 규</w>
북 부</w>
부스러 기</w>
부들 부들</w>
부 한</w>
부 실</w>
부 실
봉건 적</w>
복 식</w>
보험 회사</w>
벼 락
벌 떡</w>
벌 겋</w>
번 잡</w>
벅 차</w>
방망 이</w>
발 치</w>
발 생
반복 적</w>
믿음 직하</w>
민 원</w>
무 당</w>
묘 한</w>
묘 목</w>
명 목</w>
면 치</w>
메이크 업</w>
메 모</w>
먹 히</w>
매 연</w>
매 너</w>
맞 붙</w>
만 해</w>
막 걸리</w>
마지 않</w>
마 술
리 허설</w>
등 용</w>
들이 닥치</w>
든 가</w>
됨 이</w>
됨 됨이</w>
돌 입</w>
도 우미</w>
도 량</w>
도 난</w>
도 금</w>
대신 해</w>
대 포</w>
대 자연</w>
대 명사</w>
대 가리</w>
담 화</w>
닦 이</w>
다 네</w>
누 각</w>
노 란색</w>
난 민</w>
나라 들</w>
나 지막</w>
나 약</w>
끝 장</w>
꼬 치</w>
꺼 풀</w>
기 부금</w>
기 계적</w>
급 선
금 빛</w>
글 거리</w>
근 사</w>
규 격</w>
구두 쇠</w>
구급 차</w>
구 호
구 사
교도 소</w>
광 주</w>
광 명</w>
과 오</w>
과 언</w>
공 채</w>
공 직자</w>
공 주
공 익</w>
고 향
고 함
고 목</w>
경쟁 적</w>
경 박</w>
경 련</w>
겸 비</w>
결 부</w>
견 문</w>
겨 우
걸 레</w>
강 원</w>
값 싸</w>
갈 피</w>
간 파</w>
간 단
각 심</w>
50 년</w>
201 4년</w>
1인 당</w>
19 5
100 미터</w>
10 억</w>
휴지 통</w>
훌 륭
후 진
효 도</w>
횡 포</w>
회 관</w>
황 혼</w>
환 심</w>
화물 차</w>
화 이트</w>
호 평</w>
현 행</w>
현 기증</w>
혀 지</w>
헬 기</w>
행 패</w>
해 자</w>
해 안
해 도</w>
할 리우
한 반도</w>
한 도</w>
학 문적</w>
하 염
하염 없</w>
하 산</w>
필수 품</w>
피 로
풀 밭</w>
표 현
포 옹</w>
폐 해</w>
폐 기</w>
편 입</w>
팔 뚝</w>
특 허</w>
통 속적</w>
타 당
콘 텐
취 임</w>
촉 감</w>
촉 각</w>
처 사</w>
창의 적</w>
창 호
차 량
집 결</w>
진 창</w>
진 로</w>
직 선</w>
지 퍼</w>
지 부</w>
중 상</w>
중 립
주 방
조 속히</w>
조 난</w>
제조 업</w>
제갈 량</w>
제 격</w>
정 정</w>
전 직</w>
전 란</w>
전 달
전 교</w>
전 가</w>
적 수</w>
적 금</w>
적 극성</w>
저 분</w>
재채 기</w>
재 해
장 직</w>
잘 리</w>
자 판</w>
자 산
자 부</w>
잎 사귀</w>
입 적</w>
입 시
일 컬</w>
일 가
인 출</w>
인 수</w>
인 사이
이 발
이 것들</w>
의 리</w>
읍 시다</w>
읍 내</w>
음 흉</w>
으 냐</w>
유 인</w>
위험 성</w>
원자 력</w>
원 활한</w>
원 문</w>
울 적</w>
운동 선수</w>
왼 손</w>
외 상</w>
외 삼촌</w>
외 교적</w>
완 곡</w>
완 강</w>
올림 픽
올 려
예산 안</w>
연 해</w>
여 의</w>
여 론
엄 두</w>
얼 하</w>
어렴풋 이</w>
어 마
양 치질</w>
양 지
양 자
앞 머리</w>
악 성</w>
아래 층</w>
아 야</w>
아 스
아 나
심 취</w>
신문 지</w>
신 자</w>
신 년</w>
식 생활</w>
시 며</w>
시 국</w>
승 리
습 성</w>
스 탠
스 껍</w>
숲 속</w>
수 완</w>
수 로</w>
솟 구치</w>
손 색</w>
속 화</w>
셨 습니까</w>
셀 러</w>
세 율</w>
선 입
선 원들</w>
선 서</w>
선 망</w>
색 한</w>
색 감</w>
새 집</w>
상 큼</w>
상 권</w>
살림 살이</w>
산 천</w>
산 악
사법 부</w>
사망 자</w>
사령 부</w>
사 우
사 단</w>
사 거리</w>
빡 하</w>
빡 빡하</w>
비 축</w>
블 랙
붓 글씨</w>
불 통</w>
불 우
불 상</w>
분 출</w>
분 석
분 개</w>
부 피</w>
부 도
보살 핌</w>
보 복</w>
보 배</w>
별 장</w>
베 란다</w>
번번 이</w>
버 들</w>
백 일
밥 맛</w>
반 납</w>
바삭 바삭
미술 관</w>
미 흡</w>
무 기력</w>
무 가
못 생기</w>
몰 락</w>
모 험
명 제</w>
명 승
메 스껍</w>
먹 고
머리 털</w>
맥 박</w>
맞 춤</w>
맞 먹</w>
말 소리</w>
마 차</w>
마 우스</w>
마 르
루 트</w>
뜨 이</w>
따 분</w>
동 식물</w>
동 강</w>
돌려 보내</w>
독재 자</w>
도 자기</w>
도 사리</w>
도 박
도 마</w>
더 디</w>
대 충
대 권</w>
당 황
당 들</w>
답 사</w>
답 례</w>
담 요</w>
달 걀
단 상</w>
다 면서</w>
늘 이</w>
느 긋</w>
논 조</w>
노 조
노 예
너 비</w>
냉 면</w>
내 비치</w>
남 한</w>
날 아
끼 얹</w>
끌어 올리</w>
꿋꿋 하</w>
까마 귀</w>
깊 숙이</w>
기억 나</w>
기 피</w>
기 절</w>
기 러
금융 위</w>
금 고</w>
극 본</w>
그라 운드</w>
그 레이
균 등</w>
구불 하</w>
구불 구불하</w>
구 름
교 전</w>
광 주리</w>
관련 한</w>
공무 원들</w>
공공 장소</w>
공 직</w>
공 론</w>
공 격적</w>
고 풍</w>
고 작</w>
경 품</w>
경 감</w>
경 각심</w>
게시 물</w>
건 배</w>
거 저</w>
거 들먹거리</w>
갱 신</w>
개 구
갑작 스런</w>
감 정적</w>
감 면</w>
각 양
가요 계</w>
5 개월</w>
3 000
2 학년</w>
14 일</w>
11 시</w>
흠 잡</w>
흔들 거리</w>
후왕 허</w>
회 사
황 색</w>
황 사</w>
화기 애
화기애 애
화 적</w>
현 미
혁 명
헤어 스타일</w>
허둥지 둥</w>
허 전</w>
한테 는</w>
한 담</w>
한 단</w>
학 벌</w>
하 품</w>
하 우</w>
하 느
핍 박</w>
풍 요</w>
푸 석
표 출</w>
폭 적</w>
폭 등</w>
폐 쇄
편 향</w>
팔 다리</w>
파 멸</w>
파 라
툭 툭</w>
투 구</w>
태 국</w>
탐 정</w>
탄 환</w>
타 임
타 국</w>
크 스</w>
칼 로
칼로 리</w>
칫 거리</w>
친 목</w>
치 즈</w>
충 심</w>
충 동</w>
추 격</w>
촉 박</w>
초 보</w>
철 역</w>
채 집</w>
창 설</w>
창 백</w>
쭈 그리</w>
쪼 그리</w>
징 벌</w>
짓 밟</w>
집중 력</w>
집 들이</w>
집 권
진 료
직 결</w>
지금 까지</w>
증 강</w>
중요 시하</w>
주파 수</w>
주식 시장</w>
주 한
주 부들</w>
조 소</w>
제작 진</w>
정 히</w>
정 년</w>
절 한</w>
전문 점</w>
전 신
전 술
전 도
전 년</w>
재산 권</w>
재 현</w>
잠 재</w>
자치 단체</w>
입장 료</w>
일 회
일 컫</w>
일 사
일 구</w>
인사이 동</w>
인공 위성</w>
인 치</w>
인 산
인 물들</w>
이 변</w>
이 백</w>
이 견</w>
응 낙</w>
으 시ㄴ다</w>
유람 선</w>
유 효
유 일</w>
원 본</w>
움켜 쥐</w>
우물쭈 물하</w>
우 애</w>
우 수
우 박</w>
우 매</w>
우 량</w>
외환 위</w>
왔다 갔
올 라
예 의
예 감</w>
옆 방</w>
영화 배우</w>
영양 소</w>
열 세</w>
연 설
여보 세요</w>
여러 분들</w>
여 움</w>
엄 수</w>
어설 프</w>
어린 아이들</w>
어 법</w>
약 한</w>
애 착</w>
압 도적</w>
암 호</w>
암 리</w>
안전 성</w>
안 심해</w>
안 간
악 산</w>
악 보</w>
악 단</w>
아 웃</w>
아 름</w>
아 담</w>
아 궁
아궁 이</w>
실 버</w>
실 물</w>
시집 오</w>
시 상식</w>
순 응</w>
숙 녀</w>
수입 과</w>
수 소</w>
수 렴</w>
수 기</w>
소 극적</w>
세 속</w>
세 대
성 문</w>
성 거리</w>
선 착
선 점</w>
서울 역</w>
서글 프</w>
서 해안</w>
생각 해서</w>
색 색</w>
상 하이</w>
상 정</w>
상 담
사 직
사 죄</w>
사 오
사 슴</w>
사 면</w>
사 립
빗 방울</w>
빌 붙</w>
빈틈 없이</w>
비 탈
비 참</w>
비 빔
불 씨</w>
불 끈</w>
불 고기</w>
북 돋우</w>
부속 품</w>
부 패
부 업</w>
복 무</w>
보름 날</w>
보 이
보 드
병 실</w>
변 혁</w>
변 천</w>
변 변치</w>
벽 면</w>
법 령</w>
번 성</w>
백 여</w>
배 짱</w>
발 매</w>
반들 반들
반대 편</w>
박 지성</w>
바 른
밋 하</w>
미성년 자</w>
미 사일</w>
미 달</w>
뭐 하</w>
문 밖</w>
못 내</w>
모 서리</w>
모 독</w>
몇 십</w>
명문 대</w>
명 중</w>
면 허
매 화</w>
매 개</w>
망 울</w>
말 문</w>
만 성
리 스</w>
르 트</w>
로 켓</w>
렉 스</w>
럽 다</w>
떠 맡</w>
떠 넘기</w>
때 마침</w>
들이 받</w>
뒤 바뀌</w>
두리 번
두 툼</w>
두 말</w>
두 근거리</w>
되 길</w>
동창 들</w>
동 성
동 남
동 결</w>
독립 적</w>
도 화
댓 글</w>
대표 들</w>
대 성</w>
다양 성</w>
다 채로운</w>
다 다르</w>
능 히</w>
늘 씬</w>
논 의
녹 슬</w>
노 하우</w>
내 면</w>
날 들</w>
난 리</w>
끌어 안</w>
끈 끈하</w>
깜 박
깜 깜
기술 력</w>
기 적
기 용</w>
기 발
금 강산</w>
글 쎄</w>
그 녀들</w>
그 까짓</w>
굶 주리</w>
국 군</w>
구경 꾼들</w>
구 정</w>
구 장</w>
교육 적</w>
교 복</w>
광 택</w>
관 철</w>
공통 점</w>
공 전</w>
공 부
곤두 세우</w>
곤두 박
고 온</w>
고 액</w>
고 아원</w>
고 아</w>
고 생
고 대
고 가</w>
경 신</w>
결 렬</w>
겨울 방학</w>
거 만</w>
개 비</w>
개 량</w>
강 세</w>
강 경
갈 비
각양 각색</w>
가지 런히</w>
가 입자</w>
가 벼
3 억</w>
200 1년</w>
20 명</w>
2 회</w>
2 시</w>
흥 얼거리</w>
흘 러들</w>
흑 백</w>
흉 년</w>
후 세</w>
획 일
회 복
황 당</w>
활 성</w>
호 통</w>
호 리
혜 로운</w>
혁 신적</w>
헬스 클럽</w>
헐 뜯</w>
행 실</w>
핸드 백</w>
핵 심
해방 군</w>
합 성
합 당</w>
할리우 드</w>
한 어</w>
하락 세</w>
하 사</w>
하 급
핑 크</w>
필 기
표 절</w>
표 본</w>
포도 주</w>
포 스터</w>
폐 단</w>
편 찮</w>
패션 쇼</w>
티 나</w>
특 급</w>
퇴 원</w>
통 수</w>
통 나무</w>
토 지
테 크</w>
태 아</w>
탐 관
탈북 자</w>
탈 취</w>
탈 선</w>
탄 광</w>
타이 밍</w>
타 향</w>
쿠 션</w>
컨 트
칼 럼</w>
침 하</w>
출발 점</w>
출 하</w>
출 소</w>
최 우수</w>
총 력</w>
쳤 다</w>
체 형</w>
청 산
철 폐</w>
천 후</w>
천 부적</w>
창호 지</w>
창 조적</w>
찬 반</w>
짜 릿
징 계</w>
집 단적</w>
질 치</w>
진 기</w>
지도 자들</w>
지각 한</w>
지 해</w>
증 폭</w>
주한 미군</w>
주 조</w>
주 정</w>
주 자들</w>
주 시오</w>
존 재
조 업</w>
조 건
정 제</w>
정 교
정 감</w>
점심 시간</w>
점 퍼</w>
전 략
전 단</w>
적 재
재판 소</w>
재 즈</w>
장 정</w>
장 물</w>
작 곡</w>
자 행</w>
자 료들</w>
자 극적</w>
자 구</w>
입 찰
임 새</w>
인 식하</w>
인 쇄
인 삼</w>
인 류
이 분</w>
이 발</w>
이 모
이 기적</w>
의 사들</w>
음 란</w>
유 세</w>
위안 화</w>
웬 웬
웅 대</w>
움 푹</w>
운전 면허</w>
운 치</w>
요리 사</w>
외교 관</w>
왕 성한</w>
옷 걸이</w>
오른 손</w>
오 케
오 솔
오솔 길</w>
옛 날
영 상
연주 회</w>
연락 처</w>
연 초</w>
연 일</w>
연 고</w>
여 럿</w>
었 거나</w>
얹 히</w>
언 짢</w>
어딘 가</w>
어 부</w>
어 김없이</w>
양 식
앙 상</w>
암 암리</w>
암 살</w>
암 벽</w>
알 차</w>
안간 힘</w>
안 장</w>
안 보
아무 튼</w>
아 다면</w>
아 귀</w>
싹 트</w>
실 전</w>
실 무</w>
신 당</w>
시내 버스</w>
시 행
시 종
시 조</w>
시 범
시 늉</w>
슬 슬</w>
스위 스</w>
스 텔</w>
스 태
스 코
순 탄</w>
순 종</w>
손 등</w>
속 상</w>
소지 품</w>
소 년
센 스</w>
성 냥
섣 달</w>
선진 화</w>
석 사
생산 품</w>
생각 지</w>
생 중계</w>
샅 이</w>
샅 샅이</w>
살 결</w>
사 치
사 욕</w>
사 스</w>
사 격
빳빳 하</w>
빛 내</w>
비 참
비 정상적</w>
비 아
블 루
불우 이웃</w>
불어 넣</w>
분 단</w>
북 적
부터 의</w>
부 엌
부 대
부 귀</w>
보 좌
보 온
보 안
보 수적</w>
변 함</w>
변 색</w>
변 덕</w>
방 어
발버 둥</w>
발 돋
발돋 움</w>
발 각</w>
발 가락</w>
박 력</w>
바 지
바 둑
밋 밋하</w>
미 줄</w>
미 용
무심 코</w>
무 승부</w>
무 뚝
무뚝 뚝하</w>
목 덜미</w>
모 면</w>
명 백
면 상</w>
맞 선</w>
만 인</w>
만 으로도</w>
만 세</w>
만 료</w>
막 무가
마 스크</w>
로맨 스</w>
랐 다</w>
등 기</w>
들 어</w>
들 끓</w>
뒷 짐</w>
뒤 섞</w>
두 산</w>
두 께</w>
두 각</w>
된장 찌개</w>
되 새기</w>
동 부</w>
동 등</w>
동 그라
돈 벌이</w>
독 차지</w>
독 서
도 하</w>
도 매
도 로
덩 하</w>
대충 대충</w>
대 부금</w>
당 당
담 백</w>
담 담</w>
단 언</w>
다 방면</w>
다 간</w>
눈 치
농 도</w>
논 점</w>
노 사
노 력
노 골
냉 전</w>
내 정</w>
내 력</w>
납 작</w>
낙 타</w>
끓 어오르</w>
꽃 무늬</w>
깜 빡
깔 끔
김 밥</w>
긴 급
기지 개</w>
기 생</w>
기 복</w>
그 린
구 독</w>
교육 과</w>
관 통</w>
공공 기관</w>
공 휴일</w>
공 방</w>
공 기
고집 불통</w>
고분고 분하</w>
고 원</w>
고 만</w>
고 독</w>
고 기들</w>
경제 발전</w>
경영 진</w>
경 험
경 직</w>
경 중</w>
견고 한</w>
견 실</w>
게 임
게 는</w>
겁 나</w>
검 출</w>
검 진</w>
검 사
걷 잡</w>
거 미줄</w>
개 미
간 편</w>
간 곡</w>
가지 런</w>
가끔 씩</w>
가 히</w>
가 책</w>
가 열</w>
가 시
가 랑
가 도</w>
ㄴ다 니까</w>
3 학년</w>
200 7년</w>
2 3일</w>
199 8년</w>
12 일</w>
1 회</w>
1 층</w>
1 주일</w>
흠 집</w>
흐리 멍
흐 물
휴 게
훈 훈</w>
후회 해</w>
후 려
횡 단</w>
황 당
활발 히</w>
활 자</w>
환 히</w>
화 문</w>
화 끈
혼 합</w>
혼 수</w>
호숫 가</w>
형 식적</w>
현대 차</w>
현 저</w>
헬 리
허 구</w>
행 정부</w>
행 여</w>
행 세</w>
행 사장</w>
핵 심적</w>
항 거</w>
학 살</w>
하 의</w>
하 숙
필 연</w>
피 혁</w>
품 행</w>
표 면적</w>
포 위
포 괄</w>
평 탄</w>
파 렴
티 브
특 검</w>
투 철</w>
통 찰력</w>
톡톡 히</w>
테 니</w>
태 평
쾌 적</w>
콩 나물</w>
콧 물</w>
콘텐 츠</w>
커 플</w>
커 버</w>
카 펫</w>
친척 들</w>
치밀 어</w>
치료 법</w>
치 키</w>
치 유</w>
취재 진</w>
출 혈</w>
추 모
총 재</w>
촘촘 하</w>
초 안</w>
천 수</w>
찻 집</w>
참 기름</w>
차 별
쭈 글
짜릿 하</w>
짙 푸르</w>
징 금</w>
집 게</w>
진 용</w>
진 보
지리 산</w>
지 혜로운</w>
지 새우</w>
지 구상</w>
즐 비</w>
중 함</w>
중 학생</w>
종 잡</w>
종 결</w>
존엄 성</w>
조직 적</w>
조 림</w>
조 개</w>
제 동</w>
정당 화</w>
정 표</w>
정 정
정 대</w>
정 겹</w>
접 전</w>
점심 때</w>
점 하</w>
점 쟁이</w>
전 학</w>
전 차</w>
전 무</w>
전 류</w>
전 당</w>
전 과</w>
저 당</w>
저 금
장례 식</w>
장 실</w>
잣 대</w>
잔 칫
잔 업</w>
자욱 한</w>
자연 환경</w>
자동 차
자 장면</w>
자 립</w>
잉 크</w>
입 체</w>
일본 어</w>
일 기장</w>
인터넷 상</w>
인 플레이션</w>
인 증</w>
인 도적</w>
이삿 짐</w>
이 씨</w>
음주 운전</w>
음 치</w>
을 지언정</w>
으시 어도</w>
윤 리
유명 해지</w>
유 학생</w>
유 적지</w>
유 사한</w>
유 머
유 도
유 격
위 인</w>
위 독</w>
위 급한</w>
원 만
우쭐 대</w>
우울 증</w>
우선 순위</w>
우 람</w>
와 인</w>
올 여름</w>
오 페
영양 분</w>
영 접</w>
염 증</w>
연합 군</w>
연 안</w>
연 신</w>
연 시</w>
여행 객들</w>
여론 조사</w>
여 객</w>
어떨 까</w>
어디 선</w>
어 요</w>
어 마</w>
얕 잡</w>
얌 전한</w>
야 무지</w>
안 타</w>
안 쓰
아마 추
아 지
아 득히</w>
아 ㄹ까</w>
쏜 살
쏜살 같이</w>
싸 구려</w>
실 루
실루 엣</w>
신 앙
신 생
시종 일관</w>
시 큰
시 위
시 급히</w>
스 폰
스 케이
숱 하</w>
수 풀</w>
수 치
수 직</w>
수 재</w>
수 라
손 가락질</w>
소방 관</w>
소 양</w>
소 박한</w>
소 독
소 대</w>
소 굴</w>
세 부</w>
성 패</w>
설 명
선 천적</w>
선 뜻</w>
서비스 업</w>
서 열</w>
생 방송</w>
색 다르</w>
상 륙</w>
산 출</w>
산 지</w>
사 자
사 업자</w>
사 선</w>
뿔 이</w>
뿔 뿔이</w>
빨 아
빠 진</w>
비참 한</w>
비 현실적</w>
부분 적</w>
봄 철</w>
볼 륨</w>
보 자</w>
보 디
병 아리</w>
벼 슬
벤 처</w>
백 제</w>
밝 혀지</w>
민호 에</w>
민호 야</w>
민족 적</w>
미 화</w>
미 묘한</w>
미 드
물 색</w>
물 건
무 질서</w>
무 장한</w>
무 의식적</w>
무 력
못 마땅</w>
목욕 탕</w>
목 구멍</w>
모델 들</w>
모 바</w>
모 레</w>
모 략</w>
매니 저</w>
맞 아
만 으로</w>
만 능</w>
막 이</w>
로 구나</w>
레 드
러 스</w>
라 니까</w>
들썩 이</w>
뒤 치
동 정
동 의안</w>
도 피</w>
도 쿄</w>
도 랑</w>
덧 없</w>
더 어</w>
대중 문화</w>
대 패</w>
대 작</w>
대 역</w>
대 법관</w>
대 범하</w>
대 리</w>
대 등</w>
닷 새</w>
답 지</w>
단 축</w>
단 맛</w>
다 고</w>
늙 은이</w>
느 닷
누 차</w>
노래 방</w>
노 릇
년 생</w>
넓 이</w>
냉 랭</w>
낯 익</w>
남 성들</w>
꽃 놀이</w>
깜깜 하</w>
까 먹</w>
긴 밀</w>
기업 가</w>
기름 기</w>
기 체</w>
기 아
금 기</w>
근 길</w>
극 대화</w>
권위 자</w>
굳 건</w>
구 청</w>
교육 감</w>
관 장</w>
과 부</w>
공 하</w>
공 작</w>
골프 장</w>
골 격</w>
곤 혹</w>
고 찰</w>
고 령화</w>
고 객
계 책</w>
경제 학</w>
경쟁 률</w>
경 적</w>
경 악</w>
결 손</w>
겉 모습</w>
건 배
건 대</w>
걱 정거리</w>
거 침
거 늘</w>
객 지</w>
감 촉</w>
감 자
간 밤</w>
각 서</w>
각 광</w>
ㄴ 즉</w>
9 0년대</w>
8 개</w>
4 억</w>
3 7
21 세기</w>
199 0년대</w>
19 4
18 세</w>
17 일</w>
힘 들이</w>
희 롱</w>
후 유
후유 증</w>
효 율성</w>
횟 수</w>
환경 보호</w>
환 호
환 불</w>
화 창</w>
화 병</w>
혼 탁</w>
호화 로운</w>
형 벌</w>
현 란한</w>
헝클 어지</w>
행 복
해 독</w>
항 아리</w>
함 락</w>
한 옥</w>
한 몫</w>
하 려</w>
피 서
프 라</w>
풀 칠</w>
포 화</w>
포 켓</w>
폐 물</w>
평 형</w>
평 야</w>
평 면</w>
팔 구</w>
판매 가</w>
파 동</w>
튼 튼
트 들</w>
투 사</w>
퇴 색</w>
통 합
탈 세</w>
탄 자</w>
탁 하</w>
케 케
케케 묵</w>
캐 묻</w>
카 오</w>
칭 하</w>
친 히</w>
칙 칙
치 사</w>
측 량</w>
충 지</w>
출 력</w>
축 의금</w>
촬 영
초 고</w>
체 험
체 인</w>
청 혼</w>
첨 단
처 신</w>
책 가방</w>
찜 질</w>
쪼 록</w>
쪼 글
집어 내</w>
짐 짓</w>
진 흥
진 찰
진 위</w>
진 솔</w>
진 나라</w>
직 장인</w>
중 산
중 량</w>
주름 살</w>
좌 담회</w>
졸업 장</w>
조 목</w>
조 마
조마 조
정 색</w>
전 망
전 동
적 이</w>
저렴 한</w>
저 울</w>
재 혼</w>
재 삼</w>
재 봉
장 미
장 막</w>
장 렬</w>
잠수 함</w>
자연 재해</w>
자본 주의</w>
자 체적</w>
자 선
임 원들</w>
일본 군</w>
일 치
일 소</w>
일 괄</w>
인산 인해</w>
인 정
인 수
인 부</w>
인 민들</w>
인 과</w>
인 건
인건 비</w>
의 젓</w>
음 산</w>
으 십시오</w>
윤 리</w>
육 체
육 아</w>
유 유
유 실</w>
유 식</w>
유 수</w>
유 망
유 동</w>
위 층</w>
우 회
용 의</w>
요 충지</w>
완 만</w>
올 리
온 전</w>
온 돌</w>
오 픈</w>
오 일</w>
오 색</w>
오 디오</w>
영화 계</w>
영 정</w>
열 량</w>
연 인들</w>
역 설</w>
역 겹</w>
여름 방학</w>
여 생</w>
었더 라면</w>
었 고요</w>
어마 어마</w>
어린 이날</w>
어떤 지</w>
어 치</w>
어 촌</w>
어 슴푸
어 민들</w>
양 파</w>
양 탄자</w>
약 삭
약삭 빠르</w>
야 릇</w>
야 간
알아 채</w>
아가 씨들</w>
아 하</w>
쓰 다듬</w>
십 자
심 야</w>
실제 적</w>
실 탄</w>
실 습</w>
실 명</w>
신경 쓰</w>
신 체적</w>
신 청
신 속한</w>
신 기술</w>
식 한</w>
시커 먼</w>
시 울</w>
시 들
시 던</w>
시 대
스트 라</w>
스케 이트</w>
스웨 덴</w>
스마 트</w>
수용 소</w>
수 정
수 상
수 능
수 감</w>
소 화
소 실</w>
섹 시
세 미
세 력
성적 표</w>
성 큼</w>
성 취
성 당</w>
설 악산</w>
설 렁
서 예
생 선
삼 자</w>
산 모</w>
사 십</w>
사 상
사 다리</w>
사 교
사 공</w>
사 계절</w>
빽빽 하</w>
비틀 거리</w>
비스 킷</w>
비 집</w>
불 행히</w>
불 태우</w>
불 이익</w>
불 성실</w>
불 가</w>
부터 이</w>
부족 함</w>
부르 짖</w>
부 추</w>
부 응</w>
부 러뜨리</w>
부 녀</w>
봄 비</w>
본 론</w>
복숭 아
병 풍</w>
병 대</w>
별 개</w>
벚 꽃</w>
번 식</w>
버 르
밴 딩</w>
백 지</w>
배 구
방 언</w>
밤 길</w>
발 췌</w>
발 발</w>
반들반들 하</w>
반 쯤</w>
박 탈</w>
박 죽</w>
박 자</w>
박 수
박 꼬박</w>
바 리
밑 지</w>
밀 려들</w>
민 의</w>
민 속</w>
미 건조</w>
문 명
무 의미</w>
무 예</w>
무 미건조</w>
모범 적</w>
모 방
명 품
명 쾌</w>
명 부</w>
면허 증</w>
면접 관</w>
면 역
면 담</w>
먹 칠</w>
먹 어
먹 물</w>
머뭇 거리</w>
매스 컴</w>
매 혹</w>
매 매
망 각</w>
만 치</w>
마 을
마 니
마 귀</w>
리 스
로 들</w>
로 드</w>
런민 삐</w>
런 트</w>
라 인
떠 받치</w>
따 먹</w>
디 스크</w>
등 대</w>
들이 마시</w>
들 꽃</w>
들 고</w>
동그라 미</w>
동 이</w>
동 봉</w>
동 무</w>
도 식</w>
덮어 씌우</w>
덩 달</w>
덕 지</w>
대학 입시</w>
대 응
당 나라</w>
담 백한</w>
달 달</w>
단 합</w>
단 면</w>
다가 서</w>
다 부지</w>
다 방</w>
니 스트</w>
늦 가을</w>
능 률</w>
능 가</w>
눌 러
뇌 리</w>
높 이
노골 적</w>
넉 넉
냇 가</w>
내 쫓</w>
내 전</w>
내 수</w>
낱 낱</w>
낭 패</w>
남 아
남 김없이</w>
낚 시
낙 천적</w>
낙 제</w>
낙 서</w>
끄 집어내</w>
꾸러 미</w>
꼿꼿 하</w>
꼬 박꼬박</w>
깜박 거리</w>
깜 박이</w>
기념 식</w>
기 준
기 점</w>
기 로운</w>
급선 무</w>
급 속</w>
금 주</w>
긁 히</w>
근 접</w>
귀 속</w>
굴 러
군사 훈련</w>
군 주</w>
군 사들</w>
군 복</w>
국 화</w>
구 수한</w>
관 용</w>
관 상</w>
과 속</w>
공 제</w>
공 략</w>
골 문</w>
고 리
고 구</w>
경제 성장</w>
경 작</w>
걷어 차</w>
거침 없이</w>
거래 처</w>
거 점</w>
거 무
거 듭
개 시</w>
개 개인</w>
같 이하</w>
강 행</w>
강 직</w>
감 복</w>
감 각적</w>
간 접</w>
간 이</w>
가 물
ㄴ 가는</w>
7 0년대</w>
60 년</w>
3 시간</w>
201 3년</w>
2 천</w>
16 세</w>
1 1</w>
희 박</w>
흔 쾌히</w>
흐리멍 덩하</w>
흉 악
후 대</w>
후 각</w>
효 능</w>
회 비</w>
황당 무
활 주로</w>
화 로</w>
협 동</w>
현미 경</w>
현 금
허둥 대</w>
행 각</w>
해 저</w>
할 당</w>
한결 같</w>
한 화</w>
한 턱</w>
한 낮</w>
하느 님</w>
필요 도</w>
필 치</w>
피 고인</w>
플 레
풍 경화</w>
표준 말</w>
표 방</w>
폭 동</w>
포위 망</w>
포 탄</w>
포 크</w>
폐 허</w>
패 딩</w>
판 명</w>
파 람</w>
투 성</w>
통 행
통 일
털 어
태 평</w>
탐 지</w>
탄 식</w>
탄 산
탁 탁</w>
킬 로</w>
쿠 데
콜 라</w>
캐주 얼</w>
침략 자</w>
충 성
축 원</w>
초 상화</w>
초 상</w>
처리 해서</w>
처 치</w>
책 자</w>
책 망</w>
채 색</w>
참 패</w>
참 조</w>
참 배</w>
참 담</w>
찬 찬
차 관
찡 그리</w>
쫓 아다니</w>
진 열대</w>
진 땀</w>
직 입적</w>
지하 철역</w>
지저 귀</w>
지도 하</w>
지 가</w>
증 나</w>
중 계
주의 자들</w>
주 관
조마조 마하</w>
조 형
조 인</w>
제 적</w>
정의 로운</w>
정성 껏</w>
정 찰
점 기</w>
절 망
전 지
전 심
전 당
저 속한</w>
저 서</w>
장 단점</w>
잔 잔</w>
잔 꾀</w>
작 곡
자 회</w>
자 처</w>
자 아</w>
자 력
잉 글
잉글 랜드</w>
임 상</w>
일반 화</w>
일 색</w>
일 과</w>
인터 뷰
인재 들</w>
인 천
인 조</w>
인 접</w>
인 맥</w>
이 혼
이 층</w>
이 에</w>
이 어
이 성적</w>
이 러</w>
의존 도</w>
의 미
의 결</w>
으 레</w>
으 뜸</w>
웨 이</w>
워싱 턴</w>
울 부
울부 짖</w>
울 긋
울긋 불
운 서</w>
용 이</w>
용 수</w>
용 병</w>
요 구
외 양
외 식</w>
왕 칭
왕 실</w>
올 가미</w>
온 대</w>
오페 라</w>
옛 것</w>
예 습</w>
예 배</w>
예 물</w>
예 능</w>
영웅 적</w>
영 사관</w>
영 리
연 탄</w>
연 체</w>
연 연</w>
연 단</w>
연 극
에 피
엉 덩
억 세</w>
어 제
어 깨
양 면</w>
애 호</w>
암 흑</w>
암 초</w>
알 맹이</w>
악 천후</w>
악 의</w>
아슬 하</w>
아래 쪽</w>
아낙 네들</w>
아나 운서</w>
아 치</w>
아 오
아 라면</w>
아 라
아 니까</w>
아 는가</w>
아 ㅂ니까</w>
쑤 져우</w>
싸 하</w>
싱 글</w>
심사 위원</w>
실 태</w>
신혼 부부</w>
신 청자</w>
신 세대</w>
신 발
식 량
시 죠</w>
스 페인</w>
숭 배</w>
순 순히</w>
숙 박</w>
수 척</w>
수 술
수 돗
수 구</w>
수 교</w>
수 강
쇄 신</w>
송 송</w>
속 출</w>
속 옷</w>
소용 돌이</w>
소설 책</w>
소 신</w>
세미 나</w>
세 무
세 로</w>
세 례</w>
성인 병</w>
성 형</w>
성 형
성 심
선 량</w>
선 관
서 식</w>
생산 력</w>
생명 체</w>
생명 력</w>
생 기
상징 적</w>
상 추</w>
상 점들</w>
살 금</w>
사 은
사 육
빼 돌리</w>
빤 히</w>
빈 자리</w>
비 좁</w>
비 옥</w>
비 대</w>
비 닐</w>
브리 핑</w>
붙 었다</w>
북 측</w>
북 방
부 흥</w>
부 풀리</w>
부 총리</w>
부 장
부 식</w>
부 스
본 질적</w>
본 격화</w>
복 합
복 부</w>
보 초</w>
보 자기</w>
보 육</w>
변 소</w>
변 론</w>
베이 스</w>
법 인</w>
번쩍 이</w>
번 거
버드 나무</w>
버 튼</w>
버 터</w>
버 들
백 방</w>
배 송
배 낭</w>
배 꼽</w>
발 작</w>
발 병</w>
발 바닥</w>
발 리</w>
박 해</w>
박 박</w>
민 망</w>
물 질
무 적</w>
무 어</w>
무 모</w>
무 명</w>
무 드</w>
무 기
몸부 림
몸부림 치</w>
몸 짓</w>
모 조
모 유</w>
메이 션</w>
먼 지</w>
먹 음
머리 끝</w>
매 몰
말 려
만 장
만 만한</w>
막무가 내</w>
리 얼</w>
리 얼
리 드</w>
리 다</w>
레 저</w>
렁 크</w>
러 시</w>
뛰 놀</w>
떨 구</w>
때 려
등 판</w>
들 지</w>
들 에</w>
뒤집어 씌우</w>
뒤 통수</w>
둥 하</w>
동창 회</w>
동아 일보</w>
동 해안</w>
동 일
동 업</w>
동 생들</w>
독 주</w>
독 소</w>
도 직입적</w>
데 모</w>
데 기</w>
덥 석</w>
대처 해</w>
대 조적</w>
대 오</w>
달 갑</w>
단 아</w>
단 순
단 도직입적</w>
다 채</w>
다 잡</w>
농 후</w>
농 지</w>
논 술</w>
노 후</w>
노 쇠</w>
넘쳐 흐르</w>
내 포</w>
내 빈</w>
낭 만</w>
난 잡</w>
나 그네</w>
끈 적
꾸러 기</w>
꾸 라지</w>
까 슬
까 딱</w>
기 성</w>
기 성
기 리</w>
기 득
급 식</w>
글 라스</w>
그 제</w>
그 전</w>
귀 환</w>
궁금 증</w>
국민 연금</w>
굉 장</w>
관 절
관 론</w>
과 즙</w>
과 점</w>
공정 위</w>
공 석</w>
공 룡</w>
골 칫거리</w>
곤 궁</w>
고 열</w>
고 마
고 고
계 절
계 모</w>
계 란
경비 원</w>
경 호
경 부</w>
결정 짓</w>
결 속</w>
거래 소</w>
거 북
거 부
거 머
거 뜬
개 화</w>
개 선
강 점기</w>
강 습</w>
갈 매기</w>
간 소</w>
가벼 이</w>
가만 있</w>
가로 등</w>
가 위
가 수들</w>
가 뜩
8 강</w>
50 주년</w>
3 층</w>
3 4
20 12년</w>
2 주</w>
2 6일</w>
2 6
19 일</w>
1 시</w>
1 2</w>
.. ...</w>
휘 파람</w>
훼 방</w>
후 진</w>
후 손</w>
횡 단
황당무 계</w>
황 홀</w>
황 소</w>
활 동적</w>
활 개</w>
환호 성</w>
환 절기</w>
확 연히</w>
화 석</w>
현 역</w>
헤 프</w>
허 위
허 술</w>
해 물</w>
한 일
한 약</w>
한 미
한 문</w>
하루 종일</w>
하 오</w>
하 였
하 달</w>
필 리
프라이 버
풍 채</w>
풍 성</w>
풀 잎</w>
푸 드</w>
표 지
표 시
폭 발적</w>
폭 력적</w>
평 지</w>
편집 자</w>
편 파적</w>
팬 츠
팔 트</w>
파렴 치</w>
파 벌</w>
트 렁크</w>
튜 브</w>
툭 하면</w>
퇴 치</w>
통 상적</w>
터 전</w>
탐 내</w>
타당 성</w>
클 릭</w>
큐 멘
쾌 한</w>
쾌 락</w>
코 튼</w>
켰 다</w>
컨 테이
칼 슘</w>
친 지들</w>
취 임
충 해</w>
출 자</w>
출 생
추 월</w>
최고 봉</w>
최 저
초가 집</w>
청 나라</w>
천 진</w>
처 가</w>
책 꽂이</w>
채 식</w>
찻 잔</w>
참석 자들</w>
참 관</w>
찬 장</w>
차 선</w>
진 다</w>
지휘 자</w>
지배 적</w>
지 능
지 그
즉 흥
주변 국</w>
종업 원들</w>
조 립
제 휴</w>
제 대</w>
정 차</w>
점 치</w>
점 진적</w>
전심 전력</w>
전교 조</w>
전 성</w>
저금 통</w>
저 도</w>
재봉 틀</w>
재 롱</w>
재 고
장 편</w>
장 악</w>
잡 음</w>
잡 기</w>
작곡 가</w>
자연 계</w>
자력 갱
자 님</w>
입학 시험</w>
입 속</w>
일 절</w>
일 당</w>
일 가</w>
인간 들</w>
인 어</w>
인 데</w>
이틀 간</w>
이기 주의</w>
이 처럼</w>
이 력</w>
의 학
응 고</w>
으 셨
융 화</w>
유행 가</w>
유 학
유 성</w>
위 헌</w>
월 세</w>
원 대</w>
워 드</w>
웅 덩이</w>
움츠 리</w>
운송 하</w>
용 서
외양 간</w>
외 래</w>
외 래
왕 복</w>
온 기</w>
옥 살이</w>
오 프</w>
예 정
영 구</w>
연 주자</w>
연 발</w>
연 말
연 료
역 행</w>
역 적</w>
여름 날</w>
여 쭈</w>
여 지
여 주인공</w>
여 운</w>
에피 소
엉 망
엉망 진창</w>
얼 핏</w>
얼 리</w>
어버 이날</w>
어두 컴컴하</w>
양도 세</w>
약 속
약 사</w>
애 절</w>
알 록
알록 달
악 습</w>
악 물</w>
아침 저녁</w>
아슬 아슬하</w>
아마추 어</w>
아 낌
썰 매</w>
십 분</w>
실 책</w>
실 연</w>
실 시간</w>
신혼 여행</w>
신 축</w>
신 조</w>
신 임</w>
신 약</w>
신 사적</w>
식 은
시 어라</w>
시 시</w>
시 문</w>
습 도</w>
스케이 팅</w>
스러 운</w>
스 튜
스 턴
스 미</w>
숭 고</w>
술 술</w>
수익 률</w>
수수 료</w>
수라 장</w>
수돗 물</w>
수 재
수 시</w>
수 반</w>
수 긍</w>
속 칭</w>
소 총</w>
소 식
소 고</w>
센 티</w>
성 과
성 가</w>
선입 견</w>
선 임</w>
선 의</w>
서 버</w>
서 거</w>
생 리적</w>
새 로이</w>
상 한</w>
상 봉</w>
살 길</w>
사리 사욕</w>
사내 아이</w>
사 하</w>
사 슬</w>
사 범</w>
사 도</w>
사 교</w>
뿌리 내리</w>
뻐 근</w>
빗 발치</w>
빈틈 없</w>
빈 말</w>
빈 둥거리</w>
비 약</w>
비 슷
비 석</w>
불가 침</w>
불 명예</w>
불 능</w>
불 공정</w>
불 결</w>
불 견</w>
분 홍색</w>
분 한</w>
부유 층</w>
부동 산
부 수입</w>
봉 착</w>
본 능적</w>
볶음 밥</w>
보 통
보 장
병 마</w>
변 모</w>
베 테
법 치</w>
벌 거
번 기</w>
버 림
버림 받</w>
버 릇
밸 런
백 년</w>
배 낭
배 격</w>
방 위
발 자취</w>
발 언
발 부</w>
반영 한</w>
반 품</w>
반 칙</w>
반 입</w>
반 반</w>
밀 치</w>
미 적</w>
미 세</w>
미 비</w>
미 널</w>
뭔 지</w>
물 방울</w>
문 체</w>
문 집</w>
문 양</w>
묵 직</w>
무엇 인가</w>
무 쌍</w>
무 색</w>
무 난</w>
몰 골</w>
목 요일</w>
모 락</w>
모 락
모락 모락</w>
명백 히</w>
명 한</w>
멕 시
머리 칼</w>
맨 날</w>
매 장
매 운
매 도</w>
만 개</w>
막 바지</w>
막 길</w>
마 저도</w>
마 오
마 당
린 넨</w>
리 어라</w>
름 거리</w>
로 우</w>
레 몬</w>
레 드</w>
라 구</w>
라 고도</w>
똑 똑</w>
땅 값</w>
디자이 너</w>
디 오
득 의
드 레
뒤 척
두 둔</w>
동 화책</w>
동 태</w>
동 사무소</w>
돋 치</w>
독립 운동</w>
대 추
대 우
당당 히</w>
당 나귀</w>
담 자</w>
담 임
다 큐멘
느닷 없이</w>
눕 히</w>
눈 시울</w>
누 그러지</w>
놨 다</w>
농 번기</w>
농 민
노 파</w>
노 소</w>
노 른
녀 석들</w>
너덜 하</w>
너덜 너덜하</w>
냉 수</w>
냉 동
냉 대</w>
내 팽개치</w>
내 성적</w>
내 부
내 내</w>
내 겐</w>
남 발</w>
남 몰래</w>
날 아들</w>
난 민들</w>
난 무</w>
낚 싯
끼어들 지</w>
끈적 끈
꽃 향기</w>
꼴 불견</w>
깜 박</w>
깔끔 한</w>
기발 한</w>
기 여</w>
그리 하</w>
귀 중한</w>
권 법</w>
군 침</w>
국 어
국 사</w>
국 고</w>
구 슬리</w>
교 수들</w>
관람 객들</w>
관람 객</w>
관 망</w>
과거 사</w>
과 업</w>
과 감히</w>
공산 당</w>
공동 성명</w>
공격 수</w>
공 고히</w>
고마 움</w>
고 초</w>
고 체</w>
계 속해서</w>
경 유</w>
결승 선</w>
결 집</w>
결 연히</w>
견 주</w>
겁 내</w>
검 찰
걸음 걸이</w>
거 요</w>
거 려</w>
개혁 안</w>
개인 주의</w>
개 표</w>
개 울
개 별
강구 해</w>
강 압적</w>
감 나무</w>
간 편
간 청</w>
가 랑이</w>
ㄹ 께</w>
C D</w>
60 주년</w>
3 천</w>
3 점</w>
2 개월</w>
19 세</w>
100 명</w>
100 년</w>
00 억</w>
훨 훨</w>
획일 적</w>
황 산</w>
활 달</w>
환 율
환 상적</w>
확 고히</w>
호 령</w>
형 식
형 량</w>
협 찬</w>
혐 의자</w>
현대 사회</w>
현 직</w>
헤 어나</w>
해 역</w>
할 퀴</w>
할 머
한 발</w>
한 다
한 나절</w>
한 나라</w>
하 장</w>
하 수</w>
하 느냐</w>
피곤 해서</w>
프라이버 시</w>
풍 파</w>
풍 랑</w>
푸른 색</w>
푸 드
표 기</w>
포 근한</w>
평 일</w>
페이 스</w>
펑 펑</w>
팽 이</w>
팔 아먹</w>
팔 방</w>
판 타지</w>
파 릇
파 란색</w>
트 리
트 랜
트 라
통 쾌</w>
테 두리</w>
터무 니</w>
택 배
탐 험</w>
탁 구
타 임</w>
큰 일
큰일 나</w>
쿵 쾅
쿠데 타</w>
콧 대</w>
컨테이 너</w>
커 닝</w>
칫 솔</w>
침 대
친 구
충 치</w>
충 당</w>
추 악</w>
총 살</w>
촌 스럽</w>
초 지
초 조
초 목</w>
초 급</w>
쳥 뚜</w>
청 탁</w>
청 첩
청첩 장</w>
철 강
천 당</w>
책 정</w>
채 소
참 작</w>
참 외</w>
차 창</w>
차 관</w>
짭 짤</w>
진 열
지하 실</w>
지배 인</w>
지구 촌</w>
지 조</w>
지 자체</w>
지 연이</w>
지 앙
지 반</w>
지 간</w>
증 식</w>
증 거
중산 층</w>
중 해</w>
중 팔구</w>
중 매</w>
죽 지</w>
죽 순</w>
주방 장</w>
주 동적</w>
주 눅</w>
좀 도둑</w>
조심 스레</w>
조선 시대</w>
조사 한</w>
조 류
제 2차</w>
정확 성</w>
정 숙</w>
정 들</w>
전자 상거래</w>
저 편</w>
재해 지역</w>
재 난
장사 꾼</w>
장 터</w>
장 작
잠 수</w>
작 풍</w>
작 위</w>
자 율
잉 태</w>
입 가</w>
임금 님</w>
임 기
인테 리어</w>
인 조
이재 민들</w>
이러쿵저러 쿵</w>
이 적</w>
이 양</w>
이 론적</w>
이 론
의원 직</w>
의기 양양</w>
의 술</w>
의 견
응 모
음식 들</w>
음 란
은 근한</w>
은 거</w>
육 체적</w>
유 회</w>
유 족들</w>
유 조선</w>
유 연한</w>
유 연성</w>
유 보</w>
유 동
유 관</w>
위 풍</w>
위 치
웹 툰</w>
원시 림</w>
원 주민</w>
원 산지</w>
우승 컵</w>
우리 말</w>
요 하</w>
요 직</w>
외 딴</w>
왔다갔 다하</w>
완 벽
올 랐다</w>
오늘 밤</w>
오 피
오 만
오 디션</w>
오 동
옛날 이야기</w>
옛 말</w>
예 기치</w>
예 고</w>
엿 보이</w>
열 중</w>
연 도</w>
여 념</w>
엑스 포</w>
에서 이</w>
에게 로</w>
에 너
엎 치</w>
엎 질
었 었는데</w>
었 답니다</w>
업 그레이
엄 중한</w>
얼룩 지</w>
어쩌 다</w>
어린 이
어 둑
양 육</w>
양 분</w>
약 세</w>
야단 맞</w>
야 경</w>
애호 가</w>
애 지
애 원</w>
안 경
악 용</w>
악 영향</w>
아무 개</w>
아 편</w>
아 우</w>
씨 름
쓴 맛</w>
싱 그럽</w>
십 중팔구</w>
심 장
심 원</w>
심 성</w>
심 보</w>
심 각
실험 실</w>
신 령</w>
신 도들</w>
식은 땀</w>
식 습관</w>
시 트</w>
시 계
시 각
승부 욕</w>
승 차
승 려</w>
슬 라이
스 처</w>
수 집
수 주</w>
수 요일</w>
수 백만</w>
수 력</w>
수 강</w>
소 름</w>
소 녀
소 곤
셨 던</w>
세계 관</w>
성 벽</w>
설 물</w>
서커 스</w>
생산 적</w>
생 필
상 주</w>
상 국</w>
산 부</w>
사 촌</w>
사 수</w>
사 르</w>
빈 손</w>
빈 번
빈 도</w>
비 굴</w>
불 문</w>
불 그
본 국</w>
복 선</w>
보호 자</w>
보증 금</w>
보름 달</w>
보 급
보 금
보금 자리</w>
병 장</w>
병 역</w>
별 미</w>
베트 남</w>
베 일</w>
법 무부</w>
범 들</w>
배 구</w>
반 향</w>
반 질
반 동
밀 착</w>
민 중들</w>
미드 필
미국 인</w>
미 혹</w>
물 길</w>
문 신</w>
무 치</w>
무 책</w>
무 실</w>
몰 입</w>
목표 물</w>
목 사</w>
모래 밭</w>
모 색
명 암</w>
명 상</w>
명 동</w>
먹 을래</w>
매몰 차</w>
매 달
매 국
망망 한</w>
말 뚝</w>
만 행</w>
만 기</w>
마 카오</w>
마 취
림 길</w>
리 기</w>
로 한</w>
로 마
로 고</w>
라 던</w>
뜯 어
등 골</w>
들이 대</w>
드 레</w>
뒷 전</w>
둥 둥</w>
두리번 거리</w>
동 동</w>
동 계
돌 파
독 신</w>
독 수리</w>
도둑 놈</w>
도 회</w>
도 수</w>
도 까지</w>
데 면
데 굴</w>
데 군데</w>
덕 목</w>
대학 원생</w>
대비 한</w>
대 외적</w>
대 기업들</w>
닭 고기</w>
단 기간</w>
다큐멘 터리</w>
눈 보라</w>
누리 꾼들</w>
누 추</w>
누 구
놓 으세요</w>
농 담
노동 조합</w>
네 온
내 색</w>
내 륙</w>
내 딛</w>
낭 송</w>
남 학생</w>
남 성
난 국</w>
낙 하산</w>
나 열</w>
나 미</w>
나 도</w>
꽃 다발</w>
꽃 가루</w>
꼭 꼭</w>
껴 입
껍 데기</w>
깡 패</w>
길 바닥</w>
기억 해</w>
기억 할</w>
기 특</w>
기 야</w>
기 괴</w>
급 속도</w>
급 기야</w>
글 썽
극 화</w>
군 함</w>
군 부</w>
군 데군데</w>
구조 적</w>
구 슬프</w>
구 박</w>
교통 수단</w>
교 환
교 직</w>
교 문</w>
괴 담</w>
광 석</w>
관리 들</w>
관료 주의</w>
과 식</w>
공 정성</w>
공 예
공 시</w>
공 손</w>
고 통
고 심</w>
고 등</w>
경계 선</w>
결 판</w>
결 탁</w>
결 과
겨우 내</w>
겨 드
게 끔</w>
것 인가</w>
거 창</w>
갯 짓</w>
갯 벌</w>
개 관</w>
강 원
갓난 아이</w>
감 쪽
갈 이</w>
갈 림길</w>
각 층</w>
가만 두</w>
가뜩 이나</w>
가 식</w>
가 뿐</w>
가 령</w>
가 계
9 개</w>
5 5
30 명</w>
3 주</w>
3 000</w>
27 일</w>
2 세</w>
2 9일</w>
18 일</w>
1 3</w>
00 원</w>
흉 내내</w>
흉 기</w>
휴대 용</w>
훌륭 히</w>
후 와
횡단 보도</w>
회 전
황 량</w>
활발 해지</w>
환경 부</w>
환 전
화 풀이</w>
화 산
화 기</w>
화 감</w>
호흡 기</w>
호리 호
호리호 리하</w>
호 하</w>
헬리 콥
헬리콥 터</w>
헝 겊</w>
험 준</w>
해 커</w>
해 이</w>
해 답</w>
한 파</w>
한 의사</w>
한 민족</w>
학 창</w>
하 인</w>
필 기</w>
피 고</w>
프린 터</w>
프 리</w>
풍 성한</w>
푸 대접</w>
평 도</w>
편집 하</w>
편 차</w>
편 지
패 스트
패 들</w>
패 거리</w>
판 기</w>
파 릇</w>
파 기</w>
트 랙</w>
투 어</w>
투 덜
퇴 출</w>
텃 밭</w>
탐 험
탐 하</w>
타 적</w>
큰 소리치</w>
크 레
퀴 즈</w>
컬러 감</w>
치 병</w>
치 락
출 하
출 중한</w>
출 렁이</w>
춘 문예</w>
축하 드리</w>
축 사</w>
추 잡</w>
추 리
최 다</w>
촛 불
초 소</w>
초 롱
청 순
청 명</w>
청 량
첫 인상</w>
철 새</w>
처 참</w>
챙 이</w>
채 찍
채찍 질</w>
채 점</w>
창 법</w>
창 단</w>
참 고
찬찬 히</w>
찬 탄</w>
착 공</w>
차량 들</w>
차 단
쫑 긋</w>
짓 기</w>
질 서
질 색</w>
진 히</w>
진 품</w>
진 취
진 부한</w>
직 함</w>
지방 자치단체</w>
지 분</w>
지 령</w>
지 대한</w>
지 긋
중 소</w>
중 개
줄기 세포</w>
죽 박죽</w>
주민 등록
주 제
주 렁
주렁 주
주 길</w>
종 아리</w>
종 기</w>
조 카
조 정
조 깅</w>
제 각각</w>
젖 소</w>
정치 계</w>
정 비
젓 이</w>
전 갈</w>
저항 력</w>
저작 권</w>
저 해</w>
저 속</w>
쟁 탈</w>
장기 화</w>
장 원</w>
장 씨</w>
잠 입</w>
자 칫
자 제
자 잘</w>
자 석</w>
자 살
잉 여</w>
있 겠소</w>
일 환</w>
일 기
일 교차</w>
일 관성</w>
인 배</w>
이따 가</w>
이 직</w>
이 의</w>
이 와</w>
이 에게</w>
이 삭</w>
이 바</w>
이 민
이 끼</w>
의 해</w>
은 빛</w>
유행 성</w>
유 전적</w>
유 전
유 아
유 산
유 별나</w>
위 풍
위 선</w>
웨 딩
원 적</w>
원 내</w>
움 큼</w>
울 창한</w>
운전 수</w>
용 감
욕 조</w>
완 강
오 버
영 락
영 결
열 망</w>
열 렬</w>
연자 실</w>
연 탄
연 승</w>
연 산</w>
여행 자</w>
여 학생들</w>
여 파</w>
여 직원</w>
여 매</w>
여 가</w>
었 건</w>
엄 중히</w>
엄 중</w>
어 처
양 해
양 손</w>
양 대</w>
약 효</w>
야 외
야 망</w>
애 틋</w>
애 태우</w>
애 니
애 꿎</w>
압 박
암 기</w>
알록달 록
안내 원</w>
안 정성</w>
안 문</w>
악 명</w>
아스 팔트</w>
아 시</w>
아 수라장</w>
아 므로</w>
쓰 츄
쓰 러뜨리</w>
싶 은데요</w>
심사 숙고</w>
실패 해</w>
실업 률</w>
신경 질</w>
신 화
신 춘문예</w>
신 봉</w>
신 고서</w>
식 성</w>
시험 장</w>
시장 경제</w>
시 판</w>
시 큼</w>
시 나리
시나리 오</w>
스트라이 프</w>
스튜 디오</w>
스 프
스 페</w>
숙 면</w>
수익 성</w>
수리 해</w>
수 막</w>
수 년</w>
손 때</w>
손 꼽히</w>
소 심</w>
소 고기
셨 으니</w>
셨 나</w>
세탁 소</w>
세 포
세 안</w>
세 상사</w>
세 는</w>
성 황</w>
설 문</w>
설 명서</w>
선관 위</w>
선거 법</w>
선 배들</w>
선 글라스</w>
서 양식</w>
서 신</w>
서 산</w>
서 민
샐러 드</w>
색 적</w>
새 치기</w>
새 우
상대 팀</w>
살 금
살금 살금</w>
사사 로이</w>
사 인
사 뿐
사 관
삐 걱
빙 하</w>
비 행사</w>
비 주류</w>
비 자금</w>
비 약적</w>
비 법</w>
불량 배들</w>
불 충분</w>
불 참</w>
불 명</w>
불 규칙적</w>
분 유</w>
분 부</w>
북 적거리</w>
부처 님</w>
부득 불</w>
부녀 자들</w>
부 화</w>
부 산
봉 오리</w>
본 관</w>
복 합</w>
복 통</w>
보드 랍</w>
보 고
변 호
변 통</w>
변 상</w>
변 방</w>
변 두리</w>
벤 치</w>
베 스트
범죄 자들</w>
번쩍 하</w>
백 발</w>
배 지</w>
배 수</w>
배 려</w>
배 기
방 탕</w>
방 전</w>
방 자</w>
방 법
밤 새우</w>
발 레</w>
발 끝</w>
반 쪽</w>
반 신
반 세기</w>
반 말</w>
반 동</w>
반 군</w>
반 구</w>
박사 학위</w>
바닷 바람</w>
바 자회</w>
밀 집</w>
미국 에서</w>
미 용</w>
미 로운</w>
물건 값</w>
물 류</w>
문 맹</w>
무지 한</w>
무궁 무진</w>
무 차별</w>
무 새</w>
무 단
무 과</w>
몽 롱</w>
목 화
목 별</w>
목 들</w>
모양 새</w>
모 교</w>
면 밀히</w>
면 도
메이 커</w>
메이 저</w>
멋 쩍</w>
먹음 직스럽</w>
먹 기</w>
맨 손</w>
맥 주
말 레이
말 끔</w>
만 화
만 능
만 끽</w>
막 내
마이 너스</w>
마 법</w>
마 모</w>
마 른
리 ㄹ</w>
룩 한</w>
루 쉰</w>
로 선</w>
로 가</w>
려 다
럭 셔
러 우</w>
래 는</w>
라이 벌</w>
떠 벌
떠 돌이</w>
디 한</w>
듬 직</w>
들어 올
들 레</w>
드러 눕</w>
뒤 처지</w>
뒤 쫓</w>
뒤 죽박죽</w>
둥 실</w>
두 꺼
되 는
동 여매</w>
동 업자</w>
동 심</w>
동 북</w>
돌 격</w>
독 일
도 지</w>
도 안</w>
도 서
도 배</w>
도 리
데 굴
덜 컹
더 운
더 우
더 라고</w>
대 청소</w>
대 지진</w>
대 선
대 미</w>
당선 인</w>
당 첨
당 사자들</w>
당 번</w>
답 장</w>
담뱃 불</w>
다시 금</w>
다름 없이</w>
다 수
눈 총</w>
누리 꾼</w>
농 토</w>
놀이 공원</w>
노 정</w>
노 부부</w>
노 벨
노 모</w>
노 르
노 련</w>
념 적</w>
냘 프</w>
내 치</w>
내 두르</w>
낭비 해서</w>
낭 랑</w>
난 폭</w>
난 방
낙 하</w>
나 니</w>
끌어 당기</w>
끄 떡
꽁 초</w>
꼼 짝
길 목</w>
긴 박</w>
기자 회견</w>
기름 값</w>
기러 기</w>
기득 권</w>
기념 관</w>
기관 총</w>
기계 화</w>
기 원전</w>
기 우
급 정
근 거지</w>
극 진히</w>
그 이</w>
그 을리</w>
그 런</w>
귀 퉁이</w>
귀 족</w>
궁 궐</w>
굽 이
군 림</w>
국경 일</w>
국가 대표</w>
국 보</w>
국 교</w>
광 풍</w>
광 채</w>
관리 자</w>
과 천
공주 님</w>
공 허</w>
공 명</w>
곱 하기</w>
곰 곰
곧이 곧
곡 선</w>
고무 줄</w>
고 퀄리티</w>
고 궁</w>
계 몽</w>
경제 력</w>
경 호</w>
경 의</w>
격 리</w>
겨 레</w>
게 이</w>
겉 모양</w>
검 열</w>
검 소한</w>
건 실</w>
건 반</w>
거머 쥐</w>
거 역</w>
개 천</w>
강 팀</w>
갑 판</w>
감 회</w>
감 수성</w>
감 미로운</w>
갉 아먹</w>
간 지
간 염</w>
간 담회</w>
가득 히</w>
가 냘프</w>
9 회</w>
8 시간</w>
3 회</w>
3 5
2 9
199 9년</w>
197 0년대</w>
11 일</w>
10 주년</w>
1 20
0 년</w>
희 곡</w>
흡 입</w>
흉악 범</w>
흉 흉하</w>
휘 청거리</w>
훤 칠</w>
환경 적</w>
환 점</w>
환 영
화이트 칼라</w>
홍 콩
홈 쇼핑</w>
혼 인
혹 한</w>
호 남</w>
형 광
협 의회</w>
현 듯</w>
혁 명적</w>
헐 렁</w>
헐 값</w>
허 영
핸 들</w>
해 병대</w>
합 실</w>
함 량</w>
할 일</w>
한 하</w>
학 사</w>
하늘 가</w>
하 반신</w>
하 릴
하릴 없</w>
필 경</w>
플 렉스</w>
프리미 어리
프 란
표지 판</w>
폭 음</w>
포 르
편의 점</w>
편안 히</w>
편 협</w>
페인 트
팽 배</w>
패 드</w>
판 로</w>
파릇 파릇</w>
파 면</w>
팀 원들</w>
튿 날</w>
특 정
특 이</w>
통 속</w>
토마 토
테 크
털 썩</w>
태극 권</w>
탕 물</w>
탐 구
탈 모</w>
키 보드</w>
쾌 활</w>
콜 레
커플 룩</w>
캐 스
캐 나
침 울</w>
친 형제</w>
친 지</w>
치 마
치 들</w>
치 고는</w>
취업 난</w>
충성 심</w>
충 깡
충깡 충</w>
출 입구</w>
추진 력</w>
추 호</w>
추 첨</w>
추 이</w>
최 상</w>
총 체적</w>
초지 종</w>
초 인종</w>
초 과
체 류
청소 년기</w>
첫 눈</w>
첨 부</w>
첨 가</w>
천 하
천 체</w>
천 자</w>
천 박</w>
천 금</w>
채 권
참석 자</w>
참 답</w>
차 표</w>
차 익</w>
찌 들</w>
쪼 이</w>
짝 사랑</w>
짜 임새</w>
징 후</w>
징 검
진 흙
진 대</w>
직 접
직 물</w>
지상 파</w>
지 표
지 참</w>
지 루
증 가
중화 민족</w>
중국 산</w>
중 턱</w>
중 공업</w>
줄 기차</w>
주렁주 렁</w>
주 점</w>
주 유</w>
죄 수들</w>
죄 송
존 속</w>
조각 상</w>
조 촐</w>
조 처</w>
조 연</w>
조 들</w>
조 끼</w>
제조 업체</w>
제 품
제 멋</w>
정책 적</w>
정교 한</w>
정 형
정 조</w>
정 원
접 히</w>
접 목</w>
절 충</w>
절 뚝
전 우</w>
전 래</w>
전 권</w>
적 자
저 질</w>
쟁 이들</w>
재 활용</w>
재 자</w>
재 연</w>
장 가들</w>
잠재 적</w>
잔 해</w>
자력갱 생</w>
자 형</w>
자 초지종</w>
자 막</w>
자 랑
잉 어</w>
임 종</w>
임 상
일 원</w>
일 명</w>
일 렬</w>
인생 관</w>
인 준</w>
인 신
인 문
이웃 사람들</w>
이발 소</w>
이라 크
이 튿날</w>
이 쯤</w>
이 수</w>
이 부
이 만한</w>
이 데
의무 적</w>
의 탁</w>
의 지력</w>
의 복</w>
의 류
응 어리</w>
음악 적</w>
은 밀히</w>
으 시다</w>
으 라는</w>
융 자</w>
유치 한</w>
위생 적</w>
위 엔
위 병</w>
웨이 터</w>
원만 히</w>
원 정
원 기</w>
워 크
우두 머리</w>
우 파</w>
우 월</w>
우 열</w>
우 둔</w>
용 해서</w>
왕 자님</w>
왕 년</w>
완전 무
완전무 결</w>
온 천</w>
온 실
오케 스트라</w>
오 금</w>
예 컨대</w>
예 수</w>
영화 감독</w>
영웅 들</w>
영 합</w>
영 아</w>
엿 듣</w>
열 람
연장 전</w>
연 유</w>
연 쇄
연 속
역 정</w>
역 국</w>
여 쭙</w>
에피소 드</w>
엉 기</w>
었 도다</w>
업 자들</w>
엄 숙
언론 사</w>
언 저리</w>
억 척</w>
어처 구니</w>
어야 죠</w>
어서 라면</w>
어 색한</w>
어 부들</w>
양 념
애지 중지</w>
애 국</w>
압 류</w>
알 선</w>
알 뜰
안 성
아무 쪼록</w>
아동 들</w>
아 른
아 련</w>
아 다며</w>
썰 물</w>
써 넣</w>
심플 한</w>
심 금</w>
신생 아</w>
신 종</w>
신 바람</w>
신 랄</w>
식 빵</w>
식 료
시아오 왕</w>
시 ㄴ데</w>
승 산</w>
승 복</w>
슬 픔</w>
슬 리
슬 기</w>
스피 커</w>
스폰 서</w>
스크 바</w>
스 판</w>
스 턴</w>
스 릴</w>
슈 즈</w>
숭 하</w>
수입 품</w>
수익 금</w>
수 출입</w>
수 육</w>
수 목</w>
수 모</w>
수 급</w>
쇼핑 센터</w>
손 전등</w>
손 쉽</w>
소 품</w>
소 인배</w>
소 송
소 서</w>
소 량</w>
세 트
세 종
세 서</w>
세 대들</w>
세 간</w>
성 조</w>
성 쇠</w>
성 교육</w>
설 교</w>
선 조들</w>
선 원</w>
선 심</w>
석 한</w>
서 약</w>
샹 하이
생필 품</w>
색 안경</w>
상 품들</w>
상 책</w>
상 임
상 스럽</w>
삽 시간</w>
살 그머니</w>
산 촌</w>
산 다</w>
사은 품</w>
사사 로운</w>
사각 형</w>
사 흘
사 주</w>
사 조</w>
뽀 얗</w>
빽빽 이</w>
빚 쟁이</w>
빗 대</w>
빈번 히</w>
비탈 길</w>
비빔 밥</w>
비 범</w>
비 밀리</w>
불 현듯</w>
불 붙</w>
불 변</w>
불 꽃놀이</w>
불 교
불 같</w>
분 쇄</w>
부족 하기</w>
부대 끼</w>
부 사장</w>
봉 변</w>
봉 기</w>
보험 료</w>
보험 금</w>
보 라
병 환</w>
베테 랑</w>
베스트 셀러</w>
벙 어리</w>
법 률적</w>
버릇 없이</w>
버 팀
버 거</w>
백 년
방 관</w>
발 톱</w>
발 갛</w>
반 찬
반 지
반 점</w>
반 바지</w>
박 또
박 동</w>
바삭바삭 하</w>
바 스
바 그
밉 살</w>
밀 봉</w>
민 들레</w>
미술 품</w>
미 리
물 리
물 고기들</w>
문 란</w>
문 고</w>
무 인
무 뢰
모범 생</w>
모 터</w>
모 스크바</w>
모 국어</w>
면 도</w>
멧 돼지</w>
멀 티
맹 렬히</w>
매 표
맞 벌이</w>
망 연자실</w>
만큼 이나</w>
만 담</w>
막 심</w>
막 노동</w>
마술 사</w>
마 디
리 비아</w>
로 따로</w>
레이 터</w>
라 면서</w>
뛰 어나</w>
뚜 렷
또 박또
떨 이</w>
땔 나무</w>
딱 히</w>
따 로따로</w>
듯 싶
들썩 거리</w>
드 높</w>
둘 리</w>
동양 적</w>
돗 자리</w>
돌 풍</w>
도 해</w>
도 통</w>
도 톰</w>
도 출</w>
도 착
도 나도</w>
데굴 데굴</w>
더 라니</w>
더 듬거리</w>
더 ㄴ데</w>
대한 항공</w>
대신 해서</w>
대 합실</w>
대 추</w>
대 왕</w>
대 여섯</w>
대 생</w>
대 범
대 박</w>
당선 자</w>
당 일</w>
당 근</w>
담 벼락</w>
담 력</w>
달 리하</w>
단 속
다 저
다 소
니 는</w>
뉴 질
눈 살</w>
눈 높이</w>
농 한기</w>
농 촌
농 락</w>
녹음 기</w>
녹 색
노 약자</w>
노 상</w>
년 도</w>
네이 션</w>
널 찍</w>
남녀 노소</w>
난 해</w>
나 풀
끈적끈 적하</w>
꼴 찌</w>
꼬 불
꼬 리
껏 해야</w>
껄 끄럽</w>
깡 충깡충</w>
까지 의</w>
까 우</w>
깃 털</w>
긴 요</w>
기말 고사</w>
기대 감</w>
기념 행사</w>
기관 차</w>
기 후
기 해</w>
기 조</w>
기 생
기 사
기 부
기 말</w>
기 껏해야</w>
기 기</w>
기 고만
기고만 장</w>
급정 거</w>
급 성</w>
글 쓰</w>
근 육
근 대적</w>
그 레</w>
그 것들</w>
귀 여움</w>
권 력자</w>
궁 전</w>
궁 극적</w>
굴 레</w>
국 채</w>
구 슬
구 속
교 차
교 시</w>
교 부</w>
광 선</w>
광 기</w>
과 소
공 황</w>
공 모
공 대</w>
곱 씹</w>
곰곰 이</w>
곧이곧 대</w>
곧이 어</w>
고 전
고 을</w>
고 요
고 단
경 쾌</w>
겼 다</w>
겸 허
결 연</w>
결 선</w>
격 분</w>
겠 냐</w>
것 이
거 처</w>
거 니와</w>
개 방적</w>
개 과천
개 간</w>
강제 적</w>
강 타</w>
갔 다</w>
감 퇴</w>
감 상
간 접적</w>
간 략</w>
간 과</w>
가지 수</w>
가마 니</w>
가랑 비</w>
가 상
가 루
가 구들</w>
ㄹ 테니</w>
ㄴ 단다</w>
I T</w>
50 대</w>
4 5
3 ,000
24 일</w>
200 0</w>
2 번</w>
2 미터</w>
2 대</w>
2 ,000
15 0</w>
100 주년</w>
1 조</w>
1 개월</w>
힘 있</w>
희정 아</w>
흥 성</w>
후보 자들</w>
후 손들</w>
횃 불</w>
확 성기</w>
화 음</w>
화 려</w>
홀 리</w>
혼 수
호 쾌</w>
형제 들</w>
협 상
현 지
현 장
현 실성</w>
헤 엄</w>
허리 춤</w>
허 름한</w>
행 인들</w>
했 던</w>
합 심</w>
함 없이</w>
한테 도</w>
한국 적</w>
한 해</w>
한 잠</w>
한 구석</w>
한 가로
한가로 이</w>
학부 형</w>
하 순</w>
핏 대</w>
필 시</w>
피해 자들</w>
피 상적</w>
피 땀</w>
플래 카드</w>
프리미어리 그</w>
프랑스 어</w>
프란 시스
프 트</w>
표 시해</w>
폴 리
포 퓰
포 스트
편 들</w>
패 자</w>
팥 죽</w>
팔 월</w>
판 본</w>
파 묻</w>
티 격
티격 태
틀어 막</w>
특 보</w>
트로 피</w>
투 명성</w>
토 너
템 포</w>
털 끝</w>
터 트리</w>
터 앉</w>
탐관 오리</w>
타 협
타 운</w>
타 도</w>
키 퍼</w>
키 스
클 리
큰 불</w>
크 나
크나 크</w>
코스 모
코 리아</w>
케 어</w>
커피 숍</w>
침 상</w>
침 공</w>
치 꼬치</w>
충 원</w>
출 품</w>
출 몰</w>
출 권</w>
축구 연맹</w>
추 켜
최 고급</w>
초록 색</w>
초 하루</w>
초 록</w>
청 춘
첫 걸음</w>
철 판</w>
철 사</w>
천재 적</w>
천 문</w>
처 녀들</w>
참 여
착 용
차 비</w>
차 례
차 곡</w>
차 곡
차곡 차곡</w>
쭈 뼛
쩨 쩨
짓 누르</w>
집 념</w>
질 타</w>
진 화
진 력</w>
직 장
직 감</w>
지지 율</w>
지근 한</w>
지 질</w>
지 뢰</w>
지 러지</w>
지 거리</w>
즉흥 적</w>
쥐 구멍</w>
중앙 정부</w>
중 풍</w>
중 문</w>
줄 행
준 하</w>
주 교</w>
주 검</w>
죄 악</w>
종 지</w>
조 지</w>
조 의</w>
조 약
조 망</w>
제 정신</w>
정규 리그</w>
정 품</w>
정 진</w>
정 중히</w>
정 열</w>
정 산</w>
정 량</w>
정 곡</w>
접 견</w>
점 유
절 이</w>
전문 성</w>
전 원
전 야</w>
전 구</w>
적 중</w>
저 온</w>
재판 관</w>
재 작년</w>
재 건</w>
장 전</w>
장 엄한</w>
장 엄</w>
장 안</w>
장 세</w>
장 머리</w>
장 려
장 래
잠재 우</w>
잠 잠
자칫 하면</w>
자주 적</w>
자유 자재</w>
자 인</w>
자 사</w>
자 녀
자 갈</w>
입 덧</w>
입 건</w>
임기 응
임기응 변</w>
일치 단결</w>
일사 불
일기 예보</w>
일 차적</w>
일 가족</w>
인테 리</w>
인질 들</w>
인사 말</w>
익 명</w>
이웃 나라</w>
이야 기들</w>
이부 자리</w>
이 지</w>
이 정표</w>
이 설</w>
이 색</w>
이 메일</w>
이 맘
이맘 때</w>
이 끌리</w>
이 권</w>
이 공
의 아</w>
응급 실</w>
응 석
을 게</w>
으스 대</w>
으 리</w>
육 체</w>
육 류</w>
유리 잔</w>
유 족</w>
유 월</w>
유 원지</w>
유 구</w>
위문 하</w>
위 협
위 치한</w>
위 반
원 내
용 법</w>
요 한</w>
외 향적</w>
외 톨
외 양</w>
외 동
외 계</w>
왜 소</w>
완강 히</w>
완 성도</w>
올 라</w>
오래 오래</w>
열 람</w>
열 강</w>
연 행</w>
연 필
연 재</w>
연 상
연 사</w>
연 민</w>
역 자</w>
여 유
엇 비슷</w>
업무 상</w>
얼 얼하</w>
얼 떨
어쩌 다가</w>
어리 석
어리 둥
어리둥 절</w>
어 질
어 장</w>
양 곡</w>
약 혼
약 초</w>
야단 법석</w>
야구 팀</w>
야 심
애호 가들</w>
앞 장</w>
암 세포</w>
안전 한</w>
안 하</w>
안 치</w>
아 트</w>
아 죠</w>
아 랍
쑥 쑥</w>
심 장병</w>
심 오</w>
실용 성</w>
실 질</w>
실 질
실 의</w>
실 눈</w>
신 흥</w>
신 통치</w>
신 변</w>
식 후</w>
시간 적</w>
시 큰</w>
시 크
습 속</w>
스태 프</w>
스카 우
스 텔
스 럽
숨 소리</w>
숙 달</w>
수치 심</w>
수영 복</w>
수비 수</w>
수 진</w>
수 송
수 만</w>
수 뢰</w>
손 해
속 살</w>
소프 트</w>
소녀 시대</w>
소 폭</w>
소 외
세 속적</w>
세 배</w>
세 무</w>
선 상</w>
선 례</w>
선 들</w>
서먹 서먹
서 성거리</w>
서 법</w>
생산 자</w>
생기 발랄</w>
샌 프란시스
상 습적</w>
삼 일</w>
살 며시</w>
살 뜰</w>
살 기</w>
산 림
산 기슭</w>
사업 가</w>
사사 건
사사건 건</w>
사 로운</w>
사 돈</w>
빵 집</w>
빨아 들이</w>
빠져 들었다</w>
빙 판</w>
빗 소리</w>
빈 털
비상 한</w>
비 치
비 수</w>
불가 결</w>
불 확실</w>
불 사</w>
북 극</w>
부 제</w>
부 가
볼 거리</w>
본 토</w>
본 디</w>
복 사
보유 자</w>
보건 대</w>
보 통화</w>
보 육
보 습</w>
별 세</w>
별 빛</w>
별 것</w>
변 함없이</w>
변 기</w>
베 갯
벗 겨지</w>
벌 금
번 민</w>
번 뜩
버팀 목</w>
버르 장머리</w>
방 패</w>
방 귀</w>
밥 값</w>
발 원</w>
발 성</w>
발 레
발 단</w>
반질 반
반 출</w>
반 주</w>
반 미</w>
반 나절</w>
반 감</w>
바 짓
민속 놀이</w>
미스 터리</w>
미 지근하</w>
미 지</w>
미 역국</w>
미 남</w>
미 간</w>
물 집</w>
무 허가</w>
무 소식</w>
모 피</w>
명 주</w>
명 절
명 령
명 랑</w>
면 회</w>
면 역력</w>
면 성</w>
메 탈</w>
메 뚜
맵 시</w>
맥 락</w>
만장 일치</w>
만만 찮</w>
만 찬</w>
만 저
마침 표</w>
마 일</w>
마 님</w>
마 감
리 어도</w>
레 한</w>
러 브
러 미</w>
랑 하</w>
라이 터</w>
라오 왕</w>
또박또 박</w>
따 끈
들이 밀</w>
들 아</w>
들 먹이</w>
뒷 부분</w>
뒤척 이</w>
뒤 축</w>
뒤 적이</w>
동포 들</w>
동서 고금</w>
동 조</w>
동 일</w>
동 맹
동 맥</w>
독창 성</w>
도 용</w>
데 치</w>
덤 벙
덜 하</w>
대 인</w>
대 의
대 북
대 보름날</w>
대 로의</w>
당 면</w>
담 론</w>
달 콤
달 째</w>
달 싹</w>
단 풍
단 념</w>
닥 뜨리</w>
다 분</w>
다 닥</w>
눈 덩이</w>
눈 감</w>
놀 라
노 점
노 끈</w>
년 층</w>
네온 사인</w>
너무 하</w>
냉 방</w>
나 비
끼 리
꿍 꿍
꿈 틀
꾸 준</w>
꼬 치꼬치</w>
깡 패들</w>
까마 득</w>
까 치</w>
까 요</w>
김 장</w>
긴 장한</w>
기업 체</w>
기본 기</w>
기본 권</w>
기 내</w>
급 료</w>
금융 권</w>
글 짓기</w>
근거 해서</w>
근거 해</w>
근 검
근검 절약</w>
근 간</w>
그 제
그 때
그 댈</w>
그 늘
귀 걸이</w>
권 투</w>
권 위적</w>
궁 핍</w>
군 요</w>
군 들</w>
국가 대표팀</w>
국 회의
국 무원</w>
구 체</w>
구 차</w>
구 전</w>
구 사회</w>
교 포</w>
교 사들</w>
굉 음</w>
공통 적</w>
공 평
공 천</w>
공 익
공 안</w>
공 관</w>
공 경</w>
골 인</w>
골 드
골 대</w>
곡 예사</w>
고등 학생</w>
고 취</w>
고 질적</w>
고 증</w>
고 유가</w>
고 령</w>
고 래
계획 적</w>
계 몽
경찰 청</w>
경영 학</w>
경 탄</w>
경 복
경 마</w>
경 리</w>
경 건</w>
결 별</w>
격 투</w>
격 상</w>
겠 습니</w>
겠 군</w>
것 이요</w>
겁 먹</w>
걸 터앉</w>
건 물들</w>
건 더기</w>
걱 정
거듭 나</w>
거 시적</w>
거 동</w>
개최 국</w>
개구 쟁이</w>
개 성적</w>
개 나리</w>
강 호</w>
강 풍</w>
감 증</w>
감 시
감 성적</w>
갈 취</w>
간 간이</w>
가로 수</w>
가 해자</w>
가 출</w>
가 속화</w>
가 발</w>
c m</w>
70 0</w>
60 0</w>
5 천</w>
4 학년</w>
201 1년</w>
200 명</w>
2 1</w>
199 7년</w>
199 5년</w>
198 0년대</w>
100 억</w>
1 50
1 ,000</w>
힐 끗</w>
히 말라
히말라 야</w>
희생 양</w>
희 열</w>
희 극</w>
흠 모</w>
흙 먼지</w>
흑 색
흐 지
휠 체
후진 국</w>
후려 치</w>
후 자</w>
후 원금</w>
후 속</w>
후 반전</w>
회 부</w>
회 동</w>
활 로</w>
환 장</w>
확 인
화 요일</w>
혼 자만</w>
호 호</w>
호 우</w>
호 스</w>
형사 처벌</w>
형 용</w>
혔 다</w>
현 수막</w>
헷 갈리</w>
헌 신적</w>
허영 심</w>
허 우
허 영</w>
허 기</w>
행 위
행 상</w>
해안 선</w>
해 적</w>
해 적
해 달라</w>
합 법</w>
합 리
합 동
합 계</w>
할 게</w>
한국 경제</w>
한 통속</w>
한 입</w>
한 들</w>
한 계
하 필
하필 이면</w>
하 면서</w>
하 단</w>
핏 줄</w>
필리 핀</w>
피 서</w>
플래 시</w>
플 리
프 레
풍 광</w>
품 질
푹 푹</w>
푹 신</w>
푸 념</w>
폴 란드</w>
포 트</w>
폐쇄 적</w>
폐 하</w>
폐 지</w>
평가 전</w>
펄 쩍</w>
퍼 런</w>
패러 디</w>
팡 질
파 출소</w>
파 원</w>
티브 이</w>
티 끌</w>
튼튼 히</w>
특 혜</w>
특 권</w>
트 럼
통치 하</w>
테 나</w>
터 키</w>
터 미널</w>
탤 런트</w>
탄산 음료</w>
큰 형</w>
캐주 얼
침 침하</w>
치켜 세우</w>
치 웠다</w>
치 안
측 근</w>
충 실히</w>
충 동적</w>
출 금</w>
최 첨단</w>
총 리
초 등</w>
청 정</w>
청 색</w>
청 대</w>
청 계
청 각</w>
철 철</w>
천 진
천 시</w>
천 대</w>
처 자</w>
책 무</w>
창 조성</w>
창 간</w>
참 고</w>
착 지</w>
차 출</w>
차 체</w>
차 분한</w>
차 등</w>
쫄 깃
짬 뽕</w>
짜 고
징 용</w>
징 그럽</w>
짓 눌리</w>
짓 궂</w>
진취 적</w>
진 척</w>
진 돗
진 달래</w>
진 가</w>
직 성</w>
직 급</w>
직 거래</w>
지하 자원</w>
지금 쯤</w>
지그 시</w>
지 체
지 급
중간 고사</w>
중 얼거리</w>
중 대장</w>
줄행 랑</w>
준기 에</w>
준 엄</w>
주 요
주 세요</w>
주 선</w>
주 가지수</w>
죄 명</w>
조사 하기</w>
조 준</w>
조 바
조 만</w>
조 개
제 철
제 왕</w>
제 스처</w>
제 삼자</w>
제 도
제 과점</w>
접 종</w>
절망 적</w>
절 절</w>
절 상</w>
전망 대</w>
전 용
전 심</w>
전 멸</w>
전 광
적 법
저 울
저 께</w>
재 잘
장래 성</w>
장 식품</w>
장 사진</w>
잠 복</w>
잔 재</w>
작 황</w>
작 지</w>
작 작</w>
자 회사</w>
자 위권</w>
자 업
자업 자
자업자 득</w>
자 각</w>
입 춘</w>
입 추</w>
임 원
임 산부</w>
일가 견</w>
일 파</w>
일 세</w>
일 방</w>
일 론</w>
일 광
일 간</w>
인도 네
인기 척</w>
인 플
인 차</w>
인 자</w>
인 수위</w>
인 세</w>
이해 득실</w>
이슬 람
이 송</w>
이 산</w>
의 약품</w>
응 집</w>
은 밀한</w>
으로 서는</w>
으 려니</w>
유 화</w>
유 엔
유 대</w>
위 태
위 성
월 일</w>
웅 변</w>
웃 거리</w>
움츠 러들</w>
울 창</w>
울 상</w>
우월 한</w>
우 환</w>
우 수리</w>
요 행</w>
외 신</w>
외 곽</w>
완 연</w>
와 르르</w>
옷 가지</w>
옥 신
오 자</w>
오 물</w>
예술 품</w>
예술 성</w>
예 매</w>
예 기</w>
영결 식</w>
엽 서</w>
연구 팀</w>
연구 결과</w>
연 평도</w>
연 속적</w>
연 로한</w>
연 금
역 전
역 부족</w>
여름 휴가</w>
여 미</w>
여 럿
여럿 이</w>
여 드름</w>
에너 지원</w>
었 냐</w>
엄지 손가락</w>
얼굴 빛</w>
얼 렁
얼렁 뚱
언 이설</w>
언 니들</w>
억 수</w>
어이 구</w>
어리석 음</w>
어 학</w>
어 엿</w>
어 수
어 머</w>
어 릿
어 던</w>
양 로
양 극화</w>
약 해</w>
야생 동물</w>
야 유회</w>
애국 심</w>
애 당초</w>
앞 잡이</w>
암 탉</w>
알 칼
안성 맞춤</w>
안 테나</w>
안 일</w>
안 락</w>
안 달</w>
악 순환</w>
쓸 쓸
싼 값</w>
싹 싹</w>
싱글 벙
실 화</w>
실 크</w>
실 내
신청 서</w>
신비 로운</w>
신뢰 도</w>
신 하들</w>
신 신
신신 당부</w>
신 성</w>
신 성
식료 품</w>
식 중독</w>
시험 적</w>
시 황</w>
시 트
시 켰다</w>
시 식</w>
시 부모</w>
시 방</w>
시 마</w>
시 급한</w>
시 구</w>
습 니다만</w>
슬 하</w>
스키 장</w>
스 파이</w>
숨 쉬</w>
숙 부</w>
수험 생들</w>
수리 공</w>
수 화물</w>
수 포</w>
수 차례</w>
수 준
수 양
수 신</w>
수 식</w>
수 료</w>
쇠 붙이</w>
송 구</w>
손 히</w>
손 자들</w>
소비 자
소비 량</w>
소곤 거리</w>
소 사</w>
세 일
세 습</w>
세 부적</w>
성 악
성 비</w>
성 듬
성 깔</w>
섬 멸</w>
선 전
선 녀</w>
서울 시</w>
상 호
상 한
상 식적</w>
상 쇄</w>
상 생</w>
삼성 그룹</w>
삼 월</w>
산산 조각</w>
산 만</w>
사이 드</w>
사과 나무</w>
사 제</w>
사 뭇</w>
사 교적</w>
뿌 옇</w>
빙 자</w>
빈털 터리</w>
비 호</w>
비 지
비 적</w>
비 웃음</w>
비 눗
비 극적</w>
비 교
비 공개</w>
비 겁</w>
붕 어</w>
불 순</w>
불 감증</w>
분양 가</w>
부족 해서</w>
부부 싸움</w>
부 자연</w>
부 리
봉 사자</w>
본 업</w>
복지 부</w>
보 좌</w>
보 위</w>
보 약</w>
변화 무쌍</w>
변 고</w>
벤 처
베이 스
베 스트</w>
법 원장</w>
배 추
배 달
배 급</w>
방 청
방 지
방 수</w>
발 악</w>
반 포</w>
바닥 나</w>
바 로
바 늘
밑 창</w>
밀수 범</w>
밀 밭</w>
민 영화</w>
민 생
미 혼
미 만</w>
미 관</w>
뭉 게
물 수건</w>
물 상</w>
문 인</w>
무용 수</w>
무 인도</w>
무 명
무 도</w>
몸부 림</w>
몰아넣 었다</w>
몰아 붙이</w>
목 도리</w>
모조 품</w>
모 드</w>
모 님</w>
명승 고적</w>
명 명</w>
명 망</w>
명 나라</w>
멸 치</w>
면 한</w>
멕시 코</w>
메모 리</w>
머 슴</w>
매국 노</w>
매 점</w>
매 듭</w>
말레이 시아</w>
말 꼬리</w>
만큼 도</w>
만 적</w>
막 대한</w>
막 다르</w>
마 약
리 들</w>
른 다</w>
롯 데
로 스
로 군</w>
려 서</w>
려 거든</w>
레이 저</w>
레 퍼
뚱 거리</w>
뚜렷 이</w>
떠 밀리</w>
떠 밀</w>
땀 방울</w>
따끈 따
따끈따 끈하</w>
등 반
듬 성듬
들어 가</w>
들 보</w>
들 먹
들 락거리</w>
득 세</w>
뒤 편</w>
뒤 틀리</w>
뒤 꿈치</w>
된 다</w>
되는 대로</w>
동정 심</w>
동북 아</w>
동계 올림픽</w>
동 시</w>
동 글
동 갑</w>
돌 연</w>
더 블
더 ㄴ지</w>
대리 석</w>
대 히</w>
대 용</w>
대 견</w>
대 가족</w>
당 파</w>
당 치</w>
당 국자</w>
담 소</w>
달 그
단 신</w>
단 식</w>
단 시간</w>
닥 거리</w>
다운 로드</w>
다양 화</w>
다 크
다 짜고
다 스</w>
다 람
다 꺼리</w>
늘 어뜨리</w>
눈치 채</w>
눈 질</w>
눈 송이</w>
눈 사람</w>
눈 멀</w>
누 이
누 런</w>
농 기구</w>
놀이 동산</w>
노 면</w>
노 니</w>
네 모나</w>
넘쳐 흐
넉넉 히</w>
납 치
날 아오르</w>
낙 선</w>
나무 토막</w>
나 풀</w>
나 일론</w>
나 와</w>
깨달 음</w>
깃 거리</w>
기업 인</w>
기념 품</w>
기 아</w>
급 변</w>
근 해</w>
근 방</w>
그때 그때</w>
귀 성</w>
권위 주의</w>
궁 둥이</w>
굴 욕</w>
군 수
군 민</w>
군 기</w>
국 토
국 악</w>
국 립</w>
구조 대</w>
구왕 져우</w>
구왕 똥</w>
구매 자</w>
구 이</w>
구 요</w>
구 김</w>
구 김
구 글</w>
교육 청</w>
교 향
괴 팍</w>
괴 상</w>
광 천수</w>
광 적</w>
광 복
관절 염</w>
관 심
관 개</w>
과학 연구</w>
과 외
과 대학</w>
공 표</w>
공 터</w>
공 지</w>
공 작
골 키퍼</w>
골 든
곤두 서</w>
고통 받</w>
계약 금</w>
곁 눈질</w>
경쟁 자</w>
경계 심</w>
경 작지</w>
경 색</w>
경 상
경 사지</w>
결 핵</w>
결 투</w>
결 제하</w>
결 정한</w>
결 전</w>
견 지해</w>
격 앙</w>
겨 워</w>
게으 름
게 을
검 색
검 문</w>
건너 뛰</w>
건 방지</w>
건 달
객 석</w>
개과천 선</w>
감쪽 같이</w>
감 언이설</w>
갈 팡질
갈 등</w>
간 만</w>
각 본</w>
가 지들</w>
가 적</w>
가 운</w>
가 식적</w>
가 구
P C</w>
80 0</w>
5 ,000
40 년</w>
4 6
3 조</w>
3 1일</w>
2 7</w>
100 원</w>
1 미터</w>
1 6</w>
희귀 한</w>
흑색 선전</w>
흉 금</w>
흉 계</w>
휴 업</w>
휴 식
훌쩍 거리</w>
후 환</w>
후 원자</w>
화 한</w>
화 탄소</w>
호 박
호 미</w>
호 명</w>
혜 성</w>
형 국</w>
현대 사</w>
현 찰</w>
현 주소</w>
헬 스</w>
험 악한</w>
험 상
험상 궂</w>
헐떡 거리</w>
헌법 재판소</w>
허가 증</w>
허 허</w>
허 울</w>
허 수
향 유</w>
해 협</w>
해 성</w>
해 물
항 져우</w>
항 전</w>
할머 님</w>
한 풀</w>
한 우</w>
한 산
한 뜻</w>
한 글
학술 계</w>
하 체</w>
하 급</w>
하 고서야</w>
핀 잔</w>
피 자</w>
플라 워</w>
플 랫
플 란
프 터
표 어</w>
표 범</w>
폭 포수</w>
폭 주
폭 염</w>
포퓰 리즘</w>
포르 투
포 구</w>
폐 품</w>
평가 해서</w>
평 준
평 생
편리 함</w>
편 제</w>
팽팽 히</w>
패 전</w>
파 편</w>
파 탄</w>
파 들</w>
파 급</w>
특 파원</w>
투 적</w>
퇴 직
퇴 보</w>
통 제
토너 먼트</w>
토 사</w>
텅 텅</w>
택 지</w>
태 백
탕 수육</w>
탈 피</w>
탈 퇴</w>
탄 한</w>
탄 력적</w>
키스 탄</w>
큼 직</w>
큰 아들</w>
크로 스</w>
크 라
콤 비</w>
코스모 스</w>
코 피</w>
케이 션</w>
케이 블</w>
커 니즘</w>
캐스 팅</w>
카 디
침 반</w>
친 필</w>
친 자식</w>
칙칙 하</w>
치 매</w>
충 직</w>
충 정</w>
축구 장</w>
축구 공</w>
축구 계</w>
추 종</w>
촉 발</w>
초등 학생들</w>
초 췌</w>
초 적</w>
초 장</w>
초 연</w>
초 고속</w>
체 화</w>
체 득</w>
체 계
체 감
청소 년
청산 유수</w>
청 렴
철 로</w>
철 도
천 한</w>
천 안문</w>
처 자식</w>
처 박히</w>
창 작
착 안</w>
차 장</w>
차 별적</w>
찔 끔
쪼 들리</w>
쩔 쩔
쩔쩔 매</w>
짜 증나</w>
짜 장면</w>
징검 다리</w>
집 요</w>
질서 정연</w>
질 박</w>
질 량</w>
진돗 개</w>
진 전</w>
진 실로</w>
진 공</w>
직 설적</w>
직 공들</w>
지상 주의</w>
지 덕지</w>
지 능적</w>
즉 석</w>
중앙 선</w>
중고 차</w>
중 추</w>
중 천</w>
중 력</w>
줄 무늬</w>
죽 을
주도 면
주도면 밀한</w>
주 림</w>
주 기적</w>
주 거
주 간지</w>
종 속</w>
졸 라
졸라 매</w>
조 목
조목 조목</w>
조 명
제 패</w>
제 청</w>
제 5
정보 원</w>
정 쟁</w>
정 밀
정 갈</w>
점유 율</w>
절 친</w>
전시 관</w>
전반 전</w>
전 주</w>
전 산</w>
전 산
전 모</w>
전 경</w>
적 대
저 우
재 상</w>
재 밌
재 무</w>
재 무
재 경부</w>
재 검토</w>
재 건축</w>
장 모</w>
장 남</w>
장 구
잘 잘못</w>
자연 스레</w>
자 작
자 영
있 으
있 긴</w>
입 체감</w>
임 신부</w>
일광 욕</w>
일 순간</w>
인 프라</w>
인 자
인 습</w>
인 스턴
인 슐
인 격적</w>
인 격
이상 해</w>
이데 올
이데올 로
이데올로 기</w>
이공 계</w>
이 불
이 봐</w>
이 만저
이만저 만</w>
이 래
이 란다</w>
의 향</w>
의 학적</w>
의 학계</w>
의 서</w>
응 징</w>
응 대</w>
은 밀</w>
유효 기간</w>
유유 히</w>
유리 컵</w>
유 형
유 해</w>
유 목
유 린</w>
유 동적</w>
유 공자</w>
위 임</w>
위 문</w>
위 급</w>
웹 사이트</w>
웨 딩</w>
월 급
원내 대표</w>
원 판</w>
원 칙
원 시적</w>
원 성</w>
원 만한</w>
원 군</w>
운전 면허증</w>
운동 가</w>
우거 진</w>
우 병</w>
우 롱</w>
용 솟
용솟 음치</w>
욕 심
요 정</w>
요 강</w>
외 형</w>
왕 따</w>
왕 관</w>
옷 자락</w>
온실 가스</w>
옥신 각
오리 털</w>
오 월</w>
오 싹</w>
오 수</w>
오 색
오 바
오 만한</w>
오 두
오 곡</w>
예 상
영화 들</w>
영 장
영 공</w>
염 소</w>
연말 연시</w>
연구 실</w>
연 기자들</w>
여행 가</w>
여 의치</w>
여 분</w>
여 명</w>
엔 화</w>
에 스</w>
에 라도</w>
엉덩 방아</w>
엉 성</w>
얼음 판</w>
언론 들</w>
언 사</w>
억 제
억 류</w>
어찌 하여</w>
어딘 지</w>
어디 론</w>
어 투</w>
어 업</w>
어 먹</w>
어 루
어루 만지</w>
어 로</w>
어 렵
어 금
어금 니</w>
얄 팍</w>
약 혼</w>
약 칭</w>
약 수
약수 터</w>
약 방</w>
야구 장</w>
야 수</w>
애니 메이션</w>
애 간장</w>
앞 지르</w>
앞 발</w>
앞 면</w>
알 리
안전 사고</w>
안 들</w>
안 녕
악 독</w>
아 드
씁 쓸</w>
쏙 쏙</w>
싸 매</w>
심 경</w>
실 추</w>
실 없</w>
실 래요</w>
신 주</w>
신 작</w>
신 동</w>
신 네</w>
신 고
식 화</w>
식 집</w>
식 비</w>
시시 콜
시민 단체</w>
시 술</w>
시 무
시 루</w>
시 라</w>
승 들</w>
승 격</w>
습 지</w>
슬리 퍼</w>
슬 피</w>
스카 프</w>
스 물</w>
스 물
술 안주</w>
술 상</w>
순 풍</w>
순 조로운</w>
수확 량</w>
수학 능력
수 평</w>
수 줍
수 석
수 렵</w>
수 레
수 락</w>
수 두
수두 룩</w>
수 동</w>
송 편</w>
송 장</w>
송 사</w>
송 대</w>
손 잡</w>
손 뼉</w>
속 죄</w>
속 되</w>
소설 가</w>
소방 관들</w>
소득 층</w>
소 형
소 하</w>
소 탈
세계 기록</w>
세 라</w>
세 가</w>
성 해</w>
성 스럽</w>
섭 리</w>
선착 순</w>
선거 철</w>
선 처</w>
석 차</w>
서 슴</w>
서 로
서 구
생활 고</w>
생생 히</w>
생 화</w>
생 식</w>
생 맥주</w>
생 계
생 강
색 연필</w>
새 사람</w>
상 투적</w>
상 업적</w>
삼 겹
살 균
살 구</w>
산 수화</w>
산 사태</w>
산 사</w>
사용 자들</w>
사법 고시</w>
사냥 감</w>
사각 사각</w>
사 학</w>
사 오</w>
사 신</w>
사 살</w>
사 부</w>
사 극</w>
뺑 소
빨랫 줄</w>
빈곤 층</w>
비즈 니스
비 자
블 로
불쌍 한</w>
불법 체류</w>
불가 사의</w>
불 효</w>
불 티나</w>
불 덩이</w>
분 가</w>
북 한
북 소리</w>
북 새
북 경
부 츠</w>
부 자들</w>
부 역</w>
부 뚜
부뚜 막</w>
부 도덕</w>
봄 기운</w>
본 체</w>
보조 개</w>
보라 색</w>
보 충
보 채</w>
보 상금</w>
보 들
보들 보
변 비</w>
베 트</w>
벗 어나</w>
법 학</w>
법 률
법 도</w>
벌금 형</w>
벌거 벗</w>
번거 로운</w>
버 젓이</w>
버 선</w>
버 둥거리</w>
배 타적</w>
배 속</w>
방불 케</w>
방문 객</w>
발 밑</w>
발 명품</w>
발 가
반대 파</w>
반 려
바그 다
바 퀴
밑 단</w>
밑 그림</w>
민주 노총</w>
민족 주의</w>
미용 실</w>
미 련한</w>
미 디
미 네
뭉 클
뭇 사람</w>
물 어
물 리적</w>
묵 살</w>
무엇 하</w>
무 한
무 익</w>
무 량</w>
목 사님</w>
목 돈</w>
모 호한</w>
모 르
모 녀</w>
몇 백</w>
명 화</w>
명 색</w>
명 백한</w>
명 백</w>
명 리</w>
명 대</w>
면접 시험</w>
면 세
멍청 이</w>
먼 지
맹 점</w>
맹 인</w>
맨 체
맞 닿</w>
맛 없</w>
말 참견</w>
말 주변</w>
말 쑥</w>
말 똥
만능 주의</w>
막 하</w>
막 말</w>
링 크</w>
리 넨</w>
리 ㅂ니다</w>
루 머</w>
레퍼 토리</w>
레이 션</w>
레 반</w>
렀 다</w>
랬 다</w>
램 프</w>
뜨 끈
뚱 보</w>
똘 똘</w>
때 맞추</w>
딤 돌</w>
디 딤돌</w>
등 수</w>
들 이치</w>
들 볶</w>
들 거리</w>
든 다</w>
뒷걸음 질</w>
뒷 문</w>
뒤 얽히</w>
둘러 앉</w>
두 보</w>
되 레</w>
동창 생</w>
동남 아</w>
동 체</w>
동 사</w>
동 문</w>
동 거</w>
돌파 구</w>
돌 변</w>
독 점
도둑 맞</w>
도 형</w>
도 상국</w>
도 래</w>
덮 개</w>
덜 렁</w>
덜 덜</w>
더운 물</w>
더 부
대학 가</w>
대리 점</w>
대 파</w>
대 졸</w>
대 위</w>
대 외
대 면</w>
당 정</w>
담배 꽁초</w>
단 말
단 돈</w>
단 계적</w>
능 동적</w>
늠 름</w>
늘 상</w>
늘 그
늘그 막</w>
느릿 느
느릿느 릿</w>
뉴질 랜드</w>
눈 망울</w>
높이 뛰기</w>
놀라 움</w>
노동 계</w>
노 하</w>
노 크</w>
노 새</w>
노 부인</w>
노 름
노 련한</w>
노 라면</w>
노 고</w>
넘 나들</w>
넌 지시</w>
너 절</w>
냉 각
냈 다</w>
내리 막길</w>
내려 치</w>
내 역</w>
내 던지</w>
내 달리</w>
남 북한</w>
날 벼락</w>
날 렵</w>
난 이도</w>
난 동</w>
낙 원</w>
낙 오</w>
낙 관론</w>
나팔 꽃</w>
나 침반</w>
나 발</w>
나 물
깨 비</w>
깔 깔
길 잡이</w>
기차 표</w>
기름 때</w>
기 하
기 자재</w>
기 식</w>
기 간
긍 지</w>
금 새</w>
긁어 모
근 절
근 력</w>
근 교</w>
근 검</w>
그러 뜨리</w>
그늘 지</w>
굽이 굽이</w>
굶 주림</w>
군 자</w>
국무 부</w>
국 론</w>
구 자</w>
구 릉</w>
교육 과정</w>
교 묘
교 감</w>
광 화문</w>
광 물</w>
관 화</w>
관 할</w>
관 중
관 두</w>
과소 평가</w>
과 징금</w>
과 소비</w>
공포 증</w>
공 청
공 안
공 들이</w>
골 탕</w>
고정 관념</w>
고무 적</w>
고등 어</w>
고 참</w>
고 전적</w>
고 자질</w>
고 사장</w>
고 별</w>
고 동</w>
경제 계</w>
경 쾌한</w>
경 축
경 례</w>
겸 직</w>
겸 사</w>
결과 물</w>
견 장</w>
견 인차</w>
겠 으니</w>
겠 다면</w>
검 푸르</w>
걷 어붙</w>
건강 식품</w>
거 금</w>
개 수</w>
개 괄적</w>
강원 도</w>
강 조
강 대</w>
강 단</w>
갑 절</w>
감 전</w>
감 원</w>
감 별</w>
감 미</w>
갈 라서</w>
간호 원</w>
간편 한</w>
간단 명료</w>
간 추리</w>
간 접
가을 철</w>
가을 바람</w>
가마 솥</w>
가 엽</w>
가 면</w>
가 렵
ㄹ 락</w>
ㄴ다 는데</w>
ㄴ 게</w>
k g</w>
6 00
5 위</w>
5 번</w>
4 000
3 배</w>
3 국</w>
2 2일</w>
16 강</w>
10 위</w>
1 번</w>
1 9</w>
1 7</w>
힘 내</w>
희정 이에</w>
흡연 자</w>
흙 탕물</w>
흉 작</w>
휴게 실</w>
휴 학</w>
휴 양</w>
휠체 어</w>
후 천적</w>
회 장님</w>
황 무지</w>
환 전</w>
환 대</w>
화기애애 한</w>
화 약</w>
화 신</w>
화 목
화 근</w>
화 교</w>
혹 사</w>
형광 등</w>
형 상
협 조
혈액 순환</w>
혈 안</w>
현 저히</w>
현 격</w>
혁 혁</w>
혀 끝</w>
헬 멧</w>
허수 아비</w>
허 망</w>
해 하</w>
해 설</w>
해 발</w>
해 군</w>
항공 권</w>
합성 피혁</w>
합리 화</w>
합 시</w>
함 박
할 거</w>
한 물가</w>
한 낱</w>
하 강</w>
피아 니스트</w>
피 터</w>
피 차
피 아</w>
피 리</w>
피 력</w>
피 둥
피둥 피
플레이 오프</w>
플레 어</w>
프로 그래
풍 물</w>
포장 도로</w>
포 항</w>
포 장마
포장마 차</w>
포 유
포 용</w>
포 상금</w>
포 근</w>
포 격</w>
평 등
편지 봉투</w>
편 애</w>
페인트 칠</w>
퍽 퍽</w>
팬 들</w>
판매 자</w>
판단 해서</w>
판 사들</w>
파 제</w>
파 랑</w>
파 란
파 내</w>
파 국</w>
틈 틈
특 수성</w>
트랜 스</w>
퉁 퉁</w>
통 칭</w>
통 념</w>
토 당
테 인
테인 먼트</w>
테 리아</w>
털 모자</w>
택배 비</w>
택 시
태양 열</w>
태양 계</w>
탐 방</w>
탈 레반</w>
탄 절</w>
탄 력
타임 스</w>
타 르</w>
타 당한</w>
큰 아버지</w>
큰 물</w>
쿠 키</w>
쾌 청</w>
코 끝</w>
컨트 롤
카 리스
카리스 마</w>
카 네이션</w>
출산 율</w>
출 연료</w>
추 천
추 돌</w>
추 도식</w>
춍 칭</w>
최 루
총 화</w>
총 서</w>
총 결산</w>
초 코
초 보적</w>
첼 로</w>
체 조
체 벌</w>
청렴 결백</w>
청계 천</w>
청 력</w>
첫 번</w>
철 문</w>
천 만
척 추</w>
처 우</w>
처 세</w>
채 비</w>
창 조
창 궐</w>
찻 잎</w>
참 상</w>
참 모
찬 미</w>
착 실히</w>
차 오
찢 어지</w>
찔 끔</w>
찌 그러지</w>
질 투</w>
진 퇴
진 맥
진 공
지원 금</w>
지난 밤</w>
지 리아</w>
증 조
증 원</w>
쥐 뿔</w>
중심 적</w>
중소 기업들</w>
중립 적</w>
중 원</w>
중 상
중 매
중 급</w>
줄 타</w>
줄 다리
줄다리 기</w>
주의 사항</w>
주문 한</w>
주 축</w>
주 력
좌우 명</w>
좌 초</w>
좌 중</w>
졸업 식</w>
졸업 생들</w>
졸 속</w>
족 보</w>
조형 물</w>
조심 성</w>
조사 단</w>
제1 차</w>
제 곱
정 형</w>
정 점</w>
정 액</w>
정 설</w>
정 서적</w>
정 권
정 가</w>
점 자</w>
절뚝 거리</w>
절 호</w>
절 도</w>
절 도
절 단</w>
전화 벨</w>
전자 파</w>
전자 제품</w>
전술 적</w>
전당 포</w>
전 편</w>
전 집</w>
전 업
전 생</w>
적당 량</w>
적 장</w>
적 나라</w>
적 기</w>
저녁 노을</w>
저 한</w>
저 트</w>
저 택</w>
저 출산</w>
저 주</w>
저 변</w>
저 들</w>
저 귀</w>
쟈 오
쟁 탈
쟁 쟁</w>
재판 부</w>
재 학</w>
재 정적</w>
재 목</w>
재 력</w>
재 단
장 성
장 선생님</w>
장 밋
장밋 빛</w>
장 국</w>
잡 지사</w>
자영 업자</w>
자동 화</w>
자기 만</w>
자 투리</w>
자 진</w>
자 료
있 소</w>
입 씨름</w>
입 식</w>
임 플란
임 직원</w>
일회 용</w>
일사불 란</w>
일 차</w>
일 신</w>
일 말</w>
일 렁이</w>
일 기</w>
일 개</w>
인조 가죽</w>
인슐 린</w>
인권 침해</w>
인 턴</w>
인 종
인 적
인 자한</w>
인 솔</w>
인 륜</w>
익 사</w>
이어 폰</w>
이야 깃거리</w>
이산 화탄소</w>
이 행
이 오</w>
이 에요</w>
이 순
이 쁘</w>
이 바
이바 지하</w>
이 만</w>
이 글</w>
이 간
음 침</w>
음 질</w>
음 지</w>
은 닉</w>
으시 고</w>
윤 택</w>
윤 색</w>
육체 노동</w>
유지 해</w>
유망 주</w>
유 품</w>
유 연</w>
유 사시</w>
유 배</w>
윗 도리</w>
위조 지폐</w>
월 남</w>
웃 어른</w>
웃 돌</w>
울긋불 긋</w>
울 한</w>
운전 석</w>
운 반
우스 꽝</w>
우스 개</w>
우 물거리</w>
용 역</w>
용 성</w>
용 광
용광 로</w>
요리 사가</w>
요 컨대</w>
요 원들</w>
요 망</w>
요 만한</w>
외톨 이</w>
외 부인</w>
왕 비</w>
온 전히</w>
오동 나무</w>
오 존
오 오</w>
오 냐
예정 일</w>
예 법</w>
예 방
예 문</w>
옆 자리</w>
영업 이익</w>
영 지</w>
영 영</w>
영 리한</w>
영 롱</w>
영 농</w>
열람 실</w>
연속 극</w>
연 아</w>
연 내</w>
연 기력</w>
역 효과</w>
여지 없이</w>
여러 모
여러모 로</w>
여 세</w>
엘리 트</w>
에 세
에 누리</w>
엉 엉</w>
었 더라도</w>
었 겠어</w>
없 소</w>
엄숙 히</w>
엄 벌</w>
얼 토당
억 눌리</w>
어제 저녁</w>
어린이 집</w>
어 물</w>
얄 밉</w>
약 진</w>
약 수</w>
약 소
야 회</w>
야 유</w>
야 영</w>
야 식</w>
야 만적</w>
야 들
야 금</w>
애 프터
애 들</w>
앞 집</w>
알록달록 한</w>
앉 아</w>
안내 자</w>
안 티
안 도</w>
안 간</w>
악 당들</w>
아프리 카
아프 간</w>
아파 트
아 테
아 카
아 찔</w>
아 주
아 유</w>
아 바
아 량</w>
아 늑</w>
씻 기</w>
쏘 아
썩 히</w>
십 자</w>
십 시</w>
심 판
심 쩍</w>
심 령</w>
실 력
신체 검사</w>
신용 장</w>
신선 도</w>
신경 전</w>
신 예</w>
신 사
식사 량</w>
식 용
식 목
시행 착오</w>
시트 콤</w>
시작 해</w>
시아오 쟝</w>
시 티</w>
시 면서</w>
시 다니</w>
승강 기</w>
승 하</w>
슬 로
스티 커</w>
스트 랩</w>
스탠 드</w>
스타 킹</w>
스 한</w>
숭 숭하</w>
숭 례
숭례 문</w>
숨 통</w>
술 기운</w>
숙 식</w>
숙 박
수줍 음</w>
수준 급</w>
수레 바퀴</w>
수 호
수 혈</w>
수 억</w>
수 무책</w>
수 면
수 매
수 련
수 렁</w>
속 수무책</w>
속 눈썹</w>
소식 통</w>
소방 차</w>
소 화해</w>
소 행</w>
셨 는지</w>
션 젼</w>
섹시 함</w>
세상 일</w>
세계 인</w>
세 세한</w>
성 탄절</w>
성 실성</w>
성 수</w>
성 년</w>
성 경</w>
섬 유
설계 도</w>
설 한</w>
설 익</w>
선발 대회</w>
선 호
선 제</w>
선 산</w>
석 탄
서 주</w>
서 장</w>
서 슴
서 사</w>
생활 화</w>
생활 수준</w>
생일 날</w>
생 업</w>
샌 드
색 출</w>
새 댁</w>
상대 국</w>
상 황
상 선</w>
상 무</w>
상 경</w>
상 감</w>
산간 지역</w>
산 정</w>
삭 발</w>
사진 관</w>
사자 성어</w>
사업 장</w>
사고 력</w>
사 포</w>
사 탕
사 채</w>
사 운드</w>
사 부님</w>
사 대</w>
사 나
사 겸사</w>
뿌 듯</w>
뼈 대</w>
뻐 기</w>
빼 곡히</w>
빗 기</w>
빌 미</w>
비아 냥
비아냥 거리</w>
비닐 하우스</w>
비눗 물</w>
비 평
비 쩍</w>
비 옷</w>
불 쾌
불 장난</w>
불 분명</w>
불 분명
불 도
불 굴</w>
분 해</w>
분 자</w>
분 업</w>
분 리
부부 간</w>
부 정확</w>
부 르르</w>
볼 펜</w>
본 연</w>
복잡 한</w>
보좌 관</w>
보 온</w>
보 상
별 안간</w>
벽 돌
법 정
범 주</w>
범 절</w>
번 득
번득 이</w>
버 전</w>
버 스
버 섯
백 지
백 양
백 과
배 당
방사 능</w>
방 파제</w>
방 아
발 의</w>
발 간</w>
반 평생</w>
반 부</w>
반 등
박사 과정</w>
바 라지</w>
민간 인</w>
미끄 럼</w>
미국 산</w>
미 혼</w>
미 온
미 역</w>
미 심쩍</w>
미 션</w>
뭘 까</w>
뭉클 하</w>
뭉 개</w>
문 서
무 형</w>
무 찌르</w>
무 정</w>
무 심</w>
무 공해</w>
무 감각</w>
몽 골</w>
못 지</w>
몸 속</w>
몸 놀림</w>
몸 값</w>
모 한</w>
모 토</w>
모 태</w>
모 바
모 가지</w>
명 세서</w>
명 맥</w>
명 감</w>
면세 점</w>
메 커니즘</w>
메 달
먹 지</w>
맨체 스터</w>
매 듭
매 개체</w>
맞춤 법</w>
맞 닥뜨리</w>
망 명</w>
말씀 하시</w>
만 이라도</w>
막 후</w>
마침 맞</w>
마이 크로
마 파
마 사</w>
마 늘
립 온</w>
립 스틱</w>
리 어
리 안</w>
리 니</w>
룻 배</w>
룩 거리</w>
로 션</w>
로 까지</w>
려 니와</w>
뜬 소문</w>
디 저트</w>
등 분</w>
들러 리</w>
드라이 브</w>
뒷 맛</w>
뒷 골목</w>
두 서
두 목</w>
두 둑</w>
동 학</w>
동 원해</w>
동 원
동 아시아</w>
동 계</w>
돋 아나</w>
독 사</w>
독 려</w>
도화 지</w>
도 전자</w>
도 사</w>
대추 나무</w>
대처 하기</w>
대 피</w>
대 폭적</w>
대 인
대 의</w>
대 소</w>
대 령</w>
대 기록</w>
대 군</w>
당 뇨</w>
답 습</w>
달라 붙어</w>
달 이</w>
단체 전</w>
단 원들</w>
단 비</w>
단 란</w>
다이 빙</w>
다음 번</w>
다수 결</w>
다리 미
다람 쥐</w>
다 락
다 독
다 나</w>
다 국적</w>
다 각
뉴 욕
눈 썰
눈 병</w>
눈 꽃</w>
눈 꺼풀</w>
누이 동생</w>
뇌 물
높 낮
높낮 이</w>
농사 꾼</w>
농 수산물</w>
농 간</w>
논의 하기</w>
노릇 하</w>
노 처녀</w>
노 신</w>
년 여</w>
넘쳐흐 른다</w>
냉 기</w>
내용 물</w>
내 젓</w>
내 재</w>
내 몰</w>
낱 말</w>
낱 개</w>
납 세자</w>
남 하</w>
남 산</w>
남 대문</w>
낟 알</w>
난 초</w>
난 징
난 데
낙 양</w>
나이 지리아</w>
나무 꾼</w>
끊 이질</w>
끈 거리</w>
끄떡 없</w>
꾹 꾹</w>
꾸 물
꽃 봉오리</w>
꼬 투리</w>
깨끗 해지</w>
깜빡 이</w>
기관 들</w>
기 저귀</w>
기 와
기 세
기 쁨</w>
기 다랗</w>
기 껏</w>
급 파</w>
근질 근질
근무 제</w>
근 이</w>
근 년</w>
근 근이</w>
극 명</w>
그럴 싸하</w>
그래 픽</w>
그 저께</w>
그 르르</w>
그 득</w>
귓 전</w>
귀 염
귀 금속</w>
군 벌</w>
국가 원수</w>
국 무</w>
구조 되</w>
구김 살</w>
구경 꾼</w>
구 정
구 원
광복 절</w>
광 우병</w>
광 범</w>
광 대한</w>
관광 버스</w>
관 측
관 제</w>
관 제
과학 기술
과일 나무</w>
과 분</w>
과 금</w>
공청 회</w>
공직 자들</w>
공산 품</w>
공모 전</w>
공공 연히</w>
공 항
공 신</w>
공 산</w>
공 법</w>
공 민</w>
공 문서</w>
곤두박 질치</w>
곤 증</w>
곡 예</w>
고향 집</w>
고 의적</w>
고 명</w>
계획 도</w>
계 세요</w>
경쟁 사</w>
경 이</w>
경 연</w>
경 공업</w>
겸허 한</w>
겸 사겸사</w>
결혼 식장</w>
격 정</w>
걸 출</w>
건 히</w>
거뜬 히</w>
거 인</w>
거 만한</w>
거 구</w>
갸 우
개 각</w>
강 화
강 요
강 습
강 박
감독 관</w>
갈 채</w>
갈 라지</w>
간 장
간 사</w>
각 시</w>
각 급</w>
각 계
가물 가
가물가 물하</w>
가난 뱅이</w>
가 이
가 사
가 르
가 련</w>
가 관</w>
7 억</w>
6 3
500 명</w>
50 원</w>
5 호</w>
3 가지</w>
2 조</w>
2 분</w>
18 0
17 세</w>
100 위</w>
10 원</w>
1 주</w>
1 점</w>
1 순위</w>
1 달러</w>
1 8</w>
힘 없</w>
흥 망</w>
흡 족</w>
휴 전</w>
휘 둥
휘 둘리</w>
훈련 소</w>
후 비</w>
후 계
회의 적</w>
회원 국</w>
회 생</w>
황금 빛</w>
황 야</w>
환 자
환 원</w>
확 실성</w>
화물 연대</w>
화 질</w>
화 염</w>
홀 딱</w>
혼 합
혼 동</w>
호 텔
호 송</w>
협 조적</w>
혈 색</w>
혈 기</w>
현 저한</w>
헐떡 이</w>
허우 적거리</w>
허 심
허심 탄
허심탄 회</w>
허 무
향 토</w>
향 성</w>
향 락</w>
행 사
해 진다</w>
해 수</w>
해 상
해 바라
합의 가</w>
합 창</w>
한 시름</w>
한 라
학 연</w>
하숙 집</w>
하늘 나라</w>
하나 님
하 이라
하이라 이트</w>
하 계</w>
핏 발</w>
필 히</w>
필 승</w>
피 시방</w>
플 러
플러 그</w>
풍 화</w>
품 팔이</w>
푼 돈</w>
표준 화</w>
폭 탄
포스트 시즌</w>
포르투 갈</w>
포 획</w>
포 털
포털 사이트</w>
포 지
포 들</w>
폐 합</w>
평화 로운</w>
평준 화</w>
평론 가</w>
편 법</w>
펜 스</w>
퍼 포
패 물</w>
팔 팔</w>
파트 너
틈틈 이</w>
특 종</w>
트 랙
트랙 터</w>
투 병</w>
퇴 짜</w>
퇴 진</w>
퇴 근길</w>
통화 팽창</w>
통치 자</w>
통 속
토 박이</w>
터 치
터 들</w>
탑 재</w>
탈 고</w>
타 워</w>
타 성</w>
타 산</w>
타 기</w>
클래 식한</w>
큰 코
쿠 폰</w>
콤 플렉스</w>
콘 셉
칼 집</w>
칼 라
카 트</w>
친 밀
친 다</w>
치 맛
취임 식</w>
충 혈</w>
충 전
충 만한</w>
출 하시</w>
추켜 세우</w>
최 전방</w>
최 적</w>
촉 진
촉 망</w>
초 보자</w>
초 병</w>
초 대형</w>
쳐 서</w>
체류 자</w>
체계 화</w>
체 지방</w>
청 취</w>
청 취
청 부</w>
첫 머리</w>
첩 보</w>
첨 예</w>
철 학적</w>
철 이</w>
천진 난
천 주교</w>
척 박한</w>
처 녀
채 무
찾아 뵈</w>
창 자</w>
참 모</w>
참 말</w>
참 뜻</w>
찬 양</w>
착 착</w>
차 분히</w>
찢 기</w>
쯧 쯧</w>
짱 하</w>
짝 꿍</w>
집 약</w>
집 사람</w>
질 식</w>
질 거리</w>
진열 장</w>
진 압
진 담</w>
진 군</w>
직 한</w>
지도 해</w>
지도 층</w>
지도 력</w>
지긋 지
지긋지 긋하</w>
지 향적</w>
지 진
지 병</w>
지 론</w>
지 렁이</w>
증 설</w>
증 감</w>
중요 한</w>
중심 지</w>
중 개인</w>
주택 가</w>
주인 집</w>
주의 하시</w>
주의 보</w>
주 해</w>
주 최
주 문서</w>
주 걱</w>
종 종
종 부
좁 쌀</w>
족 적</w>
조카 들</w>
조 화
조 조</w>
조 례</w>
조 교</w>
젯 거리</w>
젤 리</w>
제철 소</w>
제1 회</w>
제 명</w>
제 곱</w>
제 4
정리 해</w>
정 평</w>
정 탐</w>
정 처</w>
절 대
전동 차</w>
전 파
전 조</w>
전 전</w>
전 매</w>
전 근</w>
적재 량</w>
적 적</w>
적 재</w>
저 장
저 임금</w>
쟁탈 전</w>
재정 난</w>
재미 나</w>
재래 식</w>
재래 시장</w>
재 회</w>
재 화</w>
재 테크</w>
재 탕</w>
잦 아들
장 이</w>
장 바구니</w>
장 가가</w>
잡 화점</w>
잡 념</w>
잘 살</w>
자유 분
자원 봉사자</w>
자 칭</w>
자 청</w>
자 꾸
임대 료</w>
일 평생</w>
일 탈</w>
일 출</w>
일 축</w>
일 자
일 본인</w>
일 면</w>
일 간지</w>
인솔 하</w>
인사 청문회</w>
인도네 시아</w>
인내 력</w>
인공 호흡</w>
인 함</w>
인 칭</w>
인 원수</w>
인 식
인 문학</w>
인 과
이웃 들</w>
이용 자</w>
이산 가족</w>
이 태</w>
이 장</w>
이 승</w>
이 색적</w>
이 듬
이듬 해</w>
이 긴</w>
이 글
이 국적</w>
의미 심장</w>
의 제</w>
의 욕적</w>
의 롭</w>
의 례적</w>
응 원단</w>
음란 물</w>
음 험</w>
음 향
음 성
을 걸</w>
육 안</w>
육 식</w>
유흥 가</w>
유럽 연합</w>
유 해
유 창한</w>
유 정</w>
유 역</w>
유 선
유 기적</w>
위 암</w>
위 법
위 령
월 드</w>
월 간</w>
원 색</w>
웃음 꽃</w>
웃 통</w>
운전 자들</w>
운동 가들</w>
운 하</w>
우쭐 거리</w>
우 즈</w>
우 주인</w>
우 악</w>
우 러
우 량
우 드</w>
용 산</w>
욕 지거리</w>
요 절</w>
요 기</w>
외래 문화</w>
외 상
외 부
외 도</w>
왈 칵</w>
완 치</w>
와 중</w>
올 케</w>
온 실</w>
오존 층</w>
오리 들</w>
오 천</w>
오 아시
오아시 스</w>
오 름
예술 가들</w>
예 식장</w>
예 식</w>
예 순</w>
영 희</w>
영 해</w>
영 사</w>
영 민</w>
엽 기적</w>
열 화</w>
열 어
열 광적</w>
연합 회</w>
연령 층</w>
연구 진</w>
연구 원들</w>
연 평균</w>
연 패</w>
연 출자</w>
연 잎</w>
연 병장</w>
연 례</w>
역 학</w>
역 전승</w>
역 류</w>
여름 밤</w>
여 실히</w>
여 성적</w>
여 백</w>
여 력</w>
여 간
에세 이</w>
었 단다</w>
엄 호하</w>
엄 밀히</w>
억 양</w>
어지 간</w>
어야 겠습니다</w>
어서 ㄴ다</w>
어르 신네</w>
어렴 풋</w>
어 휴</w>
어 항</w>
어 필</w>
어 정
어 류</w>
어 가</w>
양자 강</w>
양 심
양 수</w>
양 보
얌 전히</w>
약 물
약 관</w>
야 산</w>
액 면</w>
애 정
앞 차</w>
앞 사람</w>
암 담</w>
알 약</w>
앉 은
앉 았다</w>
안전 벨트</w>
안전 모</w>
안 하
안 정감</w>
안 방
안 마</w>
악 행</w>
악 역</w>
아테 네</w>
아지 른</w>
아이 티</w>
아 채</w>
아 미
아 기
아 거든</w>
아 가리</w>
쓰 나미</w>
쓰 기</w>
쑥 날
쏘아 붙이</w>
쏘 다니</w>
싱 크
심 호흡</w>
심 술</w>
실 점</w>
실 례
실 랑이</w>
실 권</w>
실 감
신 참</w>
신 차</w>
신 작
신 의</w>
신 명</w>
신 망</w>
식물 성</w>
시험 관</w>
시시 비비</w>
시 안</w>
시 상</w>
시 드</w>
슬림 한</w>
슬 며시</w>
슬 립온</w>
스티 로
숫 제</w>
숨 김없이</w>
술 주정</w>
술 렁거리</w>
술 래</w>
순 번</w>
순 방</w>
순 발
순발 력</w>
순 리</w>
수학능력 시험</w>
수학 여행</w>
수 히</w>
수 행
수 채
수 자원</w>
수 일
수 유</w>
수 월
수 생</w>
수 사관</w>
수 박
수 매</w>
수 동적</w>
수 뇌
수 년간</w>
수 그러
수 갑</w>
쇄 도</w>
송 아지</w>
송 나라</w>
솜 털</w>
손 아귀</w>
속 어</w>
속 도
속 단</w>
소재 지</w>
소방 대원들</w>
소모 량</w>
소 화제</w>
소 절</w>
소 아
소 속
소 도시</w>
소 대장</w>
소 녀들</w>
소 금물</w>
세 입자</w>
세 인</w>
세 이
세 심한</w>
세 면
세 로
성악 가</w>
성 추
성 장기</w>
성 씨</w>
섰 다</w>
설 움</w>
설 상
설상 가상</w>
선 풍
선 정적</w>
석 학</w>
서류 들</w>
샴 푸</w>
생활 필수품</w>
생활 권</w>
생 후</w>
생 사람</w>
생 물체</w>
샐러 리
샌프란시스 코</w>
색 조</w>
새끼 줄</w>
상 이</w>
상 위권</w>
상 시</w>
상 속
삼각 형</w>
삼 오오</w>
삼 삼오오</w>
삼 국</w>
삼 국
살 해
산 화</w>
삭 막</w>
사회 문제</w>
사이 비</w>
사 임</w>
사 모</w>
사 력</w>
사 또</w>
사 교육비</w>
빵 빵
빗 줄기</w>
빈티 지한</w>
빈 혈</w>
빈 집</w>
빈 둥
비닐 봉지</w>
비 속</w>
비 보</w>
비 문</w>
비 도덕적</w>
비 공식</w>
불편 함</w>
불쌍 히</w>
불량 품</w>
불량 자</w>
불 식</w>
불 발</w>
분 주
분 야
북적 대</w>
북새 통</w>
부끄 럼</w>
부 조</w>
부 어
부 양
부 속</w>
부 설</w>
부 러지</w>
부 귀
부 결</w>
부 강</w>
봉사 활동</w>
본 색</w>
본 교</w>
복숭아 나무</w>
복 병</w>
보온 성</w>
보 행</w>
보 탬</w>
보 직</w>
보 아라</w>
병 증</w>
병 기</w>
별 거</w>
변 호</w>
법 질서</w>
범 법
벌 하</w>
벌 집</w>
벌 목</w>
번쩍 거리</w>
번뜩 이</w>
배낭 여행</w>
방울 방울</w>
방 해
방 어선</w>
방 사</w>
방 목</w>
밤 잠</w>
발 짝</w>
발 뺌</w>
발 명
발 기</w>
발 굴
반짝 하</w>
반 응
반 들</w>
반 값</w>
박수 갈채</w>
박 테리아</w>
박 살
바짓 가랑이</w>
바이 어</w>
바깥 세상</w>
바 르르</w>
바 꿈</w>
밑 줄</w>
밀리 미터</w>
밀 매</w>
민속 촌</w>
민 노
믹 스</w>
미술 계</w>
미 풍</w>
미 팅</w>
미 약</w>
미 생물</w>
미 덥</w>
믐 날</w>
물 렁
물 꼬</w>
문화 재
문화 권</w>
문 호</w>
문 어
문 방
문 맥</w>
묶 음</w>
무리 들</w>
무 협
무 침</w>
무 진
무 전기</w>
무 의식</w>
무 상급
무 마</w>
몽 매</w>
몸 조심</w>
몸 가짐</w>
목 공</w>
모색 해</w>
모 습
모 발</w>
명예 훼손</w>
명 장</w>
명 작</w>
명 당</w>
메 가
먹어 치웠다</w>
먹고 살기</w>
먹 자</w>
먹 는다</w>
머릿 결</w>
맹 랑</w>
매 질</w>
매 직</w>
매 미</w>
맞 잡</w>
맞 들</w>
망망 대해</w>
맘 껏</w>
말 갛</w>
만 성적</w>
만 반</w>
만 두
만 고</w>
막 염</w>
막 강</w>
마지 기</w>
마이 너
마땅 치</w>
마 기</w>
마 그
릴 라</w>
리얼 리티</w>
리 오</w>
름 돈</w>
루 미
론 자</w>
로 하고</w>
로 드
레이 더</w>
럭 거리</w>
러 치</w>
러 브</w>
러 닝
라 벨</w>
라 는데</w>
뜻 있</w>
뜨 렸다</w>
뚱 이</w>
떨어 졌다</w>
떠 받들</w>
등 기
들어올 렸다</w>
들어 앉</w>
들 쑥날
듣 자
득의 양양</w>
뒤 숭숭하</w>
두서 없</w>
두루 마기</w>
두 절</w>
두 둑
되 잖</w>
동양 인</w>
동 수</w>
동 사
동 댕
돌 출</w>
돌 발적</w>
돌 덩이</w>
독재 정권</w>
독 선적</w>
도 탄</w>
데 스크</w>
덜 커
더우 푸</w>
더 듬
댔 다</w>
댄 스
대중 화</w>
대중 가요</w>
대리 인</w>
대기 권</w>
대 여
대 양</w>
대 본</w>
대 법원장</w>
대 머리</w>
대 립
대 로만</w>
대 략적</w>
대 뇌</w>
대 구
당 분</w>
당 도</w>
담임 선생님</w>
닭 장</w>
달라 붙</w>
달 구
단 죄</w>
단 기적</w>
다리미 질</w>
다 보이</w>
다 문화</w>
다 던</w>
는 걸</w>
느끼 한</w>
눈 독</w>
눈 곱</w>
눈 가</w>
누 출</w>
누 룽
누 드</w>
누 님</w>
농 협</w>
논 박</w>
녹 초</w>
노벨 상</w>
노력 해</w>
노 총각</w>
노 신사</w>
노 리
네 모</w>
냉 이</w>
냉 방
내 추
내 왕</w>
내 디디</w>
남녀 평등</w>
남 향</w>
날 쌔</w>
난 성</w>
낙 조</w>
나 앉</w>
나 뒹굴</w>
끼어들 어</w>
꿈 쩍</w>
꿀 꺽</w>
꼬 마들</w>
깎 아지른</w>
깊 숙</w>
긴 급히</w>
기획 안</w>
기 회
기 탁</w>
기 척</w>
기 진맥
기 와</w>
기 별</w>
기 막히</w>
기 립</w>
기 근</w>
기 공</w>
금 실</w>
긁어 모으</w>
글 재주</w>
근 신</w>
극 소수</w>
그린 벨트</w>
그리 스
그 을</w>
그 만</w>
그 루
그 렁
그 랜드
그 랑
균 형
귀 향</w>
귀 중
귀 담</w>
귀 국
귀 결</w>
궤 양</w>
권 리
궁 합</w>
굵 직하</w>
국제 축구연맹</w>
국제 공항</w>
구조 물</w>
구 월</w>
구 매력</w>
구 만</w>
구 내
교통 비</w>
교 학</w>
괴 리</w>
괭 이</w>
관중 석</w>
관 할
관 식</w>
과 격</w>
곶 감</w>
공중 전화</w>
공정 거래
공장 들</w>
공예 품</w>
공산 주의</w>
공격 력</w>
공 판</w>
공 연
공 손히</w>
공 명
고위 직</w>
고려 청자</w>
고구 려</w>
고 품질</w>
고 정적</w>
고 성능</w>
고 백
고 뇌</w>
고 교
계산 서</w>
계산 대</w>
계 장</w>
경제 지표</w>
경 미한</w>
경 로
결단 력</w>
겨드 랑이</w>
게으름 뱅이</w>
게 을리</w>
게 시</w>
게 걸
검 문
걸음 마</w>
걸 쭉하</w>
건배 합시</w>
건 전성</w>
거스 름돈</w>
거 치
거 름</w>
개미 들</w>
개 척
개 찰
개 인기</w>
개 원</w>
개 업
강구 해서</w>
강 연회</w>
강 압</w>
강 박</w>
강 건</w>
감 옥살이</w>
감 방</w>
감 기약</w>
갉 아</w>
갈 대</w>
간 판
가까 이하</w>
가 이</w>
가 업</w>
가 련한</w>
列 车</w>
B A</w>
9 9
8 00
500 원</w>
50 개</w>
4 7
30 개</w>
3 차</w>
3 등</w>
3 6년</w>
20 15년</w>
2 6</w>
2 3</w>
199 2년</w>
14 명</w>
12 개</w>
11 개</w>
1 승</w>
1 무</w>
힌 트</w>
희끗 희끗
희 한</w>
희 석</w>
흘 러
흘 기</w>
흉 터</w>
휴 회</w>
휴 전선</w>
휘 황
휘 몰아치</w>
후계 자</w>
후 줄
후 문</w>
효 험</w>
횡 설
횡설 수
회 유</w>
황 송</w>
활 성
화산 재</w>
화 하기</w>
화 두</w>
홍 빛</w>
홀 쭉하</w>
혼수 상태</w>
혼 신</w>
호 탕</w>
호 출</w>
호 조</w>
호 루
호루 라</w>
호 두</w>
형제 간</w>
형 체</w>
혈 통</w>
헌 혈</w>
허 풍
허 튼</w>
허 탈</w>
허 송
허 무</w>
허 기지</w>
행 주</w>
행 간</w>
햄 버거</w>
해바라 기</w>
해 당
항 행</w>
항 하</w>
항 일
항 간</w>
합의 서</w>
합 법
함 양</w>
함 대</w>
할인 점</w>
한라 산</w>
한국 말</w>
한 푼</w>
한 판</w>
한 족</w>
한 술</w>
한 길</w>
학술 적</w>
학생 증</w>
학 수
학수 고대</w>
하늘 색</w>
하나 만</w>
하 향</w>
하 청</w>
하 위</w>
하 원</w>
하 역</w>
하 버드
하 는가</w>
하 객들</w>
피부 색</w>
피 라
플랫 폼</w>
플 로
풍 미</w>
풍 문</w>
풍 모</w>
풋 내기</w>
품 속</w>
폭발 물</w>
포 악</w>
포 스코</w>
포 동포
평 탄한</w>
평 창</w>
평 점</w>
평 방
편리 해지</w>
패 망</w>
패 권</w>
팡 하</w>
팔 십</w>
판매 점</w>
판 촉</w>
판 국</w>
파트너 십</w>
파 트</w>
파 키스탄</w>
파 오</w>
티 베트</w>
특 출</w>
트렌 디한</w>
트레이 닝</w>
투자 가</w>
투 족</w>
투 옥</w>
투 숙</w>
퇴직 금</w>
통 통</w>
통 일부</w>
통 상
통 나</w>
토 라
태 환</w>
탈 환</w>
탄력 성</w>
타 월</w>
클 라
큐 어</w>
코디 하</w>
코 르
칸 막이</w>
칭 다오</w>
칠 흑</w>
칠 월</w>
칠 순</w>
칠 맛</w>
친 환경적</w>
친 일</w>
친 밀한</w>
치락 뒤치
치 지</w>
취 사</w>
취 사
충 신</w>
출연 진</w>
출 입
출 고</w>
축구 경기</w>
추 후</w>
추 징</w>
추 기
추 가
총 각
촌 장</w>
초록 빛</w>
초 판</w>
초 청장</w>
초 여름</w>
초 석</w>
초 기</w>
초 가</w>
쳐 부수</w>
체 력
체 념</w>
청취 자</w>
철 통</w>
철 없</w>
천 억</w>
천 생</w>
천 년
처 절</w>
챔피 언
책 감</w>
창 틀</w>
참관 했다</w>
참 나무</w>
착 점</w>
착 상</w>
차례 차례</w>
차 종</w>
차 고</w>
쭉 날
쩨쩨 하</w>
징 역
징 발</w>
질 나</w>
진행 자</w>
진퇴 양
진퇴양 난</w>
진료 소</w>
진 통제</w>
진 지
진 의</w>
진 실성</w>
진 득</w>
직 행</w>
직 자들</w>
지지 자들</w>
지원 서</w>
지방 정부</w>
지 엽
지엽 적</w>
지 불
지 망</w>
지 마</w>
증 여</w>
쥐 새끼</w>
쥐 꼬리</w>
중심 부</w>
중상 모략</w>
중국 집</w>
중 형</w>
중 책</w>
중 용</w>
중 부</w>
중 독
줏 대</w>
죽 죽</w>
주인 공들</w>
주 전
주 무</w>
주 말
주 량</w>
주 견</w>
죄송 합니다만</w>
좌 익</w>
좌 왕</w>
종 횡</w>
종 용</w>
종 신
종 말</w>
졸 졸</w>
졸 렬</w>
족 자</w>
조직 력</w>
조심 하시</w>
조사 할</w>
조리 사</w>
조류 독감</w>
조각 품</w>
조 종사</w>
조 제</w>
조 롱
조 기
제작 자</w>
제곱 미터</w>
제 지</w>
제 약하</w>
제 비
제 반</w>
제 단</w>
제 고</w>
제 3</w>
젖 먹이</w>
정치 자금</w>
정치 권력</w>
정의 감</w>
정보 기술</w>
정 함</w>
정 통한</w>
정 통
정 초</w>
정 찰</w>
정 월
정 렬</w>
정 년
정 글</w>
젓 갈</w>
점 유</w>
절 미</w>
절 교</w>
절 경</w>
전투 력</w>
전지 훈련</w>
전문 직</w>
전교 생</w>
전 환점</w>
전 폭적</w>
전 체
전 우들</w>
전 업</w>
전 세금</w>
전 성
전 봇
전봇 대</w>
전 말</w>
전 람
적 절한</w>
적 임자</w>
적 응
저녁 식사</w>
저 축
저 소득층</w>
저 래</w>
저 금리</w>
잽 싸</w>
재활 용품</w>
재산 세</w>
재난 지역</w>
재 활</w>
재 적</w>
재 기</w>
재 계약</w>
장 관
잡 일</w>
잡 동사
잠잠 해지</w>
잠 복
잔 액</w>
잔 금</w>
작업 실</w>
작 달
자이 툰</w>
자원 부</w>
자원 봉사</w>
자 화
자 판기</w>
자 족</w>
자 의적</w>
자 성</w>
자 서
입 출금</w>
입 상</w>
입 당</w>
입 단</w>
임상 시험</w>
일거 수일
일거수일 투족</w>
일 생
일 동</w>
인 지도</w>
인 장</w>
이익 만</w>
이야기 해</w>
이름 표</w>
이 화</w>
이 태
이 체</w>
이 천</w>
이 염</w>
이 북</w>
이 루
이 국</w>
의식 중</w>
의무 화</w>
의료 비</w>
의 심
의 론</w>
의 대</w>
의 껏</w>
응석 받이</w>
응급 조치</w>
음 파</w>
음 모
은 히</w>
은 은히</w>
은 망
으로 까지</w>
으 셨습니다</w>
으 르
융 통</w>
융 성</w>
유통 업체</w>
유격 대</w>
유 한</w>
유 채
유 제</w>
유 괴</w>
유 골</w>
유 가
위풍 당당</w>
위치 해</w>
위 선적</w>
웬 만큼</w>
웨딩 드레스</w>
월 등</w>
월 동</w>
원 석</w>
원 고지</w>
워 킹</w>
웅 변
우체 부</w>
우주 여행</w>
우유 부
우 후
우 호
우 한</w>
우 측</w>
우 왕
우왕 좌왕</w>
우 거지</w>
요 타</w>
요 식
요 사이</w>
요 량</w>
요 동
외동 딸</w>
외 할아버지</w>
외 제</w>
외 식
왕 위</w>
왕 궁</w>
완 쾌</w>
옹 졸
올 빼
올 가을</w>
오름 세</w>
오락 가
오락가 락하</w>
오 프
오 스트
오 공</w>
오 곡
옛 적</w>
옛 사람들</w>
옐 로
예의 범절</w>
예 우</w>
예 외적</w>
예 언
예 금
영 세</w>
영 세
열 사들</w>
열 대
열 다섯</w>
연장 자</w>
연 착</w>
연 수</w>
연 분</w>
연 방
연 대
연 관성</w>
여행 길</w>
여 하</w>
에 베
에베 레
엎질 러
엎 치락뒤치
었 겠는가</w>
업 주</w>
엄지 공주</w>
엄 지</w>
엄 정</w>
엄 동
얼토당 토
얼떨 떨
얼떨떨 하</w>
얼굴 색</w>
언 변</w>
어찌 되</w>
어수 룩</w>
어림 잡</w>
어떨 까요</w>
어둑 하</w>
어 학
어 여
어 스
양해 각서</w>
양도 소득세</w>
양념 장</w>
양 편</w>
양 다리</w>
양 궁</w>
약 력</w>
야 채
애 환</w>
애 처</w>
애 용</w>
애 로</w>
애 국가</w>
애 교</w>
애 견</w>
앞 자리</w>
았 었다</w>
압 감</w>
암 컷</w>
알 알
알 력</w>
안하 무
안 점</w>
안 무</w>
안 면
악 질</w>
악 비</w>
악 대</w>
아프 가
아프가 니스
아침 밥</w>
아시아 인</w>
아르 바이
아르바이 트
아랫 사람들</w>
아라 비아</w>
아 아다</w>
아 떨어지</w>
아 냐</w>
아 날
아 교</w>
씩 씩
씩씩 거리</w>
십 년</w>
심리 학</w>
심 층</w>
심 장부</w>
실 형</w>
실 물
신작 로</w>
신비 감</w>
신 학기</w>
신 붓
신 년
신 기한</w>
신 기
시험 공부</w>
시큰 거리</w>
시커 멓</w>
시원 히</w>
시원 스레</w>
시들 해지</w>
시간 문제</w>
시 치미</w>
시 책</w>
시 중들</w>
시 외</w>
시 샘</w>
시 사회</w>
시 부모님</w>
시 디</w>
시 되</w>
시 는지</w>
시 녀</w>
시 고요</w>
시 각적</w>
시 ㄴ들</w>
승 화</w>
승 점</w>
슴 벅
슬 비</w>
스티로 폼</w>
스크 래
스크래 치</w>
스카우 트</w>
스 팸</w>
스 파
스 스
스스 럼
쉽 사리</w>
술 한</w>
술 값</w>
순 화</w>
순 시</w>
순 경</w>
수출 액</w>
수재 민</w>
수요 자</w>
수수 방관</w>
수 해서</w>
수 해
수 컷</w>
수 칙</w>
수 천만</w>
수 전</w>
수 발</w>
수 류
수류 탄</w>
수 다
수 급
솜 옷</w>
손 익</w>
손 오공</w>
속 설</w>
속 사정</w>
속 공</w>
소장 품</w>
소장 가치</w>
소수 민족</w>
소 중함</w>
소 소한</w>
셔 널</w>
셋 집</w>
세대 교체</w>
세 종</w>
세 세히</w>
세 라
성취 감</w>
성과 급</w>
성 하기</w>
성 폭행</w>
성 찬</w>
성 의껏</w>
성 실
성 병</w>
설 해서</w>
설 수</w>
설 립
설 들</w>
선풍 적</w>
선발 대</w>
선거 전</w>
선 후배</w>
선 은</w>
선 언
선 선</w>
선 불</w>
석사 학위</w>
서 술
서 막</w>
서 니</w>
생활 상</w>
생산 물</w>
생 시</w>
샛 별</w>
새끼 손가락</w>
새 콤
상 회</w>
상 체</w>
상 처
상 전</w>
상 연</w>
상 납
삼 백</w>
살 상
살 구
산 하
산 책
산 소
산 세</w>
산 발적</w>
사진 첩</w>
사용 해서</w>
사건 들</w>
사 재</w>
사 월</w>
사 물놀이</w>
사 대
사 그
사그 라지</w>
뼛 속</w>
뻘 뻘</w>
빨 강</w>
빠 트리</w>
빙 수</w>
빙 산</w>
빙 글</w>
빌 어먹</w>
빌 딩
빈 들</w>
빈 궁</w>
비상 시</w>
비뚤 어지</w>
비 비
비 늘</w>
비 끼</w>
비 과학적</w>
브 라</w>
불 후</w>
불 운</w>
불 요
불 완전</w>
불 구속</w>
분주 히</w>
분야 별</w>
분 필</w>
분 발
부상 자들</w>
부 품</w>
부 랑
부 당
봉 양</w>
봉 급
볼 품
볼 트</w>
본 위</w>
복잡 해서</w>
복 음</w>
복 역</w>
복 사기</w>
복 고</w>
보편 성</w>
보관 해</w>
보관 소</w>
보 풀</w>
보 완
보 옥</w>
보 스</w>
병 폐</w>
병 치레</w>
병 자</w>
병 역
병 신</w>
병 석</w>
병 문안</w>
변 장</w>
벽 난로</w>
벼락 치</w>
베이징 시</w>
베 를
법 제</w>
법 인세</w>
법 상</w>
벌 렁</w>
번 드
번드 르르하</w>
백양 나무</w>
백 화
백 두산</w>
배 은망
밭 일</w>
방법 론</w>
밥 통</w>
발표 회</w>
발 족</w>
발 양</w>
발 소리</w>
발 머리</w>
발 대
받아 쓰</w>
반찬 거리</w>
반 사
박 해서</w>
박 주
바그다 드</w>
밑 머리</w>
민노 당</w>
민 가</w>
미온 적</w>
미리 미리</w>
미끄 럼
미 어지</w>
미 수</w>
미 끈하</w>
뭔 데</w>
물어 뜯</w>
물 화</w>
물 줄기</w>
물 불</w>
물 리학</w>
문학 상</w>
문방 구</w>
문 어</w>
문 병</w>
문 간</w>
무상급 식</w>
무상 보육</w>
무 의식중</w>
무 수히</w>
무 모한</w>
무 도회</w>
몽 상</w>
몸 통</w>
몸 짱</w>
몸 담</w>
목 전</w>
목 적
모터 쇼</w>
모 지</w>
모 욕
모 란</w>
모 공</w>
명 기</w>
면 바지</w>
멜 대</w>
메뚜 기</w>
메 이트</w>
멍 들</w>
멋 쟁이</w>
머리 핀</w>
머 나
머나 멀</w>
맹 활약</w>
매장 량</w>
매듭 짓</w>
매니 큐어</w>
매 트</w>
매 일
매 상</w>
매 립
매 끈
매 개
맞춤 형</w>
망 증</w>
말 썽
말 버릇</w>
만큼 의</w>
만 화가</w>
만 취</w>
만 주</w>
만 면</w>
만 리</w>
막 차</w>
막 상
마르 크스</w>
마감 일</w>
마 운드</w>
마 스터
마 무리
마 마</w>
리 터</w>
리 스크</w>
리 룩</w>
르 릉</w>
르 네
르네 상
로 되
로되 이</w>
로 그
레 인지</w>
레 깅
러 져</w>
락 서니</w>
라 야</w>
뜯어 고치</w>
뜯 기</w>
땡 볕</w>
땡 땡
때 쯤</w>
딸 애</w>
딴 소리</w>
딱 딱</w>
따 끈</w>
디 즈
디 스
듬성듬 성</w>
들 통나</w>
들 쭉날
들 썩</w>
들 고
든 든
득 하</w>
드라 이</w>
드 림
드 라지</w>
뒷 자리</w>
뒷 머리</w>
뒷 말</w>
뒤치 다꺼리</w>
뒤 적거리</w>
둔 화</w>
두 레
되 묻</w>
되 돌아
동 서양</w>
동 분
돌 다리</w>
도 와
도 드라지</w>
도 나</w>
도 가
데이 터
덧 없이</w>
덤 덤</w>
덕 수
덕 성</w>
더 워지</w>
더 냐</w>
더 군
대인 관계</w>
대 해서</w>
대 책
대 성
대 량
대 국적</w>
당 혹</w>
당 차</w>
당 연
당 사</w>
당 면한</w>
담 합</w>
담 수</w>
달라 붙
단말 기</w>
단 결
다 분히</w>
능 숙한</w>
눈물 겹</w>
눈 웃음</w>
누 굴</w>
농사 짓</w>
농 악</w>
논 거</w>
녹 록
노점 상</w>
노른 자</w>
노 획</w>
노 숙
노 랑</w>
노 곤</w>
년 회</w>
너 클
너 저분</w>
냉동 실</w>
냉 엄</w>
내 분</w>
내 복</w>
남 방
남 미</w>
날 치</w>
난 항</w>
난 장판</w>
낚 아채</w>
낙 태</w>
나풀 나풀</w>
나 룻배</w>
나 락</w>
끌 려다
꿋꿋 이</w>
꿀 맛</w>
꼭 두
꼬 락서니</w>
깐 깐
까 칠</w>
까 진</w>
김 씨</w>
기진맥 진</w>
기적 적</w>
기세 등등</w>
기성 세대</w>
기능 성</w>
기념 우표</w>
기 종</w>
기 인</w>
기 어들
급 작</w>
금 연
글썽 이</w>
글 맞</w>
극 력</w>
그림 책</w>
그리 도</w>
그 믐날</w>
균 일</w>
귀중 품</w>
귀 밑머리</w>
굴 절</w>
굴 곡</w>
군 용</w>
군 비</w>
군 부대</w>
국회의 원들</w>
국민 경제</w>
국무 회의</w>
국 세</w>
국 보급</w>
국 도</w>
구호 물자</w>
구 혼</w>
구 형</w>
구 직</w>
구 입
구 술</w>
구 설수</w>
구 부러지</w>
구 류</w>
교묘 히</w>
교 편</w>
교 장선생님</w>
괴 한</w>
괴 팍
괴 물</w>
광 부</w>
광 대
관리 인</w>
관 전</w>
관 원</w>
관 상
관 공
관공 서</w>
과일 들</w>
과 수</w>
공중 도덕</w>
공사 비</w>
공 덕</w>
공 감
공 간
곯 아떨어지</w>
골 퍼</w>
골 자</w>
골 수</w>
골 든</w>
고위 층</w>
고속 버스</w>
고기 잡이</w>
고 해</w>
고 우</w>
고 양</w>
고 만하</w>
고 료</w>
고 꾸라지</w>
계 집</w>
경찰 차</w>
경제 부</w>
경영 난</w>
경 합</w>
경 매
결 하</w>
결 에</w>
격 한</w>
겨울 올림픽</w>
게을 리하</w>
겉 핥
것 들
검 경</w>
걸 그룹</w>
건달 들</w>
건강 하시</w>
건 망증</w>
거치 적거리</w>
거리 낌</w>
거 하</w>
거 지
거 미</w>
거 문고</w>
객 관성</w>
객 관</w>
개울 물</w>
개발 도상국</w>
개 회</w>
강경 파</w>
강 적</w>
강 아
강 성</w>
강 령</w>
갑작 스레</w>
감 칠맛</w>
감 수해</w>
감 명</w>
감 량</w>
감 들</w>
감 금</w>
감 격적</w>
감 개
갈팡질 팡하</w>
간 이
간 고</w>
각계 각층</w>
각 하</w>
가려 운</w>
가까 이
가계 부</w>
가 정부</w>
가 재</w>
가 무</w>
가 름</w>
가 래</w>
가 곡</w>
ㄴ다 던</w>
9 00
8 억</w>
6 5
6 0년대</w>
5 대</w>
5 ,000</w>
4 층</w>
4 시간</w>
30 억</w>
3 5</w>
3 3
200 원</w>
20 원</w>
20 억</w>
2 4</w>
199 4년</w>
18 년</w>
15 세</w>
15 명</w>
15 00
13 명</w>
11 명</w>
10 초</w>
10 미터</w>
10 개월</w>
1 호</w>
1 가구</w>
1 4</w>
힘 차
힘차 게</w>
힘 주</w>
히 트</w>
희망 적</w>
희끗희끗 하</w>
희 색</w>
흥미 로운</w>
흥 청거리</w>
흥 망
흥망 성쇠</w>
흑 인</w>
흐지 부지
휘 영
휘영 청</w>
휑 하</w>
훈련 병들</w>
후 원
후 루
후 덥
후덥 지근하</w>
횡설수 설</w>
횡 재</w>
회사 측</w>
회계 사</w>
회 초리</w>
회 신</w>
회 사원</w>
환 희</w>
확 답</w>
화 환</w>
화 자</w>
화 법</w>
화 백</w>
화 랑</w>
화 가들</w>
혼 전</w>
혹 행위</w>
형 형
혓 바닥</w>
현실 주의</w>
현 존</w>
험 악</w>
허위 사실</w>
허무 맹랑</w>
향 진</w>
행 범</w>
행 방불
해적 판</w>
해 직</w>
해 임</w>
해 일</w>
해 설
해 부</w>
해 묵</w>
항 저우</w>
항 렬</w>
합 리성</w>
합 니</w>
할 말</w>
한국 대사관</w>
한국 군</w>
한 턱
한 심</w>
한 걸음</w>
학술 지</w>
학생 회</w>
학 자금</w>
학 업
학 번</w>
학 력
학 들</w>
하이 힐</w>
하드 웨어</w>
하나 둘</w>
하 키</w>
하 에</w>
하 소</w>
하 부</w>
하 겠
핑 크
핏 감</w>
필기 시험</w>
필 코</w>
필 생</w>
피해 액</w>
피 랍</w>
프린 팅</w>
프로 농구</w>
프라이 팬</w>
풍 자한</w>
풍 자적</w>
푸 릇
폴 레
폭 주</w>
포 성</w>
포 기
포 개</w>
폐 업</w>
평론 가들</w>
평 이한</w>
평 범
평 년</w>
페 이</w>
페 미
펌 프</w>
펀 지</w>
퍼포 먼
퍼 뜩</w>
팬 클럽</w>
팔 순</w>
판매 기</w>
판 촉
판 길</w>
파 스텔</w>
파 견
파 격</w>
티 엔
티 드</w>
특정 인</w>
특별 법</w>
특 산물</w>
특 사</w>
특 급
특 근</w>
트 위
트 륨</w>
투표 율</w>
투표 권</w>
투 합</w>
퇴 임</w>
통 폐합</w>
통 찰</w>
통 솔
토론 자</w>
토 스트</w>
토 벤</w>
토 끼
텍 스트</w>
테 마</w>
털어 놨다</w>
털 실</w>
태 반</w>
태 만</w>
탑 승
탐 정
탄 창</w>
탁 아
타 이트</w>
타 원형</w>
타 박</w>
큼 지막</w>
큰코 다치</w>
큰 딸</w>
크리 스
큐 빅</w>
콸 콸</w>
콩 나물
콧 날</w>
콜레 스테
콜레스테 롤</w>
콘 센트</w>
코 칭
코 드
케 어
컴퓨 팅</w>
컴퓨 터
컬 레이터</w>
컨트 롤</w>
커 들</w>
캐주얼 한</w>
카디 건</w>
침 통</w>
친 정
친 선
친 목
친 근한</w>
치료 비</w>
층 집</w>
취 급
충 동
출연 자</w>
출발 선</w>
출 항</w>
출 출</w>
출 장
출 입문</w>
출 석
출 두</w>
출 근길</w>
추기 경</w>
추 장</w>
추 앙</w>
추 스
추스 르</w>
추 대</w>
최루 탄</w>
최고 위원</w>
최 면</w>
총 총
총 무과</w>
촘촘 히</w>
촌 티</w>
촉 촉</w>
초 가을</w>
첼 시</w>
체 크
청소 기</w>
청 사진</w>
첩 자</w>
천진난 만</w>
천 문
척 박</w>
책 방</w>
찾아뵙 고</w>
찻 주전자</w>
찻 간</w>
참 전</w>
차려입 고</w>
차려 입</w>
차관 보</w>
차 액</w>
찡 하</w>
찜 통</w>
쭉 한</w>
쭈글 쭈글
쭈 그러
쪽 빛</w>
쪼글 쪼글
쨍 쨍</w>
짜 임</w>
짜 여
짓 밟히</w>
집 채</w>
집 요한</w>
진 탕</w>
진 지한</w>
직 통</w>
직 원
직 능</w>
직 경</w>
지우 지</w>
지배 층</w>
지 혈</w>
지 질
지 중해</w>
지 인</w>
지 아</w>
지 심</w>
지 망
지 략</w>
증권 사</w>
증거 물</w>
즉 위</w>
쥐 약</w>
쥐 덫</w>
중앙 은행</w>
중국 팀</w>
중국 식</w>
중 추
중 압감</w>
줄 넘기</w>
준 결승</w>
죽 거리</w>
주의 력</w>
주먹 구
주 특기</w>
주 춤
주 무시</w>
주 무
주 막</w>
주 례</w>
죄 책감</w>
좌 지우지</w>
종 신</w>
졸업 논문</w>
졸 들</w>
존 여비</w>
조 상
조 문
제1 호</w>
제 어</w>
제 어
제 수</w>
제 사상</w>
제 로</w>
제 련
정치 범</w>
정정 당당</w>
정상 들</w>
정부 기관</w>
정 통성</w>
정 중한</w>
정 음</w>
정 석</w>
정 사각형</w>
정 복
접 수
접 근
점 토</w>
전시 품</w>
전광 판</w>
전공 한</w>
전 출</w>
전 조
전 제
전 임자</w>
전 세
전 번</w>
전 문화</w>
전 대</w>
전 담자</w>
적 대적</w>
적 국</w>
저울 질</w>
저 마다</w>
저 러지</w>
저 러</w>
저 당
재정 지출</w>
재잘 거리</w>
재고 품</w>
재 학생</w>
재 입
재 생
재 벌
재 배
재 떨이</w>
장미 꽃</w>
장례 식장</w>
장 족</w>
장 조</w>
장 인
장 수
장 군
잡동사 니</w>
잡 곡</w>
잠 잠</w>
잘못 해서</w>
잘못 해</w>
잔칫 상</w>
잔 머리</w>
잔 고</w>
작 품
작 태</w>
작 심</w>
자화 자
자화자 찬</w>
자신 만만</w>
자서 전</w>
자본 가</w>
자녀 들이</w>
자 손들</w>
자 색</w>
자 만
자 랑거리</w>
자 들이</w>
자 긍
자긍 심</w>
잇 몸</w>
입 체
입 질</w>
임플란 트</w>
임 말</w>
일 흔</w>
일 장</w>
일 어
일 약</w>
일 시
일 목
일목 요
일목요 연</w>
일 등
인천 공항</w>
인종 차별</w>
인사 불
인민 군</w>
인민 공화국</w>
인 허가</w>
인 문</w>
인 드</w>
인 데이</w>
인 걸</w>
익 살
이익 금</w>
이슬 방울</w>
이순 신</w>
이상 형</w>
이민 자</w>
이러쿵저러 쿵
이동 통신</w>
이 적
이 자
이 윽
이윽 고</w>
이 온</w>
이 승
이 브
이 다</w>
이 구
의 한</w>
의 전</w>
의 아
의 석</w>
응 시자</w>
응 시
음 색</w>
을 는지</w>
은 메달</w>
으쓱 하</w>
으로 부터의</w>
으로 나</w>
융 숭</w>
유흥 업소</w>
유치 하기</w>
유럽 에서</w>
유 방</w>
유 무</w>
유 령</w>
유 량</w>
유 동성</w>
유 념</w>
유 나이
유나이 티드</w>
유 급</w>
윗 옷</w>
위험 천만</w>
위 력적</w>
웨 이트</w>
원 활
원 초적</w>
원 천적</w>
원 어민</w>
원 림</w>
원 두
워 서</w>
울 렁거리</w>
운영 자</w>
운동 권</w>
운 집</w>
운 기</w>
우후 죽순</w>
우승 팀</w>
우 지
우 수한</w>
우 수수</w>
우 송</w>
우 라
용 무</w>
용 구</w>
요 염
요 양</w>
외 아들</w>
외 교통
외 계
완 치
완 주</w>
완 숙</w>
완 성
와 이드</w>
와 락</w>
옹 기
온 도
옥신각 신하</w>
오피 스텔</w>
오래 간만</w>
오 므
오 도</w>
오 그라
예술 계</w>
예비 군</w>
영양 가</w>
영상 물</w>
영 악</w>
영 관</w>
영 감
연탄 불</w>
연상 케</w>
연기 하기</w>
연구 자들</w>
연 회
연 하장</w>
연 못
연 로</w>
여성 용</w>
여러 분
여 하
여 신</w>
여 독</w>
엔 터
에어 로
에스 컬레이터</w>
에 잇</w>
에 두르</w>
엎 지
엉 거
엉거 주춤</w>
었 길래</w>
업그레이 드</w>
업 히</w>
엄동 설한</w>
엄 연히</w>
얼 큰
언론 자유</w>
언 덕
어지 러
어서 었다</w>
어서 어서</w>
어릿 광대</w>
어떠 냐</w>
어 중간</w>
어 린</w>
어 구</w>
얘 들아</w>
양식 업</w>
양로 원</w>
양 친</w>
양 질</w>
양 주</w>
양 옆</w>
양 속</w>
얀 마</w>
약 정</w>
애프터 서비스</w>
애 틀
애 증</w>
앞 줄</w>
앞 부분</w>
압박 감</w>
암 벽
알칼 리성</w>
알 파
알 람</w>
않 을
안쓰 럽다</w>
안 위</w>
안 무
악 조건</w>
악 인</w>
악 성
악 관</w>
아이 스</w>
아이 구</w>
아우 성</w>
아시 안
아무 데</w>
아메리 카</w>
아른 거리</w>
아르 헨
아랫 목</w>
아랫 도리</w>
아래 위</w>
아들 딸</w>
아낙 네</w>
아낌 없</w>
아 차</w>
아 사</w>
아 면서</w>
쓰츄 완</w>
싱글벙 글</w>
십 오</w>
심 증</w>
실질 심사</w>
실 효성</w>
실 황</w>
실 토</w>
실 수한</w>
실 생활</w>
실 리
실 각</w>
신앙 심</w>
신 파</w>
신 출
신 처</w>
신 지요</w>
신 중
신 전</w>
신 저</w>
신 세계</w>
신 생</w>
신 부
신 방</w>
신 록</w>
신 데
신데 렐
식목 일</w>
식 품들</w>
식 칼</w>
식 지</w>
식 상</w>
식 민</w>
시아 오리</w>
시계 추</w>
시간 들</w>
시 크한</w>
시 착</w>
시 정
시 요</w>
시 누이</w>
시 곤</w>
시 가지</w>
승차 권</w>
승강 장</w>
승 적</w>
승 승
승 계</w>
습 작</w>
슴 츠
스트 리
스트 들</w>
스타일 리
스카 라</w>
스 펀지</w>
스 킨
스 승
스 산</w>
스 님들</w>
숭 상</w>
순 찰
숙 지</w>
숙 성</w>
수채 화</w>
수수 밭</w>
수비 진</w>
수 효</w>
수 학자</w>
수 프</w>
수 온</w>
수 역</w>
수 북
수북 이</w>
수 복</w>
수 금</w>
쇼 크</w>
송 환</w>
송 하</w>
송 이
솔 선수
속 편</w>
속 말</w>
소독 약</w>
소 진</w>
소 년들</w>
소 꿉
세력 들</w>
성공 률</w>
성 찰</w>
성 내</w>
설렁 탕</w>
설 산</w>
섣 불리</w>
선 체</w>
선 자</w>
선 양</w>
선 악</w>
선 발전</w>
선 미</w>
석 탑</w>
석 연
석 기</w>
서양 인</w>
서슴 없이</w>
서 체</w>
서 브</w>
서 부
서 문</w>
서 만</w>
생활 용품</w>
생활 방식</w>
생존 권</w>
생산 지</w>
생산 비</w>
생물 학</w>
생 리
생 동</w>
색 칠</w>
상상 하기</w>
상급 기관</w>
상 장
상 어</w>
상 례</w>
상 견
상견 례</w>
삽 화</w>
삼겹 살</w>
삼 복</w>
살해 한</w>
살인 사건</w>
산 업계</w>
산 성</w>
산 나물</w>
사정 없이</w>
사법 처리</w>
사법 시험</w>
사랑 하기</w>
사람 씩</w>
사격 훈련</w>
사 전
사 생
사 본</w>
사 별</w>
사 방
사 명감</w>
사 면
사 막
사 르르</w>
사 례
사 교육</w>
삐걱 거리</w>
삐 죽</w>
삐 걱</w>
뼈 저리</w>
뼈 아프</w>
뺏 기</w>
빼 닮
빵 빵</w>
빙 판길</w>
빙 글
빙글 빙글</w>
빈티 지</w>
빈둥 빈
빈둥빈 둥</w>
빈 정거리</w>
빈 발</w>
비타 민
비 양심적</w>
비 만</w>
비 릿</w>
비 대
비 단
브리 지</w>
붙 임
불안 정한</w>
불도 저</w>
불 협
불 치병</w>
불 시착</w>
분 풀이</w>
분 점</w>
분 사</w>
분 분히</w>
분 란</w>
분 당</w>
북 풍</w>
북 유럽</w>
북 돋</w>
북 극
부도 나</w>
부담 해</w>
부담 금</w>
부귀 영화</w>
부 문
부 랴</w>
부 랴
부랴 부랴</w>
봉사 자들</w>
봉건 시대</w>
봉 인</w>
봉 숭
볼 일</w>
볼 모</w>
본 점</w>
복합 적</w>
복 직</w>
복 싱</w>
복 고풍</w>
보 슬비</w>
보 스턴</w>
보 내
병 충해</w>
병 인</w>
병 원
병 균</w>
변 이</w>
벼슬 길</w>
벼락 부자</w>
베를 린</w>
벙 하</w>
법 망</w>
벌 판</w>
벌 컥</w>
벌 레
번 듯</w>
버들 가지</w>
버 럭</w>
뱃 살</w>
밸런 타
백일 하에</w>
백 화</w>
백 억</w>
백 악관</w>
백 설
배은망 덕</w>
배 원</w>
배 설물</w>
방아 쇠</w>
방 화
방 방
방 문자</w>
방 구석</w>
방 공
밥 알</w>
밥 솥</w>
발언 권</w>
발 화</w>
발 현</w>
발 포</w>
발 리
받 으세요</w>
받 아들</w>
반짝 반짝하</w>
반질반 질하</w>
반대 쪽</w>
반 팔</w>
반 작용</w>
반 생</w>
반 문</w>
반 목</w>
반 론</w>
박 진
박 살</w>
바퀴 벌레</w>
바이 오
바른 길</w>
바깥 쪽</w>
바 탕
바 캉
바 리</w>
밑 돌</w>
밀 수</w>
미 치
미 얀마</w>
미 셸</w>
미 상</w>
미 개</w>
뮤 직
물 소리</w>
물 밑</w>
물 류
물 결
물결 치</w>
문 틈</w>
문 장
문 법
무진 장</w>
무뢰 한</w>
무궁 화</w>
무 혐의</w>
무 한정</w>
무 한대</w>
무 임
무 쌍
무 시해서</w>
무 선
무 비판적</w>
몸 조리</w>
목 마</w>
모 성</w>
모 기</w>
명문 대학</w>
명 물</w>
멸 하</w>
메 밀
메 디
머리 숱</w>
맹 신</w>
맹 수</w>
매 콤
망 측</w>
망 라</w>
말 머리</w>
막상 막하</w>
마파 두부</w>
마오 쩌
마 장</w>
마 스카라</w>
마 룻
마룻 바닥</w>
마 렵</w>
마 녀</w>
리 지</w>
리 아
리 그전</w>
르네상 스</w>
론 자들</w>
로 또</w>
로 다</w>
렉 션</w>
레깅 스</w>
레 슬
러 블
러 리</w>
래 적</w>
랑 딸
랑딸 랑</w>
뜬 구름</w>
뜨끈 뜨
뜨끈뜨 끈하</w>
뜨 뜻
뗏 목</w>
떠 나
땅 굴</w>
딸 랑딸랑</w>
딴 지</w>
따 사로운</w>
따 끔
따 귀</w>
등산 객</w>
등 히</w>
등 정</w>
등 재</w>
등 장
등 성이</w>
듣자 하</w>
드리 워지</w>
드 세</w>
뒷걸음 치</w>
뒷 다리</w>
뒷 날</w>
뒤 틀</w>
둥 치</w>
둘러 치</w>
둔 갑</w>
두꺼 비</w>
된장 국</w>
되 짚
되 뇌</w>
돼 먹</w>
동분 서주</w>
동댕 이치</w>
돌 부리</w>
돋 보기</w>
독립 군</w>
독 학</w>
독 방</w>
도시 화</w>
도 토리</w>
도 쿄
도 요타</w>
덧 대</w>
덤 핑</w>
덜 컥</w>
덕 행</w>
덕 망</w>
더부 룩</w>
더군 다나</w>
대학 수학능력시험</w>
대피 소</w>
대표 작</w>
대비 해서</w>
대 포
대 판</w>
대 질</w>
대 사
대 답
당황 한</w>
당첨 금</w>
달러 당</w>
단 짝</w>
단 정히</w>
단 잠</w>
단 어들</w>
단 독
단 골
단 계
단 가</w>
다독 거리</w>
다 래</w>
다 는데</w>
다 구</w>
닌 다</w>
니 아</w>
는 다더니</w>
눈 밭</w>
눈 뜨</w>
누군 지</w>
뇌물 수수</w>
농 산품</w>
놈 들</w>
놀이 기구</w>
놀러 오</w>
녹 지</w>
노동 당</w>
노 폐물</w>
노 무
네이 비</w>
넘 실거리</w>
넘 보</w>
넓 적
너클 볼</w>
내 통</w>
내 장
납 세</w>
남아 돌</w>
남 해안</w>
남 친</w>
남 존여비</w>
남 녀들</w>
날아 올랐다</w>
난 쟁이</w>
난 민
낙 찰</w>
낙 제
낙 동강</w>
나 폴레
나 트륨</w>
나 라는</w>
나 긋
나긋 나
나 가
꿍꿍 이</w>
꿈틀 거리</w>
꾸 기</w>
꽃 피</w>
꽃 나무</w>
꼿꼿 이</w>
께 는</w>
까 치
까 무
김치 찌개</w>
길 쭉하</w>
기말 시험</w>
기념 사진</w>
기념 비</w>
기 형</w>
기 필코</w>
기 모</w>
기 갈기</w>
급 상승</w>
금 감원</w>
글 하</w>
글 라이
근 하</w>
극 치</w>
극 찬</w>
그제 야</w>
그 릇
그 레이</w>
그 랑</w>
균 열</w>
규 정한</w>
규 약</w>
규 범
귀염 둥이</w>
귀 성
귀 국한</w>
귀 감</w>
궤 변</w>
궁 중</w>
군 살</w>
국제 화</w>
국내 선</w>
구슬 땀</w>
구속 영장</w>
구사 할</w>
구멍 가게</w>
구두 점</w>
구경 거리</w>
구 시대</w>
구 습</w>
구 수</w>
구 속력</w>
구 세
구 명
교육 자</w>
교육 열</w>
교육 기관</w>
교 황</w>
교 칙</w>
교 원</w>
교 습</w>
교 리</w>
교 들</w>
괴 상한</w>
광 명
괄 호</w>
관련 하</w>
관 현
관 찰
관 조</w>
과 장
과 욕</w>
과 민</w>
과 류</w>
공직 사회</w>
공업 국</w>
공부 해</w>
공급 원</w>
공 복</w>
공 력</w>
공 과금</w>
공 갈</w>
곳 간</w>
곱 절</w>
곤두박 질</w>
곤 히</w>
고요 히</w>
고단 한</w>
고 소한</w>
고 소
고 산</w>
고 부
고 립
고 랑</w>
고 독
고 관</w>
고 견</w>
고 것</w>
계 엄
계 속적</w>
계 류</w>
계 곡물</w>
경호 원</w>
경험 적</w>
경제 협력
경제 정책</w>
경영 인</w>
경복 궁</w>
경 질</w>
경 시해서</w>
경 륜</w>
결 석한</w>
격 조</w>
격 동</w>
격 노</w>
겠 노라</w>
게 이트</w>
게 스트</w>
검 붉</w>
건조 기</w>
거리 감</w>
거 위</w>
거 사</w>
개막 전</w>
개 헌
개 축</w>
개 정
강요 해서</w>
강아 지들</w>
강 추위</w>
강 둑</w>
강 남
감개 무량</w>
감 청</w>
감 도</w>
감 내</w>
갈 퀴</w>
갈 기갈기</w>
갈 구</w>
간 곡히</w>
각 질</w>
각 인</w>
가 혹행위</w>
가 축
가 정적</w>
가 입
가 소</w>
가 부</w>
가 드</w>
ㄹ 는지</w>
n g</w>
V D</w>
90 0</w>
9 개월</w>
8 대</w>
7 대</w>
6 회</w>
6 억</w>
6 6
50 년대</w>
5 회</w>
5 조</w>
5 시간</w>
5 8
40 명</w>
4 분</w>
4 번</w>
3 세</w>
3 미터</w>
3 1</w>
25 0</w>
2 만여</w>
2 2</w>
19 0
16 년</w>
10 점</w>
1 패</w>
1 면</w>
1 500</w>
1 3년</w>
1 1년</w>
0 시</w>
& #
&# 9
흰 머리</w>
희생 정신</w>
희망 자</w>
흐물 흐물
휴게 소</w>
휴 직</w>
휙 휙</w>
휘황 찬란</w>
휘 장</w>
훈련 장</w>
훈 육</w>
후 안무
후 반부</w>
후 리</w>
후 다닥</w>
후 끈</w>
횟 집</w>
회계 원</w>
회 당</w>
회 견장</w>
환 상
환 불
화기애애 하</w>
화 폭</w>
화 구</w>
홍 차</w>
홀 아비</w>
홀 대</w>
혼 미</w>
혼 란
혼 담</w>
혹 평</w>
호 혜</w>
호 위</w>
호 선</w>
호 락
호 들
호 강</w>
호 가</w>
형형 색색</w>
형 사들</w>
형 법</w>
형 기</w>
헛 걸음</w>
허 허
허 옇</w>
허 상</w>
허 락
허 다</w>
향 토
향 불</w>
향 방</w>
향 내</w>
행동 해</w>
행 자</w>
행 본</w>
햇 수</w>
햅 쌀</w>
해결 해</w>
해 충</w>
해 주시길</w>
해 운</w>
해 면</w>
해 로</w>
항공 모함</w>
항 만</w>
합의 점</w>
합격 선</w>
합 장</w>
할 애</w>
한일 관계</w>
한 철</w>
한 산하</w>
한 부</w>
한 배</w>
한 바퀴</w>
한 마디
학 파</w>
하버드 대</w>
하 여
하 수도</w>
하 라</w>
하 고야</w>
핏 자국</w>
필 적</w>
필 드</w>
피부 병</w>
피 트</w>
피 트
피 크
플레이 어</w>
플 러스</w>
플 러</w>
프리미 엄</w>
프 트
풋 고추</w>
푸석 푸석
푸른 빛</w>
푸르 른</w>
푸 라</w>
표 시한</w>
표 수</w>
폭력 배</w>
폭 폭</w>
폭 락</w>
폭 락
포장 지</w>
포 스트</w>
포 괄적</w>
폐 막</w>
폐 렴</w>
평화 협정</w>
평 성</w>
편 벽</w>
페 어
퍼포먼 스</w>
팽 글</w>
팔 목</w>
판 가름</w>
팍 팍</w>
파란 만
파라 치</w>
파 인
파 열</w>
파 생</w>
팀 워크</w>
티 즌</w>
티 슈</w>
티 나무</w>
틔 우</w>
특 허
특 검
특 가</w>
퉁 기</w>
투덜 거리</w>
투 쟁
투 명
퇴 학</w>
통 학</w>
통 조림</w>
통 달</w>
톱 니
톱니 바퀴</w>
토 비</w>
토 막
토 닥
테 니스
털 옷</w>
터 치</w>
터 기</w>
태 연자
태연자 약</w>
탐 측
탈 춤</w>
탈 바꿈</w>
탄 탄
탁 상
타 점</w>
타 일</w>
클 렌
클 레
쿵 쿵</w>
콧 구멍</w>
콘셉 트</w>
코 팅</w>
코 믹
켕 기</w>
컬러 텔레비전</w>
커 트
커 우</w>
커 브</w>
커 미션</w>
캡 슐</w>
캐나 다</w>
칼라 들</w>
칼 질</w>
카 페
칫 솔
칠 칠
칠 십</w>
친 숙</w>
친 근</w>
친 근
치료 제</w>
취 업자</w>
취 미
충동 질</w>
춧 돌</w>
출항 하</w>
출 전한</w>
출 부</w>
축 산물</w>
추 문</w>
추 구
최 전선</w>
최 장</w>
총 통</w>
총 공격</w>
촛불 시위</w>
초 청
초 읽
초읽 기</w>
초 음파</w>
초 사</w>
초 대장</w>
체 취</w>
체 자</w>
체 납
청순 한</w>
청 두</w>
청 동</w>
첫 해</w>
철 학자</w>
철 창</w>
철 조망</w>
철 야</w>
철 봉</w>
철 근</w>
천 편
천 직</w>
천 정</w>
천 원</w>
천 리
천 둥
천 기</w>
처 형</w>
처 벌
처 박</w>
채 용
찾아뵙 지</w>
창 호</w>
찻 물</w>
찹 쌀</w>
참 수</w>
찬 회</w>
찬 호</w>
찬 탈</w>
찬 밥</w>
착 화감</w>
차 제</w>
쭉 쭉</w>
쪼 그라
짤 막</w>
짝 퉁</w>
짝 지근하</w>
짝 수</w>
짚 모자</w>
징 크스</w>
징 계
집어 치우</w>
질 감</w>
진흙 탕</w>
진 정성</w>
진 들</w>
진 격</w>
직 행
직 속</w>
직 권</w>
직 계</w>
지역 별</w>
지배 자</w>
지배 구조</w>
지방 선거</w>
지명 도</w>
지구 력</w>
지 양</w>
지 선</w>
지 변</w>
지 독
지 널</w>
지 게</w>
증조 할아버지</w>
쥐어 박
중매 쟁이</w>
중국 대사관</w>
중 엽</w>
중 수</w>
중 견</w>
준비 하기</w>
준 칙</w>
준 마</w>
죽 치</w>
주전 부리</w>
주변 국들</w>
주 황색</w>
주 파</w>
주 춧돌</w>
주 체적</w>
주 지</w>
주 재
주 워
주 모자</w>
주 마
주 권
죄 상</w>
좌 회전</w>
좌 판</w>
좌 측</w>
종종 걸음</w>
종부 세</w>
종교 계</w>
종 묘</w>
졸업 반</w>
족 집게</w>
조합 원</w>
조약 돌</w>
조바 심</w>
조리 법</w>
조 우</w>
조 난
조 급히</w>
조 국
제2 회</w>
제 7
정형 화</w>
정정 하시</w>
정월 대보름</w>
정보 기관</w>
정당 성</w>
정 짓</w>
정 분</w>
정 무
정 련</w>
접 해</w>
점령 한</w>
점 잔</w>
절 약
전문 대</w>
전 해
전 전
전전 긍
전전긍 긍</w>
전 연</w>
전 면전</w>
전 망치</w>
전 기적</w>
적응 력</w>
적 출</w>
적 외선</w>
적 막
적 립
적 도</w>
적 대</w>
적 격</w>
저녁 밥</w>
저 승</w>
저 명
쟁 이
잿 빛</w>
잿 더미</w>
재 평가</w>
재 편</w>
재 투자</w>
재 정비</w>
재 발급</w>
재 밌</w>
재 담</w>
장 자</w>
장 년</w>
장 날</w>
잡 화</w>
잡 비</w>
잠 식</w>
잠 꼬
잠꼬 대</w>
잠 귀</w>
잠 결</w>
잔 불</w>
작달 막</w>
작 성
작 두</w>
작 대기</w>
자만 심</w>
자 체
자 존</w>
자 조</w>
자 율성</w>
자 위대</w>
자 애</w>
자 습</w>
자 멸</w>
자 매
자 립
자 력</w>
자 두</w>
자 급
입 회</w>
입 하</w>
입 맞춤</w>
입 력
임원 진</w>
일제 강점기</w>
일거 양
일거양 득</w>
일 조
일 월</w>
일 언
일 러
일 괄적</w>
인질 범</w>
인사불 성</w>
인류 사회</w>
인 제</w>
익 스피
익스피 어</w>
익 부</w>
이야기 꽃</w>
이승 엽</w>
이사 오</w>
이구 동성</w>
이 차</w>
이 조</w>
이 월</w>
이 시</w>
이 성
이 브</w>
이 병</w>
이 버섯
이 물질</w>
이 메</w>
이 랬
이랬 다저
이 니</w>
이 까짓</w>
이 관</w>
이 골</w>
의료 보험</w>
의 인
의 연히</w>
음악 계</w>
음 표</w>
은행 들</w>
은행 나무</w>
은 연
은연 중</w>
은 덕</w>
윽 박
으 슬
으 름
으름 장</w>
윷 놀이</w>
융 단</w>
율 동</w>
윤 허</w>
윤 리적</w>
육 십</w>
유채 꽃</w>
유 학생들</w>
유 착</w>
유 자</w>
유 심히</w>
유 세
유 사
유 비</w>
유 물들</w>
유 로</w>
유 례</w>
유 괴
윗 부분</w>
윗 돌</w>
윈 도
위태 로운</w>
웬웬 에</w>
원 폭</w>
원 생들</w>
원 목</w>
원 나라</w>
웅 전</w>
움켜 잡</w>
울 먹이</w>
운전 대</w>
운동 선수들</w>
운 운</w>
우유부 단</w>
우러 르</w>
우두 둑</w>
우 익</w>
우 더</w>
용 의
용 액</w>
용 문</w>
요구 르트</w>
요 염</w>
요 양
요 람</w>
요 동</w>
요 것</w>
외상 값</w>
외교통 상부</w>
외 빈</w>
외 과</w>
왕칭 은</w>
왕 릉</w>
왕 들</w>
완 구</w>
왁 스</w>
옷 가게</w>
옵 션</w>
옭 아
올리 브
올려 다보</w>
올 봄</w>
온 당</w>
오스트 리아</w>
오리 지널</w>
오 퍼</w>
오 지
오 인</w>
오 십시</w>
오 순
오 명</w>
오 라
옛 사람</w>
옐로 카드</w>
예 시</w>
예 쁘
영양 제</w>
영락 없</w>
영 주</w>
염 분</w>
열 한</w>
열 쇠
연습 장</w>
연령 대</w>
연구 비</w>
연구 개발</w>
연 쩍</w>
연 수원</w>
연 날
연날 리기</w>
연 결
역 습</w>
여자 애</w>
여 비서</w>
여 대생</w>
엠 보</w>
엔터 테인먼트</w>
에서 조차</w>
에서 든</w>
에베레 스트</w>
에 라</w>
었 었지</w>
없 다</w>
엄 정한</w>
엄 습</w>
엄 선</w>
엄 살</w>
얼렁뚱 땅</w>
얼 씨
언론 인</w>
언론 계</w>
언 쟁</w>
언 더
억 대</w>
어지러 이</w>
어정 쩡</w>
어이 없</w>
어여 쁘</w>
어슴푸 레</w>
어서 ㄹ</w>
어머 니들</w>
어른 거리</w>
어 허</w>
어 적</w>
어 그러지</w>
양 호
양 치</w>
양 양
양 배추</w>
양 당</w>
약소 국</w>
약 소</w>
야 한</w>
야 금
야 권</w>
앵 두</w>
액 정</w>
액 션
애틀 랜
애 티</w>
애 국자</w>
애 견
앞 마당</w>
앙 숙</w>
압 승</w>
암 투</w>
알 밤</w>
알 루미
알 갱
않 을래</w>
안녕 히</w>
안 적</w>
안 과</w>
아프가니스 탄</w>
아삭 아삭
아리 랑</w>
아낙 들</w>
아낌 없이</w>
아 토
아 치
아 직
아 일
아 뢰</w>
아 ㄴ지</w>
씽 씽</w>
쐐 기</w>
쏠 쏠</w>
쌍 꺼풀</w>
쌀 자루</w>
싱크 대</w>
심장 마비</w>
심사 위원들</w>
심 초사</w>
심 술
실용 화</w>
실 천
실 종
실 사</w>
실 밥</w>
실 명제</w>
신호 탄</w>
신붓 감</w>
신 짝</w>
신 진</w>
신 장
신 부님</w>
신 랄
신 교</w>
식량 난</w>
식 이
식 물들</w>
시험 문제</w>
시청 각</w>
시작 하자</w>
시원 찮</w>
시시 한</w>
시스 트</w>
시간 표</w>
시간 씩</w>
시 키
시 월</w>
시 뻘
시 럽</w>
시 기적</w>
시 금치</w>
시 공
시 ㄴ가</w>
승부 조작</w>
습 생</w>
슬 기로운</w>
스크 랩</w>
스웨 이드</w>
스승 님</w>
스 페인
스 팀</w>
스 톱</w>
스 윙</w>
스 모
스 리
스 노
숫 물</w>
숨 바
숨바 꼭
숨바꼭 질</w>
술 책</w>
순 정</w>
순 백</w>
수출 품</w>
수능 시험</w>
수뇌 부</w>
수그러 들</w>
수 확고</w>
수 험</w>
수 탉</w>
수 조</w>
수 정해</w>
수 세
수 배
수 님</w>
수 납
수 난</w>
솔선수 범</w>
솔 깃</w>
솔 개</w>
손 손</w>
손 버릇</w>
손 맛</w>
속 뜻</w>
소탈 하</w>
소작 료</w>
소작 농</w>
소비 심리</w>
소방 서</w>
소방 대원</w>
소개 팅</w>
소 호
소 학교</w>
소 작</w>
소 읍</w>
소 액</w>
소 각
셰 이
셨 지만</w>
셨 을</w>
셋 방</w>
세 끼</w>
세 균
성 함</w>
성 명서</w>
설 문
선 용</w>
선 비들</w>
선 봉
선 두
선 결</w>
서 슬</w>
서 당</w>
생산 액</w>
생 쥐</w>
생 년
생년 월일</w>
샌드 위치</w>
새 콤한</w>
새 소리</w>
상한 선</w>
상 향</w>
상 쾌
상 종</w>
상 원</w>
상 용
상 술한</w>
상 소</w>
상 류
상 고</w>
상 갓집</w>
살 코
살 상</w>
살 균</w>
산악 회</w>
산 허리</w>
산 유
산 실</w>
사회 인</w>
사탕 수수</w>
사이 사이</w>
사용 해</w>
사용 량</w>
사방 팔방</w>
사무 직</w>
사무 원</w>
사망 률</w>
사기 꾼들</w>
사관 학교</w>
사과 해</w>
사 투</w>
사 천</w>
사 찰
사 인하</w>
사 유
사 외
사 상적</w>
사 마
사 대부</w>
사 다
사 납
뻐 꾸기</w>
빵 점</w>
빙 그레</w>
빗 길</w>
빈 민</w>
비틀 비틀
비뚤 하</w>
비뚤 비뚤하</w>
비 화</w>
비 핵
비 염</w>
비 등</w>
비 권</w>
비 구름</w>
브 이
붙임 성</w>
불협 화음</w>
불 확실성</w>
불 순
불 룩하</w>
불 나</w>
분양 권</w>
분별 력</w>
분리 수거</w>
분 통</w>
분 실물</w>
분 신</w>
분 립</w>
분 대</w>
북 송</w>
북 상</w>
북 미</w>
부엌 일</w>
부문 별</w>
부르 주
부 익부</w>
부 연</w>
부 식
부 부들</w>
부 록</w>
부 둥
부 둣
부둣 가</w>
봉건 사회</w>
봉 황</w>
봉 제</w>
봄 볕</w>
볼 품</w>
복숭아 꽃</w>
복 제
복 수
보리 차</w>
보리 밭</w>
보들보 들하</w>
보 편</w>
보 습
보 살</w>
보 릿
별 수</w>
별 반</w>
변 증
변 변
벽 력</w>
벼 랑</w>
벤처 기업</w>
베 어
베 리</w>
벙 벙하</w>
범죄 행위</w>
벌레 들</w>
벌 떼</w>
번 화가</w>
번 들
버 블</w>
버 그</w>
뱅 뱅</w>
뱃 전</w>
뱃 길</w>
밸 브</w>
백과 사전</w>
백 정</w>
백 배</w>
배 출
배 나무</w>
방사 선</w>
방 북</w>
방 범
밥 물</w>
밤 낮
밤낮 없이</w>
밤 거리</w>
발 칵</w>
발 전기</w>
받 침대</w>
반응 도</w>
반 열</w>
반 역자</w>
반 역</w>
반 비례</w>
반 발
반 가
반가 움</w>
박진 감</w>
박 쥐</w>
박 스
바위 보</w>
바람 둥이</w>
바닷 속</w>
바 르
밑 거름</w>
밀 폐</w>
밀 짚모자</w>
믿음 직스럽</w>
민 중
민 사
민 담</w>
민 노총</w>
미치 광
미니 스커트</w>
미네 랄</w>
미끄럼 틀</w>
미 풍
미 지수</w>
미 인
미 아</w>
미 시적</w>
미 분양</w>
미 드</w>
미 끌
물 증</w>
물 위</w>
물 산</w>
물 난리</w>
문학 사</w>
문제 삼</w>
문 필</w>
문 들</w>
문 드러지</w>
문 과</w>
묵 인</w>
묵 비권</w>
묵 념</w>
무 형
무 신경</w>
무 관
묘 안</w>
몸 차림</w>
몰아 세우</w>
몰 래
목 선</w>
모바 일</w>
모델 분</w>
모 조</w>
모 욕적</w>
명절 날</w>
명 승부</w>
명 수</w>
면 세계</w>
메이저 리
메이 드</w>
메달 리스트</w>
메 신저</w>
멀 리
멀 뚱
먼 길</w>
먹 고사</w>
매표 소</w>
매일 매일</w>
매운 맛</w>
매 체들</w>
매 정</w>
매 무새</w>
매 끌
맞 받</w>
망 해</w>
망 감</w>
말 조심</w>
말 재주</w>
말 싸움</w>
말 미</w>
맏 아들</w>
만족 한</w>
만 나
막 사</w>
마무리 짓</w>
마 사지</w>
마 부</w>
마 름
마 루
마 력</w>
마 나</w>
마 구간</w>
링 거</w>
리 콜</w>
리 뷰</w>
리 모
리 드
리 나</w>
루 즈
롯 불</w>
로 나</w>
련 미</w>
려 고요</w>
레이 트</w>
레 오</w>
런 티</w>
러 블</w>
래 기</w>
란 은</w>
란 성</w>
라 틴
라 지만</w>
라 운
라 오</w>
뜨 끔</w>
뜨 개
뚝 배기</w>
뚜 벅
떼 돈</w>
따 사</w>
디 젤</w>
등산 복</w>
등산 로</w>
등산 객들</w>
등 한시</w>
등 잔</w>
등 본</w>
등 극</w>
듯싶 다</w>
들 짐승</w>
득 바
드라이 버</w>
뒷 사람</w>
뒤 바꾸</w>
뒤 끝</w>
뒤 꼍</w>
둘 만</w>
둔 치</w>
두 색</w>
두 메
두 께
두께 감</w>
되 었
동 지
동 유럽</w>
동 백
동 방</w>
동 메달</w>
동 네
동 기들</w>
돌 발</w>
돋 구</w>
독립 성</w>
독 약</w>
독 선</w>
독 살</w>
독 보적</w>
독 백</w>
도가 니</w>
도 표</w>
도 지사</w>
도 전해</w>
도 의</w>
도 순</w>
도 살</w>
도 급</w>
도 교</w>
데이 션</w>
덥 수
덤 덤
덜 컹</w>
던 트</w>
덕수 궁</w>
덕 담</w>
더 ㄹ</w>
대응 책</w>
대단 하구</w>
대 자
대 웅전</w>
대 소변</w>
대 서
대 망</w>
대 련</w>
대 란</w>
대 들보</w>
대 대장</w>
대 궐</w>
대 공원</w>
대 검</w>
대 강당</w>
담 한</w>
달걀 볶음</w>
달 싹
단 행본</w>
단 심</w>
단 발머리</w>
다이어 트
다락 방</w>
다 섯
다 과</w>
니 만</w>
능 통</w>
능 선</w>
느릿 하</w>
느끼 하</w>
느 티나무</w>
눈 알</w>
누룽 지</w>
누 그러뜨리</w>
뇌 사</w>
농 산
노동 절</w>
노동 법</w>
노 후
노 심초사</w>
노 비</w>
노 루</w>
노 략
녀 리</w>
네트 워크
널 빤
넌 방</w>
너 울
냉 동</w>
내 면세계</w>
내 동댕이치</w>
남 해</w>
날 인</w>
날 갯짓</w>
난데 없이</w>
난 다</w>
낚싯 대</w>
나폴레 옹</w>
나무 다리</w>
나긋나 긋하</w>
낑 낑
낌 새</w>
끝 장나</w>
끙 끙
끔 찍이</w>
끌어 모으</w>
꾸 이
꾸 러</w>
꽃 피우</w>
꽃 송이</w>
꽃 망울</w>
꺼 림
깜빡 거리</w>
까마 득히</w>
까 오
까 끌
김 연아</w>
김 매</w>
긴 밀한</w>
기후 변화</w>
기억 들</w>
기아 자동차</w>
기념 물</w>
기 틀</w>
기 중기</w>
기 정
기 율
기 웃거리</w>
기 왓
기 민</w>
기 린</w>
기 거</w>
급 사</w>
급 박</w>
금 반지</w>
글 씨
글 귀</w>
근무 처</w>
근 심
근 무지</w>
근 면성</w>
극 복
극 구</w>
그러 모으</w>
그래 프</w>
그 레
그 따위</w>
규 합</w>
귓 속말</w>
귀 납</w>
귀 고리</w>
권 태</w>
궁 하</w>
궁 색</w>
굽 실거리</w>
국제 결혼</w>
국민 당</w>
국무 장관</w>
국립 공원</w>
국 영
구조 대원들</w>
구불 구
구불구 불</w>
구 점</w>
구 상
구 비
구 령</w>
구 내</w>
구 금</w>
교통 질서</w>
교통 난</w>
교육 정책</w>
교육 계</w>
교 화</w>
교 양
교 관</w>
광고 판</w>
광 란</w>
관리 비</w>
관 찰력</w>
관 군</w>
과학 계</w>
과 민
과 격한</w>
공화 당</w>
공공 시설</w>
공감 대</w>
공 이</w>
공 습</w>
공 소</w>
공 교육</w>
곰 팡
골 절</w>
골 몰</w>
곤 충
곤 욕</w>
곤 란
고용 주</w>
고리 타
고객 님</w>
고 철</w>
고 압적</w>
고 안</w>
고 성</w>
고 물상</w>
고 막</w>
고 령
고 동
고 갯짓</w>
계 정</w>
계 량
경 황</w>
경 운기</w>
경 상</w>
경 내</w>
겸 용</w>
겸 연쩍</w>
결혼 생활</w>
결정 하자</w>
결단 성</w>
결 정권</w>
결 원</w>
견 인</w>
격 려
격 돌</w>
격 기</w>
겨울 밤</w>
검 정
걸 머지</w>
건설 업체</w>
건 넌방</w>
거꾸 러
거 품
거 추장</w>
거 스</w>
거 뭇
거 룩</w>
거 란</w>
개발 한</w>
개 회식</w>
개 항</w>
개 진</w>
개 요</w>
개 방
개 런티</w>
개 그
개 강</w>
강 진</w>
강 정</w>
강 우량</w>
강 약</w>
감 형</w>
감 초</w>
감 적</w>
간호 사들</w>
간 히</w>
간 사한</w>
가정 용</w>
가위 바위보</w>
가스 전</w>
가능 한</w>
가격 표</w>
가 제</w>
가 부장
가 맹점</w>
가 림</w>
가 든</w>
N BA</w>
D VD</w>
8 개월</w>
7 개월</w>
6 대</w>
5 톤</w>
5 층</w>
5 점</w>
5 원</w>
5 배</w>
40 분</w>
4 2</w>
300 명</w>
30 주년</w>
30 년대</w>
3 차례</w>
25 전쟁</w>
20 20년</w>
2 호</w>
2 점</w>
2 -
2 ,000</w>
2 ,
199 0년</w>
198 9년</w>
198 7년</w>
19 명</w>
19 대</w>
18 0</w>
12 0</w>
100 m</w>
10 시간</w>
1 주년</w>
1 부</w>
1 백</w>
000 명</w>
히 로
흥 하</w>
흥 취</w>
흘 간</w>
흑 판</w>
흑 막</w>
흐 름</w>
흐 드러지</w>
휴 업
휴 양지</w>
휴 양
휩 싸</w>
휘 몰</w>
후 예</w>
후 반기</w>
후 미지</w>
후 들</w>
회 지</w>
회 사원들</w>
황금 기</w>
황 후</w>
황 토</w>
황 소
황 산
활 력
활력 소</w>
환율 전쟁</w>
환 해지</w>
환 부</w>
화장 지</w>
화끈 거리</w>
화 풍</w>
화 재
화 들</w>
화 답</w>
혼 용</w>
혼 선</w>
호락 호
형 평성</w>
형 용사</w>
형 언</w>
형 들</w>
협 업</w>
협 공</w>
혈 전</w>
혈 육</w>
현 상들</w>
현 상금</w>
헬스 장</w>
헐 겁</w>
헌 신짝</w>
헌 납</w>
허둥지 둥하</w>
향 료</w>
향 락
향 기로운</w>
행정 수</w>
행방불 명</w>
행 색</w>
행 로</w>
했 고</w>
핸 디
핸디 캡</w>
해 킹</w>
해 장국</w>
해 운
해 요</w>
해 열
해 어지</w>
해 군
해 골</w>
항일 전쟁</w>
항 변</w>
합 창단</w>
합 의문</w>
함박 눈</w>
함 축</w>
한국 인들</w>
한국 계</w>
한 패</w>
한 집</w>
한 증
한 약재</w>
한 담
한 눈
한눈 팔</w>
학교 들</w>
학 창
학창 시절</w>
학 장</w>
학 위
학 사
학 교장</w>
하급 수적</w>
하 차</w>
하 위권</w>
하 와</w>
하 에서</w>
하 수
하 셔</w>
하 마</w>
하 려거든</w>
하 더</w>
하 더
하 는데</w>
피차 간</w>
피로 감</w>
피라 미드</w>
피 난
프로 필</w>
프로 듀
퓨 전</w>
풍 상</w>
풀 숲</w>
푸 짐</w>
푸 근</w>
폭발 력</w>
폭 소</w>
폭 군</w>
폭 격기</w>
포동포 동하</w>
포 시</w>
포 상</w>
폐 회</w>
평균 적</w>
평 행</w>
평 행
편 지지</w>
펜 던트</w>
페인 팅</w>
페미 닌
페 트
퍼 트</w>
팬 티</w>
팬 지</w>
판 다</w>
판 공
파 우더</w>
팀 원</w>
틈 없</w>
특 징
특 공대</w>
트 임</w>
트 로</w>
퇴 화</w>
퇴 직자</w>
퇴 비</w>
통화 량</w>
통 산</w>
톡 스</w>
토 성</w>
텅 이</w>
텁 하</w>
텁 텁하</w>
털 털</w>
태백 산맥</w>
태 엽</w>
탐 문</w>
탈북 자들</w>
탈 색</w>
탈 락
탄 약</w>
탄 수화물</w>
탁아 소</w>
타 작</w>
타 율</w>
타 들어</w>
타 계</w>
키 위</w>
큼 성큼</w>
클 럽
클 러치</w>
큰 집</w>
크 라</w>
퀴 하</w>
퀴 퀴하</w>
쿵쾅 거리</w>
쿠 바</w>
쿠 르</w>
콩 밥</w>
콧 등</w>
콜 록
코칭 스태프</w>
코 리안</w>
컴 백</w>
컨 설
컥 벌컥</w>
커플 링</w>
커뮤니 케이션</w>
커 니</w>
카 오
카 맣</w>
카 노</w>
침 술</w>
친 일파</w>
친 숙한</w>
치켜 세
치 킨</w>
측 정
취 학</w>
취 객</w>
충 전기</w>
충 만해</w>
출항 한다</w>
출 정</w>
출 장비</w>
출 기</w>
출 근
축 이</w>
축 대</w>
축 내</w>
축 나</w>
추 징금</w>
추 억
추 상</w>
추 렴
최 신식</w>
총리 실</w>
총 파업</w>
총 칭</w>
총 성</w>
총 생산</w>
총 무</w>
총 계</w>
촌 민들</w>
초롱 하</w>
초 지</w>
초 봄</w>
초 보
초 밥</w>
초 롱</w>
초 대해</w>
초 겨울</w>
청년 층</w>
청 천</w>
청 명절</w>
청 기</w>
청 구
청 객</w>
철 제</w>
철 썩</w>
철 새들</w>
천둥 소리</w>
천 진한</w>
천 자문</w>
천 상</w>
천 거</w>
처리 하시</w>
처 제</w>
처 단</w>
책임 제</w>
채소 밭</w>
채 권자</w>
채 굴</w>
찾아뵙 겠습니</w>
창 력</w>
창 당</w>
찬 조</w>
착용 하시</w>
착 화</w>
착 복</w>
차별 화</w>
차려입 었다</w>
차단 제</w>
차 양</w>
짜 로</w>
짚 신</w>
징역 형</w>
짓 거리</w>
집 적거리</w>
집 약적</w>
짐 승들</w>
질 의</w>
질 없</w>
진화 론</w>
진 시황</w>
진 미</w>
진 달
진달 래
진달래 꽃</w>
직 업적</w>
직 무
직 격
직격 탄</w>
지적 해</w>
지명 수배</w>
지 향
지 평선</w>
지 천</w>
지 척</w>
지 은이</w>
지 연
지 아
지 산</w>
지 모</w>
지 렛
지 레</w>
지 단</w>
지 껄</w>
지 국</w>
증 자</w>
증 여세</w>
증 가세</w>
즈 넉</w>
쥐어 짜</w>
중화 인민공화국</w>
중계 방송</w>
중 후</w>
중 진</w>
중 압</w>
중 금속</w>
중 개</w>
준 거</w>
주택 단지</w>
주택 난</w>
주택 가격</w>
주의 해서</w>
주식 회사</w>
주민등록 증</w>
주 형</w>
주 판</w>
주 창</w>
주 중</w>
주 주들</w>
주 입식</w>
주 위
주 어라</w>
주 안점</w>
주 르륵</w>
주 룩</w>
주 룩
주룩 주룩</w>
주 둔
좌우 간</w>
좌 표</w>
좋 아
종 파</w>
종 사자</w>
종 군</w>
종 국</w>
존 립</w>
조 한</w>
조 판</w>
조 퇴</w>
조 씨</w>
조 심히</w>
조 계</w>
져 눕</w>
제작 자들</w>
제작 비</w>
제 화</w>
제 자리
제자리 걸음</w>
제 네
제 1</w>
정복 자</w>
정리 해고</w>
정 파</w>
정 착
정 이</w>
정 무</w>
정 독</w>
점 화</w>
점 차적</w>
절 차
절 름
전제 조건</w>
전원 주택</w>
전산 망</w>
전반 부</w>
전문 지</w>
전문 의</w>
전력 투구</w>
전달 해</w>
전달 한</w>
전 주
전 입</w>
전 유물</w>
전 운</w>
전 립
전 대
전 격</w>
적자 생존</w>
적법 한</w>
적 의</w>
적 소</w>
저러 하</w>
저녁 때</w>
저녁 놀</w>
저 촉</w>
저 미</w>
저 널</w>
저 기압</w>
재 확인</w>
재 정부</w>
재 신</w>
재 배치</w>
재 무장</w>
장사 꾼들</w>
장 학생</w>
장 어</w>
장 아
장 신</w>
장 맛</w>
장 대한</w>
잣 나무</w>
잠수 함
잠 정적</w>
잠 정</w>
작 전
작 열</w>
자그 마치</w>
자 폐
자 축</w>
자 지러지</w>
자 중</w>
자 양분</w>
자 아
자 식
자 생
자 문
자 네
잎 들</w>
있 으세요</w>
있 다</w>
입학 식</w>
입 담</w>
임대 주택</w>
임 업</w>
임 명
일생 동안</w>
일 침</w>
일 층</w>
일 용
일 심
일 대
일 거</w>
인플 레</w>
인질 극</w>
인사 성</w>
인력 난</w>
인구 밀도</w>
인 척</w>
인 접
인 양</w>
인 성교육</w>
인 디
익 빈</w>
이야기 하자</w>
이상 주의</w>
이랬다저 랬다</w>
이글 이글</w>
이 해서</w>
이 채</w>
이 지적</w>
이 입</w>
이 유
이 사한</w>
이 러지</w>
이 따위</w>
이 글거리</w>
이 고</w>
의식 주</w>
의사 선생님</w>
의기 투합</w>
의 회
의 형제</w>
의 정</w>
의 구</w>
응급 처치</w>
음 해</w>
음 조</w>
음 영</w>
읊 조리</w>
을 씨
을씨 년</w>
은 신처</w>
은 들</w>
으시 니</w>
으시 ㅂ니다</w>
으리 라는</w>
으 시어서</w>
유리 문</w>
유리 구슬</w>
유기 징역</w>
유기 농</w>
유괴 범</w>
유 흥</w>
유 추</w>
유 약</w>
유 아원</w>
유 분수</w>
유 능
유 기</w>
유 가족들</w>
윙 윙
위협 적</w>
위 화감</w>
위 폐</w>
위 촉</w>
위 장병</w>
위 법</w>
위 도</w>
월드 베이스
월드베이스 볼
월 식</w>
월 분</w>
월 병</w>
월 등히</w>
월 간지</w>
원 점</w>
원 어치</w>
원 시인</w>
워 하</w>
웅 성거리</w>
웃 돈</w>
움 트</w>
움 키</w>
울 화</w>
운동 복</w>
운 행
운 다</w>
우주 국</w>
우월 성</w>
우두 커니</w>
우 회</w>
우 수성</w>
우 발적</w>
우 루
용 접</w>
용 적</w>
요식 업</w>
요동 치</w>
요 놈</w>
왼 발</w>
외 채</w>
외 곬</w>
외 갓집</w>
왜 란</w>
왕 복선</w>
왈 부</w>
왈 가
왈가 왈부</w>
완 급</w>
왁자 지껄</w>
옹 색</w>
옹 골
옵 소서</w>
옮 겨
온 상</w>
오순 도순</w>
오리 엔
오른 팔</w>
오르 락
오르락 내리
오 키
오 질</w>
오 점</w>
오 사
오 보</w>
오 버</w>
오 백</w>
오 밍</w>
오 들
오들 오
오 누이</w>
옐 로</w>
예민 해</w>
예 속</w>
예 사
예 능
영장 실질심사</w>
영원 토록</w>
영업 부</w>
영락 없이</w>
영국 인</w>
영 위</w>
영 예
영 농
염색 체</w>
열 애</w>
열 대야</w>
연합 국</w>
연 착
연 어</w>
연 세대</w>
연 맹
연 두색</w>
연 대회</w>
역사 책</w>
역 할
역 점</w>
여보 게</w>
여 편
여 성미</w>
여 덟
여 남
여 과</w>
에이 스</w>
에어로 빅</w>
에게 까지</w>
엎질러 진</w>
엎 어지</w>
엊 그제</w>
었다 면서</w>
었 든</w>
었 노라</w>
업그레이 드
엄 히</w>
엄 마들</w>
엄 띄
엄띄 엄</w>
얼토당토 않</w>
얼음 장</w>
얼마 쯤</w>
얼굴 들</w>
얻어 먹
언어 학</w>
언 약</w>
언 성</w>
언 동</w>
어슴푸 레하</w>
어슬 렁
어슬렁 어슬
어림 없</w>
어떨 지</w>
어깨 끈</w>
어 휘
어 선들</w>
어 매</w>
얘 기해</w>
양 초</w>
양 쯔
양 장</w>
양 미간</w>
양 모</w>
양 립</w>
양 떼</w>
양 껏</w>
약 용</w>
약 볕</w>
야구 공</w>
야 욕</w>
야 성</w>
앵 무새</w>
앳 되</w>
애 비</w>
애 먹</w>
애 매
앞 니</w>
앙 금</w>
앗 간</w>
압 력
압 권</w>
암 흑
암 자</w>
암 울한</w>
암 묵
알리 바이</w>
알갱 이</w>
알 몸</w>
알 랑거리</w>
안하무 인</w>
안쓰 러
안내 인</w>
안 이</w>
안 심
안 구</w>
악 착
악 재</w>
악 의적</w>
아치 형</w>
아시안 컵</w>
아시아 경기
아시아경기 대회</w>
아르헨 티나</w>
아드 님</w>
아니 꼽</w>
아 양</w>
아 뿔
아 베</w>
아 랍</w>
씨름 판</w>
쓸쓸 히</w>
쓴 소리</w>
쑥 하</w>
썽 사납</w>
써 먹</w>
쌀 값</w>
싸움 터</w>
싸 안</w>
십 시요</w>
심심 찮</w>
심 해서</w>
심 통</w>
심 복</w>
심 미적</w>
심 란</w>
실업 난</w>
실례 합니다만</w>
실 재</w>
실 용</w>
실 언</w>
실 버
실 망감</w>
실 록</w>
신용 불량자</w>
신문 들</w>
신뢰 성</w>
신랄 한</w>
신 통
신 중함</w>
신 중국</w>
신 자들</w>
신 임
신 인
신 음소리</w>
신 수</w>
신 명
신 력</w>
신 간</w>
식용 유</w>
식물 원</w>
식 당
시아오 밍</w>
시시콜 콜</w>
시무 시하</w>
시골 집</w>
시간 제</w>
시 추</w>
시 정부</w>
시 안적</w>
시 려면</w>
시 네</w>
시 금
승 전</w>
슬 러</w>
스포츠 카</w>
스티 치</w>
스트레 스
스키 니</w>
스케 일</w>
스 하</w>
스 푼</w>
스 팽글</w>
스 쿠
스 르르</w>
스 들</w>
슈퍼 스타</w>
숨 죽이</w>
순 회
순 이익</w>
순 수
순 례</w>
순 두부</w>
숙 취</w>
숙 명</w>
수입 액</w>
수리 비</w>
수능 란</w>
수급 자</w>
수강 생</w>
수 질
수 중
수 족</w>
수 제</w>
수 정안</w>
수 전
수 욕</w>
수 십
수 습
수 숫
수 북</w>
쇳 물</w>
송 년회</w>
솜 사탕</w>
솔 솔</w>
솔 로</w>
손 안</w>
손 쓰</w>
손 님
속 속
소화 하기</w>
소재 감</w>
소방 대</w>
소각 장</w>
소 치</w>
소 아</w>
소 세</w>
소 반</w>
셔 틀
셔 터</w>
섹 스</w>
세종 대왕</w>
세라 믹</w>
세 분화</w>
성형 수술</w>
성취 도</w>
성장 세</w>
성심 성의</w>
성냥 불</w>
성공 리</w>
성 희롱</w>
성 현</w>
성 큼성큼</w>
성 지</w>
성 욕</w>
성 역</w>
성 업</w>
성 애</w>
성 안</w>
성 숙
성 수기</w>
성 묘</w>
성 루</w>
성 군</w>
섭 외</w>
섭 렵</w>
설계 사</w>
설계 가</w>
설 치
설 맞</w>
섣 부르</w>
선호 도</w>
선착 장</w>
선거 관리
선 잠</w>
선 왕</w>
선 열</w>
선 열
선 약</w>
선 로</w>
선 대</w>
석유 화학</w>
석 회</w>
석 하</w>
석 권</w>
서커 스
서예 가</w>
서로 서로</w>
서 해
서 클</w>
서 정적</w>
서 성</w>
서 북쪽</w>
서 방
서 명
서 른
서 남쪽</w>
서 구적</w>
섀 도</w>
샤 워
샤 오리</w>
생태 환경</w>
생존 자</w>
생일 파티</w>
생일 선물</w>
생 육</w>
생 선회</w>
생 물들</w>
샐러리 맨</w>
샐 틈없</w>
색 소
색 깔
새 카맣</w>
새 삼
새삼 스레</w>
새 록
상쾌 해지</w>
상대 해</w>
상 히</w>
상 해
상 하이
상 판</w>
상 술</w>
상 사들</w>
상 단</w>
삿 대질</w>
삼 림
삼 대</w>
살코 기</w>
살 포시</w>
산업 용</w>
산산 이</w>
산간 벽지</w>
산 호
산 타
산 전
산 란</w>
산 등성이</w>
사흘 째</w>
사회 상</w>
사회 과학</w>
사직 서</w>
사이 다</w>
사우 디</w>
사우 디
사용 료</w>
사업 상</w>
사업 비</w>
사실 만</w>
사무 총장</w>
사냥 꾼들</w>
사냥 개</w>
사 형
사 촌
사 주
사 업체</w>
사 복</w>
사 범
사 립</w>
사 달</w>
사 경</w>
뿌리 째</w>
뿌 연</w>
뽀 뽀</w>
뻐 끔
뺑소 니</w>
빼 빼</w>
빗 자루</w>
빈 익빈</w>
빈 부
빈부 격차</w>
비핵 화</w>
비슷 하</w>
비상 사태</w>
비 전
비 민주적</w>
비 명
비 디오
비 대화</w>
비 누
붕 붕</w>
붉 으
불안 해지</w>
불 평
불 출</w>
불 시</w>
불 로
불 경</w>
분 주한</w>
분 재</w>
분 자들</w>
북적 였다</w>
부지 런
부지 기수</w>
부상 병</w>
부 회장</w>
부 턴</w>
부 질없</w>
부 적합</w>
부 장관</w>
부 자
부 석</w>
부 릅
부릅 뜨</w>
부 대장</w>
부 글
부글 부
뵙 고</w>
볼 썽사납</w>
볼 래</w>
본 서</w>
본 부장</w>
본 보기</w>
복 받치</w>
보호 법</w>
보험 사</w>
보수 파</w>
보수 주의</w>
보 푸라</w>
보 초병</w>
보 송</w>
별 자리</w>
변화 구</w>
변호 인</w>
변 환</w>
변 칙</w>
변 별</w>
벼 룩</w>
벼 농사</w>
베이징 올림픽</w>
베이징 대학</w>
베이 비</w>
베이 비
베 토벤</w>
벗 어
벌 컥벌컥</w>
벌 주</w>
번호 판</w>
번역 서</w>
번들 번
번 갯
번갯 불</w>
번 갈</w>
버 선
밸런 스</w>
백 합</w>
백 팩</w>
백 자</w>
백 수</w>
배구 팀</w>
배 필</w>
배 태</w>
배 어들
배 석</w>
배 럴
배럴 당</w>
방사 성</w>
방방 곡
방방곡 곡</w>
방 편</w>
방 음</w>
방 역</w>
방 앗간</w>
방 세</w>
방 값</w>
밤 바람</w>
발표 문</w>
발언 자</w>
발버 둥치</w>
발 차
발 짓</w>
발 열</w>
발 설</w>
발 병
발 맞추</w>
발 라
발 길
발길 질</w>
반신 반
반신반 의</w>
반 혁명</w>
반 란
반 딧
반딧 불</w>
박 함</w>
박 찬호</w>
바 통</w>
바 보
밀 물</w>
밀 려
민족 성</w>
민 화</w>
민 방위</w>
민 박
미풍 양속</w>
미치광 이</w>
미안 해</w>
미드필 드</w>
미드필 더</w>
미 학적</w>
미 용사</w>
미 미한</w>
미 미</w>
뮤직 비디오</w>
뭡 니까</w>
뭉 뚱
뭉뚱 그리</w>
물 주</w>
물 샐틈없</w>
물 보라</w>
문화 부</w>
문학 계</w>
문 항</w>
문 패</w>
문 의
문 무</w>
무지 몽매</w>
무임 승차</w>
무쌍 한</w>
무 전
무 시무시하</w>
무 분별</w>
무 대
묘 역</w>
몸 져눕</w>
몸 뚱이</w>
목욕 물</w>
목 성</w>
목 발</w>
모험 심</w>
모습 들</w>
모범 수</w>
모래 톱</w>
모래 성</w>
모 티브</w>
모 집
모 직</w>
모 의
모 름
모름 지기</w>
명 산</w>
명 목
면 직</w>
면 사포</w>
멱 살</w>
며 느릿
며느릿 감</w>
메 뉴
멍 에</w>
멀 티</w>
먼지 투성이</w>
먹 혀
먹 보</w>
머리 통</w>
머리 말</w>
머 쓱</w>
머 신</w>
머 스</w>
매 콤한</w>
매 시간</w>
매 물</w>
매 만지</w>
맞 장구</w>
맞 대결</w>
망 사</w>
말 아
말 살</w>
만족 도</w>
만족 감</w>
만 연한</w>
만 담
만 금</w>
막 냇
마음 놓</w>
마오쩌 똥</w>
마당 발</w>
마 니</w>
리 우</w>
리 엔
리 에</w>
리 스트들</w>
리 듬
룸 메이트</w>
료 비</w>
록 색</w>
로스 쿨</w>
령 들</w>
련 사</w>
려 보내</w>
레이 드</w>
레드 카드</w>
레 포
레 질</w>
레 일</w>
럭셔 리</w>
러시아 가</w>
러 닝</w>
량 제</w>
랭 크</w>
락 사</w>
라인 업</w>
라오 쟝</w>
라 켓</w>
라 이트</w>
라 이</w>
띄 엄띄엄</w>
뜨개 질</w>
뚱 뒤
뙤 약볕</w>
똘 히</w>
떼 어
떨어 트
떡 국</w>
떠 듬거리</w>
때 묻</w>
땀 투성이</w>
딸 기
딴 마음</w>
따 님</w>
디지털 카메라</w>
등장 인물</w>
등기 우편</w>
등 롱</w>
등 락</w>
들이 쉬</w>
들여 보내</w>
들어 오</w>
들 락
득바 득</w>
득 표</w>
드라 마
드 득</w>
뒤집어 엎
뒤 범벅</w>
뒤 뚱뒤
둥 우리</w>
둘 둘</w>
두메 산골</w>
두 번</w>
두 발</w>
두 렁</w>
두 근</w>
두 근
두 건</w>
두 개</w>
동물 성</w>
동 트</w>
동 족</w>
동 방
동 료
동 란</w>
동 녘</w>
돌 부처</w>
돌 고래</w>
독립 운동가</w>
독 기</w>
도화 선</w>
도 트</w>
도 치</w>
도 전
도 외
도 살
도 미
도 락</w>
덴 마크</w>
데 일
덜컹 거리</w>
덜렁 대</w>
덕 지덕지</w>
더 치
더 러
대학 생활</w>
대표 자</w>
대장 간</w>
대자 보</w>
대비 하기</w>
대비 책</w>
대 피하</w>
대 초원</w>
대 주주</w>
대 접해</w>
대 범</w>
대 뜸</w>
대 대</w>
당황 해서</w>
당 해</w>
당 당한</w>
닭 살</w>
달라 붙었다</w>
달 짝지근하</w>
달 음
달 맞이</w>
단계 별</w>
단 일
단 오
단 군</w>
다소 곳</w>
다소 간</w>
다 면
다 닥
닉 스</w>
능 수능란</w>
능 사</w>
능 률적</w>
뉴욕 타임스</w>
뉴 얼</w>
눈썰 미</w>
눈 여기</w>
눈 사태</w>
누구 누구</w>
누 설해서</w>
높 다랗</w>
농업 세</w>
농 축</w>
농 어촌</w>
논 바닥</w>
논 단</w>
노숙 자</w>
노사 간</w>
노략 질</w>
노 키
노 역</w>
노 령화</w>
네 트</w>
넓적 다리</w>
널 브
너 들</w>
냅 다</w>
내 성</w>
내 부적</w>
내 게
내게 로</w>
낯 빛</w>
낯 가죽</w>
남아 공</w>
남 남</w>
날 염</w>
날 씬
난 색</w>
난 립</w>
낙 인</w>
낙 방</w>
나 자빠지</w>
나 랏
끝 부분</w>
끙끙 거리</w>
꾸 벅</w>
꽹 과
꽹과 리</w>
꼬 챙이</w>
꼬 르륵</w>
꼬 깃
꺼림 칙</w>
깨 어나</w>
깨 알</w>
깍 듯이</w>
까슬 까슬
길 이
긴장 해서</w>
긴 긴</w>
기초 적</w>
기준 치</w>
기정 사실</w>
기관 지
기관 사</w>
기 하급수적</w>
기 탄</w>
기 제</w>
기 습
기 병</w>
기 권</w>
기 각</w>
급 조</w>
급 습</w>
급 강하</w>
금융 회사</w>
금융 기관</w>
금 전적</w>
금 전
금 색</w>
글 한</w>
글 쎄
근 시안적</w>
근 사
근 대화</w>
근 근히</w>
극 한</w>
극 진한</w>
극 진</w>
극 약</w>
극 심</w>
그 자</w>
그 믐</w>
귀 천</w>
귀 납
궁금 해지</w>
궁 벽</w>
굽 이치</w>
굶 어
굴 욕적</w>
굳 건히</w>
군사 정권</w>
군 정</w>
군 장</w>
군 단</w>
국제 선</w>
국경 절</w>
국가 경쟁력</w>
국 유</w>
국 수
국 비</w>
구성 원들</w>
구사 일생</w>
구내 식당</w>
구 한</w>
구 위</w>
구 색</w>
구 렁이</w>
구 둣
구 강</w>
교통 부</w>
교차 로</w>
교 신</w>
교 섭
교 민들</w>
교 민</w>
교 무실</w>
교 각</w>
광대 뼈</w>
광 야</w>
관측 소</w>
관리 사</w>
관련 자</w>
관련 성</w>
관광 부</w>
관 대히</w>
과학 원</w>
과 중한</w>
과 도
과 대
공업 화</w>
공업 용</w>
공무 원
공공 요금</w>
공공 연한</w>
공간 적</w>
공 히</w>
공 정해</w>
공 자
공 용어</w>
공 신력</w>
공 시
공 수</w>
공 상
공 범</w>
공 립
공 놀이</w>
공 과</w>
공 고
골 똘히</w>
곧이 듣</w>
고위 급</w>
고용 인</w>
고속 열차</w>
고만 고만하</w>
고리타 분</w>
고래 고래</w>
고등 학생들</w>
고고 학</w>
고 학</w>
고 즈넉</w>
고 유
고 압</w>
고 시
고 소득</w>
고 설
고 서도</w>
고 불
고 발
고 민
고 단</w>
고 까지</w>
고 결</w>
고 가
계절 적</w>
계엄 령</w>
계 급
경상 수지</w>
경 하</w>
경 종</w>
경 연대회</w>
경 심</w>
경 시
경 물</w>
경 마장</w>
경 들</w>
경 각</w>
결 론적</w>
견 본</w>
견 본
견 과류</w>
격 투기</w>
격 언</w>
겠 다니</w>
게 임기</w>
게 이
게 양</w>
겉 옷</w>
검문 소</w>
검 증
걸 요</w>
건설 경기</w>
건 성
건 설비</w>
거부 감</w>
거리 들</w>
거 침</w>
거 물</w>
거 물
개인 택시</w>
개울 가</w>
개발 업자</w>
개발 사업</w>
개 화기</w>
개 폐</w>
개 칭</w>
개 점</w>
개 명</w>
개 괄</w>
개 골</w>
강제 동원</w>
강 판</w>
강 연
갑 옷</w>
감독 하</w>
감 화</w>
감 정
감 염
간 절기</w>
간 암</w>
간 극</w>
가지 각색</w>
가을 날</w>
가시 화</w>
가슴 팍</w>
가물 가물</w>
가리 개</w>
가루 약</w>
가렵 다</w>
가공 한</w>
가 창력</w>
가 차</w>
가 자</w>
가 시적</w>
가 성</w>
가 담자</w>
가 녀리</w>
가 게
菠 萝</w>
ㄴ 도다</w>
o o
9 11
60 명</w>
6 천</w>
6 4
50 위</w>
5 미터</w>
5 6
5 5</w>
40 세</w>
4 회</w>
4 위</w>
4 개월</w>
4 가지</w>
3000 원</w>
200 년</w>
20 개</w>
2 백</w>
2 단</w>
2 8</w>
198 0년</w>
16 명</w>
16 개</w>
13 0</w>
12 명</w>
1000 명</w>
100 일</w>
10 리</w>
1 톤</w>
1 천</w>
1 절</w>
1 분기</w>
1 대</w>
1 기</w>
1 .
힘 줄</w>
힘 세</w>
히 트
히 고설
흩 뿌리</w>
흥 청
흠 칫</w>
흠 씬</w>
흔 치</w>
흉 보</w>
휴 강</w>
휘 청
휘 어
휘 감기</w>
훌쩍 훌쩍</w>
훈 민
훈민 정음</w>
후루 룩</w>
후 쿠
후 들
후 끈
후 기</w>
횡 행</w>
횡 무진</w>
회복 세</w>
회 합</w>
회 한</w>
회 로</w>
황 폐
활 용도</w>
환영 회</w>
환 송</w>
환 성</w>
확 산
확 대
확 고
확고 부동</w>
화학 비료</w>
화이트 칼라들</w>
화 학적</w>
화 젯거리</w>
화 상
화 살
화 보</w>
화 꽃</w>
홍보 대사</w>
홍 치마</w>
홍 역</w>
홍 시</w>
홀 시</w>
홀 수</w>
호들 갑</w>
호 소
호소 력</w>
호 걸</w>
형 평</w>
형 부</w>
협력 업체</w>
협 동심</w>
현대 식</w>
현 자</w>
현 관문</w>
혁명 가</w>
헤 집
헤 이
헛 걸음
헐 벗</w>
허 장성
허장성 세</w>
허 우대</w>
허 드
허드 렛
허 겁
허겁 지
허겁지 겁</w>
행 차</w>
행 정적</w>
행 장</w>
핸드 메이드</w>
핸 드</w>
핵 폐기물</w>
핵 문제</w>
해열 제</w>
해수 욕</w>
해 저
해 약</w>
해 맑</w>
해 돋
해돋 이</w>
항 행하</w>
항 쟁</w>
항 소심</w>
항 모</w>
핫 이슈</w>
합격 통지서</w>
합 숙</w>
합 병증</w>
할 래</w>
한테 만</w>
한미 관계</w>
한담 하</w>
한국 팀</w>
한계 선</w>
한 참
한 의학</w>
한 없</w>
한 시적</w>
한 몸</w>
한 몫
한 당</w>
한 가위</w>
학 우</w>
하이 브리
하여 튼</w>
하늘 빛</w>
하급 자</w>
하 중</w>
하 와
하 수구</w>
하 등</w>
하 교</w>
하 건대</w>
하 객</w>
핏 물</w>
핍 증</w>
필 진</w>
핀 란드</w>
피아 드</w>
피둥피 둥</w>
피 폐</w>
피 크</w>
피 케</w>
피 칭</w>
피 지배
피 신</w>
피 시</w>
피 비린내</w>
피 랍
피랍 자</w>
피 난</w>
피 겨</w>
피 겨
플래 시
프 스</w>
프 랜
풍 향</w>
풍 력</w>
풍 경
풋 풋</w>
푸 틴</w>
표현 력</w>
표 상</w>
표 백</w>
표 면상</w>
표 독</w>
폭력 성</w>
폭 증</w>
폭 신
폭 리</w>
폭 락하</w>
포도 당</w>
포 진</w>
포 식</w>
포 석</w>
포 격하</w>
폐 기
평상 심</w>
평방 미터</w>
평가 절상</w>
평 방</w>
평 민</w>
편집 부</w>
편 승</w>
편 단심</w>
펭 귄</w>
페미닌 한</w>
페 스티
페스티 벌</w>
페 미니
페 달</w>
페 니
펄 럭</w>
펀 치</w>
팻 말</w>
팬츠 입니</w>
패스트 푸드</w>
패 키
패 배
패 널</w>
패 권
팔 하</w>
팔 팔하</w>
팔 아
팔아 넘기</w>
파괴 력</w>
파 행</w>
파 티
파 스</w>
파 삭
파 랑
티격태 격</w>
특 필</w>
특 집
특 선</w>
특 산품</w>
트라 이트</w>
트 러블</w>
트 라이
트 다운</w>
튤 립</w>
투 혼</w>
투 하</w>
투 피스</w>
투 척</w>
투 스</w>
투 수들</w>
투 석</w>
퇴 폐
퇴 조</w>
퇴 사</w>
퇴 각</w>
통 틀</w>
통 신사</w>
통 들</w>
토 종
텐 데요</w>
테크 닉</w>
테이 크</w>
테이 션</w>
테 면</w>
테 라
터 프</w>
태평 양
태양 에너지</w>
태 풍
태 자</w>
태 동</w>
탐관 오리들</w>
탐 사선</w>
탈 당</w>
타 진</w>
타 수</w>
타 석</w>
타 살</w>
키 워드</w>
키 다리</w>
클리 닉</w>
클 라이
큰 절</w>
큰 어머니</w>
큰 롤</w>
크리 에이
크 병</w>
쿼 터</w>
쿵 쾅</w>
쿡 쿡</w>
쿠 리</w>
쾅 쾅</w>
콩 팥</w>
콩 깍
콩깍 지</w>
콧 노래</w>
코디 하셔</w>
코 스트</w>
코 믹</w>
코 니</w>
켜 안</w>
케 인</w>
컬 렉션</w>
커 스</w>
캠 핑</w>
캐주 얼하</w>
캐 시
카운 트다운</w>
카 지
카 르
칭 얼거리</w>
침략 전쟁</w>
침략 군</w>
침 팬지</w>
침 탈</w>
침 구</w>
칠 레</w>
친목 회</w>
친 화력</w>
친 족</w>
친 절히</w>
친 북</w>
칙 금</w>
치 소</w>
치 기
치 고</w>
층 층</w>
층 계</w>
취사 선택</w>
취 재원</w>
취 소
충분 치</w>
충 제</w>
출판 물</w>
출 해</w>
출 납</w>
춘 추</w>
축구 선수</w>
축 출</w>
축 전</w>
축 기</w>
축 구하</w>
추진 키</w>
추모 제</w>
추렴 하</w>
추 키</w>
추 상화</w>
촬 영장</w>
총각 들</w>
총 체</w>
총 장님</w>
총 알
총 대</w>
총 괄적</w>
촛불 집회</w>
촌 수</w>
초롱 초롱하</w>
초 상
초 면</w>
초 대한</w>
초 당</w>
초 급
체육 대회</w>
체 포
체 만
청년 실업</w>
청 동기</w>
철 부지</w>
천편 일률적</w>
천재 지변</w>
천연 적</w>
천연 자원</w>
천리 마</w>
천년 고도</w>
천 지
천 양지
천 식</w>
천 부</w>
천 박한</w>
천 고</w>
처 방전</w>
책 상
채 광</w>
찾 아들</w>
창 창</w>
창 이</w>
창 군</w>
창 건</w>
참 전
참전 용사</w>
찰 싹</w>
찰 나</w>
찰 과
찰과 상</w>
찬 조금</w>
찬 동</w>
착 역</w>
차관 급</w>
차 한</w>
차 편</w>
차 트</w>
찍 찍</w>
찌 릿</w>
찌 검</w>
쫀 쫀
짝 짜
집행 부</w>
집권 당</w>
집 무실</w>
집 력</w>
집 들</w>
짐 칸</w>
짐 작
질 문
질 렀다</w>
질 끈</w>
질 금
질 그릇</w>
진 출권</w>
진 중</w>
진 정제</w>
진 저리</w>
진 부</w>
진 면목</w>
진 눈
진눈 깨비</w>
진 경</w>
직업 상</w>
직 분</w>
직 면
지지 자</w>
지지 리</w>
지적 한</w>
지역 구</w>
지역 감정</w>
지렛 대</w>
지도 원</w>
지난 여름</w>
지 푸
지 표면</w>
지 평</w>
지 출액</w>
지 졸</w>
지 정
지 엔</w>
지 색</w>
지 사들</w>
지 랄</w>
지 당</w>
지 나가</w>
지 글</w>
지 검</w>
증권 시장</w>
증 오
증 언
증 맞</w>
증 기
즉 각적</w>
중심 가</w>
중소 기업
중립 성</w>
중독 증</w>
중간 쯤</w>
중 화학</w>
중 재
중 장비</w>
중 이
중 생</w>
중 산</w>
중 복
중 병</w>
중 미</w>
중 무장</w>
중 류</w>
중 등학교</w>
중 등</w>
중 독성</w>
중 도적</w>
중 대형</w>
중 견
준기 야</w>
죽 한</w>
주최 국</w>
주제 넘</w>
주시 했다</w>
주먹 질</w>
주 종</w>
주 성분</w>
주 물
주 류
죄 목</w>
좌 천</w>
종합 주가지수</w>
종 횡무진</w>
종 착역</w>
종 식</w>
종 사자들</w>
종 류
종류 별</w>
졸 중</w>
졸 음
존 스</w>
족 발</w>
조화 로운</w>
조정 하기</w>
조심 하시오</w>
조상 님</w>
조난 자</w>
조 형</w>
조 하</w>
조 폭</w>
조 직위</w>
조 정해</w>
조 식</w>
조 련사</w>
제조 업자</w>
제1 조</w>
제 휴
제 후</w>
제 해</w>
제 한
제 트</w>
제 출하시</w>
제 주
제 정한</w>
제 소</w>
제 들</w>
제 국
정확 도</w>
정비 례
정보 력</w>
정기 국회</w>
정권 교체</w>
정 육
정 열
정열 적</w>
정 법</w>
정 벌</w>
정 론</w>
정 관</w>
정 견</w>
접 이식</w>
접 속
점 프
절 정기</w>
절 전</w>
절 적</w>
절 박한</w>
절 대다수</w>
절 규</w>
절 간</w>
전시 한</w>
전도 사</w>
전기 료</w>
전국 시대</w>
전공 과목</w>
전 의</w>
전 역
전 속</w>
전 서</w>
전 분</w>
전 범</w>
전 리
전리 품</w>
전 깃
전 군</w>
전 격적</w>
적재 적소</w>
적당 치</w>
적 체</w>
적 지근하</w>
적 반
적반 하장</w>
적 립</w>
저 지</w>
저 조</w>
저 장고</w>
저 만치</w>
저 력</w>
저 거</w>
쟁이 덩굴</w>
쟁 론</w>
재 선</w>
재 분배</w>
재 료비</w>
재 량
재 들</w>
재 구성</w>
장작 불</w>
장려 금</w>
장난 기</w>
장난 감들</w>
장 식
장 성한</w>
장 맛
장맛 비</w>
장 구치</w>
장 관들</w>
잖 니</w>
잔 인함</w>
잔 물결</w>
잔 등</w>
작업 도</w>
자주 성</w>
자유분 방</w>
자유 로</w>
자꾸 나</w>
자기 편</w>
자 책</w>
자 애
자애 로운</w>
자 모</w>
자 명</w>
자 명
자명 종</w>
자 마</w>
자 리한</w>
자 구
자 갈
잉 크병</w>
있 다
입 버릇</w>
입 국자</w>
임 차</w>
임 지</w>
임 의
일시 불</w>
일상 화</w>
일본 식</w>
일가 친척</w>
일 편단심</w>
일 조</w>
일 솜씨</w>
일 변</w>
일 변
일변 도</w>
일 몰</w>
일 망
일 류
일 람
일 그러지</w>
인자 함</w>
인스턴 트</w>
인수 합병</w>
인사 동</w>
인사 검증</w>
인력 자원</w>
인 화성</w>
인 턴
인 신</w>
인 삼
인 대</w>
인 공적</w>
이틀 째</w>
이슬 비</w>
이상 야릇</w>
이동 해</w>
이간 질하</w>
이 착륙</w>
이 진</w>
이 지만</w>
이 지러지</w>
이 주민들</w>
이 율</w>
이 유식</w>
이 여</w>
이 십
이 사가</w>
이 방</w>
이 방
이 며</w>
이 를
이를 테면</w>
이 냐</w>
이 남</w>
이 까</w>
이 구먼</w>
의존 해서</w>
의문 점</w>
의료 법</w>
의 약
의 분</w>
의 병</w>
의 별</w>
의 관</w>
의 결
응 원
응 용
음식 문화</w>
음식 값</w>
음 해하</w>
음 습</w>
음 계</w>
은행 원</w>
은 어</w>
은 사님</w>
은 백색</w>
은 근</w>
윽박 지르</w>
으슬 으
으로 선</w>
으 시기</w>
으 려다</w>
으 래</w>
육상 경기</w>
육 질</w>
육 중</w>
육 교</w>
유학 파</w>
유통 업계</w>
유유 자적</w>
유머 러
유리 알</w>
유람 객</w>
유 혹적</w>
유 혈</w>
유 파</w>
유 제품</w>
유 서</w>
유 산소</w>
유 모
유모 차</w>
유 류
유 료</w>
유 네
유네 스코</w>
유 교적</w>
위 탁
위 중</w>
위 염</w>
위 궤양</w>
위 계</w>
웨 지
월드베이스볼 클래식</w>
월급 날</w>
월 남
원자 력
원 주</w>
원 예</w>
원 양</w>
원 소절</w>
원 룸</w>
원 년</w>
원 격</w>
원 거리</w>
웅 장
울긋불 긋하</w>
울 컥</w>
운영 비</w>
운송 할</w>
운 항
우라 늄</w>
우 한시</w>
우 지</w>
우 중
우 연
우 언</w>
우 방</w>
우 뚝
우 등</w>
용 접
용 선</w>
용 두
용 건</w>
요리 법</w>
요 금
요 괴</w>
외 풍</w>
외 박</w>
외 로이</w>
외 가</w>
왕 희
왕 군</w>
완벽 히</w>
완 패</w>
완 승</w>
옹기 종기</w>
옵 니</w>
올림 피아드</w>
올 챙이</w>
올 스타
온 유</w>
옥 죄</w>
옥 수</w>
오지 랖</w>
오염 도</w>
오므 리</w>
오들오 들</w>
오그라 들</w>
오곡 밥</w>
오 열</w>
오 산</w>
오 길</w>
옛 친구</w>
예술 단</w>
예 불</w>
예 배당</w>
예 닐
영화 표</w>
영화 사</w>
영 특</w>
염색 한</w>
염 불</w>
열어 젖히</w>
열 성
열 등</w>
연필 심</w>
연쇄 적</w>
연극 계</w>
연구 자</w>
연 체
연 역적</w>
연 서</w>
역전 패</w>
역 차별</w>
역 설적</w>
역 사관</w>
역 동적</w>
역 꾸
역꾸 역</w>
여하 튼</w>
여편 네</w>
여러분 들
여남 은</w>
여 호
여 인
여 울</w>
여 우
여 식</w>
여 색</w>
여 권
여 가
엔 트리</w>
에게 서는</w>
에 로</w>
에 그</w>
에 구</w>
엎치락뒤치 락하</w>
엎지 른</w>
었 대요</w>
없 으
업 데이트</w>
얽 히고설
얼 씬
언덕 길</w>
억 측</w>
어야 겠네</w>
어슬렁어슬 렁</w>
어물 쩍</w>
어두 움</w>
어 찔
어 딨
어 눌</w>
양지 쪽</w>
양 화</w>
양 하</w>
양 팔</w>
양 털</w>
양 조</w>
양 복
양 민</w>
양 론</w>
양 극</w>
약 혼자</w>
약 해서</w>
야 학</w>
야 오밍</w>
야 밤</w>
야 드</w>
앤 드</w>
액 권</w>
애 통</w>
애 잔</w>
애 수</w>
애 국주의</w>
애 걸</w>
앞 일</w>
앞 바다</w>
앙 탈</w>
압 송</w>
암 호
암 거래</w>
알루미 늄</w>
알뜰 히</w>
앉 으세요</w>
안전 보장
안방 극장</w>
안내 소</w>
안 착
안 식
악착 같이</w>
악 착</w>
악 덕</w>
악 담</w>
아파 트들</w>
아직 껏</w>
아일 랜드</w>
아이 큐</w>
아이 참</w>
아이 러
아메리 카노</w>
아랫 배</w>
아랑 곳
아들 들</w>
아동 복</w>
아니 란</w>
아가 미</w>
아 티
아 제한</w>
아 잖아</w>
아 옹
아 단</w>
아 기들</w>
쓱 쓱</w>
쏟 아부</w>
쌩 쌩</w>
쌍 용차</w>
쌍 쌍</w>
쌀 독</w>
싼 시아
싸움 질</w>
싸 다니</w>
십자 가</w>
십 이
심플 하</w>
실패 하자</w>
실무 적</w>
실 효</w>
실 해</w>
실 토
실 외</w>
실 없이</w>
실 수
실 린</w>
실 력자</w>
신용 등급</w>
신용 대출</w>
신데렐 라</w>
신경 질적</w>
신 학</w>
신 탁</w>
신 창이</w>
신 지앙</w>
신 심</w>
신 물</w>
신 맛</w>
신 관</w>
식이 요법</w>
식 전</w>
식 거리</w>
식 감</w>
시끌 시끌
시 후</w>
시 즘</w>
시 앙</w>
시 비
시 발
시 리아</w>
시 대상</w>
시 다시피</w>
시 경</w>
승리 자</w>
승 합
승 천</w>
승 전보</w>
승 마</w>
습 해서</w>
습 관화</w>
슬림 해</w>
슬라이 드</w>
슬 림</w>
슬 램</w>
슬 금</w>
슬 금
슬금 슬금</w>
스프 링
스포 트라이트</w>
스트레 칭</w>
스트 링</w>
스키 니
스카 이
스 프</w>
스 펙
스 텝</w>
스 킨</w>
스 북</w>
스 릴
스 럽다</w>
스 러지</w>
스 낵</w>
슈퍼 컴퓨터</w>
쉬 하</w>
쉬 쉬하</w>
숯 불</w>
숭 숭</w>
숭 늉</w>
숨 막히</w>
술 병</w>
술 맛</w>
술 렁이</w>
숟 갈</w>
순 환
순 탄
순 차적</w>
숙박 비</w>
숙 하</w>
수확 기</w>
수양 버들</w>
수술 실</w>
수상 작</w>
수사 팀</w>
수다 쟁이</w>
수 하
수 초</w>
수 차</w>
수 족
수 의</w>
수 선
수 산
쇼핑 백</w>
쇼 트</w>
쇠 하</w>
쇠 사슬</w>
송 전</w>
송 어</w>
송 년</w>
송 곳</w>
손 톱
손 찌검</w>
손 동작</w>
손 금</w>
속속 들이</w>
소아 마비</w>
소수 점</w>
소비 세</w>
소방 당국</w>
소꿉 놀이</w>
소 쿠리</w>
소 음
소 셜
소 산</w>
소 담</w>
소 기</w>
소 고기</w>
소 경</w>
셨 지</w>
셨 죠</w>
셨 군</w>
셀 러
센 터
세무 조사</w>
세계 사</w>
세 제
세 적</w>
세 스</w>
세 세</w>
세 비</w>
세 목</w>
성심 성의껏</w>
성 직자</w>
성 전</w>
성 원해</w>
성 매매</w>
섭 취
설명 회</w>
선진 국들</w>
선열 들</w>
선언 문</w>
선물 용</w>
선거관리 위원회</w>
선거 일</w>
선 창</w>
선 임
선 인장</w>
선 구자</w>
선 교사</w>
석연 치</w>
석사 과정</w>
석 박사</w>
석 류
서 호</w>
서 해</w>
서 정</w>
서 언</w>
서 식지</w>
서 스</w>
서 면</w>
서 론</w>
서 든</w>
샤 브</w>
샤 브
샤브 샤브</w>
생활 환경</w>
생활 력</w>
생 크림</w>
생 채</w>
생 사
생 매장</w>
생 강</w>
색 소</w>
새 신랑</w>
상품 화</w>
상용 화</w>
상승 폭</w>
상대 하기</w>
상 통</w>
상 영관</w>
상 아</w>
상 실감</w>
상 수</w>
상 서
상 무
상 공업</w>
삼 천</w>
삼 아</w>
살 충제</w>
살 얼음</w>
살 벌</w>
살 랑
산업 혁명</w>
산 후</w>
산 천
산 아제한</w>
산 성비</w>
사흘 간</w>
사회 성</w>
사회 보장</w>
사이 클</w>
사이 렌</w>
사실 주의</w>
사실 들</w>
사실 관계</w>
사뿐 히</w>
사무 적</w>
사립 학교</w>
사내 대장부</w>
사기 죄</w>
사과 드리</w>
사 학
사 철</w>
사 족</w>
사 양
사 야</w>
사 설
사 서</w>
사 마귀</w>
뾰 루
빨랫 감</w>
빨 리하</w>
빨 래
빨 대</w>
빚 쟁이들</w>
빚 더미</w>
빗 장</w>
비치 발리
비치발리 볼</w>
비자 면제</w>
비비 드</w>
비 평가</w>
비 틀리</w>
비 즈</w>
비 논리적</w>
비 녀</w>
비 경제적</w>
브라 운
브 러시</w>
브 랜드
뷔 페</w>
붙 들리</w>
불평 불만</w>
불쾌 감</w>
불분명 한</w>
불법 행위</w>
불교 계</w>
불 효
불 화로</w>
불 한당</w>
불 필요</w>
불 청객</w>
불 수</w>
불 문
불 모지</w>
불 면</w>
불 놀이</w>
불 길
불길 한</w>
불 과
불 거리</w>
분 향</w>
분 파</w>
분 지</w>
분 배
분 교</w>
북 받치</w>
북 대
북 녘</w>
부터 가</w>
부실 기업</w>
부둥 켜안</w>
부동산 시장</w>
부담 감</w>
부녀 회</w>
부글부 글</w>
부 하
부 인과</w>
부 의금</w>
부 여
부 슬
부 라지</w>
부 라리</w>
부 득</w>
부 대원들</w>
부 고</w>
봉 록</w>
봄 여름</w>
봄 꽃</w>
볼품 없</w>
본 체만
본 심</w>
본 시</w>
본 뜻</w>
본 거지</w>
복사 꽃</w>
복 해서</w>
복 학</w>
복 안</w>
보온 병</w>
보도 블록</w>
보 하</w>
보 카
보 증인</w>
보 석
보 물
보 루</w>
보 검</w>
병 존</w>
병 음</w>
병 용</w>
병 영</w>
병 약</w>
병 명</w>
볏 짚</w>
별 일</w>
별 의별</w>
변화 도</w>
변 태
변 명
베이징 어</w>
베이 트</w>
베이 직한</w>
베갯 잇</w>
베 틀</w>
베 네
법 사</w>
법 관들</w>
범죄 인</w>
범 칙금</w>
번호 표</w>
번쩍 번쩍</w>
번들번 들하</w>
버 스터</w>
뱅 킹</w>
뱅 글</w>
백지 화</w>
백일 장</w>
백설 공주</w>
백 혈
백 주</w>
백 분
백 번</w>
백 기</w>
배송 비</w>
배 심
배 수진</w>
배 변</w>
배 반
밭 농사</w>
방 책</w>
방 정식</w>
방 정</w>
방 부제</w>
방 만한</w>
밤 나무</w>
발표 자</w>
발생 률</w>
발가 벗</w>
발 파</w>
발 코니</w>
발 이</w>
발 아</w>
발 붙이</w>
발 렌
발 뒤꿈치</w>
발 끈</w>
발 굽</w>
발 광</w>
받아 치</w>
반신 불수</w>
반려 자</w>
반대 해</w>
반 항
반 액</w>
반 송
반 려</w>
반 경</w>
반 가</w>
밖 에는</w>
박살 내</w>
박 약</w>
박 빙</w>
박 복</w>
바위 들</w>
바나 나
바 오
바 들
바 닐
바 꿔
밀 하</w>
밀 정</w>
민박 집</w>
민간 요법</w>
민 영</w>
민 당</w>
미안 합니다만</w>
미국 과</w>
미 학</w>
미 진</w>
미 약한</w>
미 식</w>
미 스터</w>
미 명</w>
미 련
미 동</w>
미 궁</w>
뭔 가요</w>
물 약</w>
물 개</w>
물 가
문화 예술</w>
문예 계</w>
문 상</w>
문 법적</w>
무장 경찰</w>
무용 단</w>
무료 배송</w>
무기 명</w>
무 효
무 차별적</w>
무 진한</w>
무 좀</w>
무 제</w>
무 자비</w>
무 언</w>
무 소속</w>
무 소
무 서
무 기질</w>
무 구</w>
묘 연</w>
몽 고</w>
못 질</w>
몸 싸움</w>
몸 수색</w>
몰아 쉬</w>
목욕 재계</w>
목 축
목 련</w>
목 동</w>
목 격
모 호
모 션</w>
모 반</w>
모 란
명예 퇴직</w>
명승 지</w>
명 치</w>
명 창</w>
명 찰</w>
명 인</w>
명 언</w>
명 문화</w>
명 대사</w>
면도 기</w>
면 체</w>
메이저리 거</w>
메모 지</w>
메 카</w>
메 주</w>
멍청 히</w>
멍 석</w>
먼 저
먹 먹
머리 채</w>
머 플러</w>
맹 자</w>
맨 투
맨 유</w>
맨 살</w>
맥주 병</w>
맥 없이</w>
매운 탕</w>
매스 껍</w>
매 하</w>
매 캐
매 도
맞아 떨어지</w>
맞아 떨어졌다</w>
맞 바꾸</w>
망 성</w>
망 나니</w>
말썽 꾸러기</w>
말 짱하</w>
말 이요</w>
만족 해</w>
만성 병</w>
만 해서</w>
만 찬회</w>
만 신창이</w>
만 선</w>
만 민</w>
만 둣
만 대</w>
만 남</w>
만 국기</w>
막 식</w>
막 돼먹</w>
막 극</w>
마음 고생</w>
마니 아들</w>
마 찰
마 인드</w>
마 시
마 스터</w>
마 대</w>
릭 스</w>
리모 컨</w>
리 포트</w>
리 조
리 베이트</w>
롤 러
론 짓</w>
로 프</w>
로 큰롤</w>
로 즈</w>
로 제</w>
로 열
로 서도</w>
로 부터의</w>
로 니
려 달라</w>
레슬 링</w>
레 코드</w>
레 스
랭 이</w>
랙 스</w>
락 푸르
라이 너</w>
라 인상</w>
라 스
라 마</w>
뜻 깊</w>
뛰어 놀
뚝 딱</w>
또렷 이</w>
떨 떠
떠 러지</w>
땜 질</w>
땅 딸
딴 생각</w>
디즈 니</w>
디자 인과</w>
디 브이
등 쌀</w>
등 받이</w>
등 반하</w>
등 나무</w>
들쑥날 쑥하</w>
들락 날
들 풀</w>
들 은</w>
드림 팀</w>
드리 블</w>
드레 만
뒷 심</w>
뒷 발</w>
뒤뚱뒤 뚱</w>
뒤 뜰</w>
둔 감</w>
두부 찌개</w>
두루 뭉
두근 두근</w>
두 시</w>
두 산
두 뇌
되돌아 오</w>
되 팔</w>
동양 화</w>
동북 부</w>
동 화
동 학
동 풍</w>
동 제</w>
동 점</w>
동 일시</w>
동 인</w>
동 력
동 냥</w>
동 남쪽</w>
돌아 가</w>
돌 팔
돌 잔치</w>
돌 아</w>
돌 돌</w>
돌 대가리</w>
독 실한</w>
독 대</w>
도외 시</w>
도박 장</w>
도매 상</w>
도둑 들</w>
도 합</w>
도 전적</w>
도 전장</w>
도 움
도 선</w>
도 상</w>
도 련
도 라는</w>
도 끼
도 그
도 감</w>
도 가</w>
데면 데
데면데 면하</w>
덮어 쓰</w>
덩 크</w>
더 없</w>
더 블</w>
더 들</w>
대장 장이</w>
대성 통곡</w>
대서 특필</w>
대 회장</w>
대 협곡</w>
대 잠수함
대 업</w>
대 승적</w>
대 승</w>
대 숲</w>
대 병원</w>
대 별</w>
대 번에</w>
대 밭</w>
대 롱</w>
대 로
대 동</w>
대 대
당 제</w>
당 론</w>
당 락</w>
당 돌</w>
당 구</w>
답 습해서</w>
담뱃 대</w>
담당 자들</w>
담 쟁이덩굴</w>
담 아
담 겨지</w>
달콤 함</w>
달구 지</w>
달 인</w>
달 리
단순 화</w>
단 청</w>
단 정적</w>
단 일화</w>
단 부</w>
단 막극</w>
단 들</w>
단 기
다짜고 짜로</w>
다짜고 짜</w>
다저 스</w>
다 한</w>
다 재
다 수확</w>
다 보
다 목적</w>
다 릿
다 단계</w>
다 다
다 국
니 지</w>
늦 을
능 청</w>
능 력자</w>
능 글맞</w>
는 다며</w>
느릿 느릿하</w>
눈 이</w>
눈 금</w>
누 에</w>
누 누이</w>
뇌 중풍</w>
뇌 졸중</w>
농구 팀</w>
농 경</w>
농 가들</w>
놀 음</w>
놀 래</w>
논 제</w>
논 설</w>
논 리
녹 두
노조 원</w>
노인 네</w>
노름 판</w>
노른 자위</w>
노르 웨이</w>
노동 운동</w>
노동 과</w>
노 호</w>
노 즐</w>
노 여움</w>
노 부모</w>
노 닐</w>
네 거리</w>
널빤 지</w>
널 목</w>
널 드</w>
너무 너무</w>
너 르</w>
냉방 병</w>
냉 정히</w>
내 조</w>
내 일
내 실</w>
내 셔널</w>
내 무
내 면적</w>
내 놔</w>
낯 짝</w>
낭 떠러지</w>
납치 범</w>
남 성적</w>
남 모르</w>
남 도</w>
남 달리</w>
남 극
날 갯
날 개
난 치병</w>
난 쟁</w>
난 이</w>
난 삽</w>
난 사</w>
난 도</w>
낚시 꾼들</w>
낙 찰
낙 지</w>
나이 트
나뭇 가지들</w>
나 치</w>
나 직
나 이키</w>
나 비들</w>
나 불거리</w>
나 방</w>
나 다
낑낑 거리</w>
끼 어들</w>
끼 어
끙 끙</w>
끈 덕지</w>
끄 무
끄 러미</w>
꿀 꺽
꾸 역꾸역</w>
꾸 불
꾸 벅
꽃 꽂이</w>
꼼짝 달싹</w>
꼬리 표</w>
껌 벅
깨 소금</w>
깔 창</w>
깐깐 하</w>
까 막
까 닥</w>
김 포</w>
김 병
기하 학</w>
기와 집</w>
기술 혁신</w>
기술 자들</w>
기념 촬영</w>
기관지 염</w>
기관 장</w>
기 합</w>
기 우</w>
기 왕성</w>
기 네
기 구들</w>
기 골</w>
급 진적</w>
급 박한</w>
급 류</w>
금융 위기</w>
금융 업</w>
금 테</w>
금 광</w>
금 값</w>
금 가</w>
긁어모 았다</w>
글씨 체</w>
글쎄 요</w>
근질 근
근질근 질하</w>
근무 자</w>
근 황</w>
근 시</w>
근 세</w>
근 본
극 하</w>
그랑 프리</w>
그 분들</w>
그 레하</w>
규 칙
귀납 적</w>
귀 측</w>
귀 청</w>
귀 의</w>
귀 순</w>
귀 들</w>
굴러 다니</w>
군것 질거리</w>
군 인
군 밤</w>
군 말</w>
군 고구마</w>
국가 정보원</w>
국 장님</w>
국 은</w>
국 유
국 위</w>
국 영</w>
국 난</w>
국 권</w>
구태 의연</w>
구세 주</w>
구석 지</w>
구 태</w>
구 축
구 직자</w>
구 명</w>
구 릉
굣 길</w>
교통 카드</w>
교통 법규</w>
교통 량</w>
교 포들</w>
교 탁</w>
교 역
교 분</w>
교 두보</w>
교 도</w>
교 단</w>
교 과</w>
괴 한들</w>
괴 상
광고 주</w>
광 주
광 저우</w>
광 고비</w>
관리 법</w>
관리 국</w>
관료 주의적</w>
관련 해서</w>
관 음
관 세
관 료들</w>
관 념
과 찬</w>
과 제물</w>
과 장님</w>
과 자
과 의사</w>
과 실
과 묵</w>
공포 감</w>
공정거래 위원회</w>
공공 부문</w>
공 천
공 언</w>
공 식화</w>
공 방전</w>
공 리</w>
공 론
공 군
골 송
골 반</w>
곤 드레만
곡 괭이</w>
고함 치</w>
고부 간</w>
고백 성사</w>
고민 거리</w>
고대 인</w>
고깃 덩이</w>
고급 화</w>
고 파</w>
고 층
고 쳐
고 착</w>
고 주
고 졸</w>
고 역</w>
고 분</w>
고 봉</w>
고 맙
고 루
고 공</w>
고 갯
계획 표</w>
계획 안</w>
계획 서</w>
계산 기</w>
계량 기</w>
경축 일</w>
경찰 력</w>
경제 개발</w>
경영 자들</w>
경 협</w>
경 조사</w>
경 망</w>
경 력
경 개</w>
결정 하기</w>
결정 체</w>
결 항</w>
결 한</w>
결 핍증</w>
결 박</w>
결 론짓</w>
견 해
견 제
격 퇴</w>
겠 느냐는</w>
게 슴츠
겉 돌
겁 결</w>
검찰 총장</w>
검 표</w>
검 은
검 역</w>
검 수</w>
걸려 들었다</w>
건축 업</w>
건설 적</w>
건배 하</w>
건너 다보</w>
건강 해지</w>
건 전한</w>
건 널목</w>
거짓 말
거물 급</w>
거래 량</w>
거 주자</w>
거 성</w>
거 머리</w>
거 두
갸우 뚱</w>
갱 년기</w>
개찰 구</w>
개선 안</w>
개 탄</w>
개 전</w>
개 살구</w>
개 교
강의 동</w>
강 재</w>
강 인</w>
강 북</w>
강 기슭</w>
강 강
감상 문</w>
감독 들</w>
감 화력</w>
갈아 엎
갈비 뼈</w>
간 수</w>
간 부
간 다</w>
간 꾼</w>
가축 들</w>
가죽 옷</w>
가족 계획</w>
가정 교육</w>
가을 비</w>
가스 총</w>
가부장 적</w>
가 팔
가 톨
가 차
가 습기</w>
가 속
가 산
가 보</w>
가 망성</w>
가 두</w>
r e
l e</w>
i n
9 억</w>
9 9</w>
8 할</w>
8 위</w>
8 8</w>
8 4
8 1</w>
8 000</w>
70 세</w>
7 000</w>
7 00
60 세</w>
6 호</w>
6 위</w>
6 세</w>
500 위</w>
50 퍼센트</w>
50 세</w>
5 학년</w>
5 센티미터</w>
4 차례</w>
4 8
4 ,000</w>
30 위</w>
3 호</w>
3 장</w>
3 자</w>
3 사</w>
3 백</w>
3 대
3 곳</w>
200 4</w>
20 년대</w>
20 18년</w>
2,000 위</w>
2 등</w>
2 급</w>
2 군</w>
2 건</w>
2 6명</w>
2 3명</w>
198 8년</w>
198 2년</w>
12 세</w>
1000 억</w>
100 퍼센트</w>
100 대</w>
1 세</w>
1 만여</w>
1 단</w>
000 원</w>
히 틀
히틀 러</w>
히 딩
희 끄무
희끄무 레하</w>
희 극적</w>
흥청 망
흔들 흔들</w>
흐 뭇
흐 느
흐느 적거리</w>
휴대 전화기</w>
휘둥 그렇</w>
훌 훌</w>
훈 시</w>
훈 도</w>
후 지산</w>
후 임자</w>
후 일</w>
후 련
후련 해지</w>
후 덕</w>
후 끈하</w>
후 감</w>
회의 석상</w>
회 칙</w>
회 사일</w>
회 개</w>
회 갑</w>
황 실</w>
황 리</w>
홧 김</w>
환경 단체</w>
환 전하</w>
환 수</w>
환 생</w>
환 멸</w>
환 난</w>
확 천금</w>
확 실
화목 한</w>
화 훼</w>
화 합
화 염병</w>
화 술</w>
화 성
화 되</w>
화 덕</w>
홍 조</w>
홈 피</w>
홈 팀</w>
호락호 락하</w>
호 적
호 의적</w>
호 시
호시 탐
호시탐 탐</w>
호 도하</w>
형식 주의</w>
형 극</w>
협 의서</w>
협 소한</w>
협 동
혈액 형</w>
혈 당</w>
현대 자동차</w>
현대 백화점</w>
현 물</w>
현 모양
현모양 처</w>
헤 드</w>
헌 장</w>
헌 병</w>
허허 벌판</w>
허송 세월</w>
허리 케인</w>
허리 선</w>
허리 둘레</w>
허드렛 일</w>
허가 권</w>
허 탕</w>
허 탕
허 위적</w>
허 우</w>
향 응</w>
향 살이</w>
향 배</w>
행위 자</w>
했 대</w>
핵 폭탄</w>
해외 파</w>
해당 화</w>
해결 사</w>
해 학적</w>
해 사</w>
해 무
항공 우주국</w>
항 행
항 생
항생 제</w>
항 구적</w>
핫 팬츠</w>
합 해</w>
합 창
합 지졸</w>
합 자</w>
합 세</w>
합 선</w>
합 금</w>
함 몰</w>
할 아버님</w>
할 까봐</w>
한마디 씩</w>
한 치</w>
한 의원</w>
한 번
한 달</w>
한 가지</w>
학습 자</w>
학생 회장</w>
학교 생활</w>
학 년
하이 난</w>
하와 이</w>
하고 서도</w>
하고 서는</w>
하 얼
하 세요</w>
하 리
하 드</w>
하 도록</w>
하 더니</w>
하 느</w>
하 겠소</w>
필요 한데</w>
필연 코</w>
필기 도구</w>
필 체</w>
필 사</w>
피트 니스</w>
피크 제</w>
피로 연</w>
피 팅</w>
피 임
피 식</w>
피 격</w>
플라 톤</w>
프로듀 서</w>
프로그래 머</w>
프로 그
퓨 즈</w>
풍 수</w>
풍 속도</w>
풍 만</w>
품 절
품 삯</w>
풀 뿌리</w>
푼 깨</w>
푸르 스름하</w>
표 차</w>
표 제</w>
표 면화</w>
폭력 배들</w>
폭 약</w>
포유 류</w>
포도 송이</w>
포 복
포 로들</w>
폐 장</w>
평가 원</w>
평 하</w>
평 면적</w>
평 당</w>
편리 성</w>
편 달</w>
편 곡</w>
페트 병</w>
페이 퍼</w>
페니 실린</w>
페 널
펄럭 펄럭</w>
퍼 팅</w>
퍼 즐</w>
퍼 레이드</w>
퍼 드</w>
퍼 덕이</w>
패션 계</w>
패 브
패브 릭</w>
패 딩
패 가
패가 망신</w>
팔 자
팔 레
판매 망</w>
판 지</w>
판 장</w>
판 이</w>
판 별</w>
판 례</w>
팍 팍
파이 톤</w>
파랑 새</w>
파 출부</w>
파 리
파 르르</w>
파 닥</w>
팀 플레이</w>
틱 한</w>
특 진</w>
특 구</w>
특 강</w>
트럼 프</w>
트 에서</w>
트 랩</w>
퉁 명</w>
툭 하</w>
투표 소</w>
투 톤</w>
투 사들</w>
퇴 폐</w>
퇴 로</w>
퇴 근
통행 료</w>
통 역
통 기성</w>
통 감</w>
톡톡 하</w>
토 플</w>
토 종</w>
토 실토
토 산물</w>
토 벌</w>
토 목</w>
테러 리스트들</w>
터치 감</w>
터 빈</w>
탱 탱
택 일</w>
태 블
태 두</w>
태 극</w>
태 교</w>
탕 감</w>
탑승 권</w>
탐 탁</w>
탈 옥수</w>
탈 감</w>
탁구 공</w>
탁 보</w>
타협 안</w>
타 향살이</w>
타 주</w>
타 고
킁 킁
클리 닝</w>
클로 스</w>
클로 버</w>
클래 스</w>
클 러</w>
큰 언니</w>
큰 누나</w>
크리스 털</w>
크로 스
크레 인</w>
크 스
큘 럼</w>
퀼 팅</w>
쿵쾅 쿵쾅</w>
쿵 후</w>
쿨 링</w>
콩 쿠르</w>
콧 김</w>
콜 롬
코디 하기</w>
코 코
케어 라벨</w>
컨 닝</w>
커 팅</w>
커 리
커리 큘럼</w>
캔 버스</w>
캐 리
칸 방</w>
카지 노</w>
카운 트</w>
카드 회사</w>
카 페인</w>
카 레</w>
침대 보</w>
침 해
칠 석</w>
친척 집</w>
친밀 감</w>
친구 들이</w>
친 박</w>
친 박
치밀 었다</w>
치맛 자락</w>
치 통</w>
치 적</w>
치 엔
치 아
측 근
측근 들</w>
츄 완</w>
취 침</w>
취 월
취월 장</w>
취 약점</w>
출항 할</w>
출하 하</w>
출석 부</w>
출발 해</w>
출 타</w>
출 신
출 세
춘 곤증</w>
축하 객</w>
축구 협회</w>
축구 시합</w>
축구 대회</w>
축 재</w>
추구 해서</w>
추 석
추 계</w>
최저 치</w>
최고 조</w>
최고 점</w>
최고 가</w>
최 신형</w>
최 대한
최대한 도</w>
총총 히</w>
총 칼</w>
총 책임자</w>
총 아</w>
총 무
총 구</w>
총 격전</w>
총 격</w>
촉진 제</w>
초 호화</w>
초 저녁</w>
초 일류</w>
초 식</w>
초 순</w>
초 상권</w>
초 대권</w>
초 고추장</w>
쳐 지</w>
체육 계</w>
체감 경기</w>
체 통</w>
체 인
체 면상</w>
청량 감</w>
청 주</w>
청 정기</w>
청 약</w>
청 빈</w>
청 부
청 록색</w>
첨단 기술</w>
첨 화</w>
철 칙</w>
철 썩
철 미</w>
철 면
철 리</w>
철 두
철두 철미</w>
철 도청</w>
철 교</w>
철 광석</w>
철 광</w>
철 거
천하 제일</w>
천재 성</w>
천연 두</w>
천 추</w>
천 차
천차 만
천차만 별</w>
천 생
천 도</w>
척 수</w>
처 장</w>
처 분
처 먹</w>
처 로운</w>
처 럼
책 동</w>
채 식
채 록</w>
창 의</w>
창 살</w>
창 립
참여 도</w>
참 히</w>
참 극</w>
참 고인</w>
참 고서</w>
찬 스</w>
찬 송
착 오
차이 즈</w>
차이 점</w>
차이 나타
차이나타 운</w>
차 세대</w>
차 바퀴</w>
차 단기</w>
찜 찜</w>
찔끔 찔끔</w>
찌 우</w>
쭈 뼛</w>
쫄 딱</w>
쪽 쪽</w>
짱 한</w>
짠 맛</w>
짜여 져</w>
짓 수</w>
집행 유예</w>
집안 싸움</w>
집안 사람</w>
집 적
집 배원</w>
질 해</w>
질 한</w>
질 펀</w>
질 시</w>
질 겁</w>
진공 청소기</w>
진 주
진 일보</w>
진 술
진 수
진수 성찬</w>
진 범</w>
직 역</w>
직 언</w>
직 선적</w>
직 녀</w>
지푸 라기</w>
지체 해서</w>
지지 부진</w>
지원 책</w>
지역 민</w>
지상 정</w>
지상 군</w>
지망 생</w>
지독 히</w>
지도 상</w>
지 책</w>
지 참
지 점
지 성인</w>
지 볶음</w>
지 민
지 물</w>
지 느
지느 러미</w>
지 끈거리</w>
지 긋</w>
지 글
지글 지글</w>
증 표</w>
증 조부</w>
증 적</w>
즈 맨</w>
중국 화</w>
중국 어
중고 품</w>
중 위</w>
중 역</w>
중 령</w>
중 도
중 대성</w>
중 노동</w>
중 근</w>
중 건</w>
중 거리</w>
줏 빛</w>
줄 임말</w>
줄 담배</w>
준 엄한</w>
준 설</w>
준 결승전</w>
죽 마
주택 지</w>
주춤 거리</w>
주의 깊</w>
주민등록 번호</w>
주문 해</w>
주름 지</w>
주관 식</w>
주 화</w>
주 치
주 체들</w>
주 책</w>
주 정
주 재원</w>
주 원인</w>
주 얼</w>
주 야
주 실래요</w>
주 삿
주삿 바늘</w>
주 사위</w>
주 사
주 물</w>
주 모</w>
주 르르</w>
주 나라</w>
주 가
좋 으냐</w>
좋 긴</w>
종신 토록</w>
종 친</w>
종 가</w>
좀 먹</w>
존엄 사</w>
존 함</w>
존 망</w>
존 귀</w>
족 쇄</w>
조합 원들</w>
조사 결과</w>
조문 객</w>
조립 식</w>
조각 조각</w>
조각 들</w>
조 혼</w>
조 퇴
조 제하</w>
조 비</w>
조 별
조 무
조 련</w>
조 락</w>
조 급
져 서</w>
제 지
제 언</w>
제 삿
제 본</w>
제 값</w>
젖 줄</w>
젖 꼭지</w>
정치 개혁</w>
정치 가들</w>
정육 점</w>
정원 사</w>
정신 세계</w>
정성 스레</w>
정상 인</w>
정부 군</w>
정보 국</w>
정년 퇴직</w>
정 학</w>
정 유</w>
정 욕</w>
정 식
정 수리</w>
정 물화</w>
정 물</w>
정 맥</w>
정 략적</w>
정 녕</w>
정 나미</w>
정 구</w>
정 결</w>
젓 가락질</w>
접 착
점령 군</w>
점 골</w>
점 검
절도 범</w>
절 해</w>
절 명</w>
절 름거리</w>
절 룩거리</w>
절 구
전화 해</w>
전화 위
전화위 복</w>
전투 적</w>
전체 회의</w>
전신 주</w>
전시 실</w>
전문 가
전대 미
전대미 문</w>
전 재</w>
전 율</w>
전 위</w>
전 위
전 열</w>
전 압</w>
전 세계</w>
전 설적</w>
전 담
적 십자
적 색</w>
적 령
저 희들</w>
저 층</w>
저 지방</w>
저 모</w>
저 가
쟁 기</w>
잿 물</w>
재활 용하</w>
재정 립</w>
재정 경제부</w>
재 한</w>
재 촉
재 조정</w>
재 외
재 부</w>
재 방송</w>
재 료들</w>
재 론</w>
재 결합</w>
재 가</w>
장난 꾸러기</w>
장관 급</w>
장 형</w>
장 해</w>
장 지</w>
장 염</w>
장 수들</w>
장 보</w>
장 딴지</w>
장 독대</w>
장 대
장 거리
장 감</w>
잡 았다</w>
잡 문</w>
잡 무</w>
잠복 근무</w>
잠 적
잠 실</w>
잠 바</w>
잔칫 집</w>
잔 여</w>
잔 악</w>
잔 뼈</w>
잔 말</w>
잔 류</w>
작업 복</w>
작 들</w>
자주 국방</w>
자이 크</w>
자율 화</w>
자유 민주주의</w>
자유 무역</w>
자료 실</w>
자동차 들</w>
자기 주장</w>
자기 소개</w>
자격 지심</w>
자 포
자 탄</w>
자 차</w>
자 줏빛</w>
자 주권</w>
자 의</w>
자 수
자 리하</w>
자 놀이</w>
자 나무</w>
자 극
자 고</w>
자 결</w>
있 는가</w>
잇 속</w>
입법 권</w>
입 주자들</w>
입 주자</w>
입 신</w>
입 소</w>
입 석</w>
임 진
일자 무식</w>
일대 일</w>
일거 일동</w>
일 확천금</w>
일 취월장</w>
일 체화</w>
일 천</w>
일 정량</w>
일 순</w>
일 석
일석 이조</w>
일 비
일비 재</w>
일 방
일 란성</w>
일 관적</w>
일 견</w>
인플 루
인플루 엔
인플루엔 자</w>
인터뷰 하</w>
인식 표</w>
인스턴 트
인기 리</w>
인간 세상</w>
인간 미</w>
인 형극</w>
인 지상정</w>
인 증
인 절미</w>
인 의</w>
인 단</w>
이해 력</w>
이용 자들</w>
이용 료</w>
이용 객</w>
이슬람 교</w>
이방 인</w>
이미 지
이모 저모</w>
이모 작</w>
이래 라
이 차
이 종
이 자율</w>
이 음
이 시
이 솝</w>
이 보</w>
이 발사</w>
이 룩한</w>
이 라서</w>
이 등</w>
이 등
이 동지</w>
이 념적</w>
의회 정치</w>
의미 심
의미심 장한</w>
의무 교육</w>
의결 권</w>
의견 일치</w>
의 중</w>
의 정서</w>
의 장
의 약</w>
의 병들</w>
의 례</w>
의 구
의구 심</w>
응 집력</w>
음악 가</w>
음모 론</w>
음 절</w>
음 대</w>
을 요</w>
은 하수</w>
은 자</w>
은 인</w>
은 사</w>
으시 길</w>
으시 ㄴ가</w>
으슬으 슬</w>
으스 스</w>
으리 하</w>
으리 으리하</w>
으리 오</w>
으 렴</w>
으 라
율 법</w>
윤 활
육 박
육박 전</w>
육 감적</w>
유행 어</w>
유통 기한</w>
유치 장</w>
유엔 군</w>
유아 용</w>
유세 장</w>
유명 세</w>
유머러 스한</w>
유머 러스</w>
유도 탄</w>
유기 체</w>
유격 수</w>
유 희</w>
유 인
유 유</w>
유 목</w>
유 로
유 례
유례 없</w>
유 랑</w>
유 년</w>
유 가족</w>
윙윙 거리</w>
윙 크</w>
윗 자리</w>
윗 사람들</w>
윈도 우</w>
윈 도</w>
위풍 당당한</w>
위반 자</w>
위령 제</w>
위기 의식</w>
위 헌
위 장
위 용</w>
위 압적</w>
위 선자</w>
웰 빙</w>
웨지 힐</w>
월 평균</w>
월 초</w>
월 권</w>
원정 팀</w>
원 천
원 주민들</w>
원 져우</w>
원 용</w>
원 상
원 사</w>
원 리
원 력</w>
원 격
워 터
웅변 대회</w>
웃 옷</w>
울 릉
울 고불
운전 사들</w>
운동 량</w>
운 용
운 무</w>
우중 충</w>
우주 왕복선</w>
우유 팩</w>
우유 병</w>
우아 함</w>
우물쭈 물</w>
우 직하</w>
우 절</w>
우 익
우 상화</w>
우 락
우락 부
우락부 락하</w>
우 는
우 군</w>
용 암</w>
용 사들</w>
용 력</w>
욕 해</w>
욕 보이</w>
요양 원</w>
요 체</w>
요 원한</w>
요 소들</w>
요 사</w>
요 미
요 런</w>
요 구도</w>
요 가</w>
왼 편</w>
왼 팔</w>
외국 자본</w>
외국 산</w>
외국 계</w>
외계 인</w>
외 화
외 자</w>
외 설적</w>
외 벽</w>
외 람</w>
외 딴
왕희 지</w>
왕 족</w>
왕 동지</w>
왕 도</w>
왕 권</w>
완전 치</w>
완 제품</w>
완 강한</w>
와 일
옹 알
옹 기</w>
올스타 전</w>
올빼 미
올리브 유</w>
온 정</w>
온 밤</w>
온 라인상</w>
온 데
온데 간
온데간 데
온 난</w>
온 건
옥 수수
오징 어
오리 발</w>
오르 간</w>
오두 막
오 합지졸</w>
오 픈
오 찬</w>
오 븐</w>
오 바</w>
예상 대로</w>
예사 로</w>
예 찬</w>
예 복</w>
예 단</w>
예 교</w>
영화 시장</w>
영예 로운</w>
영업 액</w>
영업 사원</w>
영양 사</w>
영 토
영 명한</w>
영 구
엽 기</w>
염색 약</w>
염 료</w>
염 기</w>
열 도</w>
열 기구</w>
연설 자</w>
연설 문</w>
연락 선</w>
연락 망</w>
연기 해</w>
연 회장</w>
연 해안</w>
연 정</w>
연 립</w>
연 륜</w>
연 둣
연둣 빛</w>
연 동</w>
연 가</w>
역사 학</w>
역 주행</w>
역 방향</w>
여행 기</w>
여자 아이들</w>
여 진</w>
여 섯
여 관
여 공</w>
에서 처럼</w>
에 프
에 의</w>
에 든</w>
에 나
엉 겁결</w>
었으 면서</w>
었 겠니</w>
없 다
엄 혹</w>
얽 어매</w>
얼큰 하</w>
얼씨 구</w>
얼룩 말</w>
얼굴 형</w>
얼 어
얼 른
얼 대</w>
얻어 먹었다</w>
얻어 먹</w>
억 울
어학 연수</w>
어질 어
어질어 질하</w>
어지 간히</w>
어제 오늘</w>
어슬 렁거리</w>
어버 이</w>
어리 광</w>
어떠 세요</w>
어 안</w>
어 슷
어 스</w>
어 순</w>
어 색
어 사</w>
어 부지
어부지 리</w>
어 려
어 드
어 다오</w>
얘 기
양지 바르</w>
양 아치</w>
양 식장</w>
양 산
양 귀
양귀 비</w>
양 군</w>
양 가죽</w>
양 가</w>
약혼 녀</w>
약 체</w>
약 제</w>
야생 마</w>
야금 야금</w>
야 후</w>
야 영
야 시장</w>
야 속</w>
야 만인</w>
앵 커</w>
액 체
액 정
애매 모호</w>
애 칭</w>
애 처로운</w>
애 자</w>
애 드
앙 스</w>
압 수수
압수수 색</w>
암벽 등반</w>
알파 벳</w>
알코 올
알알 하</w>
알 바
알 려
알 량</w>
앉 다</w>
안전보장 이사회</w>
안식 처</w>
안 주인</w>
안 정화</w>
안 약</w>
안 빈
안 광</w>
악 질적</w>
악 무도</w>
악 곡</w>
아토 피</w>
아침 식사</w>
아지 랑이</w>
아주 머
아이러 니</w>
아삭아삭 하</w>
아뿔 싸</w>
아바 타</w>
아마 존</w>
아랫 부분</w>
아들 아이</w>
아 트
아 쿠
아 로
아로 새기</w>
아 디
아 답니다</w>
아 뇨</w>
아 기자
아기자 기한</w>
아 건</w>
아 ㄹ지</w>
씹 히</w>
씨 네</w>
쓸 개</w>
쓴 이</w>
쓰 촨
쓰 임새</w>
쑥 덕거리</w>
썩 썩</w>
쌩 하</w>
쌍 방향</w>
싼시아 댐</w>
싹 쓸
싸 개</w>
심부 름
심리 상태</w>
심각 히</w>
심 층
심 야
심 산</w>
실험 용</w>
실사구 시적</w>
실리 콘</w>
실감 나</w>
실 직자</w>
실 조</w>
실 실</w>
신화 통신</w>
신혼 살림</w>
신입 사원들</w>
신성 불가침</w>
신발 장</w>
신명 나</w>
신뢰 감</w>
신경 통</w>
신 흥
[...]
